{
  "version": "1.0",
  "truncation": null,
  "padding": null,
  "added_tokens": [
    {
      "id": 0,
      "content": "[PAD]",
      "single_word": false,
      "lstrip": false,
      "rstrip": false,
      "normalized": false,
      "special": true
    },
    {
      "id": 1,
      "content": "[UNK]",
      "single_word": false,
      "lstrip": false,
      "rstrip": false,
      "normalized": false,
      "special": true
    },
    {
      "id": 2,
      "content": "[CLS]",
      "single_word": false,
      "lstrip": false,
      "rstrip": false,
      "normalized": false,
      "special": true
    },
    {
      "id": 3,
      "content": "[SEP]",
      "single_word": false,
      "lstrip": false,
      "rstrip": false,
      "normalized": false,
      "special": true
    },
    {
      "id": 4,
      "content": "[MASK]",
      "single_word": false,
      "lstrip": false,
      "rstrip": false,
      "normalized": false,
      "special": true
    }
  ],
  "normalizer": null,
  "pre_tokenizer": {
    "type": "Whitespace"
  },
  "post_processor": null,
  "decoder": null,
  "model": {
    "type": "BPE",
    "dropout": null,
    "unk_token": null,
    "continuing_subword_prefix": null,
    "end_of_word_suffix": null,
    "fuse_unk": false,
    "byte_fallback": false,
    "vocab": {
      "[PAD]": 0,
      "[UNK]": 1,
      "[CLS]": 2,
      "[SEP]": 3,
      "[MASK]": 4,
      "\"": 5,
      "$": 6,
      "'": 7,
      "(": 8,
      ")": 9,
      "*": 10,
      "+": 11,
      ",": 12,
      "-": 13,
      ".": 14,
      "/": 15,
      "0": 16,
      "1": 17,
      "2": 18,
      "3": 19,
      "4": 20,
      "5": 21,
      "6": 22,
      "7": 23,
      "8": 24,
      "9": 25,
      ":": 26,
      ";": 27,
      "=": 28,
      "A": 29,
      "B": 30,
      "C": 31,
      "D": 32,
      "E": 33,
      "F": 34,
      "G": 35,
      "H": 36,
      "I": 37,
      "K": 38,
      "L": 39,
      "M": 40,
      "N": 41,
      "O": 42,
      "P": 43,
      "R": 44,
      "S": 45,
      "T": 46,
      "U": 47,
      "V": 48,
      "W": 49,
      "X": 50,
      "Y": 51,
      "Z": 52,
      "\\": 53,
      "^": 54,
      "_": 55,
      "a": 56,
      "b": 57,
      "c": 58,
      "d": 59,
      "e": 60,
      "f": 61,
      "g": 62,
      "h": 63,
      "i": 64,
      "j": 65,
      "k": 66,
      "l": 67,
      "m": 68,
      "n": 69,
      "o": 70,
      "p": 71,
      "q": 72,
      "r": 73,
      "s": 74,
      "t": 75,
      "u": 76,
      "v": 77,
      "w": 78,
      "x": 79,
      "y": 80,
      "z": 81,
      "{": 82,
      "}": 83,
      "°": 84,
      "²": 85,
      "³": 86,
      "¹": 87,
      "Å": 88,
      "Ì": 89,
      "â": 90,
      "ƒ": 91,
      "̅": 92,
      "π": 93,
      "σ": 94,
      "–": 95,
      "‚": 96,
      "…": 97,
      "⁰": 98,
      "⁴": 99,
      "⁵": 100,
      "⁶": 101,
      "⁷": 102,
      "⁸": 103,
      "⁺": 104,
      "⁻": 105,
      "₀": 106,
      "₁": 107,
      "₂": 108,
      "₃": 109,
      "₄": 110,
      "₅": 111,
      "₆": 112,
      "₇": 113,
      "₈": 114,
      "₉": 115,
      "≡": 116,
      "he": 117,
      "on": 118,
      "le": 119,
      "at": 120,
      "the": 121,
      "in": 122,
      "an": 123,
      "om": 124,
      "bon": 125,
      "ar": 126,
      "or": 127,
      "it": 128,
      "is": 129,
      "bond": 130,
      "al": 131,
      "en": 132,
      "atom": 133,
      "and": 134,
      "ed": 135,
      "len": 136,
      "The": 137,
      "of": 138,
      "th": 139,
      "cu": 140,
      "re": 141,
      "tr": 142,
      "ac": 143,
      "to": 144,
      "atoms": 145,
      "ro": 146,
      "iv": 147,
      "ole": 148,
      "er": 149,
      "ic": 150,
      "ate": 151,
      "orb": 152,
      "ing": 153,
      "es": 154,
      "alen": 155,
      "tw": 156,
      "alent": 157,
      "ith": 158,
      "with": 159,
      "olecu": 160,
      "ur": 161,
      "molecu": 162,
      "qu": 163,
      "gen": 164,
      "are": 165,
      "equ": 166,
      "ivalent": 167,
      "equivalent": 168,
      "ds": 169,
      "ra": 170,
      "ct": 171,
      "ge": 172,
      "molecule": 173,
      "ace": 174,
      "sit": 175,
      "dsorb": 176,
      "car": 177,
      "hed": 178,
      "ahed": 179,
      "carbon": 180,
      "In": 181,
      "etr": 182,
      "for": 183,
      "bonded": 184,
      "as": 185,
      "hy": 186,
      "di": 187,
      "gth": 188,
      "ahedra": 189,
      "length": 190,
      "ly": 191,
      "two": 192,
      "adsorb": 193,
      "oct": 194,
      "CH": 195,
      "si": 196,
      "site": 197,
      "sp": 198,
      "xy": 199,
      "co": 200,
      "ent": 201,
      "face": 202,
      "ital": 203,
      "twe": 204,
      "octahedra": 205,
      "tic": 206,
      "form": 207,
      "rogen": 208,
      "be": 209,
      "sh": 210,
      "cat": 211,
      "aly": 212,
      "orbital": 213,
      "cataly": 214,
      "oxy": 215,
      "sur": 216,
      "ang": 217,
      "st": 218,
      "oxygen": 219,
      "lar": 220,
      "one": 221,
      "ap": 222,
      "surface": 223,
      "de": 224,
      "ometr": 225,
      "geometr": 226,
      "geometry": 227,
      "fo": 228,
      "cub": 229,
      "four": 230,
      "im": 231,
      "has": 232,
      "tween": 233,
      "between": 234,
      "There": 235,
      "adsorbate": 236,
      "pro": 237,
      "ig": 238,
      "Al": 239,
      "catalytic": 240,
      "ter": 241,
      "ele": 242,
      "ctr": 243,
      "electr": 244,
      "cor": 245,
      "xim": 246,
      "ately": 247,
      "cuboctahedra": 248,
      "ner": 249,
      "corner": 250,
      "ist": 251,
      "appro": 252,
      "ximately": 253,
      "approximately": 254,
      "ion": 255,
      "rou": 256,
      "hyd": 257,
      "ri": 258,
      "grou": 259,
      "lengths": 260,
      "angle": 261,
      "bri": 262,
      "group": 263,
      "wh": 264,
      "hydrogen": 265,
      "pole": 266,
      "all": 267,
      "dist": 268,
      "ir": 269,
      "ive": 270,
      "igh": 271,
      "po": 272,
      "six": 273,
      "pl": 274,
      "dipole": 275,
      "con": 276,
      "mom": 277,
      "moment": 278,
      "orbitals": 279,
      "se": 280,
      "electron": 281,
      "il": 282,
      "molecular": 283,
      "ind": 284,
      "that": 285,
      "hybri": 286,
      "ol": 287,
      "din": 288,
      "ordin": 289,
      "coordin": 290,
      "coordinate": 291,
      "OH": 292,
      "ight": 293,
      "ree": 294,
      "bonding": 295,
      "three": 296,
      "rom": 297,
      "ch": 298,
      "from": 299,
      "CH2": 300,
      "nit": 301,
      "²⁻": 302,
      "Ti": 303,
      "eight": 304,
      "ical": 305,
      "char": 306,
      "nitrogen": 307,
      "str": 308,
      "ou": 309,
      "shar": 310,
      "valent": 311,
      "covalent": 312,
      "ces": 313,
      "electrons": 314,
      "corners": 315,
      ").": 316,
      "aced": 317,
      "placed": 318,
      "sharing": 319,
      "Pd": 320,
      "bonds": 321,
      "onal": 322,
      "bind": 323,
      "binding": 324,
      "ce": 325,
      "Se": 326,
      "mi": 327,
      "tetr": 328,
      "iz": 329,
      "Si": 330,
      "yst": 331,
      "act": 332,
      "ma": 333,
      "mp": 334,
      "ich": 335,
      "which": 336,
      "ve": 337,
      "ille": 338,
      "ad": 339,
      "cr": 340,
      "ges": 341,
      "Ni": 342,
      "by": 343,
      "ow": 344,
      "ty": 345,
      "adsorbed": 346,
      "10": 347,
      "Ga": 348,
      "Pt": 349,
      "Mille": 350,
      "Miller": 351,
      "Adsorb": 352,
      "Inde": 353,
      "Adsorbate": 354,
      "Index": 355,
      "space": 356,
      "alliz": 357,
      "ystalliz": 358,
      "crystalliz": 359,
      "crystallizes": 360,
      "Te": 361,
      "diz": 362,
      "hybridiz": 363,
      "gat": 364,
      "als": 365,
      "distan": 366,
      "polar": 367,
      "edges": 368,
      "rang": 369,
      "distances": 370,
      "ure": 371,
      "ity": 372,
      "read": 373,
      "spread": 374,
      "ranging": 375,
      "ze": 376,
      "ver": 377,
      "ted": 378,
      "deg": 379,
      "uct": 380,
      "As": 381,
      "eth": 382,
      "rees": 383,
      "degrees": 384,
      "ip": 385,
      "Hf": 386,
      "nd": 387,
      "struct": 388,
      "par": 389,
      "All": 390,
      "fac": 391,
      "faces": 392,
      "hem": 393,
      "Ca": 394,
      "ation": 395,
      "share": 396,
      "²⁺": 397,
      "angles": 398,
      "chem": 399,
      "Zr": 400,
      "ti": 401,
      "ul": 402,
      "chemical": 403,
      "orted": 404,
      "distorted": 405,
      "₁₂": 406,
      "ile": 407,
      "ong": 408,
      "ne": 409,
      "while": 410,
      "Cu": 411,
      "Na": 412,
      "ach": 413,
      "cond": 414,
      "Sb": 415,
      "12": 416,
      "also": 417,
      "ine": 418,
      "¹⁺": 419,
      "du": 420,
      "CH3": 421,
      "yl": 422,
      "each": 423,
      "op": 424,
      "fir": 425,
      "second": 426,
      "first": 427,
      "inequivalent": 428,
      "sites": 429,
      "Zn": 430,
      "due": 431,
      "size": 432,
      "sing": 433,
      "sig": 434,
      "its": 435,
      "³⁺": 436,
      "Sn": 437,
      "Ge": 438,
      "atop": 439,
      "long": 440,
      "orter": 441,
      "shorter": 442,
      "longer": 443,
      "catalyst": 444,
      "Rh": 445,
      "typ": 446,
      "ivity": 447,
      "tetrahedra": 448,
      "un": 449,
      "yra": 450,
      "yrami": 451,
      "Ag": 452,
      "edge": 453,
      "hybridized": 454,
      "type": 455,
      "twel": 456,
      "Nb": 457,
      "air": 458,
      "action": 459,
      "can": 460,
      "Sc": 461,
      "twelve": 462,
      "inter": 463,
      "res": 464,
      "onegat": 465,
      "electronegat": 466,
      "ag": 467,
      "pair": 468,
      "ahedr": 469,
      "charge": 470,
      "yramids": 471,
      "mm": 472,
      "acter": 473,
      "character": 474,
      "hybrid": 475,
      "Mo": 476,
      "single": 477,
      "agonal": 478,
      "parti": 479,
      "Au": 480,
      "Sr": 481,
      "kn": 482,
      "own": 483,
      "known": 484,
      "ahedral": 485,
      "18": 486,
      "if": 487,
      "ured": 488,
      "It": 489,
      "pi": 490,
      "partial": 491,
      "ha": 492,
      "CO": 493,
      "°.": 494,
      "¹⁻": 495,
      "Ta": 496,
      "Co": 497,
      "cubic": 498,
      "³⁻": 499,
      "sp3": 500,
      "ence": 501,
      "structured": 502,
      "me": 503,
      "five": 504,
      "trig": 505,
      "trigonal": 506,
      "istic": 507,
      "characteristic": 508,
      "line": 509,
      "linear": 510,
      "characteristics": 511,
      "oc": 512,
      "fer": 513,
      "ab": 514,
      "electronegativity": 515,
      "ture": 516,
      "xture": 517,
      "mixture": 518,
      "iple": 519,
      "bye": 520,
      "over": 521,
      "com": 522,
      "lene": 523,
      "triple": 524,
      "11": 525,
      "Bi": 526,
      "De": 527,
      "ant": 528,
      "Fe": 529,
      "CHO": 530,
      "plan": 531,
      "Ru": 532,
      "NH": 533,
      "out": 534,
      "Cr": 535,
      "NO": 536,
      "formul": 537,
      "formula": 538,
      "Ir": 539,
      "Debye": 540,
      "CH2OH": 541,
      "bo": 542,
      "interaction": 543,
      "sist": 544,
      "ific": 545,
      "planar": 546,
      "Mn": 547,
      "consist": 548,
      "ther": 549,
      "ffer": 550,
      "differ": 551,
      "sigma": 552,
      "mol": 553,
      "no": 554,
      "carbonyl": 555,
      "arou": 556,
      "around": 557,
      "CHOH": 558,
      "posit": 559,
      "der": 560,
      "til": 561,
      "te": 562,
      "Cd": 563,
      "other": 564,
      "Pb": 565,
      "ble": 566,
      "lone": 567,
      "ively": 568,
      "have": 569,
      "2p": 570,
      "ran": 571,
      "negat": 572,
      "structure": 573,
      "180": 574,
      "vol": 575,
      "sm": 576,
      "lap": 577,
      "overlap": 578,
      "small": 579,
      "pyramids": 580,
      "C2": 581,
      "Cl": 582,
      "hybridization": 583,
      "indic": 584,
      "ding": 585,
      "anol": 586,
      "Rb": 587,
      "120": 588,
      "octahedral": 589,
      "⁴⁺": 590,
      "gly": 591,
      "about": 592,
      "ta": 593,
      "thir": 594,
      "tilt": 595,
      "invol": 596,
      "COH": 597,
      "us": 598,
      "dy": 599,
      "positive": 600,
      "negative": 601,
      "nific": 602,
      "signific": 603,
      "significant": 604,
      "dge": 605,
      "bridge": 606,
      "per": 607,
      "term": 608,
      "20": 609,
      "low": 610,
      "ating": 611,
      "109": 612,
      "range": 613,
      "cent": 614,
      "center": 615,
      "teen": 616,
      "ke": 617,
      "pres": 618,
      "Hg": 619,
      "sp2": 620,
      "difference": 621,
      "third": 622,
      "tion": 623,
      "Over": 624,
      "Overall": 625,
      "acety": 626,
      "formed": 627,
      "dical": 628,
      "radical": 629,
      "body": 630,
      "centered": 631,
      "bu": 632,
      "ven": 633,
      "C2H": 634,
      "ult": 635,
      "Tl": 636,
      "meth": 637,
      "tri": 638,
      "result": 639,
      "09": 640,
      "weight": 641,
      "ide": 642,
      "whe": 643,
      "non": 644,
      "strom": 645,
      "squ": 646,
      "square": 647,
      "stroms": 648,
      "hydro": 649,
      "occu": 650,
      "dou": 651,
      "double": 652,
      "shap": 653,
      "involv": 654,
      "react": 655,
      "lu": 656,
      "bip": 657,
      "where": 658,
      "tain": 659,
      "hydroxy": 660,
      "Re": 661,
      "Bo": 662,
      "Both": 663,
      "seven": 664,
      "3m": 665,
      "any": 666,
      "ten": 667,
      "groups": 668,
      "col": 669,
      "glycol": 670,
      "lat": 671,
      "relat": 672,
      "relatively": 673,
      "bipyramids": 674,
      "ylene": 675,
      "indicating": 676,
      "54": 677,
      "16": 678,
      "tribu": 679,
      "tetrahedral": 680,
      "Os": 681,
      "methyl": 682,
      "Bon": 683,
      "bic": 684,
      "atomic": 685,
      "li": 686,
      "like": 687,
      "ses": 688,
      "hol": 689,
      "gstroms": 690,
      "ngstroms": 691,
      "hom": 692,
      "orhom": 693,
      "thorhom": 694,
      "thorhombic": 695,
      "33": 696,
      "ari": 697,
      "67": 698,
      "rect": 699,
      "contain": 700,
      "orthorhombic": 701,
      "alence": 702,
      "42": 703,
      "Th": 704,
      "This": 705,
      "̅3m": 706,
      "zero": 707,
      "96": 708,
      "CH2O": 709,
      "O2": 710,
      "Cs": 711,
      "contains": 712,
      "acetylene": 713,
      "und": 714,
      "Angstroms": 715,
      "ads": 716,
      "id": 717,
      "⁴⁻": 718,
      "ment": 719,
      "2s": 720,
      "van": 721,
      "ption": 722,
      "orption": 723,
      "Wa": 724,
      "Waals": 725,
      "Eth": 726,
      "consists": 727,
      "consisting": 728,
      "),": 729,
      "08": 730,
      "electronic": 731,
      "valence": 732,
      "shape": 733,
      "xagonal": 734,
      "compo": 735,
      "Tc": 736,
      "15": 737,
      "43": 738,
      "pent": 739,
      "pentagonal": 740,
      "07": 741,
      "unpair": 742,
      "unpaired": 743,
      "62": 744,
      "su": 745,
      "hexagonal": 746,
      "ined": 747,
      "69": 748,
      "pairs": 749,
      "55": 750,
      "tetragonal": 751,
      "adsorption": 752,
      "ymm": 753,
      "ymmetr": 754,
      "reaction": 755,
      "reactions": 756,
      "2nd": 757,
      "tal": 758,
      "polarity": 759,
      "ises": 760,
      "hydroxyl": 761,
      "05": 762,
      "ient": 763,
      "resulting": 764,
      "war": 765,
      "towar": 766,
      "towards": 767,
      "mon": 768,
      "53": 769,
      "direct": 770,
      "gh": 771,
      "rough": 772,
      "interactions": 773,
      "reactivity": 774,
      "anti": 775,
      "ame": 776,
      "85": 777,
      "ore": 778,
      "main": 779,
      "OCH3": 780,
      "ticip": 781,
      "arises": 782,
      "clu": 783,
      "hollow": 784,
      "lin": 785,
      "forms": 786,
      "ethanol": 787,
      "ite": 788,
      "fourth": 789,
      "unhybridized": 790,
      "present": 791,
      "47": 792,
      "m̅3m": 793,
      "spe": 794,
      "50": 795,
      "formation": 796,
      "ies": 797,
      "involves": 798,
      "direction": 799,
      "determ": 800,
      "edi": 801,
      "dis": 802,
      "light": 803,
      "slight": 804,
      "particip": 805,
      "participate": 806,
      "22": 807,
      "through": 808,
      "40": 809,
      "nine": 810,
      "linic": 811,
      "71": 812,
      "74": 813,
      "forming": 814,
      "mean": 815,
      "ional": 816,
      "py": 817,
      "pen": 818,
      "radi": 819,
      "radius": 820,
      "Or": 821,
      "pm": 822,
      "bital": 823,
      "Orbital": 824,
      "CH2CH3": 825,
      "more": 826,
      "mak": 827,
      "may": 828,
      "occupi": 829,
      "sixteen": 830,
      "we": 831,
      "orient": 832,
      "determined": 833,
      "oriented": 834,
      "ex": 835,
      "mo": 836,
      "ox": 837,
      "equal": 838,
      "symmetr": 839,
      "ome": 840,
      "60": 841,
      "presence": 842,
      "terms": 843,
      "88": 844,
      "fourteen": 845,
      "cen": 846,
      "tral": 847,
      "central": 848,
      "ca": 849,
      "she": 850,
      "vari": 851,
      "ll": 852,
      "°,": 853,
      "distribu": 854,
      "cy": 855,
      "antibonding": 856,
      "these": 857,
      "COCH2O": 858,
      "remain": 859,
      "remaining": 860,
      "um": 861,
      "inclu": 862,
      "mmm": 863,
      "ous": 864,
      "58": 865,
      "32": 866,
      "06": 867,
      "1s": 868,
      "44": 869,
      "CCH2": 870,
      "hav": 871,
      "57": 872,
      "hyde": 873,
      "dehyde": 874,
      "ters": 875,
      "ometers": 876,
      "02": 877,
      "not": 878,
      "oclinic": 879,
      "monoclinic": 880,
      "46": 881,
      "P6": 882,
      "ethoxy": 883,
      "high": 884,
      "interact": 885,
      "52": 886,
      "por": 887,
      "tant": 888,
      "impor": 889,
      "important": 890,
      "spec": 891,
      "occupied": 892,
      "acet": 893,
      "symmetrical": 894,
      "14": 895,
      "molecules": 896,
      "various": 897,
      "llow": 898,
      "follow": 899,
      "Di": 900,
      "Molecu": 901,
      "Bond": 902,
      "Bonding": 903,
      "Dipole": 904,
      "Molecular": 905,
      "den": 906,
      "CN": 907,
      "CCO": 908,
      "CH2CH2OH": 909,
      "cyan": 910,
      "ethan": 911,
      "75": 912,
      "comb": 913,
      "net": 914,
      "both": 915,
      "73": 916,
      "ethanedi": 917,
      "wat": 918,
      "water": 919,
      "occupy": 920,
      "pr": 921,
      "including": 922,
      "Ethylene": 923,
      "66": 924,
      "tes": 925,
      "65": 926,
      "ethylene": 927,
      "ince": 928,
      "19": 929,
      "making": 930,
      "107": 931,
      "hig": 932,
      "highe": 933,
      "89": 934,
      "slightly": 935,
      "electronegative": 936,
      "strong": 937,
      "proces": 938,
      "men": 939,
      "cau": 940,
      "25": 941,
      "45": 942,
      "cel": 943,
      "cancel": 944,
      "MO": 945,
      "gan": 946,
      "organ": 947,
      "organic": 948,
      "dimen": 949,
      "sional": 950,
      "dimensional": 951,
      "These": 952,
      "near": 953,
      "et": 954,
      "sheet": 955,
      "resp": 956,
      "respon": 957,
      "68": 958,
      "NO2": 959,
      "contribu": 960,
      "70": 961,
      "used": 962,
      "nol": 963,
      "fif": 964,
      "ates": 965,
      "indicates": 966,
      "cular": 967,
      "93": 968,
      "dit": 969,
      "information": 970,
      "oxal": 971,
      "49": 972,
      "CCH": 973,
      "I4": 974,
      "surfaces": 975,
      "Pro": 976,
      "76": 977,
      "giv": 978,
      "gives": 979,
      "21": 980,
      "ary": 981,
      "ental": 982,
      "imental": 983,
      "perimental": 984,
      "experimental": 985,
      "82": 986,
      "ethanediol": 987,
      "same": 988,
      "₃/": 989,
      "distribution": 990,
      "panol": 991,
      "Propanol": 992,
      "COHCHO": 993,
      "having": 994,
      "compound": 995,
      "104": 996,
      "51": 997,
      "such": 998,
      "ged": 999,
      "charged": 1000,
      "ium": 1001,
      "since": 1002,
      "wid": 1003,
      "width": 1004,
      "59": 1005,
      "ature": 1006,
      "48": 1007,
      "em": 1008,
      "involved": 1009,
      "sed": 1010,
      "composed": 1011,
      "N2": 1012,
      "syst": 1013,
      "system": 1014,
      "CCHO": 1015,
      "97": 1016,
      "Fm̅3m": 1017,
      "ethy": 1018,
      "prim": 1019,
      "acetyl": 1020,
      "val": 1021,
      "Its": 1022,
      "86": 1023,
      "lo": 1024,
      "able": 1025,
      "results": 1026,
      "C2H5": 1027,
      "23": 1028,
      "81": 1029,
      "fifth": 1030,
      "processes": 1031,
      "under": 1032,
      "80": 1033,
      "79": 1034,
      "cm": 1035,
      "reactive": 1036,
      "arily": 1037,
      "primarily": 1038,
      "partially": 1039,
      "13": 1040,
      "sses": 1041,
      "posses": 1042,
      "allow": 1043,
      "within": 1044,
      "NH3": 1045,
      "glyoxal": 1046,
      "fig": 1047,
      "uration": 1048,
      "config": 1049,
      "configuration": 1050,
      "highly": 1051,
      "ial": 1052,
      "ting": 1053,
      "sever": 1054,
      "several": 1055,
      "78": 1056,
      "theor": 1057,
      "pic": 1058,
      "picometers": 1059,
      "arrange": 1060,
      "arrangement": 1061,
      "64": 1062,
      "ser": 1063,
      "forces": 1064,
      "mmc": 1065,
      "P4": 1066,
      "90": 1067,
      "unequal": 1068,
      "04": 1069,
      "well": 1070,
      "overall": 1071,
      "dicular": 1072,
      "perpen": 1073,
      "perpendicular": 1074,
      "72": 1075,
      "nature": 1076,
      "34": 1077,
      "₁₀": 1078,
      "NH2": 1079,
      "moder": 1080,
      "83": 1081,
      "end": 1082,
      "make": 1083,
      "separ": 1084,
      "separation": 1085,
      "refer": 1086,
      "TiTi": 1087,
      "Ad": 1088,
      "ionally": 1089,
      "ditionally": 1090,
      "Additionally": 1091,
      "He": 1092,
      "118": 1093,
      "ated": 1094,
      "means": 1095,
      "acetate": 1096,
      "pul": 1097,
      "ination": 1098,
      "combination": 1099,
      "56": 1100,
      "cyano": 1101,
      "gne": 1102,
      "magne": 1103,
      "magnetic": 1104,
      "29": 1105,
      "Pn": 1106,
      "41": 1107,
      "C2H2": 1108,
      "24": 1109,
      "yramid": 1110,
      "77": 1111,
      "catalysts": 1112,
      "(-": 1113,
      "hys": 1114,
      "proper": 1115,
      "ties": 1116,
      "properties": 1117,
      "Ace": 1118,
      "sible": 1119,
      "COCHO": 1120,
      "responsible": 1121,
      "moments": 1122,
      "CHCH2": 1123,
      "ized": 1124,
      "being": 1125,
      "110": 1126,
      "CCH2OH": 1127,
      "twent": 1128,
      "flu": 1129,
      "charges": 1130,
      "becau": 1131,
      "ethynol": 1132,
      "because": 1133,
      "ities": 1134,
      "shaped": 1135,
      "63": 1136,
      "61": 1137,
      "CH2CO": 1138,
      "influ": 1139,
      "OHNH2": 1140,
      "twenty": 1141,
      "total": 1142,
      "fille": 1143,
      "filled": 1144,
      "een": 1145,
      "edgeedge": 1146,
      "meas": 1147,
      "loc": 1148,
      "meaning": 1149,
      "represent": 1150,
      "systems": 1151,
      "than": 1152,
      "84": 1153,
      "fun": 1154,
      "ctional": 1155,
      "functional": 1156,
      "higher": 1157,
      "taldehyde": 1158,
      "clo": 1159,
      "state": 1160,
      "ground": 1161,
      "alco": 1162,
      "mcm": 1163,
      "ions": 1164,
      "uc": 1165,
      "aw": 1166,
      "saw": 1167,
      "see": 1168,
      "P2": 1169,
      "⁵⁺": 1170,
      "AlTi": 1171,
      "depen": 1172,
      "go": 1173,
      "ues": 1174,
      "values": 1175,
      "ilic": 1176,
      "there": 1177,
      "poin": 1178,
      "nonpolar": 1179,
      "30": 1180,
      "eighteen": 1181,
      "diatomic": 1182,
      "coplanar": 1183,
      "Pnma": 1184,
      "92": 1185,
      "6O2": 1186,
      "TiSe": 1187,
      "ilicide": 1188,
      "refers": 1189,
      "abil": 1190,
      "ations": 1191,
      "ived": 1192,
      "derived": 1193,
      "CHCHO": 1194,
      "121": 1195,
      "contributes": 1196,
      "alcohol": 1197,
      "116": 1198,
      "C3": 1199,
      "C3H": 1200,
      "99": 1201,
      "P̅": 1202,
      "CCH3": 1203,
      "35": 1204,
      "theory": 1205,
      "tilted": 1206,
      "COCH3": 1207,
      "species": 1208,
      "different": 1209,
      "sc": 1210,
      "36": 1211,
      "shared": 1212,
      "moderate": 1213,
      "specific": 1214,
      "91": 1215,
      "sixth": 1216,
      "Pm̅3m": 1217,
      "ju": 1218,
      "ler": 1219,
      "87": 1220,
      "pla": 1221,
      "sol": 1222,
      "ak": 1223,
      "weak": 1224,
      "jac": 1225,
      "adjac": 1226,
      "COHCOH": 1227,
      "adjacent": 1228,
      "ideal": 1229,
      "phys": 1230,
      "COHCHOH": 1231,
      "37": 1232,
      "diame": 1233,
      "diameter": 1234,
      "95": 1235,
      "influence": 1236,
      "aldehyde": 1237,
      "tac": 1238,
      "attac": 1239,
      "attached": 1240,
      "94": 1241,
      "ability": 1242,
      "Ethanol": 1243,
      "01": 1244,
      "involve": 1245,
      "Uran": 1246,
      "Uranium": 1247,
      "carri": 1248,
      "pyramid": 1249,
      "ple": 1250,
      "comple": 1251,
      "Silicide": 1252,
      "unit": 1253,
      "sion": 1254,
      "amagnetic": 1255,
      "paramagnetic": 1256,
      "possesses": 1257,
      "zine": 1258,
      "razine": 1259,
      "angstroms": 1260,
      "hydrazine": 1261,
      "pha": 1262,
      "usler": 1263,
      "Heusler": 1264,
      "follows": 1265,
      "111": 1266,
      "sheets": 1267,
      "serv": 1268,
      "stable": 1269,
      "ost": 1270,
      "shares": 1271,
      "ie": 1272,
      "they": 1273,
      "pointing": 1274,
      "faceface": 1275,
      "ance": 1276,
      "common": 1277,
      "NNO": 1278,
      "cre": 1279,
      "following": 1280,
      "38": 1281,
      "od": 1282,
      "dia": 1283,
      "bent": 1284,
      "do": 1285,
      "xime": 1286,
      "ular": 1287,
      "angular": 1288,
      "rectangular": 1289,
      "cted": 1290,
      "conne": 1291,
      "connected": 1292,
      "C2H6O2": 1293,
      "otes": 1294,
      "denotes": 1295,
      "31": 1296,
      "ene": 1297,
      "zene": 1298,
      "iron": 1299,
      "diazene": 1300,
      "entical": 1301,
      "identical": 1302,
      "98": 1303,
      "triatomic": 1304,
      "formate": 1305,
      "00": 1306,
      "alpha": 1307,
      "cruc": 1308,
      "crucial": 1309,
      "positively": 1310,
      "negatively": 1311,
      "depending": 1312,
      "sity": 1313,
      "asymmetr": 1314,
      "density": 1315,
      "asymmetric": 1316,
      "many": 1317,
      "am": 1318,
      "17": 1319,
      "attr": 1320,
      "acted": 1321,
      "attracted": 1322,
      "indu": 1323,
      "beta": 1324,
      "015": 1325,
      "triplet": 1326,
      "39": 1327,
      "vary": 1328,
      "119": 1329,
      "you": 1330,
      "28": 1331,
      "σ1": 1332,
      "stren": 1333,
      "27": 1334,
      "cal": 1335,
      "26": 1336,
      "viron": 1337,
      "environ": 1338,
      "stu": 1339,
      "environment": 1340,
      "₁/": 1341,
      "carbons": 1342,
      "simp": 1343,
      "simple": 1344,
      "bor": 1345,
      "hydroxyacetylene": 1346,
      "using": 1347,
      "stand": 1348,
      "ically": 1349,
      "unoccupied": 1350,
      "metal": 1351,
      "onto": 1352,
      "most": 1353,
      "6O": 1354,
      "role": 1355,
      "play": 1356,
      "nearby": 1357,
      "just": 1358,
      "alized": 1359,
      "this": 1360,
      "plane": 1361,
      "Acety": 1362,
      "localized": 1363,
      "ighbor": 1364,
      "neighbor": 1365,
      "neighboring": 1366,
      "03": 1367,
      "often": 1368,
      "VS": 1369,
      "acetone": 1370,
      "OCH2CH3": 1371,
      "ientific": 1372,
      "C2H5O": 1373,
      "scientific": 1374,
      "undergo": 1375,
      "cornercorner": 1376,
      "HO": 1377,
      "est": 1378,
      "highest": 1379,
      "HOMO": 1380,
      "nan": 1381,
      "nanometers": 1382,
      "114": 1383,
      "erg": 1384,
      "polarities": 1385,
      "medi": 1386,
      "intermedi": 1387,
      "sub": 1388,
      "intermediate": 1389,
      "surrou": 1390,
      "nding": 1391,
      "surrounding": 1392,
      "ers": 1393,
      "cyanide": 1394,
      "eleven": 1395,
      "nitr": 1396,
      "²⁺,": 1397,
      "lf": 1398,
      "itse": 1399,
      "CHCO": 1400,
      "dipoles": 1401,
      "itself": 1402,
      "their": 1403,
      "uent": 1404,
      "ituent": 1405,
      "stituent": 1406,
      "constituent": 1407,
      "CHOHCH2": 1408,
      "close": 1409,
      "covalently": 1410,
      "ences": 1411,
      "respe": 1412,
      "ctively": 1413,
      "respectively": 1414,
      "our": 1415,
      "energ": 1416,
      "been": 1417,
      "NHNH": 1418,
      "experimentally": 1419,
      "energy": 1420,
      "free": 1421,
      "vin": 1422,
      "ride": 1423,
      "singly": 1424,
      "vinyl": 1425,
      "give": 1426,
      "physical": 1427,
      "overlaps": 1428,
      "How": 1429,
      "ever": 1430,
      "sat": 1431,
      "urated": 1432,
      "unsat": 1433,
      "However": 1434,
      "unsaturated": 1435,
      "Cmcm": 1436,
      "itions": 1437,
      "conditions": 1438,
      "CCHOH": 1439,
      "*(": 1440,
      "don": 1441,
      "debye": 1442,
      "distributed": 1443,
      "acetaldehyde": 1444,
      "causing": 1445,
      "tetrahedr": 1446,
      "mmary": 1447,
      "summary": 1448,
      "tetrahedron": 1449,
      "ethyl": 1450,
      "seventh": 1451,
      "hase": 1452,
      "clust": 1453,
      "carries": 1454,
      "CH3CO": 1455,
      "measured": 1456,
      "⁶⁺": 1457,
      "large": 1458,
      "SbS": 1459,
      "strength": 1460,
      "Tetr": 1461,
      "aa": 1462,
      "bas": 1463,
      "icu": 1464,
      "pride": 1465,
      "uricu": 1466,
      "Tetraa": 1467,
      "uricupride": 1468,
      "Tetraauricupride": 1469,
      "rib": 1470,
      "122": 1471,
      "106": 1472,
      "NaNa": 1473,
      "fie": 1474,
      "lds": 1475,
      "fields": 1476,
      "vent": 1477,
      "CHOCHO": 1478,
      "makes": 1479,
      "pulsion": 1480,
      "ls": 1481,
      "ume": 1482,
      "led": 1483,
      "volume": 1484,
      "pulls": 1485,
      "sider": 1486,
      "consider": 1487,
      "only": 1488,
      "AlAl": 1489,
      "Oxime": 1490,
      "°),": 1491,
      "but": 1492,
      "Acetaldehyde": 1493,
      "istr": 1494,
      "istry": 1495,
      "CHOHCH3": 1496,
      "115": 1497,
      "prop": 1498,
      "Each": 1499,
      "them": 1500,
      "quite": 1501,
      "Car": 1502,
      "cer": 1503,
      "certain": 1504,
      "OCH": 1505,
      "gas": 1506,
      "OCHCH3": 1507,
      "intermolecular": 1508,
      "TiS": 1509,
      "Cu3": 1510,
      "̅3": 1511,
      "another": 1512,
      "interacts": 1513,
      "units": 1514,
      "Pm": 1515,
      "toge": 1516,
      "ures": 1517,
      "creating": 1518,
      "together": 1519,
      "closer": 1520,
      "luor": 1521,
      "wil": 1522,
      "will": 1523,
      "OCH2": 1524,
      "av": 1525,
      "correspon": 1526,
      "OCH2CHOH": 1527,
      "corresponding": 1528,
      "ior": 1529,
      "use": 1530,
      "behav": 1531,
      "behavior": 1532,
      "COHCH3": 1533,
      "R̅3m": 1534,
      "TiAl": 1535,
      "CuCu": 1536,
      "vide": 1537,
      "provide": 1538,
      "NONH": 1539,
      "C3H6O": 1540,
      "outerm": 1541,
      "shell": 1542,
      "outermost": 1543,
      "ob": 1544,
      "117": 1545,
      "ONH": 1546,
      "observ": 1547,
      "methanol": 1548,
      "uble": 1549,
      "CHOHCH2OH": 1550,
      "combined": 1551,
      "solvent": 1552,
      "soluble": 1553,
      "solvents": 1554,
      "erating": 1555,
      "generating": 1556,
      "tun": 1557,
      "then": 1558,
      "tric": 1559,
      "triclinic": 1560,
      "³⁺,": 1561,
      "COHCH2OH": 1562,
      "allows": 1563,
      "NN": 1564,
      "OHCH3": 1565,
      "CH3OH": 1566,
      "lock": 1567,
      "NiS": 1568,
      "Cu3Ti": 1569,
      "formance": 1570,
      "performance": 1571,
      "C2H4": 1572,
      "eigh": 1573,
      "eighth": 1574,
      "HfHf": 1575,
      "°).": 1576,
      "CrS": 1577,
      "cand": 1578,
      "idate": 1579,
      "good": 1580,
      "candidate": 1581,
      "does": 1582,
      "delocalized": 1583,
      "far": 1584,
      "thest": 1585,
      "farthest": 1586,
      "AgAg": 1587,
      "OHCH2CH3": 1588,
      "ry": 1589,
      "carry": 1590,
      "OH2": 1591,
      "carrying": 1592,
      "posite": 1593,
      "opposite": 1594,
      "tical": 1595,
      "oretical": 1596,
      "CHOCH2OH": 1597,
      "CHCHOH": 1598,
      "q6": 1599,
      "byes": 1600,
      "Debyes": 1601,
      "cap": 1602,
      "123": 1603,
      "involving": 1604,
      "ZnZn": 1605,
      "m2": 1606,
      "fl": 1607,
      "lations": 1608,
      "nce": 1609,
      "uate": 1610,
      "hence": 1611,
      "theoretical": 1612,
      "culations": 1613,
      "dioxygen": 1614,
      "uctuate": 1615,
      "chemically": 1616,
      "note": 1617,
      "idated": 1618,
      "validated": 1619,
      "understand": 1620,
      "calculations": 1621,
      "study": 1622,
      "mostly": 1623,
      "observations": 1624,
      "fluctuate": 1625,
      "understanding": 1626,
      "onance": 1627,
      "resonance": 1628,
      ")₂": 1629,
      "hydroxylam": 1630,
      "MoSe": 1631,
      "hydroxylamine": 1632,
      "CaN": 1633,
      "ament": 1634,
      "block": 1635,
      "fund": 1636,
      "sto": 1637,
      "cument": 1638,
      "ivities": 1639,
      "ilding": 1640,
      "electronegativities": 1641,
      "building": 1642,
      "understo": 1643,
      "serves": 1644,
      "document": 1645,
      "01588": 1646,
      "amental": 1647,
      "fundamental": 1648,
      "understood": 1649,
      "documented": 1650,
      "sen": 1651,
      "CC": 1652,
      "iqu": 1653,
      "lel": 1654,
      "allel": 1655,
      "strial": 1656,
      "parallel": 1657,
      "uniqu": 1658,
      "industrial": 1659,
      "Acetylene": 1660,
      "unique": 1661,
      "glycolaldehyde": 1662,
      "leads": 1663,
      "NiNi": 1664,
      "bden": 1665,
      "lybden": 1666,
      "very": 1667,
      "types": 1668,
      "typically": 1669,
      "Molybden": 1670,
      "particular": 1671,
      "contributing": 1672,
      "thereby": 1673,
      "induce": 1674,
      "ib": 1675,
      "munit": 1676,
      "pted": 1677,
      "wide": 1678,
      "acce": 1679,
      "communit": 1680,
      "widely": 1681,
      "accepted": 1682,
      "community": 1683,
      "Using": 1684,
      "VB": 1685,
      "crib": 1686,
      "des": 1687,
      "atic": 1688,
      "itable": 1689,
      "electrost": 1690,
      "addit": 1691,
      "suitable": 1692,
      "theories": 1693,
      "cribed": 1694,
      "described": 1695,
      "electrostatic": 1696,
      "addition": 1697,
      "hib": 1698,
      "exhib": 1699,
      "S2": 1700,
      "PdPd": 1701,
      "NiAs": 1702,
      "ts": 1703,
      "differences": 1704,
      "def": 1705,
      "9Å": 1706,
      "cated": 1707,
      "hybrids": 1708,
      "positions": 1709,
      "bipyramid": 1710,
      "located": 1711,
      "LU": 1712,
      "lowest": 1713,
      "LUMO": 1714,
      "show": 1715,
      "NaSe": 1716,
      "S4": 1717,
      "characterized": 1718,
      "duct": 1719,
      "emp": 1720,
      "sequ": 1721,
      "product": 1722,
      "ScSc": 1723,
      "methylene": 1724,
      "hydrocarbons": 1725,
      "roughly": 1726,
      "complex": 1727,
      "subsequ": 1728,
      "empty": 1729,
      "products": 1730,
      "subsequent": 1731,
      "mu": 1732,
      "occur": 1733,
      "Cm": 1734,
      "Lon": 1735,
      "P̅3m": 1736,
      "P̅3m1": 1737,
      "CuS": 1738,
      "AlHf": 1739,
      "moderately": 1740,
      "955": 1741,
      "thirteen": 1742,
      "*)": 1743,
      "inct": 1744,
      "distinct": 1745,
      "nitro": 1746,
      "planarity": 1747,
      "ReRe": 1748,
      "exhibits": 1749,
      "distinctive": 1750,
      "EP": 1751,
      "Ele": 1752,
      "One": 1753,
      "Pair": 1754,
      "She": 1755,
      "Ty": 1756,
      "Valence": 1757,
      "pically": 1758,
      "isorption": 1759,
      "ctron": 1760,
      "induc": 1761,
      "degree": 1762,
      "persion": 1763,
      "Repulsion": 1764,
      "Ethoxy": 1765,
      "directed": 1766,
      "dispersion": 1767,
      "depends": 1768,
      "physisorption": 1769,
      "called": 1770,
      "VSEP": 1771,
      "London": 1772,
      "Electron": 1773,
      "Shell": 1774,
      "Typically": 1775,
      "induced": 1776,
      "VSEPR": 1777,
      "CHCH2OH": 1778,
      "occupies": 1779,
      "idu": 1780,
      "ience": 1781,
      "ividu": 1782,
      "sitivity": 1783,
      "dies": 1784,
      "anges": 1785,
      "probe": 1786,
      "sets": 1787,
      "individu": 1788,
      "changes": 1789,
      "nearly": 1790,
      "science": 1791,
      "studies": 1792,
      "sensitivity": 1793,
      "individual": 1794,
      "nal": 1795,
      "1085": 1796,
      "quant": 1797,
      "ctor": 1798,
      "vector": 1799,
      "quantity": 1800,
      "̅4": 1801,
      "uses": 1802,
      "152": 1803,
      "causes": 1804,
      "phase": 1805,
      "NiSe": 1806,
      "InSe": 1807,
      "Ca2": 1808,
      "create": 1809,
      "lead": 1810,
      "nite": 1811,
      "adi": 1812,
      "Las": 1813,
      "dra": 1814,
      "tly": 1815,
      "wing": 1816,
      "arrang": 1817,
      "withdra": 1818,
      "C2HNO": 1819,
      "when": 1820,
      "interacting": 1821,
      "cancels": 1822,
      "undergoes": 1823,
      "clusters": 1824,
      "Lastly": 1825,
      "arranged": 1826,
      "withdrawing": 1827,
      "carriers": 1828,
      "Si4": 1829,
      "ZrZr": 1830,
      "NO3": 1831,
      "P̅6": 1832,
      "ismu": 1833,
      "ismuth": 1834,
      "based": 1835,
      "oxide": 1836,
      "bismuth": 1837,
      "fas": 1838,
      "hion": 1839,
      "ange": 1840,
      "alter": 1841,
      "trif": 1842,
      "CHCH": 1843,
      "change": 1844,
      "process": 1845,
      "ethyne": 1846,
      "luoride": 1847,
      "P̅6m2": 1848,
      "fashion": 1849,
      "trifluoride": 1850,
      "zed": 1851,
      "analy": 1852,
      "imated": 1853,
      "measures": 1854,
      "stands": 1855,
      "Acetyl": 1856,
      "estimated": 1857,
      "leading": 1858,
      "analyzed": 1859,
      "contribute": 1860,
      "possess": 1861,
      "weaker": 1862,
      "AuAg": 1863,
      "RhSi": 1864,
      "CR": 1865,
      "Chem": 1866,
      "Hand": 1867,
      "Phys": 1868,
      "eer": 1869,
      "hal": 1870,
      "ied": 1871,
      "jour": 1872,
      "ok": 1873,
      "peer": 1874,
      "sour": 1875,
      "vie": 1876,
      "wed": 1877,
      "les": 1878,
      "artic": 1879,
      "revie": 1880,
      "ics": 1881,
      "verif": 1882,
      "book": 1883,
      "CRC": 1884,
      "Chemistry": 1885,
      "Handbook": 1886,
      "Physics": 1887,
      "half": 1888,
      "journal": 1889,
      "sources": 1890,
      "articles": 1891,
      "reviewed": 1892,
      "verified": 1893,
      "ethen": 1894,
      "almost": 1895,
      "C2H3": 1896,
      "symmetric": 1897,
      "ethenyl": 1898,
      "ization": 1899,
      "polarization": 1900,
      "tely": 1901,
      "strongly": 1902,
      "completely": 1903,
      "bide": 1904,
      "ZnS": 1905,
      "PtPt": 1906,
      "P̅1": 1907,
      "tals": 1908,
      "ynol": 1909,
      "metals": 1910,
      "ides": 1911,
      "Ethynol": 1912,
      "oxides": 1913,
      "C2H2O": 1914,
      "⁰,": 1915,
      "traction": 1916,
      "whereas": 1917,
      "represented": 1918,
      "subtraction": 1919,
      "nitric": 1920,
      "considered": 1921,
      "nm": 1922,
      "CuSe": 1923,
      "fra": 1924,
      "wor": 1925,
      "mewor": 1926,
      "Carbon": 1927,
      "framewor": 1928,
      "framework": 1929,
      "GaHf": 1930,
      "233": 1931,
      "Ti2": 1932,
      "PdCu": 1933,
      "hybridize": 1934,
      "electric": 1935,
      "PtTi": 1936,
      "¹⁺,": 1937,
      "026": 1938,
      "Lav": 1939,
      "Si2": 1940,
      "Te4": 1941,
      "mm2": 1942,
      "NiTa": 1943,
      "up": 1944,
      "143": 1945,
      "142": 1946,
      "NbS": 1947,
      "281": 1948,
      "dimethyl": 1949,
      "formaldehyde": 1950,
      "Sn2": 1951,
      "PdBi": 1952,
      "Since": 1953,
      "oxime": 1954,
      "Ångstroms": 1955,
      "dioxime": 1956,
      "deta": 1957,
      "iled": 1958,
      "472": 1959,
      "Here": 1960,
      "dimethyldioxime": 1961,
      "detailed": 1962,
      "Se4": 1963,
      "As4": 1964,
      "MoMo": 1965,
      "Gly": 1966,
      "conju": 1967,
      "gation": 1968,
      "PbS": 1969,
      "include": 1970,
      "ethanedial": 1971,
      "C2H2O2": 1972,
      "Glyoxal": 1973,
      "conjugation": 1974,
      "420": 1975,
      "CaAs": 1976,
      "uring": 1977,
      "compr": 1978,
      "C2H5NO": 1979,
      "measuring": 1980,
      "comprises": 1981,
      "ain": 1982,
      "Al2": 1983,
      "8O": 1984,
      "Is": 1985,
      "dom": 1986,
      "ien": 1987,
      "oprop": 1988,
      "³/": 1989,
      "icien": 1990,
      "becom": 1991,
      "represents": 1992,
      "C3H8O": 1993,
      "deficien": 1994,
      "ains": 1995,
      "Isoprop": 1996,
      "domains": 1997,
      "become": 1998,
      "deficiency": 1999,
      "Isopropyl": 2000,
      "S8": 2001,
      "InS": 2002,
      "Mag": 2003,
      "nes": 2004,
      "Magnes": 2005,
      "Magnesium": 2006,
      "NNH": 2007,
      "ire": 2008,
      "analdehyde": 2009,
      "readi": 2010,
      "ications": 2011,
      "ram": 2012,
      "diag": 2013,
      "entire": 2014,
      "impl": 2015,
      "vement": 2016,
      "hydroxyprop": 2017,
      "movement": 2018,
      "varies": 2019,
      "C3H6O2": 2020,
      "pyramidal": 2021,
      "readily": 2022,
      "diagram": 2023,
      "implications": 2024,
      "hydroxypropanaldehyde": 2025,
      "nin": 2026,
      "ninth": 2027,
      "⁴⁺,": 2028,
      "150": 2029,
      "Sr2": 2030,
      "TiSi": 2031,
      "ning": 2032,
      "alig": 2033,
      "expla": 2034,
      "CH3COOCH3": 2035,
      "aligning": 2036,
      "explained": 2037,
      "PP": 2038,
      "rate": 2039,
      "hydroxyethyl": 2040,
      "HfGa": 2041,
      "NaTe": 2042,
      "fifteen": 2043,
      "Laves": 2044,
      "cluster": 2045,
      "verite": 2046,
      "Le": 2047,
      "wis": 2048,
      "yan": 2049,
      "CuAl": 2050,
      "donating": 2051,
      "base": 2052,
      "capable": 2053,
      "Lewis": 2054,
      "isoc": 2055,
      "yanate": 2056,
      "isocyanate": 2057,
      "Phase": 2058,
      "how": 2059,
      "67D": 2060,
      "determine": 2061,
      "influences": 2062,
      "If": 2063,
      "Un": 2064,
      "hap": 2065,
      "name": 2066,
      "ring": 2067,
      "curate": 2068,
      "requ": 2069,
      "accurate": 2070,
      "ested": 2071,
      "fortun": 2072,
      "assist": 2073,
      "cannot": 2074,
      "referring": 2075,
      "Unfortun": 2076,
      "happy": 2077,
      "requested": 2078,
      "Unfortunately": 2079,
      "³.": 2080,
      "TiPt": 2081,
      "NiTe": 2082,
      "MoS": 2083,
      "lower": 2084,
      "point": 2085,
      "Hy": 2086,
      "Y2": 2087,
      "dro": 2088,
      "alite": 2089,
      "Hydro": 2090,
      "Halite": 2091,
      "Roc": 2092,
      "Sal": 2093,
      "Rock": 2094,
      "Salt": 2095,
      "Cop": 2096,
      "Ge4": 2097,
      "Copper": 2098,
      "ping": 2099,
      "overlapping": 2100,
      "Du": 2101,
      "tent": 2102,
      "xyacetylene": 2103,
      "propy": 2104,
      "potent": 2105,
      "SbPt": 2106,
      "AgCd": 2107,
      "wherein": 2108,
      "mentary": 2109,
      "possessing": 2110,
      "complementary": 2111,
      "commonly": 2112,
      "̅43m": 2113,
      "Hydroxyacetylene": 2114,
      "Due": 2115,
      "propynol": 2116,
      "potential": 2117,
      "Pd2": 2118,
      "MnAs": 2119,
      "FeS": 2120,
      "participates": 2121,
      "Pm̅3": 2122,
      "PtIn": 2123,
      "gar": 2124,
      "chemistry": 2125,
      "Regar": 2126,
      "C2H4O": 2127,
      "Regarding": 2128,
      "NCa": 2129,
      "Carbide": 2130,
      "Hf2": 2131,
      "1216": 2132,
      "Ga2": 2133,
      "₂/": 2134,
      "ga": 2135,
      "NbSi": 2136,
      "omega": 2137,
      "PdTl": 2138,
      "Cotun": 2139,
      "Cotunnite": 2140,
      "_12": 2141,
      "yr": 2142,
      "Hf4": 2143,
      "NaS": 2144,
      "HY": 2145,
      "Ni2": 2146,
      "Ge2": 2147,
      "CHOCHOH": 2148,
      "Te2": 2149,
      "C2H4O2": 2150,
      "heav": 2151,
      "AlZr": 2152,
      "heavy": 2153,
      "VSi": 2154,
      "kite": 2155,
      "InTe": 2156,
      "098": 2157,
      "Tun": 2158,
      "gst": 2159,
      "Tungst": 2160,
      "Tungsten": 2161,
      "C2H5OH": 2162,
      "Molybdenite": 2163,
      "min": 2164,
      "anticip": 2165,
      "repulsion": 2166,
      "imiz": 2167,
      "electrical": 2168,
      "tenth": 2169,
      "minimiz": 2170,
      "anticipation": 2171,
      "minimizing": 2172,
      "NiAl": 2173,
      "BiS": 2174,
      "ked": 2175,
      "press": 2176,
      "linked": 2177,
      "pulled": 2178,
      "representing": 2179,
      "correspondingly": 2180,
      "NaAs": 2181,
      "Sb4": 2182,
      "C2H6O": 2183,
      "GaTi": 2184,
      "erature": 2185,
      "PdNb": 2186,
      "mperature": 2187,
      "Au2": 2188,
      "temperature": 2189,
      "YS": 2190,
      "Dis": 2191,
      "aris": 2192,
      "unds": 2193,
      "unreactive": 2194,
      "BiSe": 2195,
      "containing": 2196,
      "compounds": 2197,
      "Pm̅3n": 2198,
      "pressures": 2199,
      "temperatures": 2200,
      "arise": 2201,
      "GaS": 2202,
      "ScAs": 2203,
      "IrIr": 2204,
      "Immm": 2205,
      "SY": 2206,
      "In2": 2207,
      "ScSb": 2208,
      "ribbon": 2209,
      "Fluor": 2210,
      "TiN": 2211,
      "PdHg": 2212,
      "Fluorite": 2213,
      "SnS": 2214,
      "Zr2": 2215,
      "Zr4": 2216,
      "CoGe": 2217,
      "KK": 2218,
      "dium": 2219,
      "Al4": 2220,
      "P̅62": 2221,
      "AX": 2222,
      "Fd": 2223,
      "MAX": 2224,
      "Disilicide": 2225,
      "Cu2": 2226,
      "Se2": 2227,
      "NiP": 2228,
      "F̅43m": 2229,
      "TcTc": 2230,
      "NiNb": 2231,
      "102": 2232,
      "AgZn": 2233,
      "HTi": 2234,
      "ONN": 2235,
      "NbGe": 2236,
      "CoP": 2237,
      "RbTe": 2238,
      "FeP": 2239,
      "196": 2240,
      "SnTe": 2241,
      "PtSb": 2242,
      "P̅62m": 2243,
      "TaNi": 2244,
      "AlNi": 2245,
      "TlPd": 2246,
      "PdZn": 2247,
      "Co2": 2248,
      "c2": 2249,
      "Ni4": 2250,
      "Ti4": 2251,
      "GaZr": 2252,
      "Pt2": 2253,
      "1215": 2254,
      "1220": 2255,
      "CdCd": 2256,
      "Ga4": 2257,
      "TlTl": 2258,
      "In4": 2259,
      "AlCu": 2260,
      "As2": 2261,
      "Zn2": 2262,
      "MoNi": 2263,
      "HgPd": 2264,
      "Sb2": 2265,
      "P1": 2266,
      "NiSi": 2267,
      "GeTe": 2268,
      "Hence": 2269,
      "K2": 2270,
      "nmm": 2271,
      "syl": 2272,
      "omer": 2273,
      "ito": 2274,
      "isomer": 2275,
      "GaNb": 2276,
      "nitrite": 2277,
      "nitrito": 2278,
      "nitrosyl": 2279,
      "-),": 2280,
      "569": 2281,
      "Me": 2282,
      "gthen": 2283,
      "oting": 2284,
      "prom": 2285,
      "anwhile": 2286,
      "InSc": 2287,
      "diol": 2288,
      "activity": 2289,
      "Orbitally": 2290,
      "strengthen": 2291,
      "Meanwhile": 2292,
      "promoting": 2293,
      "R3m": 2294,
      "TaS": 2295,
      "Hexagonal": 2296,
      "Cas": 2297,
      "lverite": 2298,
      "₁₁": 2299,
      "silverite": 2300,
      "Rh2": 2301,
      "RuIr": 2302,
      "wellsilverite": 2303,
      "Caswellsilverite": 2304,
      "KCl": 2305,
      "CrP": 2306,
      "ZrSi": 2307,
      "NaCl": 2308,
      "SSb": 2309,
      "Molybdenum": 2310,
      "NNH2": 2311,
      "ONNH2": 2312,
      "YAg": 2313,
      "La": 2314,
      "WTe": 2315,
      "anom": 2316,
      "anion": 2317,
      "alous": 2318,
      "RhRu": 2319,
      "BiPd": 2320,
      "eleventh": 2321,
      "anomalous": 2322,
      "Si6": 2323,
      "Cubic": 2324,
      "gions": 2325,
      "regions": 2326,
      "CrAs": 2327,
      "Ir2": 2328,
      "combine": 2329,
      "Im": 2330,
      "AlS": 2331,
      "PdMo": 2332,
      "Na2": 2333,
      "centralized": 2334,
      "-).": 2335,
      "With": 2336,
      "AlSc": 2337,
      "Sc2": 2338,
      "MoAl": 2339,
      "COO": 2340,
      "abilities": 2341,
      "C3H6O3": 2342,
      "capabilities": 2343,
      "Within": 2344,
      "CaSi": 2345,
      "SbTe": 2346,
      "025": 2347,
      "InZr": 2348,
      "Pnnm": 2349,
      "NiSb": 2350,
      "SnZr": 2351,
      "Ru2": 2352,
      "SrP": 2353,
      "CrZr": 2354,
      "CsCl": 2355,
      "TaGe": 2356,
      "Pb2": 2357,
      "OsTa": 2358,
      "WS": 2359,
      "1018": 2360,
      "PtNb": 2361,
      "AsCa": 2362,
      "Rh4": 2363,
      "SrAs": 2364,
      "452": 2365,
      "YY": 2366,
      "ZnTi": 2367,
      "CoSi": 2368,
      "BiTe": 2369,
      "Pt4": 2370,
      "CoCo": 2371,
      "HCa": 2372,
      "NHf": 2373,
      "CuTe": 2374,
      "AgS": 2375,
      "P8": 2376,
      "NH3O": 2377,
      "S6": 2378,
      "WSi": 2379,
      "SiP": 2380,
      "CaP": 2381,
      "NaBi": 2382,
      "SnSe": 2383,
      "CrTe": 2384,
      "AuSn": 2385,
      "RuRu": 2386,
      "CdS": 2387,
      "Tit": 2388,
      "anium": 2389,
      "NiGa": 2390,
      "HfAl": 2391,
      "NaP": 2392,
      "Co4": 2393,
      "Titanium": 2394,
      "Fe2": 2395,
      "InTi": 2396,
      "Se8": 2397,
      "108": 2398,
      "fth": 2399,
      "twelfth": 2400,
      "FeAs": 2401,
      "PtMo": 2402,
      "1219": 2403,
      "WPd": 2404,
      "₂)₂": 2405,
      "Ca4": 2406,
      "ribbons": 2407,
      "ScGa": 2408,
      "Bi4": 2409,
      "FeFe": 2410,
      "Fd̅3m": 2411,
      "HfGe": 2412,
      "Cmmm": 2413,
      "PS": 2414,
      "_13": 2415,
      "SiSi": 2416,
      "ZrGa": 2417,
      "PtAl": 2418,
      "PtGa": 2419,
      "Sn4": 2420,
      "TaSi": 2421,
      "862": 2422,
      "Im̅3m": 2423,
      "mb": 2424,
      "Mo2": 2425,
      "MoAs": 2426,
      "PbSe": 2427,
      "mc": 2428,
      "Pa": 2429,
      "mnm": 2430,
      "Pd4": 2431,
      "Na3": 2432,
      "NbPt": 2433,
      "CoSe": 2434,
      "Bi2": 2435,
      "P2_13": 2436,
      "AlTa": 2437,
      "Cu4": 2438,
      "RhV": 2439,
      "R̅3": 2440,
      "TiPd": 2441,
      "SnTi": 2442,
      "RhZn": 2443,
      "RhSn": 2444,
      "867": 2445,
      "Amm2": 2446,
      "InAu": 2447,
      "AlPt": 2448,
      "SZn": 2449,
      "MoSi": 2450,
      "MnN": 2451,
      "SNa": 2452,
      "InPt": 2453,
      "CHOHCHOH": 2454,
      "CdAg": 2455,
      "P3m": 2456,
      "PtAg": 2457,
      "As8": 2458,
      "P3m1": 2459,
      "Te6": 2460,
      "ZnP": 2461,
      "MoTe": 2462,
      "SrN": 2463,
      "CoAs": 2464,
      "CoZr": 2465,
      "FeSe": 2466,
      "FeZr": 2467,
      "CdAs": 2468,
      "mbm": 2469,
      "oride": 2470,
      "SeNa": 2471,
      "AsAs": 2472,
      "GeSe": 2473,
      "AlNb": 2474,
      "GaSe": 2475,
      "NaSb": 2476,
      "AgY": 2477,
      "AgSe": 2478,
      "SAg": 2479,
      "VSe": 2480,
      "NbPd": 2481,
      "CoS": 2482,
      "Rb2": 2483,
      "1186": 2484,
      "VZr": 2485,
      "AsTe": 2486,
      "Al3": 2487,
      "TiGe": 2488,
      "ScGe": 2489,
      "TiTe": 2490,
      "PdSn": 2491,
      "Cd2": 2492,
      "I̅": 2493,
      "Pyr": 2494,
      "NiTi": 2495,
      "Rh3": 2496,
      "FeY": 2497,
      "206": 2498,
      "Pyrite": 2499,
      "HSr": 2500,
      "SCu": 2501,
      "Y4": 2502,
      "CH4": 2503,
      "NiHf": 2504,
      "GaPt": 2505,
      "ScSi": 2506,
      "1183": 2507,
      ")₃": 2508,
      "308": 2509,
      "V2": 2510,
      "105": 2511,
      "Zr6": 2512,
      "OsP": 2513,
      "568": 2514,
      "SeIn": 2515,
      "NiZn": 2516,
      "Sr4": 2517,
      "Pmma": 2518,
      "YGa": 2519,
      "AgAu": 2520,
      "MnMn": 2521,
      "Ag2": 2522,
      "MnGe": 2523,
      "P̅4": 2524,
      "AlSe": 2525,
      "PtTe": 2526,
      "AgAl": 2527,
      "NbNi": 2528,
      "Mn2": 2529,
      "_12_12": 2530,
      "567": 2531,
      "K4": 2532,
      "ZnSe": 2533,
      "Nb2": 2534,
      "Au4": 2535,
      "CrSe": 2536,
      "Kh": 2537,
      "Pe": 2538,
      "skite": 2539,
      "vskite": 2540,
      "atyr": 2541,
      "rovskite": 2542,
      "TiP": 2543,
      "RhPt": 2544,
      "Khatyr": 2545,
      "Perovskite": 2546,
      "Khatyrkite": 2547,
      "YIn": 2548,
      "SeY": 2549,
      "1217": 2550,
      "Zin": 2551,
      "PdTi": 2552,
      "ZrIn": 2553,
      "MnSi": 2554,
      "Cc": 2555,
      "VRh": 2556,
      "InSb": 2557,
      "SiS": 2558,
      "1223": 2559,
      "MnP": 2560,
      "464": 2561,
      "Cmce": 2562,
      "dder": 2563,
      "Ti3": 2564,
      "GaTe": 2565,
      "NbN": 2566,
      "Modder": 2567,
      "Ir4": 2568,
      "Cmc2": 2569,
      "Modderite": 2570,
      "mult": 2571,
      "Indium": 2572,
      "PdAs": 2573,
      "ZnAs": 2574,
      "TcAl": 2575,
      "amd": 2576,
      "multiple": 2577,
      "ZrP": 2578,
      "Ta2": 2579,
      "IrNb": 2580,
      "S12": 2581,
      "WSe": 2582,
      "IrSi": 2583,
      "MnZr": 2584,
      "Pb4": 2585,
      "1187": 2586,
      "CaCl": 2587,
      "AgTe": 2588,
      "AuIn": 2589,
      "¹⁻,": 2590,
      "KHg": 2591,
      "SiC": 2592,
      "HfN": 2593,
      "SbTi": 2594,
      "11860": 2595,
      "HfSb": 2596,
      "NbGa": 2597,
      "Sc4": 2598,
      "SrSn": 2599,
      "Ru4": 2600,
      "InP": 2601,
      "TiAs": 2602,
      "PtZn": 2603,
      "ZrAl": 2604,
      "RhGe": 2605,
      "PbTe": 2606,
      "Hg2": 2607,
      "Spha": 2608,
      "blen": 2609,
      "cblen": 2610,
      "Se6": 2611,
      "Ga6": 2612,
      "GaY": 2613,
      "RhTe": 2614,
      "ScSn": 2615,
      "RuAs": 2616,
      "IrTa": 2617,
      "lerite": 2618,
      "Imma": 2619,
      "Zincblen": 2620,
      "Sphalerite": 2621,
      "Zincblende": 2622,
      "YSe": 2623,
      "AlY": 2624,
      "AuCd": 2625,
      "TaOs": 2626,
      "NiCa": 2627,
      "1218": 2628,
      "SnSc": 2629,
      "SrIn": 2630,
      "SrGe": 2631,
      "I̅4": 2632,
      "vi": 2633,
      "PdZr": 2634,
      "Ge6": 2635,
      "Nb6": 2636,
      "CdTe": 2637,
      "P2_12_12": 2638,
      "VN": 2639,
      "inant": 2640,
      "ominant": 2641,
      "edominant": 2642,
      "PdAg": 2643,
      "PtGe": 2644,
      "distance": 2645,
      "TaN": 2646,
      "predominant": 2647,
      "defined": 2648,
      "predominantly": 2649,
      "AlN": 2650,
      "SnAu": 2651,
      "GeS": 2652,
      "IrTe": 2653,
      "Rb8": 2654,
      "Pmm": 2655,
      "GaNi": 2656,
      "Pt6": 2657,
      "ZnPd": 2658,
      "HgK": 2659,
      "Pmmn": 2660,
      "SV": 2661,
      "V6": 2662,
      "WIr": 2663,
      "YSn": 2664,
      "PtCd": 2665,
      "ZnZr": 2666,
      "CoV": 2667,
      "CdTi": 2668,
      "WCo": 2669,
      "ane": 2670,
      "CaTl": 2671,
      "RhAs": 2672,
      "Pa̅3": 2673,
      "I̅42": 2674,
      "Cal": 2675,
      "KS": 2676,
      "averite": 2677,
      "Hf6": 2678,
      "Cl6": 2679,
      "methane": 2680,
      "1078": 2681,
      "Calaverite": 2682,
      "AsNi": 2683,
      "CuHf": 2684,
      "Sn6": 2685,
      "ScBi": 2686,
      "thirteenth": 2687,
      "In8": 2688,
      "Se12": 2689,
      "Sb8": 2690,
      "Cs2": 2691,
      "NZr": 2692,
      "NSr": 2693,
      "P3": 2694,
      "NiGe": 2695,
      "PtSn": 2696,
      "ZrS": 2697,
      "GeNi": 2698,
      "NTi": 2699,
      "Te3": 2700,
      "CaS": 2701,
      "Ag4": 2702,
      "RuSb": 2703,
      "₃(": 2704,
      "Al6": 2705,
      "GaN": 2706,
      "ZrTe": 2707,
      "SnHf": 2708,
      "Mo6": 2709,
      "AuTe": 2710,
      "SrPb": 2711,
      "RuTa": 2712,
      "Hg4": 2713,
      "HgNa": 2714,
      "SPb": 2715,
      "YTe": 2716,
      "Ti6": 2717,
      "SnRh": 2718,
      "RhSe": 2719,
      "RuCu": 2720,
      "112": 2721,
      "Mar": 2722,
      "sary": 2723,
      "retain": 2724,
      "cessary": 2725,
      "Pd3": 2726,
      "necessary": 2727,
      "RhSb": 2728,
      "CoSb": 2729,
      "ClK": 2730,
      "fourteenth": 2731,
      "casite": 2732,
      "observed": 2733,
      "Marcasite": 2734,
      "retaining": 2735,
      "V4": 2736,
      "Wur": 2737,
      "tz": 2738,
      "AlAs": 2739,
      "CaCa": 2740,
      "SnCu": 2741,
      "PbCl": 2742,
      "Cs4": 2743,
      "Wurtz": 2744,
      "Wurtzite": 2745,
      "SNi": 2746,
      "InY": 2747,
      "GaSc": 2748,
      "PtNa": 2749,
      "CuZn": 2750,
      "TaIr": 2751,
      "CdSb": 2752,
      "⁵⁺,": 2753,
      "K8": 2754,
      "AlP": 2755,
      "Al12": 2756,
      "Na4": 2757,
      "SbNi": 2758,
      "MoZr": 2759,
      "TaRu": 2760,
      "FeSb": 2761,
      "RuSe": 2762,
      "RuPt": 2763,
      "Ch": 2764,
      "CSi": 2765,
      "SBi": 2766,
      "VV": 2767,
      "Zir": 2768,
      "rite": 2769,
      "NiZr": 2770,
      "NaIn": 2771,
      "FeSi": 2772,
      "pyrite": 2773,
      "Zircon": 2774,
      "KSe": 2775,
      "YSi": 2776,
      "HfAs": 2777,
      "ZrSb": 2778,
      "ZnHf": 2779,
      "NbIr": 2780,
      "RuRh": 2781,
      "RbS": 2782,
      "W2": 2783,
      "Pd8": 2784,
      "PdV": 2785,
      "100": 2786,
      "Hf3": 2787,
      "ZnAg": 2788,
      "SnNi": 2789,
      "RhNb": 2790,
      "NbNb": 2791,
      "SrSi": 2792,
      "NFe": 2793,
      "SSr": 2794,
      "NaHg": 2795,
      "RhP": 2796,
      "Fe4": 2797,
      "Pbam": 2798,
      "TlCl": 2799,
      "prime": 2800,
      "InIn": 2801,
      "SiCu": 2802,
      "ZrCl": 2803,
      "AgNa": 2804,
      "Ta4": 2805,
      "CoY": 2806,
      "Cr2": 2807,
      "IrV": 2808,
      "132": 2809,
      "Mat": 2810,
      "TiGa": 2811,
      "SeCs": 2812,
      "Pt3": 2813,
      "PtRu": 2814,
      "TeIn": 2815,
      "Nb4": 2816,
      "SrZn": 2817,
      "IrMo": 2818,
      "Tl4": 2819,
      "222": 2820,
      "lockite": 2821,
      "Chalco": 2822,
      "Matlockite": 2823,
      "sevent": 2824,
      "TiZn": 2825,
      "1007": 2826,
      "1080": 2827,
      "Zn4": 2828,
      "IrRe": 2829,
      "Mn4": 2830,
      "CdHf": 2831,
      "CdAu": 2832,
      "fifteenth": 2833,
      "seventeen": 2834,
      "NNb": 2835,
      "SIn": 2836,
      "TeBi": 2837,
      "RhRe": 2838,
      "NbAl": 2839,
      "RuSi": 2840,
      "1079": 2841,
      "Zirconium": 2842,
      "SiAs": 2843,
      "TeNa": 2844,
      "HfPd": 2845,
      "CuPd": 2846,
      "SnY": 2847,
      "RhIn": 2848,
      "1207": 2849,
      "H2": 2850,
      "PCa": 2851,
      "Sp": 2852,
      "WAl": 2853,
      "InNa": 2854,
      "PtRh": 2855,
      "TeSn": 2856,
      "CaSb": 2857,
      "CuTi": 2858,
      "Na8": 2859,
      "inel": 2860,
      "RhMo": 2861,
      "Sr8": 2862,
      "OsRe": 2863,
      "11869": 2864,
      "Spinel": 2865,
      "974": 2866,
      "Imm2": 2867,
      "cad": 2868,
      "gol": 2869,
      "mium": 2870,
      "CaSn": 2871,
      "Na6": 2872,
      "ZnN": 2873,
      "ZnRh": 2874,
      "SnP": 2875,
      "BiBi": 2876,
      "CrAl": 2877,
      "Chalcopyrite": 2878,
      "cadmium": 2879,
      "gold": 2880,
      "carbide": 2881,
      "cuboctahedral": 2882,
      "Ca6": 2883,
      "Zr10": 2884,
      "ScHf": 2885,
      "Tl2": 2886,
      "ZrSe": 2887,
      "RhS": 2888,
      "NbSe": 2889,
      "113": 2890,
      "FeTa": 2891,
      "IrTi": 2892,
      "303": 2893,
      "865": 2894,
      "PZn": 2895,
      "⁸⁺": 2896,
      "AlSi": 2897,
      "Ga3": 2898,
      "zeta": 2899,
      "HfPt": 2900,
      "Sn8": 2901,
      "RhGa": 2902,
      "NbRh": 2903,
      "ScN": 2904,
      "CoNb": 2905,
      "P6_": 2906,
      "SeBi": 2907,
      "TeTe": 2908,
      "CaAu": 2909,
      "Rh8": 2910,
      "RhRh": 2911,
      "IrGe": 2912,
      "Os2": 2913,
      "220": 2914,
      "PSr": 2915,
      "STi": 2916,
      "WN": 2917,
      "cn": 2918,
      "Ca10": 2919,
      "SnSb": 2920,
      "Mo4": 2921,
      "Pbcn": 2922,
      "HgTe": 2923,
      "via": 2924,
      "S16": 2925,
      "tetrab": 2926,
      "Te8": 2927,
      "CaZn": 2928,
      "PbPd": 2929,
      "RbRb": 2930,
      "sixteenth": 2931,
      "570": 2932,
      "1184": 2933,
      "tetraboride": 2934,
      "SRu": 2935,
      "YGe": 2936,
      "As6": 2937,
      "HfS": 2938,
      "Ca3": 2939,
      "CuSc": 2940,
      "MoPt": 2941,
      "MoHf": 2942,
      "TaTa": 2943,
      "CdY": 2944,
      "TlCa": 2945,
      "OsRu": 2946,
      "Im̅3": 2947,
      "N4": 2948,
      "P12": 2949,
      "STl": 2950,
      "₂(": 2951,
      "PdTa": 2952,
      "GaAs": 2953,
      "Ca8": 2954,
      "AgCa": 2955,
      "Cr4": 2956,
      "CrTa": 2957,
      "I̅42d": 2958,
      "N8": 2959,
      "VCo": 2960,
      "TiIr": 2961,
      "PdNa": 2962,
      "CuRu": 2963,
      "CuCl": 2964,
      "Zn8": 2965,
      "TaAs": 2966,
      "PbY": 2967,
      "Rb4": 2968,
      "Ib": 2969,
      "In6": 2970,
      "SeTi": 2971,
      "Ni3": 2972,
      "NiY": 2973,
      "10180": 2974,
      "MnS": 2975,
      "adium": 2976,
      "Ibam": 2977,
      "AlGe": 2978,
      "TeSe": 2979,
      "CuSn": 2980,
      "ZnSr": 2981,
      "ScTe": 2982,
      "CdNa": 2983,
      "RbAu": 2984,
      "RbCl": 2985,
      "Pmm2": 2986,
      "SePb": 2987,
      "Ni6": 2988,
      "TeAs": 2989,
      "Zn3": 2990,
      "AuCu": 2991,
      "TaTe": 2992,
      "BiHf": 2993,
      "RuY": 2994,
      "ReSe": 2995,
      "P̅4m2": 2996,
      "212": 2997,
      "NTa": 2998,
      "VPd": 2999,
      "insi": 3000,
      "Si8": 3001,
      "TeAg": 3002,
      "CoTe": 3003,
      "RuRe": 3004,
      "MnTe": 3005,
      "ReN": 3006,
      "inside": 3007,
      "-,": 3008,
      "866": 3009,
      "NMn": 3010,
      "Y3": 3011,
      "tact": 3012,
      "inium": 3013,
      "Al8": 3014,
      "TeCd": 3015,
      "CuSi": 3016,
      "ZnY": 3017,
      "ZnNi": 3018,
      "TaPd": 3019,
      "IrRu": 3020,
      "CdP": 3021,
      "CdSe": 3022,
      "HgSe": 3023,
      "TlSe": 3024,
      "OsSi": 3025,
      "Protact": 3026,
      "Protactinium": 3027,
      "H4": 3028,
      "bl": 3029,
      "ack": 3030,
      "InAs": 3031,
      "Pd6": 3032,
      "PdAl": 3033,
      "PtV": 3034,
      "CaHg": 3035,
      "124": 3036,
      "ScAg": 3037,
      "MoP": 3038,
      "AuAu": 3039,
      "Sr6": 3040,
      "IrP": 3041,
      "P̅42": 3042,
      "Pmc2": 3043,
      "Fdd": 3044,
      "black": 3045,
      "179": 3046,
      "Sam": 3047,
      "annite": 3048,
      "In3": 3049,
      "AlAg": 3050,
      "PdSi": 3051,
      "PdGe": 3052,
      "SeCr": 3053,
      "AsSr": 3054,
      "ZrZn": 3055,
      "GeGe": 3056,
      "RhZr": 3057,
      "Nb3": 3058,
      "CoTa": 3059,
      "FeNb": 3060,
      "arium": 3061,
      "Samarium": 3062,
      "₁₃": 3063,
      "TiCu": 3064,
      "PdIn": 3065,
      "PdHf": 3066,
      "HfP": 3067,
      "Cu6": 3068,
      "SnPd": 3069,
      "SnCl": 3070,
      "AgIn": 3071,
      "NbP": 3072,
      "ScCu": 3073,
      "SrSb": 3074,
      "SrBi": 3075,
      "TaAl": 3076,
      "Cl2": 3077,
      "Cl8": 3078,
      "Ha": 3079,
      "I̅43m": 3080,
      "V3": 3081,
      "VTe": 3082,
      "Hf10": 3083,
      "CaAg": 3084,
      "ZnNb": 3085,
      "SnNb": 3086,
      "PbTl": 3087,
      "1206": 3088,
      ")₄": 3089,
      "305": 3090,
      "NY": 3091,
      "HfIr": 3092,
      "ZrPd": 3093,
      "ZrAs": 3094,
      "CuP": 3095,
      "Rh6": 3096,
      "NbTe": 3097,
      "Pbca": 3098,
      "TcP": 3099,
      "llur": 3100,
      "306": 3101,
      "SCo": 3102,
      "SeS": 3103,
      "GaP": 3104,
      "Ga12": 3105,
      "PtNi": 3106,
      "TeGe": 3107,
      "HfCu": 3108,
      "CuZr": 3109,
      "1221": 3110,
      "ZnSb": 3111,
      "AgTi": 3112,
      "AgSc": 3113,
      "NbAs": 3114,
      "CrNb": 3115,
      "MnTa": 3116,
      "11847": 3117,
      "Ce": 3118,
      "WAs": 3119,
      "AlH": 3120,
      "Te12": 3121,
      "Ta3": 3122,
      "RuZn": 3123,
      "IrSb": 3124,
      "mentite": 3125,
      "Cementite": 3126,
      "+,": 3127,
      "Berg": 3128,
      "K5": 3129,
      "PSi": 3130,
      "PAg": 3131,
      "PRe": 3132,
      "Sti": 3133,
      "VTa": 3134,
      "W3": 3135,
      "bnite": 3136,
      "man": 3137,
      "TiMo": 3138,
      "Ga8": 3139,
      "SbRb": 3140,
      "ScIn": 3141,
      "Au6": 3142,
      "Ta10": 3143,
      "CoTi": 3144,
      "FeTi": 3145,
      "1077": 3146,
      "Bergman": 3147,
      "Stibnite": 3148,
      "KSb": 3149,
      "NV": 3150,
      "PIn": 3151,
      "₃)₂": 3152,
      "1025": 3153,
      "GaRh": 3154,
      "Sc3": 3155,
      "MoCl": 3156,
      "167": 3157,
      "977": 3158,
      "133": 3159,
      "PK": 3160,
      "Po": 3161,
      "So": 3162,
      "YAl": 3163,
      "arsen": 3164,
      "SiY": 3165,
      "GaV": 3166,
      "GaSb": 3167,
      "As12": 3168,
      "AsZn": 3169,
      "Sb12": 3170,
      "SnPt": 3171,
      "ClNa": 3172,
      "HgS": 3173,
      "Sodium": 3174,
      "arsenide": 3175,
      "973": 3176,
      "PCo": 3177,
      "W4": 3178,
      "WP": 3179,
      "gam": 3180,
      "InAg": 3181,
      "AlPd": 3182,
      "AlTe": 3183,
      "SiTi": 3184,
      "NaAu": 3185,
      "ScCd": 3186,
      "SrS": 3187,
      "Ru6": 3188,
      "Ir6": 3189,
      "gamma": 3190,
      "307": 3191,
      "En": 3192,
      "GPa": 3193,
      "K3": 3194,
      "N6": 3195,
      "SRb": 3196,
      "gite": 3197,
      "san": 3198,
      "⁷⁺": 3199,
      "₁₆": 3200,
      "argite": 3201,
      "issan": 3202,
      "TiCo": 3203,
      "SeK": 3204,
      "HfAu": 3205,
      "CaPb": 3206,
      "Zr3": 3207,
      "Zn6": 3208,
      "Ag8": 3209,
      "Moissan": 3210,
      "CrSi": 3211,
      "Cd4": 3212,
      "ClRb": 3213,
      "166": 3214,
      "SAgBi": 3215,
      "Enargite": 3216,
      "Moissanite": 3217,
      "HZr": 3218,
      "N3": 3219,
      "Sk": 3220,
      "Y6": 3221,
      "Y8": 3222,
      "dite": 3223,
      "mv": 3224,
      "tter": 3225,
      "usm": 3226,
      "udite": 3227,
      "utter": 3228,
      "HfNi": 3229,
      "HfZn": 3230,
      "SbRu": 3231,
      "127": 3232,
      "SnAs": 3233,
      "GeCu": 3234,
      "GeSr": 3235,
      "AgCl": 3236,
      "RuN": 3237,
      "204": 3238,
      "Tc2": 3239,
      "691": 3240,
      "Hausm": 3241,
      "Skutter": 3242,
      "mvc": 3243,
      "Hausmannite": 3244,
      "Skutterudite": 3245,
      "296": 3246,
      "983": 3247,
      "K6": 3248,
      "KAs": 3249,
      "NAl": 3250,
      "PN": 3251,
      "Str": 3252,
      "YZn": 3253,
      "InCl": 3254,
      "²⁻,": 3255,
      "TiRh": 3256,
      "Pd5": 3257,
      "PdTe": 3258,
      "ucture": 3259,
      "AsS": 3260,
      "SrSr": 3261,
      "CrHf": 3262,
      "Re2": 3263,
      "573": 3264,
      "Structure": 3265,
      "NRe": 3266,
      "AlCa": 3267,
      "PdH": 3268,
      "PtSi": 3269,
      "CuSb": 3270,
      "Na12": 3271,
      "SbRh": 3272,
      "ScP": 3273,
      "TaGa": 3274,
      "IrAs": 3275,
      "CdCa": 3276,
      "CdCl": 3277,
      "ReS": 3278,
      "12154": 3279,
      "12243": 3280,
      "Pb2S2": 3281,
      "P3_": 3282,
      "1104": 3283,
      "232": 3284,
      "982": 3285,
      "Pmmm": 3286,
      "R3": 3287,
      "Ag6": 3288,
      "MnSc": 3289,
      "Cl4": 3290,
      "Re4": 3291,
      "OsTc": 3292,
      "978": 3293,
      "11872": 3294,
      "⁶⁺,": 3295,
      "PY": 3296,
      "VIr": 3297,
      "onium": 3298,
      "Si3": 3299,
      "Pt12": 3300,
      "CaCd": 3301,
      "Ag3": 3302,
      "Sc6": 3303,
      "ScCl": 3304,
      "Ta6": 3305,
      "Cr8": 3306,
      "MnAl": 3307,
      "Hg6": 3308,
      "Orthorhombic": 3309,
      "328": 3310,
      "8655": 3311,
      "136": 3312,
      "1180": 3313,
      "313": 3314,
      "976": 3315,
      "High": 3316,
      "SFe": 3317,
      "VPt": 3318,
      "YCd": 3319,
      "SeAs": 3320,
      "Si12": 3321,
      "Ga10": 3322,
      "PtMn": 3323,
      "HfSi": 3324,
      "ZrN": 3325,
      "NaPb": 3326,
      "SbSe": 3327,
      "SbTl": 3328,
      "ZnTa": 3329,
      "SrTl": 3330,
      "Bi12": 3331,
      "Fe3": 3332,
      "IrY": 3333,
      "MnSe": 3334,
      "Pb6": 3335,
      "202": 3336,
      "ReOs": 3337,
      "OsAs": 3338,
      "OsMn": 3339,
      "31m": 3340,
      "10253": 3341,
      "seventeenth": 3342,
      "509": 3343,
      "755": 3344,
      "Fmmm": 3345,
      "SK": 3346,
      "S10": 3347,
      "InPd": 3348,
      "SiSe": 3349,
      "103": 3350,
      "1023": 3351,
      "CuAu": 3352,
      "NaH": 3353,
      "MnPd": 3354,
      "HgSc": 3355,
      "544": 3356,
      "P6_222": 3357,
      "971": 3358,
      "Cor": 3359,
      "KTe": 3360,
      "Pc": 3361,
      "Pd12": 3362,
      "SiZr": 3363,
      "NiCr": 3364,
      "AsIn": 3365,
      "CaTe": 3366,
      "SbIn": 3367,
      "1224": 3368,
      "Mo3": 3369,
      "AuZn": 3370,
      "CoHf": 3371,
      "CrN": 3372,
      "162": 3373,
      "422": 3374,
      "undum": 3375,
      "Fddd": 3376,
      "Corundum": 3377,
      "685": 3378,
      "VP": 3379,
      "Van": 3380,
      "YAu": 3381,
      "nitride": 3382,
      "Ti5": 3383,
      "TiH": 3384,
      "Se3": 3385,
      "SiN": 3386,
      "CaSe": 3387,
      "CaGe": 3388,
      "ZrRh": 3389,
      "SbAs": 3390,
      "MoRu": 3391,
      "AuRb": 3392,
      "CrRh": 3393,
      "IrTc": 3394,
      "Mn3": 3395,
      "MnTi": 3396,
      "MnSb": 3397,
      "MnZn": 3398,
      "Cs8": 3399,
      "nineteen": 3400,
      "813": 3401,
      "P4_": 3402,
      "Vanadium": 3403,
      "311": 3404,
      "CW": 3405,
      "Hit": 3406,
      "HNa": 3407,
      "SNb": 3408,
      "SCr": 3409,
      "Y10": 3410,
      "YIr": 3411,
      "n2": 3412,
      "tor": 3413,
      "InRh": 3414,
      "AlMn": 3415,
      "Ti8": 3416,
      "PdP": 3417,
      "1067": 3418,
      "SnSr": 3419,
      "Mo8": 3420,
      "Co8": 3421,
      "Cr3": 3422,
      "HgTi": 3423,
      "229": 3424,
      "730": 3425,
      "199": 3426,
      "1188": 3427,
      "12267": 3428,
      "Zr6Sn2": 3429,
      "Hittor": 3430,
      "Hittorf": 3431,
      "505": 3432,
      "607": 3433,
      "HRb": 3434,
      "P16": 3435,
      "YSb": 3436,
      "SeCd": 3437,
      "Si10": 3438,
      "SiCa": 3439,
      "As16": 3440,
      "CaIn": 3441,
      "ZrH": 3442,
      "Ge3": 3443,
      "Ge8": 3444,
      "Ge12": 3445,
      "ScAl": 3446,
      "Sc10": 3447,
      "Sc12": 3448,
      "Co6": 3449,
      "RuMo": 3450,
      "RuFe": 3451,
      "RuOs": 3452,
      "CrTi": 3453,
      "CdPt": 3454,
      "TlZr": 3455,
      "1652": 3456,
      "Os4": 3457,
      "151": 3458,
      "227": 3459,
      "481": 3460,
      "972": 3461,
      "1102": 3462,
      "AsAsRh": 3463,
      "$\\": 3464,
      "3r": 3465,
      "304": 3466,
      "669": 3467,
      "C4": 3468,
      "CNb": 3469,
      "Fran": 3470,
      "Kas": 3471,
      "PSn": 3472,
      "InSr": 3473,
      "TiAu": 3474,
      "1008": 3475,
      "1057": 3476,
      "GaCa": 3477,
      "GaGe": 3478,
      "CaH": 3479,
      "Sb6": 3480,
      "12180": 3481,
      "GeV": 3482,
      "AuCa": 3483,
      "RuP": 3484,
      "Ir3": 3485,
      "Mn6": 3486,
      "TlS": 3487,
      "503": 3488,
      "10799": 3489,
      "12289": 3490,
      "P̅43m": 3491,
      "I̅4m2": 3492,
      "3rd": 3493,
      "Frank": 3494,
      "Kasper": 3495,
      "140": 3496,
      "PZr": 3497,
      "SAl": 3498,
      "SSn": 3499,
      "WRu": 3500,
      "AlCl": 3501,
      "TiCl": 3502,
      "SeRu": 3503,
      "MoN": 3504,
      "FeSc": 3505,
      "RuS": 3506,
      "MnOs": 3507,
      "Pb8": 3508,
      "11846": 3509,
      "1103": 3510,
      "1105": 3511,
      "eighteenth": 3512,
      "12244": 3513,
      "R̅3c": 3514,
      "'{": 3515,
      "989": 3516,
      "H8": 3517,
      "PNaP": 3518,
      "R32": 3519,
      "SCa": 3520,
      "SRh": 3521,
      "\\'{": 3522,
      "a2": 3523,
      "₅(": 3524,
      "arevi": 3525,
      "Al5": 3526,
      "PdNi": 3527,
      "PdMn": 3528,
      "Se16": 3529,
      "SiFe": 3530,
      "101": 3531,
      "GaTa": 3532,
      "PtSe": 3533,
      "AsTi": 3534,
      "Hf12": 3535,
      "SbSr": 3536,
      "125": 3537,
      "1246": 3538,
      "Sn3": 3539,
      "RhTi": 3540,
      "CoAl": 3541,
      "Fe6": 3542,
      "Fe8": 3543,
      "Rb3": 3544,
      "208": 3545,
      "CsCs": 3546,
      "TcRh": 3547,
      "502": 3548,
      "223": 3549,
      "714": 3550,
      "213": 3551,
      "12248": 3552,
      "Lavarevi": 3553,
      "AsAsRu": 3554,
      "210": 3555,
      "Boride": 3556,
      "Methan": 3557,
      "SCd": 3558,
      "VAs": 3559,
      "YBi": 3560,
      "gges": 3561,
      "lta": 3562,
      "fore": 3563,
      "delta": 3564,
      "ternal": 3565,
      "Ti10": 3566,
      "Si16": 3567,
      "GaGa": 3568,
      "Pt5": 3569,
      "AsHf": 3570,
      "ZnPt": 3571,
      "Ge16": 3572,
      "RhAl": 3573,
      "AgCu": 3574,
      "NbSb": 3575,
      "Sr3": 3576,
      "CoSn": 3577,
      "FeN": 3578,
      "C222": 3579,
      "Cl16": 3580,
      "1209": 3581,
      "675": 3582,
      "43d": 3583,
      "sugges": 3584,
      "221": 3585,
      "external": 3586,
      "198": 3587,
      "700": 3588,
      "8653": 3589,
      "P4mm": 3590,
      "11845": 3591,
      "therefore": 3592,
      "999": 3593,
      "among": 3594,
      "exhibit": 3595,
      "I̅43d": 3596,
      "P4_132": 3597,
      "Methane": 3598,
      "suggests": 3599,
      "754": 3600,
      "CV": 3601,
      "N12": 3602,
      "PHf": 3603,
      "₁₅": 3604,
      "In12": 3605,
      "AlSb": 3606,
      "GaAl": 3607,
      "GaCl": 3608,
      "Pt8": 3609,
      "PtFe": 3610,
      "AsZr": 3611,
      "AsOs": 3612,
      "CaBi": 3613,
      "ZrHg": 3614,
      "CuNb": 3615,
      "ZnGa": 3616,
      "ZnTe": 3617,
      "RhY": 3618,
      "NbZn": 3619,
      "ScNi": 3620,
      "AuCl": 3621,
      "BiTl": 3622,
      "CrSc": 3623,
      "Cd3": 3624,
      "PbNa": 3625,
      "203": 3626,
      "209": 3627,
      "ReP": 3628,
      "555": 3629,
      "5708": 3630,
      "12216": 3631,
      "I̅42m": 3632,
      "GeGePt": 3633,
      "CAl": 3634,
      "KP": 3635,
      "KPb": 3636,
      "PAl": 3637,
      "Pol": 3638,
      "SHg": 3639,
      "Silic": 3640,
      "Y12": 3641,
      "fide": 3642,
      "red": 3643,
      "sul": 3644,
      "indium": 3645,
      "AlRh": 3646,
      "Ti20": 3647,
      "1009": 3648,
      "GaSi": 3649,
      "TePb": 3650,
      "AsSe": 3651,
      "SbSbPt": 3652,
      "ZnIn": 3653,
      "SnV": 3654,
      "GeMo": 3655,
      "AgHf": 3656,
      "Bi8": 3657,
      "Cl12": 3658,
      "ClSr": 3659,
      "RbSb": 3660,
      "TlP": 3661,
      "092": 3662,
      "165": 3663,
      "TcGa": 3664,
      "TcRu": 3665,
      "TcIr": 3666,
      "473": 3667,
      "739": 3668,
      "Ti4H": 3669,
      "Polonium": 3670,
      "Silicon": 3671,
      "sulfide": 3672,
      "11207": 3673,
      "571": 3674,
      "7GPa": 3675,
      "Er": 3676,
      "Pres": 3677,
      "PTc": 3678,
      "SHf": 3679,
      "SZr": 3680,
      "SCs": 3681,
      "ev": 3682,
      "ror": 3683,
      "sure": 3684,
      "₂)₃": 3685,
      "recor": 3686,
      "retri": 3687,
      "ma2": 3688,
      "PtPd": 3689,
      "Pt16": 3690,
      "Te16": 3691,
      "Tellur": 3692,
      "Ca12": 3693,
      "ZrGe": 3694,
      "CuNi": 3695,
      "SnSn": 3696,
      "AuTi": 3697,
      "Co3": 3698,
      "RuNi": 3699,
      "MnGa": 3700,
      "MnHf": 3701,
      "Pbcm": 3702,
      "6722": 3703,
      "692": 3704,
      "5716": 3705,
      "192": 3706,
      "938": 3707,
      "I4mm": 3708,
      "11832": 3709,
      "Pna2": 3710,
      "P̅31m": 3711,
      "12260": 3712,
      "occurred": 3713,
      "PPRh": 3714,
      "AsAsIr": 3715,
      "nineteenth": 3716,
      "Error": 3717,
      "Pressure": 3718,
      "eving": 3719,
      "record": 3720,
      "retrieving": 3721,
      "Tellurium": 3722,
      "310": 3723,
      "9813": 3724,
      "Fmm2": 3725,
      "S3": 3726,
      "SSc": 3727,
      "V10": 3728,
      "YP": 3729,
      "SiHf": 3730,
      "Ni8": 3731,
      "NiSc": 3732,
      "AsCaAs": 3733,
      "Hf8": 3734,
      "CaNi": 3735,
      "CaCu": 3736,
      "1229": 3737,
      "12152": 3738,
      "ZnCu": 3739,
      "ZnMn": 3740,
      "NbCl": 3741,
      "186": 3742,
      "CoGa": 3743,
      "1190": 3744,
      "CdSc": 3745,
      "PbHf": 3746,
      "10942": 3747,
      "10955": 3748,
      "Re3": 3749,
      "OsOs": 3750,
      "670": 3751,
      "672": 3752,
      "mond": 3753,
      "228": 3754,
      "889": 3755,
      "486": 3756,
      "8649": 3757,
      "134": 3758,
      "139": 3759,
      "11879": 3760,
      "636": 3761,
      "diamond": 3762,
      "12214": 3763,
      "Pmn2": 3764,
      "10252": 3765,
      "8627": 3766,
      "Pb4S4": 3767,
      "322": 3768,
      "6H": 3769,
      "632": 3770,
      "758": 3771,
      "975": 3772,
      "Il": 3773,
      "NSc": 3774,
      "lenium": 3775,
      "SeSc": 3776,
      "SiTe": 3777,
      "NiBi": 3778,
      "1029": 3779,
      "PtH": 3780,
      "PtCo": 3781,
      "TeSb": 3782,
      "AsP": 3783,
      "AsSb": 3784,
      "HfSe": 3785,
      "SbSb": 3786,
      "126": 3787,
      "1225": 3788,
      "Nb8": 3789,
      "Mn8": 3790,
      "Hg3": 3791,
      "546": 3792,
      "164": 3793,
      "Os8": 3794,
      "159": 3795,
      "697": 3796,
      "698": 3797,
      "5706": 3798,
      "526": 3799,
      "menite": 3800,
      "9743": 3801,
      "11032": 3802,
      "boron": 3803,
      "Si2Ca": 3804,
      "Ag4S2": 3805,
      "P̅42m": 3806,
      "Ilmenite": 3807,
      "216": 3808,
      "247": 3809,
      "288": 3810,
      "249": 3811,
      "620": 3812,
      "K12": 3813,
      "Mg": 3814,
      "N10": 3815,
      "PNi": 3816,
      "PFe": 3817,
      "VC": 3818,
      "VNb": 3819,
      "VMn": 3820,
      "YH": 3821,
      "AlSr": 3822,
      "PdSb": 3823,
      "SeCa": 3824,
      "SeAg": 3825,
      "Selenium": 3826,
      "SiV": 3827,
      "HfSn": 3828,
      "128": 3829,
      "129": 3830,
      "1247": 3831,
      "1228": 3832,
      "1226": 3833,
      "GeNb": 3834,
      "AgPt": 3835,
      "tellur": 3836,
      "Cd8": 3837,
      "TlTe": 3838,
      "TlPb": 3839,
      "Os6": 3840,
      "678": 3841,
      "Tc3": 3842,
      "155": 3843,
      "430": 3844,
      "471": 3845,
      "1072": 3846,
      "459": 3847,
      "483": 3848,
      "138": 3849,
      "P3_121": 3850,
      "Mg32": 3851,
      "telluride": 3852,
      "215": 3853,
      "293": 3854,
      "HCl": 3855,
      "H16": 3856,
      "PTi": 3857,
      "WPt": 3858,
      "In9": 3859,
      "SeNi": 3860,
      "AsSrAs": 3861,
      "ZrHf": 3862,
      "Zr12": 3863,
      "ZnCs": 3864,
      "RhCr": 3865,
      "AgP": 3866,
      "Sc8": 3867,
      "AuTa": 3868,
      "SrAl": 3869,
      "SrPd": 3870,
      "TaSe": 3871,
      "BiSr": 3872,
      "FeHf": 3873,
      "RuTe": 3874,
      "CrCl": 3875,
      "IrZn": 3876,
      "MnPt": 3877,
      "ReZr": 3878,
      "169": 3879,
      "426": 3880,
      "TcS": 3881,
      "158": 3882,
      "695": 3883,
      "699": 3884,
      "558": 3885,
      "539": 3886,
      "6043": 3887,
      "024": 3888,
      "193": 3889,
      "6847": 3890,
      "8654": 3891,
      "900": 3892,
      "724": 3893,
      "Hf2Ir2": 3894,
      "10255": 3895,
      "RuSeS": 3896,
      "258": 3897,
      "282": 3898,
      "286": 3899,
      "278": 3900,
      "985": 3901,
      "HCs": 3902,
      "SCl": 3903,
      "VRu": 3904,
      "acd": 3905,
      "In5": 3906,
      "AlC": 3907,
      "Al11": 3908,
      "SiH": 3909,
      "SiNi": 3910,
      "SiPt": 3911,
      "NiPd": 3912,
      "10179": 3913,
      "PtP": 3914,
      "As3": 3915,
      "SbBi": 3916,
      "RhTc": 3917,
      "ScS": 3918,
      "Sr10": 3919,
      "Ta24": 3920,
      "Bi6": 3921,
      "Cr6": 3922,
      "PbPb": 3923,
      "12073": 3924,
      "10969": 3925,
      "5418": 3926,
      "Tc6": 3927,
      "156": 3928,
      "628": 3929,
      "745": 3930,
      "441": 3931,
      "8647": 3932,
      "130": 3933,
      "137": 3934,
      "11040": 3935,
      "9989": 3936,
      "12273": 3937,
      "9749": 3938,
      "289": 3939,
      "933": 3940,
      "VGe": 3941,
      "ieth": 3942,
      "AlMo": 3943,
      "Pd10": 3944,
      "NiMn": 3945,
      "PtCl": 3946,
      "Na20": 3947,
      "Sb16": 3948,
      "1222": 3949,
      "Zn5": 3950,
      "ZnAu": 3951,
      "GeN": 3952,
      "GeP": 3953,
      "NbC": 3954,
      "Au8": 3955,
      "AuNa": 3956,
      "AuPb": 3957,
      "TaP": 3958,
      "CoNi": 3959,
      "BiSb": 3960,
      "FeV": 3961,
      "RuSc": 3962,
      "Cd6": 3963,
      "CdIn": 3964,
      "Pb3": 3965,
      "ClCs": 3966,
      "12066": 3967,
      "ReCo": 3968,
      "Cs3": 3969,
      "073": 3970,
      "478": 3971,
      "498": 3972,
      "9716": 3973,
      "11867": 3974,
      "11878": 3975,
      "11834": 3976,
      "twentieth": 3977,
      "12290": 3978,
      "Si4Rh4": 3979,
      "Ge4Pt4": 3980,
      "12203": 3981,
      "8673": 3982,
      "214": 3983,
      "HK": 3984,
      "YPt": 3985,
      "_x": 3986,
      "₃)₃": 3987,
      "inum": 3988,
      "InNi": 3989,
      "AlCo": 3990,
      "SeZn": 3991,
      "SiNb": 3992,
      "1068": 3993,
      "Ga9": 3994,
      "Ga14": 3995,
      "CuY": 3996,
      "CuCa": 3997,
      "NaPt": 3998,
      "ZnSn": 3999,
      "Sn10": 4000,
      "GeMn": 4001,
      "ScRh": 4002,
      "MoRh": 4003,
      "Au3": 4004,
      "SrH": 4005,
      "SrTe": 4006,
      "SrAu": 4007,
      "SrCl": 4008,
      "187": 4009,
      "1193": 4010,
      "CrCr": 4011,
      "IrIn": 4012,
      "IrSn": 4013,
      "Hg_x": 4014,
      "421": 4015,
      "423": 4016,
      "961": 4017,
      "CsS": 4018,
      "Tc4": 4019,
      "434": 4020,
      "437": 4021,
      "074": 4022,
      "851": 4023,
      "857": 4024,
      "749": 4025,
      "602": 4026,
      "uminum": 4027,
      "756": 4028,
      "9729": 4029,
      "1189": 4030,
      "11880": 4031,
      "11836": 4032,
      "Hg_xSn": 4033,
      "173": 4034,
      "211": 4035,
      "273": 4036,
      "924": 4037,
      "CMo": 4038,
      "Np": 4039,
      "POs": 4040,
      "S20": 4041,
      "aflu": 4042,
      "Al10": 4043,
      "TiOs": 4044,
      "SeSn": 4045,
      "SeRh": 4046,
      "tetraflu": 4047,
      "NiCu": 4048,
      "PtBi": 4049,
      "AsGa": 4050,
      "ZrCu": 4051,
      "SnN": 4052,
      "NbH": 4053,
      "Nb10": 4054,
      "ScIr": 4055,
      "MoPd": 4056,
      "AuPd": 4057,
      "SrCd": 4058,
      "1179": 4059,
      "BiCa": 4060,
      "PbCa": 4061,
      "PbBi": 4062,
      "Rb6": 4063,
      "RbH": 4064,
      "12067": 4065,
      "12053": 4066,
      "10954": 4067,
      "HgZr": 4068,
      "HgHg": 4069,
      "ReRu": 4070,
      "163": 4071,
      "TcAs": 4072,
      "TcOs": 4073,
      "435": 4074,
      "559": 4075,
      "474": 4076,
      "576": 4077,
      "5707": 4078,
      "5705": 4079,
      "659": 4080,
      "895": 4081,
      "7045": 4082,
      "484": 4083,
      "8646": 4084,
      "131": 4085,
      "11874": 4086,
      "11043": 4087,
      "11023": 4088,
      "12173": 4089,
      "PPRu": 4090,
      "5697": 4091,
      "118605": 4092,
      "12238": 4093,
      "PdAsPd": 4094,
      "KHg3": 4095,
      "K3Hg": 4096,
      "tetrafluoride": 4097,
      "171": 4098,
      "PSe": 4099,
      "WZr": 4100,
      "₂)₄": 4101,
      "₄(": 4102,
      "Theoretical": 4103,
      "In10": 4104,
      "InCa": 4105,
      "In16": 4106,
      "PdCl": 4107,
      "SeCo": 4108,
      "Pt10": 4109,
      "TeY": 4110,
      "AsPd": 4111,
      "Hf14": 4112,
      "CuGa": 4113,
      "SbNb": 4114,
      "ZnV": 4115,
      "ZnAl": 4116,
      "GeY": 4117,
      "AgPd": 4118,
      "ScZn": 4119,
      "189": 4120,
      "TaRh": 4121,
      "CoRe": 4122,
      "1199": 4123,
      "FeGe": 4124,
      "Ru8": 4125,
      "RuV": 4126,
      "RuTc": 4127,
      "CrNi": 4128,
      "094": 4129,
      "Re6": 4130,
      "336": 4131,
      "676": 4132,
      "vanite": 4133,
      "694": 4134,
      "550": 4135,
      "557": 4136,
      "852": 4137,
      "717": 4138,
      "7192": 4139,
      "586": 4140,
      "5710": 4141,
      "466": 4142,
      "735": 4143,
      "737": 4144,
      "665": 4145,
      "2147": 4146,
      "979": 4147,
      "11888": 4148,
      "5696": 4149,
      "11007": 4150,
      "12172": 4151,
      "998": 4152,
      "12242": 4153,
      "12288": 4154,
      "Ge2Sr": 4155,
      "12159": 4156,
      "12194": 4157,
      "Fdd2": 4158,
      "146": 4159,
      "176": 4160,
      "177": 4161,
      "218": 4162,
      "274": 4163,
      "510": 4164,
      "782": 4165,
      "9R": 4166,
      "VOs": 4167,
      "WNi": 4168,
      "WOs": 4169,
      "YPd": 4170,
      "iri": 4171,
      "nc": 4172,
      "₁₇": 4173,
      "₁₉": 4174,
      "₂₁": 4175,
      "Ti24": 4176,
      "PdTc": 4177,
      "SeRb": 4178,
      "Se20": 4179,
      "NiPt": 4180,
      "Ni12": 4181,
      "NiFe": 4182,
      "10142": 4183,
      "Te10": 4184,
      "HfTe": 4185,
      "HfZr": 4186,
      "tile": 4187,
      "SbCa": 4188,
      "SbCl": 4189,
      "1214": 4190,
      "1227": 4191,
      "GeHf": 4192,
      "ScPt": 4193,
      "Sc20": 4194,
      "MoTa": 4195,
      "AuHf": 4196,
      "Au12": 4197,
      "SrCu": 4198,
      "RuGa": 4199,
      "Rutile": 4200,
      "PbSc": 4201,
      "Pb16": 4202,
      "200": 4203,
      "Tl3": 4204,
      "TlSc": 4205,
      "TlHg": 4206,
      "ReIr": 4207,
      "543": 4208,
      "331": 4209,
      "335": 4210,
      "337": 4211,
      "vanadium": 4212,
      "082": 4213,
      "Tc8": 4214,
      "079": 4215,
      "404": 4216,
      "713": 4217,
      "149": 4218,
      "10773": 4219,
      "935": 4220,
      "21328": 4221,
      "517": 4222,
      "291": 4223,
      "928": 4224,
      "12179": 4225,
      "P̅3": 4226,
      "12247": 4227,
      "12249": 4228,
      "Ca2Zn2": 4229,
      "Ge4Te4": 4230,
      "Na3In": 4231,
      "Na3Pd": 4232,
      "PAgP": 4233,
      "PKP": 4234,
      "iridium": 4235,
      "314": 4236,
      "370": 4237,
      "443": 4238,
      "871": 4239,
      "825": 4240,
      "Aem": 4241,
      "HSc": 4242,
      "HTa": 4243,
      "N16": 4244,
      "PFeP": 4245,
      "Syl": 4246,
      "VGa": 4247,
      "WCl": 4248,
      "YCl": 4249,
      "₂₀": 4250,
      "AlCr": 4251,
      "TiNi": 4252,
      "TiFe": 4253,
      "SeHg": 4254,
      "GaSn": 4255,
      "PtS": 4256,
      "AsPt": 4257,
      "AsFe": 4258,
      "CaPt": 4259,
      "Ca16": 4260,
      "NaK": 4261,
      "NaAg": 4262,
      "NaTl": 4263,
      "Na16": 4264,
      "Na24": 4265,
      "SbK": 4266,
      "SbSnPt": 4267,
      "ZnCa": 4268,
      "ZnCl": 4269,
      "Sn12": 4270,
      "SnBi": 4271,
      "SnSbPt": 4272,
      "GePt": 4273,
      "Rh10": 4274,
      "Nb5": 4275,
      "Nb12": 4276,
      "ScSe": 4277,
      "AuNb": 4278,
      "1133": 4279,
      "RuAl": 4280,
      "Cr5": 4281,
      "Cl18": 4282,
      "RbSe": 4283,
      "RbGa": 4284,
      "1208": 4285,
      "1094": 4286,
      "549": 4287,
      "OsGe": 4288,
      "CsH": 4289,
      "TcHf": 4290,
      "TcCo": 4291,
      "077": 4292,
      "627": 4293,
      "744": 4294,
      "449": 4295,
      "10779": 4296,
      "10792": 4297,
      "9722": 4298,
      "P4_12_12": 4299,
      "11871": 4300,
      "11831": 4301,
      "12170": 4302,
      "Sn2S2": 4303,
      "Rb2Te": 4304,
      "5683": 4305,
      "Rb8Te4": 4306,
      "PtSnSb": 4307,
      "K5Bi4": 4308,
      "Aem2": 4309,
      "Sylvanite": 4310,
      "219": 4311,
      "297": 4312,
      "789": 4313,
      "793": 4314,
      "849": 4315,
      "H6": 4316,
      "SOs": 4317,
      "V5": 4318,
      "hide": 4319,
      "ss": 4320,
      "₂₄": 4321,
      "AlGa": 4322,
      "OHNN": 4323,
      "TiCr": 4324,
      "PdCa": 4325,
      "PdCd": 4326,
      "SeAl": 4327,
      "SeCu": 4328,
      "SeSb": 4329,
      "1012": 4330,
      "PtY": 4331,
      "TeCu": 4332,
      "TeCl": 4333,
      "Te24": 4334,
      "AsRh": 4335,
      "Hf24": 4336,
      "SbY": 4337,
      "SbCo": 4338,
      "GeH": 4339,
      "AgSn": 4340,
      "AgSr": 4341,
      "AuTl": 4342,
      "BiNa": 4343,
      "IrSe": 4344,
      "Mn12": 4345,
      "MnRu": 4346,
      "1205": 4347,
      "12070": 4348,
      "Hg8": 4349,
      "HgP": 4350,
      "Tl8": 4351,
      "096": 4352,
      "545": 4353,
      "330": 4354,
      "673": 4355,
      "429": 4356,
      "081": 4357,
      "432": 4358,
      "856": 4359,
      "323": 4360,
      "445": 4361,
      "5703": 4362,
      "7390": 4363,
      "10774": 4364,
      "10788": 4365,
      "10786": 4366,
      "2131": 4367,
      "8660": 4368,
      "792": 4369,
      "11883": 4370,
      "11030": 4371,
      "9854": 4372,
      "TiS2": 4373,
      "11789": 4374,
      "In2Te3": 4375,
      "AlNi3": 4376,
      "YAg3": 4377,
      "Co4As4": 4378,
      "10807": 4379,
      "Mo2As4": 4380,
      "Cd2Te2": 4381,
      "P̅4c2": 4382,
      "Ti3In": 4383,
      "Sc4Sb2": 4384,
      "Ge6Ta10": 4385,
      "10077": 4386,
      "10800": 4387,
      "P6_322": 4388,
      "Ag8Se4": 4389,
      "OHNNCH3": 4390,
      "1120": 4391,
      "276": 4392,
      "489": 4393,
      "875": 4394,
      "980": 4395,
      "KIn": 4396,
      "PTlP": 4397,
      "S24": 4398,
      "VAl": 4399,
      "YCu": 4400,
      "YRh": 4401,
      "na": 4402,
      "ph": 4403,
      "₄)₂": 4404,
      "TiIn": 4405,
      "TiRu": 4406,
      "TiRe": 4407,
      "PdAu": 4408,
      "SeSbRu": 4409,
      "TeTi": 4410,
      "TeHg": 4411,
      "Zr24": 4412,
      "CuH": 4413,
      "NaSi": 4414,
      "NaGe": 4415,
      "AgAs": 4416,
      "NbW": 4417,
      "MoV": 4418,
      "Sr20": 4419,
      "CoN": 4420,
      "CoTc": 4421,
      "CrCo": 4422,
      "Ir8": 4423,
      "12082": 4424,
      "542": 4425,
      "547": 4426,
      "CsPb": 4427,
      "693": 4428,
      "719": 4429,
      "589": 4430,
      "327": 4431,
      "579": 4432,
      "195": 4433,
      "259": 4434,
      "682": 4435,
      "823": 4436,
      "9755": 4437,
      "9723": 4438,
      "1185": 4439,
      "11850": 4440,
      "11840": 4441,
      "11848": 4442,
      "11877": 4443,
      "11018": 4444,
      "11028": 4445,
      "1102131": 4446,
      "9833": 4447,
      "Al2P2": 4448,
      "Sr2Sn8": 4449,
      "In2Te4": 4450,
      "12153": 4451,
      "Na3Ag": 4452,
      "Na3Cd": 4453,
      "Na3Hg": 4454,
      "5673": 4455,
      "Ccce": 4456,
      "Ti3Al5": 4457,
      "Rb8Sb8": 4458,
      "Sr8Pd4": 4459,
      "SCoNi": 4460,
      "K5Sb4": 4461,
      "SFeCu": 4462,
      "NScTi": 4463,
      "175": 4464,
      "266": 4465,
      "279": 4466,
      "409": 4467,
      "554": 4468,
      "612": 4469,
      "767": 4470,
      "779": 4471,
      "H10": 4472,
      "KH": 4473,
      "N5": 4474,
      "VHf": 4475,
      "V12": 4476,
      "VTc": 4477,
      "YNi": 4478,
      "Y20": 4479,
      "bra": 4480,
      "loride": 4481,
      "InSn": 4482,
      "InCo": 4483,
      "Al9": 4484,
      "Al18": 4485,
      "Aluminum": 4486,
      "TiW": 4487,
      "PdSe": 4488,
      "PdFe": 4489,
      "SiRh": 4490,
      "AsY": 4491,
      "AsAl": 4492,
      "NaTl2": 4493,
      "SbAg": 4494,
      "1213": 4495,
      "ZnGe": 4496,
      "Sn7": 4497,
      "SnAg": 4498,
      "Ge10": 4499,
      "MoIr": 4500,
      "AuSb": 4501,
      "AuSr": 4502,
      "1836": 4503,
      "1178": 4504,
      "BiAs": 4505,
      "FeRu": 4506,
      "RuZr": 4507,
      "RuMn": 4508,
      "CrGa": 4509,
      "Cr12": 4510,
      "IrAl": 4511,
      "IrBi": 4512,
      "MnV": 4513,
      "MnCa": 4514,
      "MnAu": 4515,
      "12068": 4516,
      "12077": 4517,
      "2082": 4518,
      "10953": 4519,
      "540": 4520,
      "5426": 4521,
      "427": 4522,
      "960": 4523,
      "969": 4524,
      "CsAu": 4525,
      "850": 4526,
      "5055": 4527,
      "326": 4528,
      "5712": 4529,
      "021": 4530,
      "10795": 4531,
      "894": 4532,
      "939": 4533,
      "494": 4534,
      "8616": 4535,
      "8658": 4536,
      "5689": 4537,
      "11020": 4538,
      "11058": 4539,
      "11017": 4540,
      "6398": 4541,
      "8462": 4542,
      "12171": 4543,
      "317": 4544,
      "9896": 4545,
      "12215": 4546,
      "12257": 4547,
      "S2Sn2": 4548,
      "PPIr": 4549,
      "122063": 4550,
      "As2Sr": 4551,
      "HgPd3": 4552,
      "10808": 4553,
      "12199": 4554,
      "Ca4In4": 4555,
      "8623": 4556,
      "8678": 4557,
      "30876": 4558,
      "5677": 4559,
      "1223866": 4560,
      "V6Ge2": 4561,
      "NaIn3": 4562,
      "Hf3Sn": 4563,
      "Ca6Zn2": 4564,
      "P6_422": 4565,
      "K5As4": 4566,
      "R3c": 4567,
      "PYP": 4568,
      "brass": 4569,
      "147": 4570,
      "HV": 4571,
      "HPd": 4572,
      "NZn": 4573,
      "S14": 4574,
      "Vul": 4575,
      "VZn": 4576,
      "VFe": 4577,
      "V16": 4578,
      "W8": 4579,
      "trich": 4580,
      "InHg": 4581,
      "AlV": 4582,
      "AlOs": 4583,
      "TiPd2": 4584,
      "PdGa": 4585,
      "PdPt": 4586,
      "PdSr": 4587,
      "Pd14": 4588,
      "SeSr": 4589,
      "Ni7": 4590,
      "Ni9": 4591,
      "Ni10": 4592,
      "1062": 4593,
      "GaH": 4594,
      "Millerite": 4595,
      "TeK": 4596,
      "TeSc": 4597,
      "TeSr": 4598,
      "uctor": 4599,
      "HfRh": 4600,
      "Zr8": 4601,
      "ZrSn": 4602,
      "Cu5": 4603,
      "CuIn": 4604,
      "CuAs": 4605,
      "NaPd": 4606,
      "NaCd": 4607,
      "conductor": 4608,
      "Sb3": 4609,
      "SbAl": 4610,
      "SbTe2": 4611,
      "Zn12": 4612,
      "NbMo": 4613,
      "canite": 4614,
      "Mo12": 4615,
      "SrCa": 4616,
      "CoPt": 4617,
      "CoBi": 4618,
      "FeTe": 4619,
      "CrC": 4620,
      "CrFe": 4621,
      "CdPd": 4622,
      "CdSn": 4623,
      "12009": 4624,
      "12063": 4625,
      "perconductor": 4626,
      "1093": 4627,
      "10956": 4628,
      "Os3": 4629,
      "OsAl": 4630,
      "339": 4631,
      "157": 4632,
      "superconductor": 4633,
      "531": 4634,
      "504": 4635,
      "224": 4636,
      "406": 4637,
      "8880": 4638,
      "321": 4639,
      "5715": 4640,
      "525": 4641,
      "191": 4642,
      "197": 4643,
      "1070": 4644,
      "10796": 4645,
      "10789": 4646,
      "456": 4647,
      "491": 4648,
      "861": 4649,
      "864": 4650,
      "238": 4651,
      "11026": 4652,
      "P2S6": 4653,
      "Si4Ru4": 4654,
      "Ti2Re": 4655,
      "Te4Pb4": 4656,
      "Se4In4": 4657,
      "Y2Ag2": 4658,
      "Ni4S8": 4659,
      "12206": 4660,
      "5693": 4661,
      "HfAl3": 4662,
      "Co4Si4": 4663,
      "10806": 4664,
      "10848": 4665,
      "AgAu3": 4666,
      "Hf6Al2": 4667,
      "11290": 4668,
      "V4Ga10": 4669,
      "NaHg3": 4670,
      "CaSn3": 4671,
      "Na6Cd2": 4672,
      "11387": 4673,
      "30373": 4674,
      "Ga3Hf": 4675,
      "983509": 4676,
      "Na12Hg8": 4677,
      "982370": 4678,
      "685146": 4679,
      "ZrHN": 4680,
      "Vulcanite": 4681,
      "trichloride": 4682,
      "170": 4683,
      "655": 4684,
      "634": 4685,
      "706": 4686,
      "909": 4687,
      "913": 4688,
      "990": 4689,
      "Ama2": 4690,
      "HHf": 4691,
      "KBi": 4692,
      "NGa": 4693,
      "PRh": 4694,
      "PNb": 4695,
      "PMo": 4696,
      "PCd": 4697,
      "Plu": 4698,
      "P31m": 4699,
      "VW": 4700,
      "W6": 4701,
      "WC": 4702,
      "WRh": 4703,
      "hrate": 4704,
      "tonium": 4705,
      "athrate": 4706,
      "InNb": 4707,
      "TiSb": 4708,
      "SePt": 4709,
      "SeMn": 4710,
      "SiCo": 4711,
      "Ni5": 4712,
      "NiRe": 4713,
      "1014": 4714,
      "1089": 4715,
      "1013": 4716,
      "PtTc": 4717,
      "AsSc": 4718,
      "AsAgAs": 4719,
      "HfRu": 4720,
      "Hf20": 4721,
      "CuGe": 4722,
      "NaSn": 4723,
      "SnCo": 4724,
      "GeCa": 4725,
      "GeSb": 4726,
      "Ge24": 4727,
      "Rh12": 4728,
      "RhTa": 4729,
      "AgK": 4730,
      "AgAsSe": 4731,
      "NbRe": 4732,
      "ScPb": 4733,
      "SrPt": 4734,
      "183": 4735,
      "TaZn": 4736,
      "TaNbW": 4737,
      "CoCr": 4738,
      "1196": 4739,
      "Bi3": 4740,
      "FeMn": 4741,
      "MnIr": 4742,
      "CdPb": 4743,
      "CdHg": 4744,
      "ClTl": 4745,
      "Clathrate": 4746,
      "RbIn": 4747,
      "RbPbCl": 4748,
      "12033": 4749,
      "12062": 4750,
      "207": 4751,
      "2070": 4752,
      "20132": 4753,
      "10952": 4754,
      "HgHf": 4755,
      "091": 4756,
      "541": 4757,
      "168": 4758,
      "OsS": 4759,
      "CsSe": 4760,
      "CsHg": 4761,
      "TcPt": 4762,
      "153": 4763,
      "1563": 4764,
      "071": 4765,
      "6273": 4766,
      "690": 4767,
      "5552": 4768,
      "8500": 4769,
      "746": 4770,
      "881": 4771,
      "884": 4772,
      "5735": 4773,
      "023": 4774,
      "521": 4775,
      "731": 4776,
      "666": 4777,
      "1900": 4778,
      "10780": 4779,
      "10794": 4780,
      "681": 4781,
      "828": 4782,
      "829": 4783,
      "9720": 4784,
      "230": 4785,
      "804": 4786,
      "799": 4787,
      "783": 4788,
      "P4Zr4": 4789,
      "P4Rh4": 4790,
      "11861": 4791,
      "11036": 4792,
      "300": 4793,
      "12174": 4794,
      "9991": 4795,
      "12272": 4796,
      "11796": 4797,
      "S2Ta": 4798,
      "Ca2In4": 4799,
      "Ti2Pd2": 4800,
      "Si2Ca2": 4801,
      "Al2Si2": 4802,
      "Hf4Al4": 4803,
      "Sb4Te6": 4804,
      "P̅62c": 4805,
      "Se2S2": 4806,
      "Se2Sn2": 4807,
      "Co2Se4": 4808,
      "1215509": 4809,
      "12204": 4810,
      "Zn2Pd4": 4811,
      "5690": 4812,
      "SSbRh": 4813,
      "HCaNi": 4814,
      "Co4Ge4": 4815,
      "Na3Au": 4816,
      "AsAsPd": 4817,
      "1186109": 4818,
      "AsTeIr": 4819,
      "1183694": 4820,
      "V2S4": 4821,
      "567409": 4822,
      "1186055": 4823,
      "Se12In16": 4824,
      "1184502": 4825,
      "TeAsIr": 4826,
      "NaAu3": 4827,
      "P3_221": 4828,
      "Ag3Au": 4829,
      "1180659": 4830,
      "1067933": 4831,
      "19932": 4832,
      "Ge12Pt8": 4833,
      "10172": 4834,
      "V10Si6": 4835,
      "972373": 4836,
      "Plutonium": 4837,
      ")₆": 4838,
      "1109": 4839,
      "144": 4840,
      "172": 4841,
      "290": 4842,
      "283": 4843,
      "287": 4844,
      "309": 4845,
      "362": 4846,
      "363": 4847,
      "522": 4848,
      "5544": 4849,
      "642": 4850,
      "644": 4851,
      "769": 4852,
      "9Pt6": 4853,
      "C16": 4854,
      "H18": 4855,
      "K10": 4856,
      "KNa": 4857,
      "PCl": 4858,
      "S7": 4859,
      "St": 4860,
      "ale": 4861,
      "dale": 4862,
      "sdale": 4863,
      "tl": 4864,
      "InPb": 4865,
      "Al20": 4866,
      "Al16": 4867,
      "Ti12": 4868,
      "TiSn": 4869,
      "PdS": 4870,
      "PdTe2": 4871,
      "SiMn": 4872,
      "10227": 4873,
      "Ga18": 4874,
      "PtAs": 4875,
      "TeP": 4876,
      "HfTc": 4877,
      "CaGe2": 4878,
      "ZrBi": 4879,
      "Cupr": 4880,
      "SbPd": 4881,
      "SbGa": 4882,
      "SbCd": 4883,
      "1211": 4884,
      "1259": 4885,
      "Sn16": 4886,
      "RhCo": 4887,
      "RhFe": 4888,
      "RhMn": 4889,
      "AgZr": 4890,
      "AgBi": 4891,
      "Nb14": 4892,
      "ScAu": 4893,
      "ScRu": 4894,
      "MoCo": 4895,
      "AuSc": 4896,
      "SrNi": 4897,
      "TaFe": 4898,
      "TaMn": 4899,
      "Co7": 4900,
      "1192": 4901,
      "1198": 4902,
      "BiSbPt": 4903,
      "FeCl": 4904,
      "Ru3": 4905,
      "CrSn": 4906,
      "CrGe": 4907,
      "MnAl2": 4908,
      "Cl20": 4909,
      "2030": 4910,
      "20555": 4911,
      "090": 4912,
      "OsGa": 4913,
      "OsZr": 4914,
      "338": 4915,
      "TcPd": 4916,
      "431": 4917,
      "621": 4918,
      "556": 4919,
      "532": 4920,
      "859": 4921,
      "475": 4922,
      "880": 4923,
      "8860": 4924,
      "P6â": 4925,
      "529": 4926,
      "148": 4927,
      "1483": 4928,
      "656": 4929,
      "1922": 4930,
      "10797": 4931,
      "10787": 4932,
      "10798": 4933,
      "683": 4934,
      "8662": 4935,
      "23152": 4936,
      "641": 4937,
      "11819": 4938,
      "11849": 4939,
      "Pn̅3m": 4940,
      "777": 4941,
      "11042": 4942,
      "11063": 4943,
      "994": 4944,
      "11907": 4945,
      "12269": 4946,
      "12285": 4947,
      "12274": 4948,
      "S2Cs2": 4949,
      "Lonsdale": 4950,
      "Si4Pt4": 4951,
      "Si2Y": 4952,
      "Si2S8": 4953,
      "Si2Rh3": 4954,
      "As4Rh4": 4955,
      "Al2Pt6": 4956,
      "Sr2In4": 4957,
      "Sr2In8": 4958,
      "Hf4Si4": 4959,
      "Hf4Al3": 4960,
      "Ni2As4": 4961,
      "Ge2Pt6": 4962,
      "Zr4Ge4": 4963,
      "Se2Pb2": 4964,
      "Ni4As4": 4965,
      "1220023": 4966,
      "K2Hg4": 4967,
      "YAgSe": 4968,
      "Se8Ru4": 4969,
      "Sn4Hf4": 4970,
      "Na3Bi": 4971,
      "Cu4Sn4": 4972,
      "Rb2Te2": 4973,
      "Zr6Si4": 4974,
      "5680": 4975,
      "Zintl": 4976,
      "12237": 4977,
      "Ti3Sn": 4978,
      "1186018": 4979,
      "1186034": 4980,
      "12189": 4981,
      "Ti6Sn2": 4982,
      "Hf3Pb": 4983,
      "1207024": 4984,
      "Na6Cl6": 4985,
      "Ta10Si6": 4986,
      "1025223": 4987,
      "977189": 4988,
      "30717": 4989,
      "Ag8S4": 4990,
      "NaPb3": 4991,
      "Ti5S8": 4992,
      "22924": 4993,
      "Ge12Ir3": 4994,
      "Sc12As8": 4995,
      "1079952": 4996,
      "Rb3Hg": 4997,
      "1184511": 4998,
      "1120767": 4999,
      "1120769": 5000,
      "1186050": 5001,
      "1207013": 5002,
      "Stannite": 5003,
      "Ga18Rh4": 5004,
      "Cuprite": 5005,
      "Lonsdaleite": 5006,
      "250": 5007,
      "263": 5008,
      "518": 5009,
      "5Co": 5010,
      "8426": 5011,
      "932": 5012,
      "Cmm2": 5013,
      "HNb": 5014,
      "H24": 5015,
      "NCl": 5016,
      "P7": 5017,
      "Par": 5018,
      "PGa": 5019,
      "PCu": 5020,
      "PNa": 5021,
      "PSc": 5022,
      "P24": 5023,
      "PCaP": 5024,
      "SPt": 5025,
      "SMn": 5026,
      "SAsOs": 5027,
      "YN": 5028,
      "YPb": 5029,
      "nb": 5030,
      "₁₄": 5031,
      "InRb": 5032,
      "AlPS": 5033,
      "TiCrS": 5034,
      "PdY": 5035,
      "SiSc": 5036,
      "SiMo": 5037,
      "SiTa": 5038,
      "Si40": 5039,
      "Si24": 5040,
      "1042": 5041,
      "1066": 5042,
      "1019": 5043,
      "10559": 5044,
      "GaFe": 5045,
      "GaRu": 5046,
      "GaGeTe": 5047,
      "PtCa": 5048,
      "Te5": 5049,
      "TeZn": 5050,
      "TeFe": 5051,
      "AsTa": 5052,
      "AsRu": 5053,
      "HfMo": 5054,
      "ZrNi": 5055,
      "CuTa": 5056,
      "NaBiSe": 5057,
      "SbHf": 5058,
      "SbSrSn": 5059,
      "1282": 5060,
      "Ge20": 5061,
      "RhH": 5062,
      "RhN": 5063,
      "NbPd2": 5064,
      "MoS2": 5065,
      "MoPt3": 5066,
      "182": 5067,
      "1887": 5068,
      "TaAu": 5069,
      "Ta30": 5070,
      "1157": 5071,
      "FePd": 5072,
      "FeNi": 5073,
      "FePt": 5074,
      "Fe12": 5075,
      "FeRh": 5076,
      "FeCo": 5077,
      "RuGe": 5078,
      "Ru16": 5079,
      "Cr10": 5080,
      "CdGa": 5081,
      "CdGe": 5082,
      "PbK": 5083,
      "ClPb": 5084,
      "ClHg": 5085,
      "RbHg": 5086,
      "RbIn4": 5087,
      "12057": 5088,
      "12090": 5089,
      "2053": 5090,
      "10913": 5091,
      "TlSb": 5092,
      "ReCl": 5093,
      "5416": 5094,
      "5407": 5095,
      "5461": 5096,
      "OsSe": 5097,
      "OsSc": 5098,
      "677": 5099,
      "6750": 5100,
      "9616": 5101,
      "Cs6": 5102,
      "083": 5103,
      "438": 5104,
      "6907": 5105,
      "6971": 5106,
      "052": 5107,
      "530": 5108,
      "479": 5109,
      "501": 5110,
      "22691": 5111,
      "400": 5112,
      "886": 5113,
      "888": 5114,
      "061": 5115,
      "448": 5116,
      "575": 5117,
      "655461": 5118,
      "6846": 5119,
      "592": 5120,
      "597": 5121,
      "N2Al2": 5122,
      "9799": 5123,
      "976273": 5124,
      "8650": 5125,
      "231": 5126,
      "795": 5127,
      "1364": 5128,
      "787": 5129,
      "P4Mo2": 5130,
      "P4W2": 5131,
      "11842": 5132,
      "11862": 5133,
      "11889": 5134,
      "11882": 5135,
      "11835": 5136,
      "1106": 5137,
      "11038": 5138,
      "P2Cu2": 5139,
      "8781": 5140,
      "2802": 5141,
      "11420": 5142,
      "12262": 5143,
      "S2Nb2": 5144,
      "NiSe4": 5145,
      "Ca2Hg6": 5146,
      "Ca2Cd6": 5147,
      "nmc": 5148,
      "Ti2Cd": 5149,
      "Si2Ni6": 5150,
      "Al2Hf2": 5151,
      "Al2Cu6": 5152,
      "Sr2Sn2": 5153,
      "Sr2Sn6": 5154,
      "Y2Te4": 5155,
      "Y2Sn6": 5156,
      "1216195": 5157,
      "Ga2Y2": 5158,
      "Ni2Ge2": 5159,
      "Cu2Au2": 5160,
      "Se2In2": 5161,
      "10250": 5162,
      "TlPd3": 5163,
      "Co2Sb4": 5164,
      "Ni4Y4": 5165,
      "12157": 5166,
      "Ga4S6": 5167,
      "K2Se": 5168,
      "K2Se6": 5169,
      "569289": 5170,
      "Na2Hg6": 5171,
      "1018151": 5172,
      "10847": 5173,
      "10874": 5174,
      "12190": 5175,
      "12193": 5176,
      "mbc": 5177,
      "mcc": 5178,
      "Bi2Se3": 5179,
      "SNaCr": 5180,
      "CdAg3": 5181,
      "Te6Pt4": 5182,
      "Rb2Hg4": 5183,
      "1186152": 5184,
      "Al3Cu": 5185,
      "Al3Tc": 5186,
      "1183517": 5187,
      "568792": 5188,
      "Sr4Bi2": 5189,
      "1186067": 5190,
      "1186047": 5191,
      "SrSnP": 5192,
      "ScSn3": 5193,
      "12183": 5194,
      "SrIn5": 5195,
      "Hf6Ge4": 5196,
      "11288": 5197,
      "1080459": 5198,
      "Na8As8": 5199,
      "Sr8In8": 5200,
      "Ca6Hg4": 5201,
      "11345": 5202,
      "22009": 5203,
      "Ca3Pb": 5204,
      "1206486": 5205,
      "30501": 5206,
      "NYSc": 5207,
      "10259": 5208,
      "Ag8Te4": 5209,
      "29619": 5210,
      "9835": 5211,
      "9827": 5212,
      "SeAsRu": 5213,
      "SeAsOs": 5214,
      "SrTl3": 5215,
      "1023924": 5216,
      "SbAsIr": 5217,
      "Si10Rh8": 5218,
      "1184591": 5219,
      "981383": 5220,
      "1094267": 5221,
      "975204": 5222,
      "AsSbIr": 5223,
      "In9Pt12": 5224,
      "1025513": 5225,
      "SbBiPt": 5226,
      "541837": 5227,
      "1206636": 5228,
      "1186781": 5229,
      "1187816": 5230,
      "867347": 5231,
      "21405": 5232,
      "972981": 5233,
      "21477": 5234,
      "1224298": 5235,
      "Ca16In6": 5236,
      "1184808": 5237,
      "superconductors": 5238,
      "1014111": 5239,
      "Parent": 5240,
      "1055940": 5241,
      ")₅": 5242,
      "1749": 5243,
      "242": 5244,
      "240": 5245,
      "248": 5246,
      "2576": 5247,
      "419": 5248,
      "574": 5249,
      "519": 5250,
      "5GPa": 5251,
      "646": 5252,
      "619": 5253,
      "780": 5254,
      "802": 5255,
      "C8": 5256,
      "CTi": 5257,
      "H12": 5258,
      "Ima2": 5259,
      "Kr": 5260,
      "K20": 5261,
      "P10": 5262,
      "PIr2": 5263,
      "PTcP": 5264,
      "SGa": 5265,
      "S18": 5266,
      "SC16": 5267,
      "V8": 5268,
      "YCo": 5269,
      "YAu2": 5270,
      "lw": 5271,
      "lith": 5272,
      "ood": 5273,
      "₅)₂": 5274,
      "enner": 5275,
      "InK": 5276,
      "InSbTe": 5277,
      "angstrom": 5278,
      "AlZn": 5279,
      "TiTc": 5280,
      "TiAu2": 5281,
      "TiFe2": 5282,
      "Pd13": 5283,
      "SeHf": 5284,
      "SeCl": 5285,
      "Si5": 5286,
      "10136": 5287,
      "1021328": 5288,
      "PtRe": 5289,
      "TeCa": 5290,
      "TeZr": 5291,
      "TeNb": 5292,
      "zelw": 5293,
      "AsRh2": 5294,
      "Hf5": 5295,
      "HfCo": 5296,
      "Hf16": 5297,
      "ZrAu": 5298,
      "ZrTiSe": 5299,
      "Cu7": 5300,
      "Cu10": 5301,
      "Cu16": 5302,
      "SbSc": 5303,
      "1235": 5304,
      "ZnIr": 5305,
      "ZnHg": 5306,
      "SnCa": 5307,
      "AgGa": 5308,
      "Ag14": 5309,
      "NbCo": 5310,
      "MoGe": 5311,
      "Sr5": 5312,
      "SrIrIn": 5313,
      "1862": 5314,
      "TaMo": 5315,
      "1147": 5316,
      "1173": 5317,
      "11972": 5318,
      "BiGa": 5319,
      "BiSbTe": 5320,
      "FeGa": 5321,
      "RuTi": 5322,
      "CrSb": 5323,
      "Ir16": 5324,
      "CdCl2": 5325,
      "ClAg": 5326,
      "Rb16": 5327,
      "12069": 5328,
      "201": 5329,
      "205": 5330,
      "20526": 5331,
      "10968": 5332,
      "HgTl": 5333,
      "Tl6": 5334,
      "Tl20": 5335,
      "095": 5336,
      "ReTc": 5337,
      "OsV": 5338,
      "OsTe": 5339,
      "OsCl": 5340,
      "334": 5341,
      "671": 5342,
      "424": 5343,
      "425": 5344,
      "CsTe": 5345,
      "085": 5346,
      "086": 5347,
      "1550": 5348,
      "1522": 5349,
      "1552": 5350,
      "6287": 5351,
      "553": 5352,
      "5565": 5353,
      "051": 5354,
      "535": 5355,
      "538": 5356,
      "470": 5357,
      "506": 5358,
      "2271": 5359,
      "22735": 5360,
      "22337": 5361,
      "7441": 5362,
      "581": 5363,
      "582": 5364,
      "329": 5365,
      "5702": 5366,
      "463": 5367,
      "524": 5368,
      "734": 5369,
      "19713": 5370,
      "1077045": 5371,
      "892": 5372,
      "684": 5373,
      "NO2NO2": 5374,
      "I4cm": 5375,
      "10487": 5376,
      "598": 5377,
      "8637": 5378,
      "2302": 5379,
      "23206": 5380,
      "791": 5381,
      "13683": 5382,
      "11896": 5383,
      "11875": 5384,
      "561": 5385,
      "29266": 5386,
      "Pnna": 5387,
      "11060": 5388,
      "11019": 5389,
      "11049": 5390,
      "11031": 5391,
      "639755": 5392,
      "P28": 5393,
      "TiSeS": 5394,
      "12175": 5395,
      "9970": 5396,
      "917": 5397,
      "2645": 5398,
      "12275": 5399,
      "S2Pb2": 5400,
      "S4Cu2": 5401,
      "S4Fe2": 5402,
      "Ca2Sn2": 5403,
      "Ca2Ag4": 5404,
      "Ca2As6": 5405,
      "Si4Ca2": 5406,
      "Si4Ni4": 5407,
      "Ti2Se2": 5408,
      "Ti2Ir2": 5409,
      "Si2Sc2": 5410,
      "Te4W3": 5411,
      "uphide": 5412,
      "Sr2Pd2": 5413,
      "Sr2Al4": 5414,
      "Sr2In6": 5415,
      "Y2Ga2": 5416,
      "Ge4Se4": 5417,
      "Ge4Hf2": 5418,
      "Ge4Sr8": 5419,
      "Hf2Pd2": 5420,
      "1216530": 5421,
      "Ga2Pt": 5422,
      "Ga2Se4": 5423,
      "Ga2Sb2": 5424,
      "Hf4N2": 5425,
      "Ni2Te2": 5426,
      "Ge2Sr2": 5427,
      "pressure": 5428,
      "Disuphide": 5429,
      "Al4Ca": 5430,
      "Al4Ti2": 5431,
      "Al4S6": 5432,
      "Se2Pt": 5433,
      "Se2Rh2": 5434,
      "Ti4Ga6": 5435,
      "Ti4H2": 5436,
      "Ga4Zr4": 5437,
      "As2Te3": 5438,
      "5698": 5439,
      "Na2Pt4": 5440,
      "Sc2Ge2": 5441,
      "10188": 5442,
      "1018121": 5443,
      "1018113": 5444,
      "P8Pt4": 5445,
      "P8K8": 5446,
      "Fe2Ge2": 5447,
      "Fe2As2": 5448,
      "10805": 5449,
      "Bi4Se8": 5450,
      "Mo2Pt2": 5451,
      "1186427": 5452,
      "Al3Ni2": 5453,
      "TiTeSe": 5454,
      "30846": 5455,
      "568745": 5456,
      "568789": 5457,
      "P̅4n2": 5458,
      "1217092": 5459,
      "1217895": 5460,
      "Ti3Se4": 5461,
      "1186024": 5462,
      "Ga6Hf10": 5463,
      "SrIn3": 5464,
      "V6Sn2": 5465,
      "1078123": 5466,
      "Sn6Pt4": 5467,
      "Sb8Ir4": 5468,
      "Al6Ir2": 5469,
      "Pd8Bi8": 5470,
      "10032": 5471,
      "Ta4Rh8": 5472,
      "Cr2S4": 5473,
      "13270": 5474,
      "1007692": 5475,
      "CdAu3": 5476,
      "974421": 5477,
      "Na6Hg2": 5478,
      "Zr10Sn6": 5479,
      "30366": 5480,
      "8659": 5481,
      "Sn8Pd2": 5482,
      "22095": 5483,
      "570691": 5484,
      "Ca8In4": 5485,
      "Ca8Sn4": 5486,
      "TiIr3": 5487,
      "1018059": 5488,
      "RbAu5": 5489,
      "2126": 5490,
      "2128": 5491,
      "21276": 5492,
      "8663": 5493,
      "H4C": 5494,
      "Hazelw": 5495,
      "HfIr3": 5496,
      "30682": 5497,
      "TiMo3": 5498,
      "Ta10Ga6": 5499,
      "1077098": 5500,
      "1077978": 5501,
      "Sc3Ge3": 5502,
      "1335": 5503,
      "K6Sb2": 5504,
      "Ag6Ca10": 5505,
      "Sc6In2": 5506,
      "11809": 5507,
      "31312": 5508,
      "Ga10Ni2": 5509,
      "6850": 5510,
      "31172": 5511,
      "607138": 5512,
      "Sc10Ga6": 5513,
      "C4Mo8": 5514,
      "1057273": 5515,
      "9897": 5516,
      "999502": 5517,
      "Ti4H3": 5518,
      "Ca12Au4": 5519,
      "1095578": 5520,
      "1103212": 5521,
      "604325": 5522,
      "684799": 5523,
      "1017983": 5524,
      "974920": 5525,
      "1206659": 5526,
      "1179802": 5527,
      "570562": 5528,
      "864647": 5529,
      "1186058": 5530,
      "ncc": 5531,
      "Sc20Bi12": 5532,
      "1012435": 5533,
      "1178952": 5534,
      "Sr20Bi12": 5535,
      "1185041": 5536,
      "Y20Pt16": 5537,
      "1095302": 5538,
      "1079574": 5539,
      "23870": 5540,
      "1104275": 5541,
      "1223773": 5542,
      "Krenner": 5543,
      "lithium": 5544,
      "oodite": 5545,
      "1197242": 5546,
      "1096861": 5547,
      "Hazelwoodite": 5548,
      "Krennerite": 5549,
      "2180": 5550,
      "302": 5551,
      "454": 5552,
      "562": 5553,
      "605": 5554,
      "7Pt": 5555,
      "766": 5556,
      "7526": 5557,
      "8073": 5558,
      "954": 5559,
      "984": 5560,
      "9227": 5561,
      "9969": 5562,
      "C6": 5563,
      "Cin": 5564,
      "H20": 5565,
      "HTa2": 5566,
      "KN": 5567,
      "KAg": 5568,
      "KIn4": 5569,
      "NK": 5570,
      "PTe": 5571,
      "P20": 5572,
      "PAsPt": 5573,
      "RÌ": 5574,
      "VPt2": 5575,
      "W12": 5576,
      "YAs": 5577,
      "YFe": 5578,
      "YSi2": 5579,
      "_0": 5580,
      "md": 5581,
      "nab": 5582,
      "₇(": 5583,
      "ino": 5584,
      "Al7": 5585,
      "AlSn": 5586,
      "Al13": 5587,
      "AlCr2": 5588,
      "TiMo2": 5589,
      "Ti7Pt": 5590,
      "Pd16": 5591,
      "Se10": 5592,
      "SeZr": 5593,
      "SeGe": 5594,
      "SeSbPt": 5595,
      "SeSiPt": 5596,
      "SeGePt": 5597,
      "SiSb": 5598,
      "NiN": 5599,
      "1069": 5600,
      "1056": 5601,
      "1000": 5602,
      "1027": 5603,
      "1010136": 5604,
      "GaCu": 5605,
      "GaMo": 5606,
      "GaCo": 5607,
      "GaMn": 5608,
      "Ga40": 5609,
      "PtHf": 5610,
      "PtAu": 5611,
      "PtSr": 5612,
      "PtRh3": 5613,
      "AsCo": 5614,
      "AsCuTe": 5615,
      "HfTeSe": 5616,
      "CaPd": 5617,
      "ZrPP": 5618,
      "CuPt": 5619,
      "Cu20": 5620,
      "CuAsS": 5621,
      "NaGa": 5622,
      "SbIr": 5623,
      "1245": 5624,
      "12102": 5625,
      "12108": 5626,
      "ZnSi": 5627,
      "ZnRh3": 5628,
      "SnPS": 5629,
      "GeFe": 5630,
      "Nb24": 5631,
      "ScHg": 5632,
      "ScRhGe": 5633,
      "ScIr3": 5634,
      "AuSi": 5635,
      "Au10": 5636,
      "Au16": 5637,
      "SrSe": 5638,
      "1822": 5639,
      "Ta5": 5640,
      "Ta8": 5641,
      "Ta12": 5642,
      "TaCl": 5643,
      "TaInSe": 5644,
      "1194": 5645,
      "BiIr": 5646,
      "CrH": 5647,
      "CrRu": 5648,
      "CrIr": 5649,
      "IrCl": 5650,
      "PbSr": 5651,
      "PbSnS": 5652,
      "ClIn": 5653,
      "ClCd": 5654,
      "RbAs": 5655,
      "12059": 5656,
      "12087": 5657,
      "2006": 5658,
      "2049": 5659,
      "2059": 5660,
      "2081": 5661,
      "20628": 5662,
      "ReAl": 5663,
      "161": 5664,
      "1620": 5665,
      "1699": 5666,
      "1601": 5667,
      "332": 5668,
      "CsGa": 5669,
      "CsSb": 5670,
      "CsSn": 5671,
      "CsCaCl": 5672,
      "CsPbCl": 5673,
      "TcAg": 5674,
      "1596": 5675,
      "1502": 5676,
      "1523": 5677,
      "436": 5678,
      "072": 5679,
      "5558": 5680,
      "050": 5681,
      "858": 5682,
      "2223": 5683,
      "22481": 5684,
      "600": 5685,
      "601": 5686,
      "324": 5687,
      "446": 5688,
      "5711": 5689,
      "029": 5690,
      "523": 5691,
      "14P8": 5692,
      "751": 5693,
      "7585": 5694,
      "661": 5695,
      "6615": 5696,
      "656615": 5697,
      "899": 5698,
      "2597": 5699,
      "680": 5700,
      "704": 5701,
      "763": 5702,
      "2172": 5703,
      "8657": 5704,
      "800": 5705,
      "7916": 5706,
      "1397": 5707,
      "13164": 5708,
      "7846": 5709,
      "903": 5710,
      "728": 5711,
      "729": 5712,
      "7219": 5713,
      "1182070": 5714,
      "24082": 5715,
      "11046": 5716,
      "11004": 5717,
      "11056": 5718,
      "11029": 5719,
      "6170": 5720,
      "30673": 5721,
      "9985": 5722,
      "9922": 5723,
      "3648": 5724,
      "31c": 5725,
      "2612": 5726,
      "12250": 5727,
      "12284": 5728,
      "12287": 5729,
      "1226170": 5730,
      "10644": 5731,
      "12388": 5732,
      "S2Nb": 5733,
      "S2Hf4": 5734,
      "Ca2Pb": 5735,
      "Ca2Sb4": 5736,
      "Ca2Bi4": 5737,
      "Ca2Au4": 5738,
      "Ca2Ni10": 5739,
      "Si4Ti2": 5740,
      "Ti2Pd": 5741,
      "Ti2S2": 5742,
      "Ti2In2": 5743,
      "Ti2Pt2": 5744,
      "Si2W": 5745,
      "Si2S4": 5746,
      "Si2Ni2": 5747,
      "Si2S6": 5748,
      "Sn2Se2": 5749,
      "As4Ru2": 5750,
      "As4Te6": 5751,
      "As4Pd8": 5752,
      "Al2Ge2": 5753,
      "Sr2Au4": 5754,
      "TiPt8": 5755,
      "Y2Al2": 5756,
      "Y2Sn4": 5757,
      "Ge4H16": 5758,
      "Pd2Ta": 5759,
      "Hf2Cd": 5760,
      "Hf2Pt2": 5761,
      "1216825": 5762,
      "1216519": 5763,
      "Ga2S4": 5764,
      "Ga2Pt6": 5765,
      "Ni2Ta": 5766,
      "Au2Tl4": 5767,
      "In2Cl2": 5768,
      "In2Au3": 5769,
      "Zr2Te6": 5770,
      "Zr2In6": 5771,
      "Zr4Si4": 5772,
      "Zr4Al4": 5773,
      "Al4Te6": 5774,
      "Cu2As2": 5775,
      "10293": 5776,
      "10263": 5777,
      "Ni4P4": 5778,
      "Ni4Ge4": 5779,
      "Ti4Pd": 5780,
      "Ti4As4": 5781,
      "1215783": 5782,
      "Ga4Se4": 5783,
      "Ga4Zr2": 5784,
      "As2P2": 5785,
      "Zn2Pd6": 5786,
      "569535": 5787,
      "SSbPd": 5788,
      "Si6Cr3": 5789,
      "Na2In2": 5790,
      "Sc2Cd": 5791,
      "Sc2Ga2": 5792,
      "Pb2Se2": 5793,
      "1018156": 5794,
      "Rh4In12": 5795,
      "P8S8": 5796,
      "P8Zr4": 5797,
      "S6Hf2": 5798,
      "1087219": 5799,
      "12195": 5800,
      "Ca4Bi2": 5801,
      "ScGa3": 5802,
      "Na3Pt": 5803,
      "MoTeSe": 5804,
      "1186137": 5805,
      "1186437": 5806,
      "1186074": 5807,
      "Cd2Sn2": 5808,
      "Y4Al4": 5809,
      "1183224": 5810,
      "30852": 5811,
      "30835": 5812,
      "Zr6Ga10": 5813,
      "Sr4Pb6": 5814,
      "5679": 5815,
      "K4Na8": 5816,
      "K4Ag8": 5817,
      "Nb2Pd": 5818,
      "Nb2P4": 5819,
      "1217168": 5820,
      "InSbSe": 5821,
      "Ti3Zn": 5822,
      "Ti3Pd5": 5823,
      "Ta2S4": 5824,
      "Ta2Ru6": 5825,
      "Ta2Ir6": 5826,
      "Ru4Se4": 5827,
      "V6Ga2": 5828,
      "V6Ir2": 5829,
      "CaTl3": 5830,
      "1078602": 5831,
      "1078331": 5832,
      "Cs2Sn6": 5833,
      "Mo6S8": 5834,
      "Ti6Se8": 5835,
      "11229": 5836,
      "Pd3W": 5837,
      "V4Ir4": 5838,
      "Al12Tc3": 5839,
      "1007691": 5840,
      "1007976": 5841,
      "Sr8Sn4": 5842,
      "974620": 5843,
      "Zr10Sn7": 5844,
      "30343": 5845,
      "8656": 5846,
      "TeTeIr": 5847,
      "Rh8Sb4": 5848,
      "STiCr": 5849,
      "570199": 5850,
      "1184478": 5851,
      "P12Ir4": 5852,
      "1018029": 5853,
      "1018028": 5854,
      "Zn3Pd": 5855,
      "Zn3Pt": 5856,
      "Y3Cd": 5857,
      "Al8Hf12": 5858,
      "1206431": 5859,
      "30571": 5860,
      "30683": 5861,
      "Ga12Re4": 5862,
      "1184755": 5863,
      "1184703": 5864,
      "1077116": 5865,
      "973198": 5866,
      "W4C2": 5867,
      "Y6Ru4": 5868,
      "Y6In10": 5869,
      "573691": 5870,
      "573579": 5871,
      "2326": 5872,
      "982871": 5873,
      "1187258": 5874,
      "1187241": 5875,
      "Ag3In": 5876,
      "865565": 5877,
      "1180961": 5878,
      "976589": 5879,
      "SeAsPd": 5880,
      "SeAsRh": 5881,
      "755169": 5882,
      "971779": 5883,
      "971909": 5884,
      "Se3Bi4": 5885,
      "Mn3Si": 5886,
      "669913": 5887,
      "1228901": 5888,
      "1184658": 5889,
      "12593": 5890,
      "21342": 5891,
      "21359": 5892,
      "865355": 5893,
      "865357": 5894,
      "20351": 5895,
      "1221697": 5896,
      "672232": 5897,
      "672241": 5898,
      "CaNi5": 5899,
      "18614": 5900,
      "AsPPt": 5901,
      "1072724": 5902,
      "13853": 5903,
      "2582": 5904,
      "2861": 5905,
      "985825": 5906,
      "1207393": 5907,
      "1096915": 5908,
      "864758": 5909,
      "13010": 5910,
      "1104047": 5911,
      "998949": 5912,
      "Sb16Hf8": 5913,
      "Al10Mo2": 5914,
      "570786": 5915,
      "1187486": 5916,
      "569708": 5917,
      "1100773": 5918,
      "1219457": 5919,
      "Ti24Se12": 5920,
      "Tl3Sb": 5921,
      "1077365": 5922,
      "1187154": 5923,
      "1077466": 5924,
      "1188393": 5925,
      "1188303": 5926,
      "1007760": 5927,
      "1007786": 5928,
      "27607": 5929,
      "983365": 5930,
      "Al9Sr5": 5931,
      "1105835": 5932,
      "989695": 5933,
      "990090": 5934,
      "1217409": 5935,
      "554462": 5936,
      "Sn16Rh4": 5937,
      "1228524": 5938,
      "1205786": 5939,
      "Tl6S": 5940,
      "628773": 5941,
      "684602": 5942,
      "Cinnab": 5943,
      "Ti7Pt21": 5944,
      "10000": 5945,
      "AsCuTeAs": 5946,
      "1205955": 5947,
      "Cinnabar": 5948,
      "1123": 5949,
      "17045": 5950,
      "272": 5951,
      "2700": 5952,
      "2449": 5953,
      "2540": 5954,
      "21093": 5955,
      "399": 5956,
      "4H": 5957,
      "450": 5958,
      "643": 5959,
      "647": 5960,
      "6432": 5961,
      "7162": 5962,
      "915": 5963,
      "952": 5964,
      "949": 5965,
      "9938": 5966,
      "Ba": 5967,
      "CS": 5968,
      "HNi": 5969,
      "NCo": 5970,
      "NTc": 5971,
      "O4": 5972,
      "Pma2": 5973,
      "S5": 5974,
      "VMo": 5975,
      "YSc": 5976,
      "Y14": 5977,
      "osp": 5978,
      "pall": 5979,
      "aluminum": 5980,
      "AlRe": 5981,
      "Al34": 5982,
      "AlCu3": 5983,
      "AlPd3": 5984,
      "ilite": 5985,
      "TiV": 5986,
      "TiNb": 5987,
      "TiMn": 5988,
      "Ti13": 5989,
      "PdPb": 5990,
      "Pd24": 5991,
      "Se14": 5992,
      "Se24": 5993,
      "SiCr": 5994,
      "SiIr": 5995,
      "SiOs": 5996,
      "Si14": 5997,
      "Si23": 5998,
      "NiV": 5999,
      "NiIn": 6000,
      "Ni13": 6001,
      "Niob": 6002,
      "1022": 6003,
      "1063": 6004,
      "1030": 6005,
      "10744": 6006,
      "Ga7": 6007,
      "GaNa": 6008,
      "Ga22": 6009,
      "Te7": 6010,
      "TeTl": 6011,
      "AsNa": 6012,
      "HfFe": 6013,
      "HfCu3": 6014,
      "HfPt3": 6015,
      "CaFe": 6016,
      "Ca20": 6017,
      "CaPtIn": 6018,
      "CaCu4": 6019,
      "CaPdIn": 6020,
      "ZrAg": 6021,
      "ZrCoGa": 6022,
      "Cu8": 6023,
      "CuPd3": 6024,
      "CuO4": 6025,
      "Na10": 6026,
      "NaGa4": 6027,
      "SbZr": 6028,
      "1279": 6029,
      "ZnH": 6030,
      "Zn10": 6031,
      "ZnSc": 6032,
      "ZnTc": 6033,
      "ZnSnAs": 6034,
      "SnSi": 6035,
      "Rh9": 6036,
      "RhTe2": 6037,
      "AgGe": 6038,
      "AgInS": 6039,
      "NbSn": 6040,
      "NbRu": 6041,
      "NbTc": 6042,
      "NbMoSe": 6043,
      "NbRh3": 6044,
      "ScAg2": 6045,
      "ScRuSi": 6046,
      "ScAu3": 6047,
      "MoRe": 6048,
      "MoPt2": 6049,
      "MoW2": 6050,
      "Au7": 6051,
      "SrIn4": 6052,
      "184": 6053,
      "185": 6054,
      "1876": 6055,
      "Ta20": 6056,
      "CoIr": 6057,
      "11481": 6058,
      "11546": 6059,
      "11550": 6060,
      "BiK": 6061,
      "Bi16": 6062,
      "Fe7": 6063,
      "RuIn": 6064,
      "RuHf": 6065,
      "RuRh3": 6066,
      "CrMn": 6067,
      "Ir7": 6068,
      "Ir9": 6069,
      "MnCo": 6070,
      "PbN": 6071,
      "Pb12": 6072,
      "PbRh": 6073,
      "18032": 6074,
      "ClCu": 6075,
      "12074": 6076,
      "1201836": 6077,
      "2089": 6078,
      "2083": 6079,
      "20672": 6080,
      "20576": 6081,
      "10950": 6082,
      "Hg7": 6083,
      "HgGa": 6084,
      "HgSn": 6085,
      "Tl9": 6086,
      "097": 6087,
      "ReSi": 6088,
      "160": 6089,
      "1698": 6090,
      "16719": 6091,
      "OsSb": 6092,
      "333": 6093,
      "674": 6094,
      "679": 6095,
      "4227": 6096,
      "968": 6097,
      "089": 6098,
      "TcZn": 6099,
      "TcCl": 6100,
      "1562": 6101,
      "078": 6102,
      "626": 6103,
      "6938": 6104,
      "0580": 6105,
      "0528": 6106,
      "5046": 6107,
      "5048": 6108,
      "2242": 6109,
      "2285": 6110,
      "2294": 6111,
      "22692": 6112,
      "22466": 6113,
      "401": 6114,
      "883": 6115,
      "587": 6116,
      "571079": 6117,
      "571247": 6118,
      "465": 6119,
      "4653": 6120,
      "1459": 6121,
      "1487": 6122,
      "759": 6123,
      "7565": 6124,
      "7373": 6125,
      "651": 6126,
      "1958": 6127,
      "1989": 6128,
      "10782": 6129,
      "1070580": 6130,
      "893": 6131,
      "898": 6132,
      "8937": 6133,
      "8939": 6134,
      "2593": 6135,
      "451": 6136,
      "686": 6137,
      "701": 6138,
      "937": 6139,
      "492": 6140,
      "2179": 6141,
      "9758": 6142,
      "9773": 6143,
      "977390": 6144,
      "977585": 6145,
      "8652": 6146,
      "8619": 6147,
      "8645": 6148,
      "8648": 6149,
      "234": 6150,
      "23179": 6151,
      "23159": 6152,
      "13Rh": 6153,
      "7818": 6154,
      "P4Pt10": 6155,
      "P4W12": 6156,
      "₁₀(": 6157,
      "830": 6158,
      "837": 6159,
      "8372": 6160,
      "11870": 6161,
      "11859": 6162,
      "5685": 6163,
      "1101": 6164,
      "11033": 6165,
      "11062": 6166,
      "11057": 6167,
      "11027": 6168,
      "110313": 6169,
      "638": 6170,
      "6322": 6171,
      "630528": 6172,
      "P2S8": 6173,
      "30675": 6174,
      "30478": 6175,
      "30336": 6176,
      "30021": 6177,
      "926": 6178,
      "991": 6179,
      "9954": 6180,
      "9907": 6181,
      "31473": 6182,
      "003": 6183,
      "1755": 6184,
      "1793": 6185,
      "17123": 6186,
      "17332": 6187,
      "11915": 6188,
      "11902": 6189,
      "2809": 6190,
      "2808": 6191,
      "2760": 6192,
      "11412": 6193,
      "12258": 6194,
      "12270": 6195,
      "12286": 6196,
      "12263": 6197,
      "10662": 6198,
      "1064227": 6199,
      "11571": 6200,
      "S4Ge4": 6201,
      "S4Nb2": 6202,
      "Ca2Sn": 6203,
      "Ca2Cd": 6204,
      "Ca2Ag2": 6205,
      "Si4Ti4": 6206,
      "Si4Rh8": 6207,
      "CuSe2": 6208,
      "2339": 6209,
      "Ti2Rh": 6210,
      "Ti2Si4": 6211,
      "Ti2Rh2": 6212,
      "Si2Cr": 6213,
      "Si2Hf4": 6214,
      "Te4As4": 6215,
      "1434": 6216,
      "Sn2S4": 6217,
      "Sn2Sb2": 6218,
      "As4Hf4": 6219,
      "As4Mo2": 6220,
      "As4Cd2": 6221,
      "Al2Se4": 6222,
      "Al2Sb2": 6223,
      "S8Ru4": 6224,
      "Sr2Pb2": 6225,
      "Sr2Tl4": 6226,
      "MoSSe": 6227,
      "Y2Ga6": 6228,
      "Y2Ga3": 6229,
      "Hydroph": 6230,
      "Ge4Ir4": 6231,
      "Ge4Pt6": 6232,
      "Ge4Os2": 6233,
      "Pd2Pb4": 6234,
      "Hf2Zn": 6235,
      "Hf2Sb4": 6236,
      "Hf2Ni7": 6237,
      "12164": 6238,
      "Ga2Se2": 6239,
      "Ga2As2": 6240,
      "Hf4Se2": 6241,
      "Ni2Sb12": 6242,
      "Te2Pt": 6243,
      "Te2Ir": 6244,
      "Te2Pb": 6245,
      "Zr4Cu2": 6246,
      "Zr4Rh4": 6247,
      "Al4Pt8": 6248,
      "Cu2Sb6": 6249,
      "Se2Pd8": 6250,
      "1961": 6251,
      "1969": 6252,
      "Ni4Bi12": 6253,
      "Pt2W": 6254,
      "1220085": 6255,
      "1220003": 6256,
      "In4S4": 6257,
      "In4Te4": 6258,
      "In4Sb4": 6259,
      "Zn2Pd2": 6260,
      "K2H4": 6261,
      "K2Hg7": 6262,
      "569249": 6263,
      "569423": 6264,
      "Si6Pt4": 6265,
      "Si6W3": 6266,
      "Na2Te": 6267,
      "Na2Ag4": 6268,
      "Sc2Ga4": 6269,
      "Pb2S4": 6270,
      "10186": 6271,
      "1018100": 6272,
      "1018124": 6273,
      "1018125": 6274,
      "1018129": 6275,
      "1018717": 6276,
      "P8Hf12": 6277,
      "S6K4": 6278,
      "Co4P4": 6279,
      "Co4As12": 6280,
      "Bi4Pd2": 6281,
      "Sn4Pt4": 6282,
      "8628": 6283,
      "Mo2Ir2": 6284,
      "Na3As": 6285,
      "867212": 6286,
      "867202": 6287,
      "SNaIn": 6288,
      "As8Sr6": 6289,
      "Al3Ru2": 6290,
      "Al3Os2": 6291,
      "20669": 6292,
      "Y4Cu4": 6293,
      "1183209": 6294,
      "30836": 6295,
      "30828": 6296,
      "V2Rh2": 6297,
      "V2Ir2": 6298,
      "Sr4P12": 6299,
      "Ag2Bi2": 6300,
      "Mn2Co2": 6301,
      "5678": 6302,
      "K4Pb8": 6303,
      "Nb2Sb4": 6304,
      "Ta2Pd2": 6305,
      "S12Sb8": 6306,
      "1187881": 6307,
      "1186030": 6308,
      "Sc4In2": 6309,
      "Ga6Ta10": 6310,
      "TaOs3": 6311,
      "Ge6Zr10": 6312,
      "Ge6Ta3": 6313,
      "Ge6Sr10": 6314,
      "Nb6Sb2": 6315,
      "YSn3": 6316,
      "Hf6Co": 6317,
      "Hf6In8": 6318,
      "1078697": 6319,
      "1078665": 6320,
      "P3Pd12": 6321,
      "Mo6Ir2": 6322,
      "Mo6Se6": 6323,
      "SrPb3": 6324,
      "Pd3Ta": 6325,
      "V4Zn5": 6326,
      "Cs4Hg4": 6327,
      "Al12Mo": 6328,
      "Al12Tc": 6329,
      "Al12Mo4": 6330,
      "Al12W3": 6331,
      "Na4S4": 6332,
      "Hf3N2": 6333,
      "1321": 6334,
      "TiGa3": 6335,
      "1007730": 6336,
      "1080443": 6337,
      "1080448": 6338,
      "Zn4Au12": 6339,
      "Mn4Si4": 6340,
      "1079597": 6341,
      "1207100": 6342,
      "H2Ti": 6343,
      "H2Pd": 6344,
      "Na8Te4": 6345,
      "Sr8Pb4": 6346,
      "1186977": 6347,
      "974335": 6348,
      "Na6Au2": 6349,
      "Tl2Cl2": 6350,
      "11342": 6351,
      "30352": 6352,
      "Ga3Zr": 6353,
      "2201": 6354,
      "Ca10Au8": 6355,
      "CaZnSi": 6356,
      "570459": 6357,
      "1184121": 6358,
      "1184119": 6359,
      "1184558": 6360,
      "As6Sr2": 6361,
      "P12Os3": 6362,
      "STlIn": 6363,
      "Ca8Pb4": 6364,
      "Ca8Hg4": 6365,
      "Cr4S8": 6366,
      "CuRu3": 6367,
      "Zn8Sr4": 6368,
      "Ni3Sb": 6369,
      "Ni3Te4": 6370,
      "1018054": 6371,
      "1018055": 6372,
      "Y3Pb": 6373,
      "12458": 6374,
      "In3Te4": 6375,
      "Nb3Pd": 6376,
      "Nb3S4": 6377,
      "Cu6Sb2": 6378,
      "SrBi3": 6379,
      "30685": 6380,
      "30668": 6381,
      "12217": 6382,
      "1184764": 6383,
      "Ta3Ru": 6384,
      "Ga8Ti10": 6385,
      "Ga8Nb10": 6386,
      "1077503": 6387,
      "Sc3Al": 6388,
      "1337": 6389,
      "13365": 6390,
      "973111": 6391,
      "Zr3Tl": 6392,
      "20418": 6393,
      "Tc2Os6": 6394,
      "29661": 6395,
      "NAlGa": 6396,
      "978498": 6397,
      "1187243": 6398,
      "Ta6Au2": 6399,
      "865598": 6400,
      "7558": 6401,
      "10239": 6402,
      "Cs8Sb8": 6403,
      "19905": 6404,
      "1188061": 6405,
      "1226716": 6406,
      "P16Zn8": 6407,
      "Si10Pt12": 6408,
      "Sc12P4": 6409,
      "16521": 6410,
      "16526": 6411,
      "30485": 6412,
      "669917": 6413,
      "1184633": 6414,
      "1105078": 6415,
      "989737": 6416,
      "22320": 6417,
      "Si16Os8": 6418,
      "In12Ir4": 6419,
      "In12Ru4": 6420,
      "20320": 6421,
      "KPb3": 6422,
      "Ti20As12": 6423,
      "1009730": 6424,
      "1009756": 6425,
      "Ti4H6": 6426,
      "Ti4H7": 6427,
      "571636": 6428,
      "1183214": 6429,
      "1229092": 6430,
      "1094248": 6431,
      "636498": 6432,
      "862779": 6433,
      "16488": 6434,
      "570651": 6435,
      "2168": 6436,
      "1228491": 6437,
      "Cd8Sb8": 6438,
      "Tc3N": 6439,
      "13871": 6440,
      "21589": 6441,
      "Zr12Te4": 6442,
      "Sc8Pt4": 6443,
      "604321": 6444,
      "2583": 6445,
      "2784": 6446,
      "1017987": 6447,
      "Sr10In6": 6448,
      "1207380": 6449,
      "541885": 6450,
      "Tc6Os2": 6451,
      "974951": 6452,
      "Cs3Ga9": 6453,
      "971661": 6454,
      "1183455": 6455,
      "Ga9Rb3": 6456,
      "1183643": 6457,
      "2731": 6458,
      "1206743": 6459,
      "570560": 6460,
      "569785": 6461,
      "K3Hg11": 6462,
      "1188800": 6463,
      "569639": 6464,
      "17615": 6465,
      "17706": 6466,
      "17757": 6467,
      "31493": 6468,
      "Rh10Hf6": 6469,
      "1094136": 6470,
      "1183143": 6471,
      "1012110": 6472,
      "Hf24P12": 6473,
      "1205858": 6474,
      "570362": 6475,
      "1080797": 6476,
      "phosp": 6477,
      "1185202": 6478,
      "567379": 6479,
      "Al18Co4": 6480,
      "542640": 6481,
      "571264": 6482,
      "1101754": 6483,
      "639874": 6484,
      "1225701": 6485,
      "1220631": 6486,
      "1220635": 6487,
      "V16N2": 6488,
      "1095269": 6489,
      "573514": 6490,
      "999133": 6491,
      "1227290": 6492,
      "1179605": 6493,
      "569007": 6494,
      "1022725": 6495,
      "1181940": 6496,
      "2637": 6497,
      "1188283": 6498,
      "1103842": 6499,
      "574338": 6500,
      "P10Y2": 6501,
      "Hf5Sc": 6502,
      "1206927": 6503,
      "Sc3Ge3Rh3": 6504,
      "Pd16Pb16": 6505,
      "1210215": 6506,
      "20599": 6507,
      "1064497": 6508,
      "CaNi5H": 6509,
      "palladium": 6510,
      "Al34Mo8": 6511,
      "Ni13Ga9": 6512,
      "Niobium": 6513,
      "1063670": 6514,
      "Ta20Al10": 6515,
      "504659": 6516,
      "1103139": 6517,
      "Hydrophilite": 6518,
      "phosphide": 6519,
      "174": 6520,
      "1543": 6521,
      "255": 6522,
      "2434": 6523,
      "312": 6524,
      "316": 6525,
      "319": 6526,
      "380": 6527,
      "469": 6528,
      "488": 6529,
      "633": 6530,
      "6404": 6531,
      "718": 6532,
      "733": 6533,
      "818": 6534,
      "820": 6535,
      "9481": 6536,
      "Cmm": 6537,
      "CCr": 6538,
      "CMn": 6539,
      "HRh": 6540,
      "HCo": 6541,
      "I2": 6542,
      "I422": 6543,
      "KYCl": 6544,
      "NCr": 6545,
      "P5": 6546,
      "P30": 6547,
      "S9": 6548,
      "SPd": 6549,
      "STa": 6550,
      "S27": 6551,
      "SRb2": 6552,
      "VNi": 6553,
      "V32": 6554,
      "VPd3": 6555,
      "WW": 6556,
      "YZr": 6557,
      "YPtGe": 6558,
      "YAsSe": 6559,
      "YPb3": 6560,
      "_122": 6561,
      "mnc": 6562,
      "₂₇": 6563,
      "₃₂": 6564,
      "₄₀": 6565,
      "In11": 6566,
      "InSnCl": 6567,
      "AlRu": 6568,
      "Al14": 6569,
      "AlFe2": 6570,
      "AlTc2": 6571,
      "AlCo8": 6572,
      "PdRe": 6573,
      "PdHf2": 6574,
      "Se19": 6575,
      "SeRbSb": 6576,
      "Si7": 6577,
      "Si46": 6578,
      "SiCoP": 6579,
      "NiCo": 6580,
      "NiRu": 6581,
      "Ni14": 6582,
      "1055": 6583,
      "1071": 6584,
      "1087": 6585,
      "1017": 6586,
      "1028": 6587,
      "10098": 6588,
      "10636": 6589,
      "10698": 6590,
      "10193": 6591,
      "10021": 6592,
      "10861": 6593,
      "GaAg": 6594,
      "GaTc": 6595,
      "Ga13": 6596,
      "GaPS": 6597,
      "GaRh3": 6598,
      "PtTl": 6599,
      "TeCr": 6600,
      "Te20": 6601,
      "AsK": 6602,
      "AsNb": 6603,
      "HfH": 6604,
      "HfSc": 6605,
      "HfCr": 6606,
      "HfS2": 6607,
      "HfAu2": 6608,
      "HfSiS": 6609,
      "CaRh": 6610,
      "CaCo": 6611,
      "CaCo2": 6612,
      "CaZn2": 6613,
      "Ca9Pt6": 6614,
      "ZrNb": 6615,
      "ZrOs": 6616,
      "CuZr2": 6617,
      "Na30": 6618,
      "NaCaAs": 6619,
      "NaCd3": 6620,
      "SbP": 6621,
      "SbCu": 6622,
      "SbFe": 6623,
      "Sb17": 6624,
      "1212": 6625,
      "12120": 6626,
      "1266": 6627,
      "12700": 6628,
      "12137": 6629,
      "12735": 6630,
      "Zn7": 6631,
      "Zn16": 6632,
      "ZnPt3": 6633,
      "Zn13Rh": 6634,
      "SnCr": 6635,
      "SnHg": 6636,
      "SnGeTe": 6637,
      "GeAs": 6638,
      "GeGaGe": 6639,
      "RhHg": 6640,
      "RhHg2": 6641,
      "AgHf2": 6642,
      "AgBiS": 6643,
      "AgCuTe": 6644,
      "NbV": 6645,
      "NbS2": 6646,
      "ScPd": 6647,
      "ScCu2": 6648,
      "ScNiSb": 6649,
      "ScIn3": 6650,
      "MoC": 6651,
      "MoPd3": 6652,
      "MoW3": 6653,
      "AuZr": 6654,
      "Au20": 6655,
      "AuPS": 6656,
      "Sr9": 6657,
      "SrSi2": 6658,
      "SrCaSi": 6659,
      "SrCd2": 6660,
      "SrCaTl": 6661,
      "188": 6662,
      "1867": 6663,
      "1863": 6664,
      "1861": 6665,
      "1894": 6666,
      "18192": 6667,
      "18S9": 6668,
      "Co5": 6669,
      "CoH": 6670,
      "Co12": 6671,
      "CoSc": 6672,
      "CoRu": 6673,
      "CoMn": 6674,
      "CoS4": 6675,
      "CoNiTe": 6676,
      "1115": 6677,
      "11108": 6678,
      "11675": 6679,
      "11474": 6680,
      "11456": 6681,
      "BiP": 6682,
      "BiSc": 6683,
      "BiMo": 6684,
      "BiPtCl": 6685,
      "BiMo6S8": 6686,
      "FeAl": 6687,
      "FeIr": 6688,
      "FeSbTe": 6689,
      "RuNb": 6690,
      "Cr7": 6691,
      "IrHf": 6692,
      "IrZr": 6693,
      "Ir12": 6694,
      "IrAu": 6695,
      "IrFe": 6696,
      "MnY": 6697,
      "MnNi": 6698,
      "Mn10": 6699,
      "MnCl": 6700,
      "MnCoGe": 6701,
      "MnV2": 6702,
      "CdPt3": 6703,
      "ClZn": 6704,
      "RbCaCl": 6705,
      "RbAuTe": 6706,
      "RbSrCl": 6707,
      "12071": 6708,
      "12088": 6709,
      "12065": 6710,
      "120982": 6711,
      "2002": 6712,
      "2090": 6713,
      "2034": 6714,
      "20539": 6715,
      "20745": 6716,
      "20131": 6717,
      "20291": 6718,
      "20928": 6719,
      "20327": 6720,
      "10951": 6721,
      "HgAs": 6722,
      "HgBi": 6723,
      "HgCd": 6724,
      "TlSr": 6725,
      "TlBi": 6726,
      "Tl18S9": 6727,
      "099": 6728,
      "ReTa": 6729,
      "5410": 6730,
      "5425": 6731,
      "1618": 6732,
      "1682": 6733,
      "1672": 6734,
      "1627": 6735,
      "16756": 6736,
      "16960": 6737,
      "Os16": 6738,
      "3342": 6739,
      "428": 6740,
      "9668": 6741,
      "9692": 6742,
      "CsIn": 6743,
      "1501": 6744,
      "15339": 6745,
      "4316": 6746,
      "4306": 6747,
      "62220": 6748,
      "6985": 6749,
      "5587": 6750,
      "058": 6751,
      "059": 6752,
      "monoxide": 6753,
      "534": 6754,
      "536": 6755,
      "22862": 6756,
      "22568": 6757,
      "22555": 6758,
      "748": 6759,
      "7444": 6760,
      "7493": 6761,
      "8881": 6762,
      "583": 6763,
      "325": 6764,
      "32_12": 6765,
      "068": 6766,
      "444": 6767,
      "5709": 6768,
      "P6Sr2": 6769,
      "P6Sr6": 6770,
      "141": 6771,
      "145": 6772,
      "7533": 6773,
      "663": 6774,
      "190": 6775,
      "10784": 6776,
      "10703": 6777,
      "1072645": 6778,
      "891": 6779,
      "251": 6780,
      "6805": 6781,
      "703": 6782,
      "934": 6783,
      "I4_122": 6784,
      "761": 6785,
      "7667": 6786,
      "824": 6787,
      "513": 6788,
      "5134": 6789,
      "9769": 6790,
      "9792": 6791,
      "863648": 6792,
      "2369": 6793,
      "2361": 6794,
      "8041": 6795,
      "1341": 6796,
      "13155": 6797,
      "P4Ni2": 6798,
      "P4S12": 6799,
      "P4Cr2": 6800,
      "P4W4": 6801,
      "P4Pd24": 6802,
      "9008": 6803,
      "7289": 6804,
      "7291": 6805,
      "11830": 6806,
      "1188462": 6807,
      "1188663": 6808,
      "1188645": 6809,
      "5605": 6810,
      "5688": 6811,
      "295": 6812,
      "2420": 6813,
      "2450": 6814,
      "1105134": 6815,
      "P2K6": 6816,
      "30471": 6817,
      "30483": 6818,
      "12147": 6819,
      "1214306": 6820,
      "995": 6821,
      "9996": 6822,
      "9998": 6823,
      "P̅31c": 6824,
      "1747": 6825,
      "1786": 6826,
      "11910": 6827,
      "11908": 6828,
      "11922": 6829,
      "27731": 6830,
      "2667": 6831,
      "2614": 6832,
      "11454": 6833,
      "11462": 6834,
      "11453": 6835,
      "11440": 6836,
      "Cu3Si": 6837,
      "Cu3Te2": 6838,
      "Pmna": 6839,
      "TiAl3": 6840,
      "11788": 6841,
      "12322": 6842,
      "S2Hf2": 6843,
      "S2Ag4": 6844,
      "S2Ni3": 6845,
      "bipyramidal": 6846,
      "S4Cu3": 6847,
      "Ca2Si": 6848,
      "Ca2Ag": 6849,
      "Ca2Au2": 6850,
      "Ca2Cu2": 6851,
      "Ca2Cl6": 6852,
      "Si4P8": 6853,
      "Si4Sc4": 6854,
      "Si4Os2": 6855,
      "Si4Te12": 6856,
      "ZnS8": 6857,
      "2337": 6858,
      "Ti2S4": 6859,
      "Ti2Ga4": 6860,
      "Ti2H4": 6861,
      "Si2S2Hf2": 6862,
      "Te4W4": 6863,
      "Sn2Ir2": 6864,
      "Sn2Rh6": 6865,
      "Sn2Au6": 6866,
      "As4Zr4": 6867,
      "As4Mo4": 6868,
      "As4Pd12": 6869,
      "Al2Pd": 6870,
      "Al2Zn": 6871,
      "Al2Cu2": 6872,
      "Al2As2": 6873,
      "S8Rh4": 6874,
      "S8V6": 6875,
      "S8Tc4": 6876,
      "Sr2Sb4": 6877,
      "Sr2As6": 6878,
      "CuAlS": 6879,
      "Y2Sn2": 6880,
      "Y2Pd2": 6881,
      "Y2Au2": 6882,
      "Y2Al6": 6883,
      "Y2H6": 6884,
      "Ge4Pt2": 6885,
      "Ge4Te12": 6886,
      "Hf2N2": 6887,
      "Hf2Au2": 6888,
      "Hf2Al3": 6889,
      "12160": 6890,
      "1216977": 6891,
      "1216851": 6892,
      "1216323": 6893,
      "Hf4Bi2": 6894,
      "Hf4N3": 6895,
      "Hf4Pt12": 6896,
      "Hf4Tc8": 6897,
      "Ni2Ta4": 6898,
      "Ni2Ga3": 6899,
      "Ni2As2Sr": 6900,
      "Ge2Mo": 6901,
      "Te2W": 6902,
      "In2Au": 6903,
      "In2P2": 6904,
      "In2AsP": 6905,
      "Zr2Si2": 6906,
      "Zr2Te2": 6907,
      "Zr2Zn6": 6908,
      "Zr4Se6": 6909,
      "Al4Sr": 6910,
      "Al4Sc2": 6911,
      "Al4Pd8": 6912,
      "Al4Pt12": 6913,
      "Al4Cl16": 6914,
      "Cu2S": 6915,
      "Cu2Te2": 6916,
      "10240": 6917,
      "CoPS": 6918,
      "Ti4P8": 6919,
      "Ti4H4": 6920,
      "Ti4Cr8": 6921,
      "1215598": 6922,
      "1220678": 6923,
      "Ga4Se12": 6924,
      "Ga4Ta6": 6925,
      "As2Au2": 6926,
      "Zn2Pt2": 6927,
      "K2Te": 6928,
      "K2Sb4": 6929,
      "K2Bi4": 6930,
      "569152": 6931,
      "Rh2In3": 6932,
      "Si6As6": 6933,
      "Si6Nb3": 6934,
      "Na2Se": 6935,
      "Na2In6": 6936,
      "Sc2Sn6": 6937,
      "Sc2NiPd": 6938,
      "Ru2Sb4": 6939,
      "WSCl": 6940,
      "1018115": 6941,
      "1018166": 6942,
      "1018128": 6943,
      "1018149": 6944,
      "1018153": 6945,
      "P8Sr6": 6946,
      "S6Ga4": 6947,
      "S6Mo4": 6948,
      "SiPH": 6949,
      "Fe2Si4": 6950,
      "10802": 6951,
      "1219509": 6952,
      "1219503": 6953,
      "1219539": 6954,
      "1219734": 6955,
      "Sn4Rh8": 6956,
      "Sn4Cl8": 6957,
      "Mo2S4": 6958,
      "Pd4Sn4": 6959,
      "Bi2Pd2": 6960,
      "Bi2Au2": 6961,
      "Cu4Ge2": 6962,
      "As8Zr4": 6963,
      "As8Rb8": 6964,
      "As8Cd8": 6965,
      "Rb2S2": 6966,
      "Rb2Sb4": 6967,
      "1186158": 6968,
      "1186187": 6969,
      "Y4In2": 6970,
      "Y4Zn8": 6971,
      "1183222": 6972,
      "1183484": 6973,
      "1183542": 6974,
      "1183641": 6975,
      "1183501": 6976,
      "30856": 6977,
      "568746": 6978,
      "568646": 6979,
      "YGa3": 6980,
      "Mn2Ga": 6981,
      "567313": 6982,
      "567207": 6983,
      "K4Hg4": 6984,
      "Nb2Rh2": 6985,
      "Nb2H2": 6986,
      "YIn3": 6987,
      "1217111": 6988,
      "1217081": 6989,
      "Cccm": 6990,
      "S12Rh8": 6991,
      "Pb4S16": 6992,
      "1187697": 6993,
      "1187073": 6994,
      "1187665": 6995,
      "1187077": 6996,
      "1186031": 6997,
      "SrSn3": 6998,
      "Nb6Te2": 6999,
      "CdTeSe": 7000,
      "SnAu5": 7001,
      "Rb8S4": 7002,
      "ZnPd3": 7003,
      "Hf6Bi2": 7004,
      "1078466": 7005,
      "In8Ir4": 7006,
      "Sb8Te3": 7007,
      "NZrZn": 7008,
      "Al6Hf10": 7009,
      "Al6H18": 7010,
      "Mo6Se8": 7011,
      "Ti6Au2": 7012,
      "11261": 7013,
      "Pd3Pb": 7014,
      "ClKPb": 7015,
      "V4Fe2Ge2": 7016,
      "K8Te12": 7017,
      "Al12Ni4": 7018,
      "Al12Re2": 7019,
      "Na4Hg4": 7020,
      "NbIr3": 7021,
      "W2Ir2": 7022,
      "W2Ir6": 7023,
      "10054": 7024,
      "Hf3Ga": 7025,
      "Hf3Sn6": 7026,
      "ZnAg3": 7027,
      "Ta4Si2": 7028,
      "Ta4Zn8": 7029,
      "Nb4Pt12": 7030,
      "1007755": 7031,
      "10804": 7032,
      "1079938": 7033,
      "1079082": 7034,
      "HfPd5": 7035,
      "H2Hf": 7036,
      "1186955": 7037,
      "1186901": 7038,
      "974558": 7039,
      "Tl2Cl6": 7040,
      "Tl2Pd6": 7041,
      "11322": 7042,
      "11397": 7043,
      "30368": 7044,
      "865166": 7045,
      "Sn8Au2": 7046,
      "Sn8Rh4": 7047,
      "2204": 7048,
      "22050": 7049,
      "Ca10Pt4": 7050,
      "Ca10Au6": 7051,
      "Ca10Cu10": 7052,
      "Te8Au4": 7053,
      "Te8Tl8": 7054,
      "570483": 7055,
      "1184670": 7056,
      "Ca3Cd": 7057,
      "Rb4In6": 7058,
      "1018019": 7059,
      "1018027": 7060,
      "Si8P16": 7061,
      "Al8Y12": 7062,
      "Al8Pt16": 7063,
      "12460": 7064,
      "Sr6Sn10": 7065,
      "17974": 7066,
      "Nb3Au": 7067,
      "Nb3Te6": 7068,
      "V3Fe": 7069,
      "V3Re": 7070,
      "CaAg3": 7071,
      "Rh6Te4": 7072,
      "Ga12Os4": 7073,
      "1221429": 7074,
      "1184709": 7075,
      "1184713": 7076,
      "Te12Rb2": 7077,
      "Ga8Hf4": 7078,
      "KSbCl": 7079,
      "16723": 7080,
      "1339": 7081,
      "PKTeP": 7082,
      "30744": 7083,
      "30745": 7084,
      "SeKBi": 7085,
      "16609": 7086,
      "N3Ta3": 7087,
      "Y8Au4": 7088,
      "Y8S12": 7089,
      "12778": 7090,
      "1104502": 7091,
      "23279": 7092,
      "Ag6S3": 7093,
      "Cr8Se12": 7094,
      "32868": 7095,
      "865527": 7096,
      "Si12Os8": 7097,
      "Bi12Sr8": 7098,
      "755633": 7099,
      "1023926": 7100,
      "CuAu3": 7101,
      "Pd12Hf4": 7102,
      "Ti5Al11": 7103,
      "P4_32_12": 7104,
      "31150": 7105,
      "Y10Pt6": 7106,
      "1067758": 7107,
      "1067627": 7108,
      "Co8Ge4": 7109,
      "505363": 7110,
      "607111": 7111,
      "Sc10Ge6": 7112,
      "16528": 7113,
      "972889": 7114,
      "972828": 7115,
      "30418": 7116,
      "C4W8": 7117,
      "1008634": 7118,
      "1008488": 7119,
      "1057015": 7120,
      "1057286": 7121,
      "Mn6P24": 7122,
      "1079945": 7123,
      "Pb8Au16": 7124,
      "1184650": 7125,
      "1103570": 7126,
      "Al5Cu5": 7127,
      "12463": 7128,
      "20849": 7129,
      "21065": 7130,
      "21030": 7131,
      "Ge16Hf20": 7132,
      "22154": 7133,
      "865385": 7134,
      "CaBi3": 7135,
      "Cd3Pt": 7136,
      "Cd3Ag": 7137,
      "555935": 7138,
      "570844": 7139,
      "Y12Ru4": 7140,
      "Ti20Ge16": 7141,
      "Ti20Se19": 7142,
      "1009733": 7143,
      "Ti4H5": 7144,
      "571547": 7145,
      "571640": 7146,
      "31053": 7147,
      "1190478": 7148,
      "Re3Rh": 7149,
      "Re3Si3": 7150,
      "22812": 7151,
      "13447": 7152,
      "636334": 7153,
      "1221420": 7154,
      "10298": 7155,
      "SbSbPd": 7156,
      "Hg3Tl": 7157,
      "28878": 7158,
      "1072744": 7159,
      "558071": 7160,
      "604318": 7161,
      "2824": 7162,
      "2783": 7163,
      "985829": 7164,
      "Al11Re4": 7165,
      "Ta24S12": 7166,
      "Ta24Si8": 7167,
      "1096992": 7168,
      "1096994": 7169,
      "864754": 7170,
      "998979": 7171,
      "Pd10Pb6": 7172,
      "Zn5Sr": 7173,
      "971662": 7174,
      "1186760": 7175,
      "1187811": 7176,
      "867351": 7177,
      "ZnSnAs2": 7178,
      "Nb10Ga6": 7179,
      "1095495": 7180,
      "570751": 7181,
      "1104341": 7182,
      "1102384": 7183,
      "17173": 7184,
      "17190": 7185,
      "In10Hf4": 7186,
      "Pt10Se8": 7187,
      "Hf14Cu20": 7188,
      "557719": 7189,
      "1219462": 7190,
      "21895": 7191,
      "1214889": 7192,
      "20033": 7193,
      "1077372": 7194,
      "AsFeNi": 7195,
      "11334": 7196,
      "1183144": 7197,
      "29767": 7198,
      "7897": 7199,
      "7931": 7200,
      "1078696": 7201,
      "866006": 7202,
      "1103044": 7203,
      "985451": 7204,
      "980094": 7205,
      "975519": 7206,
      "1185042": 7207,
      "17564": 7208,
      "767208": 7209,
      "767469": 7210,
      "NaTl2Sn": 7211,
      "Sn7Pd5": 7212,
      "1178745": 7213,
      "1207781": 7214,
      "568936": 7215,
      "V16Ir16": 7216,
      "Pd14P6": 7217,
      "Ni9S10": 7218,
      "1200988": 7219,
      "1206371": 7220,
      "1095669": 7221,
      "571505": 7222,
      "864889": 7223,
      "1102616": 7224,
      "Y2Ag2Se4": 7225,
      "1220645": 7226,
      "1080608": 7227,
      "1084805": 7228,
      "RbPbCl3": 7229,
      "1186175": 7230,
      "29055": 7231,
      "769096": 7232,
      "K10Se6": 7233,
      "1198692": 7234,
      "1079810": 7235,
      "1184905": 7236,
      "1226933": 7237,
      "Sr2In4Ir2": 7238,
      "Rb2Te2Au2": 7239,
      "2500": 7240,
      "1066136": 7241,
      "12826": 7242,
      "Cr10S16": 7243,
      "690760": 7244,
      "684609": 7245,
      "979911": 7246,
      "1184265": 7247,
      "1188926": 7248,
      "1219006": 7249,
      "556516": 7250,
      "863720": 7251,
      "984698": 7252,
      "20497": 7253,
      "Ca20Sb12": 7254,
      "1095024": 7255,
      "1101121": 7256,
      "27606": 7257,
      "Na8Te4Se12": 7258,
      "640416": 7259,
      "Cmme": 7260,
      "V32N3": 7261,
      "1055994": 7262,
      "Ga13Nb5": 7263,
      "Na30Pb8": 7264,
      "Sb17S27": 7265,
      "542569": 7266,
      "966800": 7267,
      "622209": 7268,
      "979261": 7269,
      "178": 7270,
      "11220": 7271,
      "1739": 7272,
      "246": 7273,
      "280": 7274,
      "264": 7275,
      "277": 7276,
      "2108": 7277,
      "2105": 7278,
      "2670": 7279,
      "2678": 7280,
      "2857": 7281,
      "2534": 7282,
      "350": 7283,
      "358": 7284,
      "389": 7285,
      "376": 7286,
      "381": 7287,
      "378": 7288,
      "3Ca3": 7289,
      "31103": 7290,
      "31205": 7291,
      "31502": 7292,
      "442": 7293,
      "5Se": 7294,
      "5As4": 7295,
      "5546": 7296,
      "610": 7297,
      "6Mo": 7298,
      "616": 7299,
      "608": 7300,
      "662": 7301,
      "6430": 7302,
      "788": 7303,
      "7S8": 7304,
      "7859": 7305,
      "869": 7306,
      "806": 7307,
      "8200": 7308,
      "988": 7309,
      "9122": 7310,
      "C5": 7311,
      "H21": 7312,
      "KIn9": 7313,
      "N9": 7314,
      "PRb": 7315,
      "PHg": 7316,
      "Pca": 7317,
      "SK2": 7318,
      "SPOs": 7319,
      "VH": 7320,
      "V24": 7321,
      "VRh3": 7322,
      "YRu": 7323,
      "YIrSi": 7324,
      "YPt3": 7325,
      "ber": 7326,
      "itride": 7327,
      "carbonitride": 7328,
      "InN": 7329,
      "InGa": 7330,
      "InSn2": 7331,
      "stib": 7332,
      "TiCd": 7333,
      "TiRu2": 7334,
      "TiRh3": 7335,
      "SeNb": 7336,
      "SeTl": 7337,
      "SePOs": 7338,
      "Si9": 7339,
      "SiRu": 7340,
      "Si20": 7341,
      "Si28": 7342,
      "1006": 7343,
      "1046": 7344,
      "1073": 7345,
      "1082": 7346,
      "10026": 7347,
      "10569": 7348,
      "10157": 7349,
      "10201": 7350,
      "Ga20": 7351,
      "GaHg": 7352,
      "Pt11": 7353,
      "Pt13": 7354,
      "As7": 7355,
      "AsN": 7356,
      "AsCd": 7357,
      "AsSbRh": 7358,
      "Ca5": 7359,
      "CaAl": 7360,
      "CaAuIn": 7361,
      "CaPdH": 7362,
      "ZrW": 7363,
      "ZrRu": 7364,
      "ZrRh3": 7365,
      "ZrAg2": 7366,
      "CuN": 7367,
      "CuAg": 7368,
      "CuTe2": 7369,
      "NaCrS": 7370,
      "NaAg3": 7371,
      "Na5As4": 7372,
      "SbZn": 7373,
      "Sb14": 7374,
      "SbRh3": 7375,
      "1260": 7376,
      "1232": 7377,
      "1281": 7378,
      "12699": 7379,
      "12628": 7380,
      "12892": 7381,
      "12561": 7382,
      "ylli": 7383,
      "Zn11": 7384,
      "Zn20": 7385,
      "Zn22": 7386,
      "ZnGa2S4": 7387,
      "SnZn": 7388,
      "SnTa": 7389,
      "SnCd": 7390,
      "SnRh3": 7391,
      "SnTe2Pb": 7392,
      "GeSi": 7393,
      "GeZr": 7394,
      "GeZn": 7395,
      "GeTa": 7396,
      "Ge14": 7397,
      "GeSe4": 7398,
      "RhPd": 7399,
      "RhPb": 7400,
      "Ag16": 7401,
      "NbOs": 7402,
      "NbPt2": 7403,
      "ScFe": 7404,
      "ScOs": 7405,
      "ScCu3": 7406,
      "Mo5": 7407,
      "Mo16": 7408,
      "MoCl6": 7409,
      "Au5": 7410,
      "SrCuP": 7411,
      "SrPd5": 7412,
      "Sr9Pt6": 7413,
      "1874": 7414,
      "1882": 7415,
      "CoNiSi": 7416,
      "1152": 7417,
      "1156": 7418,
      "11977": 7419,
      "11328": 7420,
      "11473": 7421,
      "11445": 7422,
      "11521": 7423,
      "BiRb": 7424,
      "Fe5": 7425,
      "FeH": 7426,
      "FeNiSb": 7427,
      "IrW": 7428,
      "Ir24": 7429,
      "IrZrSn": 7430,
      "MnRh": 7431,
      "MnFe": 7432,
      "MnAl12": 7433,
      "CdZn": 7434,
      "PbGe": 7435,
      "PbMo": 7436,
      "PbSe4": 7437,
      "PbSnTe": 7438,
      "Cl3": 7439,
      "ClCa": 7440,
      "Rb5": 7441,
      "12085": 7442,
      "12058": 7443,
      "12078": 7444,
      "2084": 7445,
      "2095": 7446,
      "20123": 7447,
      "20483": 7448,
      "20900": 7449,
      "20549": 7450,
      "20581": 7451,
      "20800": 7452,
      "1095": 7453,
      "10901": 7454,
      "HgCl": 7455,
      "TlIn": 7456,
      "Tl10": 7457,
      "Tl12": 7458,
      "Tl16": 7459,
      "TlCaCl": 7460,
      "Re8": 7461,
      "Re24": 7462,
      "548": 7463,
      "5412": 7464,
      "5429": 7465,
      "1628": 7466,
      "16321": 7467,
      "OsHf": 7468,
      "6755": 7469,
      "6723": 7470,
      "672204": 7471,
      "CsP": 7472,
      "Cs12": 7473,
      "⁴⁻,": 7474,
      "TcN": 7475,
      "TcPt3": 7476,
      "TcMnAl": 7477,
      "1521": 7478,
      "1534": 7479,
      "1592": 7480,
      "1536": 7481,
      "15681": 7482,
      "4379": 7483,
      "552": 7484,
      "5557": 7485,
      "5583": 7486,
      "8512": 7487,
      "2260": 7488,
      "2261": 7489,
      "22192": 7490,
      "7440": 7491,
      "7498": 7492,
      "604": 7493,
      "6049": 7494,
      "6037": 7495,
      "8886": 7496,
      "5803": 7497,
      "3241": 7498,
      "32669": 7499,
      "32697": 7500,
      "32682": 7501,
      "32884": 7502,
      "064": 7503,
      "5700": 7504,
      "571199": 7505,
      "574379": 7506,
      "P6Ca2": 7507,
      "1415": 7508,
      "1460": 7509,
      "7598": 7510,
      "1943": 7511,
      "1902": 7512,
      "1925": 7513,
      "1936": 7514,
      "10712": 7515,
      "10772": 7516,
      "8974": 7517,
      "8936": 7518,
      "2512": 7519,
      "2507": 7520,
      "6807": 7521,
      "930": 7522,
      "490": 7523,
      "4981": 7524,
      "4979": 7525,
      "7631": 7526,
      "21400": 7527,
      "594": 7528,
      "N2Ti4": 7529,
      "9752": 7530,
      "972326": 7531,
      "973342": 7532,
      "972337": 7533,
      "978974": 7534,
      "8642": 7535,
      "8640": 7536,
      "8638": 7537,
      "2349": 7538,
      "2379": 7539,
      "2395": 7540,
      "2398": 7541,
      "23193": 7542,
      "23933": 7543,
      "23157": 7544,
      "794": 7545,
      "1380": 7546,
      "1363": 7547,
      "13852": 7548,
      "P4Ti4": 7549,
      "P4K12": 7550,
      "726": 7551,
      "7273": 7552,
      "34202": 7553,
      "8361": 7554,
      "11814": 7555,
      "11837": 7556,
      "11839": 7557,
      "118509": 7558,
      "1181222": 7559,
      "1188662": 7560,
      "1181961": 7561,
      "1188512": 7562,
      "2454": 7563,
      "2469": 7564,
      "2455": 7565,
      "24161": 7566,
      "11022": 7567,
      "11052": 7568,
      "11073": 7569,
      "6372": 7570,
      "P2Co2": 7571,
      "P2Zn2": 7572,
      "30672": 7573,
      "30463": 7574,
      "927": 7575,
      "9262": 7576,
      "9902": 7577,
      "9946": 7578,
      "9945": 7579,
      "9147": 7580,
      "31430": 7581,
      "9809": 7582,
      "982261": 7583,
      "1708": 7584,
      "1780": 7585,
      "11905": 7586,
      "1195735": 7587,
      "28229": 7588,
      "2715": 7589,
      "2775": 7590,
      "2786": 7591,
      "27166": 7592,
      "11411": 7593,
      "11416": 7594,
      "11407": 7595,
      "11460": 7596,
      "12245": 7597,
      "12280": 7598,
      "10654": 7599,
      "10685": 7600,
      "1061133": 7601,
      "1064981": 7602,
      "11514": 7603,
      "Cu3Pd": 7604,
      "S2Mo": 7605,
      "S2Ge2": 7606,
      "NiAsSe": 7607,
      "S4Ta2": 7608,
      "S4Cl4": 7609,
      "Ca2Ni2": 7610,
      "Ca2Si6": 7611,
      "Ca2Zn6": 7612,
      "Ca2Cd4": 7613,
      "Si4S4": 7614,
      "Si4Y2": 7615,
      "Si4Y4": 7616,
      "Ti2Fe": 7617,
      "Ti2Al2": 7618,
      "Ti2Cd2": 7619,
      "Ti2Pt6": 7620,
      "Ti2IrW": 7621,
      "Si2Co": 7622,
      "Si2Se6": 7623,
      "Te4Cs4": 7624,
      "Te4Pt3": 7625,
      "14241": 7626,
      "Sn2Ta6": 7627,
      "As4Se4": 7628,
      "As4Ta2": 7629,
      "As4Rh8": 7630,
      "As4Os2": 7631,
      "Al2Ru": 7632,
      "Al2Ni4": 7633,
      "Al2S4Cu2": 7634,
      "Sr2Zn": 7635,
      "Sr2Sn4": 7636,
      "Sr2ZnIn": 7637,
      "Y2Se4": 7638,
      "Y2In3": 7639,
      "Ge4Rh4": 7640,
      "Pd2Au": 7641,
      "Hf2Au": 7642,
      "Hf2Co2": 7643,
      "12166": 7644,
      "1216128": 7645,
      "1216575": 7646,
      "1216903": 7647,
      "Ga2Te4": 7648,
      "Ga2Nb6": 7649,
      "Ga2N6": 7650,
      "Ga2Se3": 7651,
      "Hf4Sb4": 7652,
      "Hf4P8": 7653,
      "Hf4Al6": 7654,
      "Ni2H": 7655,
      "Ni2Mo": 7656,
      "Ni2S4": 7657,
      "Ni2Se4": 7658,
      "Ni2Hf4": 7659,
      "Ge2Mo6": 7660,
      "Te2Au": 7661,
      "Te2W3": 7662,
      "Sb4Te4": 7663,
      "Zr2Cu2": 7664,
      "Zr2Ga6": 7665,
      "Zr4Te4": 7666,
      "Zr4Ti4": 7667,
      "Zr4Rh2": 7668,
      "Zr4In8": 7669,
      "Zr4Os8": 7670,
      "Al4Y8": 7671,
      "Se2Sn": 7672,
      "Se2S6": 7673,
      "10260": 7674,
      "10257": 7675,
      "10214": 7676,
      "10287": 7677,
      "Co2Te4": 7678,
      "Ni4Se8": 7679,
      "Ni4As8": 7680,
      "Ni4Sb12": 7681,
      "Ti4Sn2": 7682,
      "Ti4Se4": 7683,
      "Ti4Al8": 7684,
      "Ti4Al11": 7685,
      "1220079": 7686,
      "Ga4Te4": 7687,
      "Ga4Te6": 7688,
      "Ga4H16": 7689,
      "As2Ta2": 7690,
      "As2Pd10": 7691,
      "Zn2Ni": 7692,
      "Zn2S2": 7693,
      "Zn2In4": 7694,
      "Zn2H10": 7695,
      "GeTeRh": 7696,
      "K2Cd2": 7697,
      "K2Hg6": 7698,
      "5695": 7699,
      "569544": 7700,
      "Rh2Te2": 7701,
      "SSbRu": 7702,
      "BiPd6": 7703,
      "Si6Ta3": 7704,
      "Si6Ti10": 7705,
      "Sc2Te2": 7706,
      "Sc2In4": 7707,
      "Pb2Se4": 7708,
      "1018123": 7709,
      "Rh4Sn4": 7710,
      "Rh4Sb12": 7711,
      "P8Ag4": 7712,
      "P8S10": 7713,
      "P8Hf14": 7714,
      "Co4As8": 7715,
      "Fe2Sb4": 7716,
      "Fe2Co2": 7717,
      "Se8Os4": 7718,
      "10846": 7719,
      "Ca4Ir4": 7720,
      "ZrGa5Co": 7721,
      "8621": 7722,
      "86279": 7723,
      "Mo2Rh2": 7724,
      "Mo2W2": 7725,
      "Mo2Ru6": 7726,
      "Pd4W": 7727,
      "Bi2Pd": 7728,
      "Bi2Te3": 7729,
      "TiPd3": 7730,
      "8679": 7731,
      "867303": 7732,
      "867317": 7733,
      "867780": 7734,
      "SZnIn": 7735,
      "SZnCd": 7736,
      "CdAg2": 7737,
      "As8Hf4": 7738,
      "As8Rh4": 7739,
      "Te6Tl4": 7740,
      "AsAsOs": 7741,
      "Rb2Au3": 7742,
      "1186100": 7743,
      "1186444": 7744,
      "AsTeOs": 7745,
      "Al3Ge": 7746,
      "Al3Ta": 7747,
      "Al3Cr": 7748,
      "Al3Pd2": 7749,
      "Al3Ni5": 7750,
      "Cd2Au2": 7751,
      "Rh3Hf": 7752,
      "Rh3Pb3": 7753,
      "Y4Sn4": 7754,
      "GaPt3": 7755,
      "1183227": 7756,
      "1183137": 7757,
      "30871": 7758,
      "30875": 7759,
      "V2C": 7760,
      "V2Pt2": 7761,
      "10522": 7762,
      "1056037": 7763,
      "Zr6Co": 7764,
      "Zr6Fe2": 7765,
      "568115": 7766,
      "Sr4Sb2": 7767,
      "Sr4Cd4": 7768,
      "Sr4Sn12": 7769,
      "Ag2Te": 7770,
      "Ag2In2": 7771,
      "Ag2Cl2": 7772,
      "Mn2N": 7773,
      "Mn2Ni2": 7774,
      "567612": 7775,
      "Au4Pb2": 7776,
      "Au4Pb12": 7777,
      "1217166": 7778,
      "1217422": 7779,
      "1217961": 7780,
      "1217163": 7781,
      "1223977": 7782,
      "1223503": 7783,
      "1223682": 7784,
      "Ti3Os": 7785,
      "Ti3Rh2In3": 7786,
      "Ta2H": 7787,
      "Ta2Os6": 7788,
      "1187739": 7789,
      "1187474": 7790,
      "1187231": 7791,
      "CaCl2": 7792,
      "1186033": 7793,
      "Sc4Al2": 7794,
      "Sc4Te6": 7795,
      "Sc4Sn8": 7796,
      "Sc4Os8": 7797,
      "Se6Zr2": 7798,
      "Ge6Hf10": 7799,
      "Nb6N10": 7800,
      "Rb8Te12": 7801,
      "V6S8": 7802,
      "In8Bi12": 7803,
      "In8Na16": 7804,
      "In8Cu7": 7805,
      "Se12Tl20": 7806,
      "Sb8S12": 7807,
      "Cs2Hg4": 7808,
      "Cs2Pb6": 7809,
      "Te3Bi4": 7810,
      "Al6Pd10": 7811,
      "Al6Pt10": 7812,
      "Al6Fe2Si4": 7813,
      "Mo6Pt2": 7814,
      "Mo6Sb14": 7815,
      "Ti6Ga2": 7816,
      "Ti6Si6": 7817,
      "Ti6In8": 7818,
      "Ti6N4": 7819,
      "11230": 7820,
      "K8Sb8": 7821,
      "AlPPt5": 7822,
      "Al12Co4": 7823,
      "Al12Mn2": 7824,
      "Na4Au2": 7825,
      "W2N2": 7826,
      "W2N4": 7827,
      "10014": 7828,
      "Fe4Si4": 7829,
      "Fe4Si2": 7830,
      "Ta4Ni12": 7831,
      "Cr2As4": 7832,
      "Nb4Sn8": 7833,
      "Tl4Bi": 7834,
      "Tl4Pt2": 7835,
      "Tl4Se6": 7836,
      "Chalcostib": 7837,
      "1007857": 7838,
      "1080376": 7839,
      "1079127": 7840,
      "1207251": 7841,
      "H2Y": 7842,
      "Na8P8": 7843,
      "Na8Si8": 7844,
      "1186973": 7845,
      "1186976": 7846,
      "Na6Al2": 7847,
      "Na6Pt2": 7848,
      "Na6Bi2": 7849,
      "Na6Ag2": 7850,
      "Ca6As6": 7851,
      "Ca6Au8": 7852,
      "Ca6Tl10": 7853,
      "Zr10Si6": 7854,
      "30312": 7855,
      "30367": 7856,
      "30383": 7857,
      "Ga3Ta": 7858,
      "Ga3Pt2": 7859,
      "Sn8Hf10": 7860,
      "Os2Ru6": 7861,
      "22033": 7862,
      "Ca10Au4": 7863,
      "Ca10Zn6": 7864,
      "S16K12": 7865,
      "Te8Ir4": 7866,
      "CaZn5": 7867,
      "570197": 7868,
      "Ca3In": 7869,
      "Ca3Sn": 7870,
      "Ca3Tl": 7871,
      "Ca8Cu4": 7872,
      "N8Ge6": 7873,
      "Rb4H8": 7874,
      "Ni6Te4": 7875,
      "Ni6Mo2": 7876,
      "TeAsOs": 7877,
      "Zn3Cd": 7878,
      "Zn3Ga3": 7879,
      "Zn3S3": 7880,
      "Si8As16": 7881,
      "Y3Ga7": 7882,
      "Y3Zn11": 7883,
      "TeCdHg": 7884,
      "Pd6S2": 7885,
      "CaHgSn": 7886,
      "ScAg3": 7887,
      "Sr6Ga4": 7888,
      "1791": 7889,
      "Cu6Si2": 7890,
      "Cu6Ge2": 7891,
      "Cl8Pb4": 7892,
      "V3Cr3": 7893,
      "Hf10Ir6": 7894,
      "1206573": 7895,
      "30500": 7896,
      "30681": 7897,
      "Ga12Y2": 7898,
      "Ga12Ru4": 7899,
      "1221793": 7900,
      "Ta3Os": 7901,
      "Ga8Pt16": 7902,
      "1077083": 7903,
      "Sc3Sb": 7904,
      "As12Tc8": 7905,
      "30746": 7906,
      "⁷⁺,": 7907,
      "CaPb3": 7908,
      "Zn6Ru2": 7909,
      "Y6Pd8": 7910,
      "12723": 7911,
      "20433": 7912,
      "29646": 7913,
      "983445": 7914,
      "K6As2": 7915,
      "K6Bi4": 7916,
      "Re2N6": 7917,
      "Na12S8": 7918,
      "Na12In8Bi12": 7919,
      "1215452": 7920,
      "1215437": 7921,
      "P3_212": 7922,
      "1104074": 7923,
      "23291": 7924,
      "Cl4Ca2": 7925,
      "Re4P12": 7926,
      "978546": 7927,
      "978553": 7928,
      "1187248": 7929,
      "Sc6Sn2": 7930,
      "Ta6Ru4": 7931,
      "31348": 7932,
      "31313": 7933,
      "SFeCo": 7934,
      "Fe3Pt": 7935,
      "Pb6Sc10": 7936,
      "20263": 7937,
      "1025355": 7938,
      "10388": 7939,
      "1039262": 7940,
      "1039147": 7941,
      "1023900": 7942,
      "Pd12Bi4": 7943,
      "685149": 7944,
      "Ti5Te4": 7945,
      "SbAsRh": 7946,
      "Mn3Ge3": 7947,
      "Ti8N5": 7948,
      "1067880": 7949,
      "Mo8P5": 7950,
      "1188155": 7951,
      "1226728": 7952,
      "Sc10Ru6": 7953,
      "Sc12Sn10": 7954,
      "Co6W2": 7955,
      "16523": 7956,
      "1102895": 7957,
      "30412": 7958,
      "30482": 7959,
      "1008632": 7960,
      "1008601": 7961,
      "Sb6Hf6": 7962,
      "1218044": 7963,
      "Ir3Ru": 7964,
      "1079914": 7965,
      "1404": 7966,
      "14018": 7967,
      "Pb8Cl16": 7968,
      "1103536": 7969,
      "1105852": 7970,
      "Sn3As4": 7971,
      "Rb3Sb": 7972,
      "22318": 7973,
      "1224809": 7974,
      "1224803": 7975,
      "Si16Ru8": 7976,
      "1209024": 7977,
      "19814": 7978,
      "1184554": 7979,
      "999192": 7980,
      "754556": 7981,
      "754954": 7982,
      "ZnGa11": 7983,
      "Y12Ni4": 7984,
      "Ti20Sb12": 7985,
      "16522": 7986,
      "16514": 7987,
      "1120774": 7988,
      "5713": 7989,
      "Te16Au8": 7990,
      "672222": 7991,
      "571651": 7992,
      "571664": 7993,
      "1183216": 7994,
      "31002": 7995,
      "V10Ge6": 7996,
      "Ni8As16": 7997,
      "Hf8Mo16": 7998,
      "CaCu5": 7999,
      "1229101": 8000,
      "1094255": 8001,
      "Re3Ir": 8002,
      "13450": 8003,
      "1187974": 8004,
      "1187913": 8005,
      "636328": 8006,
      "1221413": 8007,
      "1025271": 8008,
      "862770": 8009,
      "632319": 8010,
      "975129": 8011,
      "12614": 8012,
      "12259": 8013,
      "1225186": 8014,
      "Nb8N12": 8015,
      "15954": 8016,
      "570632": 8017,
      "570684": 8018,
      "974358": 8019,
      "974376": 8020,
      "974326": 8021,
      "21657": 8022,
      "24721": 8023,
      "12802": 8024,
      "Tc3N3": 8025,
      "29342": 8026,
      "In9Pt13": 8027,
      "684798": 8028,
      "2828": 8029,
      "27838": 8030,
      "In5Pt11": 8031,
      "As3Pd6": 8032,
      "Ta24As12": 8033,
      "Tc6Ir2": 8034,
      "1104019": 8035,
      "1222586": 8036,
      "1183489": 8037,
      "Ga14Rb2": 8038,
      "Ga14Pt6": 8039,
      "ZnSnSb2": 8040,
      "1189573": 8041,
      "1189230": 8042,
      "1183647": 8043,
      "1734": 8044,
      "21162": 8045,
      "21170": 8046,
      "S20K8": 8047,
      "Rb6Bi4": 8048,
      "1102364": 8049,
      "569776": 8050,
      "17146": 8051,
      "571060": 8052,
      "979423": 8053,
      "1188869": 8054,
      "1215997": 8055,
      "21873": 8056,
      "27411": 8057,
      "27413": 8058,
      "510691": 8059,
      "510209": 8060,
      "1014231": 8061,
      "Sc20Sb12": 8062,
      "AlCrFe2": 8063,
      "Na24Te24": 8064,
      "1077942": 8065,
      "972220": 8066,
      "1187197": 8067,
      "1217048": 8068,
      "Rb2Te5": 8069,
      "Rb2TeSe4": 8070,
      "29711": 8071,
      "8490": 8072,
      "H6Al2": 8073,
      "Te24As16": 8074,
      "33018": 8075,
      "570377": 8076,
      "1077482": 8077,
      "1078875": 8078,
      "866022": 8079,
      "1080043": 8080,
      "1080001": 8081,
      "1120739": 8082,
      "Zr24Si8": 8083,
      "Sr20Pb16": 8084,
      "983388": 8085,
      "20826": 8086,
      "505510": 8087,
      "32654": 8088,
      "865899": 8089,
      "1102018": 8090,
      "1080834": 8091,
      "1080831": 8092,
      "1219940": 8093,
      "867841": 8094,
      "567705": 8095,
      "1476": 8096,
      "1200912": 8097,
      "569360": 8098,
      "1080657": 8099,
      "17013": 8100,
      "GeSb7": 8101,
      "1196961": 8102,
      "1203353": 8103,
      "1206268": 8104,
      "1206239": 8105,
      "555283": 8106,
      "1079460": 8107,
      "1186142": 8108,
      "999143": 8109,
      "28353": 8110,
      "K10Te6": 8111,
      "PCl3Ca3": 8112,
      "Al20Rh8": 8113,
      "TePIr": 8114,
      "12594": 8115,
      "12595": 8116,
      "MnAl2Tc": 8117,
      "1184994": 8118,
      "1106381": 8119,
      "Ni4As4Se4": 8120,
      "Cu4Sn4Pd8": 8121,
      "568018": 8122,
      "nbc": 8123,
      "nbm": 8124,
      "TiCrS2": 8125,
      "Si40Ir24": 8126,
      "Si24Ru16": 8127,
      "1209003": 8128,
      "1091375": 8129,
      "675060": 8130,
      "1183511": 8131,
      "P2Cu2Sr2": 8132,
      "1025044": 8133,
      "1084753": 8134,
      "1087486": 8135,
      "2403": 8136,
      "2480": 8137,
      "619071": 8138,
      "Ag14Te7": 8139,
      "18622": 8140,
      "11477": 8141,
      "1189633": 8142,
      "1187591": 8143,
      "1106023": 8144,
      "Te4W3S2": 8145,
      "569815": 8146,
      "685048": 8147,
      "C6Si6": 8148,
      "P20Tl4": 8149,
      "571160": 8150,
      "784630": 8151,
      "1105633": 8152,
      "1228467": 8153,
      "Si2S6Cu4": 8154,
      "Sc2Cd14": 8155,
      "949029": 8156,
      "Ir9Te24": 8157,
      "15624": 8158,
      "975834": 8159,
      "1185976": 8160,
      "1228607": 8161,
      "1066254": 8162,
      "Hf6CoSb2": 8163,
      "I2_13": 8164,
      "Ni14Hf6": 8165,
      "1009834": 8166,
      "1019319": 8167,
      "1209828": 8168,
      "20901": 8169,
      "1095177": 8170,
      "560588": 8171,
      "568865": 8172,
      "1191083": 8173,
      "1178810": 8174,
      "1232213": 8175,
      "Ti2Ga4Y": 8176,
      "24650": 8177,
      "38970": 8178,
      "H21Y10": 8179,
      "Pca2": 8180,
      "V24S8": 8181,
      "berylli": 8182,
      "InSn2Te3": 8183,
      "1056985": 8184,
      "555763": 8185,
      "558378": 8186,
      "580357": 8187,
      "P4K12Se16": 8188,
      "1183710": 8189,
      "1183989": 8190,
      "1185099": 8191,
      "Si2Se6Tl4": 8192,
      "Ca4Ir4Si2": 8193,
      "In8Cu7Se16": 8194,
      "Chalcostibite": 8195,
      "Y3Ga7Cu4": 8196,
      "beryllia": 8197,
      "032": 8198,
      "154": 8199,
      "1547": 8200,
      "267": 8201,
      "262": 8202,
      "285": 8203,
      "2121": 8204,
      "2152": 8205,
      "2730": 8206,
      "2503": 8207,
      "2404": 8208,
      "2856": 8209,
      "2693": 8210,
      "2686": 8211,
      "3Ni": 8212,
      "385": 8213,
      "3698": 8214,
      "31214": 8215,
      "415": 8216,
      "455": 8217,
      "560": 8218,
      "593": 8219,
      "510522": 8220,
      "618": 8221,
      "6Fe6": 8222,
      "6426": 8223,
      "742": 8224,
      "743": 8225,
      "7092": 8226,
      "846": 8227,
      "953": 8228,
      "945": 8229,
      "948": 8230,
      "956": 8231,
      "987": 8232,
      "9Ge2": 8233,
      "9Pd6": 8234,
      "9939": 8235,
      "Ae": 8236,
      "C9": 8237,
      "KY": 8238,
      "KCaCl": 8239,
      "KSnAs": 8240,
      "KAuCl": 8241,
      "NMo": 8242,
      "NCa2": 8243,
      "O_": 8244,
      "PIr": 8245,
      "PCs": 8246,
      "PRh2": 8247,
      "PZnP": 8248,
      "PSnP": 8249,
      "SSnPt": 8250,
      "SAsPd": 8251,
      "SSOs": 8252,
      "SAsRh": 8253,
      "SPRh": 8254,
      "VSb": 8255,
      "VSe4": 8256,
      "VCr2": 8257,
      "Y5": 8258,
      "YHg": 8259,
      "Y9Pd6": 8260,
      "In14": 8261,
      "InGaS": 8262,
      "AlFe": 8263,
      "AlNi2": 8264,
      "AlCl6": 8265,
      "romium": 8266,
      "TiAg": 8267,
      "TiMn2": 8268,
      "TiTaFe": 8269,
      "TiCr2S4": 8270,
      "Ti_0": 8271,
      "Ti14P8": 8272,
      "PdRh": 8273,
      "Pd18": 8274,
      "PdNiSi": 8275,
      "PdPS": 8276,
      "Se5": 8277,
      "SeV": 8278,
      "SePd": 8279,
      "Se18": 8280,
      "SeGaMo": 8281,
      "SiSbPt": 8282,
      "Ni18": 8283,
      "Ni16": 8284,
      "Ni19": 8285,
      "Ni21": 8286,
      "10015": 8287,
      "10025": 8288,
      "10125": 8289,
      "10692": 8290,
      "10695": 8291,
      "10404": 8292,
      "10886": 8293,
      "10759": 8294,
      "GaPd": 8295,
      "Ga16": 8296,
      "PtSc": 8297,
      "PtPdZn": 8298,
      "TeS": 8299,
      "TeMn": 8300,
      "TeSbRu": 8301,
      "AsCr": 8302,
      "AsIr": 8303,
      "HfV": 8304,
      "HfIn": 8305,
      "HfBi": 8306,
      "HfMn": 8307,
      "HfCd": 8308,
      "HfRhSn": 8309,
      "HfPd3": 8310,
      "CaY": 8311,
      "Ca14": 8312,
      "CaNiGe": 8313,
      "CaPt5": 8314,
      "CaIrIn": 8315,
      "CaPdCd": 8316,
      "CaFe2As2": 8317,
      "CaH2Pd": 8318,
      "CaTi2S4": 8319,
      "Zr5": 8320,
      "ZrPt": 8321,
      "ZrFe": 8322,
      "ZrCr": 8323,
      "ZrGeTe": 8324,
      "ZrPtAl": 8325,
      "ZrRhSb": 8326,
      "ZrCuSn": 8327,
      "ZrFe6": 8328,
      "Zr_0": 8329,
      "CuIr": 8330,
      "CuPb": 8331,
      "Cu15": 8332,
      "Cu36": 8333,
      "CuInSe": 8334,
      "CuHf2": 8335,
      "NaN": 8336,
      "NaSr": 8337,
      "Na18": 8338,
      "Na29": 8339,
      "NaS2": 8340,
      "NaHg2": 8341,
      "Sb18": 8342,
      "SbMn": 8343,
      "SbOs": 8344,
      "1252": 8345,
      "12104": 8346,
      "1297": 8347,
      "1278": 8348,
      "12124": 8349,
      "12139": 8350,
      "12777": 8351,
      "12524": 8352,
      "Zn24": 8353,
      "ZnCu3": 8354,
      "ZnCd3": 8355,
      "SnC": 8356,
      "SnGe": 8357,
      "SnIr": 8358,
      "SnMn": 8359,
      "Sn14": 8360,
      "SnTe4": 8361,
      "SnGeSe": 8362,
      "SnMo8": 8363,
      "GeCo": 8364,
      "GeBi": 8365,
      "GeBiPd6": 8366,
      "RhHf": 8367,
      "RhPS": 8368,
      "AgSi": 8369,
      "AgSb": 8370,
      "AgHg": 8371,
      "AgInSe": 8372,
      "AgBiSe": 8373,
      "AgGaS": 8374,
      "AgSnTe": 8375,
      "AgBiTe": 8376,
      "AgSe8": 8377,
      "NbAu": 8378,
      "NbTe2": 8379,
      "NbRuSb": 8380,
      "Sc24": 8381,
      "ScAu2": 8382,
      "ScCoSi": 8383,
      "ScAg4": 8384,
      "ScPt3": 8385,
      "ScZn3": 8386,
      "ScCoTe": 8387,
      "ScPb3": 8388,
      "Mo9": 8389,
      "Au9": 8390,
      "AuK": 8391,
      "AuS": 8392,
      "SrPdAs": 8393,
      "SrVN": 8394,
      "SrCaS": 8395,
      "SrAlSi": 8396,
      "SrCuSi": 8397,
      "SrCaPb": 8398,
      "18Os": 8399,
      "1823": 8400,
      "18167": 8401,
      "TaH": 8402,
      "TaV": 8403,
      "TaRhTe": 8404,
      "TaTiFe2": 8405,
      "Ta18Os": 8406,
      "CoIn": 8407,
      "CoRh": 8408,
      "CoFe": 8409,
      "1118": 8410,
      "1175": 8411,
      "1135": 8412,
      "1191": 8413,
      "11573": 8414,
      "11730": 8415,
      "11714": 8416,
      "11466": 8417,
      "11191": 8418,
      "11329": 8419,
      "BiPt": 8420,
      "BiZr": 8421,
      "CrTe4": 8422,
      "CrGa4": 8423,
      "CrFeAs": 8424,
      "CrCl4": 8425,
      "IrCu": 8426,
      "Mn16": 8427,
      "MnTc": 8428,
      "MnNi2": 8429,
      "MnCoSi": 8430,
      "CdCo": 8431,
      "CdPbS": 8432,
      "CdIn2": 8433,
      "PbP": 8434,
      "PbPt": 8435,
      "Cl5": 8436,
      "Cl10": 8437,
      "Cl14": 8438,
      "Cl24": 8439,
      "RbNa": 8440,
      "Rb12": 8441,
      "RbZn": 8442,
      "RbBi": 8443,
      "RbNH": 8444,
      "Rb20": 8445,
      "RbZn4": 8446,
      "12054": 8447,
      "12008": 8448,
      "12015": 8449,
      "120179": 8450,
      "2086": 8451,
      "2063": 8452,
      "20473": 8453,
      "20695": 8454,
      "20050": 8455,
      "20465": 8456,
      "10905": 8457,
      "1097859": 8458,
      "HgIn": 8459,
      "Hg19": 8460,
      "HgCdTe": 8461,
      "HgGaCl": 8462,
      "TlTi": 8463,
      "Tl21": 8464,
      "TlCuCl": 8465,
      "093": 8466,
      "Re12": 8467,
      "ReMo": 8468,
      "ReAlGe": 8469,
      "relative": 8470,
      "5409": 8471,
      "5448": 8472,
      "5428": 8473,
      "541180": 8474,
      "54258": 8475,
      "542339": 8476,
      "1642": 8477,
      "1602": 8478,
      "1670": 8479,
      "1649": 8480,
      "1624": 8481,
      "1630": 8482,
      "16421": 8483,
      "16074": 8484,
      "Os7": 8485,
      "OsW": 8486,
      "3306": 8487,
      "33024": 8488,
      "6762": 8489,
      "6753": 8490,
      "6759": 8491,
      "6736": 8492,
      "963": 8493,
      "CsZn": 8494,
      "CsZn8": 8495,
      "CsSnCl": 8496,
      "CsCdCl": 8497,
      "087": 8498,
      "TcSi": 8499,
      "TcNi": 8500,
      "TcTa": 8501,
      "TcMn": 8502,
      "1554": 8503,
      "1515": 8504,
      "1519": 8505,
      "1582": 8506,
      "15670": 8507,
      "15698": 8508,
      "15895": 8509,
      "15679": 8510,
      "4350": 8511,
      "076": 8512,
      "625": 8513,
      "6235": 8514,
      "621624": 8515,
      "6986": 8516,
      "6926": 8517,
      "551": 8518,
      "555410": 8519,
      "053": 8520,
      "056": 8521,
      "0532": 8522,
      "226": 8523,
      "2221": 8524,
      "2282": 8525,
      "22682": 8526,
      "22795": 8527,
      "402": 8528,
      "7446": 8529,
      "6046": 8530,
      "5837": 8531,
      "066": 8532,
      "0654": 8533,
      "578": 8534,
      "461": 8535,
      "P6In2": 8536,
      "P6K4": 8537,
      "P6Au4": 8538,
      "P6Cr12": 8539,
      "1411": 8540,
      "14587": 8541,
      "7509": 8542,
      "7554": 8543,
      "738": 8544,
      "7376": 8545,
      "6614": 8546,
      "669692": 8547,
      "1954": 8548,
      "1953": 8549,
      "1950": 8550,
      "1973": 8551,
      "1919": 8552,
      "1924": 8553,
      "10711": 8554,
      "1078500": 8555,
      "1072086": 8556,
      "897": 8557,
      "256": 8558,
      "2510": 8559,
      "687": 8560,
      "6853": 8561,
      "6849": 8562,
      "8262": 8563,
      "8219": 8564,
      "8276": 8565,
      "5911": 8566,
      "4822": 8567,
      "97975": 8568,
      "8605": 8569,
      "8632": 8570,
      "8639": 8571,
      "2322": 8572,
      "2371": 8573,
      "2377": 8574,
      "23167": 8575,
      "23474": 8576,
      "23713": 8577,
      "135": 8578,
      "1320": 8579,
      "1340": 8580,
      "1393": 8581,
      "1359": 8582,
      "1379": 8583,
      "13156": 8584,
      "784": 8585,
      "7822": 8586,
      "7819": 8587,
      "641924": 8588,
      "P4Pd2": 8589,
      "P4Pd12": 8590,
      "P4Mo12": 8591,
      "904": 8592,
      "727": 8593,
      "7262": 8594,
      "835": 8595,
      "8360": 8596,
      "11843": 8597,
      "11892": 8598,
      "11899": 8599,
      "11898": 8600,
      "1183306": 8601,
      "1186853": 8602,
      "561320": 8603,
      "29179": 8604,
      "29419": 8605,
      "29184": 8606,
      "29551": 8607,
      "2447": 8608,
      "11050": 8609,
      "1105552": 8610,
      "1105911": 8611,
      "635": 8612,
      "639": 8613,
      "6308": 8614,
      "6363": 8615,
      "636614": 8616,
      "6177": 8617,
      "P2Pd2": 8618,
      "P2S7": 8619,
      "30464": 8620,
      "30481": 8621,
      "30421": 8622,
      "30337": 8623,
      "30674": 8624,
      "TiSe2": 8625,
      "12178": 8626,
      "9993": 8627,
      "998860": 8628,
      "990532": 8629,
      "3896": 8630,
      "9847": 8631,
      "amino": 8632,
      "17695": 8633,
      "11912": 8634,
      "11909": 8635,
      "11940": 8636,
      "11921": 8637,
      "1191079": 8638,
      "1194350": 8639,
      "1190654": 8640,
      "2732": 8641,
      "2757": 8642,
      "2752": 8643,
      "27165": 8644,
      "2642": 8645,
      "2685": 8646,
      "VS2": 8647,
      "12233": 8648,
      "12268": 8649,
      "12278": 8650,
      "1227045": 8651,
      "1062030": 8652,
      "1061861": 8653,
      "TiAl2": 8654,
      "NiS8": 8655,
      "hydroxylamino": 8656,
      "MoSe2": 8657,
      "S2Zr": 8658,
      "S2Pt2": 8659,
      "S2Cd2": 8660,
      "S2Pd8": 8661,
      "NiAs8": 8662,
      "S4Sr2": 8663,
      "S4Ge2": 8664,
      "S4Ga4": 8665,
      "S4K4": 8666,
      "Ca2Pb2": 8667,
      "Si4P4": 8668,
      "Si4Ca4": 8669,
      "Si4Pd4": 8670,
      "Si4Fe4": 8671,
      "Si4Mo3": 8672,
      "Si4Co8": 8673,
      "Si4Tc4": 8674,
      "Si4Ru8": 8675,
      "Ti2Zn": 8676,
      "Ti2Ag": 8677,
      "Ti2Ga2": 8678,
      "Ti2Te2": 8679,
      "Ti2Cu2": 8680,
      "Ti2As2": 8681,
      "Ti2Ag2": 8682,
      "Ti2OsRu": 8683,
      "Ti2NiPd": 8684,
      "Ti2CrIr": 8685,
      "Ti2MnTc": 8686,
      "Si2Zr4": 8687,
      "Te4Hf": 8688,
      "Te4Rh3": 8689,
      "dimethylamino": 8690,
      "Sn2Ir": 8691,
      "Sn2GeTe": 8692,
      "Sn2Te10": 8693,
      "Sn2Pb2S4": 8694,
      "Se4S2": 8695,
      "Se4S4": 8696,
      "Se4Tl4": 8697,
      "As4Nb2": 8698,
      "As4Ru4": 8699,
      "As4Os4": 8700,
      "PbS8": 8701,
      "Al2Cu": 8702,
      "Al2Hf4": 8703,
      "Al2Mo6": 8704,
      "Al2Ti6": 8705,
      "Al2Rh6": 8706,
      "Al2Re2": 8707,
      "Al2Sr3": 8708,
      "S8Ni4": 8709,
      "S8Cu4": 8710,
      "S8K4": 8711,
      "S8Os4": 8712,
      "Sr2Cd": 8713,
      "Sr2Cd2": 8714,
      "Sr2Zn4": 8715,
      "PPMn": 8716,
      "Y2Al4": 8717,
      "Y2Pb4": 8718,
      "Y2Au6": 8719,
      "Ge4Se8": 8720,
      "Ge4Ru4": 8721,
      "Hf2Cd2": 8722,
      "Hf2Pt3": 8723,
      "Hf2Au6": 8724,
      "1216505": 8725,
      "1216675": 8726,
      "1216498": 8727,
      "1216173": 8728,
      "1216655": 8729,
      "Ga2Ag2": 8730,
      "Ga2Mo6": 8731,
      "Ga2Te5": 8732,
      "Hf4Ni4": 8733,
      "Hf4Pt4": 8734,
      "Hf4As12": 8735,
      "Hf4Cr8": 8736,
      "Hf4Pt16": 8737,
      "Hf4ZnGa11": 8738,
      "Ni2S8": 8739,
      "Ni2Y2": 8740,
      "Ni2Se2": 8741,
      "Ge2Hf4": 8742,
      "Sb4Pd4": 8743,
      "Au2Pb4": 8744,
      "In2Pt": 8745,
      "In2Co4": 8746,
      "In2Cl6": 8747,
      "In2Rh6": 8748,
      "In2Au6": 8749,
      "Zr2Zn": 8750,
      "Zr2Ag": 8751,
      "Zr2Si4": 8752,
      "Zr2Sb2": 8753,
      "Zr2Hg2": 8754,
      "Zr2Ga3": 8755,
      "Zr2Cu6": 8756,
      "Zr2Cl8": 8757,
      "Zr2Au6": 8758,
      "Zr2Hg6": 8759,
      "Zr2Te10": 8760,
      "Zr4Ga2": 8761,
      "Zr4Co2": 8762,
      "Zr4Cu4": 8763,
      "Zr4Cr4": 8764,
      "Zr4Cr8": 8765,
      "Zr4Cu4Sn4": 8766,
      "KKAs": 8767,
      "Al4Ca2": 8768,
      "Al4Ni6": 8769,
      "Al4Te12": 8770,
      "Al4Ga2N6": 8771,
      "Al4Cu15": 8772,
      "Cu2Pb6": 8773,
      "Cu2Ge2Sr": 8774,
      "10285": 8775,
      "10264": 8776,
      "1025448": 8777,
      "1963": 8778,
      "TaNi3": 8779,
      "Co2As4": 8780,
      "Co2Zr6": 8781,
      "Ti4Ge4": 8782,
      "Ti4Mn4": 8783,
      "Ti4Pd12": 8784,
      "Pt2Cl4": 8785,
      "1215503": 8786,
      "1215714": 8787,
      "1215979": 8788,
      "1215543": 8789,
      "1215779": 8790,
      "1215518": 8791,
      "1215729": 8792,
      "1215234": 8793,
      "1220441": 8794,
      "Ga4Se6": 8795,
      "Ga4Se10": 8796,
      "In4Se4": 8797,
      "In4S6": 8798,
      "In4Pd8": 8799,
      "As2S6": 8800,
      "As2Sr2Pd2": 8801,
      "Zn2Se2": 8802,
      "Zn2Ag6": 8803,
      "Zn2Cl4": 8804,
      "Zn2PdPt": 8805,
      "Sb2Au2": 8806,
      "Sb2Ir2": 8807,
      "K2S": 8808,
      "K2Pd": 8809,
      "K2Au2": 8810,
      "5694": 8811,
      "569867": 8812,
      "569989": 8813,
      "569322": 8814,
      "569426": 8815,
      "569175": 8816,
      "569095": 8817,
      "569837": 8818,
      "569794": 8819,
      "NaCl5": 8820,
      "SSbIr": 8821,
      "SSbOs": 8822,
      "YAg2": 8823,
      "YAgGa": 8824,
      "BiPd3": 8825,
      "Si6W": 8826,
      "Si6V3": 8827,
      "Si6Hf10": 8828,
      "Ir2Ru6": 8829,
      "Na2Si4": 8830,
      "Na2Se4": 8831,
      "Na2Te2": 8832,
      "Na2Zn2": 8833,
      "Na2Sb2": 8834,
      "Na2Au6": 8835,
      "Na2TlSb": 8836,
      "Sc2Te3": 8837,
      "Sc2AgPt": 8838,
      "Sc2TcPd": 8839,
      "Sc2TcAg": 8840,
      "Sc2ZnTc": 8841,
      "SbTe3": 8842,
      "SbTePd": 8843,
      "TaGeRu2": 8844,
      "Pb2SeS": 8845,
      "Pb2Cl4": 8846,
      "1018150": 8847,
      "1018105": 8848,
      "1018672": 8849,
      "1018148": 8850,
      "1018948": 8851,
      "BiTeIr": 8852,
      "Pt4Te6": 8853,
      "P8Rh4": 8854,
      "P8Os2": 8855,
      "P8Sc12": 8856,
      "P8Ti24": 8857,
      "S6Sr2": 8858,
      "S6Rb4": 8859,
      "S6Zn6": 8860,
      "Co4N4": 8861,
      "Co4Ge8": 8862,
      "Fe2P4": 8863,
      "Fe2S2": 8864,
      "Fe2Si2": 8865,
      "Fe2Se4": 8866,
      "Se8S4": 8867,
      "Se8Mo6": 8868,
      "Se8Pd14": 8869,
      "10877": 8870,
      "1087509": 8871,
      "1219924": 8872,
      "1219799": 8873,
      "Ca4Ge2": 8874,
      "Ca4Al4": 8875,
      "Ca4Ga4": 8876,
      "Ca4Cd2": 8877,
      "Ca4Zn8": 8878,
      "Ca4Cl8": 8879,
      "Ca4Si12": 8880,
      "Ca4Ag14": 8881,
      "Bi4S8": 8882,
      "Sn4Se2S2": 8883,
      "862983": 8884,
      "862620": 8885,
      "862423": 8886,
      "862871": 8887,
      "862259": 8888,
      "862655": 8889,
      "862621": 8890,
      "862264": 8891,
      "Mo2Rh": 8892,
      "Mo2Se4": 8893,
      "Mo2N6": 8894,
      "Mo2Se2S2": 8895,
      "MoAsP": 8896,
      "Bi2PbSe4": 8897,
      "Bi2Na2Se4": 8898,
      "Cu4Si4": 8899,
      "Cu4Sb2": 8900,
      "867141": 8901,
      "AlPt3": 8902,
      "As8Pd4": 8903,
      "As8Ir4": 8904,
      "Te6W4": 8905,
      "Te6Tl8": 8906,
      "CdAsCl": 8907,
      "NaSbSe": 8908,
      "NaSbSn": 8909,
      "NbPd3": 8910,
      "Rb2CrCl4": 8911,
      "1186115": 8912,
      "1186081": 8913,
      "Al3Y": 8914,
      "Al3Ag": 8915,
      "Al3Sc": 8916,
      "Al3Cu2": 8917,
      "Al3Pt2": 8918,
      "Al3Pt3": 8919,
      "Al3Si3": 8920,
      "TiGeS": 8921,
      "Cd2Pt2": 8922,
      "Cd2TeSe": 8923,
      "Cd2Ag6": 8924,
      "Y4Ga4": 8925,
      "Y4Pt4": 8926,
      "Y4Ir6": 8927,
      "1183151": 8928,
      "1183158": 8929,
      "1183627": 8930,
      "30867": 8931,
      "30885": 8932,
      "30877": 8933,
      "30884": 8934,
      "V2H": 8935,
      "V2NiSe4": 8936,
      "Zr6S8": 8937,
      "Zr6Hg2": 8938,
      "Zr6Sn6": 8939,
      "568607": 8940,
      "568671": 8941,
      "NiZnSb": 8942,
      "Sr4V4": 8943,
      "Sr4Al8": 8944,
      "Sr4Si2S8": 8945,
      "Ag2Se": 8946,
      "Ag2Hf2": 8947,
      "Ag2Sb2": 8948,
      "Ag2Bi6": 8949,
      "Mn2P4": 8950,
      "Mn2Pt2": 8951,
      "Mn2As2": 8952,
      "Mn2Cr2": 8953,
      "Mn2Os6": 8954,
      "567276": 8955,
      "567279": 8956,
      "567540": 8957,
      "K4Te4": 8958,
      "K4NaCl5": 8959,
      "Nb2Ir2": 8960,
      "Nb2Pt6": 8961,
      "Nb2Ir6": 8962,
      "Nb2Fe8": 8963,
      "1217228": 8964,
      "1217429": 8965,
      "1217097": 8966,
      "1223851": 8967,
      "Ti3Ga": 8968,
      "Ta2V4": 8969,
      "Ta2FeRu": 8970,
      "1187969": 8971,
      "1187541": 8972,
      "1186016": 8973,
      "1186060": 8974,
      "1186017": 8975,
      "Sc4Ge6": 8976,
      "Sc4Si4Ru4": 8977,
      "Sc4Co4Si4": 8978,
      "Ru4Sb4": 8979,
      "Hg2S2": 8980,
      "Hg2Pd2": 8981,
      "Hg2Pb2": 8982,
      "Hg2Pd6": 8983,
      "Se6Bi6": 8984,
      "RuAsP": 8985,
      "1218976": 8986,
      "1218177": 8987,
      "1218330": 8988,
      "1218960": 8989,
      "Nb6Au2": 8990,
      "Nb6S10": 8991,
      "Nb6ZnS8": 8992,
      "Nb6Pd18": 8993,
      "V6S10": 8994,
      "Hf6Cr4": 8995,
      "Hf6N8": 8996,
      "Hf6Bi6": 8997,
      "Cl6Te4Hf": 8998,
      "1078699": 8999,
      "1078666": 9000,
      "NZrSc": 9001,
      "Al6Hf4": 9002,
      "Al6W3": 9003,
      "SnHfS": 9004,
      "Mo6PbS8": 9005,
      "Hg4S16": 9006,
      "Ti6In2": 9007,
      "11256": 9008,
      "11241": 9009,
      "11238": 9010,
      "11231": 9011,
      "11227": 9012,
      "V4Co4": 9013,
      "Cs4Te10": 9014,
      "Cs4P28": 9015,
      "Al12W": 9016,
      "Al12Tc2": 9017,
      "Chromium": 9018,
      "SBiIr": 9019,
      "ZrSbRh": 9020,
      "10009": 9021,
      "10004": 9022,
      "1002063": 9023,
      "Hf3Bi": 9024,
      "Fe4Sb4": 9025,
      "Fe4Se8": 9026,
      "Fe4Sb12": 9027,
      "Ta4Cr4": 9028,
      "Nb4Rh": 9029,
      "Nb4Cr8": 9030,
      "Tl4Pd2": 9031,
      "Tl4Te6": 9032,
      "TiZn3": 9033,
      "10074": 9034,
      "1007758": 9035,
      "1007656": 9036,
      "1080121": 9037,
      "Zn4S4": 9038,
      "Zn4S8": 9039,
      "Zn4Pd8": 9040,
      "Zn4N4": 9041,
      "Zn4Y4Sn4": 9042,
      "Mn4As4": 9043,
      "Mn4Ge2": 9044,
      "Mn4Cr4": 9045,
      "Mn4Ga12": 9046,
      "Mn4P16": 9047,
      "TeBiIr": 9048,
      "1079193": 9049,
      "1079094": 9050,
      "1079182": 9051,
      "1207421": 9052,
      "H2Zr": 9053,
      "H2Ta": 9054,
      "TeSnBi": 9055,
      "Na8Zn8": 9056,
      "Sr8Ca2Si6": 9057,
      "1186932": 9058,
      "1186990": 9059,
      "974430": 9060,
      "974455": 9061,
      "Ca6Al4": 9062,
      "Zr10Ga8": 9063,
      "Zr10Cu2Sb6": 9064,
      "30354": 9065,
      "865077": 9066,
      "AlSiSr": 9067,
      "Ga3Nb": 9068,
      "SeBiPt": 9069,
      "SeBiIr": 9070,
      "CaAuBi": 9071,
      "22040": 9072,
      "22079": 9073,
      "Mo4Cl12": 9074,
      "570130": 9075,
      "570491": 9076,
      "570690": 9077,
      "As6Sr10": 9078,
      "Ca3Cd3": 9079,
      "Cr4As4": 9080,
      "Zn8Ag4": 9081,
      "Zn8As16": 9082,
      "Rb4Te4": 9083,
      "Ni3Se2": 9084,
      "Ni3P3": 9085,
      "Ni6SnSb": 9086,
      "Zn3Nb": 9087,
      "21289": 9088,
      "21237": 9089,
      "866121": 9090,
      "866132": 9091,
      "Y3Ag4": 9092,
      "Al8CaCu4": 9093,
      "ZnNi9Ge2": 9094,
      "CdPCl": 9095,
      "H4Ca2": 9096,
      "12454": 9097,
      "P̅42c": 9098,
      "In3SbTe2": 9099,
      "Nb3V3": 9100,
      "V3Os": 9101,
      "Hf10Sb18": 9102,
      "1206072": 9103,
      "30581": 9104,
      "30594": 9105,
      "30619": 9106,
      "TeGeRh": 9107,
      "HfCuGe": 9108,
      "1221422": 9109,
      "1221425": 9110,
      "1184704": 9111,
      "1184791": 9112,
      "Ta3Ir": 9113,
      "W3S6": 9114,
      "₃)₂(": 9115,
      "1025159": 9116,
      "16718": 9117,
      "16770": 9118,
      "977129": 9119,
      "13364": 9120,
      "AsZnSn": 9121,
      "973143": 9122,
      "973092": 9123,
      "973676": 9124,
      "Ru6W2": 9125,
      "30792": 9126,
      "K3Bi": 9127,
      "HfAu9": 9128,
      "Zr3In": 9129,
      "Zr3Zn": 9130,
      "Zn6Ag2": 9131,
      "16610": 9132,
      "Y6Au4": 9133,
      "Y8Pt4": 9134,
      "Y8Sb6": 9135,
      "HfZnIr2": 9136,
      "12772": 9137,
      "20405": 9138,
      "29642": 9139,
      "983459": 9140,
      "K6Te6": 9141,
      "YZnSn": 9142,
      "Re2N4": 9143,
      "Re2Os6": 9144,
      "Na12Si4Te12": 9145,
      "1224390": 9146,
      "1224383": 9147,
      "11048": 9148,
      "1104165": 9149,
      "23295": 9150,
      "Ag6As2S6": 9151,
      "Re4N2": 9152,
      "1187233": 9153,
      "VIr3": 9154,
      "Si3Ge3": 9155,
      "Si3Ru3": 9156,
      "Sc6Al2": 9157,
      "Sc6Hg2": 9158,
      "13688": 9159,
      "976128": 9160,
      "976419": 9161,
      "VPt8": 9162,
      "SeAsIr": 9163,
      "Si12P12": 9164,
      "Fe3NiAs8": 9165,
      "1025366": 9166,
      "1025397": 9167,
      "755988": 9168,
      "S10Ag2Bi6": 9169,
      "1023934": 9170,
      "971751": 9171,
      "Pcc2": 9172,
      "1224475": 9173,
      "Mo3Pt": 9174,
      "Mo3Se4S2": 9175,
      "16261": 9176,
      "685124": 9177,
      "YAuAl": 9178,
      "YAuGa": 9179,
      "Mn3Ge": 9180,
      "31144": 9181,
      "SCrCu": 9182,
      "Ti8Te12": 9183,
      "Ti8As16": 9184,
      "1067210": 9185,
      "Cr3Fe": 9186,
      "1188208": 9187,
      "1188336": 9188,
      "1226741": 9189,
      "1226761": 9190,
      "607139": 9191,
      "607450": 9192,
      "P16Zn4": 9193,
      "P16Se20": 9194,
      "As16Se12": 9195,
      "Ge8Mo4": 9196,
      "Sc10Si6": 9197,
      "Sc10Sn6": 9198,
      "1102900": 9199,
      "1102525": 9200,
      "30496": 9201,
      "669546": 9202,
      "C4Si4": 9203,
      "1218017": 9204,
      "Mn6Ni8": 9205,
      "1079910": 9206,
      "1079997": 9207,
      "1228953": 9208,
      "1228983": 9209,
      "14017": 9210,
      "1224496": 9211,
      "1224488": 9212,
      "1224414": 9213,
      "1224464": 9214,
      "989782": 9215,
      "H8S4": 9216,
      "H8Ca4": 9217,
      "Al5Ag": 9218,
      "Hf12Sb4": 9219,
      "Hf12Cr12": 9220,
      "12466": 9221,
      "1246556": 9222,
      "Sn3Sb": 9223,
      "Sn3Rh3": 9224,
      "Fe6N10": 9225,
      "Fe8S10": 9226,
      "Rb3Au7": 9227,
      "21068": 9228,
      "YBiPt": 9229,
      "Ti10Cu2": 9230,
      "Ti10Ga6": 9231,
      "Ti10Sn6": 9232,
      "Sr3In11": 9233,
      "Cl16Sn8": 9234,
      "1209130": 9235,
      "675543": 9236,
      "19879": 9237,
      "999544": 9238,
      "754064": 9239,
      "N12Ta10": 9240,
      "20916": 9241,
      "20905": 9242,
      "20987": 9243,
      "570896": 9244,
      "570870": 9245,
      "570895": 9246,
      "Bi8Pb4S16": 9247,
      "Bi8Se8S4": 9248,
      "Cl12Sb4": 9249,
      "16511": 9250,
      "Te16Rh9": 9251,
      "Ca12Cd8": 9252,
      "571642": 9253,
      "19279": 9254,
      "981368": 9255,
      "S3Ni3": 9256,
      "V10S8": 9257,
      "1229100": 9258,
      "1190136": 9259,
      "1190672": 9260,
      "1094272": 9261,
      "1095592": 9262,
      "Re3Ru": 9263,
      "22872": 9264,
      "1187920": 9265,
      "1187952": 9266,
      "1221484": 9267,
      "862705": 9268,
      "6H10": 9269,
      "632311": 9270,
      "7582": 9271,
      "7583": 9272,
      "TeSbPd": 9273,
      "Nb8C4": 9274,
      "Mn8Si": 9275,
      "15953": 9276,
      "570689": 9277,
      "1103252": 9278,
      "24723": 9279,
      "2490": 9280,
      "620571": 9281,
      "620032": 9282,
      "Zr12As8": 9283,
      "Zr12Zn8": 9284,
      "Sc8In4Pd8": 9285,
      "684744": 9286,
      "865430": 9287,
      "1025571": 9288,
      "28266": 9289,
      "985806": 9290,
      "In5AgSe8": 9291,
      "Al11Mn4": 9292,
      "1017985": 9293,
      "Ta24Ge8": 9294,
      "Cr6As2": 9295,
      "15650": 9296,
      "15649": 9297,
      "864794": 9298,
      "864798": 9299,
      "1104010": 9300,
      "974990": 9301,
      "Pd10Bi4": 9302,
      "1222167": 9303,
      "Zn5Y": 9304,
      "Cs3In9": 9305,
      "Cs3AlCl6": 9306,
      "971673": 9307,
      "1186768": 9308,
      "1187812": 9309,
      "1229006": 9310,
      "1229048": 9311,
      "1068286": 9312,
      "1193756": 9313,
      "1188042": 9314,
      "1188040": 9315,
      "Al10W2": 9316,
      "Rb6Sb2": 9317,
      "Rb6Bi2": 9318,
      "1205346": 9319,
      "16319": 9320,
      "1187433": 9321,
      "1104388": 9322,
      "1104327": 9323,
      "1217360": 9324,
      "1217363": 9325,
      "Hf14As8": 9326,
      "1199529": 9327,
      "557096": 9328,
      "571053": 9329,
      "979115": 9330,
      "1188890": 9331,
      "569683": 9332,
      "569624": 9333,
      "1217210": 9334,
      "1217255": 9335,
      "1228815": 9336,
      "1228817": 9337,
      "1215988": 9338,
      "1227504": 9339,
      "SrCuGe": 9340,
      "20034": 9341,
      "1217901": 9342,
      "1224768": 9343,
      "TiNiSn": 9344,
      "Ca16Al6": 9345,
      "Na16Pb16": 9346,
      "Nb12P4": 9347,
      "Cr5Se8": 9348,
      "1079296": 9349,
      "1079260": 9350,
      "972228": 9351,
      "1187196": 9352,
      "1183173": 9353,
      "568320": 9354,
      "568380": 9355,
      "2194": 9356,
      "849059": 9357,
      "V5Se8": 9358,
      "AlGaNi2": 9359,
      "AlGaIr2": 9360,
      "SeSbIr": 9361,
      "SeSbOs": 9362,
      "Hf24As12": 9363,
      "AgSnTe2": 9364,
      "Mn12Ge20": 9365,
      "1078638": 9366,
      "1103034": 9367,
      "1178932": 9368,
      "1080022": 9369,
      "980109": 9370,
      "Zr24As8": 9371,
      "1101867": 9372,
      "1101884": 9373,
      "1102840": 9374,
      "17593": 9375,
      "27902": 9376,
      "554134": 9377,
      "V12Ga14": 9378,
      "ZnGeRh2": 9379,
      "850068": 9380,
      "32616": 9381,
      "861656": 9382,
      "865842": 9383,
      "568971": 9384,
      "639805": 9385,
      "1219922": 9386,
      "Ca4In4Pt4": 9387,
      "Ca4In4Pd4": 9388,
      "862379": 9389,
      "567772": 9390,
      "1062758": 9391,
      "1062804": 9392,
      "Zr8Sn4": 9393,
      "Zr8Bi16": 9394,
      "Zn12Y4": 9395,
      "SrCaS2": 9396,
      "SrCaSi4": 9397,
      "1093999": 9398,
      "1095643": 9399,
      "1070103": 9400,
      "1070544": 9401,
      "1079681": 9402,
      "1078989": 9403,
      "1102657": 9404,
      "1220657": 9405,
      "Hf6Al2Ge10": 9406,
      "Ni5Y": 9407,
      "Ge24Os16": 9408,
      "Rh12Si16": 9409,
      "11963": 9410,
      "CdPbS2": 9411,
      "CdHgTe2": 9412,
      "1203338": 9413,
      "1078049": 9414,
      "1079467": 9415,
      "972069": 9416,
      "972088": 9417,
      "P4Rh4S4": 9418,
      "1103643": 9419,
      "30045": 9420,
      "1227285": 9421,
      "1179656": 9422,
      "1220442": 9423,
      "1444": 9424,
      "17291": 9425,
      "642659": 9426,
      "S7Y5": 9427,
      "Al20Mn6": 9428,
      "Al16Cu36": 9429,
      "Ti12Sb4": 9430,
      "Ti12Sn10": 9431,
      "1022721": 9432,
      "CaGe2Rh2": 9433,
      "CrSnRu2": 9434,
      "1078780": 9435,
      "1106367": 9436,
      "1190736": 9437,
      "1227486": 9438,
      "Si2YIr2": 9439,
      "P7Rh12": 9440,
      "PCuSnP": 9441,
      "Fe12N6": 9442,
      "1091387": 9443,
      "541609": 9444,
      "540791": 9445,
      "684650": 9446,
      "1186231": 9447,
      "1106162": 9448,
      "P2Cu2Zr": 9449,
      "1219396": 9450,
      "1025906": 9451,
      "24809": 9452,
      "V8H4": 9453,
      "AlZnCu2": 9454,
      "AlZnIr2": 9455,
      "Pd13Tl9": 9456,
      "Hf16Pd8": 9457,
      "Hf16Co8": 9458,
      "Cu16Pd4": 9459,
      "Tl20Se12": 9460,
      "1104926": 9461,
      "1103177": 9462,
      "P28Pb4": 9463,
      "Te4W3Se2": 9464,
      "Y2Ga2Au2": 9465,
      "Y2Ga2Ag2": 9466,
      "569833": 9467,
      "Zr10Sn6N2": 9468,
      "865910": 9469,
      "685022": 9470,
      "PTeIr": 9471,
      "YSi2Pd2": 9472,
      "Al13Os4": 9473,
      "Al13Pd13": 9474,
      "1056308": 9475,
      "Ga40SnMo8": 9476,
      "Ta5S8": 9477,
      "TaInSe2": 9478,
      "1208721": 9479,
      "15964": 9480,
      "15965": 9481,
      "555843": 9482,
      "1100415": 9483,
      "1228753": 9484,
      "1228752": 9485,
      "Ca2Ni10H": 9486,
      "1026356": 9487,
      "As2P2Ru2": 9488,
      "1219533": 9489,
      "Y4Al4Au4": 9490,
      "567929": 9491,
      "27258": 9492,
      "643257": 9493,
      "Y14Pt6": 9494,
      "AlReGe": 9495,
      "Ti13Sb3": 9496,
      "Zn10As8": 9497,
      "MoW2Se6": 9498,
      "861910": 9499,
      "568516": 9500,
      "1106227": 9501,
      "632219": 9502,
      "991544": 9503,
      "1191538": 9504,
      "Ca2CdPd2": 9505,
      "In4Sb4Se12": 9506,
      "K2H4Pd": 9507,
      "Ag2Bi2S4": 9508,
      "567822": 9509,
      "CuZr2Sb3": 9510,
      "1212011": 9511,
      "Zn16Pd8": 9512,
      "NbVRe": 9513,
      "Sr9Au6": 9514,
      "SrSi2Pt2": 9515,
      "1207193": 9516,
      "1206591": 9517,
      "20027": 9518,
      "753304": 9519,
      "680576": 9520,
      "1183040": 9521,
      "1190841": 9522,
      "1192251": 9523,
      "1080493": 9524,
      "35015": 9525,
      "610517": 9526,
      "Si9C9": 9527,
      "Zn20Pd6": 9528,
      "541236": 9529,
      "680731": 9530,
      "975272": 9531,
      "P2Zn2Sr": 9532,
      "1190500": 9533,
      "Si4Y2Ir4": 9534,
      "Y2In3Cu": 9535,
      "Te2W3S4": 9536,
      "Ti4Al11Ni": 9537,
      "Zr6CoSn2": 9538,
      "Sr6Ga4P8": 9539,
      "1038828": 9540,
      "849060": 9541,
      "38511": 9542,
      "560025": 9543,
      "642644": 9544,
      "Aea2": 9545,
      "O_3": 9546,
      "SiSbPt5": 9547,
      "Ni19Se20": 9548,
      "Ni21Hf8": 9549,
      "1040453": 9550,
      "Na18As6": 9551,
      "1212407": 9552,
      "ZnCd3S4": 9553,
      "Sn14Ir6": 9554,
      "Ta18Os12": 9555,
      "1200894": 9556,
      "1201560": 9557,
      "1201790": 9558,
      "Tl21Sb6": 9559,
      "542587": 9560,
      "673633": 9561,
      "623511": 9562,
      "604647": 9563,
      "979751": 9564,
      "1189871": 9565,
      "Ti2Cu2Ni4": 9566,
      "Sn2GeTe3": 9567,
      "Al2Sr3Sn2": 9568,
      "Hf4As12Na20": 9569,
      "Te6W4S2": 9570,
      "Y4Ir6Ge10": 9571,
      "Zr6Sn6Ir6": 9572,
      "Sr4V4N8": 9573,
      "Sr4Al8Au12": 9574,
      "Hf6Cr4Ga12": 9575,
      "Mn6Ni8Sb2": 9576,
      ")₉": 9577,
      "055": 9578,
      "002": 9579,
      "284": 9580,
      "2977": 9581,
      "2103": 9582,
      "2578": 9583,
      "3Pd": 9584,
      "3Ir": 9585,
      "387": 9586,
      "31080": 9587,
      "3441": 9588,
      "3432": 9589,
      "4192": 9590,
      "4628": 9591,
      "4404": 9592,
      "5Ni": 9593,
      "514": 9594,
      "5104": 9595,
      "564": 9596,
      "51009": 9597,
      "5744": 9598,
      "696": 9599,
      "619905": 9600,
[...]
