#version: 0.2
Ġ a
Ġ t
h e
o n
l e
Ġ i
Ġt he
Ġ b
o m
Ġ s
Ġ o
Ġ c
i t
r e
n d
on d
a t
n g
o r
Ġb ond
Ġi s
Ġa t
e n
a l
Ġat om
Ġa nd
a r
Ġ e
T he
Ġ f
Ġo f
Ġ m
e d
Ġ w
r o
c t
Ġt o
Ġatom s
â Ĥ
Ġi n
e t
i v
o le
i c
r a
Ġ The
at e
n t
i ng
Ġ C
c e
d i
a le
ale nt
e r
Ġ h
c u
Ġ p
it h
Ġw ith
ole cu
Ġm olecu
q u
g en
â ģ
s t
u r
t h
iv alent
qu ivalent
Ġ g
Ã ħ
Ġ Ãħ
d s
Ġ 1
Ġ on
e s
a ce
Ġe quivalent
Ġa re
Ġ I
ds or
Ġmolecu le
he d
dsor b
Ġt w
ar b
arb on
Ġ di
Ġ (
Ġc arbon
â Ģ
âĢ ĵ
Ġs it
Ġbond ed
Ġf or
Ġ S
hed ra
Ġ le
ng th
r y
Ġle ngth
l y
Ġtw o
r i
Ġt h
ct a
Ġa dsorb
Ġo r
Ġsit e
Ġh y
a n
Ġ A
en t
x y
Ġs i
Ġs p
cta hedra
Ġ 2
b it
bit al
ro gen
u b
al y
at aly
Ġh a
Ġfor m
e en
f ace
Ġc ataly
Ġs ur
Ġ N
Ġsur face
Ġor bital
o l
om et
xy gen
ĠI n
Ġ n
Ġc ub
e omet
Ġg eomet
Ġgeomet ry
Ġ P
âģ º
o ur
Ġo xygen
âģ »
Ġb et
Ġf our
Ġ d
t ic
w een
Ġbet ween
Ġha s
ĠThe re
ro u
Ġ T
h ar
Ġadsorb ate
r on
C H
Ġcataly tic
i m
Ġe le
Â ²
i on
Ġele ct
Ġcub o
Ġcubo ctahedra
p p
Ġelect ron
x im
n er
or ner
ate ly
Ġc orner
Ġa pp
ro xim
Ġapp roxim
Ġapproxim ately
a c
l i
Ġg rou
Ġhy d
Ġa ng
l ar
e g
Ġdi st
Ġlength s
g h
Ġang le
Ġgrou p
d g
Ġs h
Ġon e
Ġw h
Ġ M
p ole
ĠA l
âĤ Ħ
âĤ Ĥ
r om
iv e
Ġsi x
c o
om ent
Ġm oment
Ġdi pole
Ġhyd rogen
i l
Ġorbital s
or t
Ġ ra
âĤ Ĩ
Ġth at
Ġmolecu lar
i gh
O H
b ri
Ġe dg
Ġp l
n ate
or di
co ordi
coordi nate
i r
re e
u re
Ġ H
Ġ re
Ġth ree
Ġf rom
Ġb i
Ġi t
igh t
n e
Ġhy bri
ic al
it rogen
Ġc har
Ġc o
v alent
nd ing
Â ¹
Ġco valent
Ġn itrogen
Â ³
Ġelectron s
Ġcorner s
m p
Ġs t
Ġs e
ce s
a re
Ġbond ing
) .
ac ed
Ġpl aced
har ing
Ġbond s
Ġra ng
Ġ R
et ra
Ġbi nding
Ġa s
Ġ l
Ġt etra
Ġe ight
Ġ O
g on
gon al
v e
Ġf ace
s haring
il le
Ġl on
ic h
Ġwh ich
Ġ Z
ĠC H
Ġ *
Ġ 0
Ġt ri
o w
Ġadsorb ed
a ct
it y
dsorb ate
âĤ ģ
p e
e x
Ġ G
ĠI nd
ĠM ille
ĠMille r
A dsorbate
ĠInd ex
z es
Ġc ry
al li
st alli
Ġsp ace
Ġcry stalli
Ġcrystalli zes
Ġa l
ĠT i
Ġedg es
Ġ Ċ
di z
Ġdist an
eg at
ol ar
a d
Ġo ctahedra
Ġdistan ces
Ġ 3
i st
Ġsh are
re ad
Ġsp read
Ġrang ing
v er
Ġc on
z e
Ġd eg
u ct
i n
re es
Ġdeg rees
Ġp olar
âĤ Ī
r uct
ruct ure
h y
Ġst ructure
Ġ u
ĠAl l
at ion
he m
Ġ D
l a
âĤ ĥ
Ġangle s
Ġc hem
e l
âĤģ âĤĤ
Ġchem ical
Â °
Ġdist ort
Ġdistort ed
i le
Ġp ar
Ġhybri diz
s o
Ġface s
Ġwh ile
ac h
Ġchar g
Ġ v
Ġal so
u t
u e
Ġit s
Ġe ach
c ond
ir st
e quivalent
Ġf irst
Ġin equivalent
Ġsit es
Ġse cond
Ġa n
Ġd ue
al l
Ġsi ze
Ġsi g
e re
ĠP d
ĠC a
m i
g er
Ġsh ort
Ġlon ger
Ġshort er
r al
o p
Ġat op
Ġtetra hedra
A l
iv ity
Ġt y
ĠH f
m a
y ra
yra mi
ct ion
ĠN i
o s
2 0
Ġ1 0
n ce
Ġtw el
Ġtwel ve
Ġ B
Ġty pe
t i
Ġcataly st
Ġc an
Ġelectron egat
Ġs ing
ĠG a
Ġin t
ĠS i
y l
ĠZ r
m m
ĠP t
S e
Ġcharg e
yrami ds
Ġedg e
ĠN a
d e
Ġsing le
Ġhybri d
Ġchar act
Ġcharact er
ĠS e
k n
Ġ kn
ow n
Ġkn own
hed ral
ĠI t
âģ ´
Ġpar ti
Ġparti al
I n
e ra
Ġint era
Ġ Y
i f
Â° .
Ġe th
Ġstructure d
b y
p le
Ġcub ic
Ġ li
Ġtri gonal
ic s
Ġf ive
e by
Ġcharacter ist
ĠT e
ne ar
Ġli near
Ġu n
ĠC u
Ġcharacterist ics
F e
Ġelectronegat ivity
P d
S i
x t
eby e
i xt
Ġm ixt
Ġmixt ure
ĠA s
ĠN b
Ġb y
A s
Ġ V
âĤ ħ
he r
le ne
ĠS r
T e
Ġo ver
ĠS c
Ġp os
Ġtri ple
a nt
8 0
Ġc om
u s
ĠZ n
y lene
ond ing
Ġcon s
Ġre act
u la
Ġform ula
Ġ 4
a ir
c et
Ġhybridiz ed
Ġm a
ĠR h
o d
Ġb e
ĠD ebye
nd ic
Ġp air
Ġintera ction
Ġre s
ĠS n
Ġp i
ĠS b
if ic
ĠT a
an ar
T i
O CH
f f
Ġdi ff
Ġcons ist
Ġ W
Ġsig ma
a gonal
ĠM o
s es
m ol
P t
1 0
Ġcarbon yl
Ġ K
Ġdiff ere
Ġa rou
Ġarou nd
ĠG e
Ġn o
Ġt il
Ġtil t
ĠC o
Ġlon e
Ġpos it
Ġa b
ĠA g
G a
t her
N i
Ġ Ï
u l
er m
o th
ive ly
OH CH
Ġha ve
l ow
Ġa cet
Ġn egat
Ġ 6
s e
S b
m all
Ġs mall
Ġover la
Ġ1 80
Ġo ther
ĠC CH
an ol
Ġi ndic
Ġp yramids
Ġhybridiz ation
Ġw e
re s
cta hedral
Ġoverla p
Ġ Fe
Ì ħ
Ġg ly
Ġ 5
Ġo ctahedral
ĠA u
o ut
Ġab out
ĠC r
Ġd o
Ġm et
Ġth ir
v ol
Ġin vol
Ġb ri
dg e
Ġbri dge
G e
n ific
Ġsig nific
Ġsignific ant
S n
t een
Ġcon t
at ing
Ġposit ive
Ġnegat ive
k e
ere d
Ġdiffere nce
1 2
i s
Z n
ĠM n
ub le
Ġthir d
O ver
Over all
b onding
d ical
Ġra dical
c cu
v en
c ent
Ġb od
cent ered
Ġbod y
Ġpl anar
Ġ1 20
C O
Ġform ed
Ġres ul
Ġresul t
Ġ10 9
C u
Ġw he
0 9
Ġ1 1
Ġwe ight
Ġn on
R h
ol low
ro xy
ĠR b
st rom
a in
strom s
Ġdo uble
A g
ri b
Ġinvol v
Ġbi p
N H
ĠB i
Ġwhe re
Ġp ro
l u
ccu p
ĠB oth
Ġs qu
Ġsqu are
c ol
Ġgly col
Ġgroup s
Ġse ven
ion s
ĠR u
Ġbip yramids
er s
Ġ 7
Ġ 9
ĠN O
hy l
o c
ĠI r
ĠP b
Ġindic ating
l at
Ġre lat
H f
Ġrelat ively
ĠÏ ĥ
Ġ E
rib ut
Ġp res
li ke
ng stroms
Z r
5 4
Ġtetra hedral
Ġrang e
Ġhyd roxy
Ġs y
i de
Ġ he
Ġm e
Ġ OH
p t
ain s
A u
p a
ar i
b ic
h om
or hom
th orhom
thorhom bic
hy d
al s
o xygen
ĠC d
Ġor thorhombic
6 7
en ce
ale nce
1 1
4 3
h a
ze ro
i re
Ġcom p
i ne
3 3
Ġo ccup
Ġt en
a m
h is
i d
ĠT his
it e
Ġcont ains
Ġmet hyl
Ġv an
9 6
ĠC OCH
a pe
Ġsh ape
Ġconsist s
a als
Ġd er
ĠW aals
ĠA ngstroms
c arbon
Ġp ent
Ġpent agonal
pt ion
ĠN H
bri diz
hy bridiz
hybridiz ed
Ġconsist ing
0 8
Ġan y
N O
Ġelectron ic
Ġv alence
Ġun pa
ire d
Ġunpa ired
) ,
0 7
4 2
Ġ zero
i g
hyd rogen
x agonal
Ġhe xagonal
ĠC l
ĠT l
ion al
in ed
Ġpair s
Ġreact ions
C o
Ġm o
Ġa dsor
Ġadsor ption
ĠE th
et r
mm etr
Ġtetra gonal
1 6
m ent
Ġa nt
Ġresult ing
Ġ 8
M o
Ġpolar ity
i es
ri ses
5 3
6 9
p er
I r
w ar
Ġto war
Ġtowar ds
8 5
Ġpar tic
R u
0 5
ĠO CH
B i
ĠH g
Ġreact ivity
en s
Ġin f
rou gh
Ġdi re
Ġant i
N b
b le
Ġd et
C a
5 0
ĠC s
C l
Ġinteraction s
i p
u m
Ġa rises
Ġform s
N a
C d
a s
Ġh ollow
ĠR e
Ġeth anol
Ġhydroxy l
P b
Ġfour th
Ġun hybridized
1 5
ent ed
T a
u c
Ġs li
gh t
Ġsli ght
2 1
Ġinvolv es
u lar
Ġpartic ip
Ġparticip ate
n ic
li nic
Ġdire ction
o u
5 5
Ġo ut
2 2
d ing
Ġn e
Ġn ine
ed i
Ġc ent
olecu lar
C CH
Ġform ing
Ġth rough
S c
Ġma k
di us
Ġra dius
4 7
Ġu s
Ġmo re
Ġme an
Ġacet ylene
8 8
Ġp m
Ġma y
ĠC OHCH
Ġsix teen
r bital
ĠT c
7 1
Ġo ri
Ġori ented
Ġfour teen
Ġsy mmetr
i ed
ĠÏ Ģ
erm ined
Ġdet ermined
qu al
Ġe x
Ġi mp
Ġt erm
Ġterm s
Ġv ari
o xy
y an
Ġpres ence
or bital
Ġcent ral
Ġno t
Ġs he
Ġ F
Ġanti bonding
Â° ,
H g
a us
0 6
Ġdist ribut
ro p
Ġthe se
8 6
o us
Ġre ma
in ing
Ġrema ining
ĠCH CH
c lu
Ġin clu
or m
5 2
4 0
mm m
omet ers
ent al
Ġm on
S r
l anar
p lanar
oc linic
Ġmon oclinic
Ġh igh
0 2
al de
hy de
alde hyde
C r
Ġintera ct
u n
ĠO s
Ġa r
ort ant
Ġimp ortant
e c
Ġsp ec
Ġvari ous
Ġatom ic
Ġsymmetr ical
Ġs haring
Ġw ate
Ġwate r
Ġcom b
Ġmolecule s
2 3
Ġf ollow
i pole
Ġn et
Ġb oth
C OH
Ġeth oxy
Ġeth ylene
Ġoccup y
Ġmak ing
ct ed
9 3
om ic
at omic
ron g
Ġst rong
Ġinclu ding
am e
Ġelectronegat ive
6 2
7 0
an edi
g n
M n
âģº ,
Ġslight ly
2 5
6 6
8 9
d d
Ġp er
6 âĤĥ
Ġh ig
6 5
g an
Ġor gan
Ġorgan ic
7 4
n ol
y nol
Ġcomp ou
Ġcompou nd
m ens
di mens
dimens ional
Ġcont ribut
T l
ce l
Ġcan cel
âĤ ĩ
Ġpro ces
g e
Ġshe et
Ġus ed
' s
7 5
8 3
dd it
Ġat t
ĠCH OH
1 9
i z
i um
ar y
Ġf if
ate s
Ġindic ates
ng e
8 2
4 6
Ġar ra
4 5
7 9
im ental
per imental
Ġex perimental
at ed
Ġinf orm
Ġinform ation
Ġc yan
ĠC CO
Ġsurface s
iv es
Ġg ives
7 3
P rop
Prop anol
Ï ĥ
Ġs ame
âĤ Ģ
o x
ox al
anedi ol
Ġdistribut ion
âĤģ âĤĢ
8 1
Ġcharg ed
e m
v ing
Ġsi nce
st em
Ġsy stem
os ed
Ġcomp osed
v i
Ġha ving
5 7
Ġw id
Ġwid th
Ġ10 4
6 8
Ġv al
at ure
Ġs uc
Ġsuc h
Ġinvolv ed
ri m
ĠEth ylene
Ġpres ent
O rbital
Ġbe c
1 8
ĠF m
o t
Ġal low
Ġd e
Ġacet yl
ĠP m
ĠIt s
9 7
nd er
Ġu nder
Ġresult s
6 0
Ġ -
Ġwith in
Ġfif th
Ġpartial ly
Ġp rim
ari ly
Ġprim arily
Ġ L
Ġhigh ly
ic ometers
O s
mm c
el l
Ġproces ses
Ġpos ses
f ig
ur ation
Ġcon fig
Ġconfig uration
2 4
Ġse ver
Ġsever al
0 4
M O
on s
7 8
et h
5 9
5 1
R e
ĠTi Ti
6 4
nge ment
Ġarra ngement
m c
Ġover all
pe ndic
Ġper pendic
Ġperpendic ular
ne qual
Ġu nequal
3 4
Ġre p
Ġthe or
ĠA ddit
ional ly
ĠAddit ionally
eth anediol
7 7
i nt
Ï Ģ
Ġgly oxal
Ġfor ces
Ġcyan o
Ġre f
Ġn ature
8 4
et ic
gn etic
p ar
Ġse par
Ġsepar ation
in ation
Ġcomb ination
2 9
5 6
Ġoccup ied
ac et
7 6
Ġc ar
Ġcom m
T c
Ġm od
Ġmod er
Ġmean s
Ġ( -
n itrogen
Ġ U
Ġe nd
Ġma ke
ĠP n
1 4
ĠCOHCH O
ĠC N
Ġcatalyst s
7 2
Ġacet ate
Ġreact ive
i ble
p ons
Ġres pons
Ġrespons ible
ti es
Ġpro per
Ġproper ties
ĠCCH O
1 3
5 8
Ġtw ent
Ġeth ynol
âĤ ī
aus e
Ġbec ause
Ġ10 7
a ble
it ies
Ġ6 2
CH CH
Ġw ell
Ġtwent y
R b
4 1
Ġmoment s
hy s
ille d
Ġcharg es
Ġp icometers
Ġint erm
yrami d
iz ed
c ataly
cataly st
Ġinf lu
4 8
d er
t al
Ġto tal
Ġf un
ction al
Ġfun ctional
Ġsystem s
Ġbe ing
4 9
ed ge
Ġedge edge
Ġrep res
Ġme as
9 0
il ic
Ġth an
Ġgrou nd
Ġst ate
Ġmean ing
Ġhig her
u es
Ġval ues
6 3
l os
Ġc los
Ġthe re
ĠThe se
Ġeight een
Ġ1 2
mc m
Ġde pe
ilic ide
6 1
p ed
s ha
sha ped
Ġdi atomic
ĠCH OHCH
Ġi nd
co planar
he st
Ġdi a
9 2
ĠOH NH
h ol
co hol
Ġal cohol
Ġref ers
8 7
a w
s aw
Ġse e
Ġcontribut es
âģ µ
ĠPn ma
C OHCH
p olar
Ġnon polar
o int
Ġp oint
iv ed
der ived
4 4
u st
ation s
B ond
B onding
D ipole
M olecular
ĠAl Ti
r ic
Ġdiffere nt
Ġspec ies
Ġ en
Ġne ar
a nd
c i
Ġs ci
Ġshare d
Ġs u
i al
9 1
Ġtilt ed
Ġ j
Ġtheor y
d j
Ġa dj
ac ent
Ġadj acent
ow e
Ġs ol
acet ylene
Ġdi am
Ġspec ific
Ġsix th
Ġform ation
3 2
COH COH
Ġmoder ate
ac hed
Ġatt ached
9 9
0 1
et er
ĠEth anol
Ġdiam eter
ra n
Ġinflu ence
Ġ4 4
a k
Ġwe ak
Ġi de
Ġide al
il ity
Ġab ility
Ġe qual
9 5
ĠCOCH O
â ī
âī ¡
Ġc aus
a ma
Ġp hys
Ġpar ama
Ġparama gnetic
3 5
b ond
Ġcom ple
ĠU ran
ĠUran ium
Ġcomm on
C OCH
er v
3 6
ĠS ilicide
ĠM olecular
ĠO rbital
ĠD ipole
ĠB ond
ĠB onding
Ġinvol ve
Ġmeas ure
Ġsheet s
Ġcar ri
Ġshare s
Ġposses ses
Ġb ent
2 âĤģ
9 4
Ġ qu
e us
le r
eus ler
Ġst able
z ine
ra zine
Ġhyd razine
Ġfollow s
Ġrepres ent
3 7
Ġp yramid
Ġfollow ing
Ġ11 1
Ġ1 6
o od
ĠA cet
an e
Ġthe y
an ce
Ġpoint ing
e w
en e
z ene
Ġdia zene
Ġform ate
Ġc re
xim e
1 7
9 8
t ain
en ot
Ġd enot
ĠCOHCH OH
Ġdenot es
Ġ3 2
2 7
Ġface face
d ent
Ġi dent
Ġunder st
Ġident ical
ne cted
Ġcon nected
ng ular
cta ngular
ĠN NO
Ġre ctangular
l l
ĠH eusler
Ġ11 6
Ġdepe nding
o st
Ġposit ively
Ġnegat ively
0 15
Ġtri atomic
Ġv ary
y mmetr
Ġas ymmetr
Ġasymmetr ic
p ha
Ġal pha
ra cted
Ġatt racted
Ġp ul
3 8
Ġbet a
Ġty p
Ġm an
Ġman y
r uc
Ġc ruc
Ġcruc ial
on e
2 6
Ġd ens
Ġdens ity
0 0
Ġtriple t
y ou
Ġ you
b or
ĠTi Se
Ġst re
Ġmet al
Ġsi mp
Ġsimp le
ron ment
Ġst u
vi ronment
Ġen vironment
st ly
Ġhydroxy acetylene
CH OH
1 20
3 0
3 1
Ġc al
2 8
oc k
Ġth is
Ġpl ane
t o
Ġon to
ical ly
Ġ1 21
Ġus ing
arb y
Ġne arby
Ġj ust
o ccup
Ġun occup
Ġunoccup ied
al ized
oc alized
Ġ7 4
t en
Ġof ten
CH OHCH
ent ific
Ġsci entific
f our
igh bor
ĠV S
Ġne ighbor
Ġneighbor ing
3 9
Ġ ver
Ġang stroms
c orner
Ġcorner corner
mi ne
H O
Ġhig hest
HO MO
Ġele ven
C s
a y
Ġ ro
Ġpl ay
Ġro le
ĠCHCH O
g o
Ġunder go
Ġ5 8
an ometers
Ġn anometers
Ġc ha
Ġ1 4
Ġpolar ities
Ġs ub
edi ate
Ġinterm ediate
er g
Ġdipole s
Ġma in
Ġ6 0
el f
Ġits elf
et hyl
Ġ1 10
C N
Ġb een
The se
Ġexperimental ly
Ġsur rou
Ġsurrou nding
Ġf ree
in yl
Ġv inyl
Ġsing ly
Ġthe ir
ĠCH OCH
s at
ur ated
Ġun sat
Ġunsat urated
Ġ11 9
Ġf illed
Ġo x
Ġd ebye
Ġ x
ĠH owe
ĠHowe ver
ct ively
pe ctively
Ġres pectively
ĠC mcm
0 3
ccu r
s ing
erg y
Ġg ive
qu e
Ġseven th
Ġclos e
Ġcovalent ly
u ent
it uent
st ituent
Ġcon stituent
ri de
* (
âģ °
Ġoverlap s
Ġc ond
it ions
Ġcond itions
Ġphys ical
mm ary
Ġsu mmary
Ġacet aldehyde
ha se
1 10
f illed
Ġcaus ing
Ġdistribut ed
Ġmeasure d
ĠHf Hf
Ġmak es
u p
a v
Ġcarri es
Ġ lar
Ġlar ge
a ur
ic up
ĠT etra
aur icup
ĠTetra auricup
ĠTetraauricup ride
v ent
âģ ¶
Ġmet h
hed ron
Ġtetra hedron
Ġb ut
Ġstre ngth
l s
ol um
Ġv olum
Ġpul ls
Ġvolum e
Ġc lu
Ġon ly
Ġclu st
Ġu se
Ġthe m
ist ry
CH OCH
Ġcons id
Ġinterm olecular
ra m
ĠNa Na
ĠAl Al
i el
Ġf iel
Ġfiel ds
ĠZn Zn
ĠCu Cu
le d
it s
Ġun its
o ther
ĠO xime
Â° ),
Ġan other
Ġqu ite
ĠAcet aldehyde
s ion
ul sion
Ġ10 6
Ġc er
Ġcer tain
Ġclos er
p rop
p onding
Ġc or
res ponding
Ġcor responding
hyd roxy
ĠE ach
Ġa ct
lu or
CH O
ĠCHOCH O
Ġn it
di pole
Ġg as
Ġallow s
Ġw il
Ġwil l
t he
the n
v ide
Ġpro vide
g et
Ġto get
Ġtoget her
Ġbe ha
Ġinteract s
vi or
Ġbeha vior
b s
Ġo bs
Ġobs erv
Ġsol uble
Ġsol vent
Ġcre ating
Ġsolvent s
Ġ11 5
Ġ gen
er ating
Ġgen erating
Ġcomb ined
l ock
erm ost
Ġout ermost
Ġshe ll
ĠTi S
ĠCa N
Ġt ric
Ġtric linic
Ġmeth anol
Ġe igh
Ġeigh th
ĠAg Ag
n it
Ġ q
Ġ5 5
Ġdo es
r ite
o re
Â° ).
Ġd el
f orm
Ġper form
Ġperform ance
Ġ OHCH
Ġhydroxy la
u nd
a pa
Ġc apa
Ġhydroxyla mine
Ġc and
Ġg ood
id ate
Ġcand idate
E th
Eth ylene
ĠSb S
11 8
ĠTi Al
12 2
t hest
ar thest
Ġf arthest
Ġdel ocalized
ry ing
Ġcar rying
Ġ11 7
Ġ4 9
ĠNi Ni
tic al
ore tical
Ġma gnetic
Ġo pp
os ite
Ġopp osite
Ġinvolv ing
c ce
ĠD eby
ĠDeby es
d y
9 55
u il
Ġb lock
Ġb uil
Ġs erv
Ġf und
iv ities
cu ment
Ġelectronegat ivities
Ġdo cument
am ental
Ġunderst ood
015 88
Ġbuil ding
Ġserv es
Ġfund amental
Ġdocument ed
a nding
l uct
l ations
u ate
Ġthe oretical
Ġf luct
cu lations
Ġdi oxygen
Ġchemical ly
Ġhe nce
id ated
Ġmo stly
Ġnot e
Ġval idated
Ġunderst anding
Ġstu dy
Ġcal culations
Ġobserv ations
Ġfluct uate
12 1
Ġglycol aldehyde
Ġa cce
Ġw ide
pt ed
un ity
Ġcomm unity
Ġacce pted
Ġwide ly
u ce
Ġpartic ular
Ġcontribut ing
Ġthere by
Ġind uce
Ġtyp ically
Ġver y
on ance
Ġres onance
a ds
Ġle ads
ĠAl Hf
Ġ4 2
m ethyl
Ġoccup ies
t y
Ġ rough
Ġe mp
Ġrough ly
Ġemp ty
t er
Ġtyp es
b d
ly bd
ĠMo lybd
ĠMolybd en
L U
Ġl owe
LU MO
Ġlowe st
ĠRe Re
Ġde f
V B
c rib
d es
Ġa ddit
it able
ĠM O
Ġtheor ies
ĠU sing
Ġsu itable
crib ed
des cribed
Ġaddit ion
n ces
Ġdiffere nces
ĠNi Se
i bit
ĠNi Ta
ĠCr S
Ġo ccur
at ic
ro st
Ġelect rost
Ġelectrost atic
h ibit
Ġex hibit
Ġ4 6
A cet
i que
le l
al lel
ĠC C
Ġcarbon s
ri al
Ġpar allel
Ġun ique
Ġind ust
Acet ylene
Ġindust rial
Ġsh ow
d uct
ro carbon
qu ent
Ġhyd rocarbon
hy lene
se quent
Ġmet hylene
Ġpro duct
Ġcomple x
Ġsub sequent
Ġhydrocarbon s
Ġproduct s
ĠSc Sc
ĠCa As
Ġhybri ds
Ġl oc
Ġposit ions
Ġloc ated
ĠZr Zr
Ġthir teen
ĠPd Pd
Ġbip yramid
ĠCu S
L a
11 4
ĠPt Pt
Ġcaus es
ĠNa Se
Ġmoder ately
10 9
b e
m u
u al
Ġs et
Ġs ens
it ivity
ng es
iv id
di es
Ġpro be
Ġind ivid
Ġnear ly
Ġsci ence
Ġstu dies
Ġcha nges
Ġset s
Ġsens itivity
Ġindivid ual
C CO
H NO
d ra
w ing
w ith
Ġcyan ide
La stly
dra wing
with drawing
Ġ1 23
Ġcharacter ized
CHCH O
Ġp hase
10 85
Ġ ve
ct or
ant ity
Ġqu antity
Ġve ctor
Ġcre ate
* )
ct ive
Ġdist in
Ġacet one
Ġplanar ity
acet one
Ġexhibit s
Ġdistin ctive
n al
Ġle ad
h ion
y ne
Ġf as
Ġal ter
Ġeth yne
Ġproces s
Ġcha nge
Ġfas hion
D ebye
E P
V alence
i nd
p ers
p ically
p ulsion
s pers
y pically
he ll
le ct
nd s
ond on
or ption
Ġdi spers
ĠS hell
ĠP air
ĠT ypically
ĠO ne
Ġdeg ree
is orption
ĠE lect
ĠEth oxy
Ġdire cted
ĠRe pulsion
uc ed
ĠL ondon
Ġdepe nds
Ġphys isorption
Ġcal led
ĠVS EP
Ġnit ro
ind uced
Ġdispers ion
ĠElect ron
ĠVSEP R
f luor
Ġ5 7
fluor ide
m ost
Ġe then
Ġal most
Ġsymmetr ic
Ġethen yl
t e
c yan
Ġdiff er
as ed
Ġcarri ers
cyan ide
ĠFe S
ng ed
Ġeth yl
Ġwhe n
Ġ11 4
Ġinteract ing
Ġcancel s
Ġarra nged
Ġundergo es
Ġox ide
Ġclust ers
n ite
ĠMo Se
Ġpolar iz
CCH O
Ġstrong ly
Ġcomple te
Ġpolariz ation
Ġcomplete ly
al f
Ġh alf
co valent
ĠCCH OH
Ġmet als
id es
ĠEth ynol
CCH OH
Ġcontribut e
Ġposses s
Ġweak er
COCH O
Ġox ides
ĠI m
z ed
en ergy
Ġe st
aly zed
CH CO
im ated
Ġst and
ĠCH CO
Ġan alyzed
Ġmeasure s
ĠAcet yl
Ġlead ing
Ġest imated
Ġstand s
ĠL av
ĠAl Zr
a di
Ġhybridiz e
ĠNi S
ĠMo Mo
arb ide
t ra
Ġwhere as
Ġrepres ented
Ġen ergy
Ġsub tra
Ġconsid ered
nit ric
Ġsubtra ction
Ġ7 6
ĠC arbon
mu th
Ġ3 0
s muth
Ġbi smuth
Ġtri fluoride
Ġ7 1
2 33
R C
b o
e er
o k
le s
Ġs our
re vi
ĠC hem
ĠC RC
Ġp eer
ĠP hys
our nal
tic les
ĠH and
if ied
NH NH
ĠNH NH
Ġar ticles
Ġj ournal
ew ed
Ġver ified
bo ok
Ġsour ces
revi ewed
ĠChem istry
ĠPhys ics
ĠHand book
ĠIn S
Ġelect ric
tain ing
Ġ7 5
o xime
di oxime
Ġdi methyl
Ġpyramid al
Ġdimethyl dioxime
ĠIn Se
a ile
ĠÃħ ngstroms
ĠS in
ĠH ere
Ġdet aile
ĠSin ce
Ġdetaile d
Ġ7 3
n m
11 6
02 6
ĠLav es
ĠNb Si
ĠPd Cu
4 20
Ġcent er
c on
ĠNb S
g ram
Ġ ent
ĠN N
ĠN NH
Ġl ocalized
Ġdia gram
Ġent ire
2 81
47 2
c y
i en
om e
om ains
Ġc m
ic ien
Ġ1 43
Ġ1 52
ĠI so
Ġform aldehyde
Ġd omains
Ġbec ome
Ġrepresent s
prop yl
Ġdef icien
ĠIso propyl
Ġdeficien cy
a gn
es ium
ĠM agn
ĠMagn esium
a se
on ating
Ġb ase
Ġd onating
ĠL ew
Ġcapa ble
ĠLew is
or k
Ġf ram
ew ork
Ġfram ework
Ġn int
hydroxy ethyl
Ġnint h
ur ing
Ġcomp rises
Ġmeas uring
ĠAu Ag
Ġhe av
Ġheav y
ĠCu Se
g ation
j u
ly oxal
ĠG lyoxal
Ġcon ju
Ġu p
Ġeth anedi
Ġinclu de
Ġconju gation
Ġethanedi al
Ġfif teen
R eg
ar ding
Ġchem istry
Reg arding
l ic
an aldehyde
Ġre adi
ve ment
Ġmo vement
Ġimp lic
Ġvari es
COHCH O
prop analdehyde
hydroxy propanaldehyde
Ġreadi ly
Ġimplic ations
ĠC m
p la
Ġa li
OCH CH
CO OCH
ĠOCH CH
Ġex pla
gn ing
Ġali gning
Ġexpla ined
ĠNi As
y d
U n
a dsorbate
f ort
n ot
r ing
s ist
Ġ "
Ġa ccur
er ring
st ed
ĠI f
Ġha pp
Ġn ame
Ġre que
Ġas sist
Ġcan not
ĠNO NH
NO NH
un ately
Ġref erring
Un fort
Ġaccur ate
Ġhapp y
Ġreque sted
Unfort unately
k ite
ĠP P
Ġis oc
yan ate
Ġisoc yanate
H yd
p ynol
Ġ ĠĊ
roxy acetylene
Ġpro pynol
Hyd roxyacetylene
en ces
er mine
Ġh ow
Ġp ot
ent ial
ĠD ue
Ġwhere in
ment ary
Ġdet ermine
Ġposses sing
Ġinflu ences
Ġcomple mentary
Ġcommon ly
Ġconsid er
Ġpot ential
O NH
p icometers
al so
Ġ1 42
pp ing
ĠO NH
Ġoverla pping
Ġal l
Ġeth anediol
al ite
Ġparticipate s
al t
ĠS alt
ĠH alite
ĠR ock
ĠZn S
Ġ1 50
ver ite
Ġ om
eg a
Ġom ega
Ġclust er
ĠTi Si
ĠPd Bi
Ġl ow
Ġlow er
ĠNa S
ĠC arbide
ĠP hase
ĠPt In
pp er
ĠCo pper
ĠN Ca
s ure
Ġ4 7
ĠD is
11 86
ĠNi Al
ĠAg Cd
10 7
ĠSc Sb
ĠPd Tl
u ng
st en
ĠT ung
ĠTung sten
4 âĤĤ
12 16
ĠAl Ni
ĠDis ilicide
ĠTa Ni
t un
ĠCo tun
ĠCotun nite
a ngstroms
k ed
n ked
Ġli nked
Ġrepresent ing
Ġpul led
Ġcorresponding ly
ĠAl Ta
N N
11 83
r ical
Ġm in
ic ip
im iz
Ġelect rical
Ġant icip
Ġrep ulsion
Ġmin imiz
Ġanticip ation
Ġminimiz ing
ĠMn As
ĠNa Te
Ġ1 3
Ġ4 8
Ġten th
ĠNi P
Ġpres sure
ĠMolybden ite
ĠGa Ti
09 8
ĠH Y
ĠAg Zn
ĠMo Ni
Ġ rib
Ġrib b
ĠCHCH OH
CHCH OH
ĠIr Ir
âĤģ âĤģ
ĠF luor
ĠFluor ite
ĠTc Tc
er ature
mp erature
ĠRh Si
ĠH Ca
ĠPd Nb
ĠTa S
ĠSb Pt
y rite
ĠPt Sb
e mperature
Ġa ri
Ġt emperature
re act
Ġun react
Ġcompound s
con taining
Ġpressure s
Ġari se
Ġtemperature s
Ġunreact ive
ĠMo S
Ġ5 0
ĠCo Co
ĠY Y
A X
ĠM AX
ĠK K
ĠFe Zr
ĠGa Hf
N NH
ĠS Y
ĠSr As
n mm
- ),
e an
h ile
w hile
ng then
Ġp rom
Ġdi ol
ĠM ean
Orbital ly
ot ing
Ġstre ngthen
Ġact ivity
Ġprom oting
ĠMean while
ĠGa Nb
ĠCu Al
10 79
ĠV Si
ub ic
ĠTl Pd
ĠBi S
ĠNi Te
ĠH ex
ĠHex agonal
12 20
ĠCr Zr
ĠTl Tl
ĠI mmm
ĠCo P
12 15
ĠNi Nb
ĠGa Zr
ĠAs Ca
Ġ5 1
ĠGa S
ĠPt Ti
it an
ĠT itan
ĠPd Hg
ĠZr Si
ĠRh V
ĠTitan ium
ĠPb S
ĠN Hf
10 1
ĠCo Ge
1 96
ĠCd Cd
ĠNb Ge
Ġ4 5
5 69
ĠBi Se
ĠZn Ti
ĠPd Mo
ĠSn S
ĠPd Zn
ĠNa As
ĠMo Al
- ).
b il
ith in
ĠW ithin
CO O
Ġ9 0
Ġcapa bil
Ġcapabil ities
s w
s il
ĠCa sw
ĠHf Al
02 5
ell sil
ĠMolybden um
ĠCasw ellsil
ĠCaswellsil verite
4 52
ĠH Sr
ĠFe P
Ġcentral ized
COHCH OH
ĠIn Te
10 2
ĠPn nm
b ased
g ions
r it
s yl
om er
Ġis omer
ĠH ence
Ġre gions
Ġcharacterist ic
Ġcomb ine
Ġnit rite
nit rit
Ġnitro syl
nitrit o
ĠS p
ĠAl Cu
ĠCd As
âģ» ,
ĠH Ti
ĠFe As
ĠIn Sc
ĠSe Na
ĠL a
Ġb ased
The re
OH NH
Ġ9 6
ĠBi Pd
ĠAl Sc
ĠY S
ĠSe In
ĠW Si
ĠSc As
ĠCs Cl
Ġeleven th
ĠC mmm
ĠV Rh
ĠZr Al
ĠSn Zr
ĠTi Pt
ĠCr P
ĠF d
Ġi on
om al
Ġan ion
Ġan omal
Ġanomal ous
ĠCu Te
ĠP mm
ĠHg Pd
ĠK Cl
ĠIn Zr
Ġ5 2
ĠCr Te
ĠPt Nb
ĠNi Ga
ĠIn Ti
ĠCa P
ĠAl Y
Ġ5 4
ĠAs As
ĠNi Si
ĠRh Ru
ĠHf Ga
ĠSn Te
ĠS Cu
ĠRu Ru
Ġribb ons
ĠAl S
ĠS Na
ĠTi Te
ĠSn Se
8 67
ĠTa Si
5 67
4 âĤģ
m b
ĠA mm
ĠPt Al
ĠSb Ti
ĠZn As
ĠBi Te
ĠPd Sn
ĠNa Cl
ĠCr Se
f th
Ġtwel fth
10 80
ĠPb c
ĠCd Ag
ĠIn Pt
ĠAg S
11 87
ĠPt Sn
ĠSr P
ĠAg Se
ĠFe Se
12 19
ĠMn Mn
ĠMo Te
h at
r kite
y rkite
ĠK hat
ĠFe Fe
ĠKhat yrkite
ĠRb Te
ĠS Zn
ĠAl Nb
ĠRu Ir
ĠCo Si
ĠPb Se
ĠGa Pt
mb m
e ro
s kite
v skite
ĠP ero
ĠNb Pt
ĠPero vskite
ĠSi Si
ĠAl Pt
ĠCa Si
ĠGa Ni
ĠNb Se
ĠPt Ga
11 9
ĠIn Sb
ĠZn Pd
Ġ5 9
re d
m nm
20 6
ĠTi Ge
ĠPt Ag
ĠCo Zr
ĠCr As
ĠS Ag
ĠNb Pd
ĠOs Ta
ĠCHOCH OH
CHOCH OH
ĠS Sb
Pb S
ĠTi N
10 18
ĠNi Sb
ĠIn Au
ĠRh Pt
ĠGe Te
ĠMn Zr
ĠCm ce
3 08
ĠP yrite
ĠMo Si
12 24
ĠPm ma
ĠP Sr
ĠM od
ĠMo As
ĠCd S
der ite
ĠMod derite
ĠTa Ge
46 4
ĠGe Se
ĠSn Hf
ĠPd Ta
ĠV Se
ĠCo Sb
Ġ4 0
ĠW Pd
12 17
ĠSr N
ĠNa Sb
12 23
Ġm ul
Ġ1 5
ti ple
ĠRh Sn
Ġmul tiple
Ġ1 8
ĠC mc
ĠK S
ĠFe Y
ĠSc Si
ĠIn Y
ĠSe Ti
ĠSn Sc
ĠY Ga
ĠC ubic
ĠInd ium
ĠIm ma
ĠSn Ti
ĠW S
ĠSe Cs
ĠNi Ca
ĠV Zr
ĠZr Ga
ĠAg Te
ĠPd Ti
ĠCa Ca
ĠPt Mo
ĠAg Y
ĠHf Ge
ĠZn Ag
Sb Pt
am d
ĠMn Si
1 12
ĠZr P
O NN
om in
Ġp red
ĠO NN
Ġdistan ce
ant ly
Ġmeth ane
Ġdef ined
omin antly
Ġpred ominantly
ĠV V
ĠK Se
ĠPb Te
ĠS In
ĠGa Se
Ġ6 3
ĠFe Ta
ĠNb Ga
ĠSr Si
ĠS Pb
ĠPt Te
ĠCu Zn
ĠAg Au
O NNH
s ary
Ġre taining
ces sary
ĠO NNH
Ġ10 5
ĠSc Ga
22 2
Ġne cessary
Ġobserv ed
ĠCa Sb
ĠY Ag
ĠTa Pd
ĠPd As
ĠAs Sr
ĠW Te
ĠCo S
ĠNb N
11 84
ĠN Sr
ĠRh Mo
ĠW Ir
ĠZn P
ĠP Ca
ĠSn Rh
ĠTa Ta
ĠPmm n
ĠPd Ag
ĠAg Al
ĠCd Ti
11 88
5 70
c ble
h ale
nd e
ĠZ in
ĠZr In
ĠY In
ĠY Si
12 âĤģ
ĠSp hale
cble nde
ĠZin cblende
ĠSphale rite
c as
ar cas
ĠM arcas
ĠMn N
ĠMarcas ite
ĠNi Ge
ĠNi Hf
ĠCu Hf
Ġthirteen th
ĠGa Y
ĠMn Ge
ĠC h
ĠRh Ge
ĠAs Te
12 21
ĠMn P
ĠSi P
ĠZn Se
ĠIr Nb
ĠOs P
t z
ur tz
ĠTi Pd
ĠSb Te
ĠW urtz
ĠCd Hf
ĠWurtz ite
ĠSc Ge
ĠAu Sn
ĠNa Bi
Sn S
ĠGa Te
ĠP a
ir con
ĠZ ircon
ĠNi Ti
ĠNb Ni
ĠSc Sn
10 0
10 78
ĠHg K
ĠPt Zn
ĠTe Ge
ĠSn Y
ĠCo Se
ĠCo As
Ġfourteen th
ĠRh Te
C ubic
m an
ĠGa Sc
ĠC Si
Ġ4 3
al co
ĠC c
ĠRh Rh
ĠCo V
ĠCh alco
ĠSi C
ĠRh Ga
ĠRh S
ĠCo Nb
ĠCr Ta
ĠIr Te
ĠMn S
ĠCo Y
ĠIn Na
ĠSe Bi
ĠY Sn
ĠRh Zn
ĠAu In
ĠPb am
ĠZircon ium
ĠRh As
ĠBi Bi
a verite
al averite
ĠC alaverite
ĠW Co
ĠRh Nb
ĠSb Se
ĠZr Sb
ĠIr Re
ĠTe In
ĠGe S
ĠZn Zr
ĠRb S
p yrite
at lock
di um
ĠM atlock
ĠSe Y
ĠRu Ta
ĠChalco pyrite
ĠMatlock ite
ĠN Zr
ĠSn Pd
Ġ6 4
Ġfifteen th
ĠS Sr
ĠTa N
ĠCl K
ĠP Zn
10 07
ĠRb Rb
ĠCd Te
ĠCo Ta
ĠS Ni
ĠS Bi
ĠSe K
ĠSc Hf
ine l
ĠSp inel
ĠN Nb
ĠW N
Ġcubo ctahedral
ĠMo Zr
an ite
ĠZn Y
P S
ĠN Ti
ĠPt Rh
ĠOs Re
ĠTa Te
Ġ2 0
ĠNa P
ĠCu Ti
ĠNb Al
ĠV N
ĠSn Cu
ĠGe Ni
ĠFe Si
ĠAu Au
ĠRu Cu
ĠPb Y
ĠAl Se
Ġse vent
Ġ5 3
Ġsevent een
p rim
ĠPd V
ĠTe Bi
ĠCu Sc
prim e
ĠHf N
ĠPt Na
ĠTi P
10 6
Sn Se
H eusler
ĠFe Sb
i a
Ġv ia
ĠF dd
ĠCHOHCH OH
CHOHCH OH
Ġtetra bor
ĠSe Pb
118 69
Ġtetrabor ide
ĠS Co
ĠSc P
Ġ4 1
ĠTi Ga
ĠNb Ir
13 2
ĠAl Ge
ĠGa Rh
ĠTa Os
ĠGe Cu
1186 0
ĠS Tl
20 4
ĠSi Ti
ĠAs Ni
ĠRu As
Ġc arbide
ĠMo Hf
ĠTi As
10 8
Ge Te
ĠCa Cl
ĠSi S
ĠRh Sb
ĠRh Re
Ġribb on
ĠIn In
ĠIr Mo
ĠP Ag
ĠGa As
ĠSr Ge
5 68
ĠAg Na
et a
ĠI mm
ĠNb Rh
ĠBi Hf
ĠPb Tl
Ġc ad
Ġg ol
mi um
ĠRh In
ĠCr Nb
Mo S
ĠHg Na
Ġcad mium
Ġgol d
Se S
ĠY Se
ĠTe Te
ĠRh P
Ġ5 6
ĠTl Ca
z eta
Ġ zeta
Ġi ron
ĠN Y
ĠPt Cd
ĠSn Ni
10 25
ĠRb Cl
ĠP Sn
ĠAl P
ĠCa S
ĠZr S
ĠCl Rb
ĠP Na
ĠAl N
ĠY Te
ĠCu Pd
ĠZn Ta
ĠI b
ĠP S
ĠPd Mn
ĠN Mn
ĠHf Sb
Te Se
ĠAl As
ĠPd Hf
ĠHf Pd
ĠIr Si
ĠPbc n
ĠIb am
ĠNi Y
ĠTe Sn
ĠSn Au
Ca Si
ĠS V
ĠS Ru
ĠIn As
ĠPd Na
Ti S
ĠTc Al
ĠPt Ge
ĠSr Pb
ĠW Se
11 3
Ġsixteen th
ĠTe Ag
ĠNb Nb
ĠSr In
ĠSc Al
ĠZn Hf
ĠPb Pd
30 3
l ac
Ġb lac
ĠS K
ĠS Ti
ĠGa V
ĠGa Ga
ĠPt V
Zn S
ĠCd Sb
101 80
Ġblac k
ĠCa Tl
ĠNa In
ĠRu Pt
ĠCa Ag
ĠCo Hf
ĠIr Ta
ĠPd Zr
ĠGa N
ĠY Al
2 20
9 74
ĠTe Cd
ĠSc Ag
ĠHg Hf
ĠAl Ag
ĠCa Se
ĠMo Pt
ĠCd Na
ĠW Al
118 47
ĠSi Zr
ĠMo Co
Pb Se
2 12
ĠS Sn
ĠNi Zn
ĠSb Rb
ĠAg Ca
ĠCd Au
ĠHg Ti
3 04
ĠRh Se
12 4
11 5
ĠHf Au
ĠTa Ru
ĠAg Ti
ĠAu Cu
Sr Sn
122 43
ĠIn P
ĠAs Zn
ĠV Co
12 25
adi um
ĠV Pd
ĠV Te
ĠGe Ge
ĠCr Al
ĠCd Se
ell ur
âģ ¸
ĠS am
ĠCu Ru
ĠZn Nb
ĠMn Se
ari um
ĠSam arium
ĠS t
ĠP Fe
ĠCu Zr
ĠSb Ni
ĠCr Ti
12 29
ĠRu Sb
ĠCl Na
ĠPbc a
9 73
âĤģ âĤĥ
ĠNi Zr
In Se
ĠTa Al
t act
ro tact
ĠP rotact
ĠTi Zn
in ium
ĠHf Cu
ĠSc In
ĠK Hg
ĠHg Te
ĠProtact inium
Ġ1 7
ĠZr Se
d ite
k ut
u dite
ĠS kut
ĠN Ta
ĠP o
ĠAl Te
ĠAg Sc
Ni As
Ġ6 8
ĠAu Te
Ge Se
86 5
ter udite
ĠSkut terudite
ĠP Co
ĠCd Ca
Mo Se
ĠNb Te
12 7
Sr In
ĠP c
ĠHf P
ĠAu Rb
+ ,
3 05
W S
g ite
n ar
âĤģ âĤĨ
ĠZr Ge
ĠPt Ru
ĠTa Ir
ĠE nar
ĠEnar gite
ĠSr Sb
10 5
16 6
1 33
ĠTi Ir
ĠHf As
ĠSi Cu
ĠSe Rb
42 2
3 06
o dium
s en
ĠS odium
ĠIn Rh
ĠH Na
ĠHf Si
ĠZr Te
Ġar sen
Ġarsen ide
P a
ĠW P
ĠIr P
ĠIr As
ĠIr Ti
11 7
Ġg am
ĠN V
ĠCa Ge
ĠCu P
ĠAu Cd
ĠTl Cl
86 2
Ġgam ma
ĠPb Cl
Ca Zn
ĠPt Ni
ĠZn N
ĠMn Pd
ĠMn Te
2 96
b nite
or ide
ĠC Nb
ĠS ti
ĠIn Sr
ĠAl Ca
ĠH igh
ĠHf Pt
ĠY Ge
ĠSc Cu
ĠPNa P
ĠSti bnite
on ium
âģ ·
ĠRu Si
ĠIr V
ĠTc P
13 6
s ide
Ġin side
Ġ1 9
ĠP Si
ĠSi N
10 77
ĠMn Ta
ĠPm c
121 54
ĠP Y
ĠSc Bi
ĠSb SbPt
ĠTa As
Ġ6 5
ĠRb Au
11 89
ĠF mmm
86 6
1 67
v c
ĠNi Cr
ĠB erg
ĠNb As
10 3
110 5
ĠBerg man
Ġ3 1
ĠZn Rh
ĠTl S
Ca Cl
ĠFdd d
r thorhombic
ĠC W
ĠAl Si
ĠO rthorhombic
ĠCu Ni
ĠNb P
ĠSc N
ĠTa P
ĠMo P
Ni S
ĠCd P
ĠCa Pb
Al Si
ĠCu Ta
ĠV Pt
ĠSr S
ĠRu Re
ĠHg Se
ĠP Re
ĠCo Te
Cu Al
ĠH Zr
Ġ3 9
ĠPd Si
ĠPd Ge
ĠTe Na
ĠIr Ru
ĠRe Se
3 07
e ment
ĠC ement
ĠAl H
ĠTe As
ĠSAg Bi
ĠCement ite
s anite
ĠC Al
ĠS Rb
ĠAl Mn
ĠHf S
ĠMo is
Sb Te
50 3
ĠMois sanite
m vc
ĠSi As
ĠSn Nb
ĠFe Ti
5 05
9 79
ĠCa Sn
ĠZr N
Si S
ĠAs Ga
ĠRh Al
15 6
ĠOs Mn
ĠAsAs Ir
ĠP In
ĠSe Cd
ĠFe Hf
ĠTc Ga
9 83
ĠZr As
ĠZn Sr
10 67
121 80
K Hg
ĠP K
ĠSi Fe
ĠSe Ca
ĠCu Au
$ \
K as
Ġ $\
ĠP mmm
ĠTe Pb
ĠSr Bi
ĠSn As
ĠCd Y
11 20
ĠF ran
Kas per
ĠFran k
ĠN Re
ĠIn Cl
ĠP N
ĠH aus
ĠSb Sr
10 09
ĠRu Rh
Nb S
man nite
ĠSt ructure
ĠHaus mannite
ĠAl Rh
Ġ3 5
Sn Pt
12 3
11 85
22 9
7 55
Ġ2 2
ĠPt Mn
ĠSe Cr
ĠSb In
ĠIr Ge
Co As
ĠAsAs Rh
5 73
9 71
Y Ag
or und
ĠC orund
ĠPd Ni
ĠSr Sn
ĠSc Te
ĠZn Sb
Sn Sb
ĠCorund um
ĠRh Zr
ĠW Pt
69 1
t or
it tor
ĠP Tc
ĠH ittor
ĠNi Fe
20 2
ĠZr Cl
In S
ĠY Cd
Pb Cl
120 7
107 86
ĠHittor f
1 86
ĠTi Cl
10 23
ĠRu Tc
15 2
102 53
ĠAl Pd
ĠTi Co
12 18
Ġ7 8
54 4
ĠHg Sc
120 6
110 2
ĠN Fe
ĠP Hf
ĠH Rb
âĤģ âĤħ
Ġ3 7
ĠPd In
ĠSi Y
ĠCu Cl
ĠTa Cu
ĠK As
ĠGe V
ĠFe Sc
Sn Te
Zr Rh
ĠCd Cl
Co Ge
ĠTi Rh
ĠNa H
ĠNa Hg
ĠV P
Ge S
Ġ7 7
ĠIr Sb
ĠPm n
118 80
2 80
2 21
W Te
ĠS Cr
ol onium
ĠP olonium
ĠSe Ag
ĠCu Y
ĠBi Tl
ĠPb Sc
11 80
ĠRe N
ĠCa Hg
ĠHf Zn
ĠSc Cd
Ni Si
Sb S
120 9
3 10
ĠN Al
ĠTi Cu
ĠSe Sn
10 4
Ni Ga
ĠRu N
ĠPb Hf
ĠCd Sc
Na In
73 0
118 46
ĠS Rh
ĠS ilic
ĠIn Pd
ĠTi Mo
ĠCa H
ĠCr Hf
ĠCd Pt
ĠCl Cs
Ca Au
22 7
86 1
ĠSilic on
2 10
ĠP Ti
Rh Si
50 2
21 3
86 55
122 67
ĠSe Ge
ĠSr Zn
ĠSn SbPt
ĠSb SnPt
Ti Pd
Ru Si
Cr S
G Pa
ĠS Nb
an adium
ĠAl Sb
20 9
ĠV anadium
ĠSr Sr
ĠZn Ni
ĠSb Rh
ĠTa Ga
22 3
110 3
Ġnit ride
6 85
f ore
g ge
m on
Ġa mon
Ġe xt
er nal
st s
ĠM eth
20 3
ĠGa Sb
ĠY Bi
ĠAs In
ĠV Ir
Sb Se
Ag Zn
67 5
57 08
97 2
Ġthere fore
Ġsu gge
Ġamon g
Ġext ernal
ĠMeth ane
Ġsugge sts
ĠS Fe
ĠAl Sr
ĠPt Si
ĠSe As
ĠCu Sn
Pt Ge
10 96
11 1
Bi Se
Ta S
45 9
97 7
29 1
ĠP Zr
Al Ge
ĠGa P
ĠZr Zn
ĠSn P
Ti Al
10 08
10 72
Ga Ge
ĠRu Zn
ĠF mm
Ġseventeen th
ĠSi Ca
ĠAs Zr
ĠSc Cl
Cu S
Na Hg
52 6
Sr Au
81 3
1079 9
9 89
ĠTi Au
ĠAs Hf
ĠAg In
Ni Se
Ni Sb
ĠTl Se
15 9
47 3
Ġdiam ond
r d
ĠS Cd
ĠIn Ag
Ġ3 3
ĠPd Te
ĠZr Hf
ĠRh Ti
ĠGe Sr
ĠAg P
Cu Te
Rh Sn
ĠRu Y
Co Si
122 89
ĠP Al
ĠZr Pd
ĠY Sb
ĠK Te
12 5
ĠRu S
16 5
86 53
99 9
- ,
ĠS Sc
ĠCa Au
ĠSi Nb
ĠAs Ti
ĠNb Sb
ĠSn Cl
ĠSb Sb
ĠCo Ti
Ni P
ĠCr N
93 8
70 0
118 45
' {
2 16
\ '{
ĠAl V
are vi
ĠCa Te
ĠHf Se
ĠSi V
As Se
ĠW As
12 27
ĠRu Se
Au Ag
16 3
86 54
ĠOs Ru
ĠLav arevi
1 88
2 74
5 71
Y Pd
n ium
le nium
et een
Ġn in
Ġ3 6
ĠIr Tc
Hf Ir
67 2
67 22
69 9
ĠCs Cs
21 4
Ġnin eteen
2 79
3 11
l m
Ġt ellur
en ite
ĠI lm
ĠCu Si
As P
ĠSn Sr
ĠMo Cl
Ga As
121 53
Ġtellur ide
ĠIlm enite
ĠPd Tc
ĠNi Mn
ĠZn Pt
Ni Al
Ġ6 6
09 2
Rh S
ĠPb Pb
88 9
Cr Si
82 8
118 79
ĠAsAs Ru
ĠTi Nb
ĠPt Co
ĠGe N
Ġ6 9
Sn Cl
12 9
Ca Pd
15 1
86 47
Y Sn
or on
in um
ĠNi Cu
ĠTe Y
ĠV Nb
ĠSn Sn
ĠSn Ag
ĠSb Ag
12 47
Cu Ga
ĠTl Zr
Co P
69 2
um inum
55 5
22 4
Sc Rh
Sr Zn
ĠPP Rh
ĠPtSn Sb
2 47
t a
ĠB oride
ĠSc S
80 0
ĠIr Zn
54 9
93 2
75 8
46 0
97 6
13 9
Ġdel ta
1186 05
4 84
5 09
9 75
ĠNi Sc
ĠSe Mn
ĠMn Sb
67 8
16 9
Bi S
Cd As
Mn Al
73 9
109 42
1 40
2 11
8 93
Ġb oron
ĠSe Zn
ĠSe lenium
ĠSb Co
ĠAg Hf
ĠAu Zn
ĠCr Ni
ĠMn Sc
67 0
67 6
Ġeighteen th
1 79
2 83
V S
Ġ3 8
ĠGa Ta
ĠZn Cu
ĠW Ni
ĠK Sb
Ga Si
12 6
Cu Se
ĠRu P
ĠRu Fe
54 1
43 4
Na Cl
ĠRe Zr
19 8
110 32
Ġ3 4
ĠZr H
Fe Si
Pd Bi
Si C
ĠSb Cu
Ga Al
ĠAu Ca
Sn P
ĠMn Zn
ĠCl Sr
Ca Cu
71 4
86 27
99 89
E r
c or
e ving
r or
t ri
âĤĤ âĤĢ
Ġre cor
Ġre tri
Ġtetra fluoride
ĠSe Sb
Pd Sn
ĠAs Sb
ĠV Ru
ĠRh Y
ĠSb As
ĠK P
Ga Se
Ga Sb
69 5
Cd Te
15 5
Ta Ru
ĠTc As
Sr Cd
ĠOs Os
97 43
99 4
122 16
122 88
Ġoccur red
NN CH
Er ror
Ġrecor d
Ġretri eving
1 42
3 22
W Se
ĠP res
ĠT ellur
Al H
ĠHf Ni
ĠSi Hf
ĠNb C
Ti Se
ĠMo N
10 29
12 28
ĠMn V
ĠRu Mo
ĠRu Os
Hf Pd
Zr Ga
Au Te
07 4
85 0
Bi As
19 9
57 16
60 43
ĠPn a
867 3
ĠPres sure
ĠTellur ium
3 13
ĠS Hf
ac d
ĠH Ta
ĠNa Au
ĠSe Ru
As S
ĠSr Cl
ĠZn Te
10 955
12 46
ĠMn Hf
Ag Cd
Au Sn
11 79
Co S
53 9
69 8
Ca Hg
ĠRe Os
Tc Al
120 53
121 89
9 80
Y Rh
Ġ 80
ĠSi Se
ĠV As
ĠSr Tl
ĠAg Cl
Sb As
ĠIr Y
ĠIr Se
ĠPb Ca
11 78
96 1
ĠRe S
86 49
02 4
ĠOs Si
Os Si
84 9
120 67
P hase
Y Te
ĠSe Co
ĠY Zn
ĠY Au
Pd H
ĠV Ta
ĠSn V
ĠSb Tl
Ti Mo
ĠCr Rh
Ġ7 9
ĠTl Sc
16 2
Pb Te
22 8
71 7
ĠOs Tc
65 7
57 06
122 60
ĠAsCa As
ĠAsSr As
9 85
Y Ga
ĠTi Ni
uct or
cond uctor
ĠZr Cu
In P
ĠY N
Ti Si
Pt Zn
Ġ6 7
54 6
67 3
Co Se
Co Te
16 4
per conductor
Ru Ir
Ca Ni
Sr P
57 05
Ġsu perconductor
110 4
101 42
1120 7
6 43
Ġ2 9
Al P
ĠSe Cu
Zn Al
Zr In
Ca Pt
47 8
89 4
89 5
Rb Sb
118 67
121 79
102 52
ĠPFe P
2 73
Y Cu
ĠS Al
ĠM g
Fe S
80 2
ĠZn Mn
ĠFe Nb
ĠAu Na
Zn In
33 6
42 1
ĠCs S
Sc Sn
Cr Fe
62 8
32 8
1080 4
ĠGeGe Pt
Ġnineteen th
Ġm p
ĠS Hg
ĠSi Ni
Si As
ĠAs Fe
ĠTa Zn
ĠAu Ti
12 8
Zn P
ĠBi Ca
ĠRu V
Hf Pt
11 93
53 1
85 7
ĠHg S
57 10
110 40
121 72
ĠPP Ir
1220 3
ĠPdAs Pd
ĠCa Zn
ĠSn Sb
Ga S
Ni Te
ĠBi Ga
11 90
Ir V
50 4
Na Au
ĠRe P
55 9
Sc Hf
47 1
71 3
Sr Cl
51 4
13 7
99 8
120 5
1215 7
P Se
ĠC V
ĠIn Ni
ĠPd Al
ĠPt Re
Pd Au
ĠSn Pt
ĠMo Pd
ĠMo Ru
12 14
ĠMn Al
ĠMn Os
Ġ7 0
Hf S
Hf Sb
Co Ga
69 7
Ca Tl
15 8
Tl P
101 81
ĠPbc m
ĠPK P
1 34
2 89
x Sn
Ġi ri
ĠC Mo
ĠAl C
ĠCa Cd
20 5
ĠSr H
ĠRh Tc
ĠSb Bi
10 70
ĠGe Mo
ĠGe Mn
Zn Ga
11 99
43 5
Ġvan adium
42 3
Mo As
Ru Rh
Ca In
40 4
83 7
82 9
107 79
1079 5
Ġiri dium
2 15
ĠS Ca
Ġ2 1
20 8
ĠPt Fe
ĠSe Rh
ĠTe Sb
80 3
80 4
ĠSb Ca
Ti H
ĠMo Zn
ĠAg Pt
ĠRu Ni
Co Sn
Ca Cd
52 5
Sr Ge
ĠOs As
Tl Pb
83 4
97 8
13 1
121 71
1216 3
1 70
2 88
8 25
9 813
Y In
f ide
Ġs ul
ĠP Ni
20 0
ĠY Pt
ĠTe Se
ĠRh Cr
10 57
Ga Te
Ga Sn
09 4
ĠBi Sr
Zr Si
54 5
33 1
50 1
Ta Fe
ĠTc Zn
74 5
74 9
64 4
Ġind ium
1215 9
Ġsul fide
1 71
6 07
K Sb
v anite
ĠS Zr
ĠS Mn
ĠP Ga
ĠAl Mo
ĠAl Cl
ĠAl uminum
ĠNi Pd
ĠZr Hg
ĠPt Pd
ĠY P
Fe Se
ĠZn V
ĠAu Pd
Zn Se
ĠMn Ca
Cu Sn
Zr Te
Au Cd
ĠCd Pd
16 52
ĠHg Hg
86 46
13 0
120 66
120 73
110 43
109 54
1 53
Y Zn
i eth
n c
ĠN Zn
âĤģ âĤī
Pd Te
Pd Cu
ĠZn Au
ĠGe Nb
ĠAu Nb
ĠCr Si
12 45
12 26
Co Sb
69 3
Ir Sn
Ca H
Ca Sn
ĠRe Co
47 4
65 9
Ġtwent ieth
90 0
120 77
110 6
102 55
ĠPAg P
1 73
2 97
ĠN Sc
ĠR ut
ĠGa Cl
ĠSi Pt
ĠSi Mn
ĠCu Sb
ĠNb Ti
ĠNb Zn
ĠAu Sr
ĠMn Pt
ĠOH NNCH
42 âĤģ
Ir Te
Ir Ge
Ru Sb
Ca As
15 7
ĠTc Hf
Sr As
Sr Pt
62 7
Mn P
Tl Cl
97 23
ĠRut ile
1 80
2 82
ĠS Cs
Fe Sb
Si P
ĠZn Ca
ĠK In
ĠCr Cr
Ġ7 2
Ru Al
Cd S
Sc Ga
Sc Cu
93 5
Mn Ge
73 5
13 8
110 20
122 47
1224 4
570 3
s s
ĠH K
ĠSb Al
Pt Ga
10 63
Ga N
Sn As
43 7
Co Al
Co Ni
Mo P
ĠHg Zr
Sr Cu
118 78
122 42
1216 4
1216 6
5 22
W N
n a
ĠCa Bi
Al N
ĠPt Bi
ĠCu Nb
ĠAs Rh
ĠSb Cl
ĠCr Sc
ĠPb Na
53 8
Ru As
21 9
21 47
Sr Al
Mn Si
19 2
Rb Au
120 8
110 23
121 73
101 79
567 3
l oride
Ġ2 8
ĠP Cd
ĠAl Co
âĤģ âĤĩ
ĠTi Fe
ĠTi Sb
ĠPd Sr
ĠCa In
In Cl
Fe As
ĠAs S
10 13
ĠGe Y
ĠMn Ti
ĠRb H
ĠRu Sc
Hf Si
Hf Sn
Zr P
54 3
42 6
Ru Ga
Cd In
Sr Pd
19 7
45 7
Os P
77 6
77 7
56 96
56 83
974 9
1 75
2 76
W P
W Ir
b ra
ĠThe oretical
ĠPd P
ĠZr Rh
ĠPt Se
In Te
Fe P
ĠSb Y
ĠFe Te
ĠAu Cl
Au Cu
08 1
ĠCl Ca
69 4
Ir Si
Nb Pd
Nb Rh
55 8
86 16
23 1
70 1
77 2
bra ss
V N
W Si
Y Au
c m
ĠN p
ĠP are
ĠNa Pb
ĠV Zn
ĠSc Pt
ĠSc Au
ĠSc Ir
Ti Rh
ĠW Rh
ĠMo Rh
ĠCo Re
ĠAg Pd
ĠRu SeS
43 0
Mo Te
53 2
Ir Al
Ir Sb
86 59
23 0
23 2
Mn As
32 6
Ġsuperconductor s
ĠPare nt
5 10
7 82
ĠC cce
Ġ2 3
ĠSi Sc
Fe V
ĠNb Cl
Ti As
10 95
ĠRb Se
42 9
85 6
Hg S
Hg Te
02 3
66 3
19 1
97 29
14 9
98 96
1229 0
1 83
7 93
Ġ2 4
ĠP Cu
ĠPd Cd
Al Cl
ĠTe Cu
ĠTe Hg
ĠV Mn
ĠSr Pd
ĠSc Zn
ĠSc Pb
ĠZn Cl
ĠZn Sc
Ti P
ĠAg Cu
Rh Te
Ag Al
11 33
Ir In
Cd Sb
Cd Cl
86 60
Sr Tl
82 6
97 20
Os Ru
24 9
122 73
121 83
ĠPP Ru
117 96
1 46
2 78
6 34
7 80
K Na
V Se
h ide
âĤĤ âĤģ
ĠMiller ite
ĠPt Ca
Pd Zn
Ti Cr
Pt Si
ĠAu Hf
Rh Se
Rh As
85 1
85 2
Ca Pb
ĠTc Rh
Sr S
74 4
45 6
Re N
56 80
49 8
110 17
118 74
107 88
1183 4
1215 5
1080 0
1224 8
1023 9
ĠZrH N
5 11
6 45
ĠC Ti
ith ium
ĠS P
Ġl ithium
ĠG Pa
ĠPd Ga
ĠHf Ir
ĠNi Pt
ĠSe Zr
ĠSe Hg
Pd Ag
ĠV C
ĠSc Ni
Ni Ge
Rh Zn
Ag Te
Hf As
Hf Cu
Zr H
54 26
33 7
25 9
83 1
79 1
Tc Rh
Tc Os
107 80
107 73
1007 7
6 62
9 33
f irst
r ich
Ġt rich
ĠS yl
ĠH Sc
ĠPd Sb
Al As
ĠNi Bi
ĠPt As
Pd Cl
80 9
10 12
ĠAg Sr
Cu In
ĠIr Bi
Zr Sn
Mo Si
Na As
Pb Bi
25 8
Tl Te
79 2
64 8
64 9
29 0
Tc Ru
Rb Ga
63 5
120 70
110 29
Ġtrich loride
ĠSyl vanite
2 93
Y Al
ĠS Cl
ĠS Os
Ġ2 5
ĠP Ir
ĠP TlP
Al Sb
ĠNi Re
ĠGa Ca
ĠSe Sc
ĠTe Ti
Si Ni
ĠAs Al
ĠSr Al
ĠRh Ta
Ti Mn
Pt Mo
ĠGe P
Zn As
Rh In
Hf P
54 7
33 5
96 9
Co Ti
21 328
55 7
ĠTc Re
86 4
Cr P
Cr Al
Cr As
ĠOs S
83 5
73 1
73 7
81 8
97 55
121 93
121 74
107 74
2 40
3 09
6 80
7 06
9 15
ĠA em
ĠN Cr
ĠP Sc
ĠHf Co
20 70
ĠPt Sr
ĠNa Si
ĠNa Cd
Pd P
Pd Al
Si Te
ĠSn N
Ti Ga
ĠW Zr
se cond
Cu Zn
Ag Cl
Hf N
Zr S
Au Cl
67 7
69 0
Ir As
Sc Zn
47 9
88 1
ĠTc Co
ĠTc Ru
06 0
Mn Ga
82 7
97 22
51 7
118 77
1220 4
6 20
7 54
ĠC mm
an nite
âĤģ âĤĦ
Al Pt
ĠPt H
As Pt
Ti Cl
10 87
ĠK H
ĠCo Al
Ga P
ĠMn Ni
09 6
ĠBi Sb
ĠRu Zr
07 7
Mo Al
Ir P
05 5
Ta N
86 23
65 6
75 1
79 9
57 02
68 47
68 46
92 8
120 63
110 07
110 21
118 72
109 53
1219 0
1219 9
ĠSt annite
d ale
Ã ¢
Æ Ĵ
âĢ ļ
ĠSi H
ĠSe Sr
ĠTe Nb
ĠTe Ca
ĠAs Pd
Te S
ĠRh Fe
ĠRh Mn
Ti Au
Ti Ru
Pt Au
Pt Cl
10 84
ĠCo Cr
Ġ6 1
12 22
ĠRu Te
Hf Al
Zr As
54 0
08 2
07 9
42 7
Ca Ag
ĠCs H
Na Bi
ĠRe Ir
Sc Ge
ĠTc S
ĠTc Ir
Mn Sb
25 7
89 2
Tl S
75 6
57 07
57 15
ĠL ons
Tc Ir
98 33
120 82
118 71
121 70
109 52
107 96
ĠSeNa V
567 7
dale ite
ĠLons daleite
1 45
1 76
6 42
6 69
V Ga
Y H
m in
Ġ2 7
ĠIn Nb
ĠP Nb
ĠPd H
ĠGa Pd
ĠY Pb
Pd Se
Si Pt
ĠV Hf
ĠRh Co
ĠSb Nb
Ti Ni
Pt Ag
ĠMn Au
Hf Ga
Hf Ni
Zr Cl
Mo Cl
05 2
Nb Al
Na P
Na Pb
Cd Pb
71 8
Cr N
79 5
57 12
57 11
97 73
Rb In
98 54
1216 5
1079 1
min o
4 43
6 08
9 90
ĠIn Ca
ĠZr Bi
ĠNa Tl
ĠTe Sc
ĠCu Ca
Pt Al
Pt Te
10 94
Ni Bi
ĠCr Co
Ge As
Zn Ge
ĠMn Ga
Ag As
Hf Au
Hf Ru
Hf Tc
ĠTl Te
Mo Pd
Ir Se
Ta Os
88 6
88 80
86 50
93 6
Mn Se
mc c
49 4
63 23
99 91
98 23
121 67
ĠSFe Cu
2 42
9 09
V Os
ĠP Rb
ĠH Nb
ĠH Cl
ĠPd Re
ĠCa Pt
20 7
20 30
ĠGa Fe
ĠPt P
ĠPt S
ĠNa K
ĠNa Ge
ĠSe Pt
ĠY Ir
ĠTe Mn
Pd Si
ĠNb Co
ĠV Fe
ĠSc Se
ĠSc Pd
ĠZn Cs
ĠSb Ru
ĠTa Rh
ĠW Ru
ĠW Os
ĠMo Ir
Pt H
Pt P
10 227
ĠK Pb
ĠCo Tc
ĠAg K
ĠCr Sb
Zn N
ĠBi SbPt
Zr Se
Zr Hg
Au Pb
67 4
11 98
33 9
08 3
Mo Ge
53 6
Nb Mo
22 6
Sc In
86 22
86 56
86 61
52 9
Sr H
93 9
62 73
19 5
04 1
Re Si
34 8
90 1
92 6
109 13
107 89
ĠHCa Ni
ĠPY P
9 827
E ach
c anite
Ġp yrite
Ġ1 34
Ġang strom
ĠH Pd
Al Cu
ĠHf Te
ĠGa Mn
ĠSi Te
ĠSi Co
ĠPt Cl
ĠSe Ni
In Pb
ĠTe K
Fe Ti
Pd S
ĠAs Pt
ĠAs Cd
ĠAs Sc
ĠV W
ĠV ul
ĠSc Rh
ĠSb Ga
Ti Fe
Pt S
Pt Cd
ĠGe Ca
Ga Cl
Cu Si
Hf Rh
Hf Co
11 91
33 0
07 3
ĠCl Tl
Nb W
Nb Te
Nb Ru
Ca Te
Na Cd
Sc Ni
Sc Cd
86 51
86 26
Cr Ga
23 152
93 0
Mn N
89 7
75 7
75 9
83 8
Rb Hg
Cs Pb
Cs Hg
118 40
122 84
ĠInSb Te
11867 81
9823 70
ĠVul canite
4 54
K Pb
S S
W Pd
ĠS As
Ġ2 6
ĠIn Co
ĠP Mo
ĠPd Cl
20 1
Si H
ĠSr Te
ĠSr Cd
ĠTa Se
Ti N
Ti Te
ĠCr C
ĠCr Cl
Cu Sb
Hf Zn
54 2
96 4
ĠCl Pb
16 8
Mo Rh
53 0
Nb N
Na Ag
ĠRe Te
55 52
86 3
86 19
Mn Te
66 5
89 8
79 7
18 67
97 16
Os Ge
14 4
Rb Cl
32 7
110 63
110 36
110 30
122 74
109 56
ĠSNa In
1223 8
ĠSbBi Pt
10795 74
9723 73
1 85
1 77
3 14
P Pt
V Si
Y Ni
Y Sb
l ut
n mc
th ir
ĠP lut
ĠAl Cr
âĤĤ âĤĦ
ĠTi H
Al Cr
ĠHf Zr
ĠNa Pt
ĠSe Al
Pd Ni
80 8
ĠSb Fe
Pt V
ĠFe N
Hf Zr
Zr Ge
54 24
Au Tl
96 0
ĠTl Pb
Nb P
Nb Se
Ca S
Sc Pt
Sc Ag
Hg Se
52 4
23 8
89 9
46 3
81 4
57 6
57 43
Os Ga
64 86
29 2
29 5
56 1
56 85
four th
118 42
121 88
1216 530
569 3
ĠAsAs Pd
mb c
1219 5
ĠPSr P
11021 31
thir d
ĠPlut onium
2 63
6 47
9 49
V Ru
V Tc
Y Cd
h r
ĠC lat
ĠH V
ĠTi Re
ĠPd Ca
Al Fe
Al Co
ĠZr Au
ĠSe Hf
Fe Te
Fe Ni
ĠAs Co
ĠNb Mo
80 5
ĠZn In
ĠTa Mo
ĠW Cl
ĠGe As
ĠFe Rh
ĠAu Ta
Cu Ge
09 0
Au Ta
11 95
43 1
43 3
43 8
96 6
69 71
50 6
ĠCs Se
Na Ga
21 8
55 65
88 4
88 8
71 92
25 76
18 7
24 1
Re Ir
Tc Pd
14 15
1186 109
101 72
569 7
569 8
112 90
100 32
118605 5
9813 83
hr ate
ĠClat hrate
3 00
p rite
ĠS Pt
ĠA ma
Al Te
Al Sc
ĠSi Ta
ĠNa N
ĠTe Zn
ĠCu prite
ĠAs Os
ĠRh N
ĠSb SrSn
Ti In
ĠMo Ta
10 55
10 19
10 68
ĠCo N
Zn Cl
Cu Cl
09 9
ĠBi Na
54 18
11 47
43 6
96 5
ĠTl Hg
Co N
Mo Ru
Mo Ta
Ru Te
Ru Ta
Bi Te
Nb Si
50 0
Na Tl
Ta Rh
Sc S
86 0
86 8
86 57
86 28
40 0
02 9
ĠOs N
23 6
93 4
25 1
83 2
19 00
97 75
122 70
1079 7
567 4
567 9
1217 895
1221 4
220 09
8647 54
975 204
ĠAsSb Ir
ĠSbAs Ir
985 825
1 74
6 33
S V
S Tl
Y Se
Y Pt
b ar
n b
ĠC in
ĠIn Rb
ĠP AsPt
ĠH Cs
ĠCa Ni
ĠGa Cu
ĠGa Na
ĠGa GeTe
ĠNa Ga
ĠSe SiPt
In Sn
ĠTe Fe
ĠCu H
ĠAs PPt
ĠV Al
ĠV Ge
ĠSb Hf
ĠSb Ir
ĠTa Co
Ti Zn
Pt Se
ĠGe Pt
ĠCo Pt
ĠFe Ir
ĠFe Cl
12 102
ĠRb In
Ag Hf
ĠBi Ir
ĠIr Fe
ĠIr Sn
ĠCl In
ĠCl Ag
Mo V
85 00
Ta Te
Ta Ge
Sc Si
Sc Ru
88 60
Hg Ti
86 58
Sr Pb
23 9
62 87
65 1
82 4
64 1
76 3
14 83
120 09
120 68
Cs Sb
110 42
110 28
118 2070
1215 509
ĠSSb Rh
1018 113
308 76
1223 7
1223 866
ĠSeCs Bi
1184 478
ĠPCa P
11860 67
108 47
108 74
973 111
117 89
983 509
755 169
11846 32
ĠSeGe Pt
8653 55
12066 36
nc c
na bar
2147 7
ĠCin nabar
4 45
V Ge
m d
ĠS Ta
ĠN Ga
ĠIn Hg
ĠAl Ga
ĠCa Cu
20 132
ĠSi Rh
ĠSi Mo
ĠZr Sn
Si Se
ĠZn Cd
Pt Rh
10 69
10 71
10 17
ĠGe Hf
ĠFe Ni
12 32
54 07
54 25
67 23
11 57
Ir Ti
Ir Ru
Na H
Na Pd
15 63
Ta Zn
22 5
47 0
86 07
Sr Sb
23 02
Mn Os
66 6
74 8
45 1
81 7
97 65
24 8
78 7
84 1
Tc Ga
120 65
120 57
Cs Ga
110 19
110 35
up hide
122 75
ĠDis uphide
1183 2
102 50
567 5
567 772
ĠSZn In
305 01
1180 9
1072 7
10799 52
118605 8
313 12
1179 802
1063 6
1055 994
0 42
1 47
4 62
4 83
6 12
7 69
8 10
8 71
K Se
K Cl
S Cl
S Cs
t w
it ride
Ġcarbon itride
ĠN Na
ĠP Se
ĠZ int
ĠHf Sn
Fe N
Fe Ga
Pd Mo
Pd Tl
ĠAs Se
ĠTa Au
10 27
ĠGe Co
Ni Y
12 11
12 59
Rh P
ĠIr Zr
Hf Mo
Zr Cu
Au Sb
67 50
11 96
11 92
42 8
16 526
53 4
Ir Rh
85 8
85 9
Ru N
Ru Se
Bi Sb
Nb As
Na Pt
Ta As
55 6
Sc Ir
ĠTc Cl
40 1
ĠOs Cl
Mn Fe
Mn Ir
89 1
65 8
74 6
75 65
Re Os
13 64
48 7
30 478
110 31
122 69
122 63
109 51
1183 501
1183 694
569 170
1018 100
1078 123
ĠSeK Bi
132 70
1025 9
10180 59
220 95
11847 64
1077 098
1067 933
1180 659
11845 91
188 7
214 05
8647 58
11032 12
6043 25
11207 67
1012 435
5674 09
11042 75
tw o
ĠZint l
2 678
3 12
3 62
5 544
6 699
H Cs
K Ag
P Ir
Ã Į
ĠI ma
âĢ ¦
ĠS C
ĠN Co
ĠP Rh
ĠAl Tc
ĠR ÃĮ
20 06
ĠSe Ga
ĠTe Sr
ĠV Ga
ĠSb K
Pt Y
Pt Ni
Pt Ru
10 14
ĠCo Sn
Sb N
Ge Sb
Cu Zr
09 1
Rh V
Ag P
ĠRu Mn
ĠPb Sr
Zr Ni
54 29
11 94
42 4
Ru P
05 0
Nb Ga
22 71
22 2âĤģ
22 691
86 38
ĠOs V
Tl Se
60 1
ĠPn na
63 9755
120 62
120 74
31 473
Cs Au
110 38
1186 427
107 12
1216 0
1220 023
569 0
119 02
1018 166
112 29
1184 502
11860 34
1025 223
303 73
974 421
133 7
307 45
307 17
979 423
1185 041
971 7
1180 961
6722 41
893 6
5705 62
11207 69
10181 53
9749 20
12174 09
10953 02
9765 89
6699 13
2 86
4 89
5 50
5 105
7 526
8 80
8 69
V W
a ze
f if
l w
al la
Ġp alla
ĠS Ga
ĠN K
ĠN Mo
ĠP Os
ĠH aze
Ġal uminum
Al Ni
ĠNa Ag
ĠSe Nb
ĠY H
ĠAs AgAs
ĠSb Na
ĠTa Sb
Ti W
10 62
10 66
10 136
10 559
10 404
ĠK N
ĠGe H
ĠAg Ge
ĠAg AsSe
Ga Y
ĠFe Ge
ĠFe Mn
Ge H
Sn N
Zn SnAs
09 5
ĠBi Sc
ĠIr Al
ĠPb K
Hf Cr
Zr Ag
ĠCd Ge
11 73
11 56
43 2
96 16
42 5
Co In
Ru S
05 1
Nb Pt
Cd Sn
Cd Zn
Sc Te
47 5
52 3
Sr Bi
Cr Mn
23 69
23 159
25 97
Tl In
75 54
83 6
19 932
24 50
78 46
Re Tc
29 055
Rb Te
49 1
87 81
44 4
99 70
ood ite
00 0
120 6486
31 348
110 9
110 56
110 304
122 15
122 87
1220 635
569 289
ĠSNa Cr
1080 834
1187 474
1187 881
119 07
1018 156
1184 558
1184 808
1188 662
ĠAsTe Ir
1007 692
ĠSBi Ir
106 85
ĠSCo Rh
11860 33
ĠSTl In
ĠTeTe Ir
1225 701
973 198
ĠTeAs Ir
123 88
YAg Se
11846 33
210 93
685 146
ĠSeAs Pd
118605 0
ĠSeSb Ru
ĠAsSb Rh
ĠSbAs Rh
1246 3
8649 84
130 10
11020 18
5703 77
5673 79
9729 81
11796 05
6287 73
fif th
lw oodite
Ġpalla dium
ĠHaze lwoodite
10559 40
10404 53
110304 4
1 43
1 81
1 543
2 87
2 700
3 93
5 86
6 05
8 22
8 23
H Cl
K Cr
W Al
Y Ir
Y Cl
o b
ĠIn K
ĠNi V
20 59
20 555
ĠSi Ir
ĠCu As
Fe Co
Fe Ru
Pd Pt
ĠAs Nb
As Te
As Sb
ĠZn Ga
ĠSn Bi
Ti Re
Ti Tc
ĠMo W
Pt Tl
10 89
10 56
10 644
10 21328
Sb P
ĠCr SbAs
12 13
Rh Sb
ĠRu Hf
54 16
54 61
Au Zn
11 972
Co Ir
16 99
16 01
85 5
Ru In
Ru Ge
05 9
Na Te
Ta Si
21 79
22 94
86 62
Sr Te
Cr Rh
62 4
62 54
70 4
Mn Pd
66 15
65 5461
65 6615
83 0
19 0
19 07
19 22
60 0
59 2
59 8
29 9
56 88
56 89
13 63
99 85
99 93
17 47
110 04
110 49
110 26
118 70
118 19
122 64
114 20
1186 437
107 93
1216 825
1183 517
1183 144
867 8
1219 457
570 459
100 21
10180 29
974 620
11847 55
11847 03
212 76
115 71
1067 627
1009 756
229 24
755 8
1096 994
8654 30
571 3
311 44
224 66
975 129
541 837
8673 47
8673 51
10955 78
12067 43
10142 31
10804 43
153 6
11878 16
183 6
10077 86
10077 60
12070 13
9833 65
5711 60
238 70
11842 65
12057 86
2 540
5 62
6 23
7 42
7 66
8 426
9 84
9 828
B a
K Te
V Te
h il
ĠH Co
ĠH yd
ĠTi Ru
ĠTi Cr
ĠPd Se
Al Se
Al Mo
ĠHf TeSe
20 82
20 526
20 628
20 745
ĠGa Ru
ĠPt Tc
ĠTe Cr
ĠCu N
Fe Ge
Pd Pb
ĠAs Y
As N
ĠV Mo
ĠV Tc
ĠZn Ir
ĠRh Hg
ĠSn Co
ĠSn Ca
ĠSn Mn
ĠTa Cl
Ti Ge
Ti Os
Pt Hf
10 06
10 02
10 000
ĠGe GaGe
ĠCo Sc
Sb Cl
ĠCr Ga
Ge Si
Zn Ir
ĠMn Ru
Cu O
Cu P
Rh Hg
Ag Ca
11 97
33 2
33 8
08 6
07 8
ĠTl P
16 1
16 98
53 5
53 7
69 07
Ru Ti
Nb H
Nb Ge
Nb Sn
Nb Cl
ĠCs Te
ĠCs Pb
Cd Ga
ĠRe As
ĠRe Ru
15 23
55 1
22 86
22 337
rop hil
ĠOs Sc
23 157
93 7
66 1
89 48
74 44
19 73
79 0
79 8
73 73
97 71
97 6273
Os Al
04 8
64 19
29 551
Tc Ni
14 1
91 7
99 54
120 33
120 69
120 71
Cs Sn
118 85
233 9
1186 152
1186 024
1186 158
1216 195
1079 2
1079 810
867 9
1080 831
1080 797
119 09
119 08
1018 717
308 36
1224 9
1184 658
1078 4
1007 691
1007 730
11869 01
11860 47
11860 18
204 18
113 87
10180 19
10180 28
212 8
133 5
133 65
ĠSeRb Sb
1105 835
1067 880
1009 730
ĠPTc P
10786 65
ĠPmn a
310 02
8655 65
223 20
203 51
1096 9
10942 48
893 9
1178 932
164 88
ĠAsFe Ni
5703 62
1063 670
ZrP P
10239 24
10774 66
ĠPRb P
10956 69
12102 15
12237 73
11972 42
ĠHyd rophil
ĠHydrophil ite
1 749
2 55
2 693
3 99
K In
P Rh
ĠTi In
ĠTi Tc
20 95
20 549
20 539
ĠGa Cr
ĠSi Cr
ĠZr Ag
ĠY Co
Fe Al
Pd Ta
ĠAs Ta
80 7
80 41
ĠZn SnAs
Ti Sb
Ti Cu
ĠW W
ĠMo V
10 10136
ĠAu K
12 66
12 104
12 137
Zn Sn
09 7
67 9
67 65
96 8
08 9
07 2
16 0
Mo Re
Ir Mo
Ca P
Ca Sb
50 48
Cd P
Ta Pd
21 72
Sc Pd
86 52
86 37
Sr Ru
ĠOs Te
74 93
75 33
75 98
73 4
14 87
63 98
63 2286
98 47
26 12
26 14
00 3
Cs In
Cs PbCl
110 22
122 33
122 85
114 81
109 50
te mperature
1186 074
1183 511
1079 4
1079 938
1215 2
196 3
102 40
102 60
1187 258
1018 151
308 35
112 31
1188 283
1188 663
570 199
1007 976
ĠSCo Ni
204 85
568 745
303 66
220 40
11847 09
124 67
124 65
127 23
306 83
1077 503
505 52
983 5
983 445
573 514
1207 100
10786 02
11880 61
972 889
1008 601
125 93
11845 11
1227 290
224 81
12216 97
5716 36
6043 21
6043 18
5706 51
273 1
1214 889
12163 23
1057 273
12066 59
10255 13
282 46
12242 98
12166 55
1133 4
278 4
240 3
12190 06
669 917
9991 43
11789 52
0 22
1 78
2 108
3 80
3 85
3 01
4 06
5 546
5 803
6 96
6 16
6 22
7 89
7 60
7 291
8 75
8 46
K P
V H
V Al
Y Pb
h os
m et
p hide
Ġp hos
st ibit
Ġdi met
ĠAl Fe
ĠAl Os
ĠAl PS
OH NNCH
ĠH Hf
hy la
ĠNi ob
20 291
ĠSi Os
ĠNa Pd
ĠSe S
ĠSe SbPt
ĠTe Zr
ĠAs Ir
ĠAs CuTe
ĠNb H
ĠNb Au
ĠV Sb
ĠSr Ag
80 73
ĠSn Ta
ĠSb Pd
Pt Pd
10 42
10 30
10 861
10 487
ĠCo Mn
Ni Zn
se ven
ĠFe Ga
ĠAu Pb
ĠCr Ge
Zn H
Ag Ga
Ag Sn
ĠPb Pt
Ġrelat ive
11 108
16 20
16 074
05 7
Bi P
ĠCs Au
Na SbSe
15 52
15 339
21 80
55 58
22 555
22 735
Sc Fe
88 3
88 86
ĠTc Pt
ĠTc Sc
71 9
Hg Cd
06 2
Sr Ni
Sr CaSi
Sr IrIn
Cr Se
Cr Te
ĠOs Zr
23 61
23 206
70 45
25 10
25 17
66 14
83 61
68 7
18 22
Re Rh
64 98
Tc Pt
63 8
63 6614
63 6498
32 868
99 53
26 67
ĠTiSe S
30 675
Cs Te
110 1
Ġhydroxyla mino
122 50
122 61
114 07
114 53
1186 137
1186 081
107 7045
1183 0
1183 484
1220 645
569 152
102 93
867 7
1080 121
1080 608
119 10
ĠSSb Ir
1018 121
1018 124
1018 128
308 71
308 77
ĠMoAs P
1217 111
1217 092
1217 081
112 88
112 86
1221 420
1221 484
1078 7
1078 331
ĠCc cm
ĠChalco stibit
204 83
568 792
1025 7
113 45
303 52
10180 54
220 1
ĠSSn Pt
1229 092
127 79
ĠPc a
306 82
306 81
1189 573
307 44
202 63
1207 024
186 22
11880 08
223 18
ĠSeAs Rh
ĠSeAs Ir
1096 861
1096 915
11845 54
311 72
11879 74
211 62
283 53
126 14
199 05
11040 47
200 34
1106 023
276 07
9896 95
11796 56
990 532
10227 25
1198 692
10913 75
12284 91
5693 60
nb m
10727 24
5429 15
10644 97
9828 71
10950 24
385 11
5803 57
Ġphos phide
Ġdimet hyla
ĠNiob ium
ĠAsCuTe As
ĠChalcostibit e
Ġdimethyla mino
1 93
2 67
3 81
3 17
4 41
5 54
5 16
5 60
5 64
8 11
9 05
9 969
P K
V Mn
Y P
ĠC S
ĠN Ni
ĠAl Re
ĠNi Co
20 83
20 800
20 928
ĠGa Bi
ĠNa Sn
ĠSe Fe
ĠSe Pd
ĠY Rh
ĠTe PIr
ĠCu Pt
ĠAs Ru
ĠSr Se
ĠSr Pt
80 71
ĠSn Ir
Ti Co
Pt Ti
10 52
10 157
10 649
ĠAu Si
Sn Ru
Sn Hg
12 78
12 561
Zn Zr
Rh N
Rh Ge
Ag In
Ag Zr
ĠPb Rh
ĠPb Bi
ĠPb Hg
Hf Ge
Hf Cd
67 1
11 456
33 06
96 92
08 5
42 27
ĠCl Hg
05 28
Nb Zn
Pb Mo
15 50
15 649
Ta Mn
21 104
55 8071
88 91
Sr Hg
Cr Cl
23 4
Mn Zn
Mn Rh
74 41
83 72
46 53
73 90
57 1247
18 76
97 89
24 49
24 082
59 55
14 44
13 155
Rb S
Rb PbCl
63 0528
99 07
17 08
17 55
17 86
17 93
17 332
27 83
120 5955
Cs SrCl
110 25
118 75
118 3306
Ġbipyramid al
114 62
107 05
1183 989
1183 627
1183 777
1220 003
569 423
569 249
569 095
867 202
567 822
1080 459
1187 525
206 69
1018 129
ĠGeTe Rh
308 46
308 28
1223 977
112 61
1184 121
1184 905
1007 758
1007 857
106 4227
11860 30
568 936
MoS Se
ĠNY Sc
113 42
113 29
220 50
974 4
304 12
304 85
12243 83
1225 186
ĠPc c
306 85
296 46
136 83
167 19
1105 078
979 9
156 81
1067 758
1120 739
1185 202
573 691
971 909
10786 38
186 14
280 9
11846 50
213 42
213 59
12267 16
5708 96
ĠSeAs Ru
ĠSeAs Os
1072 744
10799 45
12289 01
165 21
999 502
CaPd In
976 128
10942 55
11032 52
9989 49
5705 60
11867 60
1205 858
12157 83
205 81
978 531
ĠNSc Ti
138 53
5696 39
793 1
11834 55
10800 43
ĠSP Os
10773 65
1012 110
9755 19
11871 54
5712 64
12165 75
10791 82
8661 86
11063 81
966 800
5565 16
1014 111
2059 9
9771 89
12069 27
10649 81
1 459
2 121
2 105
2 861
2 758
2 856
5 104
6 40
6 404
8 20
9 52
9 91
K Bi
K CaCl
S Y
V Pt
V Re
Ġb er
ĠC Mn
th ree
ĠP Cl
li a
ĠH Ni
ĠTi W
âĤĥ âĤĤ
20 34
20 576
yl lia
ĠPt Y
ĠY Cl
Fe Cl
Pd Ge
Pd Hg
ĠSb Zr
ĠSb Sc
ĠTa NbW
10 46
10 61
10 692
10 901
10 201
ĠK Na
Ga H
Ni Pd
ĠCr H
Ge P
Sn Si
Sn Bi
12 12
12 108
12 124
12 735
12 892
Cu Pt
ĠRb Na
Ag BiS
ĠBi K
ĠBi Rb
ĠBi SbTe
Zr Au
Zr Ru
54 8
Au In
ĠCd In
Co Ru
Mo Ir
69 38
Ru V
Ru Zr
Nb Sb
Nb Co
Ca Fe
Na Se
Cd Y
ĠRe Cl
15 15
15 22
Ta V
21 94
22 692
88 83
ĠTc Os
Hg Zn
06 8
86 29
Ġmon ox
Cr H
Cr Ru
23 5
Mn S
25 12
25 93
25 60
66 8
74 98
19 58
82 62
79 4
68 49
18 4
18 192
97 52
97 84
97 6765
60 49
60 37
04 4
Re Ni
56 82
56 81
Tc Cl
72 89
13 5
13 21
Rb H
49 2
63 1
63 63
92 7
99 22
01 7
17 123
17 757
27 838
30 336
110 33
110 53
110 57
118 96
122 72
114 40
114 66
1186 444
1216 851
1183 209
1183 224
1079 460
1220 678
1220 085
569 867
569 535
867 212
567 313
1187 077
1219 509
1219 539
1219 734
ĠSZn Cd
1018 115
1018 125
308 52
1217 804
1223 503
1184 994
1188 303
1188 800
570 691
570 130
570 197
1078 697
106 2030
106 6254
11860 31
204 05
568 718
568 789
220 75
11847 13
865 166
105 6037
133 9
ĠSeRb Bi
306 68
296 19
1189 230
573 5
1207 251
10786 96
1206 431
280 2
210 68
5708 44
989 7
989 782
159 54
216 8
274 10
6722 56
247 21
179 74
9989 79
12053 01
1178 742
10142 29
559 676
12159 97
171 90
607 111
1652 3
1652 8
8646 47
12073 93
11043 41
153 4
180 32
11023 84
10179 83
232 53
9720 88
5680 18
12174 07
9722 28
6847 99
6846 02
1084 800
10952 69
12165 19
9991 33
10227 21
9716 62
314 93
5743 38
949 029
5697 85
8628 71
9775 85
12214 13
5544 62
11038 42
5105 22
7846 30
6907 60
6398 74
622 209
9789 74
6404 16
Ġber yllia
Ġmonox ide
9784 98
1 72
1 1220
1 502
2 85
2 62
2 61
2 434
2 404
2 500
2 534
3 50
3 21
3 76
3 58
3 63
4 42
5 18
6 âĤģ
6 55
7 33
8 53
9 938
9 939
N Cl
S K
S Zr
n ner
re nner
ĠC Cr
ĠS ul
ĠAl Ru
ĠTi Sn
ĠPd Fe
ĠHf Rh
20 86
20 02
20 672
20 695
20 849
20 327
ĠGa BiAs
ĠSe Tl
In As
Fe Rh
ĠAs Na
Te Cl
80 1
80 6
Pt Sb
Pt Sc
10 49
10 015
10 026
10 106
10 159
10 886
10 759
ĠK renner
ĠCo Ni
ĠCo NiTe
Ga C
Ga Pt
ĠFe Cu
12 35
12 700
12 524
Cu As
Rh H
Rh Pd
ĠRb P
ĠRb PbCl
Ag Se
Ag Hg
Ag InS
Hf Se
Hf Bi
Hf Mn
Zr Al
Zr Cr
Zr CoGa
54 06
67 53
67 62
11 15
11 52
11 36
11 675
11 328
11 514
33 3
33 42
Co Pt
16 83
16 48
Ru Pt
05 6
Ca Se
Ca Bi
Na S
Cd N
ĠRe Al
Pb P
15 965
21 400
22 23
22 862
Sc Cl
Sc Os
88 81
86 25
Sr N
Cr Ge
ĠOs Ge
23 179
23 713
93 1
25 83
25 82
66 4
Tl Bi
Tl Sr
19 89
45 8
57 1079
18 23
97 6419
Os As
24 20
24 69
24 55
Re Al
Re Ru
29 4
56 13
Tc Si
Tc Zn
72 6
13 57
13 97
99 5
99 86
27 67
27 15
27 75
26 85
120 15
120 78
120 90
30 673
30 463
110 10
122 80
122 62
114 11
109 10
109 05
109 1415
1186 175
1186 853
107 8500
107 2086
1183 222
1183 214
1079 127
1079 296
101 7565
101 8948
867 126
567 207
1080 522
1080 376
1187 697
119 12
119 22
308 75
112 3
1184 657
1188 393
570 483
1221 429
ĠCdTe Se
303 43
11847 91
212 6
304 83
115 07
115 50
12243 90
CaZn Si
296 61
136 88
12154 01
167 56
979 261
983 459
1009 834
1009 733
573 763
1023 900
1023 926
1023 934
1209 024
8655 98
8655 27
1103 536
685 124
685 149
1008 555
10799 10
8653 85
8653 57
999 544
163 15
188 3
672 204
6722 32
11879 52
10942 67
211 82
893 7
9743 76
12288 15
5716 51
1179 094
12067 04
CaPt In
273 2
10804 48
5710 53
12172 55
1070 103
170 13
ĠSMn Cd
10954 95
297 67
138 71
5673 97
197 24
9749 51
231 93
12155 18
10800 01
11029 00
557 719
11007 73
5707 86
11871 96
990 090
10789 89
263 7
5698 15
1017 545
5425 69
147 6
12269 33
12062 68
1156 3
11056 33
10685 10
11026 16
984 698
5546 09
12124 07
ĠSul vanite
ĠKrenner ite
5613 20
1 89
1 501
1 547
2 84
2 72
2 730
2 670
3 16
3 89
3 29
4 88
4 86
5 93
6 074
7 62
7 092
7 818
7 674
7 897
9 88
9 87
9 122
V P
V Pd
W Ru
W Cl
W Os
Y S
Y Ru
Y IrSi
ĠN Tc
ĠP ma
ĠP Te
ve ll
ĠTi Mn
ĠTi Os
ĠCa Fe
Al Sn
Al PS
Al NiGe
ĠNi N
20 826
ĠZr TiSe
In N
In Sb
ĠTe Cl
ĠTe Tl
Pd As
ĠNb MoSe
ĠSr CaSi
Te P
ĠRh Hf
ĠSb V
ĠSb Cd
ĠSb Os
ĠTa Re
Ti Ag
Ti Cd
10 73
10 24
10 570
10 698
10 744
ĠCo Ga
ĠCo Bi
ĠCo vell
Ge N
Sn H
12 79
12 60
12 64
12 139
12 802
12 772
Zn Cu
Zn Tc
09 3
Rh Ga
Rh Ru
Hf Fe
Zr W
ĠCd Sr
11 35
11 460
11 191
43 06
33 024
07 6
ĠCl Cd
16 82
16 38
16 514
16 960
Mo W
Mo Co
69 85
05 8
05 88
Na SbS
Na BiSe
Cd Ca
ĠRe Ta
15 78
15 58
15 91
55 67
55 88
55 87
22 42
22 61
22 31
Sc N
Sc Pb
ĠTc Zr
Hg Sn
Hg Bi
Hg Cl
86 40
40 2
Sr Rh
Sr Ca
Cr Ni
Cr Ir
ĠOs Sb
23 95
23 98
23 295
23 299
70 3
75 83
75 82
19 53
19 50
19 41
19 713
19 795
79 16
73 6
18 25
18 74
24 18
59 4
51 93
Re Mo
Re Ta
56 8646
56 0588
Tc N
14 12
72 8
72 62
13 93
Rb As
90 3
63 221
63 633
99 84
99 98
98 2261
27 33
120 88
120 84
120 87
30 672
30 479
110 50
110 46
122 78
122 8607
121 75
121 81
121 4306
114 12
114 54
1186 017
107 1078
1216 498
ĠAlNi Ge
1183 227
1183 998
1183 542
ĠKK As
1079 131
1079 094
569 426
569 776
102 54
102 85
ĠSCu Bi
867 780
567 525
567 832
1080 2
1219 503
ĠMoTe Se
119 1079
ĠSSb Pd
ĠSSb Os
1018 123
308 56
1224 809
1217 166
1217 163
1217 894
1184 119
1184 670
1188 926
570 491
1221 3
100 54
100 47
1078 780
ĠTeGe Rh
ĠNZr Zn
ĠPZn P
1007 656
ĠSBi Pb
106 1133
11869 90
113 22
113 97
303 67
10180 55
1225 676
305 71
305 00
166 09
862 798
ĠInSr Au
1077 083
12154 97
167 18
CuAl S
ĠPK TeP
1185 099
1185 042
971 673
ĠSrSn P
10253 97
221 54
221 92
ĠSCr Cu
209 05
1103 139
685 022
203 20
977 129
1008 634
989 737
8654 25
188 2
274 11
311 50
11879 13
ScRh Ge
247 26
11032 11
1228 803
5716 40
12053 22
12053 46
1178 745
849 059
10181 49
1070 544
1199 503
170 45
1057 286
297 11
180 63
11878 11
10179 85
10179 87
776 470
175 64
8616 10
326 82
11874 86
ĠSP Ir
10773 72
680 731
706 531
1087 219
11872 43
5715 05
10796 81
145 87
9854 51
10791 72
6273 97
1191 538
SS Os
177 06
292 66
5685 16
300 45
174 49
10847 53
10874 86
5675 96
1259 5
362 16
5690 07
1056 308
9993 18
1002 122
11908 41
10969 92
7533 04
10705 80
9799 11
11053 02
5735 79
389 70
7674 69
ĠPTe Ir
10570 15
ĠCovell ite
63221 9
63633 4
1 460
1 739
1 894
2 77
2 1187
2 503
2 648
3 51
3 1214
5 20
5 10032
7 549
7 162
8 79
9 47
9 227
P N
V Ni
W C
f ive
m nc
ĠS Pd
ĠIn SnCl
ĠHf In
20 53
20 131
20 433
ĠGa Co
ĠGa Mo
ĠSi Ru
ĠZr Fe
ĠPt Cr
ĠSe V
In SnCl
Fe Pt
Fe NiSb
Pd Y
Pd Sb
Si Re
ĠV Ni
ĠV Os
ĠW C
ĠW V
10 21
10 22
10 28
10 229
10 125
10 052
Ni Ir
ĠFe V
ĠFe Pt
ĠFe Ru
ĠAu Zr
ĠAu Sc
ĠAu Tl
12 81
12 107
12 699
12 628
Ag Cu
Ag Bi
ĠIr Cl
Hf RhSn
54 09
54 2339
Au Hf
67 26
11 473
11 474
11 192
11 457
11 690
Co Cu
16 02
16 18
Mo N
Mo TeSe
Ir Zn
ĠHg Cl
ĠHg Tl
Nb Au
Nb Tc
50 53
Cd Al
Pb As
Pb SnS
15 92
Ta Ga
21 87
55 55
55 57
22 60
22 568
22 795
Sc Bi
Sc Tc
Hg P
Hg Pb
86 24
Sr Se
23 18
23 167
23 291
23 279
Mn Co
25 07
66 9692
Tl Sb
75 09
75 53
19 84
19 717
46 47
73 2
73 8
73 43
57 09
97 85
60 80
60 4647
Os Cl
24 90
59 11
51 3
Re P
84 62
56 8607
Tc P
14 11
13 40
13 79
13 26
13 164
Rb SrCl
49 5
61 1219
92 54
92 62
32 697
27 53
27 86
27 166
26 86
120 1
30 338
31 472
31 430
110 52
110 24
110 39
110 5911
118 1222
121 78
121 77
114 16
107 83
1183 643
1183 205
1183 647
1220 0
1220 657
1220 327
1220 879
1215 503
1215 274
1215 543
101 93
196 9
569 979
569 544
569 989
569 322
569 837
567 484
567 540
1187 739
1187 248
119 43
119 4653
308 11
308 84
1224 803
1217 961
1217 168
ĠNaSb Se
112 87
112 27
1184 804
1188 155
1188 462
1221 793
1007 755
11869 77
11869 76
108 7509
1025 159
303 54
10180 27
974 558
11847 04
212 94
304 96
115 73
12243 88
ĠAsZn Sn
973 676
127 78
133 64
306 86
1077 7
1077 116
1077 263
866 121
103 88
103 9262
505 510
156 50
12180 44
12180 17
1009 460
186 8
1102 657
1102 895
11880 42
310 53
ĠTiCu Ni
12267 28
5708 95
1072 645
165 11
571 547
ĠSeMn Zn
10942 54
10942 72
142 88
850 083
5706 32
985 829
5705 78
10804 93
504 659
134 1
134 47
10779 78
171 73
607 138
12077 81
9723 51
282 66
11878 12
12164 86
1208 852
11023 64
12173 63
5683 20
8616 30
8659 10
9729 41
12290 12
8660 06
9720 69
5426 40
11877 02
6846 09
9833 88
176 15
6323 11
ReSi ReSi
9716 61
177 28
5743 79
5685 95
12195 33
1195 735
5565 97
174 13
1071 777
11035 70
11902 67
9717 79
1066 136
7554 35
5689 71
623 511
9847 44
12285 24
12261 70
12272 85
172 16
5588 11
7549 54
5557 63
2 71
2 46
2 103
2 156
2 857
5 83
5 541
5 837
6 89
6 1907
7 051
8 42
8 72
8 200
9 24
9 13
P Te
P Cl
Y Fe
e a
i x
n nc
s ix
ĠI ron
ĠA ea
ĠAl CrFe
ĠH Rh
ĠCa Al
ĠCa Ti
ĠCa Rh
Al Ta
20 81
20 63
20 862
20 900
ĠSi Cl
ĠZr Cd
ĠSe Cl
ĠY Pd
Pd Sc
Si Cl
ĠV Cr
ĠSr Cu
ĠSr Ca
ĠTa Mn
Ti Hg
ĠMo C
ĠMo Ge
Pt C
10 695
ĠK Si
ĠGe Rh
ĠGe Zr
ĠGe Ta
Sn Ge
12 120
Zn Si
Zn Sr
Zn SiAs
Cu N
Cu Ir
Rh Pb
ĠRb As
Ag S
Ag Pt
Ag SbS
Zr MoAl
54 10
54 28
Au Bi
Au Sc
ĠCd Co
11 75
11 546
11 814
33 14
ĠNH S
08 94
16 27
16 28
Mo C
Mo Os
Ir Y
Ir Co
Ir Nb
Ir ZrSn
Ru Zn
Ca Co
Na Si
Pb SnTe
15 85
15 82
15 26
15 964
Ta Se
Ta Ni
Ta NiP
22 85
22 704
Sc CoSi
Hg Ga
Hg Tl
86 96
86 42
02 20
Cr Os
ĠOs Y
ĠOs Se
ĠOs Hf
23 54
23 05
23 22
23 71
23 759
89 0
74 40
Tl Hg
83 60
19 43
82 82
57 1199
97 3342
Os Se
Os Pd
24 80
51 34
34 202
56 86
76 1
76 67
13 71
Rb AuTe
90 08
63 0
63 2
32 791
99 47
99 02
99 25
99 45
17 75
27 81
27 258
26 34
120 54
120 1836
120 0894
120 0220
30 337
Cs CaCl
110 11
110 62
110 188
110 5134
122 21
122 40
121 96
1186 100
1186 115
107 82
1183 7
1183 137
ĠCdAs Cl
ĠAsAs Os
ĠSnTe Pd
867 303
1187 073
1187 884
1187 241
1219 522
ĠSSb Ru
1018 672
308 85
1217 429
1223 714
112 56
1188 336
1188 645
ĠAsTe Os
1221 7
100 09
100 2063
106 3314
ĠFeSb Te
11869 74
ĠSCo Cu
11860 40
568 115
568 746
ĠNY W
ĠScAl Rh
303 83
ĠSK Bi
220 33
11847 72
212 37
304 82
304 94
124 66
1225 656
1225 751
1229 015
1229 101
973 092
865 077
865 899
127 24
305 72
105 8696
133 1
12154 88
1189 9
167 23
1105 651
307 46
307 92
ĠTeAs Os
ĠSeCa Pb
229 04
186 3
ĠNAl Ga
CaAu In
210 30
12267 26
5708 70
5708 75
972 828
ĠSFe Co
1008 488
1072 429
SrAu Cd
10799 97
10799 14
159 53
8653 42
8653 62
999 192
216 57
163 19
274 13
6722 22
11879 46
555 935
140 4
140 18
211 70
8627 70
8627 79
9989 81
9989 72
9743 35
12288 82
5716 42
10955 13
228 12
10142 19
12179 71
5710 59
11040 19
12157 79
134 50
10795 97
12171 92
12163 25
288 78
200 33
171 46
12073 80
173 4
12164 80
5683 80
510 691
1095 694
5680 67
11017 54
12248 40
HfCu Ge
12070 04
12193 96
ĠCmm e
12063 71
5707 51
12170 48
669 546
ĠSAs Os
863 648
11030 34
12274 86
5424 54
5697 08
5418 85
5679 29
12009 88
12065 73
10250 44
769 096
1259 4
6750 60
1196 961
1062 758
5688 65
11819 40
11885 12
8679 22
11909 08
5048 12
50552 8
616 559
11910 83
5104 12
1061 861
2002 7
12015 60
6074 50
10254 48
5409 12
5541 34
5837 40
61907 1
110188 4
1 82
1 700
1 434
2 50
2 65
2 698
3 1205
4 14
6 82
6 46
7 74
9 93
S H
V Co
o di
ĠS Ge
ĠS Au
ĠIn Sn
âĤĤ âĤĩ
rom ium
ĠH Cr
Ġtri odi
âĤģ âĤĪ
Al Re
20 72
20 49
20 074
20 191
ĠB is
ĠSi CoP
ĠY As
Si Sb
ĠNb Tc
As K
ĠZn SiNi
ĠSb N
ĠSb Zn
ĠTa TiFe
Ti TaFe
Pt In
Pt SnSb
10 569
ĠAg Zr
Ga Ag
Ni N
Ni Sn
Ni Ru
Sb Ru
ĠFe H
ĠFe Pd
ĠAu Sb
ĠCr Pt
Ge Pt
12 97
Cu Rh
Ag Au
Ag InSe
Ag SbSe
Ag BiTe
ĠBi Mo
ĠRu Nb
Hf H
Hf TeSe
Hf NiGa
54 12
54 1180
ĠCd Hg
67 55
67 51
11 11
11 70
11 81
11 39
11 828
11 506
96 2
ĠCl Cu
Co Bi
Co SbSe
Co NiTe
16 90
Ġ8 1
Mo Ni
69 86
Ir Bi
Ru Ni
Bi Mo
Nb Re
Nb MoSe
Ca Rh
Ca IrIn
ĠCs SrCl
Cd Hg
Pb Ge
15 54
15 21
15 700
15 698
15 624
Ta H
Ta Cl
21 895
55 83
22 43
22 21
22 91
22 889
22 856
22 236
Sc Au
Sc RuSi
88 10
71 40
86 63
86 32
86 35
86 39
23 7
23 77
62 6
62 9
66 0
Tl CaCl
75 64
19 54
19 02
19 14
19 814
18 53
24 155
78 19
Re AlGe
84 8
56 10
76 31
14 8
72 73
13 80
13 156
Rb Na
49 9
49 79
90 16
63 7
63 08
63 72
63 980
99 5193
35 09
17 43
98 2070
27 731
120 85
30 421
30 674
110 41
110 27
121 82
1186 127
1186 060
1186 964
1186 187
1186 968
107 11
1216 675
1216 231
1183 206
1183 143
1079 297
1079 082
1215 971
1215 257
101 8891
569 250
102 96
102 63
567 279
567 612
1080 657
1187 541
1187 969
1187 257
1187 665
1219 462
119 05
119 06
119 9016
ĠTiGe Ru
1018 7
1018 103
308 53
1217 422
112 41
112 28
1184 693
570 673
570 428
ĠCh romium
ĠSiP H
100 04
100 14
100 3509
1078 443
11869 67
11869 70
11869 73
204 65
204 97
1025 8
ĠInAs P
ĠInAs Se
113 93
303 68
10180 56
220 79
ĠSSn Sb
304 81
304 18
1229 100
ĠTiZn Cu
ĠNTa Mo
305 94
166 10
306 19
117 8810
296 42
ĠPSi P
12154 37
167 2
1105 852
979 115
979 751
156 22
10786 66
1218 7
1206 239
ĠHfZn Ir
1209 828
310 10
310 86
11846 81
210 65
165 22
999 204
YPd Si
YPd Ge
6722 16
279 02
129 10
8647 94
8647 98
1247 4
247 23
975 834
140 17
179 1
9743 70
9743 26
12288 17
313 13
1179 336
1179 520
CaHg Sn
12189 28
YRh In
849 060
12067 80
12067 41
5706 89
5706 87
12260 35
985 806
1104 502
1104 165
11207 74
5710 60
11040 10
1190 136
1070 3
10779 42
215 89
12163 00
644 494
12073 92
11043 72
1106 169
1106 195
10255 51
SrPt In
12173 22
5673 45
1013 545
5696 83
5696 24
175 93
276 06
326 54
326 69
510 209
ĠPCu Si
8660 22
9720 71
11017 83
10788 75
11834 89
5426 34
RbGa H
10774 82
9722 20
6846 50
12199 40
1084 805
12082 21
5677 05
642 644
5711 43
9773 90
1094 136
6323 19
226 82
8622 59
8656 40
10913 87
330 18
8626 20
11036 43
12238 45
AlFe Y
6971 79
300 21
12009 12
12068 19
1232 213
6723 26
5675 97
1211 471
1192 532
11031 77
10712 69
10712 88
7554 53
1006 132
10794 67
11830 40
560 025
ĠAlRe Ge
9744 55
6849 89
11057 78
11922 51
10698 15
12084 06
5053 63
7553 28
9785 53
6080 72
10193 19
10388 28
246 50
six th
5428 12
Ġtriodi de
ĠBis muth
10569 85
1181 961
11828 85
5583 78
63980 5
2 45
2 828
2 663
2 677
3 02
4 15
4 46
4 81
4 13
5 80
5 82
5 826
6 67
6 18
6 19905
7 12
7 67
7 88
7 29
7 126
7 539
9 25
9 889
9 888
S N
Y Co
Y Hg
Y PtGe
Y IrSn
Y WN
Y CoIn
Ġm vc
ĠN S
ĠIn GaAs
ĠAl ZnIr
âĤĦ âĤħ
âĤĤ âĤĤ
Al Y
Al Nb
20 52
20 84
20 901
20 050
ĠGa Tc
ĠGa PS
ĠZr Mn
Se Cl
ĠNa V
In GaAs
ĠTe Rh
ĠTe Cs
ĠCu Fe
Fe Cu
Si Ge
ĠAs Cr
ĠAs Rb
ĠNb Re
ĠSc Fe
ĠSc Ru
ĠSc Hg
ĠSc Mn
ĠSc Tc
ĠTa NbMo
Ti SeS
Ti SnSb
Ti RuSi
Ti NbN
ĠW Hf
10 93
10 155
ĠK V
ĠK Bi
ĠGe Fe
ĠFe Co
ĠCr Sn
Ge Pd
Ge Rh
Ge Cl
Sn C
Sn Pd
Sn PS
12 52
12 51
12 99
12 777
12 12463
Zn Sb
Zn Bi
Zn Pb
Zn Hg
ĠMn Cl
Cu InSe
Rh Y
ĠRb SrCl
Ag Mo
Ag BiSe
ĠBi Pt
ĠIr Ca
Zr Os
ĠCd Sn
43 59
33 4
33 112
ĠTl In
Co Rh
Co Tc
Co NiSi
Co SbS
16 42
16 62
16 421
16 886
69 31
Ir Pd
Ir Cu
Ir Au
Ir Sc
Ru AsP
Ru PtAl
Bi N
Bi Bi
ĠHg P
Nb Ni
Ca Al
Ca Mn
Na BiS
Na CdSb
Cd Se
Cd Au
15 73
55 92
55 5410
22 82
22 58
22 817
Sc P
Sc As
Sc Hg
Sc NiGa
88 7
88 82
ĠTc Y
ĠTc Ta
23 19
23 79
23 63
23 214
Mn Pt
Mn Au
Mn Ru
Mn CoSi
89 73
Tl Sn
19 4
19 67
19 25
79 45
18 48
97 69
97 6971
Os Te
Os Rh
24 161
04 9
59 1
Re Se
Tc S
Tc Ag
Tc Co
Tc Ta
Tc MnAl
72 50
13 59
13 503
13 459
13 852
Rb CaCl
48 40
63 6
87 86
99 20
94 81
17 695
98 45
27 165
30 471
30 536
31 103
Cs P
110 45
110 44
110 5552
118 43
121 85
121 47
114 49
233 7
1186 142
1216 9
1216 06
1183 216
1183 641
1183 591
1220 151
1220 079
1220 052
1220 057
1220 631
ĠCoP S
1215 714
1215 598
569 794
102 12
102 64
102 87
ĠSnTe Pt
ĠTiTe Se
867 125
867 841
867 141
567 276
1080 586
1187 717
1219 4
1219 748
119 40
1018 107
1018 105
308 67
308 40
308 82
1224 475
ĠTaGe Ru
1217 113
1223 837
112 9
112 30
1188 869
1188 913
1188 413
1221 422
1221 425
1078 755
1078 213
1078 699
ĠSeBi Pt
ĠNZr Sc
1007 4
106 54
106 67
106 21
106 4359
11869 16
11869 55
11869 32
ĠNY Al
ĠTeSn Pd
ĠTeSn Pt
ĠTeSn Bi
ĠSTi Cr
ĠTeCd Hg
124 69
115 21
1229 048
973 166
1105 666
1105 836
505 0
505 634
979 259
156 69
156 85
1185 976
755 523
202 50
ĠYCd Hg
1023 937
10253 55
1218 335
ZrRh Ge
280 7
280 8
280 56
1209 044
310 19
310 84
8655 25
TiPd Ge
209 16
685 048
5708 32
12289 47
999 549
YPd Zn
279 7
CaPd H
247 28
198 71
198 79
8627 05
8627 47
9989 12
ĠSeSb Ir
ĠSeSb Os
9743 58
142 41
12053 79
980 420
980 094
5706 84
1104 074
643 2
328 11
1193 055
1190 478
1205 337
1214 894
10181 48
ĠCaCd Pd
1070 498
1199 529
10795 85
208 47
978 546
1652 9
11043 27
153 08
9723 26
282 4
12242 23
230 37
12290 32
ĠPCu SnP
TiP N
12273 19
11017 74
10800 22
5426 15
10780 10
864 889
620 471
6847 98
11872 33
12199 43
10952 94
5677 52
5712 66
6323 26
242 89
8622 60
SS SCs
ĠSAs Pd
ĠSAs Rh
5552 93
5552 83
8619 10
11030 38
5424 84
218 73
5698 33
10797 16
nb c
ĠGaCu Pt
8500 14
ĠAlGa Ni
5407 03
6723 13
1157 2
10250 39
9717 88
1062 804
12287 53
12287 52
11907 36
12463 92
8662 79
9985 60
12264 45
12071 93
11885 59
10792 60
10784 66
8637 20
10794 96
301 80
seven th
5558 53
1101 121
8629 83
5682 63
5681 72
6363 28
11896 33
350 15
12090 03
329 94
5567 42
11050 40
12278 10
10783 62
11943 50
5686 36
11011 45
582 549
5826 81
767 208
7539 21
1093 999
5592 78
1 936
2 451
3 42
3 74
3 698
4 889
5 07
5 1009
6 10
6 200
7 670
8 73
8 116
8 219
8 479
9 53
9 56
K N
K S
K Ni
K Cd
K AuCl
N S
P Si
Y CoGa
h ite
o gen
p hite
ra phite
ĠC yan
Ġg raphite
ĠIn SnTe
ĠP Cs
ĠAl InSb
ĠAl ZnCu
âĤĦ âĤĢ
Ġre d
Ġse lenium
ĠCa PbSe
Al S
ĠHf Sc
20 89
20 123
20 717
20 937
ĠZr Ru
ĠNa CaTl
In Pt
In SnTe
In AlSb
ĠY Cu
ĠY Ru
ĠTe Ga
Fe NiAl
ĠNb RuSb
As Zn
ĠSr Ga
ĠZn SnSb
ĠZn GeRh
Ti Pt
Ti Sn
Ti Ir
Ti ZnAl
Ti CoGa
Pt Mn
10 82
10 281
10 025
10 214
10 6043
ĠK Cd
ĠCo Cl
ĠAg Mo
ĠAg SbTe
ĠAg SbS
Ga Ta
Ni CoGe
ĠFe Mo
ĠFe NiSb
Ge Zn
Sn Zn
12 10
12 39
12 826
12 635
Cu H
Cu Hf
Cu Pb
Rh Au
Rh Co
ĠRb Ge
Ag Sb
Ag Sc
Ag SbTe
ĠPb N
Hf W
Hf SiS
Hf RuSi
Zr Tc
54 17
ĠCd HgTe
67 36
11 18
11 59
11 14
11 13
11 549
11 713
11 829
43 16
96 3
08 4
08 7
08 8
ĠTl Ni
Co Mo
16 06
16 37
16 30
Bi Rb
Bi SbTe
Nb RuSb
Ca Rb
Ca PbSe
ĠCs CaCl
ĠCs PbCl
Na AlSi
Na CaTl
Cd Pt
15 19
15 670
Ta NbW
21 42
21 901
55 2
22 95
Sc PtGe
47 6
88 42
Hg As
Hg CdTe
06 4
86 20
Sr AlSi
02 8
Cr Sb
Cr AlGe
23 933
Mn Tc
25 6
25 78
83 12
19 968
73 72
97 21
Os N
Os W
24 809
59 21
Re Cl
64 42
84 4
29 973
Tc Mn
72 7
72 60
13 61
13 92
13 95
Rb Bi
41 40
49 0
91 47
32 758
32 884
32 630
99 96
99 46
37 60
17 80
27 52
27 164
27 335
26 54
26 42
120 32
120 179
120 3760
30 464
31 105
28 229
Cs Ag
110 73
110 18
110 60
110 1178
122 20
122 45
122 68
122 77
114 45
109 4140
233 04
1186 231
107 16
107 75
1216 505
1216 977
1216 128
1216 173
1216 242
1183 151
1183 969
ĠMoS Se
1079 112
1079 776
1079 438
1079 029
1079 832
1220 502
1220 426
1220 401
1215 524
1215 338
ĠNbGe Ru
569 857
569 594
569 727
102 76
ĠCdAs Pd
ĠTiTe Ru
867 169
867 909
567 505
1080 7
1187 433
1187 790
119 21
119 1483
1018 807
308 86
308 66
1217 093
1217 076
1223 755
1223 695
1223 860
1223 664
ĠWS Cl
112 37
112 38
1184 676
1184 058
570 451
ĠCh loride
ĠSbTe Pd
ĠZrSb Rh
ĠTeIn Hg
ĠClK Na
ĠTiP N
106 82
11869 26
11860 16
568 232
1025 229
1025 176
ĠAlP Pt
974 435
974 430
11847 66
115 66
12243 42
1229 090
973 983
973 143
865 960
305 81
WS Cl
105 6486
306 84
CaZn Sn
1077 232
12154 52
1189 0
1189 474
866 108
103 9147
1105 935
ĠAlSi Sr
307 87
505 297
1067 210
1009 641
1185 935
755 633
971 751
YAg Te
YAg Sn
1207 421
ZrRh Sb
11880 40
ĠScCd Rh
1209 191
104 41
CaAu Cd
12267 18
12267 41
209 87
1103 235
203 82
675 543
972 204
1096 802
291 74
291 79
989 5
12289 45
8653 82
216 0
216 81
ĠAlV Co
1227 206
1227 335
163 21
279 8
11879 20
CaPd Si
976 236
140 0
211 65
198 80
CaCu In
142 85
8673 17
10955 92
12189 24
980 109
12260 21
CaNi Ge
1104 898
643 0
12179 01
10252 71
10252 94
5710 30
12172 10
ĠCaZn Si
1190 672
504 425
12157 24
PdAu Zn
1214 857
10181 50
289 10
1199 934
288 85
288 79
825 7
8646 69
YZn Sn
12077 24
12244 85
SrCu P
12166 21
1208 239
10179 81
SrPd As
5696 28
5683 76
326 16
9896 13
8660 46
KNa Se
10788 67
12248 10
11029 19
557 096
240 2
680 576
12204 42
12204 41
5702 87
11007 66
TiRu Te
5715 55
5715 57
12170 09
10952 53
10796 00
5677 50
642 659
242 86
1198 803
NbMo Ni
8651 76
8626 21
12284 67
12188 75
1195 198
12270 03
10797 96
12068 93
11789 83
ĠZrSn Pd
ĠZnCd Au
5407 91
5425 87
10727 12
6750 22
10951 77
5544 05
2006 1
11902 74
10685 87
1056 438
9993 76
11004 12
11004 15
11049 26
11819 26
12264 41
12033 53
12033 24
12137 47
50552 7
991 544
9752 72
285 95
SK H
12181 77
5555 99
10777 23
12196 61
11837 10
182 54
646 824
6372 55
11906 54
121606 5
51009 9
6200 32
ĠCyan ogen
106043 5
6736 33
120179 0
1 473
2 699
2 932
2 757
3 1080
3 241
4 48
4 861
4 192
4 852
5 53
5 74
6 54
6 21
7 43
7 541
7 506
7 400
7 790
9 23
9 525
K Fe
K Sn
K Co
K SnS
K CdSb
K ZnAs
V C
V Zn
V Rh
V Ir
V Cr
W Mo
Y PS
Y NiAl
Y CoSn
Y IrGe
Y ScS
ĠC Re
ĠN Cu
ĠIn SnSe
ĠIn BiSe
ĠIn CuSe
ĠP Ta
ĠP Hg
ĠP Mn
ĠP MoP
âĤĤ âĤĥ
ĠPd Cr
ĠCa Co
ĠCa Mn
Al C
ĠHf TiSe
ĠNi In
ĠNi Ru
20 76
20 27
20 473
20 648
20 838
20 817
ĠGa H
ĠGa AgTe
ĠZr GeTe
ĠPt Tl
ĠNa Cu
ĠNa Nb
ĠNa Sr
In Al
In SbSe
ĠY Mn
ĠY AsSe
ĠCu AsS
Fe Sn
Fe Ir
Fe Bi
Fe Tc
Pd Rh
Pd TiSi
Si Ru
Si Pb
ĠNb WS
As C
As Pd
ĠSr CaPb
ĠSr CaS
ĠSc Cr
80 46
ĠZn HgTe
ĠSn Cr
ĠSn PS
ĠTa MoS
ĠTa InSe
ĠTa TiRu
Ti TaRu
Pt Cu
Pt GeSe
Pt AsP
10 20
10 05
10 5708
ĠK YCl
ĠGe K
ĠGe Al
ĠGe Cl
ĠAg SbSe
Ga Ni
Ga Hg
Ga GeTe
Ni Mn
Sb Sn
Sb Au
Sb BiSbTe
ĠAu PS
ĠCr Pd
12 82
12 58
12 87
12 110
12 109
12 136
12 657
12 627
12 12167
12 12187
Zn Te
Zn Ni
Zn Ag
Zn MnSe
ĠMn Y
ĠMn CoGe
Cu Tc
Rh Cu
Rh PS
Rh SbS
Rh ZrSn
ĠRb Zn
ĠRb MnAs
Ag Pd
Ag Si
Ag Pb
Ag Tl
Ag GaS
Ag GaTe
ĠBi PtCl
ĠIr S
ĠIr Hf
Hf CoP
Hf MnGe
Hf OsP
Hf MoAl
Zr Fe
Zr Nb
Zr Re
Zr GeTe
Zr TiSe
Zr PtAl
54 11
54 30
Au Si
Au Zr
Au PS
Au AgZn
11 69
11 714
11 693
11 598
42 61
ĠCl Zn
ĠTl V
ĠTl Pt
ĠTl Cu
Co NiAs
16 67
16 24
16 259
16 044
Mo Zn
69 73
Ir W
Ir Ni
Ir Cl
Ir Ta
85 02
85 81
Ru Fe
05 13
Bi Pd
Bi Zr
Bi Pb
Nb Os
Ca PtGe
Ca RhSn
Ca GaSn
50 49
ĠCs P
ĠCs V
ĠCs As
ĠCs Rb
Na Cu
Na Sr
Na TiS
Na InSe
Na AlGe
Na GaTe
Na FeAs
Na SbSn
Pb Si
Pb Sn
Pb GeTe
15 09
15 556
15 668
Ta Cu
Ta InSe
21 7
21 46
55 85
22 473
22 700
22 881
22 600
Sc Sb
Sc PtZn
Hg In
06 6
86 21
86 34
52 21
Sr CaZn
Sr CaPb
Sr ZrS
Sr CaS
Cr C
23 46
23 48
23 49
23 01
23 474
62 1624
70 67
Mn Sn
Mn Cl
Mn Cd
Mn NiAl
25 16
65 0513
74 46
Tl Ag
83 11
19 19
19 18
19 44
82 11
46 1
79 27
73 66
73 76
81 83
97 47
97 74
97 28
97 2337
60 4
60 1326
Os Pt
78 22
78 77
59 10
Re Pd
77 52
29 866
29 749
Tc Fe
Tc Cu
14 13
14 98
13 53
13 04
Rb P
Rb Ge
Rb Zn
Rb MnAs
41 7
63 9
92 68
32 679
99 8860
27 800
38 96
120 61
30 086
31 502
28 108
28 128
Cs Fe
Cs Cu
Cs SnCl
Cs AgCl
110 48
118 93
118 2146
ĠTiAl Co
122 52
122 65
122 1252
121 4261
109 09
ĠTiSi Ru
ĠNCa Tc
1186 230
107 8183
1216 894
1216 661
1183 503
1183 158
1183 173
1183 608
1079 042
1220 423
1220 663
1220 634
1220 636
1215 336
1215 331
1215 935
101 67
101 8652
569 175
569 886
ĠHfAl Pt
ĠAlCu Ni
ĠTiTe S
867 262
1080 463
1080 518
1187 124
1219 203
1219 799
119 59
119 49
119 1413
119 1353
ĠInSb Se
1018 809
1224 831
1224 402
1217 097
ĠNaSb Sn
1223 851
1223 831
1223 682
112 63
112 39
222 53
222 70
222 84
ĠZnP Pd
1188 829
1188 762
1188 890
570 690
570 062
570 801
1078 100
ĠTeGe Pb
ĠClK Pb
1007 923
106 8891
11869 23
108 46
108 77
568 671
1025 690
1025 185
ĠPSn P
10180 50
220 07
974 437
212 89
124 18
12243 18
ĠGeGe Ir
1229 165
1229 158
973 149
NiAs Se
865 503
127 83
ĠHNa Ca
117 65
862 694
862 604
12154 34
866 187
167 0
1105 799
ĠCdP Pd
AlSi Y
505 780
229 22
229 56
CoAs Se
YAg Ga
ĠYCd Ag
10786 43
10786 28
10253 48
1218 699
1218 336
1218 330
1206 072
1102 525
280 26
1180 0
1209 498
1103 749
203 11
977 162
1008 274
1008 632
1072 802
ĠInAg S
12289 53
12289 91
125 85
ĠSbSb Pd
216 13
163 58
8654 99
571 499
311 58
311 38
12153 15
CaPd Sb
CaPd Zn
CoP Se
247 8
247 47
211 34
211 99
283 24
ĠKSb Cl
11032 61
ĠMnZn Se
CaCu Sb
8627 11
8627 21
9989 85
12216 56
142 5
1228 938
1228 792
850 068
199 54
5716 64
313 47
1246 068
162 66
162 61
228 53
228 71
228 72
RuIr Al
RuIr Ga
CaNi In
5705 53
643 257
CaPt Sn
10252 58
CrFe As
1193 541
1193 856
5710 35
11040 54
12172 69
12172 93
12203 90
12203 91
ĠMnAl Ir
10181 54
1199 056
YIn Cu
ZrSi Al
12159 88
10954 91
10954 27
12077 53
10255 71
ĠSCs In
ScCu Si
11020 40
12247 90
12244 88
PtGa Zr
12164 46
1013 548
5683 45
9749 90
AuCu Zn
8616 56
8659 89
8659 90
1095 545
12290 31
ĠPCu P
8660 41
146 52
278 21
278 40
PtSi Se
11874 61
12155 33
ĠSP Rh
10780 49
293 42
309 33
680 570
706 8
11877 11
620 571
754 556
5702 76
5702 58
12063 62
12190 01
12199 22
12199 24
1222 586
5707 44
145 8
HfRu Ge
207 23
226 02
8656 81
10789 08
11840 21
11840 18
8619 08
11063 67
12274 63
10956 43
12238 20
185 61
12195 15
218 85
5418 44
5679 07
ĠAlGa Ir
1017 531
1157 8
11035 20
12275 67
12275 71
1196 393
IrRh Al
10259 05
10259 06
312 77
SbN Ca
SbN Sr
1194 073
12074 19
5105 21
1173 060
7846 31
181 67
10793 25
8678 16
562 100
1197 755
ĠTlP Pd
10792 69
ĠTiIn Pd
5048 25
178 80
696 805
5558 43
1101 813
10293 49
11910 26
10787 08
554 212
11875 91
9744 11
HgZn Te
5682 93
5681 86
11033 17
5406 25
8625 89
995 122
9986 05
11010 99
12139 59
12139 48
12088 37
12088 39
1021 498
11052 96
11024 41
12120 11
12054 93
11062 88
12240 05
11899 57
8663 75
8632 61
11027 43
11905 00
610 517
956 096
5417 88
11921 75
553 973
9525 66
ĠPMn NbP
105708 6
5430 01
8502 49
1 435
1 545
1 826
2 75
2 64
2 152
2 430
2 7533
3 59
3 1187
3 1219
3 668
5 81
5 101
5 213
5 744
5 817
7 02
7 829
7 433
7 859
8 96
9 10
9 45
9 41
9 48
9 463
9 251
C S
C As
K K
K Ge
K Rh
K SnSb
K CdAs
K AlTe
N In
P Os
V Ti
V CrSi
V MnAs
W Fe
W Mn
W Re
Y Os
Y ZnAl
Y CoAl
Y FeNi
Ġb oride
ĠIn Cu
ĠIn GeTe
ĠP Ru
ĠH Se
ĠTi SnPt
ĠTi CrS
ĠPd S
ĠPd PtAu
Al W
Al Zn
Al Cd
Al MoSi
ĠHf ScRh
ĠHf TiRu
ĠHf ScGe
20 67
20 56
20 39
20 196
20 108
20 935
20 479
20 436
ĠGa GePt
ĠSi SbPt
ĠSi SnPd
ĠZr NbAl
Se N
ĠNa Ca
ĠNa TiS
ĠNa CaAs
ĠSe POs
In Ge
In GeTe
In GaS
In GaTe
ĠTe V
ĠCu Rh
Fe H
Fe Cr
Fe Os
Fe CoAs
Fe CoS
Pd In
Pd NiSi
Pd AsSe
Pd AuSn
Pd ZrSn
Si Sn
ĠAs K
ĠAs Re
ĠAs GeAs
As Cl
ĠSr Ru
ĠSr PbS
ĠSr CaTl
80 45
ĠRh H
ĠSn Cd
ĠSn GeSe
Ti Ta
Ti MoS
Ti NiAs
Ti GeS
Ti RhSi
Ti CrS
Ti IrSi
Pt PdAu
10 97
10 849
10 457
ĠK Fe
ĠK Ti
ĠK Co
ĠK CaCl
ĠK SnSb
ĠGe Cr
ĠGe BiPd
ĠAg SnTe
ĠAg BiTe
Ga Rh
Ni Rh
Ni Os
ĠFe CoAs
ĠCr Fe
ĠCr SnRu
Ge Bi
Sn GeSe
12 44
12 1223
12 972
12 473
12 557
12 903
Zn CdSb
ĠMn Rh
ĠMn Co
ĠMn CdS
Cu InTe
Rh CoAs
Rh NiZn
ĠRb CaCl
Ag SnTe
Ag GaSe
NH S
ĠRu Ge
Hf V
Hf NiSb
Hf FeSb
Hf CoAl
Hf TiRu
Hf ReSi
Zr Pt
Zr Sb
Zr Co
Zr SnTe
Zr SiAs
Zr CuSn
Zr MnSi
Zr NbAl
Zr PdSi
Zr RuP
Zr PdGe
54 1582
Au N
Au Ga
Au GeAs
ĠCd Tl
ĠCd PbS
67 49
67 2194
11 471
11 401
33 45
33 333
96 80
07 0
07 1
Co NiSb
16 64
Ġ8 8
Mo Tc
Mo CrAs
69 80
Ir S
Ir Ga
Ir Os
Ir BiS
Ir SbAs
Ir CoAl
Ir NiZn
Ru SeS
Ru RhS
Ru CoGa
ĠHg Pb
ĠHg AsPd
Nb C
Nb Mn
Nb InSe
Nb NiAs
Nb MnSi
Ca NiGa
Ca GaAl
Ca AlH
50 66
ĠCs K
ĠCs Zn
ĠCs CdCl
Na Sn
Na Mo
Na Ca
Na InS
Na CuSe
Na CaAs
Na MnSb
Na ScCl
Cd Pd
Cd PbS
Cd AsP
Cd SnP
Cd GeP
ĠRe Y
15 89
15 72
15 895
15 777
15 656
15 679
Ta Co
Ta Tl
Ta Tc
Ta InS
Ta RhSi
Ta MoCo
Ta CrNi
Ta MoNi
21 673
21 547
21 863
55 71
55 5066
22 11
22 546
22 693
22 258
Sc AlGe
Sc OsGe
ĠTc Sb
71 12
71 73
86 196
40 21
Sr Y
Sr Si
Sr PbS
Sr CaTl
Sr VN
Cr Co
Cr MnAl
23 209
23 739
23 714
23 162
23 164
23 706
Mn H
Mn Ni
Mn ZnS
Mn CoGe
Mn FeSi
Mn CdS
89 76
89 91
65 07
Tl As
Tl Cu
Tl InCl
83 9
19 12
19 971
19 855
82 76
73 02
73 92
68 4
18 163
97 62
97 221
97 6847
Os Fe
Os Ir
Re W
Re Mn
64 44
64 6507
34 4
34 86
34 14
77 70
84 11
84 90
29 850
29 487
29 432
29 184
56 17
56 8619
76 86
76 32
14 983
14 434
72 1582
13 45
13 73
13 456
13 542
58 7
58 2067
Rb Fe
Rb Pb
Rb CoN
63 2693
92 89
87 53
ĠAlTi Fe
ĠAlTi Co
99 10
99 12
99 21
99 06
99 83
99 1900
99 1114
95 71
17 25
17 813
27 80
27 05
27 331
30 06
30 671
28 107
28 797
39 44
Cs N
Cs Zn
Cs SnS
Cs CdCl
110 37
110 5715
110 1867
110 1109
110 3414
ĠTiAl Pd
122 46
122 1007
122 6254
122 7112
114 82
109 11
109 7916
233 18
281 74
ĠTiSi Pd
1186 117
1186 374
107 07
107 85
ĠScSb Pt
1216 2
1216 166
1216 296
1216 460
1216 850
1216 501
1216 081
1216 290
1216 091
1216 056
1216 903
1183 5
1183 471
1183 547
1183 187
1183 490
1079 110
1079 228
1079 831
1220 675
1220 511
1220 748
1215 216
1215 678
1215 634
1215 689
569 196
569 678
569 516
867 308
867 928
867 292
867 264
567 545
567 871
1080 509
1080 677
1080 073
1080 561
1187 473
1187 531
1187 231
1187 701
1187 079
1187 427
1187 432
1219 132
1219 501
1219 928
1219 795
1219 926
119 16
119 1223
119 1025
119 8948
206 85
206 18
ĠTiGe S
1018 736
308 47
308 93
308 83
1224 108
1224 502
1224 972
1224 169
1224 173
1224 841
1217 114
1217 229
1217 228
1217 079
1217 089
1223 9
1223 828
1223 976
1223 834
1223 749
1223 791
1223 647
ĠScGa Rh
ĠCaSb Pd
1188 977
1188 158
570 670
1221 503
1221 714
1221 872
ĠScGe Rh
1078 107
1078 544
1078 257
1007 6
11869 02
ĠTiGa Ir
ĠTiGa Tc
11860 11
11860 14
204 08
568 544
1025 629
ĠSRu Rh
303 12
303 71
212 3
212 60
ĠSSn Pb
304 92
12243 71
12243 29
12243 95
12243 37
1225 166
1225 811
1225 993
1229 118
973 066
ĠTiZn Ni
ĠScIn Pt
865 093
305 74
105 21
105 64
166 08
ĠHfSi Ru
862 423
296 0
296 56
1077 935
1077 470
12154 48
12154 90
1189 202
1189 516
1189 774
866 219
866 805
866 062
167 70
103 79
1105 127
1105 163
ĠAlSi Mo
307 08
307 98
505 626
1067 7
1067 974
12180 19
12180 63
12180 26
123 83
755 988
573 891
971 739
971 737
971 836
YAg Al
202 89
10786 35
10253 66
10253 01
1218 856
1218 414
1206 699
1206 525
1206 157
1206 898
1206 884
1102 115
1102 436
1102 836
11880 03
280 24
280 29
221 71
1180 309
1209 130
310 81
11846 47
CaAu P
CaAu Bi
227 12
227 75
210 12
213 21
12267 54
12267 83
12267 68
12267 61
12267 36
209 70
ĠTaGa Ru
223 75
1103 248
685 941
ĠAsIn Ga
5708 58
972 119
ĠGaP Pd
1072 655
SrAu In
SrAu As
10799 46
12289 83
125 65
AsSe Ag
1227 698
1227 504
1227 558
8654 96
YPd Al
6722 89
12153 53
CaPd Sn
CaPd Cd
1247 199
247 22
169 11
BiS Cl
179 7
283 83
283 04
ĠZnCu Pt
8627 20
SrCd Ga
12216 69
12288 90
142 42
ĠHfNi Sn
1029 9
1029 420
1228 473
HfPd Si
850 131
850 049
8673 52
8673 19
1246 504
1246 556
12189 70
12189 77
12189 76
12189 94
980 936
1178 763
8649 16
849 081
TiMo Sb
5705 98
10142 52
10142 26
11867 68
12179 15
12179 23
336 18
1193 848
5710 21
11040 42
12172 72
1190 092
ScHf Ge
ScHf Rh
998 197
998 787
1205 641
12157 12
12157 29
1214 851
205 54
205 21
RuRh Ga
10779 15
10779 59
10779 44
10779 94
215 25
CaCd Pb
12171 91
12163 78
200 01
12159 33
12159 87
171 48
607 139
ĠSMn Zn
8646 54
12073 82
11043 88
10954 97
10954 64
153 22
1245 699
1226 096
1226 086
12077 82
1106 227
1106 162
SrPt Sn
11020 86
12247 96
12247 68
12244 96
12244 14
1063 938
SrCu As
12242 71
12164 53
12164 40
12166 12
12166 83
219 45
1208 223
11023 48
1013 558
276 47
YAu Al
232 69
12290 06
AgAl S
9720 42
12183 62
12183 29
KNa S
5680 20
5680 77
10788 13
12155 86
12155 75
12248 85
12248 23
10239 42
10239 53
10239 40
ĠSP Ru
10773 54
933 9
MoSi Hf
TiMn N
557 737
240 34
309 99
IrAs Te
5702 93
12063 74
11007 86
11021 67
12190 34
12082 20
12082 41
11871 97
145 1
145 88
176 39
YH Se
ĠPNb P
TiNi Cu
HfNi Sn
9854 42
10791 93
1094 107
8650 41
12167 84
8661 42
10789 96
HfRh Ge
1191 713
8626 55
11840 11
11840 05
11063 56
11036 08
12238 70
ĠHfZr Co
HfZr Co
ZrGe Sb
ScPt Sb
12188 35
5693 88
12195 12
12195 21
6971 35
241 54
ĠTeZn Hg
1068 446
1147 7
1147 714
8657 33
8657 79
8657 28
12214 42
ĠGaCu Ni
12102 46
8658 42
239 54
11028 40
10847 67
ĠAlGa Co
1071 862
6723 72
12065 91
12275 62
147 91
612 701
ĠHfSn Ru
556 225
12263 71
10951 85
312 63
1014 204
5429 09
1173 830
9616 85
9616 59
9616 87
11907 73
12388 78
5416 56
5688 66
9985 61
11049 56
10793 99
5713 42
5713 70
623 089
1197 660
6419 24
8637 50
11022 85
11022 68
12233 82
12152 68
10240 69
12465 09
301 75
616 204
SrNi In
12250 04
12261 20
8677 81
10787 09
1052 7
11875 12
1212 435
6849 03
9752 75
6049 08
6049 14
135 12
11896 96
358 69
ĠTiSn Rh
6762 84
8625 86
1357 2
9986 01
12078 43
12280 15
12280 32
11912 85
11912 56
ZrW Cr
12087 21
12181 10
277 69
6726 45
1201 758
11039 84
12200 09
924 128
9902 32
12217 20
5412 36
6751 20
237 05
6308 75
10263 56
10187 22
10258 74
10703 56
245 17
9769 30
10287 62
10667 18
10621 53
12469 57
5050 02
342 92
TiPt Sn
1113 233
9721 20
12268 21
10775 99
10682 86
11890 54
12136 42
5585 52
9747 90
11949 87
359 5
5101 33
5744 85
5817 16
ĠInCu Pd
ĠHSe Y
ĠAsGeAs Au
1097 859
121223 1
5571 79
97221 7
8490 67
5617 10
0 80
0 08
1 431
2 977
2 701
3 43
3 15
3 18
3 464
3 504
3 648
3 479
3 432
3 927
4 678
4 628
4 404
4 500
5 88
5 103
5 168
6 628
6 693
7 85
7 64
7 544
7 421
7 429
7 792
7 524
7 234
7 084
8 19
9 54
9 70
9 673
9 538
9 225
9 248
K V
K Ti
K Cu
K SbSe
K AlCl
K NbCl
P P
P Ca
V Sn
V Mo
V MoAs
W FeP
Y Tc
Y CuS
Y AuSn
Y ReN
Y PtP
h l
m ite
s ium
Ġc hl
or ate
ĠC Ni
ĠS AsPt
ri dy
ĠN W
ĠN Cl
ĠN PCa
ĠIn CuTe
ĠIn SiPt
ĠIn CuPt
ĠP u
ĠP ot
ĠP VS
ĠT ridy
ĠTi VSe
ĠTi VRe
ĠPd K
ĠPd Y
ĠCa ZrRh
ĠCa MnSi
ĠHf SeS
ĠHf ZrS
ĠHf ScSi
ĠHf ScOs
ĠNi H
ĠNi Cl
20 79
20 133
20 938
20 139
20 545
20 791
20 792
20 257
20 536
20 868
20 552
ĠGa SiRu
ĠSi SnPt
ĠZr Co
ĠZr Os
ĠZr RuSb
ĠZr TiN
ĠNa FeN
ĠSe Ir
ĠSe SnPt
ĠSe PRh
In Si
In Ni
In Ru
In Hg
ĠY Cr
ĠCu Ge
ĠCu AgTe
Fe MnGe
Fe MoSi
Pd HfSn
Pd NiGe
ĠAs Mn
ĠAs ReNi
ĠNb WSe
ĠNb CrN
As Bi
ĠV H
ĠV CrFe
ĠV SnRu
ĠSr Ni
ĠSr Co
ĠSr GaSi
ĠSr CuGe
ĠSc NiSb
ĠSc TaRu
ĠSc VRu
80 91
ĠZn SnP
ĠZn CdS
ĠRh Sr
ĠSn GeTe
ĠSb Mn
ĠTa WS
Ti TeSe
Ti PtGe
Ti ZnGa
Ti MnSi
Ti VRe
ĠMo NbW
Pt SnS
Pt SbSe
Pt CdAs
Pt PdBi
Pt PdZn
10 81
10 305
10 977
10 165
10 163
10 164
10 456
10 939
ĠK Rb
ĠK SnS
ĠK RbCl
ĠK NbCl
ĠCo H
ĠCo NiAs
ĠAg CuTe
ĠAg BiS
Ga Nb
Ga PS
Ni Mo
Ni Ca
Sb RuZr
Ge Os
Sn Mo
12 53
12 38
12 464
12 115
12 675
12 857
12 659
12 674
Zn Ti
Zn Cr
Zn Tl
Zn Re
Zn SnP
ĠMn Fe
ĠMn Cd
Cu Os
Cu AsTe
Rh Ag
Rh AsSe
Rh BiS
Rh CoS
Rh SbAs
Rh PSe
Rh PtCd
Rh AuZn
ĠRb NH
Ag Ge
Ag Rh
Ag CuTe
Ag TlS
ĠBi Zr
ĠRu H
ĠRu Cl
ĠPb Ni
Hf CuAl
Hf CoAs
Hf PtGe
Hf ZnAl
Hf RuSb
Hf WSi
Hf VP
Zr Zn
Zr RuSi
Zr OsSi
Zr CrFe
Zr TiCr
Zr IrAs
Zr TiAu
Zr CuSi
Zr TiN
Zr NbP
Zr AlCo
Zr VCo
54 22
54 86
54 23
54 14
54 13
54 1558
Au S
67 54
67 60
67 63
67 44
67 27
11 730
11 111
11 541
11 501
11 928
11 144
11 438
11 824
11 537
11 687
43 9
43 70
96 22
96 59
07 5
42 47
42 76
ĠCl H
ĠTl Ti
ĠTl SiPt
Co Fe
Co Nb
Co Cr
Co Os
Co NiGa
Co MnSb
16 08
16 84
16 49
16 304
16 852
16 930
Mo Pt
Mo NbW
53 50
69 75
69 59
69 84
Ir N
Ir SbS
Ir AsSe
Ir CoGa
Ir MnSb
Ru W
Ru Au
Ru Co
Ru SbSe
Ru NiAl
Ru CoAl
Bi InS
ĠHg GaCl
Nb In
Nb InS
Nb FeSi
Nb PSe
Nb CoAl
Nb CrN
Nb VSi
Ca N
Ca Ga
Ca Mo
Ca ZrRh
Ca MnSi
Ca MnSb
Ca MoN
50 54
50 47
50 65
ĠCs N
ĠCs Ti
ĠCs Cd
ĠCs Cr
Na Rb
Na AlH
Na AlTe
Na FeN
Na AlSe
Na ZnSb
Cd Tl
Cd ZnS
Cd GeAs
as sium
15 81
15 514
15 226
Ta CoP
Ta FeSi
Ta CoSb
Ta NbMo
21 88
21 459
55 81
55 63
22 10
22 45
22 304
22 717
22 529
Sc V
Sc NiSb
Sc CuGa
Sc CuSe
Sc TaRu
Sc CoSn
Sc MnGe
Sc PtSi
Sc NiGe
Sc VRu
88 13
ĠTc N
Hg Ge
Hg GaCl
06 1
06 13
86 05
86 233
86 484
86 4840
52 8
40 22
Sr Fe
Sr Co
Sr RhIn
Cr W
Cr WN
Cr ZrAl
ĠOs H
23 229
23 539
23 289
23 290
62 1581
Mn In
Mn Bi
Mn RhSi
Mn CuSe
Mn ZnN
Tl V
Tl Si
Tl Zn
Tl Cd
Tl BiSe
75 81
75 76
83 08
82 88
82 77
46 67
73 65
81 47
57 69
68 76
97 5065
97 6876
60 1253
ĠL ow
Os H
Os Cu
Os Zr
Os SbTe
Os NiAl
24 54
24 47
78 4
Re Zn
29 570
29 828
29 139
29 678
29 811
14 62
13 573
13 140
13 962
Rb K
Rb N
Rb NH
Rb Sr
Rb AlH
Rb CaAs
Rb KCl
41 20
48 22
49 53
63 9910
63 9659
87 69
91 45
32 74
32 76
32 861
99 42
99 16
36 18
37 091
17 291
17 094
17 401
98 2188
27 82
27 60
27 898
27 814
27 666
120 07
120 2105
120 8973
120 8308
30 19
30 326
30 028
31 67
31 459
31 457
31 456
28 15
28 126
28 759
28 201
28 424
28 704
Cs K
Cs V
Cs Ti
Cs Bi
Cs Cd
Cs Cr
Cs GaS
Cs AuCl
Cs NaSe
Cs NaS
110 47
110 186
110 484
110 180
110 1258
ĠTiAl Fe
ĠTiAl Ru
122 66
122 1198
122 8288
121 8262
121 8620
109 91
109 4021
281 12
1186 162
107 0613
1216 167
1216 310
1216 699
1216 698
1216 437
1216 457
1216 430
1216 648
1216 072
1216 178
1216 193
1183 938
1183 155
1183 042
1183 516
1183 640
1183 654
1079 862
1079 155
1079 546
1079 278
1079 718
1079 080
1220 541
1220 322
1220 335
1220 099
1220 492
1220 458
1220 587
1215 979
1215 676
1215 804
1215 776
1215 663
1215 600
1215 811
1215 234
1215 726
1215 639
ĠZrSi Ru
101 54
101 75
101 8657
569 167
569 881
569 060
569 523
569 954
ĠHfAl Rh
102 88
ĠCdAs Pt
ĠAlSc Cu
ĠAlSc Au
ĠSeIn Cu
867 137
867 331
867 173
867 851
867 335
867 330
867 897
867 761
567 860
567 883
ĠZnAs Pt
ĠBiTe Pd
ĠBiTe Ir
ĠPdSn Hf
1080 233
1080 452
1080 760
1187 098
1187 152
1187 434
1187 713
1187 429
1187 238
1187 470
1187 703
1187 738
ĠSrP Pt
1219 296
1219 478
1219 423
1219 259
1219 258
1219 339
1219 226
1219 535
1219 237
ĠAlNb Ru
119 8091
119 5769
ĠTiGe Pt
ĠTiGe Rh
308 26
1224 464
1224 559
1224 900
1224 498
1224 915
1224 886
1224 860
1224 859
1224 091
ĠCoSb Rh
ĠCoSb Ta
1217 202
1217 291
1217 094
1217 087
1223 802
1223 857
1223 835
1223 993
ĠYGa Rh
ĠSIn Ag
ĠSrSi Ge
222 40
ĠYAg Sn
1184 180
1184 055
ĠZnP Pt
1188 102
1188 208
1188 292
1188 318
570 008
ĠYIn Cu
ĠAsTe Rh
1221 101
1221 780
ĠSbTe Rh
ĠNaBi Se
ĠGaTe S
1078 464
1078 776
ĠSeBi Pd
ĠSeBi Ir
ĠYSn Rh
ĠSBi Rh
ĠTaTe Cl
ĠTeBi Pd
ĠTeBi Ir
106 8813
11869 53
ĠTiGa Fe
ĠTiGa Ru
204 19
108 43
108 73
108 78
ĠGaAs P
568 483
568 402
1025 218
CaSi N
ĠInAs Pd
ĠSrIn Hg
ĠSK V
ĠCaTl Cl
11847 54
212 73
212 35
304 93
124 54
115 15
115 65
115 60
12243 85
12243 06
12243 93
12243 24
12243 77
12243 91
12243 36
12243 31
1225 7
1225 224
1225 835
1225 892
1229 208
ĠRuSb Hf
973 1
973 769
ĠTiZn Ga
ĠTiZn Rh
865 717
865 651
305 55
305 93
305 92
ĠZrGe Ru
105 96
306 66
ĠHfSi Se
862 791
296 62
296 18
296 39
ĠScCu Se
136 82
1077 814
12154 12
12154 29
12154 76
12154 87
12154 00
ĠPY Pt
1189 978
1189 791
1189 871
1189 764
866 132
866 156
866 155
167 40
103 81
1105 850
1105 851
1105 859
ĠAlSi Ru
ĠCdP Cl
AlSi P
CuAl Se
505 5
505 531
505 822
979 1
979 414
ĠCaSn Hg
156 52
ĠZrAs Ir
12180 55
12180 22
12180 73
12180 64
12180 41
12180 35
ĠSiFe Ru
1120 730
1009 657
123 60
229 09
202 68
1207 169
186 54
186 48
10253 11
10253 47
10253 70
10253 24
10253 59
10253 29
10253 56
1218 960
1218 931
1218 415
1218 334
1206 544
1206 829
1206 529
1206 058
1102 101
1102 531
1102 732
11880 04
11880 51
280 06
221 67
ĠReN Cl
ĠHfZn Pd
1209 818
1209 161
1209 061
11846 11
CaAu As
210 21
210 48
210 27
ĠPTi P
213 52
213 40
213 74
213 01
8655 69
8655 85
8655 86
8655 18
8655 60
8655 91
12267 31
ĠSrZn Ge
ĠSNb Cu
223 09
223 96
1103 098
1103 213
1103 091
203 89
203 78
ĠYBi Pd
675 977
972 866
ĠZrZn Rh
1008 680
1008 624
1008 626
NaHg NaSn
ĠInAg Se
12289 06
12289 73
11845 60
216 59
163 17
8654 85
8654 48
274 67
571 103
571 406
YPd Sn
YPd Bi
672 661
214 09
311 71
ĠCuSi Rh
12153 07
12153 82
12153 46
12153 57
12153 78
11879 16
CuGa Se
SrZn Ge
139 11
975 079
ĠSeMn Cu
ĠMnSb Ir
169 45
140 1
211 18
179 85
283 2
283 47
198 77
11032 43
11032 93
CaCu As
8627 78
695 850
SrCd Ge
SrCd Pb
12216 24
12216 92
12288 10
12288 45
12288 29
1029 330
1029 860
1228 807
HfPd Al
199 53
199 15
8673 56
313 81
10955 53
10955 94
1246 460
1246 856
CaHg Pb
12053 42
12053 21
12189 55
12189 51
980 1
1178 678
8649 53
849 086
12067 90
ĠSeCo Ni
ĠYZn Si
TiMo Re
PbTe PbS
12260 09
12260 11
12260 14
12260 36
985 6
ĠTiNi Sn
PtZn Pt
PtZn AsPt
164 97
10142 30
11207 80
643 9
643 651
643 022
CaPt Cd
11867 66
12179 67
12179 02
12179 89
12179 79
10252 93
10252 79
10252 72
10252 48
YCu Si
YCu As
ĠSAl Zn
ĠSAl Mo
10804 69
10804 89
HfPt Si
1193 756
1193 748
1193 415
11040 00
12203 67
12203 47
12203 23
1190 041
NaAu Se
NaAu In
ScHf Si
ScHf Os
998 151
998 155
ĠMnAl V
289 16
289 45
289 97
205 65
1199 938
1199 930
10779 79
10795 82
208 79
ĠTeSb Pd
ĠTeSb Rh
ĠTeSb Ru
SrGe Si
978 532
131 47
12171 80
12171 40
12171 95
9813 68
ZrSi Se
TaFe Al
607 437
607 475
8646 50
12066 35
12073 94
11043 34
10954 42
YZn Si
nc m
1245 896
1226 121
1226 106
1226 456
CaSn N
12077 07
12077 88
12077 76
ĠNbZn Ru
157 24
SrPt P
SrPt Tl
138 76
11020 41
11020 30
12247 89
12247 65
12247 84
12247 98
12244 80
12244 81
5703 55
ĠHK S
SrCu Ge
12164 81
12166 40
12166 81
RbAu Se
1208 730
1208 335
11023 95
12173 25
12173 57
12173 60
1013 526
1013 525
1013 550
1013 588
HfSi Se
SrPd Cd
SrPd Tl
5696 62
9749 43
8616 62
8616 04
231 74
YAu Ga
8659 16
8659 29
8659 28
1095 628
1095 057
9896 51
12290 08
12290 19
183 88
12273 22
12273 13
12183 27
12183 28
11796 93
TiCr Tc
RhAs Te
11874 20
11874 18
11874 97
10788 25
10788 73
10788 84
10788 95
11834 50
12155 79
PdAg Hf
10780 12
10780 86
MoSi Zr
12070 22
11029 26
293 09
293 71
293 79
864 898
864 671
12193 12
12193 22
12193 28
10774 53
309 79
706 6
ĠNCr Ni
9722 41
11877 05
11877 25
754 628
754 064
8623 65
8623 79
6847 44
12063 79
10953 96
12190 16
1084 4
1084 838
CaAg P
12082 73
12170 20
10796 95
10796 35
5677 69
5677 47
TiNi Sn
5712 63
9773 53
ĠMnGa Rh
8650 01
242 87
ĠGaFe Ru
ĠTeMn Cd
8622 64
8656 15
8661 70
10789 73
1191 862
8651 93
8651 45
8651 44
11840 30
542 537
MoRh P
863 757
11030 46
12274 18
10956 07
185 62
ĠHfZr Tc
HfZr Tc
5424 86
ScPt Sn
11842 29
12188 12
12188 89
ĠNbMo W
ĠZnIn Pd
6971 44
1019 077
1019 052
1068 464
5418 75
1147 754
9775 82
12270 33
12270 45
10797 29
5679 20
ĠGaCu Pd
ĠGaCu Rh
ĠVGe Ru
8658 78
6287 66
12009 72
10874 97
10874 87
ĠZnCd Pt
1069 824
1069 841
1071 955
225 65
12057 84
CsGa H
11019 43
11019 50
11035 12
ĠNNa Ta
1027 687
1196 514
1192 151
11031 50
12269 39
12263 75
10951 76
10259 25
ĠSeGa Mo
ĠVGa Ru
ĠVGa Os
12160 33
12160 05
5690 12
1066 232
1066 445
HfCr Ge
1173 513
11056 47
12215 09
12287 24
11907 74
12388 47
12388 25
181 32
287 68
1213 092
1213 703
5416 09
5416 89
5416 87
600 125
11049 74
8678 78
5713 83
562 726
ĠTiCr Tc
1006 118
1002 106
CuP N
12033 38
12249 08
12249 13
10784 69
10969 50
ĠTiIn Rh
ĠTiIn Au
12137 62
8652 32
8637 07
9847 61
12285 62
12152 70
12152 75
10240 67
12465 21
12465 17
178 48
380 11
760 381
846 8
12250 22
12250 13
11830 05
8677 75
11025 20
11875 11
640 159
1061 769
6049 10
6363 68
262 6
ZrCr Co
6753 25
6762 50
6762 41
294 19
995 201
12078 93
12090 47
11010 75
11922 66
272 55
329 13
1024 050
5567 12
5587 62
SrCa Ge
11050 44
12278 71
277 55
ĠHfIn Cu
1021 494
5555 69
8624 85
5709 20
11039 56
12177 63
10777 22
924 130
12120 52
12054 22
11062 45
12221 67
12221 81
10782 42
ĠCdHg Pd
12085 90
11041 20
12182 73
10296 33
10263 62
10187 09
12474 50
580 930
667 294
BiN Sr
9845 50
11044 06
12185 58
12169 06
6432 60
10214 65
11829 52
6442 80
12032 53
11060 22
10716 45
10807 71
6430 05
621 348
ZrNb Fe
5411 49
9774 43
12265 14
86196 1
684 969
9762 57
6444 83
12246 42
10707 55
11835 12
11477 09
343 37
5103 21
6693 87
PP Mn
Ġchl orate
ĠPot assium
ĠTridy mite
PtCdAs Pt
10939 91
12115 89
5422 39
6760 38
6763 29
6727 06
CoCr Ta
6975 75
5581 10
5563 95
86484 4
110186 0
110484 1
110180 9
0 062
1 50
1 714
2 66
3 862
3 1207
3 999
3 804
3 772
3 663
3 529
3 797
3 8605
4 08
4 49
4 978
4 656
4 824
4 076
5 97
5 84
5 122
5 100
5 166
5 1008
5 549
5 749
5 157
5 818
5 881
5 339
5 190
5 10285
6 11
6 02
6 105
6 695
7 78
7 434
7 437
7 529
7 295
8 43
8 15
8 70
8 422
8 539
8 435
8 543
8 799
8 190
9 22
9 82
9 04
9 44
9 437
9 295
H N
H Pd
K CrS
K NaCl
K AuTe
K YTe
K ZnP
K GaS
K MnP
K SnAs
K InTe
K PbBi
K YCl
K GaH
K YS
K AuS
P Sn
S C
V Fe
V Sb
V CoP
V FeP
V CrP
W NiP
W FeSi
Y Ge
Y Sc
Y CoGe
Y NiGa
Y RhSi
Y CuTe
Y CoSi
Y CuGa
Y PtSi
Y NiBi
Y ScFe
Y ZrSb
b eta
ĠC ri
ĠC Fe
ĠC Co
st ob
ĠN Sb
ĠIn Mo
ĠIn GaS
ĠIn GaP
ĠIn FeRh
ĠAl GaAs
ĠAl GaSb
ĠTi C
ĠTi V
ĠTi Zr
ĠTi NiSb
ĠTi VN
ĠTi VTc
ĠTi VH
ĠPd Cs
ĠPd PS
ĠCa Y
ĠCa Ga
ĠCa GaSi
ĠCa YPt
Al In
Al Ga
Al Ag
Al Ru
ĠHf V
ĠHf Fe
ĠHf ScRu
ĠNi Mo
20 422
20 744
20 661
20 235
ĠB oron
ĠSi CoSi
ĠZr Ti
ĠZr Nb
ĠZr TiS
ĠPt Hg
ĠNa Mo
ĠNa SrAu
ĠNa FeAs
ĠNa CaPb
ĠNa SnN
ĠSe Ta
In SnSe
In PbCl
In SbS
In BiSe
In GaP
ĠY Fe
ĠY Ni
ĠY Sc
ĠY CuSi
ĠY ScFe
ĠTe W
ĠTe Al
ĠTe HfCu
ĠTe TaCu
Fe In
Fe Zr
Fe NiAs
Fe SbTe
Fe GaGe
Fe TiP
Fe NiGe
Fe NbSb
Pd Ga
Pd Ru
Pd PS
Pd SbS
Pd NiTe
Pd ZrAl
Si N
Si Pd
Si Rh
Si Os
ĠNb W
ĠNb Cu
ĠNb InS
ĠNb CoTe
As Tl
ĠV CuRh
ĠSr GaGe
ĠSr PdSn
ĠSr CaIn
Te Bi
ĠSc Os
ĠSc CoTe
ĠSc TiRu
ĠSc TaOs
80 16
80 62
80 17
ĠZn Ru
ĠZn TeSe
ĠZn HgSe
ĠZn SiRh
ĠSn PbS
ĠSn PbSe
ĠTa Tc
ĠTa InS
ĠTa TiAl
ĠTa TiMn
ĠTa FeRu
Ti Nb
Ti NiSi
Ti CrSi
Ti OsSi
Ti MnP
Ti FeAs
Ti VN
Ti TeS
Ti VTc
Ti VH
Ti VAl
Ti TaMn
Ti NbRe
Pt Pt
Pt Hg
Pt MnGa
Pt MnSb
10 34
10 32
10 166
10 699
10 895
10 137
10 697
10 435
10 749
10 207
10 899
10 763
10 887
ĠK Cu
ĠK Nb
ĠK NaCl
ĠK YTe
ĠK MnP
ĠK SnAs
ĠK YS
ĠAg BiSe
Ga V
Ga Zr
Ga Ru
Ga Os
Ga Tc
Ni In
Ni MoP
Ni TiSb
ĠFe NiAs
ĠCr FeAs
Ge C
Ge Ca
Sn In
Sn Cu
Sn Rh
Sn Hf
Sn NbS
Sn HfS
12 37
12 31
12 116
12 472
12 1216
12 433
12 537
12 798
12 11046
12 962
Zn Au
Zn PS
ĠMn Bi
ĠMn SbPt
ĠMn ZnS
ĠMn NiSb
ĠMn CoSb
ĠMn RhSb
ĠMn CuPt
ĠMn SnPd
Cu W
Cu Ag
Cu SbS
Cu CrS
Cu ScS
09 95
Rh Pt
Rh GeTe
Rh BiSe
Rh AuCd
Rh PdZn
Rh TiSn
ĠRb N
ĠRb Co
ĠRb SnCl
Ag N
ĠBi Ni
ĠBi Cl
ĠPb SnS
Hf Te
Hf GeS
Hf CoSi
Hf TiSe
Hf CoSn
Hf CrGa
Hf VGe
ĠE ss
Zr Pd
Zr Mo
Zr Ir
Zr Mn
Zr NiAs
Zr TiPd
Zr CuGa
Zr FeSi
Zr MnP
Zr PtSi
Zr MnGa
Zr MnFe
Zr CrMn
Zr VNi
Zr CoBi
Zr VMo
54 43
54 96
54 08
54 75
54 233
54 247
54 1487
Au P
Au Se
Au Ge
Au CuSn
ĠCd Zr
ĠCd Bi
67 67
67 43
67 59
67 95
67 6398
11 567
11 977
11 504
11 12173
11 430
11 966
11 400
11 13512
43 64
33 90
96 93
96 82
96 34
96 90
96 167
08 69
ĠTl InCl
ĠTl CuCl
ĠTl HPd
Co Re
Co PS
Co SeS
Co NiS
Co NiP
Co CrSi
Co VSb
16 34
16 889
16 090
16 225
16 234
Ġ8 2
Mo Ga
Mo Sb
Mo AlGe
53 42
53 18
69 54
69 33
69 26
Ir Pt
Ir PS
Ir MnGe
85 07
Ru Pd
Ru Cu
Ru NiSb
Ru AsSe
Ru OsSi
Ru PtGa
ĠHg Pt
ĠHg PS
ĠHg PPt
Nb PS
Nb WS
Nb PtGe
Nb CoSi
Nb CuGa
Nb CoTe
Nb CoSb
Nb IrGe
Nb MoSi
Nb MoAl
Nb VCr
Ca Ge
Ca Ru
Ca CuGa
Ca GaSi
Ca MnGe
Ca YPt
Ca GaH
50 45
ĠCs SnCl
Na SbTe
Na CrS
Na SrAu
Na CuTe
Na CdAs
Na AuTe
Na SrP
Na ZnP
Na CaH
Na SrAs
Na CaPb
Na TaN
Na SnN
ĠRe Ti
ĠRe Sc
Pb C
Pb In
Pb SnSe
Pb HfS
15 51
15 868
15 651
Ta MoS
Ta NiAs
Ta CoGe
Ta RuSi
Ta CoSi
Ta MnSi
Ta PtSi
21 336
21 491
55 18
55 28
55 9634
22 96
22 233
22 204
22 152
22 731
22 444
22 332
22 631
Sc H
Sc Al
Sc Ti
Sc Re
Sc AgZn
Sc NiAl
Sc CoTe
Sc CuSn
Sc TiRu
Sc TaOs
Sc CrMn
47 55
47 71
47 62
47 73
47 44
47 28
88 54
71 91
71 94
Hg Al
Hg Cr
Hg PS
Hg ZnSe
86 11
86 45
86 5680
52 44
52 38
40 42
40 25
40 26
Sr Sc
Sr NiSi
Sr PtGe
Sr PdSn
Sr PdH
Sr CaIn
Sr AgAl
Sr CrN
Sr AgAs
Sr AgP
Cr CuS
Cr CoSi
Cr CoP
Cr MnP
Cr HfSi
ĠOs Nb
23 186
93 05
93 91
62 5
Mn CoAl
Mn RhSb
25 65
74 1
Tl H
Tl N
Tl Fe
Tl InS
Tl GaSe
Tl CuCl
Tl AlSe
83 89
83 00
19 955
19 850
19 804
19 851
19 791
19 787
19 728
46 8
79 09
79 08
79 18
79 29
73 78
73 61
81 67
81 82
57 82
57 29
57 1216
57 289
57 2758
57 4025
18 670
97 33
97 2187
97 8854
60 3
60 1823
Os Co
Os SbS
Os AsSe
Os IrAl
24 4
59 0
Re S
Re Co
64 90
64 94
34 9
34 69
34 81
34 41
77 85
77 71
29 8
29 84
29 44
29 136
29 861
29 889
29 198
29 187
29 091
56 3
56 21
56 8661
76 43
76 42
Tc Mo
14 69
14 557
14 500
14 086
72 80
72 21
13 464
13 203
13 555
13 094
Rb Cr
Rb SbS
Rb SnCl
Rb FeS
Rb InTe
Rb CuCl
Rb NaS
Rb KS
41 72
48 46
49 55
90 40
63 2403
63 2686
63 7194
61 7291
61 8991
92 64
87 25
87 65
ĠAlTi Cu
91 73
32 45
99 48
99 8147
95 80
95 69
95 86
95 79
35 53
36 50
36 02
37 08
37 808
ene ite
17 74
17 538
17 701
17 835
17 964
17 801
98 43
27 628
27 471
27 532
27 241
120 98
120 307
120 8629
120 0062
120 1034
120 1774
30 108
30 092
30 460
30 676
30 437
30 424
30 461
31 125
31 460
31 438
31 451
28 717
28 859
Cs CuS
Cs AlTe
Cs NaTe
110 08
110 5702
110 1887
110 1173
110 0995
ĠAlAl Ag
118 1237
ĠTiAl Os
122 6323
122 8611
121 4042
114 41
109 6795
116 09
ĠPP Pd
ĠTiSi Os
1186 222
1186 140
1186 185
1186 887
107 1032
107 0869
107 2944
1216 867
1216 567
1216 571
1216 678
1216 169
1216 677
1216 427
1216 641
1216 687
1216 135
1216 927
1216 495
1216 245
1216 439
1216 563
1183 571
1183 460
1183 541
1183 232
1183 634
1183 218
1183 586
1183 148
1079 999
1079 224
1079 679
1079 726
1079 842
ĠVSi Ru
ĠVSi Os
1220 472
1220 700
1220 670
1220 676
1220 695
1220 795
1220 348
1220 436
1220 475
1220 598
1220 883
1220 148
1220 476
1220 743
1220 597
1220 944
1215 568
1215 296
1215 221
1215 279
1215 659
1215 290
1215 240
1215 751
1215 928
1215 339
1215 529
1215 757
1215 168
1215 286
1215 513
1215 552
101 88
569 983
569 310
569 151
569 247
569 978
569 511
569 408
ĠSnS Se
ĠHfAl Cu
102 86
102 9771
102 7273
102 9733
ĠAlCu Pd
ĠHTi V
ĠHfGa Ru
ĠSnSe S
867 109
867 281
867 117
867 216
867 179
867 249
867 792
867 168
567 6
567 114
567 749
567 197
567 082
567 330
1080 204
1080 693
1080 667
ĠCdAg Au
1187 694
1187 430
1187 731
1187 431
1187 095
1187 097
1219 015
1219 249
1219 262
1219 442
ĠSiSi Ni
119 33
119 44
119 2507
119 1954
119 1589
119 4773
119 2984
ĠInSb As
ĠCoZr Bi
308 51
308 64
308 34
1224 544
1224 092
1224 850
1224 985
1224 430
1224 897
1224 451
1224 425
1224 528
ĠGeSe N
ĠSnHf S
1217 109
1217 214
1217 151
1217 205
1217 791
1217 251
1217 891
1217 088
ĠNaSb Te
1223 813
1223 673
1223 510
1223 818
1223 754
1223 642
1223 561
1223 844
1223 581
ĠZrGa Ru
ĠHfGe Ru
112 85
112 52
ĠNbGa Os
ĠScGa Ir
222 11
222 16
222 55
222 89
222 75
222 87
ĠYAg S
ĠYAg Se
1184 829
1184 870
ĠZnP S
1188 693
570 452
ĠZrIn Rh
ĠYIn Rh
ĠYIn Ag
1221 102
1221 502
1221 125
1221 549
1221 673
1221 454
1221 436
ĠNaBi S
ĠNaBi Te
SnS Se
ĠGaTe Cl
ĠScSn Rh
100 33
100 46
100 1017
1078 938
1078 739
1078 155
1078 782
1078 547
1078 751
1078 756
1078 963
ĠCoNb Sb
ĠSeBi Rh
PS Os
ĠNbAl Os
ĠFeSi W
ĠFeSi Tc
106 8300
106 8167
11869 51
11869 56
11869 92
11869 44
11869 38
132 75
11860 69
108 76
ĠGaAs Pd
568 121
1025 222
1025 167
1025 203
1025 191
1025 799
1025 161
1025 689
ĠNiY Bi
ĠTeSn Pb
ĠScAl Co
ĠSTi Cu
10180 85
10180 22
10180 76
ĠNaIn Pd
ĠNaIn Hg
ĠYAl Ag
974 682
11847 21
11847 57
304 10
124 55
SrSn P
12243 86
12243 66
12243 46
12243 76
12243 72
12243 58
12243 17
12243 26
ĠInP Pd
ĠVCo Sb
1225 119
1225 125
1225 998
1225 897
1225 810
1229 167
1229 060
973 434
973 904
ĠTaAl Fe
ĠTaAl Ru
ĠTiZn Co
ĠScIn Pd
ĠScIn Rh
ĠNTa Zn
865 121
865 100
865 124
865 128
865 504
865 791
865 809
865 649
865 656
865 930
865 898
865 506
865 051
865 931
865 664
305 23
305 95
306 62
ĠHNa Pd
117 8620
862 699
862 546
862 790
862 630
CaZn Ge
296 07
296 23
296 92
ĠYGe Pt
136 54
1077 240
1077 939
12154 23
12154 62
12154 66
12154 91
1189 212
1189 177
1189 099
1189 272
1189 265
866 163
866 094
866 051
866 161
866 088
167 65
167 63
1105 802
1105 749
ĠTlS Cl
CuAl Te
307 22
307 97
505 804
505 333
ĠPIn Ga
983 602
1067 6
1067 236
12180 42
12180 52
12180 02
12180 34
12180 49
12180 87
12180 37
12180 31
12180 28
KHg Sb
1120 1
1120 2
1120 803
123 59
123 9173
1185 931
1185 995
229 14
229 41
971 754
YAg S
YAg Sb
202 55
202 79
1207 627
1207 079
1207 428
1207 784
186 60
1023 939
10253 85
10253 71
10253 86
10253 02
10253 75
10253 46
1218 103
1218 938
1218 961
1218 804
1218 858
1206 129
1206 863
1206 858
1206 424
1102 834
1102 545
1102 524
1102 534
1102 631
1102 458
1102 844
ĠNFe Mo
ZrRh P
ZrRh Ga
11880 09
11880 19
11880 59
11880 77
280 80
280 22
280 90
221 47
221 30
ĠHfZn Cu
310 11
310 72
11846 84
ĠTiMo P
227 22
213 65
8655 07
TiPd Ga
TiPd Zn
209 52
223 15
1103 227
1103 826
1103 787
685 050
675 124
675 531
675 930
675 830
972 895
972 777
ĠCuSn Pd
111 76
977 204
977 543
ĠZrZn Pt
ĠZrZn Ni
ĠZrZn Ir
ĠSnP Pt
TiAl Au
TiAl Cr
SrAu P
10799 51
989 401
159 85
ĠInAg Au
ĠAgP Pd
ĠAgP Pt
12289 10
12289 88
12289 00
999 052
11845 67
11845 94
216 22
ĠAlV Ni
ĠAlV Mn
1227 422
1227 503
1227 695
1227 717
1227 421
1227 096
1227 330
8654 42
8654 41
8654 90
8654 87
8654 94
274 88
274 62
274 49
571 534
YPd In
YPd Ga
279 0
279 16
279 47
311 53
12153 05
12153 02
12153 66
12153 84
12153 98
NiAl Hf
11879 21
11879 22
ĠTiNb N
ĠTiNb Re
129 51
1247 422
CuGa S
CuGa Cl
555 805
SrZn Sn
SrZn Bi
976 190
976 184
975 140
975 144
ĠSeZn Hg
676 437
179 84
283 91
198 33
198 85
11032 80
GaAl As
GaAl Sb
SnP Se
CaCu Bi
GaSe GaS
SrCd Sn
SrCd Bi
9743 81
9743 41
12216 43
12216 42
12216 19
12216 41
12288 91
12288 95
WSe Te
1029 531
1029 532
1029 799
1029 838
1029 506
1029 491
1029 334
1228 691
1228 126
1228 701
1228 438
1228 194
5716 09
10955 22
10955 75
10955 73
1246 430
1246 060
1246 073
1179 173
12053 92
12189 12
12189 09
12189 15
12189 52
980 949
980 948
YRh Ga
YRh Ge
8649 80
8649 47
8649 88
8649 89
8649 91
849 082
849 073
849 084
TiMo P
TiMo As
162 60
162 63
5706 66
12260 54
12260 67
12260 06
12260 17
12260 30
985 782
164 93
164 81
1104 139
1104 663
1104 097
643 273
643 697
643 702
CaPt Al
11867 59
12179 10
12179 90
12179 00
10252 82
10252 91
273 94
ĠFeNb Sb
336 83
10804 67
HfPt Al
HfPt Ga
1193 899
1193 594
11040 24
12172 42
12172 70
12203 96
12203 66
12203 74
12203 18
12203 77
12203 29
12203 58
504 498
ScHf Ru
998 156
998 421
998 732
1205 800
1205 965
1205 841
12157 33
12157 21
1214 099
ĠMnAl Ru
158 96
134 9
134 46
ĠCaCd Au
205 33
1070 152
1070 099
1070 483
10779 50
10795 08
215 7
215 08
215 77
208 46
131 46
12171 85
12171 71
12171 93
12163 54
12163 47
288 43
288 42
288 84
288 32
9813 12
9813 65
9813 79
9813 77
9813 56
GaTe Cl
TaFe P
12159 42
12159 45
12159 18
12159 14
12159 49
171 74
607 230
607 818
KSb Cl
8646 07
130 20
12066 00
11043 66
11043 78
11043 77
10954 65
ĠCrSi Ru
1245 808
1245 633
1245 927
1245 848
1226 104
1226 236
1226 089
1226 072
1226 064
12077 27
10255 50
10255 86
10255 75
10255 73
10255 87
297 70
ĠCuSb Rh
ĠNbZn Co
180 93
180 03
282 42
11020 11
12247 70
12244 08
12244 46
5703 51
ĠSbAl Ga
SrCu Sb
11878 76
12242 50
12242 47
12242 18
12164 50
12166 80
ĠCaBi Au
1208 228
1208 235
11023 42
11023 24
12173 19
ĠCaIn Pd
FeAs Te
1013 555
1013 554
197 47
197 40
5683 94
5683 28
276 30
NbPd Si
NbRh P
8616 41
231 76
ĠVZn Rh
8659 14
8659 48
1095 502
1095 673
9729 07
9729 57
9729 14
183 05
183 61
ĠScZn Pt
ĠScZn Au
8660 10
12273 20
12273 80
12273 54
12273 46
12273 56
12273 00
12183 80
12183 67
12183 42
12183 79
12183 59
12183 84
634 676
11017 53
11017 89
11017 65
11874 19
11874 91
11834 53
11834 62
12155 64
10800 33
12248 22
12248 71
12248 19
5426 42
5426 14
10780 08
10780 79
10773 83
10773 51
290 35
12070 15
11029 25
11029 45
11029 24
293 62
293 76
293 87
ĠAsAl Ga
864 857
864 939
864 651
864 839
12193 80
12193 23
12193 56
10774 48
309 08
309 52
309 38
309 31
680 850
677 105
9722 24
9722 38
11877 16
11877 71
12204 53
12204 69
12204 55
12204 83
12204 18
754 434
1087 479
IrP Te
8623 11
8623 66
8623 74
8623 64
8623 00
6847 31
12063 65
11007 79
11007 81
11007 95
11872 11
11872 52
11872 45
10953 69
10953 72
12199 54
ĠSiH S
NaBi Te
12170 16
12170 15
12170 39
176 50
642 8
642 735
642 190
669 311
9773 47
9773 82
9773 84
9773 63
443 1
1094 106
1094 108
1094 105
1094 079
ĠMnGa Fe
ĠMnGa Ir
8650 10
8650 45
8650 26
8650 30
12167 67
12167 34
12167 99
207 08
207 40
674 456
1198 114
8622 88
8622 57
8656 54
8656 53
8656 50
10913 90
AlCu Ti
AlCu Sc
TiFe Al
CuSi Ti
HfRh Ga
1191 100
1191 422
NbRu P
8651 67
8651 78
8626 02
8626 23
12284 54
12284 43
201 47
ĠSrCd Hg
5552 80
863 744
8619 50
8619 40
8619 83
9716 69
11036 42
11036 05
11036 18
11030 31
12238 42
314 06
314 81
ĠHfZr N
HfZr N
5424 49
5685 01
12188 65
5693 91
ĠZnIn Rh
5698 23
1019 279
1019 087
1068 157
1068 239
1068 746
1147 666
CoN Cs
TaRh Ge
8657 68
12270 42
12270 14
10797 52
10797 68
5674 85
12214 85
YPt In
YPt Sn
TaTe Cl
TaGe Si
8658 76
12068 54
12068 49
11028 33
12237 33
12237 81
10847 70
10847 75
10874 85
ĠAlGa Ru
ĠZrSn Rh
1069 139
1071 127
5407 73
225 80
248 22
12065 10
12065 50
11019 83
11019 82
11019 48
12275 12
12275 74
11832 46
10250 45
ĠNNa Si
ĠHfSn Rh
HfMo Sb
6750 09
1192 706
11031 76
11031 72
12263 09
12263 02
10951 48
10259 88
312 34
ĠCoSn Rh
RhV As
RhV Sb
1194 113
1194 660
12062 67
12062 42
12074 14
12074 17
CsAu S
12160 21
12160 45
12160 01
5690 37
11902 62
286 10
ĠSGa Ni
TiW Mo
TiW Mn
TiW Re
10136 43
9616 53
11056 54
12215 10
181 48
181 39
287 66
287 73
287 60
605 735
605 028
YIr Ga
1213 692
1213 976
1213 756
8662 96
8662 21
8662 84
5688 32
5689 40
9985 12
9985 67
11004 17
11026 50
8678 42
8678 21
5713 77
984 872
AsN Sr
1006 888
ĠCrGa Fe
1197 212
6907 72
8679 16
11909 50
11909 15
11908 80
11908 66
12249 51
12249 44
10784 11
10784 19
12137 54
6765 86
8652 78
11022 88
11022 84
12233 11
12233 78
12233 13
10240 48
696 983
ĠVSb Rh
11830 38
10293 87
8677 53
8677 68
10787 67
554 304
560 538
10705 57
9799 10
5104 09
640 041
991 434
1212 110
ZrAu Ga
ĠCdIn Pd
8629 11
135 83
11033 10
11033 46
11057 75
5406 87
6753 10
6753 74
294 65
12015 66
11010 92
12280 43
12262 48
12262 49
11912 80
10698 11
5587 06
5587 60
12084 09
11046 86
11046 04
12213 96
12213 19
ĠHfIn Au
1028 749
6726 89
8624 46
11052 94
11024 52
12200 04
11943 90
271 81
271 78
ĠZrCd Pd
ĠZrCd Ag
ZnSi N
632 502
12240 20
12196 45
10782 74
11899 16
5412 89
6755 76
6751 32
1111 151
8663 76
8632 50
637 052
637 251
6308 51
12085 54
11041 33
12182 72
12187 08
12474 19
10703 75
302 53
446 8
580 234
ĠHgP Pd
9769 20
11045 54
11843 68
11843 18
12147 84
12147 94
10287 55
11940 30
11940 03
11829 50
6442 29
12032 83
11018 85
11060 20
12220 92
12245 98
12277 88
10716 23
10276 45
10807 15
574 169
574 138
9728 76
12061 10
12061 77
11893 42
12252 90
TiTa Al
6749 84
7686 80
9912 96
9983 24
11037 24
12162 52
11916 25
12239 86
10299 59
10977 09
12464 96
5423 87
6744 93
11928 16
6959 98
5054 67
5047 72
9916 56
12266 87
10288 23
12454 45
12257 86
5055 15
6439 12
51008 6
5549 93
5818 33
6105 22
6695 66
7529 47
982 443
YGe Sn
ĠCri stob
10699 56
10137 60
10697 06
10207 12
121216 1
ĠEss eneite
ZrMo Fe
5408 84
54233 3
54247 5
6767 99
11966 50
96167 8
5045 64
ScRe Ge
57289 2
6490 33
6494 19
120307 3
ĠCristob alite
0 53
0 21
0 04
2 54
2 473
2 8660
2 8658
3 96
3 52
3 65
3 84
3 72
3 015
3 1220
3 1018
3 422
3 103
3 159
3 657
3 791
3 934
3 830
3 299
3 732
4 50
4 152
4 131
4 474
4 160
4 668
4 962
5 85
5 75
5 106
5 862
5 129
5 151
5 545
5 745
5 756
5 748
6 09
6 19
6 127
6 166
6 549
6 16481
7 11
7 07
7 21
7 73
7 116
7 657
7 430
7 881
7 077
7 436
7 432
7 883
7 794
7 070
8 78
8 77
8 117
8 966
8 965
8 432
9 67
9 96
9 21
9 14
9 124
9 961
9 900
9 868
9 12418
H V
K NH
K SnSe
K CuTe
K GaSb
K AlH
K SiH
K MnTe
K NbSe
K CuCl
K TcCl
K CaBi
N V
P VS
S PS
S CuS
V Cl
V CoAs
V CoGe
V CoSi
V CrFe
V RuSb
V NiGe
V CrAs
W Co
Y Bi
Y Cr
Y Mn
Y RuSi
Y AlGe
Y CrFe
Y MnGe
Y ZrS
Y ZrFe
c a
e ight
ĠC ub
ĠS MnAl
ĠN CuGe
ĠIn SiTe
ĠAl CN
ĠAl GaN
âĤĦ âĤģ
ĠTi FeSb
ĠTi CrAs
ĠTi MnRh
ĠPd Pb
ĠCa Mo
ĠCa CoSi
ĠCa GaN
ĠCa MnS
Al K
Al Ti
Al Hf
Al Os
ĠHf Cl
ĠHf Mn
ĠHf Tc
ĠHf TaRu
ĠHf TaV
ĠHf NbTc
ĠNi Sn
20 152
20 730
20 227
20 199
20 331
20 793
20 146
20 145
20 144
20 832
20 790
20 244
ĠB ain
ĠGa Ge
ĠGa Sr
ĠGa SiNi
ĠGa AgSe
ĠSi AgPt
ĠZr Tc
ĠZr FeSb
ĠPt SeS
Se Rb
ĠNa Fe
ĠNa CrS
ĠNa SnP
ĠNa MnSe
ĠNa SrHg
ĠNa YS
In V
In PS
In SiTe
In AlSe
ĠY CuSe
ĠY CrFe
ĠY ZrS
ĠY ScS
ĠY ZrFe
ĠTe Hf
ĠTe Mo
ĠCu Cd
Fe Mn
Fe NiS
Fe SbS
Fe NiSe
Fe CoSi
Fe NiP
Fe AsS
Fe CoGa
Fe TiH
Fe MoP
Pd SnTe
Pd AsS
Pd TlPb
Pd MnTe
Si Mo
ĠNb InSe
ĠNb CrS
ĠNb FeTe
ĠNb CrSe
ĠNb SnRu
ĠNb VRe
ĠNb InRu
ĠV Cu
ĠV Cl
ĠSr Fe
ĠSr CuSi
ĠSc H
ĠSc Ti
ĠSc Co
ĠSc ReTc
ĠSc MnRh
80 53
ĠZn HgS
ĠZn SnRh
ĠRh Ca
ĠSn Mo
ĠSn Pb
ĠSb Cr
ĠTa Fe
ĠTa Cr
ĠTa SeS
ĠTa RhTe
ĠTa TiTe
ĠTa SnRu
ĠTa InRu
Ti CuS
Ti CoSi
Ti FeSi
Ti PtGa
Ti RuAs
Ti OsP
Ti MnAs
Ti VSe
Ti PtSi
Ti NiGe
Ti OsGe
Ti GeSb
Ti VP
Pt N
Pt SnTe
Pt BiSe
Pt BiSb
10 47
10 098
10 304
10 866
10 223
10 226
10 898
10 748
10 428
ĠK ZnAs
ĠK MnTe
ĠGe Zn
ĠCo Fe
ĠCo NiSe
ĠAg SnSe
ĠAg PdAu
Ga Fe
Ga Hf
Ni Ti
Ni Cu
Ni FeSi
Ni AuSn
Ni HfSi
Ni MnSb
ĠFe Ca
ĠFe Tc
ĠAu Cs
ĠCr MoV
Ge W
Sn GeTe
12 30
12 119
12 106
12 125
12 460
12 678
12 731
12 12193
12 759
12 10229
Zn C
Zn SiP
ĠMn Cr
ĠMn FeSi
ĠMn CoSn
Cu Fe
Cu Ni
Cu Bi
Cu SbSe
Cu AsS
Cu NbTe
Cu YSe
Rh Ni
Rh Sr
Rh AsS
Rh PtZn
Rh BiTe
ĠRb Tl
ĠRb MnP
Ag Ir
Ag Ru
Ag SnSe
Ag AsS
ĠPb Sb
ĠPb Ge
Hf Cl
Hf GeTe
Hf SeS
Hf MnAl
Hf TaRu
Hf OsSi
Hf CrAl
Hf ZrS
Hf ZnN
Hf TiFe
Hf TaV
Hf NbTc
Zr Ti
Zr PbS
Zr GeS
Zr CoSi
Zr TaFe
Zr FeSb
Zr RuAs
Zr TiRh
Zr IrAl
Zr NiGe
Zr TiMn
Zr NiBi
Zr MoGe
Zr OsGe
Zr CuGe
Zr VP
54 05
54 21
54 81
54 1062
Au As
Au CuSe
Au SiP
ĠCd PS
ĠCd SnTe
ĠCd AlCl
ĠCd HgSe
67 57
67 24
67 56
67 17
67 569
11 37
11 113
11 938
11 164
11 639
43 66
33 12
96 35
96 1652
42 53
42 52
42 81
42 59
ĠTl AsPt
Co H
Co CuS
Co NiSe
Co NiAl
Co MoP
Co FeGe
16 21
16 961
16 226
16 029
16 236
Mo Mn
Mo Tl
Mo CoP
Mo FeAs
Mo MnAs
53 05
53 04
53 76
53 72
69 16
69 79
69 81
69 03
Ir H
Ir Ag
Ir SbSe
Ir CuZn
Ru H
Ru Ag
Ru Cl
Ru SbS
Ru NiGa
Ru PdAl
Bi Au
Bi Cl
ĠHg TeSe
Nb Ir
Nb PbS
Nb SeS
Nb NiSi
Nb CrS
Nb IrSi
Nb PtSi
Nb NiGe
Nb CrP
Nb GeAs
Nb CrGa
Nb FeTe
Nb CrSe
Nb VRe
Nb CrGe
Nb VP
Nb VNi
Nb VCo
Ca Y
Ca CoSi
Ca HfS
Ca GaN
Ca AgAl
Ca ZrS
Ca CrN
Ca MnS
ĠCs Co
ĠCs MnAs
ĠCs MnSe
ĠCs MnTe
Na Fe
Na PS
Na NbS
Na SnP
Na AgCd
Na MnP
Na ZnAs
Na MnSe
Na ZnN
Na SrHg
Na YS
Cd C
Cd H
Cd Ge
Cd Os
Cd PS
Cd SnSb
Cd SnTe
Cd SiAs
Cd PSe
Cd AlCl
ĠRe Si
ĠRe Hf
Pb Ga
Pb Sb
Pb Au
Pb PS
Pb GeS
15 11
15 27
15 120
15 121
15 687
15 071
Ta PS
Ta WS
Ta CuS
Ta NiTe
Ta MnGe
Ta IrSi
Ta RhTe
Ta CrP
Ta WFe
21 893
21 851
21 965
21 883
55 89
55 73
55 7643
55 6916
22 227
22 209
22 426
22 662
22 792
22 897
22 295
22 855
Sc Co
Sc NiSi
Sc NiP
Sc CoP
Sc PdSn
Sc IrGe
Sc CoAl
Sc IrSi
Sc TlTe
Sc TaN
Sc TlS
Sc TlSe
Sc ReTc
Sc MnRh
Sc MoTc
47 21
47 63
47 30
88 43
88 29
71 87
Hg Pd
Hg ZnS
06 63
86 18
86 48
86 30
86 5707
52 7
52 57
52 51
40 13
Sr Ag
Sr Zr
Sr Mn
Sr AlGe
Sr AlH
Sr CuSn
Sr ReN
Sr HfN
Sr MnN
Sr GaH
Sr AgBi
Cr Cu
Cr Bi
Cr Re
Cr CoAs
Cr GaSe
Cr MnSi
Cr ZnN
Cr MoV
Cr CoPt
23 82
23 97
23 27
23 026
23 697
23 827
23 949
23 860
23 059
23 499
62 43
62 53
70 38
Mn Re
Mn NiP
Mn CoSn
Mn IrSi
25 96
25 89
89 52
89 29
65 6253
74 20
74 94
Tl Co
Tl PS
Tl SbTe
Tl GaTe
75 62
19 797
19 824
19 746
82 21
82 49
46 12
45 16
45 73
45 60
45 78
45 72
79 06
79 40
79 97
73 64
73 63
81 70
57 1215
57 2596
68 6717
68 4560
18 49
18 127
18 474
97 63
97 6724
60 186
60 4516
Os Au
Os Cd
Os SbSe
Os AsP
Os AsS
Os AsTe
24 428
78 23
59 9
59 18
59 29
Re Pt
34 1
34 98
34 127
34 169
34 126
77 73
77 81
84 46
84 41
29 49
29 568
29 111
29 163
29 484
29 809
29 529
29 073
29 841
29 462
29 072
29 736
29 476
56 8880
56 1258
56 1511
56 0663
76 08
76 39
Tc PdAl
ĠU pper
14 435
14 444
14 624
72 63
13 11
13 74
13 68
13 133
13 202
13 097
13 160
13 963
Rb Tl
Rb InS
Rb CuSe
Rb CaH
Rb MnP
Rb TlCl
Rb GeCl
49 22
49 97
90 10
90 07
90 6903
61 7
61 77
61 8929
61 4572
92 52
92 70
92 66
87 12
44 52
ĠAlTi Ni
91 53
91 7343
32 47
32 780
99 52
99 87
35 152
35 746
36 23
37 85
37 40
17 092
17 228
17 892
17 625
98 5304
27 62
27 124
27 549
27 829
27 826
27 664
015 5
26 62
120 64
120 279
120 9823
120 7598
120 9946
120 8257
120 3241
120 3422
120 1230
120 4281
120 8952
120 8170
120 7608
120 9153
120 2662
30 208
30 094
31 471
31 339
28 800
28 695
28 731
28 256
Cs Rb
Cs InSe
Cs BiS
Cs PSe
Cs MnAs
Cs AlCl
Cs TiCl
Cs MnSe
Cs MnTe
Cs CrCl
Cs TaSe
110 55
110 452
110 570
110 296
110 5693
110 1055
110 5558
110 1606
110 1621
110 6177
ĠTiS Cl
118 11
118 22
118 73
118 1094
122 1139
122 1137
122 7997
109 5683
116 21
ĠNCa Si
1186 233
1186 124
1186 123
107 55
107 6973
107 6981
107 2382
107 2589
ĠScSb Ru
1216 464
1216 222
1216 503
1216 210
1216 247
1216 179
1216 079
1216 176
1216 348
1216 463
1216 029
1216 666
1216 451
1216 601
1216 078
1216 883
1216 267
1216 184
1216 017
1216 913
1216 963
1216 349
ĠTaNi Te
1183 464
1183 167
1183 837
1183 607
1183 191
1183 135
1183 458
1183 728
1183 468
1183 617
1079 167
1079 559
1079 772
1079 542
1079 860
1079 048
1079 075
ĠVSi Tc
ĠNiTe Se
1220 110
1220 525
1220 522
1220 669
1220 083
1220 523
1220 586
1220 742
1220 696
1220 594
1220 689
1220 599
1215 955
1215 573
1215 700
1215 188
1215 208
1215 627
1215 180
1215 230
1215 662
1215 517
1215 295
1215 506
1215 817
1215 937
1215 872
1215 194
1215 298
1215 609
101 8658
101 7553
101 7632
569 204
569 532
569 436
569 344
ĠHfAl Ir
ĠHfAl Ru
102 61
102 6980
102 8441
ĠAlCu Rh
ĠSeNa Pt
ĠAlSc Ni
ĠAlSc Ag
ĠSeIn Ag
ĠZrAl Rh
ĠCaP Pt
ĠSCu Pt
ĠSCu Ni
867 0
867 110
867 156
867 203
867 850
867 149
867 751
867 799
867 242
867 327
867 787
867 475
867 507
ĠTaSi Se
567 1
567 817
567 927
567 931
1080 835
1080 424
1080 624
1080 056
1080 495
1080 646
1080 049
1080 815
1187 209
1187 208
1187 718
1187 939
1187 225
1187 424
1187 704
1187 068
1219 472
1219 145
1219 939
1219 787
1219 050
1219 003
1219 488
1219 266
1219 527
ĠSZn Hg
ĠNbSe S
119 58
119 1078
119 1953
119 1118
119 1527
119 5257
119 2397
119 8712
1018 116
1018 806
1018 726
1224 121
1224 867
1224 865
1224 862
1224 983
1224 691
1224 473
1224 484
1224 893
1224 980
1224 834
1224 978
1224 540
1224 536
1224 863
1224 401
1224 495
1217 224
1217 126
1217 024
1217 162
1217 935
1217 096
1217 794
1223 955
1223 971
1223 932
1223 400
1223 807
1223 584
ĠSeCs Sb
ĠZrGa Pd
ĠHfGe Te
ĠZnAg Pd
ĠMnSi Ru
ĠScGa Ru
222 62
222 68
ĠYAg Te
1184 118
1184 104
1184 678
1184 548
1188 531
1188 435
1188 542
1188 445
1188 987
1188 761
570 122
570 112
ĠZrIn Pt
ĠZrIn Cu
ĠZrIn Co
ĠYIn Pd
1221 675
1221 672
1221 935
1221 776
1221 731
1221 824
1221 787
1221 534
1221 742
1221 789
1221 495
1221 948
1221 843
ĠSiP Au
1078 114
1078 104
1078 231
1078 168
1078 965
1078 483
ĠCrTa N
ĠZrSb Ru
1007 685
ĠTeBi Rh
106 8053
106 4013
11869 54
11869 42
11869 85
11869 50
11869 52
11869 57
11869 58
11869 35
11869 39
ĠAlGe Sr
11860 05
11860 06
11860 04
11860 01
ĠSTl V
ĠSiTi Co
ĠPAg SnP
568 100
568 476
568 450
568 711
1025 678
1025 331
1025 649
1025 187
1025 787
1025 190
1025 728
ĠIb ca
ĠAlAs Pt
TiS Cl
113 50
303 11
303 47
303 61
ĠCdSb Au
10180 21
ĠNaIn Ag
ĠCaAg Hg
ĠYAl Co
220 18
220 29
220 56
212 48
ĠNiZn Sb
304 65
124 6243
115 83
ĠAuCu Se
SrSn N
12243 21
12243 89
12243 64
12243 56
12243 03
1225 169
1225 183
1225 731
1225 059
1225 141
1225 654
1225 967
1229 023
1229 000
1229 062
973 100
973 666
973 053
ĠNiZr Bi
ĠTaAl Os
ĠTiZn Pd
ĠTiZn Au
ĠTiZn Ir
ĠHgTe S
ĠNTa Cr
NiAs S
865 730
865 895
865 531
865 094
865 538
865 079
865 600
865 807
127 81
SrIn Al
305 96
305 57
305 98
105 54
105 33
133 12
133 11
133 14
133 13
306 52
306 59
306 58
306 44
ĠHfSi Te
ĠWP Cl
117 68
862 473
862 695
862 787
862 704
862 703
862 629
ĠMnPd Te
296 16
296 58
136 85
136 86
ĠSiN Cl
1077 746
1077 883
12154 20
12154 16
12154 55
12154 47
12154 75
12154 60
12154 84
12154 03
1189 932
1189 171
1189 988
1189 520
1189 075
866 117
866 168
866 141
866 160
103 07
103 71
103 68
103 59
103 0155
1105 077
1105 097
ĠAlSi Te
ĠCdP Se
ĠCdP Pt
AlSi Te
307 8
ĠAlMn Ni
ĠAlMn Co
505 278
505 511
505 622
979 4
979 7
ĠCaSn Rh
ĠSeCd Hg
1067 5
1067 925
12180 08
12180 62
12180 90
12180 61
12180 39
12180 03
KHg As
1120 763
1009 152
1009 130
1009 581
123 2302
1185 546
1185 970
755 263
573 523
573 721
971 891
971 914
YAg Ge
202 42
1207 127
1207 714
1207 717
1207 799
1207 090
1207 095
1207 855
1207 736
10786 21
10786 45
186 09
186 42
1023 2
152 21
152 72
10253 53
10253 22
10253 06
10253 18
10253 44
1218 117
1218 850
1218 857
1218 331
1218 424
1218 548
1218 256
1206 152
1206 500
1206 679
1102 693
1102 532
1102 658
1102 855
1102 537
1102 687
1102 603
11880 20
11880 15
11880 66
11880 79
280 69
280 19
ĠHfZn N
ĠHfZn Au
1209 111
1209 241
1209 089
310 55
ĠNAl Ti
ĠTiCu S
104 12
104 69
104 45
104 8662
NaIn Te
11846 20
11846 12
11846 15
CaAu Ga
CaAu Sb
CaAu Ge
227 21
227 25
861 935
210 96
210 69
210 40
213 16
213 71
8655 23
12267 40
12267 29
12267 87
ĠSrZn In
ĠTaGa Fe
223 02
223 00
1103 555
1103 434
1103 545
1103 160
1103 728
685 605
203 93
203 95
ĠYBi Pt
675 628
675 801
5708 63
5708 37
972 884
1096 927
977 115
977 541
977 435
977 545
977 426
977 427
291 75
ĠGaP Pt
1008 728
SrAu Si
989 576
NiSe Te
12289 09
12289 08
12289 22
12289 18
12289 13
999 136
999 576
11845 88
11845 73
11845 68
216 62
216 25
ĠSiV Co
1227 426
1227 436
1227 051
163 56
8654 86
8654 62
8654 65
8654 72
274 55
571 310
571 203
571 471
571 424
571 537
571 461
6722 65
214 40
214 13
279 10
279 97
279 04
311 69
12153 85
12153 71
12153 06
12153 40
12153 23
12153 74
12153 18
12153 24
12153 72
12153 27
11879 11
11879 26
ĠTiNb Cr
8647 15
8647 88
1247 331
1247 185
1247 428
1247 004
224 83
224 18
SrZn In
SrZn Cl
SrZn Pb
139 23
975 897
MnAl Ti
211 31
179 10
179 26
283 40
126 62
198 10
GaAl N
ĠMnZn Pd
ĠMnZn Ni
ĠMnZn Ir
CaCu P
8627 12
8627 15
8627 23
ĠVRu Sb
9743 95
12216 06
12216 62
12216 89
12216 64
12216 29
12216 32
12288 93
12288 66
12288 94
142 66
1029 4
1029 479
1029 719
1029 811
1029 256
1029 878
1228 158
1228 745
1228 192
1228 436
1228 801
HfPd Sb
199 06
199 46
199 41
8673 62
8673 45
313 63
10955 07
10955 63
1246 059
1246 877
1179 5
1179 970
12053 43
12053 90
12189 54
12189 17
980 200
980 749
980 665
980 193
YRh Zn
8649 09
8649 85
8649 74
8649 51
8649 49
162 46
162 45
228 11
12260 19
12260 13
12260 48
12260 37
985 699
CaNi N
1104 117
1104 129
1104 155
1104 965
1104 141
1104 194
10142 51
11207 33
643 279
643 706
ĠSeCu Pd
CaPt P
CaPt As
11867 61
12179 83
12179 59
10252 20
10252 69
10252 70
10252 81
10252 63
10252 35
10252 36
273 69
273 61
YCu P
YCu Sn
FeS P
CrFe P
CrFe Ge
10804 66
ĠTaZn Ru
128 43
1193 568
1193 199
1193 021
1193 575
5710 33
5710 16
11040 27
12172 53
12172 85
12172 86
12172 83
12172 60
12203 42
12203 69
12203 93
1190 098
1190 141
504 838
559 204
137 40
998 713
1205 828
1205 978
1205 964
1205 741
12157 09
12157 50
12157 15
PdAu Cu
PdAu Pb
1214 809
ĠMnAl Rh
ĠMnAl Os
697 076
158 42
134 48
289 22
289 41
205 11
205 86
1070 151
1199 518
10779 80
10779 96
10779 03
215 98
12171 75
12171 46
12171 78
12171 72
12171 32
12171 37
12163 97
170 48
288 88
288 65
288 60
288 77
1057 785
TaFe Ge
644 431
12159 07
12159 15
171 85
171 86
AuCd Sb
8646 35
12066 38
12073 65
12073 59
12073 41
10954 40
10954 19
153 58
YZn Ge
1245 971
1245 698
1245 673
1245 538
1245 642
1245 855
1245 537
1245 785
1226 111
1226 130
1226 432
1226 070
12077 08
12077 28
1106 121
10255 57
297 52
297 40
ĠNbZn Rh
SrPt Si
SrPt Cd
627 601
180 59
180 26
282 83
282 78
ScCu Zn
11020 06
11020 73
12247 16
12247 25
12247 92
12247 91
12247 03
12244 55
12244 66
12244 18
12244 48
ĠSbAl In
SrCu Si
12242 75
12242 82
12242 44
RbAu S
1208 205
1208 195
1208 217
11023 07
11023 73
12173 50
12173 81
12173 14
5673 94
ĠCaIn Cu
ĠCaIn Ag
1013 900
HfSi Te
SrPd Si
197 65
NbRh Ge
8616 26
YAu Ge
ĠVZn Ru
TiRh Ge
230 33
230 05
230 34
510 458
1095 128
1095 504
1095 536
1095 201
9896 11
9896 47
9896 45
9896 17
12290 11
183 02
183 65
183 83
793 0
793 7
1133 8
8660 12
12273 51
12273 64
12183 72
12183 49
780 6
ReN Cl
5680 32
11017 71
11874 44
10788 60
11834 54
11834 93
12155 54
12248 75
10239 25
5426 13
10780 54
10780 64
10780 26
662 549
933 0
649 479
290 69
293 74
293 81
TiMn Rh
557 523
864 831
864 835
864 966
CrAs TiAs
12193 93
10774 40
309 71
680 339
706 272
11877 07
11877 06
12204 88
12204 13
754 850
1087 238
8623 60
8623 72
12063 50
12063 97
11872 40
10953 97
12190 09
12199 70
ĠTeNb Cu
1084 8
1222 206
1222 504
CaAg Pb
CaAg Hg
756 473
5707 69
5715 18
9833 62
12082 43
12082 65
12082 48
12082 61
12082 87
12170 40
10952 47
10952 40
10796 43
10796 23
176 67
5712 62
5711 47
5711 62
9773 67
9773 71
9773 56
12165 66
1094 098
ĠCrCo Pt
ĠMnGa Pd
8650 48
8650 27
12167 65
12167 75
12167 24
12167 64
12167 41
909 802
ĠGaFe Co
ĠVFe Ru
ZnN Ni
8622 56
8661 83
SrH Cl
10913 95
10789 33
AlCu Y
FeTi Sb
TiFe H
PtCd Pt
8651 30
8626 09
11840 26
542 772
168 42
11036 07
11036 85
11030 36
12274 16
12274 19
12274 41
12238 69
12238 23
185 67
185 94
314 55
314 52
YNi In
5424 93
ScPt In
ScAg Ge
5743 39
292 46
295 96
295 85
561 456
11842 76
11842 99
12188 93
12188 98
AlFe Zr
FeTe Fe
1195 758
1195 837
1195 855
5698 85
300 30
1019 280
1019 104
1019 259
5418 79
5418 77
1147 776
1147 769
1147 746
1147 712
8657 80
9775 68
12270 38
5679 96
5679 45
12214 07
8500 13
8658 10
12068 74
CsSb Cl
11042 15
11028 43
ĠSTa Cu
1069 057
5425 70
9765 84
12065 94
11019 71
11019 52
11019 95
11035 67
10250 47
5675 83
147 90
871 9
1027 692
1027 525
6750 66
1196 396
1192 666
1192 424
11031 96
12269 40
12269 90
12263 85
12263 40
12263 98
10951 80
10259 11
312 97
KAg Se
ĠSeGa Hg
ĠVGa Co
CuZr Al
ZrNi H
12062 96
12074 67
12074 08
12074 48
11038 79
10712 30
12160 80
5690 08
9717 12
286 45
ĠSGa Fe
TiW Tc
SnN Ni
12215 96
12215 29
12215 28
11907 88
12388 76
12388 90
12463 02
143 36
287 82
ĠZnGa Co
ĠZnGa Ir
1213 974
624 190
600 124
5689 20
5689 03
11026 40
12264 49
10793 23
10793 24
10793 61
8678 11
5713 43
623 134
984 055
9828 70
1006 3
1002 114
1197 050
12071 96
10792 54
10792 46
8679 43
8679 58
11909 72
12249 86
10969 86
ĠTiIn Pt
8652 34
8652 35
9847 04
12233 76
12285 22
12152 46
10240 47
10260 34
12467 48
301 7
696 216
696 673
1030 106
1030 108
1030 331
NiZn Sb
ĠCrGe Ru
11108 80
HgCd Se
1101 894
12250 02
10293 96
10293 57
554 676
560 3
TaMn Ru
SrHg In
SrHg Sn
11025 65
11025 64
640 312
991 676
991 428
10692 70
1212 695
1212 900
1212 666
ĠCdIn Rh
184 11
9752 37
6363 20
11033 59
11053 27
11057 52
12272 96
5735 81
172 20
285 80
285 01
363 81
ZrAl V
5406 19
5406 60
6753 26
1683 9
CdN Co
8625 61
9986 04
12078 11
12078 48
12262 45
12262 58
284 08
284 89
284 19
272 60
6074 09
1024 052
ZrW Tc
5587 78
CrNi Nb
11046 13
10254 57
10285 86
10285 89
10285 76
12213 42
12213 95
277 76
ĠHfIn Co
1028 690
6726 96
8624 86
8624 45
1984 4
5709 71
5709 30
9785 23
6080 81
11052 85
11024 43
11039 96
12178 15
12177 80
12177 68
12177 77
10783 26
12200 35
10193 78
271 71
271 95
583 071
ĠVCr Mo
ĠTaMn Ru
10695 33
5410 47
5686 03
12221 32
10782 47
11837 40
12217 02
12466 48
12466 49
6755 24
6755 90
5610 33
5610 51
637 292
6372 63
12085 87
11027 05
12182 68
10296 89
10296 56
11905 83
11906 61
10258 19
10258 76
12474 49
302 85
ĠKBi Cl
ĠCrSn Rh
1252 7
ĠCdSn Rh
11045 75
11045 18
11044 62
11843 64
12185 90
12147 93
12169 12
12169 45
12194 80
12194 10
12194 97
11940 40
12469 26
5050 34
6432 43
6432 70
342 32
374 05
1210 697
1210 826
1114 506
1113 510
9721 83
11018 70
12220 74
12268 11
10775 89
10276 47
10682 50
6430 10
621 960
743 9
5411 55
5049 51
5049 28
217 10
9774 07
9728 79
11048 54
11048 96
11048 25
11893 05
12252 32
275 07
945 077
945 184
12473 61
6749 93
344 67
7686 13
9912 57
11037 05
10785 74
10785 78
12162 54
11916 44
12239 08
10299 43
315 10
315 07
6628 15
6628 23
ĠNCl Sr
10305 65
10305 04
1238 855
5413 78
6754 77
11730 43
11730 40
11111 74
11111 73
11144 89
86233 4
86233 6
12007 20
11047 83
10175 67
10175 15
5100 01
611 341
TiNb Cr
12116 43
12472 46
6743 55
6759 02
11977 25
TlN Ca
11008 73
10188 12
11933 97
11944 81
12455 24
6428 45
254 69
352 67
365 77
384 94
3015 1
585 949
5106 96
619 279
6127 40
6166 15
6549 56
707 836
773 137
996 162
9124 40
SPS SCs
YBi Pt
ĠCub ane
ĠBain ite
ĠGaGe Ru
10304 47
10866 69
12119 81
12106 18
12125 97
12460 21
5405 69
6757 50
6756 37
67569 1
11938 47
6979 77
5573 08
8618 77
8648 96
9763 26
60186 1
120279 1
110452 6
110570 1
110296 1
