#version: 0.2
Ġ a
Ġ t
h e
o n
l e
Ġ i
Ġt he
Ġ b
o m
Ġ s
Ġ o
Ġ c
i t
r e
n d
on d
a t
n g
o r
Ġb ond
Ġi s
Ġa t
e n
Ġat om
a l
Ġa nd
a r
Ġ e
T he
Ġ f
Ġo f
Ġ m
e d
Ġ w
r o
a c
Ġt o
Ġatom s
â Ĥ
le c
Ġi n
e t
i v
i c
Ġ The
at e
n t
r a
i ng
e r
Ġ C
d i
a le
e s
ale nt
Ġ h
Ġ p
it h
Ġw ith
Ġm o
lec u
Ġmo lecu
q u
g en
â ģ
s t
u r
iv alent
qu ivalent
t h
Ã ħ
Ġ g
d s
Ġ Ãħ
Ġ 1
Ġ on
Ġe quivalent
c t
Ġa re
Ġ I
ds or
Ġmolecu le
he d
dsor b
Ġt w
ar b
Ġ di
Ġ (
arb on
ac e
Ġs it
Ġc arbon
â Ģ
âĢ ĵ
Ġbond ed
hed ra
Ġ S
Ġf or
Ġ le
ng th
r y
Ġle ngth
Ġtw o
l y
r i
ct a
Ġt h
Ġa dsorb
Ġo r
t r
Ġsit e
Ġh y
x y
Ġ A
Ġs i
Ġ 2
a n
cta hedra
Ġs p
b it
ro gen
bit al
u b
en t
al y
at aly
Ġh a
Ġfor m
Ġ N
e en
Ġc ataly
Ġs ur
Ġsur f
o l
Ġor bital
xy gen
om et
Ġ n
Ġsurf ace
ĠI n
Ġc ub
e omet
Ġg eomet
Ġgeomet ry
âģ º
Ġ P
o ur
Ġo xygen
âģ »
Ġ T
Ġf our
Ġb et
t ic
Ġ d
w een
Ġbet ween
Ġha s
ĠThe re
Ġadsorb ate
ro u
h ar
Ġcataly tic
i m
Â ²
C H
tr on
Ġcub o
Ġcubo ctahedra
Ġe lec
i on
n er
or ner
p p
x im
Ġelec tron
ate ly
Ġc orner
Ġa pp
ro xim
Ġapp roxim
Ġapproxim ately
l i
p o
Ġhy d
Ġa ng
Ġdi st
d g
Ġg rou
Ġlength s
e g
l ar
t er
g h
Ġang le
Ġ M
Ġs h
Ġon e
ĠA l
Ġgrou p
âĤ Ħ
po le
âĤ Ĥ
Ġw h
r om
Ġsi x
iv e
c o
om ent
Ġm oment
Ġhyd rogen
Ġdi pole
âĤ Ĩ
Ġorbital s
O H
i l
Ġ ra
Ġth at
Ġp l
Ġe dg
i r
Ġmolecu lar
i gh
n ate
or di
co ordi
coordi nate
b ri
re e
Ġb i
u re
Ġf rom
Ġ H
Ġth ree
Ġ re
igh t
Ġi t
Ġhy bri
it rogen
n e
nd ing
Ġc har
Ġc o
ic al
Ġn itrogen
Â ³
v alent
Ġco valent
ac ed
Ġpl aced
Ġcorner s
Â ¹
Ġs e
a re
Ġelectron s
c es
Ġbi nding
Ġbond s
m p
Ġbond ing
Ġra ng
har ing
) .
Ġ R
et ra
Ġ l
Ġa s
Ġ O
Ġt etra
Ġe ight
Ġ Z
g on
gon al
c e
Ġl on
v e
s haring
ĠT i
o w
ĠC H
il le
ic h
Ġwh ich
Ġ *
Ġ 0
Ġadsorb ed
âĤ ģ
Ġt ri
ac t
Ġ G
dsorb ate
e x
Ġedg es
it y
ĠI nd
Ġa l
ĠM ille
ĠMille r
A dsorbate
ĠInd ex
z es
Ġc ry
al li
st alli
Ġsp ace
Ġcry stalli
Ġcrystalli zes
Ġdist an
p e
a d
Ġo ctahedra
Ġdistan ces
ol ar
di z
eg at
Ġsh are
re ad
Ġsp read
Ġrang ing
or t
Ġ 3
i st
v er
Ġd eg
z e
Ġc on
u ct
Ġp olar
Ġ Ċ
re es
Ġdeg rees
i n
âĤ Ī
ac es
h y
tr uct
truct ure
Ġs tructure
at ion
ĠAl l
Ġ u
Ġ D
Ġangle s
e l
âĤ ĥ
l a
Ġdist ort
Ġdistort ed
âĤģ âĤĤ
he m
Ġc hem
Â °
i le
Ġf aces
Ġchem ical
Ġp ar
Ġhybri diz
s o
Ġwh ile
Ġchar g
ac h
Ġal so
c ond
ir st
e quivalent
Ġf irst
Ġin equivalent
Ġsit es
Ġse cond
u e
m i
Ġa n
Ġ v
e re
A l
Ġd ue
Ġsi g
Ġit s
Ġsi ze
Ġe ach
al l
ĠC a
ĠP d
ĠH f
u t
o p
Ġat op
g er
or ter
Ġsh orter
Ġlon ger
Ġtetra hedra
y ra
yra mi
ĠN i
iv ity
m a
Ġt y
ĠZ r
n ce
Ġ1 0
Ġtw el
2 0
Ġtwel ve
t i
ĠS i
Ġty pe
Ġelectron egat
ĠG a
Ġ B
yrami ds
Ġs ing
act ion
Ġcataly st
Ġin ter
hed r
S e
Ġc an
Ġcharg e
Ġedg e
d e
ĠP t
m m
ĠS e
âģ ´
Ġhybri d
Ġsing le
hedr al
k n
Ġ kn
ow n
Ġkn own
ac ter
Ġchar acter
y l
Ġ Y
o s
ĠI t
Ġpar ti
Ġparti al
i f
Â° .
Ġcub ic
b y
I n
ĠN a
Ġtri gonal
Ġstructure d
Ġe th
Ġf ive
F e
Ġ V
e by
p le
ic s
ĠC u
ĠN b
Ġu n
Ġcharacter ist
âĤ ħ
S i
Ġ li
ĠT e
ĠS c
ĠM o
Ġcharacterist ics
Ġelectronegat ivity
P d
eby e
ne ar
Ġli near
ĠA s
A s
i x
t ure
Ġm ix
Ġmix ture
ĠT a
le ne
Ġo ver
Ġc om
he r
Ġb y
a nt
T e
Ġp os
ĠS r
ĠZ n
8 0
u s
ĠR h
y lene
a ir
Ġtri ple
Ġ 4
Ġcon s
T i
ond ing
Ġp air
u la
Ġform ula
ĠD ebye
Ġhybridiz ed
Ġm a
nd ic
ĠS b
Ġre s
f f
Ġdi ff
Ġ W
Ġinter action
Ġp i
Ġb o
if ic
Ġsig ma
c et
a gonal
an ar
Ġb e
Ġcons ist
1 0
Ġdiff ere
ĠC o
P t
m ol
ĠG e
u l
ĠS n
CH O
Ġlon e
l ow
s es
N i
Ġt il
Ġtil t
Ġn o
G a
Ġpos it
Ġa rou
Ġarou nd
Ġa b
Ġ Ï
Ġ K
Ġcarbon yl
t her
Ġ 6
ive ly
ĠA g
ĠC r
Ġha ve
Ġn egat
Ġp yramids
Ġ Fe
Ġover la
s e
S b
Ġa cet
Ġi ndic
m all
Ġs mall
Ġb ri
dg e
Ġbri dge
Ġg ly
an ol
cta hedral
Ġhybridiz ation
Ġ1 80
Ġo ther
Ġd o
Ġ 5
Ġo ctahedral
Ġoverla p
Ì ħ
v ol
Ġin vol
ĠM n
Ġth ir
Ġw e
re s
t a
t een
G e
C O
Ġm et
d y
o ut
Ġab out
at ing
n ific
Ġsig nific
Ġsignific ant
Ġdiffere nce
ere d
Ġposit ive
Ġnegat ive
Ġf ace
k e
1 2
ub le
Ġthir d
i s
Z n
ĠA u
S n
c ent
Ġbo dy
cent ered
ro xy
O ver
Over all
v en
ol low
OH CH
Ġform ed
R h
0 9
C u
Ġ1 20
Ġpl anar
b onding
st rom
c c
Ġ10 9
u p
strom s
Ġres ul
Ġresul t
d ical
Ġra dical
Ġdo uble
N H
Ġbi p
Ġ1 1
Ġinvol v
Ġw he
Ġwe ight
Ġn on
ĠN O
c ol
Ġgly col
er m
ĠR u
Ġs qu
Ġsqu are
ri b
A g
o th
ĠB oth
l u
Ġwhe re
Ġp ro
Ġbip yramids
M o
Ġse ven
ta in
Z r
ĠC CH
Ġgroup s
ĠI r
cc up
ĠR b
ion al
Ġhyd roxy
Ġ 9
hy l
Ġre act
ĠB i
Ġindic ating
o c
Ġ 7
li ke
Ġ OH
H f
l at
Ġre lat
Ġrang e
er s
ng stroms
Ġrelat ively
ĠÏ ĥ
Ġ E
5 4
Ġtetra hedral
p a
Ġ he
Ġp res
rib ut
o xygen
O CH
ĠP b
Ġm e
i de
hy d
Ġs y
b ic
h om
or hom
th orhom
thorhom bic
i re
4 3
ar i
p t
ale nce
s ed
Ġor thorhombic
Ġt en
6 7
ĠC d
i ne
3 3
1 1
al s
h is
ĠT his
i d
en ce
A u
ze ro
Ġp ent
Ġpent agonal
N O
h a
Ġo ccup
9 6
ĠA ngstroms
Ġcon tain
Ġcontain s
it e
Ġconsist s
a m
Ġun pa
ire d
Ġunpa ired
Ġv alence
c arbon
Ġcom po
0 8
0 7
Ġv an
ĠN H
a als
Ġd er
ĠW aals
Ġmet hyl
bri diz
hy bridiz
hybridiz ed
a pe
Ġsh ape
Ġconsist ing
Ġan y
pt ion
4 2
i g
Ġelectron ic
C o
) ,
hyd rogen
Ġpair s
x agonal
Ġhe xagonal
Ġ zero
u m
R u
6 9
ĠC l
Ġtetra gonal
Ġ 8
I r
5 0
Ġresult ing
Ġpolar ity
in ed
ĠT l
Ġa dsor
Ġadsor ption
ri ses
1 6
ent ed
ĠE th
Ġre action
Ġreaction s
et r
mm etr
Ġh ollow
5 3
p er
Ġa nt
i es
w ar
Ġto war
Ġtowar ds
N b
rou gh
e m
Ġpar tic
Ġin f
T a
0 5
8 5
Ġhydroxy l
en s
Ġinteraction s
re ct
Ġdi rect
ĠO CH
b le
Ġfour th
Ġeth anol
Ġa rises
C a
i p
Ġd et
Ġreact ivity
ĠC s
Ġant i
B i
C d
Ġform s
S c
5 5
C l
ĠT c
ĠR e
2 2
Ġinvolv es
ĠH g
Ġun hybridized
Ġs t
Ġn ine
n ic
li nic
Ġs li
gh t
Ġsli ght
C OH
P b
Ġth rough
u lar
1 5
u c
lecu lar
d ing
Ġpartic ip
Ġparticip ate
Ġdirect ion
d er
2 1
Ġe x
Ġform ing
Ġn e
Ġsix teen
8 8
Ġme an
Ġma k
ed i
N a
di us
Ġra dius
r bital
Ġfour teen
4 7
Ġp m
Ġmo re
Ġacet ylene
7 1
Ġma y
ĠC OCH
Ġc en
tr al
Ġcen tral
a s
ĠÏ Ģ
Ġo ri
Ġori ented
i ed
Ġt erm
Ġterm s
Ġs he
Ġ F
Ġi mp
ĠO s
Ġsy mmetr
8 6
Ġv ari
Ġno t
erm ined
Ġdet ermined
qu al
a us
al de
hy de
alde hyde
u nd
Ġpres ence
C r
or m
0 6
or bital
c lu
Ġin clu
Ġdist ribut
Ġthe se
Ġw ate
Ġwate r
5 2
o us
Â° ,
Ġcom b
mm m
Ġm on
4 0
ro p
Ġre ma
in ing
Ġrema ining
oc linic
Ġmon oclinic
ent al
Ġanti bonding
omet ers
C CH
o xy
l anar
p lanar
Ġs haring
y an
Ġh igh
0 2
u n
Ġinter act
H g
Ġf ollow
Ġeth ylene
Ġatom ic
M n
Ġmolecule s
Ġo ut
S r
2 3
ort ant
Ġimp ortant
Ġvari ous
i pole
e c
Ġsp ec
g n
Ġa r
Ġn et
Ġsymmetr ical
Ġbo th
om ic
at omic
âģº ,
6 2
5 7
8 9
Ġinclu ding
Ġoccup y
Ġmak ing
4 6
Ġh ig
Ġelectronegat ive
6 âĤĥ
Ġslight ly
9 3
an edi
âĤ ĩ
6 6
7 4
Ġf if
g an
Ġor gan
Ġorgan ic
8 2
Ġeth oxy
am e
Ġshe et
g e
Ġs tron
Ġstron g
i z
m ens
di mens
dimens ional
Ġp er
Ġcompo und
d d
âĤ Ģ
8 3
T l
7 0
ĠCH OH
6 5
Ġinf orm
Ġinform ation
7 5
1 9
v ing
t ribut
Ġcon tribut
âĤģ âĤĢ
Ġpro ces
i um
2 5
ar y
ate s
Ġindic ates
Ġha ving
ce l
Ġcan cel
Ġu sed
im ental
per imental
Ġex perimental
n ol
y nol
' s
4 5
7 9
Ï ĥ
Ġsurf aces
Ġcompo sed
7 3
iv es
Ġg ives
dd it
Ġinvolv ed
ra ng
Ġar rang
Ġw id
Ġwid th
at ed
Ġ10 4
8 1
P rop
Prop anol
at ure
Ġal low
6 8
Ġsi nce
anedi ol
Ġcharg ed
O rbital
Ġdistribut ion
st em
Ġsy stem
o x
ox al
Ġs ame
Ġc yan
ĠC CO
Ġfif th
o t
ĠF m
O s
Ġv al
ri m
ĠP m
Ġ -
Ġs uc
Ġsuc h
1 8
2 4
in ation
Ġcomb ination
Ġd e
ĠTi Ti
ĠEth ylene
el l
6 0
Ġpres ent
9 7
Ġresult s
f ig
ur ation
Ġcon fig
Ġconfig uration
ĠIt s
Ġbe c
M O
et h
et ic
gn etic
ic ometers
Ġp rim
ari ly
Ġprim arily
6 4
nd er
Ġu nder
Ġ L
p ar
Ġse par
Ġsepar ation
Ġwith in
mm c
T c
ĠCH CH
R e
0 4
Ġhigh ly
5 9
5 1
7 7
Ġproces ses
Ġse ver
Ġsever al
3 4
Ġacet yl
7 8
Ġn ature
Ġpartial ly
5 6
O CHO
Ġre p
m o
Ï Ģ
em ent
m c
Ġ( -
Ġc ar
Ġpos ses
Ġover all
on s
7 2
i nt
8 4
eth anediol
1 4
Ġarrang ement
Ġthe or
pe ndic
Ġper pendic
Ġperpendic ular
7 6
Ġtw ent
yrami d
ne qual
Ġu nequal
2 9
5 8
s ing
Ġre f
Ġmo der
Ġoccup ied
Ġgly oxal
Ġfor ces
ĠP n
Ġ U
âĤ ī
Ġtwent y
4 1
ĠOH NH
ac et
ĠA ddit
ional ly
Ġmean s
ĠAddit ionally
Ġcom m
Ġw ell
ĠCH OHCH
Ġe nd
Ġ6 2
ĠC OHCH
ed ge
Ġedge edge
n itrogen
ĠC OH
ĠCOH CHO
1 3
ti es
Ġpro per
Ġproper ties
4 4
it ies
Ġcyan o
âģ µ
Ġreact ive
Ġma ke
iz ed
Ġcatalyst s
Ġcharg es
t al
Ġto tal
m ent
Ġthe re
4 9
4 8
i ble
p ons
Ġres pons
Ġrespons ible
Ġp icometers
Ġacet ate
Ġ10 7
aus e
Ġbec ause
Ġf un
ct ional
Ġfun ctional
c ataly
cataly st
Ġinf lu
6 3
Ġmean ing
h ol
co hol
Ġal cohol
ĠThe se
Ġmoment s
Ġs ta
ĠC CHO
9 0
Ġeth ynol
o o
Ġsystem s
il ic
a w
s aw
Ġse e
ĠC N
Ġhig her
Ġeight een
hy s
he st
ille d
Ġrep res
Ġ1 2
Ġth an
6 1
9 2
mc m
Ġbe ing
Ġgrou nd
Ġst ate
ilic ide
p ed
s ha
sha ped
ion s
R b
u es
Ġval ues
iv ed
der ived
Ġdi atomic
8 7
B ond
B onding
D ipole
Mo lecular
Ġme as
co planar
Ġde pe
Ġdi a
ĠAl Ti
l os
Ġc los
ĠPn ma
an e
Ġi nd
CH OH
ation s
t ac
Ġat tac
Ġattac hed
o int
Ġp oint
p olar
Ġnon polar
Ġref ers
Ġcontribut es
COH COH
9 1
Ġdiffere nt
Ġs u
d j
Ġa dj
ac ent
Ġadj acent
u st
Ġsix th
Ġ en
3 2
Ġform ation
Ġspec ies
Ġne ar
i al
c i
Ġs ci
Ġshare d
ĠTi Se
Ġs ol
acet ylene
Ġc aus
3 6
9 9
0 1
Ġ j
ĠEth anol
Ġspec ific
ra n
Ġdi am
Ġtilt ed
Ġtheor y
Ġb ent
9 5
b ond
er v
Ġinflu ence
3 5
Ġ4 4
Ġmoder ate
et er
Ġdiam eter
Ġe qual
Ġp yramid
Ġform ate
e us
le r
eus ler
Ġc a
ĠU ran
ĠUran ium
Ġinvol ve
Ġfollow ing
Ġi de
Ġide al
3 7
a ma
Ġpar ama
Ġparama gnetic
ĠS ilicide
9 4
f ace
Ġface face
Ġ1 6
Ġcar ri
xim e
ĠCOHCH OH
ĠN NO
an ce
Ġsheet s
Ġcomm on
a k
Ġwe ak
Ġsta ble
il ity
Ġab ility
ĠC OCHO
Ġfollow s
2 âĤģ
oo d
Ġ11 1
ĠO rbital
Ġshare s
ĠD ipole
ĠB ond
ĠB onding
ĠMo lecular
Ġc re
ng ular
cta ngular
Ġre ctangular
Ġcom ple
C OHCH
Ġp hys
â ī
âī ¡
Ġmeas ure
ĠH eusler
z ine
ra zine
Ġhyd razine
Ġrepres ent
e w
et hyl
en ot
Ġd enot
Ġdenot es
Ġang stroms
2 7
2 6
Ġposses ses
Ġ qu
en e
z ene
Ġdia zene
1 7
Ġthe y
d ent
Ġi dent
Ġunder st
Ġident ical
9 8
mi ne
Ġ3 2
Ġpoint ing
Ġtri atomic
v i
Ġdepe nding
l l
mo st
ĠA cet
0 15
Ġ11 6
Ġposit ively
Ġnegat ively
r ic
Ġv ary
ct ed
ne cted
Ġcon nected
3 0
3 8
Ġty p
Ġd ens
Ġdens ity
Ġbet a
Ġmet h
Ġat tr
act ed
Ġattr acted
y mmetr
Ġas ymmetr
Ġasymmetr ic
b or
Ġst re
Ġp ul
Ġm an
Ġman y
o u
y ou
Ġ you
r uc
Ġc ruc
Ġcruc ial
es t
p ha
Ġal pha
c orner
Ġcorner corner
Ġhydroxy acetylene
Ġtriple t
t o
Ġon to
CH OHCH
3 1
2 8
Ġth is
Ġmet al
0 0
o ccup
Ġun occup
Ġunoccup ied
Ġ1 4
1 20
Ġsi mp
Ġsimp le
v ir
on ment
Ġst u
Ġen vir
Ġenvir onment
Ġ6 0
al ized
oc alized
3 9
st ly
f our
oc k
Ġ1 10
Ġc al
on e
CH CH
Ġ1 21
igh bor
Ġu sing
Ġne ighbor
Ġneighbor ing
e ver
ĠH ow
ĠHow ever
le ven
Ġe leven
H O
Ġhig hest
HO MO
Ġ7 4
ical ly
Ġpl ane
ent ific
Ġsci entific
arb y
Ġne arby
Ġj ust
ĠV S
Ġ ver
el f
Ġits elf
Ġ5 8
Ġthe ir
a y
Ġ ro
Ġpl ay
Ġro le
an ometers
Ġn anometers
Ġsur rou
Ġsurrou nding
t en
Ġof ten
Ġl ow
ĠCH CHO
Ġdipole s
ct ively
pe ctively
Ġpolar ities
Ġres pectively
0 3
The se
Ġoverlap s
Ġseven th
Ġb een
er g
Ġexperimental ly
g o
Ġunder go
m edi
Ġs ub
Ġinter medi
Ġintermedi ate
Ġdistribut ed
Ġc ha
Ġcha ng
ri de
C s
Ġacet aldehyde
a v
Ġg ive
Ġhydroxy la
Ġc ond
it ions
Ġcond itions
Ġcarri es
Ġo x
Ġd ebye
Ġ11 9
* (
âģ °
1 10
Ġcaus ing
Ġf ree
in yl
Ġv inyl
Ġsing ly
âģ ¶
Ġma in
ĠC mcm
Ġthe m
Ġcovalent ly
s at
ur ated
Ġun sat
Ġunsat urated
Ġu se
erg y
Ġdo es
nd s
Ġf illed
C N
u ent
it uent
st ituent
Ġcon stituent
cc ur
Ġglycol aldehyde
Ġclos e
a ur
ic up
ĠT etra
ĠE ach
aur icup
ĠTetra auricup
ĠTetraauricup ride
Ġinter mo
Ġintermo lecular
Ġ x
i el
Ġf iel
Ġfiel ds
Ġelec tr
Ġmak es
ĠAl Al
ĠCu Cu
hyd roxy
Ġon ly
mm ary
Ġsu mmary
Ġmeasure d
Ġstre ngth
v ent
Ġn it
Ġphys ical
Ġhydroxyla mine
f illed
ra m
it s
Ġun its
di pole
ha se
Ġcons id
Ġallow s
Ġc lu
Ġclu st
Ġ10 6
l s
ol um
Ġv olum
CO CH
Ġpul ls
Ġvolum e
Ġma gnetic
Ġtetra hedr
Ġtetrahedr on
ĠHf Hf
ist ry
Ġb ut
ĠZn Zn
Ġ lar
Ġlar ge
s ion
ul sion
b s
Ġo bs
Ġobs erv
m ethyl
o re
ĠTi S
o ther
Ġan other
p rop
le d
Ġc er
Ġcer tain
lu or
ĠCa N
Ġclos er
Ġa ct
v ide
Ġpro vide
p onding
Ġc or
ĠO xime
Â° ),
res ponding
ĠAcet aldehyde
Ġcor responding
Ġqu ite
ĠCH OCHO
Ġinteract s
t he
the n
Ġcre ating
Ġsol uble
Ġsol vent
Ġsolvent s
Ġw il
Ġbe ha
vi or
Ġwil l
Ġbeha vior
u ter
Ġo uter
Ġshe ll
Ġouter most
Ġg as
g et
Ġto get
Ġtoget her
Ġe igh
Ġeigh th
Ġ11 5
i bit
l ock
Ġt ric
Ġtric linic
n it
Ġ gen
er ating
Ġgen erating
Ġmeth anol
h ibit
Ġex hibit
Ġcomb ined
Ġd el
r ite
ry ing
Ġcar rying
ĠAg Ag
Ġinvolv ing
f orm
Ġper form
Ġperform ance
nd id
Ġg ood
Ġca ndid
Ġcandid ate
N N
t hest
ar thest
Ġf arthest
ĠNa Na
ĠSb S
12 1
Ġ q
Ġca pa
Ġb a
Ġ OHCH
Â° ).
Ġ4 9
11 8
Ġdel ocalized
E th
Eth ylene
ĠTi Al
12 2
Ġ11 7
Ġ5 5
CHO CH
ĠD eby
ĠDeby es
on ance
Ġres onance
tic al
ore tical
ĠNi Ni
Ġo pp
os ite
Ġopp osite
a ds
Ġle ads
c ce
c um
u il
Ġb lock
Ġb uil
Ġs erv
Ġf und
iv ities
Ġelectronegat ivities
Ġdo cum
am ental
Ġunderst ood
015 88
Ġbuil ding
Ġserv es
Ġfund amental
Ġdocum ented
a nding
c ul
l uct
u ate
Ġthe oretical
Ġf luct
Ġmo stly
Ġdi oxygen
Ġchemical ly
Ġhe nce
id ated
Ġnot e
Ġval idated
Ġunderst anding
Ġstu dy
Ġcal cul
Ġobserv ations
Ġfluct uate
Ġcalcul ations
t ro
at ic
st atic
Ġelec tro
Ġelectro static
L U
Ġlow est
LU MO
ĠCr S
Ġa cce
Ġw ide
pt ed
un ity
Ġcomm unity
Ġacce pted
Ġwide ly
Ġde f
n ces
Ġdiffere nces
o xime
di oxime
Ġdi methyl
Ġdimethyl dioxime
u ce
Ġpartic ular
Ġcontribut ing
Ġthere by
Ġind uce
Ġtyp ically
Ġver y
ĠZr Zr
ĠNi Ta
b d
ly bd
ĠMo lybd
ĠMolybd en
Ġbip yramid
9 55
Ġtyp es
n al
Ġsh ow
ĠAl Hf
ĠSc Sc
ĠNi Se
Ġcaus es
Ġexhibit s
Ġ4 6
ĠRe Re
Ġcre ate
Ġ4 2
Ġmoder ately
ĠCu S
t y
Ġ rough
Ġe mp
Ġrough ly
Ġemp ty
V B
a ble
c rib
d es
Ġa ddit
it able
ĠM O
Ġtheor ies
ĠU sing
Ġsu itable
crib ed
des cribed
Ġaddit ion
Ġthir teen
Ġoccup ies
Ġhybridiz e
10 9
Ġnit ro
ĠPt Pt
A cet
i qu
le l
al lel
ĠC C
Ġcarbon s
ri al
Ġpar allel
Ġun iqu
Ġind ust
Acet ylene
Ġuniqu e
Ġindust rial
Ġc ent
Ġcent er
ĠNi S
ĠNa Se
Ġhybri ds
Ġl oc
Ġposit ions
Ġloc ated
ĠAl Zr
Ġelectr ic
ĠPd Pd
ĠFe S
ĠMo Se
ĠL av
m u
d uct
ro carbon
qu ent
Ġhyd rocarbon
hy lene
se quent
Ġmet hylene
Ġpro duct
Ġcomple x
Ġsub sequent
Ġhydrocarbon s
Ġproduct s
Ġpolar iz
Ġpolariz ation
Ġo ccur
tain ing
10 85
Ġ ve
ct or
ant ity
Ġqu antity
Ġve ctor
11 4
Ġ1 23
CH CHO
Ġcharacter ized
Ġ5 7
al f
Ġh alf
hydroxy ethyl
ĠMo Mo
Ġox ide
b e
u al
Ġs et
Ġs ens
it ivity
iv id
di es
Ġpro be
Ġind ivid
Ġnear ly
Ġsci ence
Ġstu dies
Ġchang es
Ġset s
Ġsens itivity
Ġindivid ual
n ite
L a
h ion
y ne
Ġf as
Ġal ter
Ġeth yne
Ġproces s
Ġchang e
Ġfas hion
ĠCa As
ĠLav es
C CO
H NO
d ra
f luor
w ing
w ith
Ġcyan ide
La stly
dra wing
fluor ide
with drawing
Ġclust ers
Ġeth yl
Ġ11 4
Ġwhe n
Ġinteract ing
Ġcancel s
Ġarrang ed
Ġundergo es
a di
Ġle ad
tr action
Ġwhere as
Ġrepres ented
Ġen ergy
Ġsub traction
Ġconsid ered
nit ric
Ġe then
Ġal most
Ġsymmetr ic
Ġethen yl
Ġp hase
ĠI m
ĠC arbon
D ebye
E P
V alence
i nd
p ers
p ically
p ulsion
s pers
y pically
he ll
ond on
or ption
lec tron
Ġdi spers
ĠS hell
ĠP air
ĠT ypically
ĠO ne
Ġdeg ree
is orption
ĠE lectron
ĠEth oxy
Ġdirect ed
ĠRe pulsion
uc ed
ĠL ondon
Ġdepe nds
Ġphys isorption
Ġcal led
ĠVS EP
ind uced
Ġdispers ion
ĠVSEP R
t e
arb ide
* )
ct ive
Ġdist in
Ġacet one
Ġplanar ity
acet one
Ġdistin ctive
Ġ7 6
Ġmeth ane
co valent
CO CHO
Ġcontribut e
Ġposses s
Ġweak er
C CHO
Ġstrong ly
Ġcomple te
Ġcomplete ly
mu th
ĠH a
ĠNb S
Ġinclu de
Ġmet als
ĠCCH OH
id es
ĠEth ynol
CCH OH
Ġox ides
Ġ3 0
c yan
Ġdiff er
Ġcarri ers
cyan ide
z ed
en ergy
Ġe st
aly zed
im ated
CH CO
ĠCH CO
Ġan alyzed
Ġsta nds
Ġmeasure s
ĠAcet yl
Ġlead ing
Ġest imated
s muth
Ġbi smuth
Ġtri fluoride
c on
Ġhe av
Ġheav y
Ġn int
Ġnint h
R C
b oo
e er
le s
Ġs our
re vi
nd boo
ĠC hem
ĠC RC
Ġp eer
ĠP hys
our nal
tic les
if ied
NH NH
ĠNH NH
Ġar ticles
Ġj ournal
ew ed
Ġver ified
ĠHa ndboo
Ġsour ces
revi ewed
ĠChem istry
ĠPhys ics
ĠHandboo k
n m
ĠNb Si
or k
Ġf ram
ew ork
Ġfram ework
Ġ7 5
Ġpyramid al
a ile
ĠÃħ ngstroms
ĠS in
ĠH ere
Ġdet aile
ĠSin ce
Ġdetaile d
ĠPd Cu
Ġ7 1
2 33
ĠTi Si
02 6
g ram
Ġ ent
ĠN N
ĠN NH
Ġl ocalized
Ġfif teen
Ġdia gram
Ġent ire
ĠIn S
ĠAl Ta
a gn
es ium
ĠM agn
ĠMagn esium
ĠN Ca
on ating
Ġd onating
ĠL ew
Ġcapa ble
Ġba se
ĠLew is
Ġ7 3
ĠP P
11 6
Ġform aldehyde
a in
c y
i en
om e
om ain
Ġc m
ic ien
Ġ1 43
Ġ1 52
ĠI so
Ġd omain
Ġbec ome
Ġrepresent s
prop yl
Ġdef icien
ĠIso propyl
Ġdomain s
Ġdeficien cy
4 20
ĠAu Ag
2 81
ĠAl Ni
47 2
ĠS Y
ĠNi Al
R eg
ar ding
Ġchem istry
Reg arding
ĠIn Se
k ite
Ġparticipate s
N NH
y d
U n
a dsorbate
f ort
n ot
r ing
s ist
Ġ "
Ġa ccur
er ring
qu est
ĠI f
Ġha pp
Ġn ame
Ġre quest
Ġas sist
Ġcan not
ĠNO NH
NO NH
un ately
Ġref erring
Un fort
Ġaccur ate
Ġhapp y
Ġrequest ed
Unfort unately
p rises
ur ing
Ġcom prises
Ġmeas uring
l ic
Ġis oc
Ġmo ve
an aldehyde
Ġre adi
COH CHO
Ġimp lic
Ġvari es
yan ate
hydroxy prop
Ġisoc yanate
Ġmove ment
Ġreadi ly
Ġimplic ations
hydroxyprop analdehyde
g ation
j u
ly oxal
ĠG lyoxal
Ġcon ju
Ġu p
Ġeth anedi
Ġconju gation
Ġethanedi al
ĠNi As
en ces
er mine
Ġh ow
Ġdet ermine
Ġinflu ences
Ġconsid er
ĠPt In
ĠTa Ni
O NH
p icometers
al so
ĠC m
Ġ1 42
pp ing
ĠO NH
Ġoverla pping
H yd
p ynol
Ġ ĠĊ
ĠPd Tl
roxy acetylene
Ġpro pynol
Hyd roxyacetylene
ĠMn As
Ġlow er
Ġ1 50
ĠNa S
Ġ4 8
Ġclust er
Ġp ot
ent ial
ĠD ue
Ġwhere in
Ġposses sing
ment ary
Ġcommon ly
Ġcomple mentary
Ġpot ential
p la
Ġa li
Ġ4 7
CO OCH
OCH CH
ĠOCH CH
Ġex pla
gn ing
Ġali gning
Ġexpla ined
ĠZn S
ĠAg Cd
ĠZr Si
s ure
Ġal l
Ġeth anediol
Ġ om
eg a
Ġom ega
ĠNi P
Ġm in
ic ip
im iz
Ġant icip
Ġrep ulsion
Ġelectr ical
Ġmin imiz
Ġanticip ation
Ġminimiz ing
ĠCr Te
ĠD is
ĠP hase
ĠTa S
ĠC arbide
ĠPd Bi
âĤģ âĤģ
al ite
pp er
ĠSc Sb
al t
ĠS alt
ĠH alite
ĠR ock
ĠCo pper
ĠMolybden ite
ver ite
ĠDis ilicide
4 âĤĤ
ĠCu Se
12 16
Ġten th
Ġpres sure
09 8
CH CHOH
ĠCHCH OH
t un
ĠCo tun
ĠCotun nite
a ngstroms
k ed
n ked
Ġli nked
10 7
11 83
Ġrepresent ing
Ġpul led
Ġcorresponding ly
u ng
st en
ĠT ung
ĠTung sten
ĠSb Pt
ĠPt Sb
er ature
mp erature
ĠTc Tc
ĠMo Ni
11 86
ĠGa Nb
e mperature
Ġa ri
Ġt emperature
re act
Ġun react
Ġcompound s
con taining
Ġpressure s
Ġari se
Ġtemperature s
Ġunreact ive
ĠGa Ti
ĠY S
Ġ5 0
ĠMo S
ĠCH COH
ĠH ex
ĠHex agonal
Ġ1 3
ĠTl Pd
ĠF luor
ĠFluor ite
Ġ rib
Ġrib b
NN CH
- ),
e an
h ile
w hile
ng then
Ġp rom
Ġdi ol
ĠM ean
ĠV Si
Orbital ly
ot ing
Ġstre ngthen
Ġact ivity
Ġprom oting
ĠMean while
y rite
ĠCo P
ĠAg Zn
ĠIr Ir
ĠCo Co
n mm
ĠH Y
ĠRh V
1 96
02 5
4 52
ĠCu Al
ĠIn Sc
12 20
ub ic
ĠSr As
ĠNa Te
ĠY Y
ĠGa Zr
10 79
- ).
b il
ith in
ĠW ithin
CO O
Ġ9 0
Ġcapa bil
Ġcapabil ities
The re
OH NH
Ġ9 6
Ġba sed
ĠNb Ge
A X
ĠM AX
ĠGa S
ĠFe Zr
it an
ĠT itan
ĠTitan ium
ĠCo Ge
ĠGa Hf
ĠN Hf
ĠCr Zr
Ġcentral ized
COHCH OH
ĠRh Si
Ġ5 1
a sed
b ased
r it
s yl
om er
Ġis omer
ĠH ence
Ġnit rite
nit rit
Ġnitro syl
nitrit o
ĠI mmm
ĠCr Se
ĠFe As
10 2
ĠPt Ti
ĠAl Sc
g ions
Ġre gions
Ġcharacterist ic
Ġcomb ine
ĠV Rh
ĠTl Tl
ĠNi Te
Ġi on
om al
Ġan ion
Ġan omal
Ġanomal ous
ĠMo Al
Ġ4 5
ĠSc As
ĠPn nm
ĠPd Hg
ĠNa As
5 69
ĠH Ca
ĠAl Cu
10 1
ĠK K
ĠPd Mo
ĠCr P
ĠSr N
âģ» ,
ĠH Ti
ĠSn Zr
ĠNi Nb
Ġeleven th
ĠIn Ti
ĠMolybden um
ĠS p
ĠPd Nb
ĠHf Al
ĠFe P
ĠBi Se
ĠCd Cd
ĠPd Zn
ĠAs As
ĠC mmm
ĠIn Zr
ĠBi S
ĠNi Ga
20 6
ĠPb S
ĠTi Pt
ĠRu Ru
ĠF d
re d
ĠCd As
s w
s il
ĠCa sw
ell sil
ĠCasw ellsil
ĠCaswellsil verite
Ġ5 2
ĠZn Ti
ĠNi Si
Ġ5 9
ĠRh Ru
ĠSb Ti
ĠRu Ir
ĠW Si
ĠOH NNCH
ĠPt Nb
ĠSn S
ĠP mm
ĠL a
ĠBi Pd
ĠSe Na
46 4
ĠHg Pd
ĠAl Y
ĠS Cu
ĠCu Te
8 67
m b
ĠH Sr
Ġ5 4
ĠV Zr
ĠAs Ca
ĠA mm
ĠAl Nb
ĠCs Cl
ĠTi Te
ĠSr P
5 67
f th
Ġtwel fth
ĠS Zn
12 15
Ġribb ons
ĠCd Ag
ĠPd Sn
ĠCd S
ĠZr Al
ĠMn Mn
ĠK Cl
11 9
ĠIn Pt
ĠMo Te
ĠCH OCH
CHO CHOH
ĠCHOCH OH
ĠAl S
ĠNb Se
ĠSe In
ĠHf Ga
Ġm ul
ĠIn Te
ti ple
Ġmul tiple
h at
r kite
y rkite
ĠK hat
ĠKhat yrkite
mb m
ĠCa P
ĠS Na
ĠPb c
11 87
ĠGa Ni
ĠFe Se
O NN
om in
Ġp red
ĠO NN
Ġdistan ce
ant ly
Ġdef ined
omin antly
Ġpred ominantly
ĠTa Si
4 âĤģ
ĠCo Si
ĠFe Fe
12 19
ĠZn As
ĠMn Zr
ĠCr As
O NNH
s ary
Ġre taining
ces sary
ĠO NNH
Ġ10 5
Ġne cessary
Ġobserv ed
ĠCo Zr
ĠSi Si
ĠNb Pt
ĠGa Pt
Ġ4 0
ĠPt Al
ĠPt Sn
ĠRh Pt
ĠPt Ga
e ro
s kite
v skite
ĠP ero
ĠPero vskite
ĠCa Si
10 80
ĠTi Ge
ĠSn Se
ĠS Sb
ĠN Sr
ĠOs Ta
ĠP Sr
ĠZn Pd
ĠAg S
m nm
3 08
ĠW S
ĠAl Pt
ĠV V
ĠTi N
ĠPd Ta
ĠSc Si
ĠSn Hf
ĠSe Ti
ĠSn Te
ĠAg Se
Ġ1 8
ĠTa Ta
10 18
ĠFe Ta
d der
ĠMo dder
ĠBi Te
ĠModder ite
12 24
12 17
ĠNa Cl
ĠRh Mo
ĠW N
ĠC ubic
ĠIn Y
ĠMn Si
ĠNi Hf
ĠCo Sb
ĠP yrite
ĠSn Ti
ĠHf Ge
ĠIn Au
ĠPt Ag
ĠV Se
ĠNi Sb
ĠSe K
ĠMo Si
ĠMo As
ĠPb Se
ĠPm ma
ĠRh S
Ġ1 5
ĠC mc
ĠAg Au
ĠNb N
ĠMn P
ĠP Ca
ĠNi Ge
ĠRh Sn
ĠIn Sb
ĠPd Ag
12 21
ĠTa Te
ĠTa Ge
ĠCm ce
ĠInd ium
ĠNi Ti
ĠRb Te
ĠPd Ti
ĠPt Mo
ĠZr Ga
ĠTa Pd
ĠZn P
ĠFe Y
m in
ĠCa Sb
ĠY Ga
ĠIm ma
min o
f ore
g g
m on
Ġa mon
ter nal
ĠM eth
ĠCo Se
ĠGe Te
ĠMn N
Ġex ternal
Ġthere fore
Ġsu gg
est s
Ġamon g
ĠMeth ane
Ġsugg ests
Ġ6 3
12 23
ĠW Te
i a
Ġv ia
ĠCHOHCH OH
CHOHCH OH
ĠGe Se
22 2
ĠW Pd
Pb S
ĠZr P
ĠCo S
1 12
ĠNb Ga
ĠK S
ĠOs P
ĠNb Pd
ĠSc Ga
ĠC Si
ĠMn S
ĠNa Sb
ĠZn Ag
ĠY In
ĠS Ni
ĠCd Ti
Ġthirteen th
ĠPd As
ĠS Ag
ĠSi C
c as
ar cas
ĠM arcas
ĠY Si
11 88
ĠMarcas ite
m an
ĠZr In
ĠTa N
ĠZn Se
ĠRh Ga
ĠPb Te
ĠAg Al
Ġ4 3
ĠK Se
am d
ĠSn Sc
ĠPmm n
Sb Pt
ĠAs Te
ĠIr Nb
ĠP a
ĠGa Se
ĠAg Y
ĠNb Te
ĠCu Zn
ĠIr Re
ĠGa Sc
ĠSn Rh
Ġfourteen th
ĠC h
ĠHf N
ĠNi Ca
ĠRh Te
ĠS In
ĠTi Pd
c ble
h ale
nd e
ĠZ in
ĠSc Ge
ĠMo Zr
ĠSp hale
cble nde
ĠZin cblende
ĠSphale rite
ĠMn Ge
ĠGa Y
10 0
ĠGe S
12 âĤģ
ĠSi P
10 78
ĠN Zr
ĠCa Ca
ĠGa Te
ĠTe Ge
ĠPd V
ĠRh Zn
ir con
ĠZ ircon
ĠIr Te
ĠY Ag
ĠSb Te
ĠZn Y
al co
ĠSb Se
ĠCh alco
ĠAs Sr
ĠPb Pd
ĠS Pb
ĠRh Nb
ĠPt Rh
ĠCo V
ĠZn Zr
ĠRh As
ĠP Zn
ĠCu Hf
ĠCr Nb
ĠSn Pd
Ġfifteen th
ĠSe Bi
Ġ5 3
ĠSc P
ĠNa Bi
ĠPt Cd
C ubic
ĠCu Sc
ĠSn Y
ĠPt Te
ĠPd Mn
ĠNb Ni
ĠCo As
ĠRu Ta
ĠZircon ium
ĠSe Cs
ĠSr Si
ĠPb am
ĠAu In
ĠN Ti
ĠRh Ge
ĠC c
an ite
11 84
t z
at lock
ur tz
ĠM atlock
ĠW urtz
ĠMatlock ite
ĠWurtz ite
p yrite
ine l
ĠCl K
ĠF dd
ĠSp inel
ĠChalco pyrite
ĠAg Te
ĠW Co
ĠGa Rh
Ġ4 1
ĠIr Ta
a verite
al averite
ĠC alaverite
Sn S
Ġse vent
ĠPt Zn
ĠRh Rh
Ġsevent een
Ġtetra bor
ĠV Te
Ġtetrabor ide
ĠCu Ti
ĠY Sn
ĠCo Y
Ġ6 4
Ġcubo ctahedral
Ġ5 6
ĠSe Y
ĠAu Au
Ġ2 0
ĠN Nb
di um
p rim
ĠTi As
prim e
ĠHg K
ĠAl Se
ĠZr Sb
ĠNb Al
ĠNb Ir
ĠSc Sn
ĠCo Ta
ĠFe Si
ĠSc Hf
ĠZn Ta
ĠW Ir
H eusler
ĠP Ag
ĠNa P
ĠIr Si
ĠV N
ĠW Al
ĠCo Hf
ĠGa Ga
ĠPb Y
ĠOs Re
ĠCr Ta
ĠCd Hf
ĠAl As
ĠAl Ge
ĠSc Al
ĠCd Te
ĠIn Na
ĠRh P
Ġc arbide
ĠS Co
118 69
ĠN Y
ĠRh Se
ĠSn Cu
ĠFe Sb
r d
ĠTe In
ĠRb S
ĠPd Zr
ĠNb Rh
ĠTc P
ĠW Se
10 6
ĠMn Se
ĠS Sr
ĠRh Sb
ĠCd Au
ĠTi Ga
ĠNi Zr
ĠAu Sn
ĠNi Y
ĠPt V
10 8
ĠRb Rb
ĠRh In
10 07
et a
ĠIr Mo
ĠBi Bi
ĠI b
ĠRu As
ĠTa Ir
1186 0
ĠY Te
ĠCr Al
Mo S
r on
z eta
Ġ zeta
Ġi ron
Ġc ad
Ġg ol
ĠP Na
mi um
ĠGe Cu
ĠPbc n
Ġcad mium
Ġgol d
ĠCu Zr
ĠIb am
ĠAl P
ĠZr Se
ĠGa As
ĠZr Te
Se S
ĠAs Ni
ĠCo Nb
ĠS Bi
Ġsixteen th
ĠMn Te
ĠGa V
ĠPb Tl
ĠHf Pd
ĠRb Cl
11 3
57 0
ĠP Sn
Ge Te
ĠTl Ca
ĠN Ta
Te Se
Ġribb on
2 20
ĠS Tl
ĠCa S
ĠY Se
ĠAu Cu
13 2
ĠSi S
ĠSr Pb
ĠSc In
ĠP S
ĠTa Os
Ti S
ĠI mm
ĠAl N
ĠSe Pb
ĠNb P
ĠHg Ti
E ach
Ġ1 34
Ġang strom
ĠTi Co
ĠTe Bi
ĠV Pd
ĠCu Pd
ĠSc Ag
ĠTa As
ĠRu Cu
ĠTa Al
ĠZn Hf
ĠS Ti
ĠMo Hf
Sn Se
âĤģ âĤĥ
ĠPt Na
ĠSr Ge
ĠTi P
ĠPd Si
ĠSi Ti
ĠAs Zn
P S
ĠAl Ag
ĠY Al
ĠMo Pt
ĠTa Ru
ĠAg Ti
ĠMn Pd
ĠBi Hf
ĠAl Mn
ĠZn N
ĠNb Nb
ĠS Ru
ĠCa Ge
Ca Si
30 3
W S
ĠS V
ĠHf Si
ĠHf Sb
5 68
ĠAg Sc
Zn S
Mo Se
10 77
ĠCd Y
ĠRh Re
ĠPt Ge
ĠTe Sn
Ġ6 8
ĠTc Al
ell ur
ĠHf P
ĠHf Au
42 2
ĠHg Na
ĠP Tc
10 25
ĠCd Pt
11 5
16 6
101 80
ĠN V
ĠN Mn
ĠGa N
ĠCo Ti
ĠS Sn
ĠSe Rb
ĠCa Tl
ĠGe Ge
adi um
ĠZr Ge
20 4
ĠSi Cu
ĠNb As
ĠAg Na
ĠS K
âĤģ âĤĨ
ĠCa Cl
ĠZr S
ĠV Co
Ġ1 7
ĠIr P
122 43
ĠSi Zr
ĠTe Te
d ite
k ut
u dite
ĠS Rh
ĠS kut
ĠIn In
ter udite
ĠPd Hf
ĠSkut terudite
l ac
Ġb lac
ĠPd Ge
ĠSe Cr
ĠRu Re
ĠIr Ru
Ġblac k
ĠIn As
10 5
2 12
10 3
ĠY Cd
ĠV Pt
ĠAu Cd
11 7
ĠH Zr
3 06
ĠP Fe
ĠW P
ĠSn Ni
86 5
m et
Ġdi met
ĠIn Rh
OH NNCH
hy la
Ġrelat ive
ĠCd Sb
ĠCl Rb
ĠTc Ga
ĠHg Hf
Ġhydroxyla mino
Ġdimet hyla
Ġdimethyla mino
ĠHf Cu
ĠPbc a
ĠS Rb
ĠSr In
ĠRu Pt
Ni As
ĠAu Te
9 73
ĠIn P
ĠCd Se
v c
ĠIr As
11 89
ĠF mmm
ĠFdd d
ĠS am
ĠP o
ĠB erg
ĠGe Ni
ari um
ĠSam arium
ĠBerg man
ĠTe Cd
ĠSb Rb
12 4
ĠC Nb
ĠMo Co
Ni S
ĠPNa P
Ġg am
ĠNa In
Pb Se
Ġgam ma
+ ,
2 96
ĠZn Nb
Ġ6 5
ĠCr Ti
118 47
ĠAl Ca
ĠCa Se
ĠMo P
ĠCo Te
Sr Sn
1 33
9 74
ĠNi Cr
ĠRu Si
ĠRu Sb
b nite
g ite
n ar
ĠS ti
ĠHf Pt
ĠTe Na
ĠE nar
ĠSti bnite
ĠEnar gite
3 04
or ide
Ġ1 9
ĠP Co
ĠSi N
s ide
Ġin side
ĠAl Te
ĠCd Na
ĠPm c
s anite
ĠH Na
ĠCa Ag
ĠMo is
ĠMois sanite
ĠTi Zn
Ġ3 9
ĠY Ge
ĠCr Hf
12 29
1 67
m vc
t act
ro tact
ĠP rotact
in ium
ĠZr N
ĠSc Bi
ĠIr Ge
ĠProtact inium
âģ ¸
ĠPd Na
ĠHf As
86 2
ĠHg Te
118 46
ĠV P
Nb S
ĠTi Ir
ĠSn Nb
ĠAsAs Ir
o dium
s en
ĠC ement
ĠS odium
ĠSb Ni
Cu Al
86 6
Sr In
Ġar sen
ĠCement ite
Ġarsen ide
ĠCu Au
ĠSc N
12 7
ĠAu Rb
ĠIr Ti
ĠTl S
Ca Zn
ĠH aus
ĠSn Au
man nite
ĠHaus mannite
or und
ĠC Al
ĠC orund
ĠHf Ni
ĠTe As
ĠAg Ca
Ge Se
ĠTl Cl
57 3
ĠCorund um
In Se
121 54
$ \
K as
Ġ $\
ĠC W
ĠPt Ru
ĠCu Ni
ĠF ran
13 6
Kas per
ĠFran k
3 05
r thorhombic
on ium
âģ ·
ĠO rthorhombic
ĠCd Ca
50 3
ĠCu P
ĠIr V
120 7
ĠP K
ĠZr As
ĠZn Rh
ĠK Hg
12 3
ĠIn Sr
ĠNi Zn
ĠHg Sc
121 80
9 79
ĠTe Ag
5 71
P a
ĠS tructure
ĠCu Ru
ĠRh Zr
ĠFe Sc
Ġapproxim ate
ĠTi Rh
ĠPd In
ĠSc Cu
ĠRh Al
ĠHg Se
120 6
ĠP N
ĠP Hf
ĠRu Tc
ĠTi Mo
Ġ3 5
ĠSi As
10 67
ĠPb Cl
110 5
ĠP Si
ĠMo N
Ni Si
1 69
ĠC V
ĠH igh
ĠMo Zn
Cu S
ĠCl Na
ĠHf Se
ĠRu Rh
118 80
10 23
ĠNi Sc
20 2
ĠCu Y
ĠCu Ta
ĠSr S
ĠSb SbPt
ĠAl Rh
âĤģ âĤħ
Al Si
ĠSi Y
Sn Sb
15 6
ĠP c
ĠP mmm
Ġ3 1
ĠZn Sr
Ġ2 2
ĠP Re
ĠAl Si
ĠSc Te
12 25
ĠRb Au
Co Ge
ĠN Re
ĠTa P
ĠFe Hf
ĠFe Nb
12 46
ĠSe Cd
ĠSb Cu
10 69
ĠRe N
ĠPt Co
ĠSr Sb
ĠMn Hf
et een
Ġn in
Si S
Ti Al
10 4
Ge S
ĠCd Sc
Co As
ĠTl Se
Ġnin eteen
3 07
W Te
ĠIn Pd
ĠPt Ni
10 09
ĠCr N
Sb Te
ĠCd P
97 7
ĠTi Cl
86 1
121 55
ĠP Y
Al Ge
54 4
2 80
ĠS Cr
ĠZr Zn
ĠTa Ga
10 72
ĠAg P
ĠMn Sc
ĠCa Pb
ĠHf S
22 9
Cr S
ĠPm n
110 2
1 86
ĠN Al
Co Ni
110 3
102 53
ĠAsAs Rh
9 83
ĠSb In
ĠSn As
Ġ7 7
ĠRe Zr
9 71
ĠS Fe
Ġ3 7
ĠCa Sn
ĠRh Ti
Ti Pd
Sn Pt
Ca Cl
ĠRe Se
22 7
ĠOs Mn
122 89
Ġseventeen th
Y Ag
ĠSe Sb
ĠGe N
ĠFe Te
ĠFe Ti
Zr Rh
Ġ7 8
2 10
ĠS Cd
ĠP In
ĠP Ti
In S
ĠSr Sn
ĠGe V
ĠK Sb
ĠIr Sb
67 5
ĠTi Nb
ĠPd Ni
ĠAs In
ĠSr Bi
ĠK As
ĠOs Ru
ĠV C
ĠAs Ga
10 08
ĠMn Ta
ĠIr Zn
11 1
Ta S
3 11
ĠN Fe
ĠHf Zn
57 08
73 0
ĠPP Rh
9 89
ĠCa Hg
ĠSi Ca
ĠZn Sb
ĠSb Rh
ĠW Ni
Sb S
ĠBi Tl
Pb Cl
ĠAl Pd
20 7
20 9
ĠAs Ti
Ni Se
ĠRu P
16 5
122 67
1 55
7 55
l m
t or
it tor
en ite
ĠI lm
ĠS Nb
an adium
ĠIn Cl
ĠH ittor
ĠSi Fe
ĠV anadium
ĠSc Cl
ĠPb Hf
15 9
86 55
Ġnit ride
ĠIlm enite
ĠHittor f
2 74
ĠCu Cl
22 3
99 9
121 53
Ġt ellur
ĠAl H
Ġ3 3
ĠZr Pd
ĠSe Ca
ĠMo Cl
ĠW Pt
11 80
Ru Si
15 2
107 86
Ġtellur ide
K Hg
ĠGa P
ĠGa Sb
Pt Ge
Sb Se
ĠCd Cl
ĠZn Sc
ĠSb Ag
ĠSn Ag
Rh Si
ĠCl Cs
ĠCu Sn
ĠAs Zr
ĠSb Sb
Ġ6 9
ĠTl Zr
Ġ3 6
ĠZr Cl
ĠNb C
ĠTa Cu
ĠAu Zn
Co Si
3 10
ĠH Rb
ĠTe Pb
ĠGe Sr
Ni Ga
ĠMn Zn
Ag Zn
69 1
50 2
22 1
Ġ6 6
ĠRu S
ĠAl Sb
ĠTi Cu
12 6
Cu Ga
Cr Si
ĠCa H
ĠY Sb
Pd Bi
ĠSn V
12 18
55 5
120 9
ol onium
ĠP Al
ĠP olonium
Ġ3 8
in um
ĠNa Hg
ĠSc Cd
ĠSb Sr
ĠSb SnPt
ĠSn P
ĠSn SbPt
Ni Sb
ĠRu Os
um inum
Ca Au
45 9
- ,
ĠAl Sr
ĠTi Au
ĠNa H
ĠV As
10 29
Sn Te
16 3
ĠOs Si
97 2
Ġeighteen th
ĠSAg Bi
2 79
W Se
ĠSe Zn
ĠSe Rh
ĠV Ir
Si C
ĠAs Hf
As S
Ni P
12 5
Cu Te
67 22
96 9
86 54
86 53
1 79
ĠS ilic
ĠP Zr
ĠCa Au
ĠSe Sn
Ni Al
ĠRu Ni
50 1
Bi Se
1220 3
1079 9
ĠAsAs Ru
ĠSilic on
ĠCa Te
ĠPt Si
ĠSb Tl
Ga As
Rh Sn
Hf Ir
ĠOs Os
1 88
2 16
ĠAl V
ĠSi V
ĠGa Ta
ĠSc S
ĠZn Pt
21 3
ĠF mm
118 79
G Pa
20 3
ĠSr Zn
80 0
Ga Ge
12 47
Au Ag
16 52
8 50
ĠSe As
Ti Mo
ĠCr Ni
ĠRu N
ĠRu Mo
ĠPP Ir
ĠNi Cu
ĠPt Mn
ĠY N
12 9
Ġ7 9
67 0
Na In
82 8
81 3
or on
ĠS Sc
ĠB oride
ĠNb Sb
ĠOs As
Mn Al
Ġdel ta
6 07
Y Pd
ĠSi Se
ĠSr Sr
ĠK Te
ĠPb Pb
Ca Cu
Na Hg
ĠIn Ni
âĤĤ âĤĢ
ĠSe Ge
ĠSe Ag
As P
12 28
ĠRu Fe
ĠRu Zn
ĠPb Sc
ĠCu Si
As Se
ĠZn Te
Cr Fe
97 43
Pd H
ĠZn Mn
Ga Al
54 9
Ġnineteen th
ĠSe Mn
ĠIr Se
53 9
109 42
867 3
P Se
Ġb oron
ĠPd Te
ĠSi Nb
Fe Si
Pd Sn
Pd Au
Ti Si
69 7
Sr Au
70 0
13 9
Ġ3 4
ĠZr Hg
ĠPt Fe
ĠV Ru
ĠAg Hf
ĠMn Sb
ĠAu Ca
ĠRu Se
54 1
11 99
Co Se
88 9
71 4
99 89
Ġdiam ond
' {
1 40
9 75
V S
\ '{
ĠIn Ag
ĠH Ta
are vi
ĠZr Hf
20 0
ĠSb Co
ĠW As
67 2
11 93
Sr Zn
Sr Cd
118 45
ĠLav arevi
2 47
4 84
ĠV Nb
ĠIr Tc
ĠPb Ca
Ru Rh
Ca Pt
9 80
ĠSi Hf
ĠSi Sc
ĠAs Fe
43 4
Bi S
ĠHg Zr
ĠPn a
120 53
122 88
6 69
Y Rh
ĠS Ca
ĠTi Ni
ĠPt Re
ĠTa Zn
ĠZn Cu
ĠRh Tc
67 8
Co S
110 32
ĠZr H
ĠY Bi
Zr Ga
Ta Ru
47 3
86 47
84 9
ĠPtSn Sb
3 22
ĠS Hf
ĠZr Cu
Ġ6 7
ĠAg In
Ġ7 0
96 1
Ca Hg
ĠCs Cs
57 16
46 0
2 89
Y Sn
n ium
le nium
ĠM g
ĠPd Tc
20 5
ĠNb Ti
ĠMo Ru
Ga Sb
09 2
Cu Sn
11 85
Ca Ni
Cd As
ĠTc As
71 3
46 6
75 8
6 85
Ġ 80
ĠS Mn
ĠNi Fe
ĠY Au
ĠSn Sb
12 26
Ru Ir
Tc Al
121 89
Ġ2 1
ĠTi Zr
Si P
Zr Si
Sr P
19 8
P hase
ac d
ĠY Zn
ĠAs Sb
ĠSb As
ĠSn Sn
ĠSn Sr
ĠK P
ĠAu Ti
Zr In
67 6
71 7
86 49
89 4
82 5
97 6
Rb Sb
120 8
Fe S
ĠV Ta
ĠTe Y
Cu Si
ĠRu Y
ĠIr Y
21 4
Sr Ge
Os Si
1 42
2 73
Ġ2 9
ĠSe Cu
ĠSr Cl
Ga Si
ĠCr Rh
ĠRu V
Co P
50 0
Mn P
Mn Si
93 8
110 4
101 42
1 73
E r
c or
e ving
r or
t ri
Ġre cor
Ġre tri
ĠRh Ta
10 57
ĠGe Mo
ĠCr Sc
Mo As
Zr Te
ĠTl Sc
85 7
ĠOs Tc
02 4
19 2
Ġoccur red
ĠPK P
Er ror
Ġrecor d
Ġretri eving
2 83
ĠAl uminum
ĠZn V
ĠZn Ni
ĠSn Cl
ĠAu Nb
Sn Cl
Hf Pd
ĠCd Pd
Sc Rh
Sc Hf
121 79
121 72
1 34
3 13
ĠS Hg
ĠN Zn
ĠP res
ĠT ellur
20 8
ĠY P
12 27
11 90
Ca In
ĠRe Os
86 27
57 6
Tl P
19 9
60 43
13 1
99 8
ĠPres sure
ĠTellur ium
i eth
ĠS Zr
Ġtetra fluoride
Al P
Ti H
Pt Zn
ĠAg Cl
Ag Cd
Au Te
ĠTc S
15 1
Na Cl
Ġtwent ieth
121 71
102 52
ĠGeGe Pt
ĠPFe P
2 88
ĠTi Fe
ĠPt Sr
ĠSe Co
80 4
ĠGe Nb
Rh S
Cu Se
33 6
11 79
42 1
16 4
Ta Fe
ĠRe S
22 8
f ide
Ġs ul
Ti Se
ĠSb Bi
Ga Se
Zn Al
16 2
Cd Te
57 10
57 06
89 5
Ġind ium
99 4
120 67
120 73
101 81
Ġsul fide
2 11
ĠSe Ru
ĠSe lenium
ĠSb Cl
ĠAg Pt
Zn Ga
69 5
Ir V
22 4
ĠHg S
47 1
109 54
ĠPdAs Pd
1 71
6 43
Y Te
ĠC Mo
ĠNi Mn
ĠZn Au
ĠZn Ca
10 955
Ga S
ĠCr Cr
Zn P
05 5
122 60
1 74
Y Ga
Ġs up
er cond
ĠS P
ĠAl C
uct or
ĠPt Ca
ĠNb Zn
ĠSr H
ĠRh Y
ĠCr Si
ĠMn Al
Hf Pt
67 3
53 1
13 7
110 23
Ġsup ercond
Ġsupercond uctor
9 85
v anite
ĠC Ti
ĠN Sc
ĠSi Ni
ĠTe Sb
ĠSc Ni
80 3
Mo Te
Hf Sb
Au Sn
69 2
Cd S
15 8
62 8
110 40
118 67
Y Cu
Ġi ri
ĠMo Pd
ĠAg Pd
ĠAg Cu
ĠMn V
Sn P
Hf Si
54 6
Ġvan adium
Co Ga
Ir Te
ĠTc Ru
Mn As
Tc Ru
56 83
1215 9
ĠPbc m
Ġiri dium
1 80
2 15
Y In
ĠAl Cl
ĠCa Zn
ĠCa Cd
ĠSr Tl
ĠRh Cr
10 70
07 4
Co Al
Co Te
69 3
57 05
83 4
110 43
2 82
ĠS Al
ĠTi Sb
In P
Fe Sb
ĠCu Sb
ĠMo Rh
12 14
42 3
Ru Al
ĠCl Sr
Ir Sn
52 6
Sr Pt
83 7
110 20
ĠAsCa As
ĠPAg P
2 40
W N
Ġ2 3
Al H
ĠY Pt
Fe As
ĠCu Ca
Si As
ĠTa Rh
Zn In
11 207
ĠTc Co
51 4
1216 4
Ġm p
ĠS Cs
âĤģ âĤī
Fe Se
Co Sn
Ca Cd
Sc Sn
Sr Cl
32 8
102 55
ĠAsSr As
2 76
ĠPt Bi
ĠNa Au
ĠCu Nb
Pt Ga
33 1
Au Cd
55 9
ĠTc Rh
ĠRe P
Pb Te
86 46
Sr As
Tl Pb
19 1
77 7
121 73
1 77
ĠP Ga
Ti As
ĠSn Pt
Ni Te
Sb As
12 45
50 4
Nb Rh
Ca Pd
1215 7
1219 5
4 43
Y Zn
ĠCa In
ĠPd Al
ĠSi Pt
ĠGa Cl
Zn Se
Ġ7 2
Ca H
ĠHg Hg
Sr Al
62 7
Tl Cl
29 1
1 70
ĠP Ni
ĠAl Mo
ĠPd Cd
ĠPt Tc
Pd Cu
ĠGe Mn
Ga N
ĠMn Os
Rh As
ĠBi Ca
69 8
Ca Tl
Bi As
93 2
93 5
Os P
13 0
118 72
122 42
1216 6
ĠN Cr
ĠPt Se
ĠAs S
ĠSb Ca
Ga Sn
ĠAu Na
09 4
ĠRu Sc
11 33
Ru Ga
53 6
Sc Ga
ĠTc Hf
21 9
Na Au
47 8
19 7
97 8
97 20
107 79
1023 9
V N
ĠN p
Al N
ĠSi Co
10 63
Ga Te
12 8
ĠAu Sr
Hf S
Sc Cu
82 9
Tc Rh
13 8
1216 3
1183 4
W P
x Sn
ĠCa Bi
ĠPd Sb
ĠV Zn
ĠTe Se
ĠTe Ti
Pd Te
80 2
Ti Rh
ĠRu Te
Mo P
Zr H
54 5
Au Cu
42 âĤģ
Ru Sb
52 5
23 0
57 07
122 47
9 813
s s
Al Cl
ĠZr Rh
ĠY Ir
ĠSc Au
Pd Ag
ĠAs Cd
ĠRu Zr
08 1
69 9
Ir Ge
50 5
Nb P
55 7
55 8
21 47
86 59
Mn Ge
73 9
Os Ru
97 23
120 66
1 75
ĠAl Co
ĠR ut
ĠPd Sr
ĠW Zr
Ni Ge
Cu Ge
Hf P
11 78
Ru As
ĠCs S
86 60
77 6
122 16
101 79
ĠRut ile
K Sb
l oride
ĠThe oretical
ĠNi Pd
ĠNi Bi
Fe V
Ti Cr
ĠCo Tc
54 26
43 7
33 7
Co Sb
Ca As
64 9
120 77
118 78
122 73
107 80
1 46
1 83
2 78
ĠP Cd
ĠH Sc
Fe P
ĠSc Pt
ĠW Cl
10 13
ĠBi Ga
42 9
85 6
Cd In
15 7
23 2
82 6
24 9
56 96
2 97
ĠSi Mn
ĠSe Zr
10 96
ĠIr Bi
ĠBi Sr
43 0
43 5
08 2
69 4
Ir Si
53 8
Mn N
45 6
73 7
14 9
120 5
1224 4
3 09
6 80
7 54
ĠIn Co
ĠP are
ĠP Ir
ĠPd H
ĠPt P
ĠTe Nb
ĠSc Zn
ĠK In
ĠMn Ti
ĠMn Pt
12 22
Zn As
ĠAu Hf
Ir Al
86 50
Cr Al
Sr Pd
23 1
57 03
90 0
110 6
110 17
Ġsuperconductor s
ĠPare nt
W Si
f irst
ĠS yl
ĠS As
ĠPd P
ĠHf Co
Fe Ti
ĠV W
ĠTe Hg
ĠSb Y
Pt Si
Ga P
ĠMn Ga
Sn As
Zr Sn
ĠRb Se
Hf Sn
42 6
Ir Sb
85 2
Ca Sn
47 4
Tl Te
97 22
Tc Os
98 96
ĠSyl vanite
2 42
7 93
K Na
Y Au
h ide
Ġ2 4
ĠGa Fe
ĠTe Sc
ĠSn N
ĠMn Ca
ĠAu Cl
Mn Se
Sr S
74 5
64 8
56 80
1219 4
Ġ2 8
ĠP TlP
ĠH K
âĤģ âĤĩ
ĠPd Ga
ĠPt Pd
ĠNb Cl
se cond
ĠAu Pd
ĠPb Na
67 7
02 3
74 4
97 73
Tc Pd
51 7
77 2
121 93
118 77
ĠSeK Bi
1229 0
r ich
Ġt rich
Ġ2 5
ĠSr Pd
Rh Se
Rh Zn
Zr S
Hf As
05 2
ĠTc Ir
86 23
68 46
Re N
121 83
121 70
567 3
Ġtrich loride
6 62
7 06
V Se
n a
ĠPt As
In Cl
Pd P
Ti N
ĠSb Al
Rh Te
Zr P
ĠRb H
Hf N
33 5
Cr P
Mn Sb
93 9
92 8
107 88
1080 0
117 96
117 89
V Ga
b ra
ĠH Pd
ĠHf Ir
ĠNa K
Pd Zn
ĠAs Rh
Ag Al
54 0
07 7
Nb Mo
Sc Zn
Cr N
30 0
122 57
1220 6
567 7
1224 8
974 9
bra ss
ĠC cce
ĠIn Nb
âĤĤ âĤģ
ĠMiller ite
ĠSe Sr
ĠV Mn
ĠSc Ir
ĠSc Pb
ĠFe Cl
Cu In
ĠRu SeS
Mo Cl
Zr As
Ta N
ĠRe Co
86 16
86 61
Hg S
Mn Ga
m cc
Ġp yrite
ĠP Rb
Al As
ĠNi Pt
ĠZr Bi
Si Te
ĠTe Mn
ĠSr Al
Ti Ga
ĠCo Cr
Pt Mo
54 3
67 4
Ir As
53 4
Nb Pd
Cr As
73 1
34 8
ĠPP Ru
107 89
7 80
ĠZr Au
ĠGa Ca
ĠNa N
ĠNa Pb
ĠMo Ir
Ti P
ĠW Rh
ĠW Ru
ĠW Os
ĠCo Sc
Pt Au
ĠGe Ca
Ge As
Mo Ge
Hf Al
Hf Ni
Ir P
Cd Cl
86 19
40 4
57 02
66 3
83 2
97 29
84 1
120 70
121 74
118 74
107 96
1219 9
6 08
7 82
ĠC mm
20 1
ĠNa Cd
ĠTe Cu
Ti Au
Pt Ag
Ġ6 1
Zr Hg
33 9
53 2
Pb Bi
Cr Ga
83 5
79 2
68 47
64 4
1220 4
5 22
ĠP Cu
ĠP Sc
ĠH Nb
ĠSe Pt
Ti Cl
10 87
10 95
ĠIr Sn
ĠBi SbPt
42 7
Co Ti
Ir Se
Ir In
85 1
Cd Sb
Sc In
Na P
86 51
65 9
63 5
118 40
1219 0
1007 7
ĠZrH N
Al Pt
20 30
ĠSe Hg
ĠV Fe
ĠV Hf
Pd S
80 9
Ti Mn
ĠCo Pt
ĠGe Y
Zn N
09 6
Cu Zn
11 91
Au Cl
07 9
69 0
Nb Al
05 8
ĠTc Zn
Na As
71 8
86 26
66 5
79 1
56 89
Rb Au
32 6
120 63
110 29
ĠSFe Cu
3 14
W Ir
Y Al
Y Ni
Y Cd
t an
ĠS tan
ĠA em
âĤģ âĤĦ
ĠNa Si
ĠV Ge
ĠSc Pd
ĠAs Se
ĠAs Os
ĠTa Se
ĠZn Cl
Ti Te
ĠSb Fe
ĠCr Co
Ag Cl
54 7
96 4
42 8
ĠCl Pb
50 6
53 02
Nb Ru
ĠOs N
86 4
82 7
Tl S
25 8
45 1
Tc Ir
63 22
32 7
118 71
ĠSbBi Pt
ĠStan nite
2 93
V Os
ith ium
Ġl ithium
ĠTi H
ĠG Pa
Al Cu
ĠNb Mo
ĠTe Zn
10 227
10 969
Pt S
ĠGe P
Mo Rh
Hf Rh
Hf Co
07 3
Ca Pb
55 52
ĠRe Ir
86 57
Hg Te
83 1
25 9
81 8
49 8
110 07
118 42
107 73
983 5
1 76
l ut
ĠP lut
ĠPd Ca
ĠHf Zr
20 70
ĠGa Pd
ĠSe Hf
ĠV Al
ĠAs Al
ĠZn Cs
ĠRh Co
ĠCo Re
Pt Al
ĠAg Sr
Rh In
Zr Cl
Hf Zr
Hf Tc
54 24
11 57
08 3
Nb N
47 9
06 0
Sr Tl
57 04
75 6
73 5
24 1
27 83
120 82
119 07
ĠPlut onium
9 90
Y Pt
ĠN Na
ĠPt S
Pd Cl
Ti Ni
10 12
09 0
Mo Si
Zr Se
Zr Ge
11 96
Sc Ni
Sc Ge
22 6
Sr Cu
23 29
57 43
89 8
Rb Ga
Rb Cl
110 21
567 9
V W
V Si
V Tc
ĠS Ta
ĠCa Pt
ĠY Pb
ĠTe Cr
ĠSb Nb
ĠK Pb
ĠMn Au
Hf Au
43 1
11 20
Ru Te
50 55
16 8
Ca Ag
88 1
Na Bi
86 56
46 3
97 55
90 1
98 33
110 30
121 67
9 13
c m
d ale
h r
ĠC lat
ĠS Pt
ĠS Os
Al Fe
Al Sb
ĠGa Mn
Fe Te
ĠNb Co
Pd Al
ĠAs Pd
ĠAs Sc
As Pt
ĠSr Cd
ĠSb Ru
ĠCo Al
ĠAg K
ĠMn Ni
Zn Ge
Mo Pd
Hf Cu
Hf Ru
54 2
96 5
69 71
Ta Os
ĠCs H
ĠOs S
52 9
Mn Te
23 6
66 6
70 1
65 6
79 9
ĠL ons
99 91
Cs Hg
110 19
110 36
dale ite
hr ate
ĠClat hrate
ĠLons daleite
1 93
1 72
Y H
it ride
th ir
Ġcarbon itride
ĠP Nb
âĤĤ âĤĦ
ĠTe Ca
ĠRh Mn
ĠSb Ir
Pt Cd
ĠCr C
Ag Te
Mo Al
ĠBi Sb
67 23
11 98
Nb Te
22 5
88 8
88 80
ĠOs Zr
23 9
57 11
63 23
Rb In
four th
1079 7
ĠSeNa V
1215 2
thir d
5 11
K Pb
V Te
ĠS Cl
Ġ2 6
Ġ2 7
ĠNi V
In Pb
ĠNa Pt
Si Ni
ĠSc Rh
Te S
ĠGe As
43 3
43 6
43 8
ĠCl Ca
53 0
Sc S
Sc Si
86 0
89 2
89 7
93 4
97 75
56 1
29 2
49 4
118 50
109 51
569 7
1223 8
ĠP Mo
ĠH Co
Al Cr
ĠPd Re
ĠNi Re
ĠGa Cu
ĠPt H
Fe N
Pd Se
Pd Ni
10 68
10 84
ĠFe N
ĠAu Ta
Sn Rh
Mo Ru
Hf Zn
33 0
Au Ta
96 0
ĠTl Te
Ta Zn
Cd Pb
Sc Pt
ĠTc Re
21 328
88 4
Na Ag
Na Cd
86 58
Hg Ti
79 5
18 67
98 54
ĠSeRb Sb
6 34
8 15
S S
V Ge
m d
t w
ĠAl Cr
ĠTe Zr
ĠRh Fe
Ti W
Ti Fe
ĠSb K
ĠSb Ga
Pt Cl
Rh P
09 9
Ag As
Au Pb
Ir Ti
ĠTl Pb
Ta Te
ĠCs Se
86 07
86 22
89 3
82 4
75 9
81 4
Os Ga
Re Ir
41 3
92 6
110 57
1216 530
tw o
9 827
P Pt
c anite
ĠI ma
ĠP Os
ĠSe Ni
In Te
ĠNa Tl
ĠV ul
ĠSc Se
ĠAs Co
10 71
Ga Cl
ĠCr Cl
ĠAu Si
Rh V
Ag Hf
Zr Al
Hf Ga
54 16
Nb W
Nb As
Ta As
Sc Ru
ĠTc Cl
21 8
88 6
71 92
Mn Fe
Mn Os
62 73
57 12
46 5
19 5
18 7
Tc Ga
121 88
122 72
109 52
109 56
308 76
ĠPCa P
ĠInSb Te
100 32
568 7
1072 7
ĠVul canite
6 33
7 79
9 49
Y Se
n mc
ĠP Rh
Al Sc
ĠPt Cl
Si H
Si Pt
Pd Si
ĠTa Cl
80 8
Ti Os
10 19
Pt H
Ni Y
Ni Bi
ĠCr Sb
Cu Cl
Co N
Nb Cl
Sc Ag
Na Pb
86 3
Sr H
75 1
25 1
97 16
Re Si
59 4
14 4
76 3
13 64
110 63
121 69
122 15
122 84
109 13
102 57
ĠAsAs Pd
ĠSTl In
ĠPTc P
1 85
2 63
6 12
W Pd
ĠA ma
ĠCu Ge
ĠAs Nb
ĠTa Au
80 5
Ti In
Pt P
Pt Te
ĠK H
ĠFe Ga
ĠFe Mn
Mo V
ĠIr Al
54 18
11 47
Au Tl
42 4
Ru In
88 60
Sr Sb
57 5
89 9
Re Tc
Rb Hg
110 26
122 70
mb c
1063 6
1 45
1 78
3 12
8 10
K Ag
V Ru
V Mn
Y Sb
n b
o b
Ã ¢
Æ Ĵ
âĢ ļ
ĠIn Ca
ĠAl Ga
ĠPd Cl
20 06
ĠSe Al
ĠSe Sc
Fe Co
Si Se
ĠZn Ga
ĠSb Hf
ĠCo N
Pt V
Sb Cl
Zn Cl
Cu Sb
Hf Cr
ĠCl Tl
53 7
Nb Si
Ta Si
Ca S
Sc Te
47 5
23 8
19 00
79 7
Cs Pb
110 31
108 74
1180 9
1 82
4 09
n cc
ĠP AsPt
Al Ni
ĠSi H
ĠSi Te
ĠSe S
ĠTe K
ĠTe Fe
ĠAs Ta
ĠAs PPt
ĠTa Co
ĠSr Te
ĠSb Na
10 66
Pt Se
ĠBi Ir
ĠBi Na
ĠCl Ag
Nb Se
Ca Te
Sc Pd
Sc Ir
Sc Cd
ĠRe Ru
15 63
Na Pd
47 0
86 38
52 4
40 0
02 9
Os Ge
56 85
44 8
48 7
120 71
110 38
1183 0
1183 694
ĠSSb Rh
ĠPSr P
220 95
ĠPY P
188 7
3 01
6 47
8 69
8 71
9 09
ĠS Ga
ĠCa Cu
Fe Rh
ĠNb H
Pd Tl
ĠTa Sb
ĠZn In
Ti Ru
ĠFe Ge
Zr Ni
Hf Mo
11 56
96 6
08 6
Ru S
Ru Ta
Nb Ga
ĠTc Sc
ĠOs Te
Cr Se
Mn Zn
23 152
89 1
70 4
64 1
44 4
98 23
00 0
1216 0
571 3
ĠSeSb Ru
985 825
11867 81
11020 18
S Cs
f if
ĠAl Tc
ĠNa Ag
10 27
Pt Ni
Pt Rh
ĠSn Ta
ĠCr Ga
ĠFe Rh
Zn Zr
Rh Sb
Cu Zr
ĠIr Zr
54 07
54 25
50 48
16 0
16 1
85 9
Na Tl
57 4
74 9
64 86
78 7
14 15
120 09
110 42
122 69
1079 4
308 71
1018 166
1224 9
108 47
11021 31
fif th
1 47
4 54
6 42
S V
ĠH Cs
Al Te
ĠHf Sn
ĠSi Rh
ĠSi Mo
ĠGa Cr
ĠAs Pt
As Te
ĠTa Mo
10 06
10 94
10 17
Ge Si
Ge Sb
12 102
Zn Sn
Au Sb
42 5
Nb H
85 8
Cd Ga
22 337
86 8
86 28
40 1
Re Os
63 98
120 62
120 57
120 74
Cs Ga
122 74
107 93
1220 023
1079 5
867 8
567 5
1080 4
1018 113
1184 558
11846 32
11845 91
313 12
ĠPRb P
11842 65
9823 70
2 540
4 45
5 10
6 45
7 69
7 73
8 23
S Tl
V Al
h os
n c
p hide
Ġp hos
ĠN Ga
ĠH V
Al Co
ĠCa Ni
ĠHf Te
ĠNi ob
20 539
ĠNa Pd
ĠV Tc
ĠTe Cl
ĠMo Ta
Ti Sb
10 56
10 000
Sb N
09 5
ĠRu Hf
Mo Ta
54 29
08 9
Ru P
ĠCl In
Nb Ge
Ta Rh
Na Pt
ĠOs Sc
86 37
Sr Pb
23 02
66 1
59 2
14 83
14 87
91 7
99 53
31 348
Cs Au
233 9
1186 427
102 50
569 3
101 72
ĠSSb Ir
1217 895
112 90
ĠSBi Ir
133 7
755 169
8649 84
9813 83
Ġphos phide
ĠNiob ium
1 43
1 81
6 05
H Cs
ĠIn Rb
ĠH Cl
ĠTi Mn
ĠSi Ir
In Sn
ĠNa Ge
Fe Ni
ĠV Ni
ĠV Ga
ĠCu As
ĠSr Pt
10 55
12 11
Ag P
Zr Cu
ĠRb In
Au Zn
96 8
Ru Se
69 07
Ir Ru
85 5
Bi Sb
55 65
Na Ga
Cr Rh
Hg Se
62 87
Tl Se
75 65
97 65
Tc Pt
14 1
98 47
120 33
110 1
107 05
107 74
1186 055
569 0
567 409
119 02
308 36
1078 123
204 18
124 67
974 421
8673 51
10142 31
2147 7
9723 73
4 42
5 54
5 105
5 544
7 42
7 66
K Cr
W Al
p rite
al la
ĠC cc
ĠC Mn
Ġp alla
ĠP Se
ĠTi In
ĠTi Cr
ĠTi Re
Ġal uminum
Al Se
ĠNi Co
20 83
ĠSi Os
ĠSe Fe
ĠSe Ga
ĠV Mo
ĠCu H
ĠCu prite
ĠTe Sr
Pd Mo
80 7
ĠRh N
ĠSb SrSn
ĠW W
10 14
ĠCo Mn
ĠGe H
ĠGe Rh
Ga Y
ĠFe Ir
Ge H
ĠIr Fe
ĠPb Rh
ĠCd Ge
07 8
Ru N
53 5
Ca P
ĠTc Pt
22 2âĤģ
ĠOs Cl
Cr Te
Cr Ru
Cr Mn
06 8
Sr Bi
23 159
62 4
62 6
57 9
Tl In
65 1
75 98
81 7
18 23
Tc Ni
Re Rh
77 8
ĠPn na
44 9
99 93
30 501
110 28
122 63
1183 2
ĠHCa Ni
ĠAsAs Os
ĠSZn In
119 09
1184 502
ĠSCo Cu
1025 223
973 111
123 88
1067 9
169 9
11880 61
12155 09
8653 55
1652 6
975 204
ĠAsFe Ni
8647 58
ĠAsSb Rh
ĠAsSb Ir
ĠSbAs Rh
ĠSbAs Ir
1133 4
183 6
6846 02
11796 05
10077 86
6322 86
Ġpalla dium
2 576
3 62
4 50
5 50
9 05
K Se
V Ni
ĠP Cl
ĠTi Tc
20 928
ĠGa Na
ĠNa Ga
Fe Ru
Pd Pt
As N
Ti Zn
10 62
up hide
Mo W
11 92
11 94
Co In
50 50
50 22
ĠTl Hg
Bi Te
Cd Sn
22 71
Mn S
62 54
89 36
93 0
74 44
83 6
19 73
Os Al
72 9
49 5
Rb Te
Cs Sb
110 61
118 19
118 2070
122 61
109 50
114 20
114 53
ĠDis uphide
1186 109
1079 574
1018 717
112 29
303 66
115 71
10180 59
10180 29
133 65
1207 100
10799 52
11032 11
12166 55
12066 36
12257 01
12174 09
9835 09
10727 24
11042 75
ĠCcc m
2 87
2 108
2 678
3 93
7 88
9 84
K Cl
P N
P Ir
S Cl
b ar
l w
ĠC in
st ibit
ĠN Co
ĠH Hf
ĠTi Ru
ze lw
ĠZr Sn
ĠGa GeTe
ĠSe SiPt
Fe Ga
Fe Cl
ĠMo V
ĠMo W
ĠZn Ir
ĠZn Cd
10 30
Pt Ru
ĠGe Pt
ĠGe Co
12 79
Sn N
ĠRu Mn
ĠBi Sc
ĠPb K
ĠPb Pt
ĠPb Sr
67 9
33 2
11 108
ĠNH S
Ru Ti
ĠCl Cd
Ir Rh
ĠTl P
16 074
Nb Pt
Ta Ge
Ca Co
Cd Zn
ĠRe Te
Mn Pd
Mn Ir
18 4
24 8
60 0
60 1
59 55
78 46
72 91
99 85
ood ite
30 478
120 5955
110 56
ĠHa zelw
1186 058
567 772
ĠSNa In
1187 881
1217 804
ĠMoAs P
1221 484
1188 800
1188 662
ĠAsTe Ir
ĠChalco stibit
11869 01
106 42
220 4
220 09
1077 7
1077 098
1077 466
296 46
11846 33
11846 58
ĠTeAs Ir
979 9
202 63
1246 3
229 24
YAg Se
311 72
1180 659
6722 41
213 59
ĠSeAs Pd
607 111
ĠSeGe Pt
669 913
11032 12
8647 54
10181 53
5705 62
240 3
11207 69
130 10
12163 23
na bar
12070 13
1055 994
9765 89
ĠCin nabar
ĠHazelw oodite
ĠChalcostibit e
2 105
3 29
7 526
8 11
8 46
9 969
H Cl
N Cl
W Cl
ĠN Ni
ĠIn Hg
ĠP cc
ĠAl Fe
ĠH Ni
20 82
20 132
ĠSe Nb
ĠCu N
ĠNb Au
Ti Co
10 42
10 02
10 487
ĠCo Ni
Pt Y
Sb P
12 137
Zn Ir
09 1
Ag Zr
Hf Se
54 61
07 1
07 2
Co Pt
Co Ir
16 20
05 9
ĠCs Te
Sc Fe
22 209
ĠOs V
86 52
23 61
74 8
65 5461
75 54
19 22
19 932
25 10
68 7
24 50
56 88
63 1
63 9755
99 70
30 675
120 68
110 04
122 75
122 87
109 5302
1183 144
1079 810
102 40
102 93
1217 081
1007 692
11860 67
11860 50
11860 34
1077 503
10180 28
204 83
1207 024
979 423
1009 730
311 44
165 21
10786 02
8673 47
685 146
ĠSMn Cd
214 05
1179 802
5703 77
9729 81
10956 69
6398 74
10705 80
10679 33
1 536
1 543
2 67
2 84
2 693
4 41
5 86
6 16
9 939
K P
K Te
Y Ir
ĠS Pd
ĠZ int
ĠTi W
Al Mo
20 59
ĠGa Ru
ĠPt Y
In N
ĠNb Re
Pd Ta
ĠAs Y
Ti Tc
10 89
10 61
10 136
10 559
ĠSn Ca
ĠSn Mn
ĠFe Ni
Ge N
09 7
54 8
33 8
Ru Ge
69 85
Ta Pd
05 1
55 6
ĠRe Cl
15 22
ĠOs Y
Sr Te
Sr Ru
23 69
23 206
93 7
83 0
24 082
97 46
97 6273
17 47
120 69
110 11
110 35
110 304
122 64
109 41
1183 209
1186 024
196 3
1079 2
569 289
569 170
1187 474
308 35
1018 124
1223 866
1184 478
1184 808
570 691
306 82
186 22
223 20
541 837
975 129
273 1
6043 21
174 9
12159 97
11207 67
10255 13
10239 24
5707 86
12066 59
10179 83
1096 994
10227 25
2329 5
11850 41
5697 85
10642 27
ĠZint l
10559 40
110304 4
4 06
5 62
6 96
6 23
7 08
8 75
9 88
K Bi
S Zr
V Pd
W Ru
ĠC Cr
ĠS C
ĠIn K
ĠP Ru
ĠAl Os
ĠPd Se
ĠSi Ta
ĠSi Cr
ĠPt Cr
ĠSe Pd
ĠY Rh
ĠY Co
ĠMo Ge
Pd Pb
ĠAs Ru
As Sb
ĠSr Se
80 1
80 6
80 41
10 861
10 649
Pt Pd
Pt Tl
ĠGe Hf
ĠSn Bi
Ni Zn
ĠAg Ge
ĠCr Ge
ĠFe Pt
12 13
12 561
Zn SnAs
Mo TeSe
Zr Au
ĠCl Hg
Ir Mo
Ir Nb
Ta V
Ta Ni
Sc Tc
55 1
22 94
22 555
15 649
88 3
Na H
86 40
Sr N
Sr Hg
23 5
57 8
66 15
65 6615
97 71
Tc P
59 5
84 62
29 055
29 551
13 5
99 54
27 33
31 473
110 9
110 41
118 70
122 85
Ġbipyramid al
114 81
1216 825
1183 501
1183 517
1186 158
1186 437
1220 635
119 46
ĠMoTe Se
ĠSNa Cr
1080 834
308 52
1018 121
1018 100
1217 111
ĠSCo Rh
106 85
1007 730
MoS Se
220 1
204 05
11847 64
167 19
1067 627
169 8
11880 08
307 45
1072 744
210 93
755 8
8655 27
8654 30
11879 74
ĠSeAs Os
10942 55
669 917
6043 25
ĠSP Ru
ĠSP Os
177 57
1063 670
11878 16
ĠSAs Os
9896 95
12194 57
5673 79
9833 65
5711 60
9775 85
5429 15
11061 69
10649 81
2 121
3 16
3 81
6 20
9 52
9 828
B a
V Pt
Y Cl
ĠN K
ĠCa Al
ĠNi N
20 555
20 800
ĠY H
Fe Al
Fe Ge
ĠAs Ir
ĠAs Na
ĠAs AgAs
ĠRh Hg
ĠW V
10 28
ĠK N
ĠAg AsSe
se ven
ĠMn Ru
12 108
Rh Hg
Cu O
Ag Se
Ag Ga
Ag Ca
Mo Ir
ĠBi K
67 65
96 16
08 5
07 6
16 01
Nb Sn
Nb Tc
Bi P
Sc Os
22 691
15 15
15 23
21 80
21 72
21 104
88 86
71 9
ĠOs Sb
86 62
57 1199
73 4
73 6
73 90
97 89
Tc Cl
29 0
13 63
87 81
26 14
00 3
120 90
120 6486
110 52
121 82
121 78
118 96
122 50
1183 222
1079 460
867 7
867 9
119 10
1080 443
1080 797
308 28
1018 103
1217 163
112 31
100 21
ĠNZr Zn
ĠSeCs Bi
1007 976
ĠSBi Pb
113 22
113 29
570 197
132 70
115 07
ĠSSn Pt
ĠTeTe Ir
306 68
973 198
11847 55
11847 03
133 5
136 88
5708 96
989 737
155 2
223 18
999 502
1180 961
972 889
6722 32
ĠSeAs Ir
205 81
273 2
1057 273
164 88
12073 93
171 73
ĠSP Ir
11040 47
11867 60
177 06
11877 02
ZrP P
9749 20
12190 06
1012 435
12102 15
12057 86
1014 111
2 86
4 89
5 16
5 64
6 22209
7 60
8 80
8 22
9 15
K In
P Rh
o di
ĠAl Re
Ġtri odi
20 549
20 672
20 576
20 526
20 291
ĠB is
ĠV Sb
Pd Hg
ĠSr Ag
80 73
10 015
10 157
10 404
10 644
Pt Hf
Ni Pd
12 66
Rh Ga
Rh Ge
Ag Pt
Ag Sn
Mo N
Zr Ag
43 2
67 1
33 06
11 52
11 328
11 456
Ru Zr
Ir Zn
Nb Zn
Nb Co
Ta Mn
Cd N
Sc N
ĠRe Al
22 85
22 466
88 83
Na Te
06 2
Sr CaSi
23 95
89 39
74 98
75 33
19 0
25 83
25 60
79 4
18 22
64 19
Re Al
04 4
51 3
63 63
26 12
120 84
Cs In
110 49
110 5302
121 81
118 3306
122 33
109 10
109 05
1183 484
1183 998
1183 627
1186 444
1079 938
102 60
569 249
569 095
567 822
119 57
1187 665
1018 156
1018 129
1221 420
1223 977
1078 697
1007 691
11860 33
11860 18
570 459
220 40
303 52
303 73
212 8
306 85
974 4
11846 50
127 23
573 514
1105 078
1009 834
1009 756
989 7
989 782
274 10
10786 65
126 14
11879 13
1652 3
9743 76
10942 48
200 34
12288 15
1185 202
6043 18
12067 43
211 62
224 81
10955 78
8646 47
12242 98
278 4
5703 62
793 1
8661 86
11874 86
10227 21
1012 110
9991 43
1156 3
12062 68
6907 60
9799 11
Ġtriodi de
ĠBis muth
10404 53
1 459
2 534
3 17
4 62
5 546
6 55
6 57
8 426
h il
Ã Į
âĢ ¦
ĠS Ge
ĠH yd
ĠR ÃĮ
ĠTi Os
ĠPd Fe
ĠHf TeSe
20 628
20 745
20 433
ĠTe Tl
ĠZn SnAs
Ti Cd
10 201
10 901
10 10136
ĠCo Sn
Pt Ti
ĠSn Ir
12 12
12 60
12 35
12 124
12 104
12 524
Zn H
ĠAu K
Sn H
Sn Ru
Rh Pb
Cu Pt
Ag S
Hf Mn
11 972
11 466
Ru V
Ca Fe
ĠCs Pb
Cd Y
ĠTc Zr
15 339
Na Se
86 96
52 3
rop hil
Hg Zn
Sr Ni
89 48
83 72
19 53
19 89
25 97
25 17
97 84
64 98
Re Ru
72 62
13 155
63 72
63 6498
Rb S
ĠTiSe S
01 7
17 86
17 695
30 500
110 25
114 54
114 07
1216 5
1216 575
107 12
107 82
1186 152
1186 137
1186 074
1186 081
1220 327
1079 127
569 535
206 69
ĠCdAs Cl
867 780
119 08
1187 258
1080 831
308 11
308 46
1018 125
1018 151
112 86
1188 663
100 54
1078 331
106 1133
106 6254
113 45
113 87
570 199
568 115
1025 159
166 09
10180 19
105 8696
306 83
306 81
865 166
1189 573
573 691
573 579
1207 251
1067 758
1067 880
1105 835
1023 934
1069 2
307 17
ĠPmn a
983 445
210 68
1008 555
1008 634
310 02
213 42
203 51
9989 49
1208 852
12172 55
10954 95
1070 544
1214 889
276 07
12195 09
138 53
11834 55
1178 742
297 67
1205 858
10800 01
11789 52
11789 32
12174 07
10796 81
10077 60
11007 73
9991 33
1071 777
12272 90
5687 89
nb m
5685 16
11038 42
5048 12
5544 62
9746 20
ĠHyd rophil
9784 98
ĠHydrophil ite
1 502
2 55
2 503
2 700
2 434
3 80
3 63
5 803
6 404
7 33
K CaCl
V P
W Os
e a
th ree
ĠA ea
ĠAl Ru
Al Sn
20 34
20 95
20 862
20 849
20 695
ĠGa Co
ĠV Cr
ĠNb Tc
Pd Y
Pd Sb
ĠTa Re
ĠRh Hf
Ti Ge
Ti Cu
ĠSb V
10 21
10 52
10 49
10 106
ĠCo Ga
ĠGe Ta
ĠGe GaGe
Ge P
12 64
12 772
ĠAu Zr
Sn Bi
Rh N
Rh Ru
Cu P
Ag Cu
Mo Re
ĠRb P
Hf Fe
Hf Bi
ĠPb Hg
67 62
ĠCd In
ĠCd Sr
11 15
11 75
11 36
Au In
Ru Ni
69 38
16 48
16 960
Nb Sb
Nb Re
Ca Sb
ĠCs Au
Cd P
ĠRe Ta
15 965
86 25
86 29
23 22
23 279
57 1079
74 93
Tl Sr
25 12
25 93
25 82
79 8
18 76
24 49
24 90
Re Ta
72 6
13 164
Rb H
Rb As
Rb PbCl
99 22
99 98
27 75
26 67
17 93
118 75
122 80
114 62
1183 227
1183 224
1183 777
1220 003
1079 131
569 867
567 313
1187 241
1219 503
1219 734
1080 2
1080 121
1080 608
1080 448
308 75
1217 422
1217 894
1223 773
112 61
1188 303
1184 905
1007 857
11860 47
11860 30
570 428
220 50
568 792
568 718
115 50
ĠSeRb Bi
204 85
12243 90
212 76
11847 13
304 83
ĠPc a
1225 186
1072 429
12289 01
5708 95
274 13
125 93
6722 22
179 74
247 21
5716 36
142 88
5706 51
171 90
643 2
174 49
240 4
9720 69
9720 88
138 71
8659 10
11878 11
12290 12
5673 97
706 531
11796 56
10789 89
10969 15
990 532
990 090
1196 961
5743 79
5679 29
1198 692
11063 81
12284 91
10913 75
238 70
1066 136
5425 69
6287 73
9847 44
10950 24
984 698
9771 89
9789 74
12124 07
11972 42
5803 57
6404 16
1 89
1 825
2 65
2 1187
2 758
2 500
5 60
5 1069
5 104
7 12
9 122
P K
V H
Y Ru
n ner
re nner
ĠN Mo
ĠAl CrFe
âĤĥ âĤĤ
Al NiGe
ĠZr Ag
20 02
ĠSe Tl
ĠSe SbPt
ĠY Cl
ĠTe PIr
Pd As
ĠAs CuTe
As K
ĠTa NbW
80 71
Ti Re
ĠSb Pd
ĠSb Sc
10 46
10 73
10 744
10 21328
ĠCo Bi
Pt Sc
Ga H
ĠK renner
ĠFe Al
12 700
12 735
Rh Pd
ĠBi Rb
ĠBi SbTe
Hf Ge
ĠPb Bi
67 53
11 73
11 18
11 675
11 191
Au Sc
Co Ru
05 28
Ca Bi
Cd Ca
55 58
55 8071
22 568
22 692
15 91
21 79
ĠOs Ge
Cr Cl
23 4
23 49
23 713
89 0
89 37
46 47
74 41
70 45
75 09
19 41
19 713
45 8
18 192
24 69
60 49
60 4647
56 81
56 8607
13 26
49 2
63 633
63 0528
99 07
99 25
27 67
27 15
17 08
17 55
17 332
30 336
120 1
120 15
Cs Sn
110 33
118 85
122 62
ĠAlNi Ge
1216 851
1216 195
107 7045
1186 175
1220 0
1220 085
1079 182
569 426
ĠKK As
567 207
567 832
1215 274
1187 697
1187 525
1187 077
1018 128
1217 092
1223 9
1223 860
112 88
112 56
112 87
1188 283
1188 462
ĠAsTe Os
100 47
100 04
1184 670
ĠSCo Ni
ĠNY Sc
106 2030
108 7509
ĠAlP S
10180 54
212 6
1189 230
296 19
11847 91
133 9
ĠTeAs Os
136 83
280 9
1103 536
ĠSeSb Os
1008 601
5708 70
5708 44
12267 16
159 54
8655 65
8655 98
274 11
6722 56
8653 62
188 2
ĠSeAs Rh
607 450
1228 803
ĠSeMn Zn
10942 67
1199 503
9989 79
976 128
283 53
134 1
11023 84
ĠNSc Ti
282 66
12173 63
170 45
170 13
11872 43
9720 71
175 64
5426 40
5426 34
232 53
1106 023
12206 45
314 93
6322 19
11871 96
5704 83
5704 91
2783 8
11907 36
5743 38
10797 96
1084 800
301 80
147 6
1056 308
9828 71
10644 97
51069 1
ĠAsCuTe As
ĠKrenner ite
63633 4
1 53
1 501
2 85
2 77
2 856
3 51
3 99
5 837
6 40
7 092
7 674
8 53
9 87
9 938
Y Pb
f ive
m nc
ĠS ul
ĠP ma
ĠCa Fe
ĠHf In
20 191
20 327
ĠSe V
ĠV Os
Pd Ge
ĠW Hf
10 026
10 159
10 125
10 052
Pt Sb
ĠK Na
ĠCr SbAs
ĠFe V
12 78
12 107
12 594
12 778
12 595
ĠAu Pb
Sn Si
Cu Rh
Cu Ir
Ag Hg
Ag InS
Mo Co
Zr W
Zr Ru
Zr Cr
Zr MoAl
ĠRb As
ĠRb PbCl
Hf Cd
67 50
67 26
67 2204
33 42
16 38
Ta Ga
22 735
15 50
15 85
15 78
40 2
02 20
Hg Cd
Mn Rh
Mn Co
Sr IrIn
23 54
23 157
46 1
66 14
70 3
19 84
73 73
68 49
60 37
97 6765
51 93
14 44
63 8
63 6614
27 86
120 54
120 85
120 0220
Cs PbCl
Cs SrCl
110 10
110 46
121 75
114 12
114 16
114 40
te mperature
1216 675
1216 231
1183 989
1183 511
1186 853
1079 296
569 423
101 7565
867 303
867 126
1080 459
308 77
308 56
1018 115
1018 123
1217 961
1221 697
1188 336
1078 500
ĠCdTe Se
1007 758
113 93
303 54
568 745
1077 116
1077 083
12243 83
105 6037
11847 09
167 18
167 56
573 763
305 71
12180 17
1069 5
977 129
1102 895
989 5
159 53
221 54
8653 42
10799 45
10942 72
200 33
1193 055
11845 11
12053 01
11032 52
849 059
685 124
685 149
1104 165
10142 29
173 9
199 05
12171 92
12067 04
211 82
180 32
1070 103
11043 41
282 46
557 719
5696 39
5680 18
12170 48
1191 538
9755 19
11030 38
10951 77
9716 62
263 7
11830 40
1017 545
8628 71
1101 121
5105 22
7846 30
1061 861
12069 27
5837 40
7674 69
ĠSul vanite
1 1220
1 547
2 61
2 861
2 670
2 648
3 42
6 âĤģ
7 67
9 91
P Cl
V Re
Y P
Y S
Y Fe
Y PtGe
s ix
ĠC S
ĠP Mn
ĠH Rh
ĠH Cr
ve ll
ĠHf Rh
20 86
20 81
ĠSi Ru
ĠSi Cl
ĠGa Ge
ĠGa Mo
ĠGa Bi
Si Cl
Te P
Te Cl
ĠSr Ca
Ti Ag
ĠSb N
ĠSb Zr
ĠSb Cd
10 759
ĠCo NiTe
ĠCo vell
ĠSn Co
ĠCr H
ĠCr Pt
ĠFe Pd
ĠFe Ru
ĠMn Cl
12 97
12 51
12 139
12 802
Sn Ge
ĠRu Nb
Ag In
ĠIr Hf
54 12
54 09
54 06
43 06
11 95
11 192
11 690
96 92
Ir Y
16 42
16 83
16 28
16 514
Ta Se
05 6
Ca Se
55 55
ĠTc Ta
ĠTc Os
ĠRe As
22 31
Pb P
Pb SnS
21 87
88 81
Na S
Na SbSe
Cr H
Cr Ni
Ġmon ox
Hg Ga
23 18
23 179
57 1247
66 4
66 8
74 40
83 61
19 25
19 58
73 43
Os As
24 20
24 55
60 80
97 85
97 52
64 44
Tc Zn
Tc Ta
72 89
29 4
13 59
13 156
49 9
63 0
61 1219
Rb SrCl
99 5
27 166
26 85
17 123
30 673
30 337
120 1836
Cs Te
110 22
110 24
121 4306
122 8607
114 11
1216 242
107 1078
107 2086
1183 214
1183 643
1183 137
ĠCoP S
1220 678
1079 832
569 979
569 152
569 776
ĠSCu Bi
867 212
1187 884
1018 672
1224 803
1217 166
1221 7
1184 121
1184 119
113 97
220 79
303 67
1025 9
ĠSSn Sb
1189 9
304 12
304 85
1229 092
127 79
ĠPK TeP
979 261
11880 42
156 81
307 46
307 44
1009 733
971 909
311 50
999 204
999 192
10786 38
1209 024
8654 25
188 3
1652 8
850 083
10942 54
11845 54
12053 46
1057 015
5710 53
12073 80
10181 49
643 0
174 13
5683 20
5705 60
12164 86
276 06
12195 33
197 24
978 531
5707 51
9723 51
8660 22
8660 06
776 470
10179 85
680 576
9722 20
9722 28
10800 43
300 45
5689 36
11871 54
10773 65
1157 2
11907 74
11036 43
172 16
6723 26
9854 51
949 029
10794 67
10804 93
5565 16
11902 67
362 16
2059 9
5546 09
ĠPMn NbP
ĠCovell ite
Ġmonox ide
1 894
1 534
2 857
3 85
3 89
3 58
3 1214
5 18
5 10032
6 19
7 09
7 549
7 162
7 818
8 42
S K
S Y
W C
Ġb er
li a
ĠZr Mn
20 131
yl lia
ĠY Pd
Fe Pt
ĠMo C
ĠSr CaSi
Ti Hg
ĠW C
10 22
10 24
10 025
10 886
Ga C
12 32
Zn Tc
ĠAu Sb
Sn Hg
Rh H
Cu Hf
Ag SbS
Mo C
Zr Os
ĠIr Cl
54 17
54 28
43 9
33 3
11 573
11 460
Ru Pt
Ir Ta
Ir ZrSn
50 46
16 27
Nb Au
Ta Cl
Ta Tc
05 7
Cd Al
55 88
55 57
55 83
22 43
Pb Mo
15 26
15 964
21 94
21 400
Na SbS
ĠOs Se
86 24
Mn Ru
Sr Ca
23 05
23 79
23 98
83 12
79 0
68 5022
Os Se
Os Te
18 74
24 80
97 6419
Tc S
Tc Si
51 34
56 13
56 8646
84 8
14 12
76 67
13 21
13 57
13 93
13 97
13 04
32 868
94 81
27 53
26 86
120 65
110 5134
121 77
122 78
1186 100
1186 115
1186 968
1186 017
196 9
1079 082
1079 172
867 2
867 202
567 276
119 22
1219 539
1018 105
1221 429
112 3
112 27
1188 926
1078 4
ĠPZn P
11860 31
113 42
220 75
10180 55
212 94
133 1
974 558
11846 57
305 81
305 72
123 22
979 115
571 547
571 499
1206 431
1105 666
1023 926
156 22
12155 18
280 2
186 3
186 14
ĠNAl Ga
1103 139
983 459
165 22
12267 18
12267 26
8653 85
10799 10
10799 97
216 8
607 138
9743 26
1199 529
9989 81
9989 72
140 18
247 26
5716 40
5716 51
11023 64
180 63
12164 80
CaPd In
12157 83
12077 81
1096 861
680 731
9773 90
9749 51
6847 99
8626 20
5689 71
11029 00
10773 72
6971 79
6323 19
11850 42
5712 64
10952 69
9716 61
145 87
10847 53
5675 96
5693 60
9993 18
12261 70
11056 33
10777 23
1002 122
11946 53
12084 06
385 11
389 70
7549 54
Ġber yllia
5046 59
5557 63
5583 78
5613 20
2 46
2 103
2 730
2 451
3 50
3 21
3 76
4 88
5 93
5 83
6 46
7 62
7 897
8 72
Y CoGa
Y IrSi
ĠN S
ĠN Tc
ĠP Te
âĤĤ âĤĤ
âĤģ âĤĪ
Al Y
Al Ta
ĠPd Cr
ĠZr TiSe
20 900
In As
ĠNa Sn
ĠAs Rb
Ti Sn
Ti Ir
ĠSb Os
ĠGe Fe
ĠGe Zr
Ni Ru
Ga Ag
ĠK Bi
12 99
12 892
Zn Sr
Ag Bi
Ag BiS
Zr Tc
ĠIr on
ĠRb Na
67 55
11 59
11 35
11 977
11 549
11 714
11 473
11 506
Au Bi
96 2
Ġ8 1
Ir Au
Ir Bi
16 82
16 18
Ta H
Sc Cl
55 67
ĠTc Y
22 60
22 192
22 856
22 795
ĠHg P
ĠHg Tl
15 82
15 624
88 91
86 35
86 39
Hg Bi
Hg Cl
Hg Pb
Mn Sn
23 71
23 77
83 8
Tl Bi
75 53
19 50
25 07
73 2
Os N
97 6971
97 3342
Tc N
Re Se
Re Pd
Re Ni
Re Mo
59 11
56 82
56 8619
14 8
14 11
29 5
13 71
32 697
99 84
17 75
30 672
30 471
30 674
30 479
31 205
110 188
110 5911
118 1222
122 40
109 53
109 1415
1183 205
1183 647
1079 297
102 54
102 96
102 85
569 544
569 815
569 794
101 55
101 93
101 8948
567 525
567 612
119 40
1187 073
1080 522
ĠSSb Os
1217 429
1217 168
1221 413
1223 503
112 30
1188 393
100 09
11869 67
11869 26
1007 656
570 130
220 33
303 43
303 68
166 10
10180 56
10180 27
103 88
306 86
11847 04
133 64
167 23
862 798
11846 81
CuAl S
127 24
CaZn Si
12154 97
12154 01
305 94
12180 44
571 557
1023 900
156 50
1246 5
280 8
ĠSCr Cu
1072 645
1103 570
10253 97
971 673
971 779
ĠSrSn P
1008 488
5708 75
12267 28
999 544
8653 57
11879 46
1652 9
850 0
850 068
9743 70
975 834
247 23
1185 099
1226 086
173 4
1179 5
1179 094
228 12
12073 92
10181 48
985 806
215 89
5705 78
282 4
10255 51
177 28
11872 57
10779 78
1178 745
10179 87
5696 24
11017 54
11017 83
12193 96
12206 57
5677 05
8616 10
12070 04
ĠPCu P
1087 219
326 82
176 15
5424 54
9833 88
292 66
5687 46
11026 16
12269 33
1006 132
8678 16
10774 82
10685 10
620 471
11957 35
9744 55
12165 19
9785 53
12322 13
ĠPTe Ir
110188 4
1 700
2 677
2 663
4 86
6 200
9 24
9 227
P Os
Y WN
ĠIn SnCl
ĠP CuSi
ĠP NbP
Al Re
Al PS
ĠCa Ti
ĠCa Co
ĠHf Sc
20 53
ĠSe Cl
ĠSe POs
ĠY As
In Sb
In SnCl
Fe NiSb
ĠCu Pt
ĠCu AsS
10 20
10 93
10 569
10 229
Ni CoGe
Ga Pt
12 81
12 39
12 699
Zn Cu
Cu As
Cu Pb
NH S
Ag Au
Zr CoGa
Hf W
Hf CuGe
54 2339
11 514
08 94
Co Cu
Co Bi
ĠCl Cu
50 53
50 56
16 30
Cd Se
ĠTc Sb
22 23
22 58
22 61
22 91
22 704
Pb As
15 89
21 7
Na Si
Cr Ge
Hg P
23 19
57 09
Tl Sb
75 82
75 83
75 64
19 43
19 795
79 16
73 8
97 28
Re P
04 1
72 7
72 8
72 60
13 40
13 79
63 2
92 7
92 54
92 62
32 669
99 20
99 47
99 45
99 5193
98 2261
30 463
120 0894
Cs P
110 50
110 39
121 47
114 57
1216 498
107 11
107 83
1079 776
1079 438
102 76
569 8
569 989
569 322
569 837
569 727
567 484
567 540
ĠSZn Cd
119 43
119 06
119 1079
1187 717
1080 376
308 82
ĠSnTe Pd
ĠGeTe Rh
1223 714
1188 155
1188 645
1188 890
ĠSiP H
ĠTeGe Pb
1184 676
1184 804
11869 74
11869 70
11869 76
ĠNTa Mo
1025 8
103 9262
296 61
11847 72
304 96
304 81
167 2
866 121
12154 88
1206 573
1067 210
1105 935
1105 852
1105 651
1069 815
280 56
186 8
TiPd Ge
209 05
155 8
10786 96
126 57
163 15
972 828
279 02
216 0
ĠAlV Co
11879 52
203 20
ĠSeAs Ru
140 0
140 4
200 50
CaPt In
12288 82
8647 94
198 80
12179 71
12172 10
8627 79
5710 59
5706 84
171 46
5683 80
11043 27
1214 894
559 676
12242 23
11834 89
9723 26
8660 46
297 11
1106 195
5680 67
6846 50
300 21
8616 30
ĠCmm e
8651 76
12063 71
10969 92
5552 83
5424 84
2329 9
1120 739
193 6
6723 13
ĠGaCu Pt
SS Os
218 73
12272 85
779 0
nb c
2006 1
966 800
510 209
1211 471
11819 40
329 94
11035 12
10941 36
12285 24
11910 83
7533 04
11908 41
2002 7
12015 60
six th
6080 72
619 071
5588 11
6200 32
1093 999
10569 85
2 50
2 828
2 578
5 826
7 46
7 670
7 539
8 20
8 200
9 56
9 888
N S
P Te
W Mo
Y Co
Ġm vc
âĤĦ âĤħ
rom ium
ĠCa Rh
ĠNi Ru
ĠZr Fe
ĠZr Ru
20 72
20 074
20 826
ĠGa Tc
ĠGa BiAs
Fe Cu
ĠNb WS
ĠNb MoSe
Si Sb
ĠTe Rh
ĠZn SiNi
Ti TaFe
ĠSb Zn
10 6043
ĠCo Cl
Pt C
Pt In
ĠAg Zr
12 109
Zn Si
Zn Sb
Zn Hg
Rh Y
Rh Cu
Rh ZrSn
Cu H
Ag Si
Zr V
Zr Re
ĠIr Ca
54 10
ĠPb N
67 36
33 14
11 70
11 97
11 814
11 449
Ru Zn
Ir Pd
Ir Cu
Ir Sc
16 02
Nb Fe
Nb Ni
Ca Rh
ĠCs P
Sc Bi
22 42
22 21
22 862
22 889
15 92
21 42
Na BiS
ĠOs Hf
86 32
06 4
Sr Rh
23 167
23 291
82 82
19 717
19 814
Os Pd
Os Rh
24 18
24 155
04 8
13 92
13 503
90 16
Rb Ge
99 86
35 09
98 2070
30 338
31 430
120 32
110 27
1216 2
1183 206
1183 216
1186 231
1186 964
1079 0
569 250
867 841
1215 503
119 12
119 9016
1187 969
1187 541
1187 739
308 84
1018 807
1224 809
1224 475
1217 113
ĠPCa Si
1221 422
112 9
1188 869
ĠCh romium
100 3509
1184 994
1184 693
11869 55
106 3314
11860 16
570 451
ĠAsZn Sn
303 83
1077 263
166 08
12243 88
ĠInAs P
306 19
306 84
865 077
973 143
296 42
304 94
571 505
169 0
1225 676
1225 656
1009 460
971 751
210 65
210 30
ĠKSb Cl
165 11
999 549
10786 66
310 10
310 86
310 19
ĠTiCu Ni
555 935
163 19
279 7
8653 82
179 1
10799 14
8673 17
980 420
980 094
12053 22
669 546
CaHg Sn
5716 42
5716 64
1208 221
10142 19
1057 286
134 50
208 47
1190 136
288 79
288 78
1179 336
5706 87
5706 32
12067 80
10181 54
211 70
985 829
5683 76
11207 74
12173 22
12195 22
12163 25
11878 12
231 93
242 86
11789 83
12248 40
8619 10
9729 41
12199 22
6847 98
326 54
226 82
5055 10
AlFe Y
5697 08
6273 97
863 648
11026 57
10874 86
10794 96
5690 07
1062 758
5050 02
7554 53
5688 65
12068 19
616 559
11011 45
623 511
5104 12
5409 12
5417 88
5428 12
246 50
7553 28
10388 28
8500 14
5826 81
7539 21
106043 5
6736 33
1 460
1 826
1 431
2 71
2 156
2 698
2 701
5 541
6 18
8 73
S H
V C
W Mn
Y Os
n nc
ĠC Re
âĤĤ âĤĩ
ĠTi SnRh
Al Nb
ĠPd S
ĠZr Cd
20 52
20 89
20 49
20 123
20 311
20 465
ĠY Ru
In Pt
Si Re
ĠGe Cr
Ni N
Ni Sn
Ni Ir
ĠK Si
ĠFe Cu
12 82
12 628
12 777
Zn SiAs
ĠAu Sc
ĠAu Tl
Sn Pd
09 3
ĠRu Ge
Ag InSe
Ag SbSe
Mo Zn
ĠRb SrCl
Hf H
33 4
33 024
11 828
11 474
Au Si
Au Zr
Au Hf
69 86
Ir Co
50 52
ĠTl In
16 06
Nb MoSe
05 88
Ca Al
Bi Bi
Sc As
Sc Pb
55 87
22 82
22 693
22 236
ĠHg Cl
88 10
Na BiSe
86 42
86 48
Hg Sn
Sr Se
23 759
93 1
Tl CaCl
19 4
19 14
Os Cl
97 21
04 9
56 10
56 0588
72 73
14 69
76 1
63 7
63 9
63 980
32 861
99 21
27 731
27 258
17 43
31 472
120 78
120 87
Cs CaCl
110 62
121 85
122 20
122 45
1216 173
1216 300
107 75
107 81
1183 542
1186 127
ĠMoS Se
1220 079
1220 631
1079 094
102 12
102 84
102 87
206 85
1187 248
1080 657
308 85
308 40
ĠWS Cl
1221 3
1221 793
1221 425
1223 755
112 63
112 28
112 39
1188 913
100 14
1078 755
1078 443
1078 780
11869 16
11869 77
11869 90
1007 755
570 670
WS Cl
212 37
117 8810
865 899
973 092
973 676
124 69
974 437
974 430
304 82
1229 015
1229 101
1229 100
12154 37
307 87
12155 98
280 26
CoNi Te
971 788
12289 47
1180 309
1209 828
12203 22
850 131
YPd Zn
9743 58
9743 35
12053 79
198 79
1104 898
ScRh Ge
134 47
12067 41
11040 10
11040 19
12166 21
219 45
978 546
5707 44
557 096
175 93
12273 19
5696 83
12194 62
10788 67
10788 75
5677 50
5702 76
12199 40
6323 11
SS SCs
8622 59
11057 78
ReSi ReSi
5685 95
12071 93
12009 12
5675 97
769 096
10250 39
5565 97
12033 53
12033 24
ĠTiIn Pd
9993 76
11909 08
7554 35
12090 03
11896 33
6363 28
12181 77
6372 55
10254 48
11795 20
5698 33
5541 34
11828 85
63980 5
1 434
2 75
2 72
2 699
3 15
3 1219
4 81
5 82
6 50
7 71
8 79
9 53
9 47
9 889
K Rh
K Cu
ĠIn BiSe
ĠP CuSn
Ġre d
Ġse lenium
ĠCa MnSi
ĠZr Os
Se Cl
ĠSe CoNi
ĠNa V
ĠNa Cu
ĠNa Nb
Fe Bi
Si Ge
ĠTe V
ĠSc H
ĠSc Fe
ĠSc Ru
ĠSc Hg
ĠSc Mn
ĠSc Tc
Pd Sc
As Cl
ĠTa Mn
ĠTa WS
ĠTa NbMo
ĠTa TiFe
ĠSr Ga
ĠSr Cu
80 46
80 91
Ti RuSi
10 281
Ga Hg
ĠAg SbS
ĠCr Pd
ĠFe Co
Sb Ru
ĠMn Y
Ge C
Ge Pd
12 44
12 120
Zn Te
Cu N
Ag Mo
Ag Sc
Ag GaS
Mo Ni
Mo Os
ĠRb MnAs
ĠBi Pt
Hf NiGa
Hf RhSn
11 541
11 546
96 3
08 8
Co Tc
Co SbS
Ru PtAl
50 49
ĠTl Ti
ĠTl Ni
Nb Os
Ta NiP
Ca PdH
Ca MnSi
ĠCs SrCl
Bi Rb
Sc P
Sc Hg
Sc RuSi
55 85
55 92
22 11
Pb SnTe
15 54
15 73
15 698
21 895
88 82
Na Cu
Na FeAs
86 63
Cr Ir
Cr Os
Mn Cd
62 9
89 73
93 6
66 9692
82 62
83 60
19 02
79 45
81 82
Os W
Os Zr
18 53
24 161
64 42
Tc Ag
Tc Co
Re Cl
78 19
56 86
29 973
13 80
13 61
49 1
63 6
Rb MnAs
91 47
32 791
32 630
36 57
99 02
27 81
27 165
26 34
98 45
30 536
31 105
120 88
110 18
121 96
ĠTiAl Pd
122 65
109 09
1183 7
1183 969
1183 641
1183 143
1186 142
1186 230
1186 060
1186 187
1220 423
1220 401
1220 057
1220 879
102 63
569 678
569 594
ĠCdAs Pd
867 281
867 125
ĠTiTe S
567 082
1215 543
119 21
119 1483
119 8091
1187 790
ĠSSb Pd
308 67
1018 107
ĠBiTe Ir
1221 4
112 37
ĠNaSb Se
1188 413
ĠNZr Sc
ĠTeGe Rh
ĠSeBi Pt
ĠClK Na
ĠNY Al
106 54
11860 40
570 673
ĠTeBi Ir
568 232
1077 232
ĠTeSn Pd
103 9147
973 166
973 149
ĠHNa Ca
136 82
ĠInSr Au
979 751
1105 836
ĠPSi P
202 50
307 92
280 7
280 29
ĠSeSb Ir
210 12
1008 626
311 38
5708 32
12267 36
ĠSeCa Pb
ĠSbSb Pd
310 53
1209 191
CaAu In
6722 16
129 10
140 17
12053 21
849 060
289 16
313 13
10252 94
288 85
5710 30
12260 21
1070 3
SrPt In
278 40
12244 85
ĠSAs Pd
10800 22
12257 51
5702 87
8626 21
326 16
864 889
11871 97
5552 93
12082 73
5055 28
5711 43
10913 87
612 701
5418 85
178 80
ĠAlGa Co
11031 77
182 54
5407 91
5425 87
12009 88
1056 438
8637 50
10250 44
11819 26
seven th
11052 96
11885 12
6750 60
12054 22
767 208
5555 99
11024 41
11922 51
646 824
11977 55
10193 19
5053 63
11943 50
11906 54
582 549
ĠPCuSn P
5592 78
2 430
3 02
3 74
3 241
4 46
4 14
5 80
6 10
7 541
7 506
7 051
9 45
9 44
C As
K S
K Ni
S N
V Cr
W Re
Y IrGe
Y ScS
h ite
p hite
ra phite
Ġg raphite
ĠIn GaAs
ĠP Hg
âĤĦ âĤĢ
ĠTi Sn
Al W
20 63
20 39
20 717
ĠY Cu
In GaAs
Fe Ir
Pd NiSi
ĠAs Cr
Ti Ta
Ti SeS
ĠSb Mn
Pt SnSb
Ni Rh
ĠAg Mo
ĠFe H
12 10
12 58
12 110
12 1223
12 826
12 635
Zn Ti
Sn C
Cu InSe
Ag Pd
Ag Sb
Hf TeSe
Hf NiSb
54 1180
67 51
11 81
11 39
11 730
08 7
Co NiSi
Co SbSe
Ru AsP
16 62
16 044
Ca Rb
Ca IrIn
Cd Hg
Pb Ge
15 21
15 72
15 700
88 7
71 40
86 34
06 6
Hg Tl
Mn Au
23 7
23 63
89 91
66 0
Tl Ag
Tl Hg
19 54
19 07
19 18
25 16
68 4
68 5048
97 69
97 47
97 6847
Re W
Re AlGe
59 21
34 202
84 4
76 31
29 841
58 50
13 73
13 95
49 79
63 08
90 08
Rb P
Rb AuTe
87 86
99 83
99 1900
30 464
30 421
31 103
Cs Ag
110 37
110 1178
110 5552
ĠTiAl Co
233 7
1216 505
1183 158
1183 608
569 857
569 516
867 141
567 279
1215 6
1215 971
1215 714
119 33
1080 586
308 53
308 86
308 83
1018 809
1223 837
112 38
100 2063
1184 058
ĠScAl Rh
11869 02
11869 32
106 21
106 82
303 71
115 21
115 66
ĠSSn Pb
12243 42
12243 91
105 64
117 65
1189 099
11847 66
1229 090
1229 048
571 555
1069 841
229 04
210 48
1008 632
155 56
1218 335
1209 498
203 82
YPd Si
YPd Ge
1199 934
9989 85
ĠInAg S
12288 17
YRh In
CaNi Ge
12189 28
1104 074
10142 30
1190 672
1190 478
8627 11
8627 47
8627 70
5710 60
5706 89
12260 35
ĠCaCd Pd
11043 72
328 11
12157 79
12157 24
5426 15
278 21
6846 09
12206 34
10789 96
12199 43
12204 41
1095 545
11840 18
8657 33
5055 27
1198 803
12238 45
330 18
5416 56
10727 12
178 48
ĠAlGa Ir
10795 97
8637 20
5105 21
1062 804
12463 92
12287 53
12287 52
10941 40
10792 60
8662 79
8679 22
ĠAlRe Ge
8625 89
5558 53
991 544
11899 57
5567 42
11050 40
8632 61
11921 75
121223 1
1181 961
4 83
4 889
5 1009
6 67
6 11
6 21
9 23
K ZnAs
V Zn
W Fe
Y IrSn
Y CoIn
ĠS Au
ĠAl ZnIr
âĤĤ âĤĥ
Al Zn
ĠHf ZrS
ĠZr Co
20 76
20 27
20 648
20 901
20 937
Se N
In Ge
ĠNa Ca
ĠNa CaTl
Fe Tc
ĠTe Cs
Ti CoGa
Ti NbN
Pt Cu
ĠGe K
Ni Mn
Ga Ta
ĠK NbCl
ĠFe NiSb
ĠMn CdS
12 627
12 12463
Zn Pb
ĠAu V
Rh Co
Cu Bi
Ag BiTe
Mo AlGe
Zr Fe
Zr Pt
ĠRb Zn
ĠBi Mo
ĠBi Zr
Hf CoP
Hf CoAl
54 1582
ĠPb Ni
43 59
ĠCd N
ĠCd Co
ĠCd Hg
11 11
11 13
11 713
11 537
Au N
07 0
Co Rh
Ru Au
69 31
Ir N
50 47
50 57
ĠTl Cu
16 08
Ta NbW
85 07
Ca Mn
Bi N
Bi Mo
Bi Zr
Bi SbTe
Cd Pt
Cd Au
Sc Au
Sc CoSi
Sc NiGa
Sc CuGa
55 5410
22 95
22 700
22 817
Pb Sn
15 19
15 81
15 670
21 46
21 901
Na Ca
Na TiS
Na AlSi
Na CaTl
Na CdSb
86 20
86 5680
Cr C
Cr Sb
Cr AlGe
Hg In
Hg Ge
Mn CoSi
Mn CdS
62 1581
83 11
Tl Sn
Tl Cu
19 67
19 19
18 48
24 809
97 50
Tc Fe
34 4
72 50
29 9
29 179
29 184
58 7
13 45
13 459
13 852
Rb Zn
Rb Pb
Rb Na
32 884
32 679
99 96
99 46
99 8860
37 60
27 800
27 335
38 96
28 229
120 3760
Cs Fe
110 60
110 44
110 186
118 43
118 2146
122 46
122 77
114 45
233 04
ĠTiSi Os
1220 675
1220 151
1220 052
1079 029
569 196
101 8891
ĠAlNb Ru
567 871
1187 152
1219 296
ĠTiGe Ru
ĠSSb Ru
1224 502
1217 076
ĠTaGe Ru
112 41
1078 213
1078 699
11869 73
ĠNY W
ĠFeSb Te
106 4359
108 77
1007 923
11860 14
570 801
ĠSTi Cr
ĠTeSn Bi
1025 229
10180 50
ĠGeGe Ir
ĠSK Bi
ĠInAs Se
105 6486
212 3
1189 7
124 54
296 39
304 18
866 108
866 161
1207 421
979 259
1206 898
1206 239
1067 236
169 11
11880 51
1023 937
202 68
1225 811
1246 504
1009 641
CoNi Sb
1103 235
ĠSFe Co
12289 45
12289 00
ZrRh Ge
1008 274
ĠHfZn Ir
207 23
209 16
755 988
12153 07
12153 15
1180 0
310 84
1209 044
163 58
12203 23
216 57
216 81
216 13
8673 56
PdAu Zn
SrAu Cd
1199 056
CaPt P
12053 42
8647 98
289 10
976 236
1208 239
142 85
1104 502
12179 01
134 9
8627 05
199 54
228 72
10954 27
10955 13
215 25
1070 498
5705 53
240 2
12164 40
CaPd Zn
11872 33
10779 42
10239 40
230 37
505 626
8659 90
10780 10
1013 545
1013 548
1205 337
309 33
309 99
SrPd As
11017 74
ĠSAs Ru
242 89
11877 11
5673 45
5677 47
5677 52
12248 10
TiP N
10796 00
1095 694
11840 11
11840 21
1157 8
1196 393
RbGa H
8656 40
11030 34
HfRu Ge
10797 16
12152 57
12152 75
145 8
312 77
5407 03
642 644
642 659
12274 86
10793 99
10795 85
SbN Ca
6287 66
554 212
12263 71
1192 532
12261 20
12137 47
12264 45
10792 69
11896 96
10712 69
8629 83
560 025
5681 86
5681 72
6849 89
12139 48
1195 198
6444 94
10259 06
12278 10
8672 62
5056 34
5585 52
5686 36
11837 10
51009 9
5057 80
110186 0
2 932
3 479
5 07
5 53
6 54
6 19905
7 126
8 19
8 116
9 25
9 48
9 339
K N
K Ge
K SnSb
K NbCl
V Rh
Y PS
Y NiAl
Y CuSi
Y CoAl
Y CoSn
ĠN Cu
ĠIn Sn
ĠP Cs
ĠAl InSb
Al C
Al Ga
ĠCa Mn
ĠZr GeTe
ĠZr TiN
20 56
20 935
ĠSi CoP
ĠSi SnPd
In Al
In AlSb
ĠNa Sr
ĠNa TiS
Pd TiSi
Pd NiGe
As C
ĠTa Tc
ĠZn Ge
ĠZn SnSb
80 62
ĠRh H
Ti SnSb
Ti CoSi
10 5708
Pt Sn
Pt Mn
Pt AsP
ĠGe Al
Ni Ca
Ga Ni
Ga Nb
ĠK V
ĠK SnSb
ĠAg SbTe
ĠAg SbSe
ĠAg AsS
ĠMn Rh
Ge Zn
12 52
12 116
12 1069
Zn Ni
Sn Zn
Sn PS
Rh SbS
Cu Tc
Ag Tl
Ag SbTe
Ag BiSe
Zr Zn
Zr Co
Zr GeTe
Zr TiN
Zr PtAl
ĠIr S
ĠBi Ni
ĠBi Cl
Hf RuSi
Hf MnGe
Hf VGe
54 11
54 30
67 27
33 112
11 14
11 693
11 829
11 687
Au S
96 34
07 5
Co PSe
Ru W
69 73
Ġ8 2
Ir Cl
ĠTl V
16 67
16 37
16 421
Ca Ga
Ca AlH
ĠCs As
ĠCs CaCl
Bi Pd
Sc H
Sc AlGe
Sc PtGe
Sc NiAl
55 9634
ĠTc N
22 96
22 600
Pb Si
15 09
15 668
Na Sr
47 6
ĠOs Nb
86 21
Cr ZrAl
06 5
Hg As
Mn In
Mn Pt
Mn Ni
Mn Cl
Mn Tc
Sr CaZn
Sr ZrS
23 48
57 41
57 289
74 46
75 81
97 62
97 2204
Tc Cu
Tc Mn
59 0
59 1
34 86
14 98
76 86
29 174
29 465
58 20
49 0
90 3
61 7291
Rb CaCl
32 74
99 16
99 81
27 52
27 60
27 164
17 80
17 25
30 671
28 424
28 704
120 179
122 52
122 68
114 82
1216 166
1216 296
1216 128
107 16
1183 591
1186 374
1220 348
1079 112
ĠNbGe Ru
102 64
569 886
1215 336
1215 338
1215 639
119 16
119 05
119 49
1187 433
1219 2
308 66
1217 097
1221 442
ĠTaTe Cl
222 70
1188 977
1188 829
1188 292
1078 466
ĠSbTe Pd
ĠClK Pb
11869 23
106 67
ĠTiGa Ir
1007 4
570 690
ĠSiTi Co
568 671
1025 176
204 97
212 89
973 983
1189 0
ĠTeCd Hg
974 435
ĠTiZn Cu
1229 118
167 0
862 423
866 187
12154 52
12154 00
305 92
12180 55
1206 157
1206 058
1206 893
156 69
156 85
1225 9
1225 998
1246 068
104 41
CoAs Se
12155 33
12155 79
1072 655
229 22
1102 436
10253 55
10253 01
YAg Te
YAg Sn
755 633
223 75
12153 46
10786 28
ĠGaP Pd
1218 336
CaAu Cd
1029 4
125 85
8654 96
12203 18
11879 20
1228 792
CrFe As
8673 52
9989 12
140 1
1193 848
247 22
247 28
289 97
1185 935
ĠSMn Zn
1226 456
1226 096
1226 072
12189 77
142 5
283 91
12179 15
228 71
10181 50
211 65
10954 91
10955 92
5683 45
YIn Cu
12164 46
PtGa Zr
8646 69
504 825
11872 52
10779 59
10779 94
138 76
11834 50
AuCu Zn
12247 96
1178 763
10780 86
146 52
5696 28
680 570
754 556
1106 162
KNa Se
5680 77
12193 28
12290 32
706 8
10788 13
12248 23
9749 90
8661 42
8651 44
8626 55
12063 74
293 42
HfRh Ge
5552 80
176 39
11021 67
5679 07
8656 50
6723 72
6323 26
1084 805
8658 42
8622 60
5712 66
12188 75
10952 53
10952 94
1019 077
11063 67
12169 77
5418 44
5713 42
1006 118
1017 531
11902 74
12388 78
1194 073
7846 31
12275 71
10293 49
616 204
10685 87
11910 26
10712 88
1021 498
1201 758
11033 17
12200 09
285 95
6849 03
ĠGaGe Pt
5412 89
5406 25
9752 72
SK H
350 15
12240 05
10258 74
10790 42
10775 99
ĠZnGe Rh
105708 6
121069 7
5430 01
6727 06
57289 2
120179 0
1 473
2 45
2 152
2 1199
2 626
2 7533
3 1080
4 15
4 852
5 221
6 428
7 544
7 576
7 234
8 219
9 70
9 525
K Sn
K SnS
K CdAs
K CdSb
P P
P Si
P Ca
V Fe
Y Hg
Y Tc
Y CuTe
ĠN PCa
ĠIn SnTe
ĠIn CuSe
ĠP u
ĠAl ZnCu
ĠH Se
Al S
Al Cd
ĠCa PbSe
ĠHf SeS
ĠHf TiRu
20 55
20 84
ĠSi SbPt
ĠGa PS
ĠPt SeS
ĠSe Ir
ĠSe SnPt
ĠY Mn
In SnTe
In GaS
Fe H
Fe Os
ĠCu Fe
ĠCu Rh
ĠCu Cd
Si Ru
Pd Rh
Pd Ru
Pd HfSn
As Zn
ĠTa MoS
ĠTa InSe
ĠSr PdSn
ĠSr CaS
ĠZn HgTe
Ti RhSi
Ti MnSi
Ti ZnAl
10 82
10 81
10 32
ĠGe Cl
ĠSn GeTe
Ni Os
Ga Rh
ĠK Cu
ĠCr Fe
Sb Sn
Sb BiSbTe
ĠMn Cd
ĠMn CoGe
Ge Cl
12 87
12 136
12 1218
12 972
12 857
Zn Bi
ĠAu PS
Rh PS
Cu Pd
Cu Os
Cu InS
Ag Pb
Zr Sb
Zr Mn
Zr RuSi
Zr TiSe
Zr TiCr
ĠRb Ge
Hf SiS
Hf OsP
Hf TiRu
54 21
54 13
43 16
67 49
ĠCd Tl
ĠCd HgTe
11 69
11 824
Au PS
96 80
Co Mo
Co Os
Ru Fe
Ir S
Ir SbS
Ir BiS
16 24
16 49
16 886
Nb Mn
Nb NiAs
Ta Cu
Ta Co
Ta InSe
Ta InS
Ca Mo
Ca PbSe
Ca PtGe
Ca PdSn
Ca GaSn
ĠCs K
ĠCs Zn
Bi Cl
Sc CuSi
Sc PtZn
Sc NiGe
55 71
55 81
22 473
Pb GeTe
15 895
15 656
21 863
88 42
Na InSe
Na GaTe
Na AlSe
Na SbSn
ĠOs H
Hg CdTe
Mn ZnS
Sr Fe
Sr PdSn
Sr VN
Sr CaS
23 229
23 714
23 214
23 474
62 1624
57 25
46 67
74 43
83 9
65 8
19 968
73 66
73 72
73 76
Os H
Os Fe
Os Pt
Os Cu
60 1823
60 1326
Tc MnAl
Re Pt
Re Zn
Re Mn
59 10
77 70
34 1
78 22
84 11
14 13
76 32
29 570
41 7
13 456
13 542
13 962
49 55
92 68
Rb Fe
Rb Bi
99 10
99 12
27 80
27 05
27 82
27 628
17 813
17 094
30 086
28 797
120 64
120 61
Cs Zn
Cs Cu
Cs SnCl
Cs AuCl
110 45
110 73
ĠTiAl Fe
122 1007
109 40
ĠTiSi Pd
ĠTiSi Ru
1216 501
1216 894
1216 290
107 55
107 1032
1183 503
1183 151
1183 471
1183 187
ĠVSi Os
1220 7
1220 502
1220 426
102 86
ĠAlSc Cu
569 522
569 060
ĠAlCu Pd
ĠAlCu Ni
101 75
101 8652
867 169
867 292
ĠTiTe Se
567 505
1215 331
1215 935
ĠPdSn Hf
119 1413
1187 434
1187 694
1187 461
1219 203
1219 748
1080 463
308 34
ĠSnTe Pt
1018 736
ĠBiTe Pd
1224 169
1224 173
1217 114
1217 228
1221 495
1221 872
1223 828
1223 695
1223 834
1223 791
1223 664
222 11
222 84
ĠNaSb Sn
1188 102
1078 464
1078 100
1078 708
ĠSeBi Pd
ĠZrSb Rh
ĠTeIn Hg
ĠAlP Pt
570 062
220 07
ĠTeBi Pd
ĠTiP N
ĠHfSi Se
1077 470
ĠTeSn Pt
1025 905
12243 18
12243 29
12243 31
212 35
ĠYCd Ag
ĠYCd Hg
306 66
865 503
865 506
865 960
1189 474
1189 791
124 55
304 93
167 70
862 791
127 83
CaZn Sn
12154 34
12154 48
305 27
1207 893
12180 41
12180 26
1206 072
11880 40
202 57
AlSi Y
1225 835
1246 517
1246 556
307 08
ĠCdP Pd
ĠCdP Cl
977 162
12155 86
1102 525
1102 836
186 09
10253 66
10253 75
10253 48
971 737
12289 83
12289 38
ZrRh Sb
210 21
ĠPTi P
675 543
ĠAsIn Ga
209 87
12267 41
155 14
755 523
8655 25
310 11
221 71
1218 330
1029 799
972 866
279 8
6722 89
8654 99
179 7
10799 46
213 21
1247 199
850 249
607 139
CaCu In
CaCu Sb
ĠSeMn In
PdAu Sn
139 11
ĠInAg Se
1193 541
247 8
RuRh Ga
CaPt Sn
980 109
849 081
1185 976
CaNi In
RuIr Al
12189 70
ZrSi Al
198 71
ĠAsSb Pd
ĠSbAs Pd
8649 16
142 41
283 24
283 04
1227 206
1227 463
131 47
10252 71
ĠTiFe Sb
164 97
228 53
162 66
5710 35
ĠSP Rh
ĠNbZn Ru
11023 24
ĠTeSb Ru
11040 54
HfSi Se
5683 28
ĠCaZn Si
11043 88
1214 857
11020 40
11020 30
ĠSCs In
10255 71
504 425
NbRh P
CaPd Si
CaPd Sb
CaPd Cd
12195 15
YZn Sn
ĠNCr Ni
11834 62
PdAg Hf
8659 89
12077 24
183 88
1013 526
1013 558
5696 62
12244 96
12244 88
309 52
754 064
1222 586
ĠSAs Rh
FeTi Sb
ĠMnGa Ir
9896 13
12170 20
12170 09
706 6
NbMo Ni
8619 83
5702 93
12199 24
8651 93
11840 05
11029 26
5424 49
5704 52
241 54
ĠNNa Ta
5679 20
8656 81
11019 48
YH Se
239 54
12238 20
ĠGaCu Ni
1068 464
11057 99
10956 43
863 744
12169 06
12284 67
12270 03
145 88
ĠAlGa Ni
301 75
5713 83
12074 19
181 67
1101 813
10774 53
5544 05
2083 8
ĠZrSn Pd
ĠZnCd Pt
ĠTlP Pd
9985 60
12137 62
11004 15
12275 62
12264 41
562 100
12285 62
9616 59
12090 47
11052 85
12181 10
HgZn Te
6762 84
11875 91
6432 60
11885 59
153 08
6726 45
12139 59
995 122
6430 22
1357 2
5682 93
5682 63
9728 76
10783 62
12032 53
11027 43
8648 40
9721 20
12196 61
610 517
9747 90
10621 53
611 341
1113 233
9750 65
12246 42
553 973
245 17
9525 66
PP Mn
ĠHSe Y
2055 2
121218 7
5571 79
5581 10
0 21
1 451
2 977
3 87
3 1187
3 698
3 668
4 861
4 628
4 824
5 101
5 103
5 168
5 817
6 465
7 421
7 829
7 792
7 529
7 859
8 43
8 479
8 799
9 10
C S
H Pd
K Co
K Cd
K SbSe
K MnP
K AuCl
V Ti
W NiP
Y CoGe
Y ZnAl
o gen
Ġb oride
ĠC yan
ĠIn SiPt
ĠP Ta
âĤĦ âĤģ
ĠCa Y
ĠPd Cs
ĠHf Tc
ĠHf ScRh
ĠHf ScGe
ĠNi Mo
20 196
20 422
20 139
20 473
20 536
20 792
20 868
20 817
ĠPt Tl
In Si
In PbCl
In SbSe
ĠNa FeAs
Fe Sn
Fe Cr
Fe NiAl
Fe GaGe
Fe CoS
Fe MoSi
ĠCu AgTe
ĠNb W
ĠNb RuSb
Si N
Si Pd
Si Pb
ĠTe Ga
Pd AsSe
ĠAs K
ĠTa Fe
ĠTa TiRu
ĠSr PbS
ĠSr CaTl
ĠSr CaPb
ĠZn Ru
ĠZn TeSe
ĠRh Sr
Ti MoS
Ti PtGe
Ti FeSi
Ti TaRu
Ti MnN
Ti RuTe
10 05
10 97
10 849
10 939
Pt GeSe
Pt PdBi
ĠSn PS
Ni In
Ni Cu
Ga GeTe
ĠK Co
ĠK Cd
ĠK MnP
ĠAg CuTe
ĠFe Mo
Sb Au
ĠMn Co
Ge Pt
12 31
12 472
12 459
12 12167
12 903
Zn Ag
Zn Cr
Zn Re
Zn MnSe
Rh Au
Rh NiZn
Cu W
Cu Ni
Ag CuTe
Mo CrAs
Zr MnSi
Zr IrAs
Zr RuP
Hf V
Hf ZnAl
Hf FeSb
Hf WSi
Hf MoAl
Hf VP
54 08
54 86
54 14
43 70
67 59
67 44
67 5022
11 567
11 113
11 471
11 201
Au AgZn
Co Cr
Ru Cu
Ru SeS
Ru SbSe
Ru OsSi
Ru CoAl
69 80
Ir W
Ir Ni
Ir Ga
Ir Os
Ir CoGa
Ir CoAl
50 54
ĠTl Pt
ĠTl HPd
16 64
16 84
16 304
Nb C
Nb WS
Nb InSe
Nb MnSi
Nb RuSb
Ta FeSi
Ta CoSb
Ta PtSi
Ta MoCo
Ta MoNi
85 81
Ca NiGa
Ca RhSn
Ca GaAl
Ca MoN
ĠCs Rb
ĠCs PbCl
Cd Pd
Cd AsP
Cd GeP
Sc Sb
Sc Co
55 76
22 204
22 258
ĠHg Pb
15 777
15 679
21 673
21 965
Na Mo
Na CdAs
Na ZnP
47 73
86 233
86 5707
Cr Co
Cr MnAl
52 8
52 44
40 22
02 8
Hg Al
Mn NiAl
Mn ZnN
Sr Co
Sr PbS
Sr AlSi
Sr PdH
Sr CaTl
Sr CaPb
23 46
23 01
23 289
23 164
23 162
23 174
23 706
57 44
57 37
57 1216
57 2758
93 05
82 11
82 57
Tl H
Tl InCl
70 67
19 12
19 855
79 18
79 27
73 78
73 92
18 127
18 163
60 4
97 2337
Re S
77 71
56 3
84 90
14 62
29 8
29 84
29 866
29 749
41 20
41 31
Rb CaAs
Rb CoN
Rb NaS
ĠAlTi Fe
32 76
32 758
99 42
99 48
99 1114
27 57
27 666
26 54
26 42
98 43
30 461
30 028
31 459
28 15
28 107
28 126
28 128
120 98
39 44
Cs AgCl
110 09
110 48
110 1258
118 1094
ĠTiAl Ru
122 6254
109 11
109 5683
109 7916
114 41
ĠZrSi Ru
1216 464
1216 698
1216 081
1216 439
1216 065
107 07
107 85
1183 460
1220 663
1220 748
1220 636
1079 278
1079 193
569 175
101 67
ĠHfAl Pt
206 18
867 335
867 928
867 909
ĠTiTe Ru
ĠSrP Pt
567 860
1215 804
119 59
119 44
119 1223
119 1025
119 1118
119 1589
119 4773
119 2984
1187 124
1187 531
1187 427
1187 431
1187 225
1219 501
1219 423
1219 339
1219 799
1219 535
1080 693
1080 677
1080 073
1080 561
1080 518
ĠTiGe Pt
308 93
308 51
308 26
1224 108
1224 841
1224 831
1224 402
1217 251
1217 093
1217 087
ĠCoSb Ta
ĠInSb Se
1221 714
ĠZnP Pt
1223 851
112 85
ĠScGa Rh
1188 762
ĠCh loride
ĠScGe Rh
100 46
ĠNbAl Os
108 46
11860 11
CaSi N
ĠHfSi Ru
568 483
1077 240
1025 218
1025 185
115 15
115 65
12243 86
12243 37
865 649
NiAs Se
973 066
1189 202
1189 177
304 92
ĠTiZn Ni
ĠYGe Pt
862 694
862 604
11846 47
866 062
12154 12
12154 16
305 55
305 23
305 93
305 74
1207 079
ĠZrAs Ir
123 83
12180 19
12180 64
12180 37
571 406
1067 974
1105 163
11880 19
AlSi P
ĠAlSi Mo
ĠAlSi Sr
1225 119
1225 166
307 97
12155 24
12155 13
ĠPY Pt
ĠZrZn Rh
ĠAgP Pd
229 56
1102 115
1102 524
1102 458
1102 732
10253 70
971 754
12289 53
12289 73
12289 91
1008 680
311 58
12267 54
12267 68
8655 86
223 09
10786 43
ĠMnZn Se
1218 699
1218 856
ĠScCd Rh
1029 9
1029 420
163 21
163 17
972 119
972 777
125 65
8654 90
179 85
12203 90
12203 91
10799 51
11879 11
11879 21
ĠSrZn Ge
1247 450
850 049
TiMo Sb
CaCu As
1228 126
9743 41
8673 19
697 575
SrAu In
975 079
200 01
1193 856
SrZn Ge
980 949
12288 45
669 387
YRh Ga
11032 61
CaHg Pb
CaNi N
RuIr Ga
12189 24
ZrSi Se
1208 223
283 83
ScHf Ge
ScHf Rh
12179 67
12179 23
12172 93
12172 72
313 47
208 79
1227 335
1190 092
1190 500
8627 20
8627 21
199 15
998 787
PtZn Pt
10252 72
TaFe Al
162 61
12067 90
211 34
10954 42
10954 97
11023 48
11023 95
12159 49
SrPt P
SrPt Sn
12164 53
8646 54
12173 57
1245 699
12157 15
443 1
12166 12
12166 83
10239 42
10239 53
1063 938
12247 65
505 531
8659 28
8660 41
12216 56
10179 81
KSb Cl
12273 80
12273 22
10780 79
10780 49
1096 802
754 434
ĠScZn Pt
8650 41
1106 227
PtSi Se
ĠMnGa Fe
ĠMnGa Rh
9722 41
KNa S
YAu Al
12290 19
12290 31
12183 80
12170 40
10788 95
11796 93
9749 43
8661 55
IrAs Te
10789 73
10789 38
8619 08
12204 42
12204 55
11840 30
12190 34
12190 01
1191 713
12063 62
11029 19
314 81
ĠTeZn Hg
10969 50
11007 66
11007 95
11842 29
ĠHfZr Co
ĠHfZr Tc
HfZr Co
HfZr Tc
YPt P
MoSi Hf
1196 514
226 02
SrCu P
168 42
12167 84
542 570
11019 43
1198 114
239 33
10797 68
9775 82
12238 70
ĠGaCu Pd
ĠGaCu Rh
1068 746
1068 446
1071 862
5416 89
5416 87
218 85
12188 89
1019 052
12215 09
5418 75
1147 714
12270 45
ĠZnGa Co
HfCr Ge
10874 97
1066 445
11830 42
5713 70
12009 72
12269 39
12249 15
12102 46
10795 08
5429 09
ĠVGa Ru
5690 37
ĠTiIn Au
11028 40
12263 75
11909 50
11909 15
ĠZnCd Au
IrRh Al
9985 67
329 13
846 8
1002 106
8652 78
5688 66
11004 12
10240 69
1061 769
556 225
11035 20
696 673
135 12
620 571
12250 04
8677 68
6363 68
11049 26
9744 11
1212 435
10782 42
1021 494
1052 7
6762 41
8625 86
11875 12
12280 32
6432 57
1173 060
6049 10
6049 14
277 69
12054 93
12085 54
11010 99
6444 83
11022 68
358 69
8624 85
12177 63
12278 71
8672 64
1159 8
11940 40
12465 09
5709 20
11039 56
956 096
ZrV Co
9986 05
5052 97
11062 88
10284 41
12120 11
6442 80
9902 32
684 969
10682 86
621 348
5047 72
11060 22
5820 67
12268 21
12136 42
5101 33
5103 21
6465 07
7529 47
ĠCyan ogen
1097 859
10939 91
6744 93
5744 85
1 50
1 545
1 435
3 72
3 999
3 804
3 595
3 432
4 500
4 192
4 076
5 09
5 88
5 81
5 122
6 82
6 105
7 434
7 433
7 524
7 400
8 96
8 422
9 54
9 96
9 22
9 41
9 124
9 961
9 225
9 248
K C
K K
K Fe
K AuS
N In
V Sb
V Co
V Ir
V CrSi
V CoP
V CrP
W FeSi
W FeP
Y AlGe
Y CrFe
Y AuSn
Y FeNi
h l
m ite
Ġc hl
or ate
ĠC ub
ĠC Fe
ri dy
ĠN Sb
ĠN Cl
ĠIn V
ĠIn GeTe
ĠIn SnSe
ĠIn CuS
ĠIn CuPt
ĠP VS
ĠP MoP
ĠT ridy
ĠAl GaN
ĠTi C
ĠTi CrS
ĠTi NiSb
Al MoSi
ĠPd K
ĠPd Pb
ĠPd PtAu
ĠHf Fe
ĠHf TiSe
ĠHf ScSi
ĠHf ScOs
ĠNi In
ĠZr Ti
ĠZr NbAl
20 108
20 545
20 436
ĠSi Al
ĠSi AgPt
ĠGa H
ĠGa AgTe
ĠGa SiRu
ĠB oron
ĠY V
ĠY Cr
ĠY AsSe
ĠY CrFe
In Ru
In Hg
In GeTe
In BiSe
In GaTe
ĠNa SrHg
Fe CoAs
Fe MnGe
ĠV H
ĠV Cl
ĠNb WSe
Si Sn
ĠSc Cr
ĠSc NiSb
Pd In
Pd ZrSn
ĠAs GeAs
As Pd
ĠTa TiMn
ĠSr Co
ĠSr Ru
ĠSr CuSi
ĠSr CuGe
ĠZn CdS
ĠZn SnP
ĠZn FeRh
80 45
Ti GeS
Ti CrS
Ti OsSi
Ti MnP
Ti VAl
Ti TaMn
10 977
10 163
10 763
10 899
Pt SnS
Pt PdAu
Pt PdZn
ĠSn Cr
ĠSn GeSe
Ni MoP
Ni TiSb
ĠK C
ĠK Ti
ĠK RbCl
ĠK YCl
ĠAg BiTe
ĠCr Sn
ĠCr SnRu
ĠMn Fe
ĠMn Cr
ta ss
12 37
12 38
12 115
12 674
Zn SiP
Zn SnP
Sn GeSe
Sn PSe
Rh Ni
Rh SbAs
Rh TiSn
Cu Ag
Cu NbTe
Cu PN
Ag GaTe
Ag TlS
Mo Pt
Mo Ga
Zr TiPd
Zr CuGa
Zr SnTe
Zr CrFe
Zr CuSn
Zr OsSi
Zr NbP
Zr MnGa
Zr TiMn
Zr NbAl
Zr PdSi
Zr PdGe
Zr NbFe
ĠRb NH
ĠRb CaCl
ĠBi PtCl
Hf CoAs
Hf PtGe
Hf MnAl
54 22
54 23
54 1558
ĠPb Sb
ĠPb SnS
67 54
67 43
67 2194
67 9983
ĠCd Sn
ĠCd Bi
ĠCd PbS
33 45
33 333
11 111
Au GeAs
96 59
96 90
42 59
42 61
Co Fe
Co NiAs
Co CuS
Co VSb
Ru Pd
Ru CoGa
69 5850
ĠCl Zn
Ir Pt
Ir PS
Ir AsSe
Ir SbAs
Ir NiZn
50 58
16 34
16 852
16 259
Nb In
Nb NiSi
Nb PSe
Nb FeSi
Nb IrGe
Nb VSi
Nb VCr
Ta WS
Ta RuSi
Ta RhSi
Ta NbMo
Ca N
ĠCs V
ĠCs Ti
ĠCs Cr
Bi Pb
Bi InS
Cd C
Cd PbS
Cd ZnS
Sc V
Sc Al
Sc NiSi
Sc NiSb
Sc PtSi
Sc CrMn
ĠRe Y
ĠRe Ti
22 10
22 45
22 881
22 529
22 631
Pb Sb
15 18
15 868
15 651
21 547
21 883
88 13
Na AlGe
Na CrS
Na CuTe
Na CuSe
Na SrAs
Na MnSb
Na AlTe
Na SrHg
47 71
47 63
71 12
86 05
86 45
86 30
86 196
Cr HfSi
06 13
Mn H
Mn RhSi
Mn FeSi
Mn CoAl
Sr Y
Sr NiSi
Sr PtGe
Sr CuSi
Sr CuGe
Sr HfN
Sr AgAl
23 209
57 1518
89 76
46 8
93 91
82 77
Tl N
Tl V
Tl As
Tl GaSe
19 44
19 971
19 804
25 65
79 29
73 02
Os Au
Os Ir
Os NiAl
Os AsP
24 4
24 54
24 208
60 3
ĠL ow
77 52
34 69
34 14
78 77
72 1582
14 983
14 434
14 500
76 08
29 073
29 736
13 53
63 2403
63 2693
63 9659
90 40
61 8991
92 89
Rb NH
Rb AlH
Rb KCl
87 69
ĠAlTi Cu
ĠAlTi Co
99 06
37 091
17 835
30 676
30 326
30 424
31 502
28 108
28 800
28 731
28 201
28 759
120 279
120 8629
120 8973
120 7608
Cs K
Cs Ti
Cs Cr
110 08
110 5716
110 1867
110 1109
110 3414
ĠAlAl Ag
121 8620
121 4261
118 1237
122 66
122 1252
122 7112
109 91
ĠNCa Mo
ĠNCa Tc
281 12
281 74
1216 567
1216 850
1216 460
1216 677
1216 029
1216 641
1216 661
1216 091
107 0613
1183 5
1183 155
1183 938
1183 173
1183 148
1183 490
1186 117
1220 5
1220 59
1220 511
1220 436
1220 099
1220 458
1220 944
1079 110
1079 155
1079 726
1079 842
102 88
569 954
ĠSeNa Pt
867 117
867 331
867 917
567 545
1215 216
1215 676
1215 240
1215 627
1215 230
1215 663
1215 634
1215 751
119 8948
119 1353
ĠSeIn Cu
ĠHfGa Ru
ĠCaP Pt
1187 209
1187 473
1187 713
1187 429
1187 231
1187 238
1187 470
1187 097
1187 432
1187 703
1219 478
1219 939
1219 928
1219 258
1219 795
ĠZnAs Pt
1080 815
1080 771
1080 509
ĠTiGe S
ĠTiGe Rh
1018 709
1224 544
1224 559
1224 494
1224 886
1224 495
1217 229
1217 024
1217 094
1217 079
ĠCoSb Rh
1221 503
1221 125
1221 780
ĠZnP Pd
ĠYGa Rh
1223 976
1223 831
1223 647
1223 749
1223 682
222 53
222 40
222 87
ĠYIn Rh
1188 158
ĠZrIn Pt
ĠAsTe Rh
ĠSIn Cu
100 33
1078 107
1078 544
1078 776
1078 231
1078 756
1078 402
1078 767
1078 709
ĠYAg Se
ĠYAg Sn
ĠNaBi S
1184 055
ĠYSn Rh
ĠPAg SnP
ĠScAl Co
106 8891
106 8813
ĠTiGa Ru
ĠTiGa Tc
108 43
108 76
11860 69
ĠPSn P
ĠNTa Zn
ĠScIn Pt
ĠAlMn Fe
303 12
568 121
568 501
1077 814
1077 883
1025 690
1025 629
115 60
ĠCaTl Cl
204 08
ĠVCo Sb
12243 71
12243 06
12243 46
12243 93
12243 66
12243 77
12243 72
12243 58
12243 95
ĠInAs Pd
103 12
103 07
103 79
103 81
ĠYCd Pd
865 717
865 656
973 769
1189 212
1189 978
ĠPo tass
296 67
296 18
296 56
ĠSiN Cl
1229 165
1229 158
862 630
CuAl Se
866 156
866 163
866 094
866 805
866 141
866 051
573 891
12154 23
12154 29
1207 627
123 60
12180 22
12180 62
12180 35
12180 03
979 1
571 103
1206 544
1206 829
1206 884
1206 858
1067 6
1067 7
1105 127
1023 939
156 52
156 57
1246 514
1246 856
1246 073
1069 139
1009 657
977 115
977 541
977 578
12155 75
12155 29
1072 802
1102 658
186 54
CoNi Ga
1103 749
10253 47
10253 71
10253 02
10253 56
971 836
ĠCaSn Hg
TiPd Zn
227 75
12289 88
12289 06
YAg Al
YAg Ga
ZrRh Ga
311 85
ĠNFe Mo
ĠHfZn Cu
209 52
209 70
12267 83
12267 61
155 1
ĠSNb Cu
159 85
8655 20
8655 18
274 67
274 88
223 12
999 052
12153 53
12153 57
12153 82
152 72
KHg Sb
ĠCuSn Pd
310 81
221 50
1218 961
1218 414
1209 130
1209 818
CaAu P
1029 975
1029 330
1029 334
279 97
8654 48
179 84
NiAl Hf
12203 67
12203 96
12203 47
12203 66
12203 74
12203 77
ĠAlV Ni
213 40
203 89
1247 3
1247 4
TiMo As
TiMo Re
607 437
1228 473
1228 713
1228 192
1228 856
1228 701
1228 801
AsSe Ag
GaAl N
PdAu Pb
1199 938
975 140
672 661
1193 756
SrCd Ga
SrCd Bi
SrCd Pb
247 47
980 1
980 936
12288 10
12288 93
12288 90
YRh Zn
ĠSCa Ti
ĠTiNi Sn
11032 43
11032 93
849 086
289 30
205 21
685 941
1226 104
1226 089
1226 070
12189 51
12189 94
12189 31
ZrSi As
ĠYZn Si
8649 80
8649 90
1208 205
1208 228
1208 335
1208 235
10142 52
10142 26
ScHf Si
ScHf Os
12179 02
12179 89
12179 90
12172 69
1227 422
1227 421
1227 504
1227 698
1227 330
131 46
998 151
998 197
PtZn AsPt
12171 80
12171 85
12171 91
12171 95
10252 20
10252 93
10252 58
5710 21
12073 82
12073 94
224 18
171 74
10955 94
ĠMnAl V
ĠMnAl Ru
ĠMnAl Ir
HfPt Al
11023 07
11023 42
11040 42
11867 66
11867 68
YCu As
12159 33
12159 88
12159 87
1070 152
11043 66
11043 34
ĠSAl Zn
1214 851
SrPt Tl
FeAs Te
CaCd Pb
10255 86
276 47
PbTe PbS
12173 71
12173 25
1245 848
12157 12
12195 21
YZn Si
RhAs Te
130 20
11872 11
12242 47
12242 71
12166 80
197 47
9720 42
10779 44
10239 41
10239 48
ScCu Zn
12163 54
12163 47
12163 78
TiRh Ge
12247 25
12247 68
12247 90
12247 98
9813 68
9813 77
8659 48
1178 678
12216 42
12216 69
12216 24
TiCr Tc
12077 53
12077 82
12077 76
12273 46
12273 13
10780 12
1013 555
1013 554
1013 588
232 69
1205 841
12244 80
12244 08
680 850
754 628
1222 167
8650 10
8650 51
8650 01
8650 27
5703 55
11017 89
242 87
ĠGaFe Ru
5680 20
9773 53
9773 61
12193 22
12193 23
11877 05
12290 08
8623 79
12183 62
12183 59
12183 29
12183 27
12170 15
10800 33
NbMo Si
300 19
5677 69
12248 85
CuIn Te
8616 56
ĠTeMn Cd
10789 08
780 6
5702 58
9729 14
11874 97
11874 91
12204 18
8651 45
12190 16
1191 862
8626 02
12063 79
11029 45
TiTe S
293 87
10969 86
MoRh P
HfRh Al
HfRh Ga
8657 79
8657 68
8657 28
10773 51
ĠHfZr N
HfZr N
12082 20
12082 41
11907 73
TiNi Sn
TiNi Cu
1196 650
2329 0
5743 39
8656 15
11030 31
12167 34
6971 44
6971 35
11019 82
11036 08
172 91
225 65
12152 68
10951 85
12238 42
1068 239
8658 78
8658 76
9854 42
ĠTeZr Cu
TiW Mn
TaTe Cl
8622 88
11057 15
1071 127
ZrAl Co
5416 09
12188 35
11063 56
12169 03
10257 99
185 61
ĠCuGe Rh
1147 746
12270 33
12270 38
312 63
11031 50
ScPd Ge
11830 05
HfMo Sb
12160 33
12160 05
12160 45
12160 01
5713 77
1027 687
10847 67
10847 70
147 91
1094 107
12274 18
10793 25
8678 21
SbN Sr
5693 88
ĠVGa Os
6907 72
5690 12
ĠTiCr Tc
AsN Sr
9985 12
9985 61
11056 54
10777 22
8652 32
12068 54
12275 67
10293 87
696 805
623 089
708 4
1213 756
11041 39
11946 60
9616 87
12182 73
12182 68
760 381
6419 24
12084 09
11049 74
11049 56
12233 82
6762 50
11875 11
12280 43
12280 15
1173 830
5558 43
6049 08
12200 04
12239 96
12239 08
153 22
640 041
ZrW Cr
ZrCr Co
11010 75
11010 92
342 92
5412 36
5555 69
9752 75
11022 88
12065 91
10784 69
ĠHgP Pd
10953 96
924 130
10783 26
1197 660
12032 83
11912 56
5052 78
11062 45
10781 83
12469 57
315 10
315 07
650 513
8663 75
8663 76
12088 37
12088 39
11018 85
12265 14
10263 56
10703 56
580 930
6751 20
237 05
9769 30
6308 75
12156 89
667 294
12277 88
11897 74
12454 45
12116 43
5411 49
9916 56
11949 87
11890 54
12259 93
6428 45
12064 05
12207 43
5408 84
CoCr Ta
5576 43
8490 67
11009 95
11944 81
6105 22
Ġchl orate
ĠCub ane
ĠTridy mite
ĠAsGeAs Au
5422 39
5058 22
120279 1
ĠPotass ium
0 062
1 714
2 674
3 43
3 40
3 18
3 464
3 422
3 862
3 539
3 648
3 927
3 8605
4 08
4 85
4 678
4 978
4 404
5 66
5 100
5 1008
5 213
5 157
5 10285
6 628
7 22
7 221
7 437
9 04
9 673
9 538
9 463
9 251
9 587
K V
K Ti
K CrS
K ZnP
K AlTe
K YS
P Sn
S PS
S CuS
V CoSi
V MnP
V MnAs
Y Ge
Y CuS
Y RhSi
Y NiGa
Y CuGa
Y PdBi
Y PtSi
Y ZrSb
b eta
c a
ĠC ri
st ob
ĠIn Mo
ĠIn CuPd
ĠTi SnPt
ĠTi CrAs
ĠTi VTc
Al Ti
ĠCa Ga
ĠPd Y
ĠHf ScRu
ĠNi H
ĠZr RuSb
ĠZr SnRh
ĠZr ScTc
20 79
20 133
20 938
20 479
20 661
20 235
ĠPt Hg
ĠY Fe
ĠY Ni
ĠY CuSi
ĠNa CrS
ĠNa CaAs
ĠNa FeN
Fe Zr
Fe NiAs
Fe NiSe
Fe TiH
Fe NiGe
ĠV CuRh
ĠNb Cu
ĠNb CrN
ĠTe W
ĠSc TaRu
ĠSc TaOs
ĠSc VRu
ĠMo NbW
Pd Ga
Pd ZrAl
ĠAs Mn
ĠAs Re
ĠTa Sn
ĠTa TiAl
ĠTa InS
ĠTa WSe
ĠTa TiTe
ĠTa SnRh
ĠTa FeRu
ĠTa SnRu
ĠSr Ni
ĠSr GaSi
ĠSr CaIn
ĠZn SnRh
Ti NiAs
Ti NiSi
Ti CoGe
Ti CrSi
Ti FeAs
Ti IrSi
Ti VTc
Ti PtSn
10 166
10 866
10 223
10 895
10 749
Pt N
Pt Pt
Pt Hg
Pt SbSe
Pt BiSb
ĠGe BiPd
ĠSn Cd
ĠSn Pb
Ni Pt
Ni Mo
Ga Zr
Ga Hf
Ga Os
ĠK Fe
ĠK Zr
ĠK CaCl
ĠK YS
ĠAg SnTe
ĠCr SnRh
ĠFe NiAs
ĠFe CoAs
Sb RuZr
ĠMn In
ĠMn RhSb
Ge Bi
Ge Os
12 464
12 675
12 557
12 537
12 962
Zn Tl
Zn CdSb
Sn Mo
Sn NbS
Rh Ag
Rh CoAs
Rh AsSe
Rh BiS
Rh CoS
Rh PtZn
Cu CrS
Cu AsS
Cu ZrGe
Cu AsTe
Ag Ge
Ag Rh
Ag SnTe
Ag AsS
Ag GaSe
Mo Tc
Mo NbW
Zr NiAs
Zr GeS
Zr CuSi
Zr PtSi
Zr MoGe
Zr TiAu
Zr MnFe
Zr VNi
Zr CoBi
ĠIr Sc
ĠRb Tl
Hf GeS
Hf CoSn
Hf RuSb
Hf CrAl
Hf ZrS
Hf ReSi
ĠE ss
67 63
33 12
33 90
11 82
11 501
11 504
11 928
11 438
11 144
11 400
11 401
Au P
Au Se
Au Ga
Au Ge
96 22
96 82
96 35
08 4
08 69
42 47
42 81
42 76
Co Nb
Co MnSb
Ru Co
Ru NiGa
Ru NiAl
Ru PdAl
69 54
69 16
69 59
ĠCl H
Ġ8 8
Ir CuZn
50 66
50 45
16 090
16 226
16 236
16 225
16 439
53 50
53 05
Nb Cr
Nb SeS
Nb CuGa
Nb NiGe
Nb CoSb
Nb CrN
Ta Tl
Ta CoSi
Ta RhSn
Ta CoP
Ta MnSi
Ta CrNi
Ca Ge
Ca Ru
Ca MnGe
Ca MnSb
Ca CrN
ĠCs Cd
ĠCs MnAs
ĠCs CdCl
Cd H
Cd Tl
Cd SnP
Cd GeAs
Sc AgZn
Sc TaRu
Sc CoSn
Sc MnGe
Sc IrSi
Sc TaOs
Sc VRu
Sc OsGe
Sc ZrTc
55 73
55 28
55 6916
55 5066
22 63
22 167
22 152
22 546
22 444
22 332
ĠHg GaCl
ĠHg AsPd
Pb C
15 221
21 459
21 851
21 491
88 54
88 43
Na Sn
Na InS
Na AlH
Na CaH
Na CaAs
Na FeN
Na ScCl
Na ZnSb
47 21
47 28
71 73
71 87
Cr Bi
06 1
40 26
Hg GaCl
Mn Bi
Mn Re
Mn CoGe
Mn CuSe
Mn IrSi
Mn RhSb
Sr Si
Sr Mn
Sr CaIn
Sr RhIn
Sr AgAs
23 026
23 739
57 7
57 00
46 53
82 76
83 08
Tl Zn
Tl Co
Tl Cd
Tl InS
19 728
25 89
73 65
68 76
Os Co
Os SbSe
Os AsS
Os AsSe
24 47
97 2187
97 7443
97 8854
97 6876
04 47
51 49
34 98
56 17
84 46
14 086
29 850
29 139
29 198
29 487
29 811
29 432
13 573
49 53
49 97
48 22
48 40
48 46
90 10
Rb Tl
87 12
87 53
ĠAlTi Ni
91 45
36 02
36 18
99 87
95 80
95 71
95 86
27 331
27 814
ene ite
17 801
30 06
30 19
30 460
30 092
30 465
31 460
31 456
31 451
31 438
28 717
120 07
120 0062
120 3422
120 4281
120 8308
Cs N
Cs V
Cs Cd
Cs SnS
Cs GaS
Cs MnAs
Cs CdCl
Cs NaSe
Cs NaS
110 55
110 452
110 180
110 5702
110 1887
110 2285
110 5850
ĠTiAl Os
122 1198
122 6323
122 5022
233 18
116 21
ĠScSb Pt
1216 867
1216 222
1216 678
1216 699
1216 437
1216 430
1216 193
1216 495
1216 072
1216 135
1216 017
1216 056
1216 963
1216 843
1216 563
107 0869
107 2589
1183 191
1183 232
1183 547
1183 135
1183 516
1186 222
1186 162
1186 185
ĠVSi Ru
1220 110
1220 472
1220 670
1220 676
1220 695
1220 335
1220 413
1220 475
1220 089
1220 587
1079 862
1079 999
1079 228
1079 224
1079 546
1079 718
1079 831
1079 729
1079 679
ĠAlSc Ag
569 167
569 983
569 881
569 823
569 408
ĠAlCu Rh
ĠHfAl Ru
867 5
867 109
867 308
867 156
867 216
867 137
867 249
867 851
867 897
867 475
867 787
867 761
567 330
567 749
567 181
567 485
1215 979
1215 221
1215 279
1215 188
1215 678
1215 729
1215 600
1215 811
ĠZrAl Ru
119 58
119 2507
119 8712
ĠNbSe S
1187 098
1187 939
1187 731
1187 079
1187 701
1187 424
1187 095
1219 015
1219 132
1219 466
1219 292
1219 926
1219 237
ĠCoZr Bi
ĠSiSi Ni
1080 233
1080 204
1080 495
1080 760
308 47
308 64
1018 722
1224 121
1224 116
1224 464
1224 972
1224 484
1224 466
1224 540
1224 451
1224 413
1224 448
1224 859
1224 425
1217 202
1217 126
1217 205
1217 214
1217 791
1217 891
1217 089
ĠHfGe Ru
1221 555
1221 421
1221 692
1221 534
1221 431
1221 436
ĠZrGa Pd
ĠCaSb Pd
1223 955
1223 835
1223 859
222 75
ĠNbGa Os
ĠScGa Ru
ĠYIn Cu
ĠYIn Ag
1188 208
1188 693
1188 987
1188 318
ĠSIn Ag
1078 739
1078 963
ĠGaTe S
ĠSeCs Sb
ĠSrSi Ge
1184 118
1184 180
ĠFeSi W
ĠAlAs Pt
11869 58
ĠTiGa Fe
ĠNiY Bi
1007 6
ĠIb ca
ĠCoNb Sb
ĠSBi Rh
113 50
570 122
ĠTaAl Fe
ĠTaAl Ru
PS Os
ĠSRu Rh
ĠSV Cr
568 544
1077 935
1077 939
1025 203
1025 191
1025 161
10180 76
ĠZrGe Ru
204 19
12243 24
12243 03
105 96
105 21
212 73
212 60
103 0447
117 68
306 62
306 59
306 03
865 100
865 124
865 538
865 898
865 651
865 093
865 931
973 0
973 434
973 904
ĠInP Pd
1189 305
1189 516
1189 265
1189 075
1189 340
ĠNaIn Hg
296 0
296 1
11847 21
ĠRuSb Hf
ĠTiZn Co
167 40
862 699
ĠHgTe S
11846 11
11846 84
866 132
866 219
866 168
127 81
ĠTlS Cl
ĠHfNi Sn
12154 62
12154 76
12154 90
12154 87
305 96
305 57
1207 828
1207 428
1207 855
ĠNiZn Sb
12180 73
12180 49
12180 63
12180 28
979 4
979 414
1206 129
1206 525
1206 699
1206 424
ĠTiMo P
1105 077
1105 851
1105 859
169 45
169 30
11880 04
11880 77
11880 17
11880 03
202 42
202 55
202 89
202 79
1225 183
1225 654
1246 6
1246 460
1246 089
1069 824
1069 811
104 12
104 57
307 22
307 98
1009 152
977 427
977 436
12155 52
12155 64
280 80
280 24
ĠTaGa Ru
1072 944
229 09
1102 101
1102 693
1102 534
1102 841
1102 631
186 48
CoNi Al
1103 098
1103 123
1103 545
1103 826
1103 787
1103 248
1103 091
10253 06
10253 59
983 850
971 739
227 12
227 69
227 22
12289 09
12289 13
YAg S
YAg Sb
675 977
675 531
1008 624
111 76
311 69
311 71
ĠHfZn Pd
5708 58
207 08
12267 31
755 263
ĠSiFe Ru
8655 07
8655 85
8655 60
8655 91
274 62
223 96
223 15
12153 05
12153 71
12153 02
12153 78
10786 35
310 55
CuGa Se
1218 857
1218 331
1218 960
1209 061
ĠSnP Pt
CaAu As
CaAu Bi
1029 506
972 895
279 0
WSe Te
8654 42
8654 85
8654 41
179 10
12203 58
10799 08
HfIr Ge
216 62
216 59
ĠAlV Mn
213 71
213 52
213 74
203 78
1247 0
1247 422
TiMo P
129 51
607 230
607 475
607 409
YPd Al
YPd In
YPd Ga
YPd Sn
1228 691
1228 807
9743 81
ĠSeMn Cu
8673 45
697 076
SrAu As
9989 70
1193 8
SrCd Ge
11845 67
11845 60
11845 94
RuRh S
CaPt Al
CaPt Cd
980 200
980 665
980 948
BiS Cl
12053 92
12288 29
669 311
YRh Ge
ĠZnCu Pt
ĠYBi Pd
849 073
849 084
5716 09
205 54
1185 995
1226 106
12189 54
12189 55
12189 15
12189 76
198 77
8649 09
8649 47
976 184
1208 730
1208 400
CuSi Ti
214 09
SrGe Si
142 42
142 66
283 47
HfPd Si
ScHf Ru
12179 79
1227 717
1227 558
1227 574
8627 15
199 53
199 06
998 421
12171 12
10252 79
10252 48
10252 35
288 42
288 60
288 84
336 18
164 93
10954 43
10954 40
10954 65
10954 64
171 48
643 9
10955 53
10955 84
10955 63
12260 11
12260 14
12260 36
ĠMnAl Rh
HfPt Ga
11023 73
985 6
985 831
158 96
11040 24
11040 00
11867 61
5683 94
12159 45
12159 14
180 21
180 26
1070 099
5705 98
11043 77
282 42
ĠSAl Mo
ĠCuSb Rh
11020 11
11020 86
11020 41
240 34
12164 57
10255 73
10255 87
276 69
276 30
12173 19
12173 60
TiAs Te
1245 633
1245 808
1245 896
504 838
12157 33
12195 12
ĠCaIn Cu
12242 50
12242 44
1133 8
NaAu Se
NaAu In
10779 15
10779 79
11834 54
11834 82
5707 69
12247 70
12247 03
9813 12
557 737
8659 14
12066 00
12216 43
12216 29
12216 32
5426 14
5426 13
12077 07
12077 27
12273 20
10780 54
10780 64
183 61
1013 525
297 40
1205 800
1205 641
12244 14
309 31
8650 26
8650 30
SrPd Si
SrPd Tl
11017 71
9722 36
9722 17
9896 51
242 37
793 0
YAu Ga
12194 42
ĠHK S
9773 67
9773 47
9773 56
TcPd Al
12193 80
12193 56
11877 16
11877 25
12290 06
8623 74
8623 68
8623 00
12183 28
12170 16
10788 84
AgAl S
12257 31
12248 75
8616 04
8661 70
NbPd Si
CrAs TiAs
HfNi Sn
8619 40
12070 15
11874 18
11874 44
10796 95
6847 44
1087 479
1095 628
1191 100
5689 40
RbAu S
12063 65
314 57
YNi Bi
ĠVGe Ru
NbRu P
864 898
293 71
AlCu Y
AlCu Ti
AlCu Sc
ĠNbMo W
MoRh Pd
11007 86
11842 99
10773 54
5424 86
12082 57
12082 48
YPt Sn
ĠNNa Si
MoSi Zr
ZrGe Sb
SrCu As
SrCu Sb
8656 54
11030 46
12167 24
FeTe Fe
542 537
11019 50
11019 95
11036 42
225 80
12152 70
10951 80
10951 48
12238 69
1068 157
1084 4
1084 838
ScPt Sb
ScPt Sn
8658 10
TiW Tc
11057 49
1071 955
RhV As
5416 86
5712 63
12188 12
12188 93
10956 07
12169 27
12215 15
12215 13
12284 54
12284 43
10257 28
185 67
185 62
185 94
1147 754
1147 709
11026 50
KAg Se
ĠZnGa Ir
11031 72
11031 76
10874 85
10874 87
1066 232
12071 69
11038 79
ĠSGa Ni
MnZn Te
12249 08
12249 51
12249 44
ĠHfSn Ru
1006 888
12057 84
12074 08
12274 50
12274 41
10793 61
10795 82
8678 78
10804 69
10804 89
8637 07
181 32
605 735
12033 38
ĠTiIn Rh
ĠSeGa Mo
1014 204
12388 47
1192 151
5050 34
10950 57
287 73
984 872
1279 8
11108 80
600 125
11056 47
10777 46
9799 10
329 9
12137 54
5688 32
11004 08
12287 24
10240 67
10240 48
11011 73
11011 18
562 726
NiZn Sb
1213 092
ZrAu Ga
135 83
11041 20
11041 55
6765 86
9616 53
9616 85
8662 96
12182 62
12178 15
12178 21
12250 59
8677 53
8677 75
8677 81
286 45
SrNi In
6372 92
11025 20
11025 64
10782 57
380 11
ĠCdIn Pd
ĠCdIn Rh
8629 11
5104 09
6753 74
6753 25
12015 66
11033 10
285 80
277 76
ĠHfIn Cu
12085 90
11046 86
342 32
1683 9
294 19
995 201
12217 20
12217 02
8624 46
12065 50
11922 66
6755 90
5567 12
11940 03
12465 21
924 128
217 74
9728 79
11039 84
12147 93
12147 84
10276 47
9986 01
12162 52
12162 45
10790 80
11912 85
5587 60
9721 83
637 052
637 251
12078 43
12078 48
12087 21
12185 58
12245 16
12245 98
10781 55
10287 55
10287 62
275 13
272 55
12120 52
6442 29
10263 62
12214 85
945 077
945 184
TiTa Al
1210 567
11730 40
9769 20
11037 24
12156 09
11933 37
BiN Sr
11829 50
9762 57
7686 13
9981 55
10716 45
11916 44
11905 83
12192 66
10667 18
6749 84
5725 96
9912 96
12061 77
10940 21
10286 04
12455 24
5817 16
10707 55
12115 89
5423 87
6743 55
11835 12
12205 97
10288 23
343 37
51008 6
SPS SCs
YGe Sn
ĠCri stob
10866 69
ĠEss eneite
6763 29
1182 452
5573 08
5700 08
5617 10
110452 6
110180 9
ĠCristob alite
) (
2 54
2 8658
3 1072
3 504
3 772
3 529
3 934
3 830
4 573
5 549
5 881
6 02
6 89
6 127
6 969
7 20
7 15
7 02
7 429
7 077
7 439
7 684
8 78
8 126
8 539
8 435
8 456
8 543
8 966
8 190
9 21
9 02
9 14
9 857
9 576
9 437
9 561
9 295
H N
K SnSe
K AuTe
K YTe
K AlCl
K SnAs
K AgCl
K CuCl
K GaH
V Sn
V NiAs
V MoAs
V CrAs
Y V
Y Bi
Y Sc
Y Cr
Y ReN
Y ScFe
n cm
ĠC Ni
ĠC Ca
ĠN W
ĠIn CuTe
ĠIn GaS
ĠIn GaP
ĠAl GaP
ĠTi V
ĠTi CuS
ĠTi VN
ĠTi VSe
ĠTi VH
ĠTi VRe
Al In
Al Ag
Al Hf
Al Ru
Al Pb
ĠCa Mo
ĠCa ZrRh
ĠCa GaN
ĠCa YPt
ĠCa MnS
ĠHf V
ĠHf Mn
ĠHf TaRu
ĠNi Sn
ĠNi Cl
ĠNi SrSn
ĠNi AgSe
ĠZr TiS
ĠZr FeSb
ĠZr NiSn
20 192
20 331
20 744
20 791
ĠSi SnPt
ĠSi CoSi
ĠGa Sr
ĠSe PRh
ĠY Sc
ĠY CuSe
ĠY ScS
ĠY ScFe
In V
In Ni
In SbS
In GaP
ĠNa Mo
ĠNa MnSe
Fe Mn
Fe SbS
Fe CoSi
Fe AsS
Fe CoGa
Fe NbSb
ĠV CrFe
ĠV SnRu
ĠNb CoTe
ĠNb CrSe
Si Os
ĠTe Al
ĠTe Hf
ĠTe TaCu
ĠSc V
ĠSc Ti
ĠSc TaTc
ĠMo WSe
Pd TlPb
Pd NiTe
ĠAs ReNi
As Bi
As Tl
ĠTa Cr
ĠTa SeS
ĠTa PbSe
Te Bi
ĠSr GaGe
80 16
80 17
Ti Rb
Ti TeSe
Ti CuS
Ti ZnGa
Ti MnAs
Ti PtGa
Ti VN
Ti NiGe
Ti PtSi
Ti ReSi
Ti GeSb
Ti NbRe
Ti VH
Ti VRe
10 16
10 47
10 207
10 165
10 164
10 137
10 435
10 456
10 648
10 748
ĠCo H
ĠCo TeSe
ĠCo NiAs
Pt SeS
Pt CdAs
Pt MnSb
ĠSn PbS
Ni AuSn
Ni AgSe
Ga Ru
Ga PS
ĠK Nb
ĠK Rb
ĠK SnS
ĠK YTe
ĠK SnAs
ĠAg BiSe
ĠAg BiS
ĠAg BiPd
ĠCr FeAs
ĠFe Tc
ĠFe AlSi
ĠMn SbPt
ĠMn ZnS
ĠMn NiSb
ĠMn CoSn
ĠMn CoSb
ĠMn SnPd
Ge Ca
12 53
12 30
12 1216
12 221
12 125
12 659
12 759
Zn Pt
Sn In
Sn Cu
Sn GeTe
Rh Pt
Rh NiAs
Rh PSe
Rh PdZn
Rh PtCd
Rh AuZn
Cu SbS
Cu SbSe
Cu ScS
Cu ZrAl
Cu YSe
ĠRu H
ĠRu Cl
Mo Fe
Mo MnAs
Zr Ti
Zr Ir
Zr FeSi
Zr MnP
Zr TaFe
Zr FeSb
Zr FeAs
Zr NiGe
Zr CuGe
Zr IrAl
Zr NiBi
Zr CrMn
Zr MoFe
ĠIr Mn
ĠRb Co
Hf SeS
Hf CuAl
Hf CoSi
Hf TaRu
Hf MnSi
Hf CrGa
54 96
54 05
54 1487
54 1062
43 66
43 64
67 60
67 56
67 95
67 569
ĠCd Zr
11 37
11 202
11 430
11 13512
Au As
Au CuSn
Au SiP
96 1652
42 53
Co Re
Co SeS
Ru NiSb
69 81
69 84
69 87
Ir MnSb
50 44
ĠTl SiPt
16 39
16 501
16 961
16 234
53 42
53 18
53 76
53 27
Nb Ir
Nb InS
Nb CoSi
Nb CoAl
Nb CoTe
Nb CrGa
Nb CrSe
Nb VP
Ta MoS
Ta PS
Ta NiAs
Ta CoGe
Ta WFe
05 65
Ca ZrRh
Ca GaGe
Ca GaN
Ca AgAl
Ca YPt
Ca MnS
Ca GeN
ĠCs N
ĠCs Co
ĠCs SnCl
ĠCs MnSe
ĠCs MnTe
Bi Au
Cd PSe
Cd SiAs
Sc Ti
Sc Re
Sc CuSn
Sc CoP
Sc CuSe
Sc TaTc
55 89
55 60
55 63
ĠRe Sc
22 233
22 304
22 717
22 130
22 426
22 662
22 731
22 855
ĠHg Pt
ĠHg PS
ĠHg PPt
Pb In
Pb Au
Pb PSe
Pb HfS
Pb TaSe
15 11
15 121
15 226
21 88
Na Rb
Na NbS
Na SbTe
Na SrP
Na AuTe
Na MnSe
47 55
47 62
71 91
71 94
86 11
86 484
Cr W
Cr Re
Cr CuS
Cr CoSi
Cr CoP
Cr MnP
Cr WN
Cr ZnN
52 38
40 25
Hg Pd
Hg PS
Mn CoSn
Sr Sc
Sr MnN
Sr CrN
Sr AgP
23 97
23 186
23 539
62 5
57 48
57 01
57 1215
57 4025
46 38
74 1
82 88
83 89
83 00
Tl Si
Tl Tc
Tl SbTe
Tl BiSe
Tl CrTe
70 00
19 955
19 850
19 824
19 787
25 6
45 16
45 60
79 09
79 08
79 06
73 63
73 61
81 67
68 5050
68 4560
Os SbTe
Os SbS
Os IrAl
Os AsTe
18 49
18 104
18 670
60 1253
60 4516
Tc Tl
Re Co
77 73
34 9
34 19
34 81
56 8661
56 8880
56 1258
56 1639
56 1511
72 63
14 557
76 42
76 57
29 110
29 861
29 828
29 889
29 484
29 678
41 72
13 555
13 203
13 140
13 094
13 160
63 2686
63 9910
63 7194
92 70
92 64
Rb K
Rb N
Rb Sr
Rb TiS
Rb CuCl
Rb KS
87 65
91 73
32 10
36 23
99 52
95 69
35 53
37 808
27 532
27 241
27 898
17 74
17 964
17 401
98 2188
30 208
30 805
31 67
31 125
28 116
28 339
28 968
120 307
120 2105
120 3241
120 8991
120 1230
120 3419
120 1774
Cs Bi
Cs CuS
Cs SbS
Cs MnSe
Cs MnTe
Cs AlTe
110 47
110 484
110 5693
110 5327
118 22
122 1137
122 8611
122 8288
109 6795
109 7000
114 89
116 09
1216 167
1216 503
1216 571
1216 169
1216 310
1216 179
1216 247
1216 648
1216 052
1216 427
1216 079
1216 463
1216 178
1216 687
1216 883
1216 148
107 6973
107 6981
1183 464
1183 166
1183 571
1183 607
1183 837
1183 634
1183 586
1183 708
1183 640
1183 654
1183 468
1186 124
ĠVSi Tc
1220 700
1220 541
1220 795
1220 594
1220 141
1220 742
1220 883
1220 492
1220 148
1220 476
1079 559
1079 772
1079 075
102 9771
102 7273
ĠAlSc Au
569 310
569 247
569 511
569 267
569 523
569 344
101 54
101 88
101 8657
101 7632
ĠHTi V
ĠHfAl Rh
ĠHfAl Ir
ĠCdAs Pt
867 173
867 792
867 327
867 901
867 799
867 330
867 779
867 751
567 1
567 6
567 114
567 883
567 736
567 927
1215 296
1215 208
1215 180
1215 776
1215 242
1215 662
1215 928
1215 339
1215 659
1215 168
1215 817
1215 937
1215 726
1215 234
1215 194
1215 298
ĠCdAg Au
119 1078
119 2397
ĠSeIn Ag
1187 208
1187 430
1187 738
1219 800
1219 249
1219 430
1219 259
1219 226
1219 513
1219 720
1080 452
1080 624
1080 049
1080 667
1080 715
ĠTiN Cl
1224 867
1224 473
1224 900
1224 498
1224 913
1224 860
1224 897
1224 091
1224 528
1217 935
1217 096
1217 088
ĠInSb As
1221 102
1221 101
1221 502
1221 549
1221 672
1221 673
1221 335
1221 487
1221 787
1221 454
1221 742
1221 948
ĠZrGa Ru
1223 813
1223 857
1223 802
1223 754
1223 818
1223 642
1223 807
1223 844
222 16
222 89
112 52
ĠScGa Ir
ĠNaSb Te
ĠYIn Pd
1188 531
ĠZrIn Co
100 1017
ĠSiP Au
1078 547
1078 965
1078 729
ĠYAg S
ĠSbTe Rh
ĠSeBi Ir
ĠNaBi Se
ĠNaBi Te
1184 573
1184 104
1184 678
1184 548
ĠScSn Rh
ĠCrTa N
ĠAlGe Ru
11869 33
11869 42
11869 53
11869 51
11869 56
11869 44
11869 38
106 8300
106 8167
ĠNiZr Bi
108 73
108 78
1007 685
ĠGaAs P
113 66
ĠNTa Cr
220 18
132 75
ĠScIn Pd
ĠTiCo Sn
ĠYAl Ag
ĠAlMn Co
303 61
568 402
1077 803
1025 222
1025 167
1025 678
1025 224
1025 219
1025 187
1025 190
1025 689
10180 20
ĠSK V
12243 85
12243 76
12243 36
12243 26
12243 17
103 68
103 0565
117 8620
306 58
865 165
865 501
865 895
865 504
865 128
865 079
865 807
865 600
865 664
865 088
ĠSrIn Hg
NiAs S
973 1
973 100
1189 871
1189 342
1189 272
124 18
296 07
296 23
296 62
11847 54
SrSn N
SrSn P
304 10
ĠHNa Pd
ĠTiZn Pd
ĠTiZn Ga
ĠTiZn Rh
ĠTiZn Ir
1229 208
167 63
167 90
862 546
862 778
CuAl Te
866 104
866 213
866 088
ĠScN Cl
12154 55
12154 91
136 54
136 86
305 95
1207 127
1207 717
1207 090
1207 463
1207 805
1207 095
1207 736
123 9173
12180 42
12180 52
12180 34
12180 31
571 310
571 203
ĠScCu Se
1206 964
1206 529
1206 863
1206 679
1067 1
1067 5
1105 802
11880 20
11880 66
11880 79
11880 59
11880 00
1023 2
ĠAlSi Ru
1225 125
1225 224
1225 892
1225 810
ĠFeNb Sb
1246 430
1246 648
ĠSeCd Hg
1069 706
1069 956
ĠReN Cl
TiAl Au
TiAl Cr
104 8662
307 8
1009 130
ĠCdP Se
ĠCdP Pt
861 935
12155 54
12155 61
280 69
280 06
280 19
ĠZrZn Pt
ĠZrZn Ni
ĠZrZn Ir
229 14
229 41
1102 531
1102 834
1102 545
1102 537
1102 687
1102 844
1102 603
186 60
ĠNAl Ti
1103 166
1103 227
1103 213
1103 160
10253 11
10253 86
10253 65
10253 18
10253 24
10253 29
983 602
971 712
971 914
ĠCaSn Rh
TiPd Ga
227 25
12289 08
ĠSeSb Pd
ZrRh P
210 96
210 27
ĠPIn Ga
675 124
675 930
675 801
ĠTiNb Re
311 53
989 401
207 40
12267 87
8655 69
12153 66
12153 18
12153 72
12153 27
12153 98
10786 45
ĠGaP Pt
221 47
CuGa S
CuGa Cl
1218 103
1218 424
1218 858
1218 548
1218 334
1218 415
1209 241
1209 161
CaAu Ge
1029 2
1029 531
1029 337
1029 479
1029 860
1029 719
1029 838
1029 878
163 18
163 56
972 861
972 884
279 16
279 47
279 04
8654 86
8654 62
8654 65
8654 72
8654 94
179 89
179 26
12203 93
12203 82
12203 56
216 22
213 65
213 01
11879 16
11879 22
203 16
1247 449
1247 294
TiMo Tc
NaIn Te
CaCu Bi
NaHg NaSn
1228 158
1228 436
ĠCuSi Rh
SrAu P
139 93
ĠMnSb Ir
1199 930
975 144
1193 832
1193 594
1193 748
1193 265
1193 415
1193 021
SrZn Bi
SrCd Sn
11845 68
12053 90
12288 88
12288 94
11032 80
ĠYBi Pt
TaRu P
8647 15
8647 82
8647 61
849 082
849 071
289 45
205 33
205 11
205 65
1185 970
685 969
685 928
685 605
1226 121
1226 236
12189 09
12189 52
ĠTiZr Te
198 85
8649 53
8649 91
273 69
273 94
ĠSeCu Pd
1104 125
1104 825
1104 965
1104 960
1104 097
1104 194
283 2
HfPd Al
ScHf Co
12179 10
12172 42
12172 70
12172 60
12172 91
134 16
134 48
313 81
1227 695
1227 051
1190 041
998 713
12171 40
12171 93
12171 72
12171 32
10252 69
10252 82
10252 70
10252 36
288 43
288 32
336 83
1179 173
1179 970
TaFe Ge
162 60
5710 33
5710 16
5710 38
12073 59
12073 41
211 18
224 83
171 85
171 86
643 273
643 651
643 702
10955 22
10955 75
10955 73
12260 09
12260 54
12260 67
12260 06
12260 17
12260 30
ĠNbZn Rh
ĠNbZn Co
ĠCrSi Ru
HfPt Si
ĠTeSb Pd
ĠTeSb Rh
11040 27
YCu P
12159 42
12159 15
12159 18
180 2
180 93
180 03
215 7
215 08
215 77
ĠCaCd Hg
11043 37
SrPt Si
SrPt As
SrPt Cd
11020 73
11207 80
11207 33
12164 50
12164 81
10255 75
8646 50
8646 51
1245 698
1245 537
1245 927
12157 21
12157 57
YZn Ge
ĠCaIn Pd
291 75
12242 82
12166 40
12166 81
197 40
197 68
978 532
10239 25
12163 97
12163 29
11834 53
ĠCaBi Au
ĠVZn Ru
12247 89
12247 84
12247 91
9813 65
9813 79
505 333
557 523
8659 16
8659 29
12066 35
12066 38
175 97
12216 89
12216 41
TiCr As
12077 88
11878 76
12273 54
12273 56
10780 93
278 50
1013 550
157 24
232 75
1096 810
12244 55
12244 46
12244 81
12244 18
309 71
309 79
309 38
8650 45
8650 48
8650 39
SrPd Cd
231 76
1106 219
11017 53
ĠSAs Pt
FeTi P
CaSn N
9722 24
9896 15
12194 80
12194 88
9773 82
9773 83
12193 12
12193 69
11877 71
8623 11
8623 66
8623 65
8623 64
8623 72
12183 67
12183 42
12183 79
12183 72
12183 84
12170 39
TiN Cl
10788 25
10788 73
12248 71
12248 19
8616 62
8616 41
8616 26
8661 83
674 456
780 1
IrP Te
8619 50
12070 22
11874 20
10796 41
10796 35
12199 54
12199 70
201 47
6847 31
12204 53
12204 83
1087 238
1095 502
1095 201
CoTi Sn
8651 67
11840 26
12190 09
12190 50
8626 23
RbAu Se
11029 24
314 06
314 52
864 857
864 831
864 671
864 839
293 09
293 62
293 79
293 81
8657 91
11007 79
11007 81
11842 76
176 38
ĠHfZr W
HfZr W
756 473
12082 65
12082 87
YPt In
226 42
5679 81
ĠSTa Cu
1120 730
1120 763
CaAg P
NaBi Te
8656 53
11030 36
12167 67
12167 75
11019 83
11019 76
11036 18
PtCd Pt
225 96
12152 71
12152 86
561 456
292 46
10951 45
10951 76
12238 23
ScPt In
634 676
TiW Re
8622 64
8622 58
RhV Sb
5416 22
779 4
1019 104
1019 087
12169 49
12215 96
12215 29
5418 79
1147 666
1147 712
12270 14
178 71
312 97
312 34
FeCo Zr
11031 80
11031 96
10874 88
11830 38
871 9
ĠZnIn Pd
ĠZnIn Rh
ZrNi Sn
12160 21
5713 43
1027 525
ĠCrGa Co
5407 73
11042 15
1094 098
1094 108
1094 105
1094 079
12062 67
12062 42
12057 41
12074 18
12074 14
12074 48
12074 17
CsGa H
10793 24
TaRh Ge
8637 57
10250 45
5693 91
143 36
9847 61
1101 894
10705 57
10774 40
5690 08
11902 62
554 074
11028 33
12263 09
11832 46
12388 25
1192 706
1194 113
5050 16
11061 77
287 68
287 60
1030 106
SnN Ni
184 11
248 22
12068 49
11004 17
12275 12
10240 50
10293 96
284 89
YIr Ga
10136 43
9746 82
11035 67
696 983
696 216
1213 692
1213 703
11041 33
9828 70
1028 459
1028 690
8662 84
11052 94
12182 72
12250 13
8679 16
8679 04
286 10
ĠVSb Rh
12233 78
12233 76
11957 69
1212 900
1212 666
SrNi Sn
6372 63
12165 66
10782 47
10782 74
11908 80
1021 465
6432 70
560 3
6753 10
6753 26
1173 513
12262 58
12262 49
12262 48
12239 93
277 55
640 159
ĠHfIn Au
ĠHfIn Co
6750 09
6726 89
12085 57
11046 63
ĠGaGe Ru
5406 60
CrNi Nb
11024 52
12217 89
10259 25
11899 16
6430 05
1024 974
1024 052
SrCa Ge
12177 80
10784 11
10784 19
ĠKBi Cl
12240 67
10296 33
10285 76
11940 30
924 129
ĠHfSc Co
217 10
632 502
11050 44
10276 82
10276 45
10258 19
ZnSi N
ZrV Mo
5410 47
1197 212
RbGe Cl
11027 05
12162 54
271 78
5587 06
5587 62
5610 51
12220 92
12220 31
10775 89
12213 96
5049 51
5049 28
9845 50
12196 45
12265 12
12214 07
10703 75
302 53
446 8
1210 826
6751 32
11037 57
11933 97
10682 50
ĠCdHg Pd
11044 06
11843 64
11897 64
11829 52
5741 38
7686 80
10716 23
11916 25
11905 73
12192 62
5421 38
5413 10
11045 54
10175 67
10175 15
12472 46
6759 02
86233 4
5737 21
11048 96
9124 40
1238 855
86196 1
12266 87
12464 96
9730 53
254 69
5549 93
6127 40
902 7
9857 82
YBi Pt
10207 12
10137 60
10648 54
PtCdAs Pt
121216 1
12221 81
12125 97
6760 38
6756 37
67569 1
5044 98
ScRe Ge
5560 05
5563 95
86484 4
5701 12
120307 3
110484 1
2 1067
2 1069
2 8660
3 96
3 57
3 66
3 015
3 1220
3 103
3 159
3 829
3 663
3 791
3 797
4 152
4 813
4 897
4 805
4 160
4 578
4 962
5 85
5 84
5 102
5 106
5 166
5 862
5 129
5 151
5 339
5 659
5 818
5 090
5 190
6 88
6 06
6 549
6 961
7 96
7 07
7 85
7 74
7 81
7 505
7 881
7 436
8 70
8 77
8 117
8 159
8 857
8 695
8 965
8 704
9 82
9 1096
9 964
9 868
9 579
H V
K Si
K Zn
K NH
K CuS
K CuTe
K BiS
K NaCl
K GaS
K AlH
K MnSe
K PbBi
K MnTe
K InTe
K CoN
K NbSe
K YCl
N V
P VS
S C
V Mo
V CoGe
V CoAs
V FeAs
V RuSb
V NiGe
V FeP
W Co
Y Mn
Y RuSi
Y CoSi
Y CuSn
Y MnSi
Y AuCd
Y ZrS
Y TlS
Y ScN
Y TiGe
Y ZrFe
e ight
ĠC Co
ĠN CuGe
ĠIn FeRh
ĠAl GaAs
ĠAl GaSb
Al Os
ĠCa CoSi
ĠCa YRh
ĠCa GaSi
ĠPd PS
ĠHf TiMo
ĠHf NbN
ĠHf SnRh
ĠZr TiCr
ĠZr NbFe
20 227
20 152
20 199
20 146
20 832
20 144
20 244
ĠGa SiNi
ĠSe Ta
ĠY CuTe
ĠY ZrS
ĠY TlS
ĠY ScN
ĠY ZrFe
In C
In Au
In SnSe
In AlSe
ĠNa Zn
ĠNa SrAu
ĠNa CaPb
ĠNa SnN
Fe In
Fe NiS
Fe SbTe
Fe NiP
ĠV Cu
ĠNb CrS
ĠNb InS
ĠNb SnRu
ĠNb InRu
Si Rh
Si Mo
ĠTe Mo
ĠTe HfCu
ĠSc Co
ĠSc Os
ĠSc TaFe
ĠSc CoTe
ĠSc ReTc
ĠSc TiRu
ĠMo WS
Pd PS
Pd CuAl
Pd SbS
Pd SnTe
Pd AsS
ĠAs Cl
ĠAs PRh
As Ti
ĠTa TiNi
ĠTa NbTc
ĠTa VH
ĠTa InRu
ĠSr Fe
ĠZn Cr
ĠZn HgSe
ĠZn SiRh
80 53
Ti CoNi
Ti OsP
Ti RuAs
Ti TaNi
Ti VP
Ti NbCr
ĠSb Cr
10 34
10 26
10 098
10 214
10 428
10 898
10 059
10 887
ĠCo NiSe
ĠCo SnRh
Pt As
Pt BiSe
Pt AgCd
Pt MnGa
Pt CuZn
ĠGe Zn
ĠSn PbSe
Ni Cr
Ni HfSi
Ni MnSb
Ga V
Ga W
Ga Fe
Ga Sr
Ga Tc
ĠK Zn
ĠK Cr
ĠK BiS
ĠK NaCl
ĠK ZnAs
ĠK MnSe
ĠK MnTe
ĠAg SnS
ĠAg HgPd
ĠCr NiSb
ĠCr MoV
ĠFe Ca
ĠMn Bi
ĠMn Hg
ĠMn Tc
ĠMn FeSi
ĠMn CrN
ĠMn RbTe
ĠMn CuPt
Ge W
Ge Mo
12 119
12 106
12 697
12 678
12 12189
12 559
12 12193
12 731
12 433
12 11046
Zn C
Zn Au
Zn PS
ĠAu Cs
Sn Hf
Sn HfS
Rh GeTe
Rh BiSe
Rh AuCd
Cu Fe
Cu Ti
Cu Ru
Cu ZnAs
Ag N
Ag Ir
Ag SnS
Ag AsSe
Mo Sb
Mo CoP
Mo FeAs
Zr Pd
Zr PbS
Zr CoSi
Zr MnAl
Zr VW
Zr OsGe
Zr RuGe
Zr VP
Zr PdSb
ĠRb N
ĠRb MnP
ĠRb SnCl
Hf Te
Hf CoGe
Hf CuGa
Hf TiMo
Hf FeSi
Hf MnP
Hf TiSe
Hf MoGe
Hf NbN
Hf TiFe
54 43
54 75
54 233
54 247
43 43
67 67
67 57
67 24
67 17
67 6398
ĠCd Ga
ĠCd SnTe
ĠCd AlCl
ĠCd SnRh
11 12173
11 431
11 513
11 639
Au Hg
Au CuSe
96 93
96 167
96 169
42 52
Co Zn
Co GeTe
Co PS
Co NiS
Co CrSi
Co MoP
Co MoSi
Co FeGe
Ru AsSe
Ru PtGa
69 33
69 79
69 26
Ġ8 3
Ir H
Ir Ag
Ir SbSe
Ir MnGe
Ir BiTe
50 28
ĠTl InCl
ĠTl AsPt
ĠTl CuCl
16 21
16 889
16 336
16 495
53 67
Nb PbS
Nb PS
Nb CrS
Nb PtGe
Nb IrSi
Nb CrP
Nb GeAs
Nb VNi
Nb CrGe
Ta CuS
Ta ZnAl
Ta MnGe
Ta IrSi
Ta CrP
Ta ReSi
Ta GeSi
Ta NbTc
Ca Y
Ca PS
Ca CoSi
Ca CuGa
Ca YRh
Ca GaSi
Ca HfS
Ca SrPb
Ca GaH
Cd Ge
Cd SnSb
Cd SnTe
Cd AlCl
Cd SnAs
Cd SiN
Sc Mn
Sc NiP
Sc PdSn
Sc TaFe
Sc CoTe
Sc IrGe
Sc PdSi
Sc ReTc
Sc TiRu
Sc TlSe
55 18
ĠRe Si
ĠRe Hf
22 86
22 503
22 897
22 295
Pb Ga
Pb SnSe
Pb PS
15 07
15 120
15 071
15 687
21 306
21 336
21 413
88 18
88 90
Na Ge
Na Zn
Na SrAu
Na MnP
Na ZnAs
Na CrN
Na TaN
Na ZnN
Na CaPb
Na SnN
47 44
47 30
86 66
86 18
86 5689
86 1507
Cr Cu
Cr NiSb
Cr MnSi
Cr MnN
Cr MoV
Cr CoPt
06 63
52 7
52 57
40 42
40 13
02 62
Hg Au
Hg Cr
Hg ZnSe
Mn Hg
Mn NiAs
Mn NiSi
Mn AlGe
Mn NiP
Mn PSe
Sr Ag
Sr GaH
23 82
23 977
23 827
23 059
62 43
62 53
57 82
57 56
57 29
57 49
57 35
46 56
93 06
93 25
93 84
74 94
82 49
Tl Fe
Tl PS
Tl GaTe
Tl CuCl
Tl AlSe
70 49
70 38
65 6253
19 983
19 851
19 791
79 40
81 47
81 70
68 6717
Os PSe
Os CoAl
18 230
18 474
24 428
60 5028
97 10
97 33
97 6724
97 7049
64 90
64 94
64 4431
Tc H
Tc Mo
59 18
77 85
34 41
34 169
34 126
78 23
56 21
56 14
56 8656
56 1902
56 0663
56 0262
72 80
72 85
72 95
14 07
14 433
14 444
14 624
14 091
29 136
29 849
29 804
29 744
29 428
29 187
29 091
29 072
13 74
13 464
13 202
13 666
13 097
44 52
44 83
49 22
63 773
61 7
92 52
92 72
Rb Ag
Rb Cr
Rb InS
Rb SbS
Rb FeS
Rb MnP
Rb SnCl
Rb CaH
Rb MnSe
Rb MnTe
87 25
91 77
91 7343
32 45
32 780
36 50
99 57
01 55
37 08
37 85
37 15
37 40
27 471
27 826
27 475
27 664
26 50
17 473
17 092
17 230
17 538
17 060
17 701
17 892
17 577
30 108
30 459
30 437
31 207
28 859
120 7598
120 5610
120 9946
120 8621
120 4805
120 1034
120 8170
39 51
Cs Mo
Cs Rb
Cs PSe
Cs BiS
Cs AuTe
Cs GaSe
Cs SbCl
Cs NaTe
Cs TaSe
110 1055
110 5558
110 1606
110 2961
110 1621
121 4042
118 11
ĠTiAl Ir
122 6398
122 1139
114 86
233 09
233 97
ĠPP Pd
116 07
ĠMnAs Pd
ĠScSb Ru
1216 110
1216 108
1216 210
1216 214
1216 348
1216 327
1216 666
1216 078
1216 184
1216 601
1216 513
107 2286
107 2382
1183 165
1183 541
1183 218
1183 633
1183 537
1183 458
1183 728
1183 528
1183 688
1183 617
1186 233
1186 140
1186 887
1220 525
1220 083
1220 470
1220 586
1220 798
1220 344
1220 590
1079 167
1079 158
1079 860
1079 513
1079 048
102 74
102 6980
102 9733
ĠAlSc Ni
ĠNiTe Se
569 204
569 280
569 151
569 978
569 532
569 436
569 298
ĠAlCu Au
101 8658
ĠHfAl Fe
ĠHfAl Cu
ĠSnS Se
ĠSCu Pt
867 0
867 120
867 306
867 163
867 179
867 242
867 326
867 168
867 187
867 794
867 507
567 228
567 197
567 278
1215 955
1215 169
1215 179
1215 203
1215 700
1215 224
1215 506
1215 898
1215 806
1215 290
1215 872
1215 295
119 1954
119 5257
ĠHfGa Ir
1187 464
1187 718
1187 704
1187 068
ĠTaSi Se
1219 472
1219 787
1219 003
1080 466
1080 835
1080 769
1080 056
1080 646
1080 844
ĠSnSe S
308 44
ĠSnHf S
1018 714
1018 806
1018 726
1224 983
1224 850
1224 092
1224 985
1224 834
1224 430
1224 435
1224 456
1224 426
1224 990
1224 893
1224 863
1224 401
1217 109
1217 151
1217 162
1217 832
1217 078
1217 064
ĠMnSi Ru
ĠMnP Se
1221 675
1221 434
1221 678
1221 776
1221 731
1221 404
1221 718
1221 815
1221 342
ĠZrGa Rh
ĠZnP S
1223 673
1223 443
1223 529
1223 561
1223 884
1223 400
1223 510
1223 733
1223 581
1223 781
ĠGeSe N
222 55
222 62
222 68
ĠZnAg Pd
1188 542
1188 445
1188 741
ĠZrIn Rh
ĠZrIn Cu
ĠScGe Au
1078 104
1078 162
1078 782
1078 168
1078 751
1078 703
ĠGaTe Cl
ĠRhAs P
ĠSeBi Rh
1184 829
1184 870
SnS Se
ĠZrSb Ru
ĠScSn Pt
ĠFeSi Tc
ĠScAl Ir
11869 54
11869 50
11869 85
11869 88
11869 52
11869 78
11869 92
ĠNbRh Sb
106 8053
106 4013
11860 10
11860 05
11860 06
11860 02
11860 04
11860 01
ĠGaAs Pd
220 56
220 84
220 36
ĠSTl V
ĠAuCu Se
ĠScIn Rh
ĠScIn Ir
ĠSTi Cu
ĠYAl Co
ĠAlMn Ni
568 476
ĠTeSn Pb
1025 180
1025 331
1025 195
1025 988
115 83
10180 85
10180 22
10180 21
10180 46
12243 64
105 54
105 33
212 49
212 48
103 59
103 0155
306 44
ĠPFe Si
865 121
865 531
865 809
865 930
865 548
ĠCdSb Au
973 089
1189 510
1189 235
124 5417
124 6243
ĠNaIn Pd
296 02
296 45
296 92
296 03
11847 57
133 13
974 973
ĠCaAg Hg
1229 167
1229 023
1229 060
1229 000
1229 062
167 65
862 695
862 787
862 703
862 790
11846 12
11846 15
866 221
866 218
866 160
SrIn Al
CaZn Ge
12154 66
12154 03
305 80
1207 101
1207 714
1207 799
123 59
123 2302
12180 53
12180 02
12180 61
12180 87
979 7
979 8
979 288
571 534
571 537
571 461
1206 152
1206 500
1206 674
1206 135
1067 0
1105 097
1105 830
11880 09
11880 15
11880 21
1023 928
1023 931
AlSi Te
ĠAlSi Te
ĠScTe Rh
1225 897
1225 871
1225 141
1225 839
1246 060
1246 666
1246 021
1246 877
1009 581
977 204
977 426
977 543
977 537
977 425
861 501
12155 83
12155 73
12155 68
12155 17
280 22
280 90
ĠTaGa Fe
ĠAgP Pt
1102 532
1102 855
186 42
CoNi P
CoNi Se
1103 555
1103 728
10253 53
10253 85
10253 22
10253 46
971 827
227 21
12289 10
12289 12
12289 43
YAg Ge
ZrRh Al
210 40
675 101
675 830
ĠTiNb N
ĠTiNb Cr
5708 63
5708 37
989 576
207 57
209 49
NiSe Te
12267 40
8655 54
8655 88
274 55
274 49
223 02
999 136
12153 85
12153 40
12153 23
12153 74
12153 45
12153 79
12153 24
12153 84
12153 92
12153 26
10786 21
10786 27
310 40
ĠMnZn Pd
ĠMnZn Ni
126 62
1218 117
1218 111
1218 804
1218 708
555 805
1209 111
1209 887
ĠScCd Pt
CaAu Ga
1029 730
1029 532
1029 444
1029 491
972 631
279 10
279 07
ĠSeZn Hg
8654 69
8654 87
12203 42
12203 62
12203 29
12203 92
HfIr Al
216 4
216 06
216 25
213 16
11879 26
203 93
1247 331
607 818
607 267
1228 758
1228 438
1228 194
CrFe P
9743 95
GaAl As
GaAl Sb
SrAu Si
139 67
139 49
ĠVRu Sb
975 176
975 897
ĠInAg Au
ĠHTa V
1193 227
1193 199
1193 423
1193 575
1193 899
SrZn Sn
11845 88
11845 89
11845 92
RuRh Al
CaPt As
12288 66
12288 91
12288 95
12288 31
669 566
ĠTaZn Ru
8647 88
849 083
289 54
289 87
CuSn Ti
1185 546
1185 931
685 956
1226 108
1226 111
1226 090
1226 064
12189 12
12189 38
198 33
676 828
676 437
8649 88
8649 89
976 082
976 190
1208 217
FeS P
214 40
273 19
1104 575
1104 141
1057 785
283 40
HfPd Sb
ScRh Te
12179 83
12179 59
12179 95
12179 00
12172 53
12172 86
12172 83
134 46
313 83
208 46
1227 503
1227 096
1190 110
1190 098
8627 02
8627 81
199 41
998 156
998 732
12171 71
12171 75
12171 78
10252 81
10252 91
288 88
288 77
1179 796
164 81
TaFe P
228 11
GaSe GaS
162 46
162 63
5706 66
12073 65
211 66
211 31
10954 19
10954 49
643 697
643 706
10955 07
12260 15
12260 13
12260 48
ĠMnAl Pd
11023 10
11023 14
ĠScNi Bi
158 42
628 726
11040 53
11867 59
5683 49
180 59
215 98
ĠCaCd Au
1070 483
11043 78
282 67
282 70
282 78
282 56
1214 809
1214 099
11020 80
11020 06
ĠSCs Sb
10255 50
10255 57
AuCd Sb
8646 07
8646 35
12173 50
12173 81
12173 14
1245 673
1245 538
1245 636
NbRh Sb
NbRh Ge
12157 09
ĠCaIn Ag
291 53
11872 40
11872 45
12242 18
12242 59
197 46
197 65
9720 48
10779 80
10779 96
10779 50
10239 54
GaTe Cl
ĠVZn Rh
230 05
9813 56
505 804
558 778
8659 98
9723 23
8660 10
8660 12
12216 67
12216 06
12216 19
5426 42
12077 84
12273 64
12273 72
12273 00
10780 08
10780 05
183 05
183 83
183 44
297 52
297 70
1205 828
1205 978
1205 335
1205 964
1205 965
12244 19
309 08
ĠScZn Au
1222 206
1222 132
1222 504
8650 02
8650 66
5703 51
1106 051
11017 85
11017 65
ĠMnGa Pd
9722 38
793 7
YAu Ge
12194 10
12194 97
677 105
9773 84
9773 63
11877 06
12290 05
8623 67
8623 70
8623 76
6846 38
12183 49
662 549
ĠSbAl In
ĠSbAl Ga
10788 60
AgAl Se
NbMo Al
300 30
12257 71
12257 86
12206 67
12206 96
12206 89
12248 22
ĠTeMn Hg
10789 33
9729 07
9729 57
12174 18
11874 19
10796 43
10796 23
10796 46
608 662
608 314
201 45
644 500
12204 09
12204 54
12204 69
12204 82
1087 504
1095 673
1095 536
1095 128
8651 78
8651 30
ZnN Ni
1191 422
1191 202
1191 428
1191 401
8626 09
5689 20
12063 69
12063 50
11029 25
314 53
314 55
YNi In
ĠCrCo Pt
864 939
864 835
864 897
864 966
293 76
8657 80
8657 29
10773 83
176 50
ĠHfZr Zn
ĠAsAl Ga
HfZr Zn
12082 43
12082 61
ĠNNa Ge
1196 396
ScNi Bi
226 19
5679 45
1120 803
5055 11
5055 15
CaAg Pb
CaAg Hg
9833 58
12167 65
12167 99
AlFe Zr
ĠSrCd Hg
542 730
11019 71
11019 52
11036 07
11036 05
11036 85
11036 34
172 20
239 49
5711 47
5711 62
RbIn Te
10797 52
12152 77
934 092
1084 8
8658 77
ĠAlCr Ru
TiW Mo
TiFe Al
8622 57
11057 52
11057 75
11057 01
9827 25
12188 50
12188 65
10952 40
1019 279
1019 259
CoN Cs
9716 69
12169 12
12215 10
12215 21
12215 91
12215 28
10913 90
10913 95
10257 87
5418 77
1147 773
12270 42
178 67
312 33
312 94
312 31
ĠAlGa Ru
ĠSiH S
1066 131
12071 96
301 7
301 47
ZrNi H
HfMo Tc
12160 47
1027 335
ĠCrGa Fe
ĠCrGa Ru
12269 40
12269 57
12269 90
12249 16
12249 86
10847 75
147 90
642 735
642 190
1006 3
1094 106
ZnSn N
12274 19
10793 93
10793 13
8678 42
5675 83
10804 67
510 052
510 041
CsAu S
10250 47
181 93
181 48
181 39
ĠVGa Co
9765 84
9847 04
9847 14
10774 48
12467 11
554 304
554 575
KCr Cl
ĠTiIn Co
ĠSeGa Hg
12263 40
12263 02
11909 72
12388 23
10679 25
1192 424
287 69
287 66
287 70
788 3
1030 331
1030 504
CdZn Te
600 124
601 861
12463 02
1002 114
8652 34
8652 35
11004 05
10293 57
284 19
ĠFeNi Pt
12069 20
12069 26
12264 53
12264 49
10792 46
623 134
ĠCrGe Ru
1213 974
1213 976
TaV H
SrHg In
SrHg Sn
11041 67
1028 731
1028 749
290 22
290 35
12090 09
12182 56
12178 16
12250 02
8679 58
6363 20
12233 11
12233 07
12233 13
10260 34
11957 58
1212 110
1212 695
11025 65
11908 66
10692 70
ĠVCr Mo
8625 61
560 538
560 806
1173 475
11033 46
11033 59
12262 12
12262 45
12200 35
12239 86
153 58
285 83
ĠHfIn Pt
ĠHfIn Rh
6750 66
6726 96
12085 87
11046 04
10695 20
991 434
5412 91
5409 22
5406 87
1195 855
6080 81
9752 37
11022 84
10259 11
11899 81
6430 10
6430 06
358 7
5428 16
8624 86
12065 10
12065 94
12177 68
10784 83
583 071
6755 76
295 96
295 85
12240 20
10953 69
10953 72
10254 57
10296 86
10296 89
10296 56
10193 78
11039 96
12147 94
11943 90
11906 61
ZrV Cu
1197 539
8632 50
11912 80
271 71
271 81
271 95
AlNb Cr
ĠZrCd Pd
ĠZrCd Rh
ĠZrCd Ag
8648 96
12078 11
12185 86
12185 90
10284 20
12213 19
12213 95
12469 26
275 07
GeC Cr
3657 7
11018 41
302 93
580 234
11730 43
11730 50
9747 13
6308 51
9983 24
621 960
1111 151
ScAu Ge
344 67
11060 20
11044 62
11843 68
11843 18
12454 01
1252 7
12116 33
5411 55
5741 69
9762 65
9981 47
12252 10
12252 90
12252 32
11949 90
12259 67
10294 07
10294 69
10294 18
5421 88
5413 78
6749 93
5725 98
9912 57
12061 10
11045 18
10940 08
12472 84
12459 88
5054 67
86233 6
5737 55
9843 52
11048 54
10785 78
10299 59
996 162
996 161
10977 09
10977 16
11111 74
TlN Ca
11008 73
11008 68
122059 8
122059 9
10307 21
12473 61
12474 19
5100 40
6628 15
11928 16
6959 98
5045 64
9987 50
11055 59
12470 04
11938 47
6439 12
5405 69
10188 12
10292 69
357 46
366 41
3015 1
585 949
5102 83
5106 96
5818 33
6549 56
707 836
982 443
91096 8
AsTi Zr
1026 348
10059 86
12119 81
12106 18
54233 3
54247 5
6767 99
6757 50
96167 8
96169 7
6979 77
8666 59
8618 77
5735 81
6490 33
6494 19
5614 19
63773 6
1 54
2 668
2 7260
3 69
3 52
3 84
3 1018
3 129
3 291
3 701
3 592
3 732
4 07
4 474
4 809
4 475
5 20
6 53
6 14
6 166
6 162
6 534
6 190
6 16481
7 50
7 86
7 116
7 223
7 430
7 432
7 070
8 54
8 85
8 221
8 203
8 714
8 713
8 530
8 432
9 07
9 900
9 023
9 330
9 071
K TiS
K GaSb
K MnAs
K FeN
K SiH
K FeCl
K TcCl
K CaBi
K MnCl
P AuCl
V Cl
V Tl
V NiSi
V CrFe
V MoSi
W Zn
Y AsSe
Y MnGe
Y MnCo
b m
ĠS MnAl
ĠN Cd
ĠIn SiTe
ĠP H
ĠAl CN
ĠAl CoNi
ĠTi CrN
ĠTi ReTc
ĠTi SnRu
Al K
Al Ir
Al BiCl
ĠCa MnSe
ĠHf Cd
ĠHf Cl
ĠHf TaV
ĠHf NbTc
ĠZr Nb
ĠZr Tc
ĠZr TiMo
ĠZr TiW
ĠZr ScOs
ĠZr TiCu
20 730
20 697
20 506
20 083
20 860
20 790
ĠGa HCl
ĠGa AgSe
ĠB ain
Se Te
Se Ta
Se Rb
ĠY TlAg
In Tl
In PS
In SiTe
ĠNa Fe
ĠNa VS
ĠNa SnP
ĠNa YS
Fe Zn
Fe SbSe
Fe CoSn
Fe MoP
Fe CoSb
Fe CrP
Fe TaTe
Fe PdSb
ĠV FeSb
ĠNb InSe
ĠNb FeTe
ĠNb VRe
Si Al
ĠSc HCl
ĠSc MnRh
Pd NiP
Pd SbAs
Pd MnTe
ĠTa NbRe
ĠTa MnRu
ĠSr Nb
ĠSr CaHg
ĠZn Hg
ĠZn CdTe
ĠZn HgS
ĠRh Ca
Ti Pt
Ti Cs
Ti ZrTe
Ti ReN
Ti VSe
Ti NbRu
Ti ReTc
Ti NbFe
10 208
10 249
10 226
ĠCo Fe
ĠCo Mo
Pt SnSe
Pt SnTe
Pt MnSn
ĠSn Mo
ĠSn GeS
Ni H
Ni V
Ni Ti
Ni PS
Ni SbSe
Ni FeSi
Ni WP
ĠK Ni
ĠK TiS
ĠK CuCl
ĠAg SnSe
ĠAg PdAu
ĠCr GeTe
ĠCr CuS
ĠFe CoSb
Sb CrSe
ĠMn Sn
ĠMn SnPt
ĠMn TlCl
ĠMn NbRu
ĠMn SnRu
12 648
12 10229
Zn Ru
ĠAu SCl
Sn GeS
Rh Sr
Rh AsS
Rh BiTe
Ag Ru
Ag SnSe
Ag CrS
Ag AuCl
Mo Cr
Mo Mn
Mo Tl
Zr Nb
Zr CrSi
Zr NiSb
Zr TiMo
Zr TiRh
Zr RuAs
Zr ZnN
Zr TiW
Zr TiFe
ĠRb YS
Hf Cl
Hf GeTe
Hf RhSi
Hf OsSi
Hf TaFe
Hf NiGe
Hf ZnN
Hf TaV
Hf NbTc
54 85
54 19
54 81
54 35
54 169
54 282
ĠPb Ge
ĠPb CN
ĠCd PS
ĠCd HgSe
33 85
11 30
11 114
11 167
11 123
11 500
11 164
11 660
11 12648
Au SCl
96 87
96 17
Co H
Co TeSe
Co FeP
Ru H
Ru Ag
Ru Cl
Ru SbTe
Ru SbS
Ru AsS
69 03
50 42
50 5820
50 5149
16 026
16 102
16 029
16 448
16 068
16 085
53 70
53 04
53 72
Nb SnSb
Nb NiTe
Nb PtSi
Nb FeTe
Nb VRe
Nb MnRu
Nb VCo
Ta Cr
Ta SeS
Ta NiTe
Ta RhTe
Ta VNi
Ta NbRe
85 80
Ca NH
Ca MnSe
Ca ZrS
Ca ReN
Ca TcN
Cd Ag
Cd Os
Cd PS
Sc FeSi
Sc MnSi
Sc CoAl
Sc TlTe
Sc TaN
Sc TlS
Sc HCl
Sc MnRh
Sc ZrOs
Sc AuSi
Sc MoTc
55 68
55 84
55 13
55 5370
22 93
22 227
22 857
22 300
22 792
22 701
22 787
22 736
ĠHg TeSe
Pb N
Pb CN
Pb GeS
15 27
15 695
15 236
21 31
21 756
21 893
21 495
88 2
88 29
88 48
Na Fe
Na Ta
Na PS
Na VS
Na AgCd
Na AuSn
Na SnP
Na AlCl
Na PtCd
Na NbSe
Na RuN
Na YS
86 64
86 1672
Cr Pd
Cr Ag
Cr Tc
Cr GeTe
Cr CoAs
Cr GaSe
Cr TaN
Cr NbSi
52 51
52 92
40 21
Hg ZnS
Mn GeTe
Mn WN
Mn NiTe
Mn RhN
Sr Zr
Sr Hf
Sr Nb
Sr AlGe
Sr CaHg
Sr CuSn
Sr AlH
Sr ReN
Sr MnSb
Sr IrP
Sr AgBi
23 27
23 17
23 204
23 697
23 860
23 425
23 406
23 049
57 2
57 85
57 45
57 31
89 52
89 29
89 32
46 12
46 68
93 02
93 83
74 20
74 07
74 99
Tl Ni
Tl TlCl
Tl AlCl
Tl MnCl
70 50
75 69
75 62
19 82
19 835
19 792
19 809
19 797
19 887
45 95
79 97
73 64
68 4021
Os Ni
Os Cd
18 165
18 198
18 217
24 119
24 081
60 5485
97 82
97 63
97 2961
97 7407
Tc Hg
04 52
59 29
51 42
77 86
77 74
77 81
34 127
34 932
56 1130
72 69
84 87
14 206
14 435
76 14
76 39
29 49
29 026
29 568
29 156
29 111
29 163
29 932
29 809
29 529
29 808
29 592
29 462
29 873
29 491
29 476
58 1024
ĠU pper
41 82
13 11
13 68
13 472
13 133
13 463
13 963
49 90
63 278
63 7918
63 7771
63 7614
90 07
90 6903
61 8929
92 66
92 65
Rb Si
Rb InSe
Rb CuSe
Rb TlCl
Rb FeN
Rb YS
91 53
32 47
99 94
99 1652
99 9265
95 50
95 22
35 152
35 539
27 50
27 62
27 124
27 828
27 549
27 961
27 205
27 829
27 677
27 629
26 62
17 228
17 803
17 856
17 625
98 5304
30 00
30 094
31 471
31 339
28 501
28 192
28 695
28 334
120 9823
120 406
120 5588
120 2780
120 9791
120 8952
120 9302
120 0452
120 9153
120 9522
120 2662
Cs InSe
Cs FeS
Cs AlCl
Cs ReN
Cs TiCl
Cs GaCl
Cs CrCl
110 5435
ĠTiS Cl
118 73
ĠTiAl Au
122 7997
109 7067
ĠNbSi Tc
233 63
ĠTiSi Pt
ĠNCa Si
281 43
ĠTaNi Te
ĠNiP Se
1216 865
1216 136
1216 672
1216 134
1216 170
1216 278
1216 451
1216 176
1216 267
1216 848
1216 066
1216 468
1216 577
1216 349
1183 167
1183 041
1186 123
1186 227
1186 207
1186 209
1186 205
1220 569
1220 691
1220 669
1220 758
1220 692
1220 546
1220 081
1220 522
1220 701
1220 810
1220 425
1220 523
1220 732
1220 761
1079 754
1079 542
1079 863
102 61
102 9750
102 7569
102 7269
569 132
569 044
101 7553
ĠSCu Ni
867 110
867 233
867 203
867 850
867 149
567 196
567 817
567 931
567 636
ĠSZn Hg
1215 177
1215 291
1215 175
1215 532
1215 665
1215 633
1215 181
1215 189
1215 660
1215 299
1215 244
1215 885
ĠZrAl Rh
119 5050
119 2510
119 1953
119 8311
119 1527
119 7050
1187 698
1187 096
1219 434
1219 437
1219 193
1219 145
1219 732
1219 527
1080 424
1080 611
308 4
ĠSeTi Cr
1018 116
ĠFeTa Te
1224 865
1224 862
1224 691
1224 980
1224 137
1224 536
1224 978
1224 427
1224 193
1224 805
1217 100
1217 224
1217 864
1217 934
1217 968
1217 794
1217 890
ĠMnSi Tc
ĠHfGe Te
ĠAgAu Cl
1221 501
1221 777
1221 935
1221 824
1221 708
1221 798
1221 703
1221 728
1221 761
1221 843
1221 907
ĠZrGa Co
1223 971
1223 932
1223 832
1223 898
1223 584
222 61
112 53
1188 159
1188 435
1188 794
1188 761
ĠZrIn Ni
ĠHfN Cl
ĠMnGe Te
100 1016
1078 114
1078 750
ĠYAg Te
ĠNbNi Te
1184 057
ĠAlGe Sr
11869 57
11869 35
11869 39
ĠTiGa Pd
1007 974
11860 13
220 29
220 61
TiS Cl
ĠTeBi Rh
ĠTaAl Os
ĠMnPd Te
303 11
303 47
ĠHfSi Te
568 100
568 673
568 543
568 965
568 450
1077 854
1025 173
1025 649
1025 201
10180 60
10180 51
12243 21
12243 89
12243 56
212 44
103 71
117 54
ĠHZr Ti
306 52
ĠWP Cl
865 094
865 665
865 888
865 641
865 076
973 666
973 141
1189 171
1189 932
1189 023
1189 225
1189 438
1189 988
1189 066
1189 520
124 5702
124 5407
124 5785
ĠNaIn Ag
296 16
296 66
296 58
133 12
133 11
133 50
133 14
974 625
ĠTiZn Au
862 691
862 473
862 424
862 704
862 548
862 629
11846 20
11846 02
11846 04
11846 01
866 117
ĠCAl Fe
573 523
12154 20
12154 47
12154 06
12154 75
12154 60
12154 77
12154 84
136 85
305 98
1207 026
123 47
123 2317
12180 08
12180 60
12180 51
12180 90
12180 39
979 980
571 471
571 424
169 77
11880 52
11880 01
11880 95
1023 129
ĠAlSi Pd
ĠAlSi Pt
1225 101
1225 136
1225 169
1225 200
1225 994
1246 110
1246 229
1246 649
1246 058
1246 059
1246 490
1069 057
104 69
104 45
307 21
307 47
977 545
977 435
861 889
280 64
ĠZrZn N
ĠZrZn Co
1102 857
1103 697
1103 434
1103 938
1103 256
10253 04
10253 44
971 891
227 93
12289 05
12289 22
12289 18
12289 72
12289 87
ĠPTi MnP
675 208
675 628
ĠTiNb Ru
1008 556
1008 728
111 81
311 60
ĠHfZn N
ĠHfZn Au
989 407
207 93
12267 29
755 7
8655 23
8655 92
274 50
999 576
999 540
12153 06
12153 65
KHg As
310 97
ĠMnZn Te
ĠMnZn Ir
ĠCaH N
PdBi Se
PdBi Te
1218 730
1218 678
1218 773
1209 089
ĠScCd Cu
CaAu Sb
1029 569
1029 832
1029 550
1029 811
1029 246
1029 256
972 935
972 882
ĠSeZn Fe
NiP Se
6722 65
6722 73
8654 84
12203 69
12203 45
ĠSiV Fe
ĠSiV Co
203 95
ĠSrZn In
1247 541
1247 428
1247 327
1247 185
1247 333
1247 194
1247 566
AuAg Te
129 23
MnAl Ti
607 990
CaCu P
1228 117
1228 500
1228 745
1228 506
CrFe Ge
CrFe Nb
8673 62
PdAu Cu
139 23
139 18
541 937
1199 518
1193 568
1193 208
1193 708
1193 657
SrZn In
SrZn Cl
SrZn Pb
11845 86
247 3
247 19
CaPt Sb
980 649
980 659
980 193
980 749
980 661
980 947
12053 43
12053 29
ĠZrH Cl
5716 23
289 22
289 41
289 95
205 86
685 155
685 607
1226 421
1226 130
1226 897
1226 432
12189 26
12189 17
SiP N
198 10
198 70
676 349
8649 85
8649 71
8649 74
8649 70
8649 51
8649 49
8649 92
976 401
1208 195
214 18
142 44
273 61
1104 117
1104 129
1104 829
10142 51
10142 44
173 67
1057 2
12179 87
12172 54
12172 50
12172 85
313 8
313 09
313 63
313 28
1227 426
1227 436
1190 697
1190 141
8627 12
8627 23
199 46
12171 46
12171 45
12171 97
12171 37
12171 30
10252 63
10252 39
288 10
288 65
288 75
162 45
5710 96
12073 83
12073 81
10954 99
171 8
643 279
12260 69
12260 19
12260 37
12260 39
ĠMnAl Os
137 40
985 699
158 19
11867 63
HfSi Te
12159 07
12159 53
12159 48
1070 151
5705 58
11043 81
282 33
282 83
1214 842
1214 838
11020 23
ĠTaRh Te
276 32
559 204
559 492
8646 40
8646 84
1245 971
1245 642
1245 855
504 835
504 898
12157 11
12157 96
12157 50
ĠCaIn Au
627 601
291 54
170 48
11872 10
11872 42
12242 75
10779 03
10239 43
128 43
11834 93
ĠVZn Co
ZrH Cl
230 67
230 33
230 34
12247 16
12247 92
12247 32
9813 86
1178 808
12216 10
12216 96
12216 62
12216 64
FeV Sb
TiCr N
649 479
12077 08
12077 23
12077 28
12273 40
12273 51
10780 58
10780 26
183 02
183 65
183 17
1013 900
1096 832
1096 809
1096 927
309 73
680 754
680 339
754 850
ĠTeNb Cu
ĠScZn Ni
1222 102
1222 474
8650 11
5703 40
5703 70
1106 121
1106 085
9722 75
9896 09
9896 11
9896 47
9896 06
9896 45
9896 24
9896 49
9896 17
793 9
ĠGaFe Co
5680 32
12194 46
9773 71
12193 93
11877 07
12290 11
8623 60
8623 61
ReN Cl
12170 22
5673 94
662 563
706 272
HfN Cl
12257 72
5677 16
12248 96
8616 39
8661 40
8661 73
674 465
5702 90
11874 99
608 516
6847 10
12204 88
1095 504
1095 532
1095 664
1095 603
NaP N
8651 74
11840 46
ĠVFe Ru
TiMn Rh
TiMn Ir
1191 777
5689 34
5689 03
12063 97
864 672
293 0
293 08
293 74
293 00
ĠTeZn Cd
5552 69
8657 12
8657 86
8657 30
176 67
ĠHfZr Mo
ĠHfZr Ru
ĠSeHf Tl
HfZr Mo
HfZr Ru
5424 93
11907 88
YPt As
11021 32
11021 95
5679 96
9833 62
11030 12
12167 64
12167 41
12167 00
542 772
6723 89
225 66
10797 21
12152 46
9775 50
9775 68
5697 53
12238 10
634 855
TiFe H
8622 56
ZrAl V
218 47
MnFe Pd
5712 62
5712 81
12188 98
12272 96
10952 47
5687 11
TiOs Ge
1019 280
1019 578
ScAg Ge
SrH Cl
11063 01
12169 45
12169 13
12215 17
10257 33
185 83
5418 78
1147 776
1147 769
11026 40
12270 53
178 75
312 76
10874 99
182 79
182 90
11038 46
909 802
ĠSGa Fe
ĠNbH S
12160 80
12160 16
1027 692
160 33
12009 71
12269 52
10794 07
12249 50
12249 87
147 80
147 63
12102 11
12062 96
12074 67
12074 46
12274 07
12274 16
10793 23
8678 11
10804 86
510 458
773 137
ĠTiMn Rh
ĠTiMn Ir
ZrCu Ti
6907 99
12467 02
12467 97
12467 48
554 676
554 579
ĠTiIn Pt
ĠSeGa Cu
CrMn Pt
624 190
11028 43
12263 85
12388 43
12388 76
12388 90
12388 94
1192 540
1192 666
12261 79
10950 40
287 22
287 82
984 055
1030 108
10642 20
12463 46
12463 70
9969 40
12068 74
10240 47
10293 09
10293 13
284 80
284 08
616 026
InN Ni
GeN Cr
338 80
11011 19
12264 52
10792 54
696 867
696 804
623 814
988 2
KBi Cl
11041 83
12285 22
11946 43
290 11
290 69
290 14
12250 23
12250 00
8679 43
TaMn Ru
CdN Co
11049 55
12181 40
RbS H
12165 81
10712 30
363 81
12280 17
6432 43
2349 9
12200 13
640 158
640 312
ZrW Tc
HgCd Se
1984 4
11046 12
11046 13
10695 33
991 676
991 428
5406 19
1195 837
1195 505
9785 23
294 69
11022 54
11024 43
12217 23
619 279
1024 4
1024 051
8624 45
12177 77
6755 10
6755 53
6755 24
11977 23
11977 25
10953 70
10953 97
10296 10
10285 86
10285 89
8500 13
5053 51
5056 22
5056 32
5709 71
5709 51
5709 30
9728 77
12147 86
10276 08
5698 85
10258 76
9986 04
11027 02
5610 33
12185 60
12220 74
12245 60
10781 40
10284 14
12213 64
12469 70
12469 75
275 12
ĠTeV Cu
5049 09
5585 18
5686 03
11018 70
12265 86
11837 40
12214 10
10703 91
302 85
374 05
580 748
6308 83
9983 97
11037 05
1113 510
5047 53
299 33
11044 88
12246 49
1114 506
5741 12
12268 11
11890 11
6428 21
12064 06
12207 86
12455 98
5817 33
12459 67
12459 22
5414 49
6759 89
11113 74
5054 95
10707 13
10785 74
10299 43
10299 21
9124 18
ĠNCl Sr
ĠMnFe Pd
ĠMnCr Pt
6754 62
6754 77
6754 76
11111 73
8630 11
86196 0
12266 52
10307 32
12473 60
12474 57
5100 01
6628 23
11928 77
11144 89
TlCo Cl
9987 55
12007 20
12007 60
11055 70
12470 40
11938 21
6439 07
1016 106
5589 11
11047 83
5603 70
606 503
10274 83
154 31
369 88
352 67
384 94
653 120
614 572
6166 15
6162 55
6534 54
6190 32
ĠHfCd Rh
ĠBain ite
10249 58
5419 11
54169 2
54282 6
11114 97
11167 69
11123 53
9617 06
5568 15
8664 81
5731 45
9763 26
63278 7
9994 54
120406 1
