#version: 0.2
Ġ a
Ġ t
h e
o n
l e
Ġ i
Ġt he
o m
Ġ b
Ġ s
Ġ o
Ġ c
i t
r e
n d
on d
a t
n g
o r
Ġb ond
Ġi s
Ġa t
e n
Ġat om
a l
Ġa nd
a r
Ġ e
T he
Ġ f
Ġo f
e d
Ġ m
Ġ w
â Ĥ
r o
Ġt o
a c
Ġatom s
le c
Ġi n
i v
Ġ The
e t
at e
i c
r a
le n
i ng
d i
a len
e s
e r
alen t
Ġ C
Ġ h
Ġ p
it h
Ġw ith
g en
Ġm o
â ģ
q u
lec u
Ġmo lecu
s t
u r
iv alent
qu ivalent
t h
Ã ħ
Ġ Ãħ
d s
Ġ g
Ġ on
Ġ 1
Ġe quivalent
c t
Ġa re
Ġ I
he d
ds or
Ġmolecu le
Ġt w
dsor b
Ġ di
Ġs it
Ġ (
â Ģ
âĢ ĵ
ac e
ar b
arb on
hed ra
Ġbond ed
Ġ S
Ġc arbon
Ġ le
Ġf or
ng th
Ġle ngth
r y
ct a
Ġtw o
Ġt h
l y
Ġsit e
r i
Ġa dsorb
a n
x y
Ġ 2
ro gen
Ġo r
cta hedra
Ġh y
t r
Ġ A
u b
Ġ N
Ġs i
Ġs p
b it
bit al
al y
at aly
en t
Ġc ataly
Ġh a
o l
xy gen
Ġfor m
Ġs ur
e en
Ġc ub
Ġ n
Ġsur f
om et
Ġor bital
Ġ P
ĠI n
Ġsurf ace
o ur
e omet
Ġg eomet
Ġgeomet ry
Ġo xygen
Ġ T
âģ º
t ic
âģ »
Ġf our
Ġ d
Ġha s
Ġb et
h ar
Ġcataly tic
w een
Ġbet ween
Ġadsorb ate
ĠThe re
Ġcub o
Ġcubo ctahedra
Â ²
ro u
i m
tr on
n er
or ner
Ġe lec
Ġc orner
x im
p p
Ġelec tron
C H
ate ly
Ġa pp
ro xim
Ġapp roxim
Ġapproxim ately
Ġhy d
i on
d g
Ġ M
p o
Ġdi st
Ġa ng
e g
Ġlength s
l i
ĠA l
g h
Ġs h
Ġang le
Ġon e
r om
âĤ Ĥ
l ar
âĤ Ħ
O H
Ġg rou
po le
Ġsi x
t er
iv e
Ġgrou p
c o
Ġw h
âĤ Ĩ
Ġhyd rogen
Ġp l
Ġorbital s
Ġb i
om ent
Ġm oment
Ġe dg
i r
Ġdi pole
Ġth at
Ġ ra
n ate
or di
co ordi
coordi nate
i l
i gh
it rogen
Ġmolecu lar
Ġf rom
re e
b ri
Ġn itrogen
Ġth ree
Ġ H
nd ing
u re
igh t
ac ed
Ġpl aced
Ġc har
Ġbi nding
Â ³
Ġ re
Ġhy bri
Ġi t
Ġc o
Ġcorner s
v alent
a re
Ġs e
Ġco valent
Ġbond s
c es
i n
Ġra ng
Ġelectron s
Ġ R
Ġ O
o w
ĠT i
Ġ Z
Ġ l
har ing
Ġbond ing
) .
m p
et ra
Ġe ight
g on
gon al
Ġt etra
Ġl on
v e
Ġa s
Â ¹
c e
Ġ G
Ġ *
ic al
âĤ ģ
ĠC H
Ġedg es
s haring
il le
Ġdist an
Ġdistan ces
re a
Ġadsorb ed
Ġ 0
ic h
eg at
Ġwh ich
Ġsp rea
Ġrang ing
Ġsprea d
ol ar
t ed
Ġo ctahedra
Ġsh are
Ġa l
e x
ĠI nd
it y
ĠM ille
ĠMille r
Ġt ri
A dsorb
ĠInd ex
Adsorb ate
z es
Ġc ry
al li
st alli
Ġsp ace
Ġcry stalli
Ġcrystalli zes
z e
Ġd eg
Ġp olar
p e
re es
Ġdeg rees
âĤ Ī
ac es
v er
di z
Ġ 3
i st
u ct
Ġ Ċ
h y
Ġc on
e l
at ion
Ġ D
ĠAl l
tr uct
truct ure
Ġs tructure
Ġp ar
âĤ ĥ
âĤģ âĤĤ
or ted
Ġdist orted
Ġangle s
Ġf aces
t i
Ġchar g
l a
ĠN i
Ġ u
ac t
i le
Ġa n
s o
Â °
ra m
e re
A l
c ond
ir st
e quivalent
Ġf irst
Ġin equivalent
Ġsit es
Ġse cond
Ġwh ile
Ġsi ze
ĠS i
u e
Ġhybri diz
Ġal so
y ram
yram i
ĠP d
Ġd ue
ac h
ĠH f
g er
or ter
Ġsh orter
Ġlon ger
Ġ v
al l
Ġtetra hedra
ĠZ r
Ġit s
Ġe ach
o p
Ġat op
ĠC a
Ġcharg e
âģ ´
iv ity
m a
Ġtw el
yrami ds
he m
Ġtwel ve
Ġ1 0
ĠP t
Ġt y
2 0
Ġc hem
ĠG a
Ġchem ical
Ġ B
Ġelectron egat
u t
Ġsi g
Ġpar ti
Ġparti al
F e
hed r
Ġ V
Ġty pe
ĠN b
d e
li n
Ġedg e
Ġs ing
ĠM o
hedr al
Ġcataly st
S i
ĠS e
Ġhybri d
S e
k n
Ġ kn
ow n
Ġkn own
ac ter
Ġchar acter
Ġsing le
m m
Ġu n
b y
Ġc an
ĠC u
o s
Ġcub ic
âĤ ħ
Ġ Y
ĠT a
Ġf ive
e by
Â° .
Ġtri gonal
l ow
ĠR h
ĠS c
ĠI t
Ġstructure d
T i
Ġelectronegat ivity
ĠZ n
ic s
eby e
Ġcharacter ist
Ġe th
P d
Ġc om
Ġcharacterist ics
ĠA s
e ar
I n
Ġin ter
Ġo ver
Ġp os
n ce
a ir
u s
act ion
A s
p le
N i
i x
t ure
Ġm ix
Ġmix ture
len e
Ġ 4
Ġp air
ĠD ebye
ĠG e
ĠC o
ĠT e
f f
Ġdi ff
y l
a gonal
Ġ W
Ġ lin
he r
y lene
Ġdiff ere
8 0
Ġlin ear
Ġcon s
Ġre s
Ġsig ma
Ġ Fe
Ġb y
Ġb o
ĠC r
ol low
P t
ĠS b
Ġb ri
dg e
Ġbri dge
nd ic
OH CH
Ġhybridiz ed
Ġm a
1 0
ond ing
i f
Ġlon e
Ġtri ple
T e
Ġp i
u l
Ġpos it
ĠM n
ĠS r
Ġcons ist
an ar
Ġt il
Ġp yramids
m ol
Ġ 6
Ġn egat
Ġposit ive
Ġnegat ive
Ġha ve
Ġd o
u la
Ġform ula
ĠS n
G a
s es
Ġa b
Ġg ly
Ġb e
Ġover la
cta hedral
t een
Ġth ir
Ġo ctahedral
Ġa rou
Ġarou nd
v ol
Ġin vol
c et
Ġdiffere nce
Ġ Ï
t her
s e
Ġi ndic
Ġ 5
Ġtil t
ĠN a
N H
Ġoverla p
ro xy
G e
S b
st rom
an t
ĠA g
Ġhybridiz ation
d y
1 2
strom s
m all
Ġs mall
Ġthir d
Ġm et
Ì ħ
ub le
an ol
action s
O CH
ere d
o ut
Ġab out
R h
Ġo ther
Z n
ĠN O
k e
Ġ1 80
Ġf ace
at ing
C u
t a
ĠR u
v en
c ent
Ġbo dy
cent ered
i s
ĠA u
0 9
Ġform ed
ĠI r
c ol
Ġgly col
Ġw e
Ġ1 20
Ġdo uble
Ġbi p
re s
Ġinvol v
Ġa cet
Ġ K
Ġres ul
Ġresul t
M o
Z r
Ġhyd roxy
Ġcarbon yl
Ġh ollow
in e
O ver
Over all
N O
Ġ10 9
o c
o th
ĠB oth
Ġs qu
Ġsqu are
if ic
Ġpl anar
Ġ OH
Ġbip yramids
ĠC CH
Ġse ven
Ġ 9
ive ly
u p
S n
er m
Ġ1 1
Ġwe ight
ng stroms
hy l
b onding
Ġn on
Ġn o
Ġw he
H f
Ġgroup s
Ġrang e
Ġindic ating
ta in
l u
li ke
Ġp ent
Ġpent agonal
A g
p a
o xygen
l at
Ġre lat
er s
Ġ he
ri b
ĠA ngstroms
Ġ 7
Ġt en
c up
6 7
3 3
s ed
Ġtetra hedral
i re
Ġrelat ively
hy d
d ical
Ġra dical
5 4
Ġwhe re
ion al
Ġ E
Ġcom po
h is
ĠT his
b ic
h om
or hom
th orhom
thorhom bic
alen ce
ĠÏ ĥ
C o
Ġor thorhombic
i d
4 3
ĠB i
R u
9 6
al s
Ġun pa
ire d
Ġunpa ired
I r
ar i
C O
Ġre act
Ġp res
Ġp ro
Ġv alence
1 1
N b
ĠP b
Ġs y
Ġm e
A u
Ġo c
Ġcon tain
Ġcontain s
Ġconsist s
n ific
Ġsig nific
Ġsignific ant
) ,
ĠC d
i g
a als
ĠW aals
0 7
en ce
Ġresult ing
Ġpair s
it e
4 2
c arbon
ze ro
ĠN H
h a
Ġhydroxy l
6 9
C OH
T a
ri ses
hyd rogen
5 0
0 8
Ġoc cup
x agonal
Ġhe xagonal
Ġpolar ity
Ġconsist ing
ĠT c
m ent
Ġmet hyl
Ġv an
Ġ 8
Ġd er
bri diz
hy bridiz
hybridiz ed
Ġelectron ic
i de
a pe
Ġsh ape
p t
pt ion
Ġfour th
Ġtetra gonal
rou gh
S c
Ġa rises
5 5
1 6
ĠR e
p er
Ġe x
ĠC l
Ġinter actions
0 5
Ġ zero
in ed
i es
Ġeth anol
8 5
Ġa dsor
Ġadsor ption
ĠR b
ĠE th
rib ut
w ar
Ġto war
Ġtowar ds
Ġn ine
Ġpar tic
2 2
5 3
Ġre actions
et r
mm etr
Ġfour teen
d ing
Ġth rough
i p
ĠO s
Ġsix teen
Ġinvolv es
en s
ĠC OCH
b le
r bital
al de
hy de
alde hyde
C r
u m
C a
8 8
ĠC OHCH
re ct
Ġdi rect
Ġma k
Ġform ing
lecu lar
lin ic
Ġc en
tr al
Ġcen tral
Ġs li
gh t
Ġsli ght
1 5
di us
Ġra dius
Ġd et
M n
Ġme an
ĠT l
d er
Ġform s
Ġw ate
Ġwate r
u lar
Ġcom b
Ġp m
Ġs t
a m
C d
7 1
Ġan ti
ĠO CH
ent ed
Ġpartic ip
Ġparticip ate
Ġun hybridized
B i
omet ers
2 1
u nd
Ġdirect ion
8 6
4 7
Ġreact ivity
Ġt erm
Ġterm s
Ġs haring
âģº ,
5 2
ĠÏ Ģ
4 0
Ġdet erm
a us
Ġs u
Ġs he
Ġeth ylene
Ġma y
Ġin f
Ġ F
c lu
Ġin clu
h an
i pole
Ġno t
Ġf ollow
C l
Ġacet ylene
âĤ ĩ
P b
o us
i ed
ed i
Ġv ari
mm m
0 6
Ġthe se
ĠH g
Ġo ri
Ġori ented
Ġi mp
g n
Ġm on
oc linic
Ġmon oclinic
v ing
Ġmolecule s
Ġha ving
ĠC s
âĤ Ģ
Ġinter act
Ġpres ence
l anar
p lanar
0 2
C CH
âĤģ âĤĢ
Ġdeterm ined
Ġmak ing
Ġf if
or bital
4 6
2 3
Ġinter action
5 7
Ġatom ic
Ġh igh
Ġsy mmetr
om ic
at omic
Ġre ma
in ing
Ġrema ining
qu al
6 2
Ġvari ous
Ġn et
i z
Ġmo re
g e
7 4
8 9
Ġcompo und
Ġcompo sed
Ġbo th
t ant
or tant
Ġimp ortant
8 2
Â° ,
Ġinclu ding
in ation
Ġcomb ination
Ġinvolv ed
ĠCH OH
Ġslight ly
Ġh ig
6 âĤĥ
ro p
Ġanti bonding
Ġo ut
7 5
Ġal low
a s
9 3
ic ometers
Ï ĥ
u n
ĠTi Ti
S r
O s
T c
Ġoccup y
y n
Ġw id
Ġwid th
Ġa r
ĠCH CH
Ġsymmetr ical
7 3
6 6
7 0
ĠOH NH
Ġelectronegat ive
Ġshe et
4 5
i um
ar y
ate s
Ġindic ates
ent al
im ental
per imental
Ġex perimental
6 5
8 3
Ġ10 4
o xy
at ure
1 9
2 4
Ġfif th
7 9
p ar
Ġse par
Ġsepar ation
ĠCH OHCH
Ġp er
R e
g an
Ġor gan
Ġorgan ic
c i
m ens
di mens
dimens ional
5 6
et ic
gn etic
8 1
O rbital
at ed
nd er
Ġpro ces
Ġsi nce
2 5
or m
el l
ĠP m
4 4
H g
e c
Ġsp ec
f ig
ur ation
Ġcon fig
Ġconfig uration
6 0
Ġu sed
Ġsurf aces
Ġcharg ed
Ġn e
N a
7 8
y an
iv es
Ġg ives
ĠF m
6 8
âĤ ī
ce l
Ġcan cel
ri m
Ġ( -
d d
Ġp icometers
Ġs tron
Ġstron g
M O
e m
t ribut
Ġcon tribut
Ġc ar
Ġ -
st em
Ġsy stem
7 2
5 9
Ġn ature
Ġd e
ng e
4 1
' s
yn ol
âģ µ
Ġv al
Ġeth oxy
Ġcharg es
yrami d
7 7
6 4
Ġar ra
Ġ L
Ġtw ent
5 1
et han
Ġresult s
Ġdiffere n
1 8
Ġp rim
ari ly
Ġprim arily
ĠEth ylene
T l
ed ge
Ġedge edge
Ġtwent y
ĠIt s
Ġw ell
Ġpartial ly
0 4
5 8
mm c
Ï Ģ
4 9
m o
6 3
Ġwith in
dd it
edi ol
P rop
Prop anol
Ġu nder
2 9
Ġre p
7 6
m c
Ġdist ribut
Ġdistribut ion
Ġproces ses
Ġover all
o t
3 4
Ġse ver
Ġsever al
Ġbe c
ĠP n
t ac
Ġat tac
Ġattac hed
Ġpres ent
4 8
Ġmean ing
ĠThe se
Ġhigh ly
h ol
co hol
Ġal cohol
Ġ6 2
it ies
1 3
Ġs am
Ġsam e
et hyl
Ġmo der
ĠB ond
Ġeight een
9 7
iz ed
ille d
Ġ U
Ġmean s
0 1
a w
s aw
Ġse e
o x
ox al
o o
8 4
Ġ1 2
9 2
Ġang stroms
t al
Ġto tal
1 4
COH COH
Ġcom m
B ond
B onding
D ipole
Mo lecular
6 1
ti es
Ġpro per
Ġproper ties
la m
he st
nge ment
Ġarra ngement
ethan ediol
p ed
s ha
sha ped
CH CH
ac et
Ġhig her
c h
Ġsu ch
c ataly
cataly st
Ġan y
ĠN NO
on s
8 7
s ing
pe ndic
Ġper pendic
Ġperpendic ular
Ġf un
ct ional
Ġfun ctional
9 0
n itrogen
3 2
Ġfor ces
Ġc aus
iv ed
der ived
ĠCOHCH O
Ġs ta
Ġoccup ied
Ġinf lu
Ġsix th
Ġpos ses
Ġdi atomic
mc m
Ġthe re
Ġb ent
il ic
C OHCH
Ġthe or
ion s
ilic ide
ĠAl Ti
Ġe nd
d j
Ġa dj
ac ent
Ġadj acent
Ġsystem s
Ġform ation
co planar
ĠPn ma
e qual
Ġun equal
3 6
Ġinf orm
Ġinform ation
Ġdi a
aus e
Ġbec ause
N N
9 1
Ġglycol aldehyde
Ġrep res
Ġc a
Ġgrou nd
Ġst ate
Ġreact ive
le r
xim e
Ġacet ate
Ġc yan
ĠC CO
t o
Ġth an
Ġform ate
u es
Ġval ues
Ġ10 7
Ġ1 6
f ace
Ġface face
Ġde pe
Ġmoment s
ation s
er v
Ġcatalyst s
ĠA ddit
ional ly
ĠAddit ionally
NO NH
Ġgly oxal
Ġhydroxy lam
i ble
p ons
Ġres pons
Ġrespons ible
ĠCOHCH OH
Ġfollow ing
ĠTi Se
ĠCCH O
Ġma ke
Ġp yramid
Ġbe ing
e us
eus ler
Ġacet yl
ĠO rbital
ĠD ipole
ĠB onding
an ce
in t
Ġdifferen t
Ġn it
o int
Ġp oint
9 4
hy s
Ġeth ynol
9 5
3 7
2 6
Ġi nd
b ond
Ġc re
9 9
oo d
l os
Ġc los
ng ular
cta ngular
Ġre ctangular
Ġcar ri
Ġs ol
acet ylene
Ġsta ble
Ġ en
3 5
p olar
Ġnon polar
ĠH eusler
Ġinvol ve
ra n
u st
f ers
Ġre fers
Ġme as
ĠEth anol
Ġs ci
Ġfollow s
Ġspec ies
2 7
Ġdo es
n e
Ġdi am
Ġ11 1
Ġshare d
ĠU ran
ĠUran ium
Ġ j
Ġ6 0
en ot
Ġd enot
Ġdenot es
et er
Ġdiam eter
ĠC N
ĠS ilicide
Ġcontribut es
Ġinflu ence
Ġhydroxylam ine
e ver
ĠH ow
ĠHow ever
Ġshare s
Ġmoder ate
Ġ1 10
Ġe qual
Ġcyan o
2 âĤģ
m ethyl
1 7
Ġ1 4
Ġtri atomic
CH OHCH
e w
d ent
Ġi dent
Ġunder st
Ġident ical
Ġn ear
c orner
Ġcorner corner
Ġ4 4
Ġma gnetic
Ġsheet s
a v
3 8
en e
Ġty p
z ene
Ġdia zene
Ġ3 2
z ine
ra zine
Ġhyd razine
a ma
Ġpar ama
Ġparama gnetic
3 0
Ġi de
Ġide al
Ġon to
Ġdepe nding
Ġbet a
Ġcomm on
0 15
9 8
Ġv ary
b or
r ic
Ġd ens
Ġdens ity
Ġst re
Ġtheor y
l l
al ized
oc alized
3 9
Ġrepres ent
f our
Ġpositive ly
Ġnegative ly
ĠCu Cu
i bit
Ġmet han
Ġmethan e
Ġf illed
h ibit
Ġex hibit
Ġtil ted
mo st
Ġat tr
ac ted
Ġattr acted
2 8
Ġl ow
Ġm an
Ġman y
Ġun oc
cup ied
Ġunoc cupied
Ġcom ple
ĠMo lecular
Ġth is
Ġelec tr
es t
y mmetr
Ġas ymmetr
Ġasymmetr ic
Ġthe y
Ġoverlap s
v i
Ġcarri es
Ġpoint ing
âģ ¶
3 1
Ġ qu
r u
Ġc ru
ci al
Ġcru cial
Ġnit ro
Ġmeas ure
Ġp hys
ct ively
pe ctively
Ġres pectively
igh bor
Ġne ighbor
Ġneighbor ing
u ted
Ġdist rib
Ġdistrib uted
a k
Ġwe ak
Ġhydroxy acetylene
le ven
Ġe leven
Ġ11 6
p ha
0 0
Ġmet al
il ity
Ġab ility
R b
ĠCH COH
ĠCOCH O
1 20
Ġseven th
Ġcaus ing
el f
Ġits elf
ĠE ach
Ġp ul
Ġ7 4
ent ific
Ġsci entific
i el
Ġf iel
Ġfiel ds
Ġposses ses
ri de
The se
o re
Ġtriple t
H O
Ġhig hest
HO MO
C OCH
oc k
ĠCa N
Ġu se
Ġsur rou
Ġsurrou nding
di pole
Ġle a
ĠTi S
Ġthe ir
Ġ ver
Ġthe m
Ġsi mp
Ġsimp le
ĠZn Zn
â ī
âī ¡
0 3
NN CH
ct ed
Ġcon ne
Ġconne cted
ĠV S
CH OH
hyd roxy
Ġc al
Ġspec ific
Ġdipole s
Ġal pha
v ir
on ment
Ġst u
Ġen vir
Ġenvir onment
Ġpolar ities
ical ly
Ġ5 8
o xime
di oxime
Ġdi methyl
Ġdimethyl dioxime
an e
1 10
Ġb een
Ġexperimental ly
Ġpl ane
a ur
ic up
ĠT etra
aur icup
ĠTetra auricup
ĠTetraauricup ride
Ġinter mo
Ġintermo lecular
Ġacet aldehyde
Ġallow s
Ġon ly
it s
Ġun its
ĠA cet
Ġc ond
it ions
Ġcond itions
st ly
ĠAl Al
arb y
Ġne arby
Ġj ust
Ġg ive
b s
Ġo bs
Ġobs erv
an ometers
Ġn anometers
* (
âģ °
Ġ10 6
Ġ1 21
Ġu sing
CH OCH
Ġinvolv ing
a y
Ġ ro
Ġpl ay
Ġro le
ĠCH OCH
m edi
Ġs ub
Ġcovalent ly
Ġinter medi
Ġintermedi ate
Ġd ebye
on e
Ġcons id
Ġo x
ĠHf Hf
Ġmak es
Ġstre ngth
v ent
ĠC mcm
ry ing
Ġcar rying
er g
Ġ11 9
n it
Ġd el
g o
Ġunder go
u ter
Ġo uter
Ġshe ll
Ġouter most
Ġc ha
n al
Ġe igh
Ġeigh th
ĠCHCH O
Ġmeasure d
nd id
Ġg ood
Ġca ndid
Ġcandid ate
Ġc ent
Ġcent er
s ion
ul sion
t hest
ar thest
Ġf arthest
u ent
it uent
st ituent
Ġcon stituent
Ġb a
t en
Ġof ten
Ġtetra hedr
Ġtetrahedr on
Ġexhibit s
t ro
at ic
st atic
Ġelec tro
Ġelectro static
h anol
Ġmet hanol
Ġdel ocalized
ĠD eby
ĠDeby es
Ġ4 9
ĠNi Ni
f orm
Ġper form
Ġperform ance
mm ary
Ġsu mmary
on ance
Ġres onance
Ġclos e
Ġc lu
Ġclu st
l ock
ĠOH NNCH
ist ry
Ġinteract s
erg y
Ġcre ating
Ġb ut
Ġ x
ĠNi Ta
Ġ q
L U
Ġlow est
LU MO
Ġ lar
Ġlar ge
l s
ol um
Ġv olum
Ġpul ls
Ġvolum e
Ġt ric
Ġtric linic
di ze
Ġhybri dize
f illed
s at
ur ated
Ġun sat
Ġunsat urated
o ther
Ġan other
12 1
Ġsol uble
Ġsol vent
Ġsolvent s
Ġca pa
Ġcompound s
Ġphys ical
Ġcre ate
Ġelectr ic
ha se
ĠAg Ag
Ġma in
Ġ11 5
ĠCu S
Ġ OHCH
Ġf ree
in yl
Ġv inyl
Ġsing ly
Ġlea ds
ĠMo Se
Ġclos er
p rop
t he
the n
C s
ĠSb S
ĠZr Zr
Ġe st
im ated
Ġest imated
Ġcaus es
ĠRe Re
p onding
Ġc or
res ponding
Ġcor responding
Ġbe ha
vi or
Ġbeha vior
le d
C N
Ġbip yramid
E th
Eth ylene
Ġsh ow
Ġdifferen ces
r ite
Ġde f
Ġhe av
Ġheav y
Â° ).
Ġa ct
nd s
Ġ gen
er ating
Ġgen erating
Ġg as
lu or
Ġcomb ined
ĠO xime
Â° ),
ĠAcet aldehyde
a ment
c u
u il
Ġb lock
Ġb uil
Ġs erv
Ġf und
iv ities
Ġelectronegat ivities
Ġdo cu
ment ed
Ġunderst ood
015 88
ament al
Ġbuil ding
Ġserv es
Ġfund amental
Ġdocu mented
c ce
Ġc er
Ġcer tain
ĠSc Sc
Ġtyp es
Ġqu ite
tic al
ore tical
hydroxy ethyl
tain ing
11 8
Ġo pp
os ite
Ġopp osite
ĠCr S
p ted
Ġa cce
Ġw ide
un ity
Ġcomm unity
Ġacce pted
Ġwide ly
ĠS Y
N NH
Ġthir teen
b d
ly bd
ĠMo lybd
ĠMolybd en
Ġmoder ately
a nding
c ul
l uct
u ate
Ġthe oretical
Ġf luct
Ġmo stly
Ġdi oxygen
Ġchemical ly
Ġhe nce
id ated
Ġnot e
Ġval idated
Ġunderst anding
Ġcal cul
Ġstu dy
Ġobserv ations
Ġfluct uate
Ġcalcul ations
10 9
Ġ11 7
g et
Ġto get
Ġtoget her
CH O
ĠCHOCH O
ĠTi Al
12 2
Ġpolar iz
Ġpolariz ation
ĠAl Hf
Ġeth an
ĠAl Zr
u ce
Ġpartic ular
Ġcontribut ing
Ġthere by
Ġind uce
Ġtyp ically
Ġver y
Ġ4 6
ĠPt Pt
ĠL av
ĠNb Si
ĠLav es
ĠPd Pd
ĠNi S
ĠNi Se
Ġn in
ĠNb S
ĠMo Mo
t y
Ġ rough
Ġe mp
Ġrough ly
Ġemp ty
ĠNi P
Ġ4 2
V B
a ble
c rib
d es
Ġa ddit
it able
ĠM O
Ġsu itable
ĠU sing
Ġtheor ies
crib ed
des cribed
Ġaddit ion
ĠP P
Ġinclu de
ĠN Ca
Ġ5 5
al f
Ġh alf
in o
ĠFe S
Ġfif teen
ĠTi Si
9 55
Ġoccup ies
Ġox ide
A cet
i qu
le l
al lel
ĠC C
Ġcarbon s
ri al
Ġpar allel
Ġun iqu
Ġind ust
Acet ylene
Ġuniqu e
Ġindust rial
Ġnin th
ĠY S
ĠNi Al
ĠPd Cu
m u
ĠPd Tl
n ite
ĠPt In
ĠTa Ni
10 85
ĠMn As
Ġ ve
ct or
Ġ5 7
ant ity
Ġqu antity
Ġve ctor
or k
Ġf ram
ew ork
Ġfram ework
tr action
rea s
Ġwhe reas
Ġrepres ented
Ġen ergy
Ġsub traction
Ġconsid ered
nit ric
ĠAl Ni
Ġhybri ds
Ġl oc
Ġ3 0
Ġposit ions
Ġloc ated
Ġ4 8
n m
h ion
Ġf as
Ġal ter
Ġeth yn
11 4
Ġproces s
Ġcha nge
Ġfas hion
Ġethyn e
c on
ĠI m
arb ide
ĠNi As
a di
02 6
Ġclust ers
ĠH a
Ġ7 5
Ġpyramid al
Ġm in
tic ip
im iz
Ġan ticip
Ġrep ulsion
Ġelectr ical
Ġmin imiz
Ġanticip ation
Ġminimiz ing
ĠCr Te
d uct
ro carbon
qu ent
Ġhyd rocarbon
hy lene
se quent
Ġmet hylene
Ġpro duct
Ġcomple x
Ġsub sequent
Ġhydrocarbon s
Ġproduct s
g ram
Ġ ent
ĠN N
ĠN NH
Ġl ocalized
Ġdia gram
Ġent ire
O NH
p icometers
al so
Ġ1 42
pp ing
ĠO NH
Ġoverla pping
R C
b oo
e er
le s
Ġs our
re vi
nd boo
ĠC hem
ĠC RC
Ġp eer
ĠP hys
our nal
tic les
if ied
NH NH
ĠNH NH
Ġar ticles
Ġj ournal
ew ed
Ġver ified
ĠHa ndboo
Ġsour ces
revi ewed
ĠChem istry
ĠPhys ics
ĠHandboo k
f luor
ĠC arbon
Ġform aldehyde
fluor ide
mu th
ĠIn S
Ġparticipate s
ĠTc Tc
en ces
Ġh ow
Ġdeterm ine
Ġinflu ences
Ġconsid er
ĠAu Ag
Ġlow er
ĠTa S
Ġ1 23
Ġcharacter ized
CHCH O
Ġ7 6
on ating
Ġd onating
ĠL ew
Ġba se
Ġcapa ble
ĠLew is
ĠCa As
Ġ4 7
ng ed
Ġeth yl
Ġ11 4
Ġwhe n
Ġinteract ing
Ġcancel s
Ġarra nged
Ġundergo es
Ġ1 50
ĠNa Se
s muth
Ġbi smuth
Ġtri fluoride
âĤģ âĤģ
a ke
a nder
g or
p m
Ġt ake
Ġc ate
Ġf all
Ġin to
lecu le
Ġ1 12
Ġpar t
ĠV ander
ĠMo lecule
Ġ9 5
02 5
Ġnitro so
gor y
Ġcate gory
Ġfall s
ĠMo S
1 96
f ore
g g
m on
Ġa mon
ĠM ethan
ter nal
Ġex ternal
Ġsu gg
Ġthere fore
est s
Ġamon g
ĠMethan e
Ġsugg ests
t e
4 52
a gn
es ium
ĠM agn
ĠMagn esium
a ile
ĠÃħ ngstroms
ĠS in
ĠH ere
Ġdet aile
ĠSin ce
Ġdetaile d
CCH O
Ġstrong ly
Ġcomple te
Ġcomplete ly
ĠAl Ta
ĠMolybden ite
20 6
The re
OH NH
Ġ9 6
Ġba sed
Ġ7 1
ĠPd Bi
ĠTl Pd
k ite
Ġ7 3
ĠRh Si
Ġmet als
ĠCCH OH
id es
ĠEth ynol
CCH OH
Ġox ides
ĠD is
D ebye
E P
V alence
c ed
i nd
p ers
p ically
p ulsion
s pers
u ced
y pically
he ll
ond on
or ption
lec tron
Ġdi spers
ĠS hell
ĠP air
ĠT ypically
ĠO ne
Ġdeg ree
is orption
ĠE lectron
ĠRe pulsion
ĠEth oxy
Ġdirect ed
ĠL ondon
Ġdepe nds
Ġphys isorption
ĠVS EP
Ġcal led
ind uced
Ġdispers ion
ĠVSEP R
2 33
y d
Ġis oc
yan ate
Ġisoc yanate
ĠDis ilicide
4 âĤĤ
ĠIn Ti
ĠZr Si
ĠSc Sb
Ġten th
ĠH ex
ĠHex agonal
12 16
ĠZn S
ĠGa Ti
H yd
p ynol
Ġ ĠĊ
roxy acetylene
Ġpro pynol
Hyd roxyacetylene
ĠC m
ĠCHCH OH
CHCH OH
s ure
ĠH Y
b e
u al
Ġs et
Ġs ens
it ivity
ng es
iv id
di es
Ġpro be
Ġind ivid
Ġsci ence
Ġnear ly
Ġstu dies
Ġcha nges
Ġset s
Ġsens itivity
Ġindivid ual
c ur
Ġoc cur
re d
co valent
Ġcontribut e
Ġposses s
Ġweak er
COCH O
ĠIr Ir
11 6
Ġi on
om al
Ġan ion
Ġan omal
Ġanomal ous
a sed
b ased
r it
s yl
om er
Ġis omer
ĠH ence
Ġnit rite
Ġnitro syl
nit rit
nitrit o
Ġe then
Ġal most
Ġsymmetr ic
Ġethen yl
46 4
a in
ĠMo Ni
ĠCo Ge
Ġ om
eg a
Ġom ega
c y
i en
l ic
om e
om ain
Ġc m
ic ien
Ġmo ve
Ġ1 43
Ġ1 52
ĠI so
an aldehyde
Ġd omain
Ġre adi
Ġvari es
Ġimp lic
Ġbec ome
COHCH O
Ġrepresent s
hydroxy prop
prop yl
Ġdef icien
Ġmove ment
ĠIso propyl
Ġdomain s
Ġreadi ly
Ġimplic ations
hydroxyprop analdehyde
Ġdeficien cy
Ġ5 9
2 81
4 20
* )
ct ive
Ġdist in
ĠFe As
Ġacet one
Ġplanar ity
acet one
Ġdistin ctive
ĠCo P
ĠNa Na
Ġ5 0
Ġp hase
ĠCr P
- ),
e an
h ile
w hile
ng then
Ġp rom
Ġdi ol
ĠM ean
Orbital ly
ot ing
Ġstre ngthen
Ġact ivity
Ġprom oting
ĠMean while
R eg
ar ding
Ġchem istry
Reg arding
47 2
ĠSc As
i al
Ġp ot
ent ial
ĠD ue
Ġwhere in
ment ary
Ġposses sing
Ġcommon ly
Ġcomple mentary
Ġpot ential
Ġpres sure
c yan
Ġdiff er
Ġcarri ers
cyan ide
ĠSb Ti
10 7
09 8
ĠC arbide
ĠV Si
ĠNb Se
L a
Ġclust er
er ature
mp erature
ĠSb Pt
ĠPt Sb
p rises
ur ing
Ġcom prises
Ġmeas uring
e mperature
Ġa ri
Ġt emperature
re act
Ġun react
con taining
Ġpressure s
Ġari se
Ġtemperature s
Ġunreact ive
ĠP hase
p la
Ġa li
Ġw il
OCH CH
CO OCH
Ġex pla
ĠOCH CH
gn ing
Ġali gning
Ġwil l
Ġexpla ined
C CO
H NO
d ra
w ing
w ith
Ġcyan ide
La stly
dra wing
with drawing
O NN
om in
Ġp red
ĠO NN
Ġdistan ce
ant ly
Ġdef ined
omin antly
Ġpred ominantly
- ).
b il
ith in
ĠW ithin
Ġ9 0
CO O
Ġcapa bil
Ġcapabil ities
Ġ1 3
it an
ĠT itan
ĠTitan ium
Ġm ul
ti ple
Ġmul tiple
ĠAl Sc
Ġ4 5
12 20
ĠV Zr
O NNH
s ary
Ġre taining
ces sary
ĠO NNH
Ġ10 5
Ġne cessary
Ġobserv ed
ĠCr Se
Ġcentral ized
COHCH OH
ĠN Hf
pp er
a ngstroms
k ed
Ġlin ked
Ġrepresent ing
Ġpul led
Ġcorresponding ly
ĠGa S
t un
ĠCo tun
ĠCotun nite
g ions
Ġre gions
Ġcharacterist ic
Ġcomb ine
ĠCo pper
ĠFe P
y rite
âģ» ,
ĠAg Cd
ĠTa Si
g ation
j u
ly oxal
ĠG lyoxal
Ġcon ju
Ġu p
edi al
Ġethan edial
Ġconju gation
u ng
st en
ĠT ung
ĠTung sten
ĠNi Si
n mm
ĠNi Nb
Ġal l
Ġethan ediol
ĠRh Ru
ĠNa S
ĠGa Zr
ĠMo Al
z ed
en ergy
aly zed
CH CO
ĠCH CO
Ġan alyzed
ĠFe Zr
Ġsta nds
Ġmeasure s
Ġlea ding
ĠAcet yl
ĠCu Al
ĠSn Zr
ĠCo Co
ver ite
ĠCr Zr
ub ic
ĠY Y
10 2
ĠNb Ge
Ġ5 1
ĠZn Ti
11 83
ĠNi Te
ĠGa Nb
Ġeleven th
ĠPd Mo
ĠH Ti
al ite
i a
Ġv ia
ĠCHOHCH OH
CHOHCH OH
E ach
Ġ1 34
Ġang strom
al t
ĠS alt
ĠH alite
ĠR ock
CHOCH OH
ĠCHOCH OH
ĠRu Ru
ĠRh V
ĠSr N
ĠPn nm
ĠI mmm
ĠPt Nb
ĠIn Se
Ġ5 2
ĠAs As
ĠNi Ga
ĠAl Cu
ĠIn Sc
10 79
ĠRu Ir
ĠMn Mn
5 69
ĠFe Se
ĠHf Al
ĠAg Zn
ĠC mmm
ĠIn Pt
m et
Ġdi met
OH NNCH
hy lam
Ġrelat ive
Ġhydroxylam ino
Ġdimet hylam
Ġdimethylam ino
ĠMo Te
ĠA mm
Ġ5 4
ĠSr P
ĠSe K
Ġ rib
Ġrib b
A X
ĠM AX
11 86
ĠF luor
ĠFluor ite
11 9
10 1
ĠF d
ĠPd Hg
ĠP mm
ĠPd Zn
ĠCu Se
ĠCo Si
ĠV Rh
8 67
ĠV V
ĠAl S
ĠTi Te
ĠMolybden um
ĠPd Nb
ĠBi Pd
f th
Ġtwel fth
ĠTa Te
ĠCr As
ĠRh Pt
ĠIr Si
ĠIn Zr
ĠSc Si
ĠCa P
ĠCo Zr
ĠPt Ti
ĠNb Pt
ĠMo Si
ĠNb Te
ĠAl Y
ĠAl Nb
ĠMn Zr
ĠS Cu
h at
r kite
y rkite
ĠK hat
ĠKhat yrkite
ĠGa Ni
ĠMn P
ĠMn S
ĠTa Ge
ĠS Zn
Ġapproxim ate
ĠNi Hf
11 87
ĠGa Pt
ĠHg Pd
ĠPb c
ĠMn Si
5 67
ĠPt Ga
ĠFe Sb
m b
ĠPt Al
ĠBi Se
ĠV Se
Ġ4 0
ĠW N
12 15
ĠSr As
ĠTa N
12 19
ĠW S
ĠCo Se
ĠSe Ti
ĠH Ca
ĠRh Mo
ĠS Sb
s w
s il
ĠCa sw
ell sil
ĠCasw ellsil
ĠCaswellsil verite
ĠGa Hf
12 24
ĠN Ti
ĠHf Ge
mb m
ĠTi Pt
ĠAl Pt
ĠL a
ĠTi N
ĠCd Ag
ĠC ubic
ĠOs Ta
12 17
ĠP Ca
ĠP yrite
Ġ1 8
d der
ĠMo dder
ĠModder ite
ĠNb N
ĠIr Nb
ĠTl Tl
ĠN Sr
ĠSe Na
ĠFe Fe
Ġribb ons
ĠP Sr
ĠNa Te
ĠZr Sb
ĠZr Al
ĠNi Ti
m nm
ĠC Si
ĠCu Sc
ĠCd S
ĠCa Si
ĠPm ma
ĠSi Si
ĠFe Ta
ĠPb S
ĠV Te
ĠMo As
ĠS Ni
ĠTa Ta
ĠNi Ge
ĠW Si
Ġ6 3
ĠPt Mo
12 21
ĠCa Sb
ĠH Sr
ĠN Nb
ĠPd V
ĠPb Pd
4 âĤģ
ĠMn Ge
ĠIr Re
ĠBi S
ĠMn N
ĠNi Zr
ĠSi C
ĠZr Ga
ĠGe S
ĠCd Cd
3 08
ĠPd Ag
ĠNi Sb
ĠSn Hf
ĠZn Pd
22 2
ĠHf N
ĠRh Te
ĠRh Sn
ĠSn Ti
ĠPd Ta
ĠSn S
ĠW Pd
ĠAg Al
ĠOs P
ĠW Te
ĠRh S
ĠCs Cl
m an
10 18
ĠAs Ca
10 80
ĠNa As
ĠAg Au
ĠPd Sn
e ro
s kite
v skite
ĠP ero
ĠNi Ca
ĠPero vskite
ĠZn P
ĠCd Ti
ĠSc P
ĠPd Ti
ĠAg S
ĠZr P
ĠCo V
ĠPd Mn
ĠS Na
ĠPmm n
Ġ5 3
ĠP a
Ġ1 5
ĠNb P
Ġ4 3
ĠAg Y
c as
ar cas
ĠM arcas
ĠPd As
ĠMarcas ite
ĠTi Ge
ĠGe Cu
ĠRh Nb
r d
ĠCo Sb
Ġthirteen th
ĠTc P
ĠZn As
ĠInd ium
ĠCo S
Ġ5 6
11 88
ĠNb Ir
ĠPt Rh
ĠRh Zn
ĠP Ag
ĠNi Y
ĠN Zr
ĠIn Y
ĠIr Te
ĠIn Au
ĠSi N
ĠSi P
ĠNb Ni
ĠCu Te
ĠIm ma
ĠNb Pd
Ġfourteen th
ĠSn Se
ĠCd As
1 12
ĠCm ce
ĠK Cl
ĠSn Rh
ĠTi P
ĠSc Hf
an ite
ĠGa V
ĠTa Pd
ĠBi Te
ĠFe Y
ĠIr Ta
ĠCu Zn
ĠZn Zr
ĠCu Hf
ĠMo Zr
ĠY Ag
ĠPt Cd
ĠW Al
ĠPd Zr
ĠMo Zn
Ġ6 4
ĠP Zn
ĠP Tc
ĠSe In
ĠRh Se
ĠCr Ta
ĠCr Al
ĠRh As
ĠZn Se
ĠNb Ga
ĠMn Te
10 78
ĠC mc
ĠTi Pd
ĠPt Ag
ĠRh P
ĠZn Y
ĠAl Mn
ĠCr Nb
ĠH Zr
ĠHf Ga
Ġfifteen th
p in
ĠS pin
ĠY Si
ĠSpin el
ĠRu Ta
ĠIr Mo
ĠRh Rh
Ġ2 0
ĠTi As
ĠCu Zr
Ġse vent
ĠPb am
Ġsevent een
ĠP Fe
p rim
prim e
Ġ4 1
ĠNa Sb
ĠZn N
ĠGe Se
ĠCo Y
ĠFe Si
ĠF dd
ĠK Se
Mo S
ĠRh Ga
ĠCo As
ĠIn Te
10 0
ĠTa Ir
ĠZr Se
ĠN Ta
ĠCo Hf
ĠAu In
ĠAl Ag
ĠCr Ti
ĠC c
ĠGa Se
ĠAg Se
ĠTi Co
ĠPb Te
ĠY Ga
12 23
ĠNb Rh
ĠN V
ir con
ĠZ ircon
ĠPt V
d m
Ġg ol
Ġca dm
Ġgol d
Ġcadm ium
ĠZn Ta
ĠRu Re
ĠRh Sb
10 6
am d
ĠZn Ag
ĠMn Pd
ĠOs Re
ĠW Se
ĠS In
ĠNb Nb
ĠSn Te
ĠHg Ti
ĠGe Te
ĠCo Ti
ĠRu Rh
ĠAs Ni
ĠC h
ĠY In
Ġtetra bor
Ġtetrabor ide
H eusler
âĤģ âĤĥ
118 69
ĠCd Au
ĠCo Nb
ĠAg Ti
ĠS Co
ĠSc Al
ĠSc Ge
ĠSn Sc
ĠZr In
ĠV Pd
ĠPt Sn
Ġ6 8
ĠK K
ĠP Na
ĠSc Ga
ĠI b
Pb S
ĠV N
ĠSe Bi
ĠAu Cu
ĠZircon ium
Se S
ĠMn Se
ĠNa Cl
Ġc arbide
Ti S
âģ ¸
ĠW P
ĠIb am
at lock
ĠM atlock
ĠMatlock ite
ĠCa S
ĠW Ir
ĠP Co
ĠHf Si
ĠIr P
ĠV Co
al co
ĠCh alco
ĠAs Te
ĠK S
et a
57 0
ĠS V
ĠGa Sc
ĠRh Re
ĠNi Sc
ĠSr Pb
P S
ĠV Pt
ĠPd Si
11 3
ĠC V
r on
z eta
Ġ zeta
Ġi ron
ĠCd Hf
ĠGa Rh
ĠMo Hf
ĠAs Sr
c ble
nd e
ĠS pha
in cble
ĠZ incble
ĠNa P
ler ite
ĠSpha lerite
ĠZincble nde
Ġcubo ctahedral
ĠRu As
ĠPbc n
ĠS Ti
ĠGa Y
10 8
ĠN Y
ĠP S
âĤģ âĤĨ
Ġsixteen th
12 âĤģ
ĠRh Ge
ĠGa Te
ĠSb Se
ĠTa As
ĠCd Pt
ĠZr S
ĠGa As
ĠCo Te
ĠRb S
ĠMo P
ĠC Nb
ĠZr N
42 2
ĠSb Cu
ĠSn Nb
ĠIn P
ĠAl N
ĠHf Sb
ĠSn Pd
W S
ĠS Sr
ĠV C
ĠMo Pt
ĠSe Cr
ĠTa Al
ĠAu Au
p yrite
ĠFe Nb
ĠChalco pyrite
ĠCu Pd
ĠFe Ti
ĠS Ag
ĠCo Ta
ĠSr Sb
C ubic
ĠSn Y
ĠMn Sc
ĠN Mn
ĠP Sn
ĠSe Cs
ĠS Pb
ĠSi Ti
ĠCa Ca
ĠZr Te
ĠTa Ru
ĠSc Bi
11 84
a verite
al averite
ĠC alaverite
ĠIn Sb
ĠHf Pd
ĠHf Pt
ĠCd Y
ĠTi Zn
ĠSn Cu
d ite
k ut
u dite
ĠS Ru
ĠS kut
ter udite
ĠRu Sb
ĠSkut terudite
ĠZn Hf
ĠF mmm
ĠAl Se
ĠSe Y
Mo Se
adi um
ĠY Al
ĠSb Te
ĠRu Cu
10 3
ĠPbc a
11 89
ĠAu Cd
ĠPb Se
ĠS Bi
ĠNi Cr
ĠCu Ti
ĠRb Te
12 7
13 2
Ġ1 7
ĠY Sn
ĠSn V
ĠTe Ge
ĠFe Hf
ell ur
ĠTi Ga
ĠSc Ag
ĠW Co
ĠCd Te
ĠTe Bi
12 4
ĠAu Sn
ĠPt Ge
ĠB erg
Ni S
ĠFe Sc
ĠBerg man
ĠS Fe
ĠPt Ni
ĠY Ge
11 5
Sb Pt
2 20
di um
ĠSi Cu
ĠHf Ni
10 07
Ca Si
Ġg am
ĠGa Ga
Ġgam ma
ĠTa Os
86 2
ĠHg Sc
ĠBi Hf
ĠS Rh
ĠSi S
ĠZn Sc
+ ,
âģ ·
ĠNb Al
101 80
ĠAg P
ĠPNa P
9 74
ĠAl As
ĠGe N
ĠRu Pt
ĠIr As
ĠPP Ir
ĠIr Ge
v c
or und
ĠC orund
ĠY Cd
ĠFdd d
ĠCorund um
t z
ur tz
ĠW urtz
ĠWurtz ite
Ni As
ĠI mm
Nb S
ĠMo N
ĠMn Ti
Sn S
ĠCd Sc
ĠZr As
16 6
ĠAl Ge
ĠSr Si
Ġ6 5
ĠN Fe
ĠIr V
86 5
1 67
s anite
ĠH aus
ĠMo is
Zn S
man nite
ĠHaus mannite
ĠMois sanite
ĠCu Ta
ĠAg Sc
ĠCl K
ĠPt Zn
ĠMo Co
ĠTc Al
56 8
3 06
or ide
ĠAsAs Ir
ĠP N
ĠGe Ge
ĠRu Ni
ĠZn Sr
ĠNa Bi
ĠGe Ni
3 05
ĠC W
ĠRh In
m vc
ĠCu Y
ĠPP Rh
ĠAl P
10 77
30 3
ĠY Te
ĠHf P
Ni Si
10 25
ĠIr Ru
ĠSn Ni
122 43
ĠHf Se
e ment
ĠC ement
ĠCu Au
ĠTe Sn
ĠCement ite
5 71
ĠTi Ni
Cu S
g ite
n ar
ĠZn Rh
ĠW As
ĠFe Te
ĠE nar
ĠEnar gite
$ \
K as
Ġ $\
ĠHf Cu
ĠHf Au
ĠGa N
ĠOs Os
ĠF ran
Kas per
ĠFran k
b nite
ĠS ti
ĠPd Hf
ĠSc N
ĠSc Te
ĠRu Tc
ĠSti bnite
2 96
ĠRu Si
ĠZr Cl
ĠNb C
ĠCu P
Te Se
ĠPm c
ĠHf As
ĠCr N
ĠCr Hf
10 5
ĠMn Hf
ĠAg Cu
1186 0
ĠCa Ge
s ide
Ġin side
ĠV P
ĠTe Na
120 7
ĠTi Mo
ĠZr Ge
ĠPt Ru
ĠRh Zr
ĠPb Tl
9 73
ĠMo Cl
110 5
12 3
Ca Zn
121 80
ĠSi Zr
ĠV As
ĠIr Tc
Co Ni
Ru Si
50 3
1 33
ĠS tructure
13 6
ĠSc Sn
ĠSr Ge
ĠRu Se
ĠPb Sc
ĠAsAs Rh
9 72
ĠV Ta
118 80
Ġ3 9
ĠPt Te
r thorhombic
ĠP mmm
ĠO rthorhombic
ĠTi Au
15 6
ĠSc In
ĠSc Cu
ĠAs Zn
121 54
ĠW Ni
ĠSb Rh
12 29
ĠTc Ga
9 79
ĠTi Nb
ĠSi As
ĠZn Nb
ĠSb Ni
Sn Se
Ġribb on
ĠIr Ti
l m
en ite
ĠI lm
ĠTi Cl
ĠIlm enite
11 7
ĠS Nb
ĠAl Ca
ĠPd Ge
Ti Al
ĠW Pt
10 69
Ġ7 7
Ġ1 9
ĠP Hf
10 72
ĠSr Zn
86 55
ĠSi Co
ĠAs Ti
Ge Te
ĠRe N
Cr S
1220 3
2 80
ĠS K
2 12
ĠTi Ir
10 09
12 46
ĠRb Rb
86 6
20 4
118 46
110 3
121 53
ĠP c
Ġ3 5
ĠHg Te
W Te
an adium
ĠV anadium
ĠAu Ti
ĠIr Zn
Ġnit ride
3 04
ĠSe Rb
ĠTa Ga
10 29
ĠS Tl
ĠP Ti
ĠAl Sb
ĠV Ir
ĠRh Tc
ĠS Sn
121 55
ĠAu Te
Zr Rh
57 3
Ge S
ĠTi Rh
20 9
Co Ge
Ġt ellur
Ġtellur ide
ĠPd In
ĠZr Zn
ĠTa P
ĠP Si
ĠTi H
âĤģ âĤħ
ĠSr S
ĠCd Sb
ĠP Re
ĠGa P
ĠSe Pb
ĠY Se
ĠCr Ni
ĠRu P
99 9
110 2
ĠN Al
ĠSi V
10 4
ĠPFe P
ĠAg Te
ĠIr Sb
Ta S
122 89
ĠTe Te
ĠAl Pd
ĠZr Pd
Cu Al
16 5
et een
Co Si
Ġnin eteen
2 10
ĠSi Y
ĠTa Cu
Ti Pd
ĠTl Se
1 86
ĠAl V
Ġ6 9
Al Ge
ĠSi Fe
ĠPt Na
Si C
Ġ6 6
ĠSc Cl
ĠGe V
ĠRe Zr
ĠPm n
ĠIn Rh
ĠSb Fe
21 3
ĠRb Cl
ĠC Al
ĠSe Rh
ĠMn Sb
ĠMn Zn
ĠSn Au
ĠRe Se
Cr Si
2 74
ĠPt Co
W Se
ĠPt Si
Ni P
ĠSr In
3 07
ĠSe Sb
ĠCu Cl
10 23
22 9
ĠZr Hf
ĠHg Hf
ĠNb Sb
12 25
Mn Al
120 6
ĠN Re
ĠIn Pd
20 8
ĠAg Ca
ĠAu Rb
Ġ7 8
102 53
Ġseventeen th
ĠS Mn
Co As
1 79
ĠS Cr
Ġ2 2
Al Si
ĠSn Sr
120 8
ĠNb As
ĠGe Nb
10 08
ĠOs Mn
57 08
ĠPt Tc
ĠRu Zn
16 52
ĠTl Ca
ĠP Y
ĠIn Sr
7 55
ĠP o
ĠZr H
ĠRh Al
ĠAs Zr
12 47
ĠBi Bi
ĠPb Hf
55 5
ĠSi Mn
ĠZr Cu
ĠSc Ni
ĠRu Te
1 55
9 80
ĠAl Rh
ĠNi Mn
ĠCd Ca
97 43
54 4
ĠOs As
l ac
Ġb lac
ĠS am
Pt Ge
ari um
Ġblac k
ĠSam arium
ĠCu Si
Ti Mo
ĠSi Sc
12 28
ĠRu S
ĠPt Fe
ĠSc S
Hf Ir
Co Se
15 9
80 0
Au Ag
86 53
- ,
in um
Ġ3 1
ĠGa Ta
Fe S
12 6
ĠK Sb
96 9
11 99
um inum
ĠTl S
86 54
Fe Sb
ĠCd Se
22 7
ĠTl Zr
121 72
Y Rh
Fe Si
ĠTe As
Ru Rh
ĠTc As
22 3
71 7
3 11
46 2
11 93
16 4
P hase
ĠTi Zr
20 2
67 5
86 1
ĠHg Na
v anite
Ġ3 7
ĠSi Nb
ĠSi Ca
ĠRh Ti
ĠAs Hf
ĠCr Sc
Ġ6 7
ĠAg Hf
ĠK As
ĠOs Ru
3 22
Ġ3 6
Ni Se
ĠSn P
12 26
Sn P
Ca Cu
110 4
Y Pd
t act
ro tact
ĠP rotact
in ium
ĠCa Ag
Os Si
ĠProtact inium
ĠC Ti
Ti Si
As S
Ni Al
67 0
ĠCd Na
Cr Fe
âĤĤ âĤĢ
ĠPt Mn
ĠNb Ti
ĠZn Mn
ĠS Rb
Ġ3 3
ĠRu Mo
54 1
867 3
9 77
o dium
s en
ĠS odium
Si P
ĠRh Ta
Sr In
Ġar sen
Ġarsen ide
2 79
ĠIn In
20 0
ĠAu Nb
Sc Cu
ĠAl Te
In S
P a
ĠP K
ĠSi Ni
ĠB oride
ĠSc Cd
Ġeighteen th
Ġdel ta
ĠS Sc
Co P
11 20
69 1
Y Ag
11 1
Mn P
86 49
ĠHg Zr
109 42
3 10
71 4
Tc Ru
121 79
ĠV Nb
Ni Sb
16 3
ĠRb Au
82 8
73 0
99 89
6 07
ĠS Cd
ĠIn Na
Ġ3 8
ĠSi Hf
ĠTc Ru
Ca Ni
8 50
9 83
ĠSe Sn
Rh Si
67 22
ĠPb Y
45 9
09 2
Co S
Mn Si
ĠCa Hg
Pd Au
ĠAu Zn
121 71
V S
Si S
ĠRu Os
1 69
Y Cu
ĠS As
ĠY N
ĠAg Na
107 86
on ium
ĠS yl
12 9
ĠIr Se
ĠCl Rb
ĠSyl vanite
ĠM g
Ġ3 4
ĠZr Hg
ĠW Zr
Ru Ir
ĠCd P
ĠF mm
ĠZn Te
As Se
ĠTe In
ĠW Os
Ġ7 2
Ġ7 9
89 4
ĠPn a
1 88
ĠS Al
Pd Bi
Ni Ga
ĠTe Ag
ĠTe Cd
ĠSb Tl
ĠNa In
12 18
Sn Sb
Ag Zn
54 9
Nb Rh
19 2
13 9
Ġnineteen th
ĠAl Mo
ĠHf S
ĠTa Zn
80 3
ĠSb Ag
ĠSn Ag
50 1
55 7
9 81
W N
ĠAl Si
ĠPt Re
Fe P
ĠCu Ru
ĠY Zn
ĠTa Rh
Sb S
Rh Sn
Zr Si
50 2
ĠTc Zn
ĠOs Si
71 3
ĠN Zn
ĠP Zr
ĠSi Se
Sb Te
69 7
89 5
110 32
ĠAsAs Ru
or on
Al N
ĠY P
ĠAs Cd
Ge Se
67 2
57 10
13 1
ĠH Ta
ĠH Sc
ĠMo Ru
Co Al
ĠAl Sr
ĠAl uminum
ĠCa Tl
Fe Co
ĠSe Cu
ĠRh Y
ĠTe Mn
ĠTe Pb
ĠCr Si
Sb Se
67 8
120 67
ĠPAg P
ĠS Zr
ĠH igh
ĠCa Au
ĠZn Ca
ĠSn As
Hf Pd
53 9
Pb Se
101 42
ĠCa Cl
ĠRu Y
ĠTc Co
ĠHg Se
ĠCa Se
Ġ2 1
ĠIn As
ĠV Ru
Zr Ga
Co Te
Nb P
55 9
57 6
118 47
Ġb oron
Fe Se
ĠMo Ir
ĠZn V
ĠZn Pt
ĠGe Mo
ĠRu Fe
Ir V
ĠTl Sc
120 9
2 16
69 3
Ca Pt
ĠTi Sb
ĠCu Sn
ĠY Sb
ĠRh Fe
ĠCr Cr
Tc Al
19 8
118 79
ĠHf Zn
46 0
1079 9
ĠGeGe Pt
2 88
Ġ2 9
ĠH Na
ĠPt Pd
ĠSr H
Zn Al
ĠAu Pd
Ta Ru
Bi S
86 27
Sr Zn
45 6
1 73
9 78
ĠCa Sn
20 3
ĠV Ge
ĠSe As
ĠY Ir
ĠZn Sb
Ġ7 0
67 3
Ru Al
ĠC Mo
ĠP Al
ĠAl Co
ĠMo Rh
1216 4
102 55
ĠS Ca
ĠNi V
ĠCa Te
Pd H
ĠAs Ga
Ge As
43 0
Ta Fe
50 0
Sr Sn
110 23
ĠY Au
Sc Hf
ĠRe S
122 88
G Pa
V N
ĠHf Co
20 5
ĠSe Zn
ĠSr Sr
12 5
69 5
ĠTc S
ĠHg K
Tl P
122 60
ĠAs Fe
ĠGe Sr
23 2
Sr Cd
E r
c or
e ving
r or
t ri
Ġre cor
Ġre tri
ĠW Cl
ĠFe Cl
Cu Ga
21 9
Ġoccur red
Er ror
Ġrecor d
Ġretri eving
2 47
ĠN Cr
ĠPd Tc
ĠCa Pb
ĠSe Co
Ga N
Ga Al
Hf Pt
88 9
15 2
63 4
120 53
109 54
t or
it tor
ĠH ittor
ĠPd Al
ĠZr Rh
ĠGa Ca
Ti H
ĠGe Mn
80 9
97 20
ĠSFe Cu
ĠHittor f
ĠTi Fe
80 4
ĠSb Sb
ĠSb Ru
Mo As
120 73
102 52
ĠZrH N
Ġ2 3
ĠN Sc
ĠPt Ca
Ti Cr
ĠHg S
Zn P
ĠRu Sc
43 4
Os P
70 0
49 8
1 75
5 22
i et
ĠPt Bi
In Se
ĠSb Co
ĠSn Pt
ĠAu Sr
Cr P
82 5
Ġtwent iet
1216 6
Ġtwentiet h
ĠS P
ĠSe Ge
ĠSe Ru
ĠSe Mn
Pd Sn
ĠCo Tc
10 67
ĠAu Ca
Zr In
ĠBi Tl
ĠOs Zr
2 73
8 49
9 76
ĠIn Ni
ĠNi Fe
ĠCr Rh
Ga As
Cu Sn
96 1
Ca Hg
f ide
Ġs ul
ĠGa Sb
ĠCu Ni
ĠSc Au
Ti Ga
ĠMn V
ĠSr Bi
12 14
ĠTc Ir
02 4
56 86
Ġind ium
101 81
567 7
Ġsul fide
Ti Rh
ĠSb Cl
ĠMn Al
Mo Te
50 5
93 8
Sr P
Tc Rh
56 83
1216 3
n c
ĠNi Pt
ĠNb Zn
ĠY Pt
33 5
33 6
11 85
ĠPb Pb
05 2
Si As
Pd Ag
Pt Si
10 70
Ga Ge
Ga Sb
12 27
ĠK Hg
Sn Pt
Ir Te
Mn N
Bi Se
57 06
2 82
W P
Ġ 80
ĠN Na
ĠSi Ta
ĠPd P
ĠCa H
Ni Te
ĠW Ru
ĠCr Sb
ĠSb Rb
ĠAg Pd
ĠCl Cs
85 7
ĠOs Tc
Ca Au
2 89
Y Zn
ĠPt Sr
ĠRu N
Hf Si
11 33
22 8
86 50
19 1
15 1
107 88
2 83
ĠPd Na
ĠTe Ti
ĠSn Sb
Zr Te
54 6
Ir P
ĠTc Rh
Cr Al
57 16
51 4
1 71
W Si
ĠSb Bi
ĠMn Ta
ĠSr Sn
43 7
ĠCl Na
85 3
21 4
93 9
19 9
118 40
6 80
Y Au
ĠP Rb
ĠMo Pd
Hf Sb
Au Cu
08 2
ĠTc Hf
ĠRe Os
Sr Au
109 55
9 89
K Hg
Ġm p
ĠMn Os
ĠAg Pt
ĠRu Zr
33 7
Ir Sb
11 47
Sr Ge
97 22
1215 9
ĠAl C
ĠPt Se
Fe V
Fe Te
Rh As
Sc Rh
85 2
62 8
110 30
122 67
1183 6
2 42
6 16
Ġ2 4
ĠTi Cu
ĠSi Pt
ĠPd Ni
ĠV Hf
ĠSe Cd
Ti As
Ga Si
Hf Ni
55 8
ĠRe Te
22 1
86 56
Sr Pt
48 7
32 8
110 20
1 74
12 8
Cu Si
41 8
122 42
2 11
ĠP In
ĠV W
Pt Mo
ĠRe P
85 6
86 60
93 5
19 7
Re N
13 7
121 89
ĠS Hf
ĠGa Fe
ĠZn Cu
In P
ĠFe Ge
09 6
ĠK P
Zr H
50 4
Sc Ga
Mn As
48 4
ĠSe Zr
ĠY Bi
Ti Se
Pt Ga
67 6
67 7
75 8
ĠSeK Bi
ĠPdAs Pd
7 80
8 71
9 75
l oride
ĠP Ni
ĠIn Ag
ĠPd Sr
ĠHf Zr
Fe Ti
Fe As
ĠTa Cl
ĠSc Pd
ĠSc Pt
Rh Se
Zr Sn
Ca In
Mn Sb
Cd S
mc c
99 8
ĠIn Co
âĤĤ âĤģ
âĤģ âĤī
Pt Zn
67 4
69 9
Sc Zn
Ġlea d
1219 5
s s
ĠCu Sb
ĠCu Nb
ĠMn Ca
ĠRu V
ĠRu Mn
ĠTl Cl
44 1
118 72
107 80
ĠSe Pt
ĠRh Cr
ĠSb SbPt
ĠIr Y
Mo P
Zr Cl
Ir Sn
42 9
Mn Se
45 1
24 9
110 40
122 16
567 9
r ich
Ġt rich
ac d
ĠSe Sr
Pd P
Ga Se
ĠAg In
Co Ga
ĠPb Ca
Ca Cd
Ġtrich loride
Y In
Y Te
ĠV Zn
ĠSe Ca
Ti Ni
ĠCo Sc
ĠSb SnPt
ĠSn SbPt
Ga Sn
Hf Co
Ir Si
42 1
Mn Ga
118 78
ĠPbc m
ĠPK P
1 42
9 85
ĠCa Bi
Si Ni
As P
ĠTe Nb
Rh P
Rh Te
ĠIr Sn
Hf Zr
82 6
Tc Ir
' {
7 54
7 69
\ '{
Ġi ri
are vi
ĠPt S
ĠAs Rh
ĠMn Ga
ĠNa N
Mo Si
11 91
69 8
50 6
Ġvan adium
ĠCl Sr
23 0
77 6
110 43
ĠLav arevi
Ġiri dium
1 54
7 93
Rh Zn
Sn Te
11 78
22 6
46 6
Sr Al
118 45
1 40
4 43
ĠPd Ca
ĠTe Y
ĠRu SeS
54 2
Ru Ga
50 55
Cr N
Cr As
98 96
121 73
V Si
ĠP Ga
ĠP res
ĠT ellur
ti le
ĠSc Zn
Pd Zn
ĠAs In
ĠRu tile
ĠK Te
Ru Sb
Ir Ge
42 6
74 4
83 4
29 7
90 0
ĠPres sure
ĠTellur ium
2 78
Ġs up
er cond
ĠP TlP
uct or
Pd S
ĠAs Co
10 56
Zn N
Mo Cl
33 1
11 79
ĠCd Pd
ĠCd Cl
42 âĤģ
85 1
57 02
Ġdiam ond
1215 2
ĠAsSr As
Ġsup ercond
Ġsupercond uctor
1 80
Y Ni
ĠThe oretical
ĠS Pt
ĠAl Cl
ĠNi Zn
ĠCa Cd
ĠGe Ca
Hf Al
96 4
Sc Ni
86 16
86 23
Os Ru
77 7
1 77
Ġ2 5
ĠTa Se
Rh S
Cu P
22 4
62 7
64 8
97 73
121 93
122 47
567 3
1 53
1 83
V Se
âĤģ âĤĩ
ĠCa Zn
Pd Si
ĠCo Pt
ĠFe N
Zn Ga
09 4
Mo Ge
43 5
69 2
86 4
73 7
79 2
V Ga
ĠIn Nb
âĤĤ âĤĦ
Al P
Pt Cd
10 969
Hf N
Hf Cu
54 24
96 5
Ir Al
Ca Cl
121 74
867 8
1 70
Y Sn
c m
f irst
Ġp yrite
ĠH Nb
ĠNi Bi
Al Ni
ĠTe Sb
Ga P
se cond
Cu Te
Zr As
Au Sn
ĠRe Ir
68 47
ĠAl H
Al Cr
ĠCu Ca
ĠSc Pb
Ti Cl
ĠGe Rh
ĠW Rh
ĠMn Ru
Ga S
Au Te
42 8
ĠRe As
15 8
86 57
Hg Ti
110 07
ĠPTc P
Al Cl
ĠCa In
ĠV Fe
ĠV Ni
Ti W
ĠIr Bi
Zr Ge
Co Sb
43 8
ĠBi Ga
ĠPb Cl
Ta N
Mn Ge
52 9
92 8
101 79
2 76
ol onium
ĠP olonium
ĠSe Ag
Ti Au
ĠAs Y
ĠAs Sc
ĠGe As
ĠCo Al
ĠSn N
Ir As
23 1
Sr As
66 5
110 17
1215 7
9 71
Y Pt
ĠHf Ir
ĠNb Cl
Ti N
ĠAs Se
ĠFe Ga
ĠSb Nb
54 26
Ru As
Nb Tc
ĠTc Sc
83 2
25 8
Rb Sb
122 73
2 15
P Se
ĠP Mo
ĠP Sc
ĠPt As
ĠGe Co
ĠTe Fe
Cu Zn
ĠBi SbPt
53 1
86 46
Tc Os
121 83
ĠC mm
âĤģ âĤĦ
Ti P
80 2
Ru Te
42 7
69 0
08 1
16 2
86 61
Na Hg
Tl Te
01 4
30 0
1229 0
1023 9
Y Ga
ĠS Os
ĠS ilic
ĠH Rb
ĠV Mn
ĠNb Co
Si Te
ĠZn Au
ĠZn Cl
Zn Se
Zr Al
33 9
43 6
ĠOs S
Na In
51 7
49 4
121 70
ĠPtSn Sb
ĠSbBi Pt
ĠSilic on
V Os
ĠPd H
12 45
Hf P
54 5
07 7
73 1
120 70
110 31
1183 4
119 07
V Ni
Y Al
ĠN p
ĠGa Mn
ĠNb Tc
ĠAs Sb
ĠTe Sc
ĠSb As
ĠSr Cd
Zr P
Sc Sn
Cd Te
71 8
40 6
83 7
32 7
118 71
V W
V Ge
b ra
n t
ĠP are
ĠAs S
10 57
ĠNa Hg
12 59
Mo Al
Hf Cr
67 23
07 4
53 8
Cr Se
47 3
52 5
75 6
73 9
83 5
1224 4
Ġsuperconductor s
bra ss
ĠPare nt
ĠSe Fe
ĠMn Pt
Mo Rh
Hf Rh
Ir Ti
Nb W
Sc Ru
86 59
86 51
86 58
89 9
107 96
ĠSAg Bi
1 49
7 06
ĠC cce
ĠH Pd
ĠGa Cl
12 206
ĠAu Cl
ĠIr Zr
Hf Sn
Ag Al
11 90
Mn Te
44 4
41 3
Tl Pb
118 74
118 77
1 78
1 34
ĠS Hg
ĠH Co
ĠTi W
20 1
Fe N
ĠZn Cs
Pt S
10 95
ĠSr Al
Zn In
Ag Hf
Co Sn
Nb Al
21 8
Pb Te
02 3
Sr Pd
18 67
1 93
3 09
Y Cd
Al Cu
Zr Ni
08 3
Ca H
52 6
57 12
29 1
110 6
107 79
1080 0
6 69
h ide
ĠS Cs
ĠPd Sb
ĠGa Cr
Ġ6 1
Cu Se
Mo W
Hf Tc
54 0
Ta Te
Mn Rh
86 26
82 9
81 8
Na P
68 46
1079 7
100 32
V Mn
20 30
ĠTa Sb
ĠSc Rh
ĠAs Ru
ĠAs Nb
ĠAs Os
10 19
10 13
ĠAu Hf
ĠAu Ta
Ag Cd
Ir Se
Au Ta
Sc Pd
Cr Te
63 5
97 23
118 67
ĠSeSb Ru
ĠS Ta
ĠP Rh
ĠP Ir
Al Fe
ĠPd Te
Ni Y
Mo Pd
Zr Se
Ta Zn
55 52
Cr Ga
Cd As
86 47
47 4
89 3
13 0
13 64
92 6
120 5
117 89
len ium
th ir
ĠP Nb
ĠSe Hf
Pd Al
Pd Cu
10 17
ĠRu Hf
Zr Hg
42 3
Pb Cl
ĠCs Cs
Na Au
29 2
four th
109 56
233 9
1224 9
thir d
3 13
t an
it ride
ĠS tan
Ġcarbon itride
ĠNi Cu
ĠSi Mo
ĠPd Cd
ĠCa Pt
Fe Ga
Pt Cl
ĠSb Ir
ĠSb Sr
ĠSr Pd
96 0
11 57
Nb Pd
Nb As
Sc Ge
16 0
ĠRe Ru
46 3
93 2
Re Ir
25 9
120 82
120 66
ĠTeTe Ir
ĠStan nite
l ut
ĠP lut
Al Pt
Fe Ni
ĠFe Mn
Rh In
Mo Ru
Zr S
33 8
11 96
Ta Si
15 7
Mn Os
ĠTl Te
Bi As
ĠPlut onium
2 40
m d
ĠP Os
ĠY Rh
ĠSb In
10 87
ĠBi Sr
ĠCd Ge
07 9
ĠRe Co
86 0
47 5
57 04
82 4
70 4
44 8
63 6
97 85
122 15
ĠPP Ru
107 93
107 73
569 8
1219 9
ĠPCa Si
981 3
ĠTi Tc
ĠZr Au
Ti Te
ĠAg Cl
12 22
Cu Sb
Hf S
Nb Se
89 8
65 6
65 9
83 1
120 63
ĠAsCa As
1072 7
ĠPRb P
5 54
7 23
ĠP Cd
ĠCa Ni
ĠAs Pt
Zn As
Hf Zn
Hf Mo
43 1
ĠBi Ca
Ru Ge
42 4
57 07
66 6
19 5
97 75
120 71
110 28
121 67
1224 8
6 45
N Cl
ĠNi Pd
ĠSe Nb
ĠSc Ir
Ti Fe
ĠCr C
10 28
Ga Te
Hf Au
Nb Te
Ta Os
Pb Bi
23 6
74 5
81 3
110 26
1 46
3 42
7 60
8 69
9 49
S S
ĠNi Re
ĠSi Rh
ĠSi Ir
ĠPd Ga
ĠPt P
ĠGa Ge
ĠTe Zr
Pt Al
Pt Ag
Pt Au
ĠSb Ca
10 02
ĠSr Cl
Zn Zr
ĠAu Na
09 0
11 56
Nb N
Nb Ru
ĠTc Re
Sc S
86 37
Sr S
Os Ge
79 0
Re Si
120 77
1079 4
7 85
Al Sc
ĠCu Ge
Ti Mn
ĠZn Ni
ĠTe Cr
ĠSb Y
ĠSn Cl
Hf As
Au Cl
07 3
Ca P
93 4
56 87
32 6
99 91
118 42
122 63
4 42
o b
Ġtetra fluoride
Al As
ĠNb Re
ĠSe S
Pd Ni
ĠGe Y
ĠFe Pt
ĠAg K
54 29
Nb Ge
ĠPb Rh
Au Cd
08 6
16 8
53 7
Mn Zn
66 3
70 1
79 9
Re Tc
56 1
Na Pd
63 1
122 57
3 01
7 82
9 88
W Pd
Ti Sb
ĠFe Rh
ĠNa Pb
Sb Cl
Co Ti
Ir Nb
Nb Si
69 71
Sc In
Ca Pd
Cd Ga
40 1
63 22
109 52
5 10
W Ir
t w
ĠI ma
ĠIn Ca
ĠCa Cu
Fe Cl
ĠNb Mo
Ti Zn
ĠIr Al
11 18
Nb H
ĠRb Se
Ca Sn
Cd Pb
86 22
Sr Cl
Tc Pd
73 5
81 4
34 8
120 33
ĠPCa P
tw o
7 86
ĠS Cl
ĠSe Ni
As Pt
10 68
ĠNa Cd
Ge N
Sb As
Rh V
54 25
Ru S
Sc Si
22 5
64 9
29 0
1 89
1 81
9 717
V Tc
ĠA em
ĠTi Mn
ĠNi Co
ĠGa Pd
ĠGa Co
ĠTa Au
ĠCo Re
80 5
ĠSb Al
ĠSn Sn
Sn Rh
Sc Ag
05 8
86 3
Tc P
Tc Ga
79 1
56 80
Na Cl
72 8
109 13
ĠSTl In
1 82
8 76
f if
Ġ2 8
Al H
ĠZr Bi
Ti Os
ĠMn Au
ĠNa H
Cu Ge
09 9
54 18
69 4
Cr Mn
47 6
52 4
110 38
107 89
1183 1
119 02
1080 6
108 74
nc c
fif th
1 45
ĠS Ge
ĠPt Cr
ĠAs Al
ĠCr Cl
Zn Ir
Mo V
67 9
Co Pt
Nb Mo
Cr Ru
Cd In
47 8
57 03
72 91
49 1
63 7
110 29
8649 84
c anite
n a
ĠN Ni
ĠV ul
ĠNb H
Pt Y
Pt Ni
Ge Si
Cu In
Ag P
33 4
ĠBi Sc
Ru Se
96 8
Sc Tc
Mn Fe
86 19
66 1
97 62
ĠPSr P
ĠVul canite
6 62
K Sb
V Te
W Cl
h os
p hide
Ġp hos
Ġ2 7
ĠA ma
ĠIn Cl
ĠNi ob
ĠY As
ĠZn Ir
10 84
33 0
ĠTc Pt
Sc Ir
16 1
22 2âĤģ
88 6
21 47
02 9
23 5
89 1
89 7
19 53
56 96
110 36
121 88
118 49
ĠSZn In
ĠSSb Ir
117 96
Ġphos phide
ĠNiob ium
2 93
P Ir
a le
d ale
ĠTi Cr
ĠMiller ite
Ti Ge
As Te
ĠGe P
ĠCo Ga
10 66
Ga Y
ĠNa Pd
Ru Ta
ĠPb Na
50 50
50 48
08 9
55 3
Cr Rh
88 4
06 0
ĠCs S
46 5
Os Al
Os Ga
56 0
44 9
72 9
ĠL ons
18 23
63 2
63 63
120 62
110 57
107 74
1183 0
ĠAsAs Os
ĠSSb Ru
ĠSFe Co
974 9
123 88
dale ite
ĠLons daleite
3 29
6 43
6 85
ĠH Hf
ĠNi In
ĠPd Fe
ĠHf Sn
ĠPt Y
20 06
ĠSe lenium
Ti Co
80 7
ĠFe Pd
ĠFe Ir
10 27
ĠSr Tl
Cu Zr
Cu Cl
ĠIr Fe
Sn Cl
ĠPb N
Sc Cd
82 7
75 1
24 1
25 83
49 5
120 69
121 69
118 96
118 75
1080 4
Y H
o di
Ġtri odi
ĠB is
Pd Te
Zn Ge
Ag S
54 16
Ta Mn
ĠCl Pb
Cd Sb
86 96
ĠHg Hg
ĠCs Se
57 05
109 51
105 8696
Ġtriodi de
ĠBis muth
7 74
ĠAl Ga
ĠSi Os
20 7
ĠAs Ta
ĠTe Zn
10 62
ĠSr Pt
Ga Cl
ĠNa Pt
Ag Se
ĠBi Ir
Ir In
11 98
42 5
ĠOs Sc
Ca Ag
ĠTl Ti
86 52
47 0
40 0
Tc Pt
65 1
79 8
56 89
Tl Cl
99 93
122 62
102 57
569 0
213 59
ĠPY P
2 67
2 84
6 12
Fe Rh
Ti Tc
Pd Se
ĠTe Hg
ĠSb K
10 06
10 227
ĠSr Ca
ĠK In
Zr Ru
Ru In
11 94
69 07
Ta As
Sc Pt
Ca Rh
71 9
62 6
75 9
60 1
110 63
8673 51
3 14
h r
ĠC lat
ĠC Cr
ĠC Mn
ĠP Cu
Si N
Ti In
Pd Cl
ĠFe V
ĠAu V
ĠAu Si
Sn N
Ag Cu
54 8
Au Pb
53 02
ĠOs Te
47 9
75 65
Os Rh
Tc Ni
Re Os
Hg S
29 5
13 164
ĠSP Os
hr ate
ĠClat hrate
1 85
3 93
V Pd
W Al
ĠV Ga
Ti Ru
ĠAs Pd
ĠTe Se
80 6
Pt V
ĠSr Se
ĠNa Au
12 32
Ru V
Ir Ru
11 92
Nb Pt
07 8
53 0
83 8
18 7
Tl S
14 83
120 57
120 90
110 21
867 780
1187 474
11880 61
1246 3
171 90
10179 83
1 487
3 12
9 939
K Ag
V Co
V Ru
Ġ2 6
ĠAl Fe
Al Sb
20 70
ĠGa Cu
ĠV Al
Si H
ĠTa Mo
ĠTa Co
ĠSb Os
10 61
12 35
Hf Ru
Nb Cl
Au Zn
ĠNH S
53 4
53 5
Ca As
Ca Co
Ca Tl
15 965
23 54
56 88
Na Ag
17 86
98 54
120 74
122 50
114 54
ĠAsAs Pd
1187 541
1219 0
ĠHCa Ni
ĠSSb Rh
ĠSSb Os
ĠCc cm
ĠSBi Ir
12172 55
6722 32
10788 67
1178 7
12174 07
6846 02
3 16
5 105
Y Se
ĠN Co
ĠSi Cr
ĠZr Sn
20 418
ĠV Mo
ĠCu As
In N
Ni Bi
Pt P
10 42
10 14
Te S
Mo N
Sn As
54 07
Ir Zn
69 85
Mn Ir
71 92
23 02
79 5
68 49
18 4
99 53
Rb Au
120 09
122 74
122 61
1216 0
119 46
1187 665
106 1133
1189 573
974 4
1077 503
8 462
S V
p rite
ĠPd Cr
ĠPt H
ĠV Cl
ĠCu prite
ĠAs P
In Pt
ĠTe Cl
Pt Rh
ĠMn Ni
ĠSn Ta
ĠAg Sr
Zr Cu
Ag Zr
Co In
Nb Re
88 86
23 19
73 6
Re Rh
60 43
97 89
91 7
00 3
110 1
110 19
1079 8
1186 427
308 71
308 76
106 42
568 792
979 9
1208 852
7 08
K Pb
S Zr
W Os
Y Fe
ĠH Ni
ĠRh N
Ti Cd
ĠAs Re
ĠTe PIr
ĠCr Sn
Pt H
ĠAg Ge
Rh Sb
11 80
53 6
ĠOs N
ĠOs V
15 63
Cd Zn
89 39
93 0
25 10
Na Pt
97 16
30 500
00 0
110 41
110 49
122 86
114 20
ĠCoP S
102 50
569 249
867 9
1217 422
MoS Se
570 691
1007 786
303 66
1207 024
10797 96
10727 24
W Ru
n mc
ĠH K
ĠNb Au
ĠMo V
ĠMo W
Si Pt
ĠY Pb
Pd Hg
ĠCo Cr
10 015
ĠNa K
12 110
12 137
Zr W
Co N
Nb Ga
Ta Rh
ĠTc Cl
Sc Te
16 20
Ca Fe
Mn S
57 8
Sr Ru
56 85
56 81
78 46
59 2
Tl Se
63 0
1186 437
1018 124
156 81
165 21
9743 76
273 2
12163 23
616 559
11878 16
10956 69
1156 3
1 76
7 66
8 46
8 75
9 91
Y Ru
ĠAl Cr
ĠAl Os
Al Mo
ĠPd Cl
20 928
ĠGa Mo
Fe Al
ĠMo Ta
ĠSe Al
ĠCr Ga
Pt Ru
12 39
Mo Ta
Hf Ga
67 1
33 2
07 2
16 42
22 337
88 1
ĠTl Pb
86 24
86 38
06 8
62 4
74 8
89 2
Sr Cu
Na Pb
27 33
98 33
110 52
Cs Hg
114 11
1216 530
1220 4
102 93
569 785
101 55
1217 895
570 428
11846 50
1120 769
10942 55
11032 11
12290 12
10800 01
5429 15
1 72
2 560
5 62
7 73
n b
ĠTi Re
ĠPd Re
20 34
ĠV Cr
Pd Tl
ĠCr Pd
ĠSb V
ĠSb Sc
10 559
ĠSn Cr
Ge Sb
Mo Ir
67 55
96 6
Ir Rh
Sc Os
85 8
ĠHg P
60 0
Na Cd
13 59
27 05
110 10
109 10
109 41
122 72
196 3
1220 023
569 3
1069 8
ĠPc c
1652 6
1193 0
10142 31
ĠAsFe Ni
9720 71
976 128
12242 98
9785 31
11842 65
6 âĤģ
7 33
S Cs
V Pt
m nc
ĠS Pd
ĠH V
20 59
ĠSe Pd
ĠSe Hg
ĠZn In
ĠFe Cu
ĠSb Mn
10 71
10 30
10 025
12 108
Zr Cr
Hf Fe
Hf Se
11 192
Nb Co
Au Tl
ĠCd N
Sc N
05 9
22 71
15 649
Cd Sn
Cd Cl
40 2
06 2
57 9
Sr Hg
Na As
63 72
107 82
308 11
1018 113
1223 8
974 335
133 7
979 115
1072 645
126 14
11040 47
177 06
10642 27
1 41
2 87
2 108
2 670
K Na
S Cl
V Re
x Sn
ĠHf Te
ĠPt Cl
ĠMo Ge
Si Se
ĠCu Fe
ĠY Co
ĠRh Co
Pd Ta
ĠAs Rb
ĠGe Fe
ĠGe Hf
ĠTe Ca
ĠW W
ĠCr Ge
Pt Se
ĠSb Hf
ĠNa Ag
09 7
ĠK Pb
Mo TeSe
Co Ru
ĠBi K
11 809
Ta Ni
Ta Ge
ĠTc Y
55 2
ĠOs Y
15 15
21 87
57 4
89 37
93 7
Sr Ca
Os As
19 22
24 8
24 55
72 7
51 3
49 9
ĠPn na
13 156
27 67
120 78
1216 195
569 776
1069 2
11846 33
ĠSSn Pt
1652 9
9743 58
159 53
10942 67
ĠSAs Os
ĠSeAs Ru
1133 4
197 24
8646 47
ĠAsSb Ir
ĠSbAs Ir
1259 5
9762 73
1014 111
9799 11
2 46
2 65
2 105
5 86
7 092
9 938
l w
ĠAl Ru
ĠTi Ru
ze lw
20 576
ĠSe Cl
ĠY Cl
ĠTe Cu
ĠCr Co
10 000
ĠAu Zr
Zr Au
Sn Si
Co Ir
43 2
Ru Ti
11 506
07 6
ĠRb H
22 568
53 2
ĠOs Sb
ĠTl P
57 11
75 98
Sr H
73 4
60 49
63 98
ood ite
17 123
Rb Ga
110 11
ĠHa zelw
867 7
mb c
1221 420
1188 800
124 67
133 9
8655 27
208 47
10253 97
ĠSMn Cd
179 74
10255 13
9720 69
12166 21
282 4
680 576
8661 86
12070 13
5425 69
11930 55
ĠHazelw oodite
3 81
7 790
9 25
P Cl
V Al
ĠS C
20 695
ĠV Os
ĠAs Na
Ni Pd
ĠCo N
10 96
ĠSr Te
Ge C
12 60
09 5
33 42
54 12
Ir Mo
11 573
11 328
Ta V
55 6
16 074
88 3
15 23
Mn Pd
23 8
23 77
57 5
57 1247
57 1199
70 45
83 6
Re Ru
68 7
63 9
29 8
13 57
13 155
120 68
110 42
121 81
114 81
1216 825
1216 231
ĠMoTe Se
308 36
1078 697
127 78
220 33
304 83
999 502
1199 529
188 7
12166 55
ĠCrSb As
5679 29
297 67
ZrP P
12066 59
4 50
5 1069
9 969
K Bi
W Mo
al la
Ġp alla
ĠN Ga
ĠP Se
Ġal uminum
ĠCa Al
20 800
Fe Ir
ĠCo Ni
ĠTe V
80 8
Pt Te
10 052
10 201
ĠNa Tl
Sb Ru
12 78
12 107
Rh Pb
Zn Cl
Cu Ir
ĠIr Cl
Mo Co
Ru N
11 549
11 456
11 690
Nb Zn
Au Sb
05 80
21 80
21 328
86 40
23 9
19 89
19 00
Na Bi
30 673
30 674
110 33
110 35
107 0580
1079 127
1079 438
1217 092
1217 804
308 52
1188 926
11869 16
113 22
108 47
103 88
10180 56
974 421
1077 723
1069 5
12203 23
12155 18
ĠPmn a
274 13
202 63
200 33
607 111
983 5
188 2
11032 12
1214 889
9722 28
11030 38
12195 09
5426 40
9775 85
301 80
9789 74
6398 74
51069 1
Ġpalla dium
3 63
4 86
5 803
6 22
8 19
P N
V P
Y Sb
f ive
ith ium
st ibit
ĠP Te
ĠP Mn
ĠP AsPt
ĠH Rh
ĠTi Os
Ġl ithium
ĠG Pa
20 86
20 672
ĠSe Ga
ĠSe SiPt
ĠTa NbW
ĠSc Se
Pd Pt
In Sn
ĠTe K
ĠCr Pt
10 24
10 744
12 12
12 524
Rh Ru
Zn Te
ĠIr Hf
Ag Te
Ag Cl
67 26
54 7
Ru Ni
Ir Pd
11 191
ĠPb K
69 38
ĠTc Zr
16 38
ĠCl Ca
ĠCl Cd
22 43
Bi P
23 22
89 0
82 82
Tc S
24 082
59 0
13 8
14 12
94 81
30 675
30 501
120 15
110 5302
118 70
102 85
1183 222
1219 503
1217 081
308 46
1018 121
1018 105
ĠNZr Zn
11869 01
ĠChalco stibit
113 29
1184 558
ĠSBi Pb
127 72
220 40
166 09
1077 116
136 88
1009 834
204 05
ĠSeRb Sb
5708 95
159 54
8673 47
9989 81
173 9
12164 80
9720 88
12073 80
5686 07
10181 53
ĠNNa Ta
1147 7
11020 18
542 634
669 917
11789 83
5687 89
1084 800
5048 12
329 94
12057 86
9744 55
ĠAsP Pt
5803 57
ĠPTe Ir
ĠPMn NbP
ĠChalcostibit e
2 677
6 05
9 15
W C
ĠP Ru
ĠP Hg
20 191
Fe Ru
ĠTa Re
Pd Y
ĠFe Al
10 94
10 229
10 125
ĠMn Cl
ĠNa Ge
12 51
12 802
54 3
54 09
Ru Pt
ĠRe Ta
ĠRb P
ĠOs Se
ĠOs Cl
Mn Ni
Mn Co
Cd N
21 104
23 279
Os Se
24 80
Re Ta
56 82
78 7
59 7
Tl In
13 26
26 14
27 83
30 337
30 338
110 56
110 61
114 71
1220 003
569 426
119 10
ĠFeSb Te
1217 894
1221 484
1018 103
112 90
112 27
1223 9
ĠSnTe Pd
11869 67
ĠSCo Cu
220 50
10180 55
133 5
1072 429
1072 744
186 22
307 44
1652 8
755 8
311 72
169 9
ĠSAs Ru
5710 30
ĠSeAs Os
ĠSP Ru
8660 46
12170 48
11907 74
326 54
11038 42
1066 136
10804 93
1 459
1 476
2 540
3 51
5 50
9 52
ĠS Ga
Al Se
ĠCa Ti
ĠV Tc
ĠRh Hf
ĠZn Ga
ĠTe Sr
ĠW V
ĠSb Ga
10 89
10 136
12 13
Ag Hg
96 16
11 803
Nb Ni
Nb Sb
50 46
Sc Fe
16 01
16 27
ĠRe Al
05 6
22 192
Cr Cl
15 82
Mn Ru
40 4
23 95
62 54
19 41
24 20
Re Al
Re Se
25 1
41 4
29 4
29 9
13 45
27 166
17 25
114 53
107 7045
102 60
1183 214
1079 5
867 2
1219 4
1018 156
ĠSiN Cl
112 29
1078 123
1223 977
106 6254
115 50
10180 29
167 19
568 718
305 94
11846 32
ĠPc a
1652 3
8653 42
8653 57
8653 62
983 459
978 498
12288 15
10181 48
1070 103
11836 47
985 825
183 6
10969 94
12174 09
276 06
11871 96
12206 45
11877 02
1017 545
554 462
6907 60
11803 09
5046 59
1 826
5 10032
6 44
9 87
9 90
9 895
âĤĥ âĤĤ
Al Y
ĠSi Ru
ĠCa Fe
Fe Cu
ĠV Sb
ĠRh Mn
Pd Sb
Ni Sn
ĠGe Zr
ĠW Hf
Pt Sb
10 52
12 102
Cu Hf
Hf Ge
Ag In
Ag Ca
54 61
43 9
11 441
15 78
86 39
23 61
23 206
93 6
Sr N
Sr Pb
73 2
65 5461
19 73
79 4
79 7
25 82
58 7
13 503
97 65
97 3342
99 70
30 671
110 9
110 25
121 78
109 01
122 80
1216 851
102 54
1079 2
1079 296
1079 460
1079 182
1186 024
119 09
867 281
1187 241
ĠSeNa V
1080 448
1188 336
112 30
113 97
220 95
1007 692
167 23
306 85
305 81
1077 466
12243 83
571 3
571 557
11860 55
1207 100
133 64
136 83
979 2
866 121
11846 58
274 10
208 49
1008 634
5708 70
311 44
164 88
11879 13
10954 95
273 1
989 782
174 13
11043 41
12173 63
11007 73
11031 77
706 531
5698 33
8637 50
9991 33
6322 86
510 209
11849 05
11796 05
11896 96
1061 861
622 209
1 1220
1 825
2 121
2 758
5 104
6 96
7 10
7 67
8 22
9 84
9 827
Y Cl
ĠN S
ĠAl Tc
Al Te
Al Sn
ĠSi Cl
Si Cl
ĠRh Hg
Ni CoGe
ĠGe Pt
ĠCo Sn
ĠCr Fe
Pt Ti
Pt Hf
ĠSn Bi
se ven
Rh Ga
Rh Hg
Cu Bi
Zr Ag
Ag Pd
33 3
Co Bi
ĠBi Sb
Ir Ta
11 714
ĠPb Pt
ĠCd Sr
Ca Te
Ca Pb
15 22
Bi Te
86 35
02 7
46 47
75 09
75 54
Re Pt
25 93
Hg Se
60 4647
Na Tl
72 63
04 8
13 853
01 7
17 695
31 348
122 70
114 12
206 69
1220 635
1183 209
1186 964
119 57
1187 884
567 822
1217 113
1018 166
1188 462
1188 292
1188 869
112 31
1223 755
1223 860
11869 70
ĠKK As
108 7509
124 55
115 65
1007 691
1007 730
166 08
568 232
306 82
571 499
12180 17
12203 22
1103 536
ĠTiH N
999 549
210 12
213 42
274 11
126 57
12172 10
10942 72
12179 71
9989 49
607 138
6722 22
ĠSAs Rh
10786 66
11032 52
1209 024
978 553
ĠSP Ir
ĠSeGe Pt
199 05
11840 11
12195 33
1191 538
9896 95
12152 57
5424 54
11907 36
1259 4
240 3
5704 91
9991 43
12261 70
12286 07
9792 61
1 894
2 75
2 693
2 430
3 21
5 546
6 42
7 818
9 09
9 122
Y Ir
ĠP Cl
âĤģ âĤĪ
ĠSi H
ĠZr Ag
20 27
20 539
ĠCo Mn
ĠW C
ĠSb Na
10 21
12 561
12 735
Cu H
67 220
Ta Ga
08 5
16 82
22 94
88 8
02 20
Tc Si
83 0
81 7
64 19
49 2
63 8
13 5
97 55
97 46
99 54
27 165
Rb Cl
120 0220
121 77
Cs Ga
122 69
122 85
114 16
1216 675
1216 242
1220 0
1220 327
102 96
102 40
1183 227
1079 297
569 535
569 727
101 88
1215 274
1217 163
1018 151
570 197
1184 119
1184 693
167 18
568 115
306 83
1025 223
1009 460
12155 09
999 204
1008 601
155 2
1199 503
9989 72
10786 02
10142 29
10799 10
12053 46
5686 46
242 86
12070 04
11874 86
11026 57
1002 122
11902 67
11036 43
12069 27
7846 30
5546 09
67220 4
2 503
8 23
Y Co
Y PtGe
s ix
ĠP ma
ĠP NbP
ĠP CuP
ĠIn V
ĠZr Os
ĠGa Tc
ĠSe V
Pd Mo
As N
Ni Ru
ĠGe Cr
Pt Pd
ĠSb Pd
10 22
10 64
10 487
12 79
12 81
12 700
ĠRu Nb
Sn Ru
Ag Ga
54 17
54 28
ĠBi PtCl
Ru Zn
11 52
11 59
11 35
11 541
Ta Co
Sc Au
16 514
88 60
Pb P
06 4
23 69
23 79
57 09
57 37
Os Zr
24 49
56 13
25 17
51 8
13 41
121 47
Ġbipyramid al
109 50
ĠNCa Mo
206 85
1183 216
1187 258
1224 475
1217 961
1018 672
100 54
ĠAsTe Os
113 93
862 798
306 86
571 342
972 889
280 56
280 29
280 26
1009 6
204 83
165 22
1208 406
1008 555
755 328
ĠTeAs Os
10786 38
557 096
5710 59
12067 04
11879 74
849 059
5677 05
5716 64
680 570
12159 97
174 9
985 806
793 1
5702 87
5673 45
153 6
8678 41
170 45
ĠAsSb Rh
ĠSbAs Rh
1205 858
5698 15
10794 67
6322 19
5696 24
12062 68
10227 21
5105 22
10798 10
176 15
10388 28
11061 69
1064 981
5613 20
0 37
2 1187
2 698
3 74
3 1214
6 55
7 526
N S
V Fe
ĠAl Re
ĠH Cs
Al Co
ĠSi Te
20 327
ĠGa Bi
ĠMo C
ĠSe P
Ti Ir
As K
ĠFe Ni
Pt N
10 20
10 886
NH S
12 64
12 99
Rh H
Rh N
Rh Y
Rh Pd
Cu Rh
Cu Pb
ĠAu K
Mo C
Zr Os
Sn Ge
Ag As
Ag Pt
54 22
43 06
Ru P
Ru Zr
07 1
Ta Cl
Sc H
16 28
16 960
ĠCl Ag
ĠRb As
22 58
15 85
15 624
Bi Zr
23 05
23 49
23 48
74 44
Os N
70 3
83 72
Hg Cd
76 67
13 871
14 15
32 697
26 12
110 04
121 4306
1220 401
102 12
1079 082
1018 123
1018 128
1080 586
112 56
570 451
115 07
220 75
10180 27
305 72
1025 159
1105 935
1105 835
1105 666
133 65
11880 08
999 192
1102 895
1008 632
5708 32
8654 30
223 18
1104 165
10942 54
310 10
557 719
11023 64
12073 93
5706 51
9722 20
11836 43
8660 22
1056 037
5424 84
12206 57
309 33
1087 219
6971 79
11831 44
10806 08
991 544
12015 60
1 502
3 62
3 17
5 20
K P
ĠN Mo
ĠTi In
ĠHf In
20 82
20 862
20 900
ĠCu H
ĠSc Mn
Ti Sn
Ti Hg
Pd As
In Te
ĠCo NiTe
ĠTe Rh
ĠFe Co
10 73
10 10136
ĠSn Mn
Ga C
Ge P
12 11
12 104
12 777
ĠRu Ge
09 1
Hf Mn
33 06
Ir ZrSn
11 15
11 108
Nb Au
Au Sc
Ta Se
Ġ8 1
85 9
22 555
22 704
15 26
Mn Sn
Cd Ca
ĠCs H
23 63
93 1
Sr CaSi
Os Te
73 43
24 50
Hg Te
60 80
64 98
63 980
63 6498
26 85
99 98
17 55
17 728
30 336
120 1836
110 22
110 24
110 186
118 3306
107 11
1220 678
1183 137
1183 777
1183 627
1183 517
569 289
1186 853
119 08
119 72
1187 525
1219 539
ĠCSi H
1221 3
308 82
1018 717
1018 129
ĠCdAs Cl
112 88
112 28
1078 213
100 04
ĠAsTe Ir
1184 713
10180 54
10180 28
865 166
167 56
305 27
303 67
ĠTeSn Pd
296 46
296 19
11860 16
212 6
304 71
209 05
ĠSeSb Os
ĠSCr Cu
5708 96
ĠTeAs Ir
977 129
850 131
10786 65
10799 14
10255 51
171 73
11030 44
211 62
5679 20
1056 438
180 32
10239 24
9723 26
240 4
5704 83
10793 99
SS Os
10794 96
12033 24
1198 692
9993 18
11021 31
12190 06
1101 121
11011 45
12068 19
11035 12
990 090
63980 5
110186 0
2 500
2 637
4 46
4 45
7 62
B a
S Y
Y WN
th ree
ĠAl CrFe
ve ll
ĠSi Al
ĠHf Rh
20 53
20 555
ĠGa Ru
ĠCu N
ĠZn Cd
ĠCo vell
10 106
ĠSn Ca
Zn H
Zn Ti
Zn Sr
Cu O
Zr MoAl
54 1582
11 460
Au Zr
Ta Tc
ĠTc N
55 55
55 65
16 83
05 1
05 7
05 32
22 45
88 80
Cd Y
Bi Sb
Pb SnS
62 87
Tc Zn
19 84
19 814
24 90
25 12
72 6
18 22
18 192
97 6971
99 0532
27 15
17 43
17 93
Rb Hg
121 75
Cs Sb
196 9
1183 205
1183 998
569 867
1186 444
1187 697
567 832
1219 734
1080 443
1188 283
1188 413
112 63
1078 699
ĠPFe Si
ĠNTa Mo
1223 714
ĠSeCs Bi
1189 099
127 24
124 69
974 430
306 19
306 84
1077 083
1025 9
973 100
973 149
1105 852
972 876
12154 97
573 691
12289 47
210 48
223 20
12067 80
12067 43
10142 30
175 93
10181 54
282 66
5716 40
10955 92
174 49
780 6
154 3
177 57
153 4
HfCu Ge
8678 16
170 13
1196 961
636 334
1002 106
12033 53
10951 77
6372 55
11042 75
5104 12
ĠCovell ite
2 71
2 678
2 451
3 76
4 09
4 81
5 837
7 539
8 48
9 828
V Ir
Y P
Y S
rom ium
ĠSc H
80 1
ĠFe H
Ga Pt
Sb N
Sb P
12 97
ĠK Fe
Zr Tc
11 546
Ta Pd
ĠTc Ta
16 48
16 30
22 23
22 82
Ca Bi
Pb As
ĠCs Te
23 18
23 159
Sr Bi
Tc Ta
73 8
73 02
73 90
45 8
19 25
72 60
04 9
32 616
99 20
99 25
35 09
27 86
98 2070
120 59
110 50
109 05
122 75
122 45
122 87
1220 085
569 979
1186 014
1186 374
119 43
119 22
867 5
1187 717
1187 077
567 082
567 612
1217 166
1217 429
308 35
308 28
1018 100
1018 125
1188 890
100 47
100 3509
106 2030
ĠCh romium
ĠSCo Ni
113 87
115 71
865 899
167 2
303 52
1105 651
1105 078
12180 44
117 65
1009 756
1103 139
304 81
ĠNAl Ga
210 93
1023 934
1225 998
5708 44
980 420
8653 85
8653 82
200 50
12164 46
175 64
5677 47
228 72
989 737
11872 43
5055 27
9773 90
215 89
300 45
11871 97
6723 26
12244 85
1157 2
12077 81
5687 46
9717 79
10913 87
10774 82
11830 40
1006 132
11946 53
5681 72
172 16
11056 33
11910 83
10254 48
984 698
5837 40
7539 21
1 501
1 431
2 66
2 857
5 11
5 81
9 56
W Re
ĠTi C
ĠZ int
20 39
Fe Ge
Si Sb
ĠSe Tl
ĠY Pd
ĠTa Mn
ĠSc Tc
Ti Re
In Cl
In Pb
Ni Zn
ĠTe Tl
10 63
10 569
10 636
ĠNa Si
Zn Hg
09 3
Mo Re
Sn H
Hf Cd
Co Cu
ĠBi Na
Ir Cu
Ir Bi
11 514
ĠCd Ni
08 94
Sc Bi
ĠCl Hg
22 236
15 89
15 81
15 670
Cd P
21 79
86 42
86 62
Pb Mo
23 164
62 1581
75 64
Sr Ni
Sr Sb
Sr Tl
19 713
Re W
Hg Zn
72 62
13 73
13 63
97 69
32 679
37 60
26 86
27 258
17 332
30 464
31 205
Rb As
120 0894
120 3760
110 188
Cs Sn
Cs Au
122 64
1216 498
107 1078
1220 634
1183 224
569 678
569 522
569 989
1186 231
119 06
567 871
1217 111
1221 4
1221 429
1080 2
ĠSNa Cr
112 61
1223 503
11869 26
ĠSCo Rh
113 45
ĠNY Sc
1184 676
1184 058
127 23
1007 758
1077 232
303 54
303 83
12243 90
972 9
8655 65
280 8
11846 81
304 96
573 514
186 09
307 45
179 1
1228 491
8654 25
9989 79
607 450
6722 41
5710 53
11847 72
198 80
198 79
8627 70
12288 82
205 81
12073 92
ĠNSc Ti
1214 894
1070 544
5706 32
1147 714
975 834
142 85
5055 10
5702 76
11017 83
ĠCmm e
6723 13
9723 51
10773 72
12063 71
145 8
685 124
5688 65
11787 42
5412 89
12181 77
9746 20
ĠZint l
10569 85
110188 4
2 50
7 71
7 541
9 10
9 21
9 45
K Fe
K Se
K Cu
Y CoGa
e a
ĠC Ca
ĠA ea
ĠNi N
ĠZr Mn
ĠCa Mn
20 52
20 49
20 745
Fe Pt
ĠY H
ĠY AsSe
ĠTa MoS
Ti Ag
Pd Pb
Ni Cu
ĠFe Ru
10 157
ĠSr Ag
ĠSn Co
Ge Pt
12 44
12 58
Zn Sn
Zn Tc
Cu N
Cu Pt
Sn Bi
Ag Sb
67 53
ĠBi SbTe
Ru Cu
11 75
11 462
11 675
Sc As
ĠCl Tl
ĠOs H
ĠOs Ge
Cr Ni
Ca S
88 81
86 25
86 28
52 3
46 1
74 9
74 98
Tc Cl
56 4
25 16
Hg Ga
Na TiS
Tl Ag
58 20
97 6847
90 16
27 52
98 47
110 51
121 82
118 50
114 07
114 82
107 2086
102 63
1079 131
1079 938
569 322
569 250
1186 175
1186 230
119 9016
1224 803
308 85
308 56
1080 522
1078 443
11869 74
ĠPSn P
1189 230
ĠTeGe Pb
220 79
166 10
12243 91
11860 50
972 828
1229 092
1009 730
1246 5
304 85
573 579
999 544
210 65
229 24
ĠInSr Au
8653 55
1199 934
YAg Se
10942 48
6722 56
ĠSAs Pd
ĠSAl Zn
ĠSAl Mo
10799 45
978 546
ĠSeAs Rh
247 26
12053 01
ĠSeMn Zn
1067 210
5683 28
11840 21
11872 57
11845 11
278 21
5673 97
ĠTeSb Ru
10179 85
11017 54
178 80
178 48
5712 64
11867 60
5552 83
10773 65
9813 83
10727 12
8637 20
CaPd In
10789 89
5703 62
6363 68
9749 20
11875 91
1062 804
9993 76
6849 03
1180 659
nb c
10559 94
11010 99
5409 12
12102 15
9765 89
11957 35
1 700
2 700
2 648
2 663
3 50
5 96
6 47
6 200
6 851
7 674
8 73
8 200
9 24
9 95
K Cl
S N
ĠC S
Al Re
ĠPd Se
ĠZr Ru
ĠCa Co
20 549
20 131
20 526
20 027
Si Sn
ĠY Ru
ĠSc Hg
Ti Cu
Pd NiSi
As Zn
As Cl
10 49
ĠAg Zr
12 628
Mo Zn
Zr Co
Ag Au
Ru CoAl
Sc P
Sc Hg
16 37
ĠCl Cu
05 3
22 21
22 693
86 8
Sr Te
73 72
66 0
83 12
19 0
19 14
18 48
76 1
13 71
97 6419
61 1219
Rb P
Rb Te
120 32
Cs P
1220 052
102 76
1186 017
119 01
101 72
1187 881
567 540
1217 168
1221 7
308 75
1018 115
1188 393
112 39
ĠPZn P
1184 670
1184 502
ĠInSb Te
1007 656
305 71
296 61
973 1
280 2
280 7
280 9
212 94
304 12
307 87
1023 926
5708 75
555 935
980 094
9743 26
1104 898
169 8
11847 04
1209 498
125 93
5686 19
228 12
10955 78
558 552
211 82
154 7
1179 520
8626 20
1017 531
10952 69
145 87
11849 94
6363 28
9716 61
10250 44
9833 88
2059 9
six th
6080 72
6200 32
7674 69
1 434
2 55
2 77
2 828
2 856
2 701
2 578
3 1219
5 16
5 83
7 88
9 227
P Te
n ner
re nner
Al Nb
Al Ta
20 76
20 648
20 291
ĠSe Sc
Pd Sc
80 46
80 73
80 91
ĠSb Zr
10 05
10 026
10 861
10 014
ĠSr CaSi
Ga Nb
ĠNa TiS
12 10
12 459
Cu InS
ĠIr Ca
ĠK renner
Mo Os
Hf H
Ag Sn
54 11
96 2
Ir Co
Ir Cl
11 95
Nb Sn
Nb Os
Nb MoSe
Au Ga
ĠTc Os
55 88
16 06
ĠRe Cl
22 856
Cr Ir
Cr Tc
Ca Sb
15 50
71 40
Bi Rb
21 72
74 93
19 19
Re P
Hg Bi
Na Se
72 73
59 4
18 76
13 80
32 861
27 75
27 81
27 731
30 463
28 116
31 105
120 65
120 64
110 62
110 18
118 43
118 85
ĠMoS Se
1216 505
107 83
107 7263
1220 631
1183 501
1183 484
1183 710
1079 832
569 095
119 21
119 40
119 1079
119 8091
867 212
1187 073
567 860
567 597
1080 831
1188 155
1188 645
112 86
1078 4
12243 88
11860 47
1207 251
1229 048
979 423
212 89
1009 733
12289 01
165 11
1225 186
980 949
9743 70
311 38
1193 756
202 50
8673 56
200 34
310 86
5710 60
288 79
12053 21
10788 75
5716 51
8660 06
776 470
8616 10
12247 96
864 889
10969 15
11007 95
6723 72
8651 76
10796 81
134 50
6846 50
12082 73
1196 393
949 029
863 648
5680 67
8619 10
5050 02
12059 55
11922 51
ĠKrenner ite
1 451
1 444
2 103
4 89
5 1009
6 18
7 46
8 11
9 47
K Te
P K
S H
S K
V Rh
ĠS ul
âĤĦ âĤĢ
ĠNi Ru
ĠHf Sc
20 628
ĠSe CoNi
ĠCu AsS
Pd Ge
Pd Ru
Ni Ge
ĠGe Al
80 41
Pt Sc
ĠSb N
10 82
10 759
ĠNa Cu
ĠNa Nb
12 109
12 124
12 857
Rh Cu
Zn SiAs
Zr Re
Hf Bi
67 59
67 36
54 10
Ir Sc
ĠPb Hg
50 53
50 47
50 57
50 49
16 64
22 700
22 735
ĠOs Nb
88 7
Cd Al
21 673
86 48
Pb Ge
06 6
74 40
74 46
74 41
89 73
89 48
Tc N
66 4
24 154
Na Cu
68 4
51 93
49 7
13 40
13 93
13 04
13 92
92 7
92 62
27 164
17 094
30 672
30 478
110 60
110 5552
Cs In
118 19
109 09
109 5683
1216 575
1079 0
1079 776
569 544
567 276
1215 543
1219 522
1217 08
308 40
308 84
222 11
ĠSNa In
112 9
1223 773
570 553
103 9262
1007 760
10180 59
1105 127
156 50
12154 88
12154 01
8655 98
ĠSeRb Bi
ĠSSn Sb
307 97
307 17
164 81
1226 086
12179 15
9989 85
850 083
12171 92
169 0
12067 41
11847 91
11879 46
203 82
1067 627
5683 76
12163 25
5706 84
283 91
11840 18
11878 11
142 88
1178 745
8657 33
300 21
11834 55
8659 10
218 73
1106 023
8626 21
1019 052
11867 81
11789 52
12199 22
5707 51
1068 446
5680 77
10789 96
11831 43
5690 37
10227 25
12090 03
12009 88
11052 96
10941 40
298 41
5682 93
8672 62
10792 69
6287 66
1063 670
11921 75
51009 9
ĠSul vanite
12124 07
6736 33
1 47
1 44
2 576
2 534
5 826
6 10
6 08
7 631
9 94
H Cs
K Ge
K Cr
P P
W Mn
Y Os
Y Tc
Y TiGe
h il
n nc
ĠH Cr
ĠH yd
ĠNi Cl
Al Zn
ĠCa MnSi
ĠPt SeS
20 311
Fe Bi
ĠNb WS
ĠNb MoSe
Si Re
ĠCu Pt
ĠSc Ru
ĠAs Ir
ĠTe Pt
Cu Tc
ĠIr on
Zr PtAl
up hide
Hf V
Hf W
Hf RhSn
Ag Tl
33 112
54 06
Ir Au
11 11
11 73
11 693
Nb C
Au Hf
ĠCd In
50 22
Sc Pb
ĠCl In
22 11
22 91
Ca Ga
Ca Mn
Ca MnSi
15 91
ĠTl Hg
71 89
23 98
89 36
rop hil
Os Pt
Tc Cu
65 8
19 4
19 67
19 932
24 161
Re Pd
56 10
Hg Cl
13 95
13 876
97 7189
32 630
99 07
99 45
27 80
28 15
110 46
110 39
122 52
122 84
114 40
ĠDis uphide
569 794
1186 100
1186 158
119 77
119 1483
101 93
867 303
1215 6
308 67
1080 797
1188 662
1078 755
1078 500
ĠPbTe Pt
11869 55
11869 90
570 670
113 42
ĠNY W
1184 478
1184 808
115 21
115 66
1007 755
306 68
1025 8
571 547
296 42
CoNi Te
TiAl Au
866 161
204 33
1103 570
ĠPTi P
12155 98
209 16
210 68
1023 937
1225 656
CoAs Se
1247 4
9743 41
1199 938
311 50
1226 096
1120 774
850 014
ĠSAs Pt
131 47
10142 19
11847 03
10799 97
8627 79
ĠSeAs Pd
ĠSeAs Ir
12164 86
10181 49
1185 202
11020 30
5679 07
754 064
11845 91
140 0
542 570
1179 336
5673 79
12157 83
193 6
1106 195
8626 55
5707 86
5707 44
11026 16
ReSi ReSi
5425 87
181 67
5418 44
11902 74
5703 77
11063 81
5407 91
6849 89
6043 21
ĠAsRe Ni
5685 95
1071 777
6049 08
7554 53
1021 498
5428 12
ĠSeP Os
11908 41
11051 34
5826 81
PP Mn
ĠHyd rophil
ĠHydrophil ite
1 853
2 86
4 88
8 426
9 53
9 13
W NiP
W FeSi
Y IrGe
Ġm vc
ĠIn CuS
Ġre d
Ġse lenium
ĠPd S
ĠZr Cd
20 123
Se N
Ti TaFe
ĠAs Cr
In Al
In As
ĠFe Mo
ĠSb Cd
10 60
Ga Ni
Ge Pd
Rh Ge
Rh ZrSn
Zn Si
ĠAu Sb
ĠAu Pb
Mo Ni
Ag Bi
54 30
Co Os
Co SbS
ĠBi Rb
Ir N
Ir Y
Ta H
50 8
55 76
22 96
22 60
Cr Ge
Cr Sb
Ca Se
86 32
23 46
23 179
Os W
83 11
19 58
Re Zn
Re Mo
81 82
Hg In
Na Si
Na BiS
78 22
78 19
68 5022
59 11
Tl N
58 50
14 69
17 80
17 08
30 421
98 43
28 704
Rb Fe
Rb In
110 5911
121 85
122 40
122 65
ĠAlNi Ge
1216 300
107 85
1220 079
1183 2
ĠAlCu Pd
1186 081
1186 060
1187 790
567 207
567 596
1221 442
1221 425
308 83
1188 663
1188 913
106 21
570 199
1189 177
124 54
1007 857
865 077
ĠGeGe Ir
11860 18
11860 34
11860 31
973 198
972 981
11880 40
156 22
866 108
304 94
12155 79
210 30
186 3
ĠAlV Co
307 46
1206 573
179 10
1208 221
1008 488
9743 95
1228 803
223 75
8673 17
279 7
163 17
850 068
6722 89
288 85
11023 84
232 53
247 23
849 086
5677 50
505 626
1070 3
12267 36
975 204
1056 308
8616 30
AlNi Ge
11834 89
12199 40
SS SCs
785 9
12257 01
10913 75
11875 12
12090 44
ĠGaCu Pt
9716 62
10795 82
9755 19
5737 63
10096 41
5555 99
11943 50
11906 54
9731 43
5057 80
1060 435
5430 01
1 462
2 72
6 204
6 430
9 23
9 339
Y IrSi
h ite
p hite
ra phite
ĠC Re
Ġg raphite
ĠN Cl
âĤĤ âĤĤ
âĤĤ âĤĩ
20 81
20 717
20 826
Se Cl
ĠCu Rh
ĠRh H
Pd TiSi
80 62
Pt Tl
10 281
10 12110
ĠMn Y
ĠAg AsS
Cu Ni
ĠIr S
Hf VGe
Ag Sc
67 62
43 79
ĠBi Zr
Ir Ga
11 730
07 5
Ta NbW
Sc Sb
55 1
55 39
ĠCl Zn
88 82
15 964
21 42
21 94
86 63
86 233
ĠHg Tl
ĠCs P
23 713
23 152
57 41
57 4379
73 73
19 02
25 07
25 97
Na S
Na Ga
68 5050
63 23
29 973
29 551
13 49
97 52
14 11
91 47
ĠTiSe S
99 96
99 47
99 02
99 48
99 8860
27 53
27 60
17 75
120 85
120 87
120 175
110 37
110 1258
109 53
ĠNCa Tc
114 57
1216 464
1220 141
1183 206
1183 969
569 196
119 16
867 126
ĠSCu Bi
1187 152
567 409
ĠWS Cl
1217 097
1221 422
308 86
308 51
222 70
1080 834
1080 376
112 87
112 37
106 85
11869 23
11869 76
WS Cl
103 9147
124 71
220 1
220 09
1007 923
10180 19
974 437
ĠNFe Mo
306 66
306 81
303 68
ĠScN Cl
973 111
973 092
133 1
11880 51
1229 015
1072 655
212 76
1208 223
9743 81
1226 456
1104 334
YPd Zn
12179 01
163 15
163 19
216 0
173 4
203 51
219 45
247 8
247 22
1067 236
5683 20
1147 3
211 70
769 096
11043 27
12193 96
971 751
971 909
1057 015
1095 545
10800 22
313 12
12066 36
326 82
988 8
2006 1
1062 758
9854 51
12009 12
6043 18
12137 62
5681 86
nb m
10559 40
12272 85
5693 88
12078 55
246 50
5711 60
642 659
5417 88
5709 20
11024 41
9769 30
5820 67
9847 44
5588 11
6204 71
120175 8
1 50
1 48
1 460
2 54
2 85
2 626
3 02
3 66
5 100
6 21
6 19
6 699
7 670
7 576
7 897
8 42
9 44
9 587
K C
K S
K Rh
V C
Y Mn
b ar
m ite
ĠC in
ri dy
ĠP Cs
ĠIn K
ĠT ridy
ĠAl ZnIr
Al Ga
ĠZr Fe
ĠCa Rh
20 84
ĠGa PS
ĠGa BiAs
Fe Cr
Si Pd
ĠSc Fe
Ti CoSi
Ti MnSi
ĠZn SiNi
ĠCr H
Pt Sn
10 93
10 81
Ga Hg
12 82
12 892
12 11471
Rh Co
Zn Sb
ĠK C
Ag Si
Ag BiS
67 54
33 14
Co Mo
Co NiSi
ĠBi Ni
ĠBi Cl
96 34
Ir S
11 97
11 36
Nb Mn
ĠPb Sr
Au N
07 0
69 86
Ta NiP
55 83
55 9634
16 08
16 18
22 466
22 600
Cr H
Ca IrIn
88 10
88 83
15 07
15 19
Cd Pt
ĠHg Cl
62 9
89 91
Sr Se
Sr Co
Os H
83 9
24 809
79 27
56 867
60 1823
ĠL ow
29 014
29 184
99 84
99 5193
17 47
Rb Ge
120 179
120 5422
110 1178
118 2070
1220 7
1220 502
1220 348
1183 694
1183 511
1079 029
569 167
1186 109
1186 968
119 33
101 7565
867 202
1187 739
1187 248
567 181
1219 535
308 53
1018 809
106 44
106 3314
570 122
570 673
ĠTaAl Ru
1184 121
ĠTiZn Ni
303 43
123 22
136 82
117 8810
212 37
209 01
1023 939
1226 072
ScCu Zn
131 46
11847 64
8627 05
10255 71
12260 21
5677 72
289 30
12267 26
12242 23
211 65
975 129
11040 54
985 831
754 628
10969 50
11871 54
8647 94
130 10
11789 32
146 52
8622 59
na bar
1006 118
1192 532
5105 21
8624 46
11052 85
11477 12
11909 08
5565 97
9828 71
8625 89
10621 53
6323 11
6699 13
ĠCin nabar
ĠTridy mite
1093 999
5583 78
56867 1
120179 0
2 45
4 54
4 71
5 93
6 40
6 127
6 235
7 544
7 506
V Cr
Y Pb
Y NiAl
ĠN Tc
ĠP u
ĠP VS
ĠAl GaN
âĤĤ âĤĥ
âĤĦ âĤħ
ĠHf TeSe
ĠZr Ti
ĠZr TiSe
ĠPt Hg
20 83
20 465
20 552
ĠGa Sr
ĠGa Na
ĠGa GeTe
Fe H
ĠV H
Si Ru
ĠSe Ir
ĠY Cu
ĠTa WS
ĠAs AgAs
Ni Rh
ĠGe K
ĠGe Cl
Pt In
Pt Mn
Pt Hg
10 46
10 675
ĠSn Ir
Ga Fe
Ga Ag
Ga AlN
ĠNa Ga
ĠNa Sn
ĠAg AsSe
12 87
12 635
12 798
ĠIr Cr
ĠK H
Zr RuSi
Zr TiCr
Zr CoGa
Zr VCo
Hf ZnAl
Ag InS
54 13
Co Tc
Ru PdAl
96 92
11 828
11 537
11 449
Au Si
Au In
Au Bi
ĠCd Hg
50 52
50 56
Ġ8 2
Sc Mn
Ca MoN
15 09
Mn Au
Mn Cd
Cd Hg
Bi Bi
ĠHg As
23 7
82 62
Os Pd
Os Cl
Tc Co
66 14
19 795
24 69
79 16
Re Ni
56 3
Hg Ge
Na Te
49 0
63 08
63 6614
13 97
13 61
87 81
99 46
27 800
28 731
Rb H
120 3
110 616
ĠAlAl Ag
Cs V
Cs Fe
Cs Pb
ĠTiAl Co
122 33
1216 439
107 07
107 75
1220 423
102 87
569 837
569 516
1186 058
119 05
119 1118
ĠAlNb Ru
1187 424
567 505
1219 339
ĠSSb Pd
1224 494
1217 114
ĠMoAs P
1221 8
1221 697
1221 495
1188 977
ĠPAg SnP
106 67
ĠNY Al
1189 9
132 70
ĠTiGa Fe
115 15
ĠYCd Pd
167 0
571 406
11860 33
11860 30
1105 836
11880 42
12154 37
8655 20
1102 436
ĠNAl Ti
12289 88
213 21
ĠSeSb Ir
310 19
607 139
216 8
216 13
8627 15
247 21
12163 29
1185 931
289 16
11840 26
AuCu Zn
8656 49
11040 19
754 434
11043 88
154 5
226 82
278 40
8616 26
12193 28
5424 49
6847 10
10179 87
971 673
12273 19
HfRh Al
134 47
10779 59
669 311
AlFe Y
5552 80
8647 58
292 66
12263 71
5429 09
12257 51
CaPd Cd
8622 60
863 744
5705 62
5690 07
11787 63
5685 16
562 100
10941 36
12272 90
10698 41
1096 861
10847 53
767 208
seven th
10950 24
12032 53
10644 97
12322 13
6127 40
6235 11
11828 85
110616 2
0 062
2 123
2 156
2 674
3 40
3 99
6 46
7 529
9 12
V H
V Zn
Y ScS
ĠC ub
ĠC Fe
ĠIn Rb
âĤĦ âĤģ
ĠTi SnRh
ĠNi Mo
Al W
ĠPd Y
20 074
Fe Tc
Fe CoSi
ĠY Fe
ĠTa TiFe
ĠRh Ca
Ti Ta
Ti PtSi
ĠAs Mn
Ni Ir
Ni Os
10 12
Te Cl
ĠMn Cr
ĠNa Sr
12 1218
12 12463
Zn Cu
Mo AlGe
Zr Zn
Zr CrFe
Hf RuSi
Ag SbSe
67 50
Co Rh
Ru SbSe
11 82
11 81
Ta CoSb
ĠTc Sb
55 67
16 67
16 34
16 852
ĠRb In
ĠRb Co
22 85
ĠOs Hf
Cr C
Cr HfSi
15 221
15 698
Mn In
Mn Cl
Mn ZnN
21 965
21 400
47 73
23 167
57 2758
62 73
Tc Fe
24 155
Re S
56 05
56 84
Na Sr
29 465
48 22
13 456
99 10
99 21
27 82
27 666
31 103
31 459
31 430
120 0062
110 55
110 48
110 27
121 96
118 1094
122 46
122 78
te mperature
102 69
569 170
1186 115
119 4773
ĠTaTe Cl
1187 969
1219 237
1217 078
308 66
1080 8
ĠTiGe Ru
ĠCoSb Ta
1188 303
112 38
1078 331
106 82
ĠSIn Cu
570 459
1189 340
127 79
10180 50
1077 803
303 73
ĠTeSn Pb
296 67
11860 67
972 204
979 751
866 213
12153 07
12289 00
TiPd Ge
186 8
186 14
1023 900
1008 274
1008 626
555 853
155 56
TiMo Tc
YRh In
223 09
8673 45
169 11
YCu Si
ĠTeIn Hg
559 676
1209 828
CaPt P
ĠCuSn Pd
288 60
11023 42
11023 95
12260 15
12053 90
10954 40
1067 974
5686 36
282 46
8650 45
199 54
989 7
242 37
8656 40
PtGa Zr
11878 12
140 18
12193 56
10969 86
11007 66
12157 24
5426 15
TiP N
8651 44
AlCu Sc
5712 62
723 4
10952 94
9717 88
182 54
2147 7
9749 90
11896 33
5705 78
ĠAlGa Ni
ĠAlGa Co
1198 803
6907 72
314 93
1061 769
10698 15
9835 09
12239 96
10795 85
11850 41
11901 10
12064 86
5053 63
5406 25
11977 55
7529 47
ĠCub ane
121218 7
1182 452
1181 961
6273 97
2 861
2 434
3 89
3 432
5 103
7 12
9 33
9 04
C As
P Si
P Rh
W Fe
Y NiGa
ĠTi Sn
Al C
ĠPd PtAu
ĠHf V
ĠZr TiN
20 72
20 95
20 196
20 792
20 436
ĠB ain
Fe Mn
Fe NiSb
Si Ge
ĠTa TiMn
Ti TaMn
Pd Rh
Pt PdAu
10 32
Te P
ĠMn CdS
Ga Ta
ĠNa V
ĠNa Ca
12 31
12 139
Zn Re
Cu As
Cu Os
ĠRu H
ĠRu Cl
ĠK Cu
Zr Sb
Zr TiN
Sn C
Sn PS
Hf RuGe
Ag Mo
Ag SbS
Ag InSe
54 2339
ĠE ss
43 59
Ru W
Ru AsP
96 3
Ir SbS
11 800
ĠPb Ni
ĠPb Bi
Au S
Ta Cr
Ta RhSi
Sc NiSi
Sc RuSi
Sc NiSb
Sc PdSi
16 226
ĠRe Ti
05 28
ĠRb Zn
ĠRb MnAs
22 692
22 795
Ca Mo
Ca Rb
Mn Bi
Mn CoSi
Mn CdS
ĠTl V
86 13
46 28
23 229
23 162
23 759
23 295
57 7
57 289
74 43
75 81
Sr Y
Os Cu
Os Au
19 43
19 07
19 717
Hg P
Hg Tl
Na H
Na Ca
68 5048
Tl Sr
Tl Hg
63 0528
29 84
ĠU pper
14 07
26 54
99 16
99 1900
27 628
ene ite
98 23
Rb Zn
Rb MnAs
Rb SrCl
120 07
Cs Cu
109 11
109 5302
ĠTiAl Pd
122 20
122 1007
ĠTiSi Pd
ĠTiSi Os
1216 501
1216 430
107 69
107 1032
ĠVSi Ru
1220 59
1220 151
569 857
1186 152
119 2984
101 8948
ĠTaGe Ru
567 525
1219 466
1219 928
1219 266
1224 867
1224 809
1221 672
308 93
100 21
106 4359
11869 73
570 690
ĠTiZn Cu
1189 791
1189 774
974 558
303 71
1025 167
12243 42
973 904
12180 55
CoNi Ga
979 1
8655 07
212 8
1246 068
866 187
12153 15
12153 57
304 82
1029 2
ĠScNi Sb
155 1
1199 056
CrFe As
279 8
279 02
ScCu Si
ĠPK TeP
CaNi In
ZrSi Se
FeCo Ga
ĠTeMn Cd
CaPt In
11023 24
10252 48
1067 758
1067 933
849 0
5706 41
8656 80
11020 80
12242 47
ĠHfZr N
12195 15
11872 33
HfZr N
1191 413
278 4
12247 98
8678 21
6847 99
6847 31
276 07
12157 79
ZrAl Co
706 8
1190 136
1013 526
MnZn Te
290 55
10874 97
11029 00
ĠNbH S
1084 805
10774 40
643 2
5416 56
5705 60
10250 39
5682 63
9616 59
696 673
11050 44
12287 53
5411 55
11062 88
11060 22
610 517
10258 74
1012 435
389 70
ĠBain ite
ĠEss eneite
57289 2
2 634
3 85
4 076
5 80
6 67
6 33
6 428
9 964
9 561
K In
S C
V Sb
W FeP
Y CoGe
Y PtSi
ĠNi H
ĠZr Co
ĠZr FeSb
20 79
20 139
20 723
20 661
20 937
ĠNb MoW
ĠMo WSe
ĠMo NbW
ĠSc TaFe
Ti NbN
ĠAs Cl
In C
In GaS
As C
80 71
ĠCr SnRh
Pt C
ĠSb Zn
ĠMn Fe
ĠMn Co
Ge Cl
12 120
12 972
12 1069
Zn Ag
Zn SnAs
Cu CrS
ĠK Si
ĠK Na
Mo NbW
Zr Pt
Zr Mn
Zr FeSb
Hf FeSb
Hf CoAl
Co MoSi
Co VSb
Ru Pd
96 1652
11 69
11 70
11 14
11 687
Nb NiAs
Nb FeSi
Au Ge
Sc Cl
Sc NiAl
Sc TaFe
55 57
55 87
55 38
55 5410
55 8071
22 862
Ca N
Ca PtGe
15 73
15 72
15 339
Mn ZnS
Mn WN
ĠTl In
Cd Se
Cd Au
Cd SiN
21 7
21 46
86 29
40 22
Pb C
Pb Si
06 5
ĠCs Zn
23 209
23 299
57 25
57 01
19 54
19 18
24 4
25 65
Hg Al
64 42
18 504
Tl As
49 78
29 026
76 08
13 852
97 67
97 21
99 86
99 1114
27 838
30 555
28 229
31 472
Rb S
120 7608
Cs Zn
118 2146
1216 5
1216 290
107 12
107 81
ĠVSi Os
1220 335
1220 475
1220 099
102 64
1079 172
1079 574
569 436
569 594
1186 127
119 12
119 44
867 141
1187 694
567 278
1215 8
1219 292
1224 502
1224 484
1224 886
1221 793
222 40
1018 107
1018 807
1080 121
1080 459
1188 102
ĠFeSi W
ĠScAl Rh
ĠVCo Sb
862 791
862 694
865 501
865 506
568 745
305 96
305 74
305 36
296 39
973 089
12154 00
8655 54
212 73
212 35
12155 24
12155 61
104 55
104 45
12289 83
210 21
186 54
274 67
307 92
1225 9
1206 157
10253 75
ĠSMn Zn
1208 557
1208 239
755 633
155 8
12172 50
YRh Zn
1226 108
1104 074
YPd Ge
279 0
1120 1
163 58
CaNi Ge
850 049
188 3
198 55
11879 52
8627 11
10255 73
CaHg Sn
5677 52
1070 151
283 53
12159 71
12267 18
11836 54
8656 50
ĠHfZr W
10780 12
ĠCaBi Au
HfZr W
ĠMnGa Fe
11043 72
226 42
140 4
5055 28
180 63
224 81
6847 98
12183 27
11031 76
1057 273
HfRh Ge
8658 40
8658 78
10796 00
309 52
ZrNi H
1106 227
10779 78
9723 73
8647 54
1157 8
1196 514
12063 74
12248 23
ĠGaGe Pt
NbRu P
9717 54
10774 53
329 13
1194 073
11021 67
12250 59
8679 22
7846 31
966 800
IrRh Al
574 338
238 70
11033 10
1212 435
11477 46
9616 53
8672 64
275 13
12200 09
ĠZnCd Au
956 096
12264 45
1210 567
10783 26
10790 42
5576 43
12240 67
10703 91
9902 32
11905 83
646 824
385 11
667 294
121069 7
5557 63
1 473
2 699
3 80
5 07
5 82
6 50
7 524
8 79
8 219
9 48
K Ni
K ZnAs
S CuS
V MnAs
ĠS Au
ĠN W
ĠP MoP
ĠIn Hg
ĠIn BiSe
ĠHf ScSi
ĠZr TiS
20 89
20 56
20 132
20 935
20 536
Fe Os
ĠSe SbPt
ĠY V
ĠTa Cr
ĠTa NbMo
Ti RuSi
Ti IrSi
ĠZn SnP
In Sb
As Sb
Ni N
ĠGe GaGe
ĠCo Bi
ĠFe CoSb
Pt Cu
10 939
10 9785
ĠSr SnP
ĠAg Mo
12 66
12 37
12 1223
12 699
Rh Ni
Rh SbS
Zn SnP
Cu W
Cu Pd
Zr V
Zr Fe
Zr IrAs
Sn Cu
Sn Hf
Hf MnAl
Hf OsSi
Hf NiSb
Hf WSi
Hf MoGe
Hf TiFe
54 08
54 21
ĠBi Pt
Ir BiS
Ir CuZn
11 466
11 814
11 513
Nb Fe
Nb In
Nb NiSi
Nb GeAs
69 03
Ta MoS
Ta MnSi
Ta PtSi
50 54
Sc Co
Sc AlGe
Sc PtGe
Sc NiGa
Sc CrMn
55 63
16 02
22 10
22 204
22 444
22 817
Cr Os
Cr Re
Cr ZrAl
Ca Al
15 21
15 700
15 656
15 651
ĠTl Ni
Bi SbTe
86 21
86 30
47 71
Ġmon ox
ĠCs V
ĠCs As
ĠCs Au
46 67
23 4
23 714
23 214
Sr HfN
Sr AgAl
Os Fe
Os SbS
66 15
45 60
65 6615
19 50
Hg Pb
68 4560
72 50
41 31
18 74
Tl Cu
Tl Bi
63 2319
63 9755
13 21
61 7291
87 12
90 6903
32 45
ĠAlTi Cu
26 67
26 42
99 22
17 813
30 092
30 479
28 800
Rb PbCl
120 279
110 5850
Cs Ag
118 1237
109 40
109 77
ĠTiAl Ir
114 45
1216 867
1216 296
1216 463
116 09
1220 089
102 86
1183 232
1183 158
1186 137
1186 142
119 58
119 8712
867 156
867 928
1187 464
1187 208
1187 432
1187 095
1215 336
1215 627
1219 462
1224 871
1224 331
1224 401
1224 495
1217 229
1217 228
1217 093
1221 413
222 75
1188 159
ĠNZr Sc
ĠSiP H
ĠCdAs Pt
ĠBiTe Ir
ĠCrTa N
1078 544
100 09
ĠNTa Cr
11869 33
11869 02
ĠScGa Rh
ĠScGa Ru
ĠSeBi Pt
1184 804
1184 548
103 07
1189 474
1189 342
ĠTeBi Ir
1007 976
862 691
862 679
862 630
974 435
ĠZrAs Ir
ĠClK Na
568 476
305 95
12243 06
12243 46
ĠTeSn Bi
571 555
571 424
571 537
11860 40
1207 421
1207 893
1105 851
972 895
12154 29
8655 86
12203 96
12203 92
12203 90
1009 130
866 218
1103 248
12153 46
1029 4
1029 7
1029 921
ĠSSn Pb
12155 86
ĠPSi P
1102 836
1102 732
1102 658
12289 08
CuAl S
1225 811
10253 11
1247 450
155 14
980 109
980 665
1228 126
1228 713
1228 701
HfIr Ge
8654 96
12172 93
12172 70
1104 825
1104 406
YPd Ga
541 837
8673 52
SiP N
YAg S
YAg Sn
310 02
983 850
ĠSeSn Pt
ĠCdP Cl
ĠAlSi Mo
FeCo Sb
NbP Se
11847 21
10799 51
288 78
ĠSCa Ti
TaFe Ge
11023 07
11023 48
ScHf Si
232 69
HfPt Al
12053 22
10954 49
ĠSbSb Pd
849 060
5677 69
5683 80
PdAg Hf
1227 330
282 56
283 04
171 46
11030 31
242 89
8656 54
504 425
ĠHfZr S
ĠHfZr Tc
HfZr Tc
ĠMnGa Ir
140 1
1179 802
12152 68
180 26
627 601
9773 83
12193 23
PtCd AsPt
276 47
11017 89
YPt Sn
5426 13
12183 62
12183 59
10239 40
11031 96
11834 71
12244 88
8659 48
10796 95
PbTe PbS
669 546
1019 576
1013 558
10956 43
12249 50
313 83
11028 33
11028 41
168 42
12257 31
988 2
10952 53
5680 18
10874 88
10874 86
330 18
12188 93
11796 56
11057 78
9749 43
5416 09
ĠAlGa Ir
5689 71
ĠPCu SnP
ĠVGa Ru
12463 92
ĠGaCu Rh
12274 18
11946 43
ZrW Cr
8624 85
1071 127
12078 43
11033 17
2086 8
ĠSeGa Mo
12194 57
12280 32
5713 83
12285 62
10188 12
5422 39
ĠTiIn Pd
11972 42
11050 40
9729 41
945 077
6851 49
995 122
11885 12
684 969
121708 7
12085 54
12471 99
254 69
619 071
10707 55
10775 99
10667 18
5605 88
12246 42
5103 21
10769 81
10939 91
109785 9
121223 1
5563 95
Ġmonox ide
120279 1
3 539
3 804
5 862
5 544
5 541
5 818
6 856
6 465
7 549
7 162
8 77
9 07
9 889
9 961
9 857
K SbSe
K CaCl
S Tl
V MnP
Y CoSi
Y ReN
ĠN Sb
ĠP Ta
ĠAl CN
ĠHf Tc
20 192
20 473
ĠGa SiRu
Fe NiAl
Fe MoSi
ĠNb CoTe
ĠY Mn
Ti RhSi
Ti MnN
Pd ZrAl
In Ge
ĠGe Ta
80 53
80 45
10 47
10 5708
10 159
10 968
ĠMn NiSb
ĠSr PdSn
Ga H
12 464
12 456
Cu Fe
Sn Pd
Sn Hg
Hf RhSi
Hf MnSi
Hf MnGe
67 43
67 60
67 63
33 04
54 86
54 23
Co Re
43 16
43 64
Ru SbS
11 713
Nb SeS
Nb CoTe
Nb MoSi
Nb CoSb
42 76
50 45
55 81
22 42
22 31
22 853
Cr Cu
Ca PdSn
15 895
Mn Pt
Mn FeSi
ĠTl Cu
Cd C
Bi Pd
21 895
86 66
86 34
ĠCs Ti
02 8
57 1079
75 3304
Sr Fe
Sr NiSi
Sr PdSn
Sr ZrS
Os NiAl
Os SbTe
Os AsP
66 9692
19 12
24 47
Re Co
44 85
Hg As
Hg Sn
60 4
Na CrS
Na SbS
Na SbSe
Na FeAs
41 7
64 90
Tl V
49 90
29 174
29 072
34 202
48 40
13 472
92 68
99 42
99 85
38 96
30 557
30 028
28 424
31 460
110 45
110 5716
Cs CaCl
Cs SrCl
109 70
122 77
1216 173
1216 148
ĠNbSe S
1220 436
1220 413
1220 748
102 88
102 84
102 61
1183 503
1183 155
1183 187
569 280
569 247
569 708
ĠHfAl Ru
1187 430
1187 434
1187 531
1187 427
ĠFeSb Rh
1219 296
1219 800
1219 258
1224 850
1224 978
1217 024
1221 555
1221 431
308 34
308 26
1080 518
ĠZnP Pd
1188 7
1188 762
ĠTiP N
1078 100
1078 782
100 33
1223 802
106 54
106 8053
ĠCoNb Sb
108 77
103 12
127 80
ĠTiGa Ru
ĠCdTe Se
ĠYGe Pt
862 695
862 604
865 093
305 92
12243 86
296 18
973 676
1105 077
123 83
12180 52
11880 79
156 69
12154 91
1229 118
1229 101
979 259
1069 139
12203 77
1009 152
866 094
1103 213
1103 434
12153 02
12153 66
1029 330
12155 29
999 052
210 96
307 08
1225 835
1206 152
1206 853
1206 898
1208 235
1208 400
755 169
TiMo Re
1228 801
8654 48
8654 90
8654 94
8654 95
8654 99
FeSb Se
FeSb Te
1193 848
200 01
ScCu Ga
CoP Se
1120 7
8649 80
8649 09
8649 16
8649 53
310 40
983 445
PdAu Zn
12171 80
12171 91
10786 96
RuIr Al
ĠCdP Pd
1218 558
11032 56
5710 38
11847 55
216 81
ĠHfZn Cu
10799 46
11023 73
CuGa Se
10252 58
522 1
ĠMnAl Ru
ĠNbZn Rh
1185 935
5706 89
289 10
8650 26
10788 13
1147 4
9722 36
12159 49
11030 12
12267 16
12267 28
11836 41
616 026
ĠTiCu Ni
8656 15
SrPt Sn
197 40
504 825
975 079
FeAs Te
ĠCuSb Rh
11040 10
5679 96
985 829
1191 713
140 17
9896 13
12173 57
1179 094
8616 56
8616 41
12247 65
5673 13
864 831
YPt In
1245 699
1245 848
MoRh Pd
HfRh Ga
8659 89
8658 42
1190 478
11874 44
178 75
5712 66
10779 42
5552 93
160 44
12071 93
12248 40
1028 441
12263 23
11029 26
8619 83
5696 83
11036 18
11796 93
1066 445
11875 11
8652 32
5689 36
12262 90
612 701
ZrRu P
185 61
312 77
ĠZrSn Pd
9744 11
10798 42
11049 56
12137 47
10698 11
10782 42
12238 20
8677 53
8677 79
6726 45
12269 33
12285 24
10096 57
11022 88
11972 87
271 95
8628 71
6851 46
11819 26
12454 45
8663 75
11899 57
9916 56
5701 12
5544 05
5541 34
6856 05
6465 07
7549 54
9857 82
105708 6
6760 38
5581 10
8666 59
6490 33
1 714
2 164
3 498
4 500
5 090
5 168
6 20
6 23
6 444
6 16481
7 20
7 22
7 422
8 10
9 96
9 22
9 70
9 18
H N
K N
K V
K TiS
P Ca
Y AlGe
Y CoAl
h l
Ã Į
Ġc hl
or ate
âĢ ¦
ĠN PCa
ĠIn GaAs
ĠAl PS
ĠR ÃĮ
ĠTi FeSb
ĠTi VSe
Al Ti
Al Ag
Al Cd
ĠHf SeS
ĠHf ScGe
ĠHf TiRu
ĠCa GaN
ĠPt Tl
ĠGa H
Fe Sn
ĠV CrFe
ĠNb W
ĠNb FeTe
Se Ta
ĠCu Mn
ĠTa WSe
ĠTa TiTe
ĠTa TiRu
Ti MoS
Ti FeSi
Ti TaRu
ĠZn Ge
ĠZn Ru
ĠZn HgTe
ĠAs Hg
In GaAs
Ni Cr
Ni Mn
ĠTe Hf
Pt SeS
Pt SnS
Pt YAl
ĠSb SrSn
10 16
10 678
10 887
ĠMn Rh
ĠMn Cd
ĠSr CuSi
Ga Hf
ĠNa CaTl
ĠNa SrHg
Ge Zn
Sb BiSbTe
ĠAg SbSe
12 106
12 697
12 678
12 826
12 627
Rh PdZn
Cu InSe
Cu ZrGe
ta ss
ĠK N
ĠK V
ĠK Ti
ĠK TiS
Zr Ti
Zr MnSi
Zr NbP
Zr FeAs
Zr MnFe
Hf SiS
Hf MoAl
Hf TiRu
Ag Pb
67 27
54 1062
Co Cr
Ru Au
Ru NiGa
96 17
11 39
11 567
11 824
Nb WS
Nb InS
Nb FeTe
Ta NiAs
Ta InS
Ta MoNi
Sc PtZn
55 92
16 501
16 491
ĠRb Ge
ĠRb Na
22 95
22 691
22 258
22 631
Cr Co
Cr MnSi
Ca GaN
Mn NiP
ĠTl Pt
71 87
Bi N
Bi Cl
21 710
86 1672
52 7
23 71
23 157
57 2
75 82
Sr Zr
Sr VN
Sr CuSi
Os Co
83 08
83 00
19 82
19 728
24 18
24 208
79 08
79 45
79 18
Re Cl
56 03
81 70
Hg ZnTe
60 3
Na CaTl
Na SrHg
77 70
18 670
Tl Sb
58 41
29 828
29 487
29 736
13 79
14 500
90 40
32 74
32 76
32 669
32 868
ĠAlTi Ni
37 40
26 50
17 964
17 639
30 418
30 086
28 128
Rb Pb
120 1
120 88
120 61
120 9791
120 8308
120 5841
110 2705
110 1109
Cs AuCl
109 1415
ĠTiAl Fe
ĠTiAl Ru
122 66
ĠTiSi Pt
1216 222
1216 166
1216 327
1216 513
1216 563
107 55
ĠVSi Tc
1220 418
1220 441
1220 081
1220 525
1220 663
1183 542
1079 110
1079 112
1079 155
1079 278
569 175
ĠHfAl Cu
ĠSrP Pt
1187 461
567 484
567 927
1215 208
1215 634
1215 338
1215 295
1215 639
1219 003
1219 748
1219 720
1224 464
1224 169
1224 337
1224 451
1224 435
1224 805
1224 425
1224 402
1217 205
1217 791
1217 968
1221 675
1221 402
ĠZrGa Co
1080 760
1080 073
1188 693
ĠCdAs Pd
ĠRhAs P
1078 464
1078 107
1078 729
1078 402
1078 767
1223 834
106 8300
ĠYIn Pd
ĠZrIn Pt
570 801
PS Os
ĠSTi Cr
ĠCoTe Se
ĠInP Pd
1189 0
ĠYSn Rh
124 5417
862 548
ĠNbAl Os
865 960
865 807
568 402
1077 939
1077 470
1025 161
12243 77
296 02
1207 828
1207 805
973 983
12180 34
12180 26
CoNi Al
11880 52
11880 00
156 57
12154 12
12154 62
1229 100
1229 090
979 288
1069 956
8655 69
8655 18
12203 44
ĠSK Bi
1246 856
1246 556
866 219
1103 123
1103 826
1103 235
12153 71
12153 82
ĠTaGa Fe
1029 531
1102 534
1102 603
12289 09
12289 13
274 88
229 04
1225 676
MnAl Ti
1206 674
1206 964
1206 239
AlSi P
755 988
ĠPo tass
TiMo Sb
1228 758
8654 86
8654 72
12172 54
YRh Si
1193 8
1193 918
861 935
1226 441
SnP Se
CaCu Ga
YPd In
NiAl Hf
977 115
8649 88
310 11
310 55
12179 67
12179 23
163 56
CaNi N
12171 45
YCu Te
ĠTeCd Hg
139 11
ĠTaZn Ru
10142 52
ĠInAs P
11879 20
11879 21
ĠHfZn Pd
288 32
ĠCaSn Rh
12164 57
10255 50
ScHf Ge
125 85
12260 11
10954 78
9720 42
10252 94
12166 12
12166 83
849 082
976 236
12163 47
1185 099
1227 335
1227 096
1227 463
CaAu In
CaAu Ge
8650 27
680 339
YAu Cd
9722 41
221 54
SrPt P
12189 31
ĠInAg Se
FeTi Sb
674 456
ĠVZn Ru
TiNi Ge
ĠMnGa Rh
MoSi Hf
793 0
11845 60
542 730
5055 31
1056 4
1056 486
12152 75
8623 64
9773 47
183 88
864 839
12174 18
6847 44
11007 86
TiW Tc
231 93
5426 14
215 25
8661 55
10239 42
12170 20
8658 10
8658 77
201 45
218 75
ScPd Ge
313 81
240 2
5704 52
12215 29
10773 54
11028 44
12167 84
11842 99
PdNi Ge
10952 40
290 35
5418 85
10874 85
10874 87
637 052
8619 08
12188 65
293 81
12062 96
12388 45
12388 78
685 155
ĠHfSn Ru
12169 13
8652 78
8652 34
ScPt Sn
1192 706
12463 02
312 94
5688 80
12074 19
12074 18
12274 50
ĠAsP Rh
1180 961
11041 67
11049 74
846 8
12204 55
6755 90
11010 92
5711 43
6049 14
1096 832
10695 33
5409 22
644 500
12178 15
12178 21
12280 43
10188 91
5428 16
1159 8
12213 95
5565 16
8675 07
8662 96
12182 68
12465 21
12459 88
1195 198
11885 31
11940 40
11039 84
12252 90
12474 57
8632 61
12185 86
6762 41
12087 21
10685 87
245 17
5684 83
12196 61
582 549
5408 84
10977 16
Ġchl orate
ĠZnGe Rh
10678 80
12106 18
6727 06
9617 06
5592 78
ĠPotass ium
) (
2 62
2 63
2 730
2 152
3 69
3 58
3 999
4 889
4 852
4 824
5 09
5 157
5 10285
6 113
6 969
6 426
6 400
6 404
7 09
8 20
9 124
9 198
9 538
9 463
9 225
K AuS
Y PS
Y AsSe
Y CoIn
c a
Ġb er
Ġb oride
ĠN Cu
ĠN Cd
ĠP CuSi
li a
ĠAl GaP
ĠSi AgPt
ĠHf NbTc
ĠHf InPt
ĠZr NbAl
ĠZr NiSn
20 083
20 479
20 838
Fe NiS
Fe NiAs
Fe CoAs
ĠNb RuSb
ĠNb SnRu
Si Mo
ĠTa Fe
ĠTa Tc
ĠTa TiNi
ĠSc VRu
ĠSc TaTc
Ti Zr
Ti SeS
Ti TaNi
ĠZn SnRh
ĠZn SnAs
As TiZr
Ni Mo
Ni MoP
ĠCo NiSe
yl lia
Pt AsP
10 098
10 866
10 456
10 441
ĠMn Hg
ĠSr Ga
ĠSr Cu
ĠSr CaHg
Sb Au
ĠAg SbS
12 38
12 221
12 12189
12 1259
12 537
12 759
12 962
Rh PS
Zn Ni
Cu Ag
Cu ZrAl
ĠK Zr
ĠK Cr
ĠK NbCl
Mo Fe
Mo CoP
Zr GeS
Zr CuGa
Zr MnGa
Zr ZnN
Zr PdSi
Zr IrAl
Zr TiAu
Zr VNi
Zr VW
Zr NbAl
Zr OsGe
Hf CuAl
Hf MnP
Hf RuSb
Hf NbTc
Ag GaS
67 233
Co Fe
Ru PtGa
Ru CoGa
Ir Pt
Ir CoAl
11 928
11 639
Nb RuSb
Nb IrGe
Nb VP
42 53
69 87
Ta CuS
Ta CoGe
50 65
08 69
Sc CoSi
Sc PtSi
Sc TlTe
Sc VRu
Sc TaTc
16 495
16 497
ĠRe Y
22 61
22 717
22 295
Cr Bi
Cr MnAl
Cr MnP
Ca Ru
Ca PS
Ca RhSn
Ca IrSi
Ca CrN
Ca HfN
Ca GeN
15 120
Mn Hg
Mn CoAl
Mn GaGe
Cd GeP
86 45
86 1507
40 61
06 1
ĠCs K
ĠCs Co
ĠCs SrCl
74 99
82 76
93 05
93 91
Sr Mn
Sr PdH
Sr CaHg
Os CoAl
Tc MnAl
19 44
Re Mn
81 47
60 1326
Na Ta
Na NbS
Na ZnP
Na BiSe
18 127
18 104
49 97
63 9910
29 49
29 156
29 866
29 804
29 153
29 073
34 19
13 74
13 962
97 5065
84 46
92 54
32 884
ĠAlTi Co
36 02
99 06
27 630
98 2261
28 339
31 456
120 4061
120 3419
110 08
110 47
110 1887
Cs Mo
109 91
ĠTiAl Os
233 7
233 04
1216 112
1216 179
1216 678
1216 247
1216 128
1216 081
1216 193
1216 017
1216 057
107 16
107 0869
ĠAlSc Cu
1220 426
1220 795
1220 597
1220 944
102 74
1183 456
1183 837
1183 246
1079 863
1079 508
569 310
569 267
ĠHfAl Fe
ĠHfAl Ir
1186 233
1186 117
1186 162
119 59
119 1953
119 2507
867 137
867 331
1187 939
1187 096
1187 429
1187 225
1187 238
1215 279
1215 169
1215 216
1215 203
1215 221
1215 751
1215 194
1219 799
1219 262
1224 116
1224 456
1224 893
1217 096
1217 832
1217 076
1217 251
ĠZrAl Ru
1221 714
1221 673
1221 487
1221 731
222 67
222 16
222 87
1018 802
1080 495
1080 509
ĠZnP Pt
1188 208
ĠSeIn Ag
1078 231
1078 756
1078 708
ĠNTa Zn
1223 807
106 88
106 8653
11869 88
ĠScAl Ir
ĠScGe Rh
ĠIb ca
ĠHfSi Se
ĠHfSi Ru
ĠAsTe Rh
113 50
108 43
ĠTiZn Co
ĠTiZn Ir
ĠRuSb Hf
127 83
132 40
CaSi N
ĠAgP Pd
ĠAlAs Pt
865 094
865 898
568 121
305 70
303 12
1025 224
1025 187
ĠTiNi Sn
296 0
296 23
105 96
1207 463
1207 079
ĠTiMo P
973 053
973 066
1105 830
12180 08
12180 49
12180 61
12180 37
12180 28
CoNi Se
CoNi Sb
133 14
156 52
ĠScIn Pd
12154 78
12154 48
12154 90
1229 023
1229 062
TiAl Cr
8655 85
8655 91
ĠSiCo Si
12203 47
12203 82
12203 64
12203 18
280 24
1009 222
1246 6
1246 504
866 062
1103 166
1103 414
12153 18
12153 27
304 93
1029 799
1029 246
12155 33
12155 75
ZrRh Ga
ĠZrZn N
1102 531
1102 525
1102 537
1102 524
12289 12
ĠMnZn Te
1225 183
1206 424
10253 06
755 263
1247 0
1247 3
1247 294
980 947
TiMo P
1228 856
1228 792
1199 930
8654 42
YRh Ge
202 68
1104 960
8673 19
977 436
977 578
YAg Al
111 76
8649 90
310 53
310 81
12179 59
12179 87
850 249
12171 12
12171 85
12171 78
YCu As
ĠCdP Pt
1218 335
1218 331
1218 330
1218 414
NbRh P
139 93
ĠAlSi Ru
ĠYZn Pd
697 076
11032 61
5710 35
ĠSeCu Pd
ĠTeMn Hg
10142 44
1209 130
11879 11
ĠHNa Pd
8627 21
8627 78
SrZn Bi
203 89
ĠVGe Ru
12164 50
12164 53
12164 40
10255 57
12288 88
12288 94
12260 06
12260 13
SrCd Ga
HfPt Si
10954 43
10954 65
12073 94
10252 20
10252 69
10252 79
10252 72
TiCr As
ĠSP Rh
849 083
976 184
1214 851
1214 838
ĠNbZn Ru
1185 976
PtSi Se
1070 152
5706 87
ĠNNa Si
HfSi Se
1133 8
228 71
8650 48
10788 84
IrP Te
199 41
680 731
YAu Ge
SrAu In
12159 33
FeTe Fe
RhAs Te
11030 34
11836 08
221 50
SrPt In
11020 11
780 1
FeTi P
PtZn Pt
12195 16
11872 52
10780 10
10780 86
10780 93
10780 79
10780 58
10780 26
12216 42
12216 29
YIn Cu
TiNi Sn
11878 74
11878 76
142 5
RhP Se
230 12
1178 678
12173 22
12173 25
297 52
1179 173
5702 93
12152 70
180 21
ScNi Ge
PtCd Pt
8678 78
158 19
8657 12
8657 07
8657 79
8657 68
ZrGe Sb
12157 15
12273 46
12183 80
12183 29
12170 40
11834 50
12244 96
12244 08
12244 81
8651 93
8658 76
10796 23
10796 41
706 6
1190 672
1095 502
1095 505
309 31
ZrNi Sn
10800 33
TaTe Cl
1019 077
1013 554
130 20
1205 965
10956 03
12082 57
12215 15
12215 13
12215 91
10773 51
12199 43
12199 24
12167 24
12248 41
342 32
1156 0
12263 75
NbGe Sb
301 47
301 83
1068 157
649 479
10913 95
5418 75
11831 48
NbMo Ni
CuIn Te
8619 40
12188 89
11057 52
11057 99
643 273
12069 20
5416 22
12262 58
10257 28
ĠSrCa S
11063 67
11063 01
185 67
12250 13
12261 20
12160 45
11946 60
11019 48
11041 55
11049 26
8679 01
9833 58
10293 59
10293 87
6755 10
SrCa S
6049 10
GeC Cr
556 225
1212 900
11910 26
12239 08
ĠZnGa Co
1213 756
9765 84
10792 60
12455 24
12455 37
10188 11
ĠSeP Rh
ĠZnCd Pt
12469 57
12469 75
9828 70
12275 62
12245 60
581 733
SrNi In
11850 42
924 129
924 130
995 201
11843 18
11940 03
10784 83
5047 72
8648 40
121708 8
10193 19
12156 89
8632 50
9843 52
5539 73
86233 6
5741 38
11037 57
11037 24
11916 25
11916 44
366 8
621 960
12207 42
11933 97
5052 97
5567 42
11027 43
9823 70
6428 45
12165 19
12259 93
ZrV Cu
12464 96
369 88
6113 41
6426 44
6404 16
9124 40
Ġber yllia
10866 69
121259 7
67233 5
. (
1 498
2 1069
2 932
3 86
3 791
3 241
3 479
3 732
3 587
3 1507
4 828
4 404
5 122
5 659
6 14
6 693
7 505
7 792
8 43
8 126
9 894
9 248
C S
H V
H Pd
K CdSb
K AlTe
P VS
V MoAs
V FeAs
V MoSi
Y RuSi
Y CoSn
Y FeNi
Y ScN
Y ZrSb
a d
b eta
y ite
le yite
ĠC ri
ĠC Ni
st ob
ĠIn SnSe
ĠIn CuSe
ĠAl ZnCu
ĠTi SnPt
ĠTi ReTc
ĠTi VTc
ĠTi VRe
ĠNi SrSn
Al S
Al Hf
Al Ru
Al Pb
Al PS
ĠSi SnPt
ĠSi SnPd
ĠHf Fe
ĠHf ScRu
ĠHf ScOs
ĠZr SnRh
ĠZr ScTc
ĠZr ScOs
ĠCa Mo
ĠCa GaSi
20 506
20 817
ĠGa FeCo
ĠB ad
Fe Zr
Fe TiH
Fe GaGe
Fe TaTe
ĠNb CrSe
de leyite
Si Pb
Si Os
ĠY Ni
ĠY ScN
ĠTa InS
ĠTa PbSe
ĠSc Co
ĠSc TaOs
Ti PtGe
Ti MnP
Ti CoGa
Ti RuTe
Ti ReSi
Ti ReTc
Ti VTc
Ti VRe
Ti VP
Ti PtSn
ĠZn SiAs
ĠZn CdS
ĠZn FeRh
ĠAs K
ĠAs GeAs
ĠAs CuTe
In Au
In Hg
Ni Ca
Ni WP
Ni MnSb
ĠGe H
Pt PdBi
10 34
10 648
10 899
10 207
ĠSr Co
ĠSn PS
ĠSn GeTe
Ga Ir
Ga Sr
ĠNa CrS
Ge H
Ge Ca
ĠAg Hg
ĠAg SnS
12 12193
12 659
Rh Au
Rh AsS
Zn Ru
Zn Cr
Zn SiP
Zn SiN
Cu Ru
ĠAu Sc
ĠK Co
ĠK Bi
Mo Tc
Mo MnAs
Mo RhP
Zr CoSi
Zr PtSi
Zr CuSi
Zr TiSe
Zr MoGe
Zr PdSb
Sn Zn
Hf TeSe
Hf GeS
Hf CoAs
Ag Ir
Ag SnS
Ag AsS
Ag BiSe
67 99
54 19
Co SbSe
Co MnSb
Ru Fe
Ru OsSi
Ru AsSe
Ru PtAl
96 90
Ir Ni
Ir Ag
Ir PS
Ir CoGa
11 13
11 202
11 504
Nb Ir
Nb Cr
Nb NiTe
ĠPb Sb
Au P
Au As
Au GeAs
ĠCd Ga
69 59
69 31
Ta WS
Ta CoSi
Ta RhTe
Ta MoCo
Ta CrNi
Sc CoSn
Sc TaOs
Sc ZrOs
Sc ZrTc
16 49
16 421
16 259
16 448
16 439
85 80
85 07
ĠRb PbCl
ĠRb SrCl
22 179
22 889
22 332
53 27
Cr AlGe
Ca PdH
Ca GaSi
Ca PdZn
Ca AlH
88 48
15 66
15 18
15 92
15 695
Mn PS
Mn NiSi
Mn NiAl
ĠTl HPd
Cd ZnS
Cd SiAs
21 491
47 63
52 44
Pb N
Pb In
Pb Sb
Pb Au
Pb TaSe
ĠHg PS
ĠCs Cr
ĠCs Cd
ĠCs CaCl
46 8
46 56
23 186
23 706
23 290
57 48
57 4485
57 1518
93 06
Sr MnSb
Sr RhIn
Sr NiSn
Os AsS
Tc Ag
73 65
19 983
19 804
19 835
19 824
79 06
Re AlGe
56 00
56 8673
Hg PS
Na Ge
Na Sn
Na SrAs
Na YCl
78 77
Tl H
49 55
29 570
29 179
29 849
29 154
29 476
34 69
13 464
13 555
97 2187
14 086
61 8991
87 86
90 3
90 08
36 57
99 12
17 856
38 494
30 460
30 676
30 805
39 09
28 107
31 125
31 438
31 473
Rb Ag
Rb Bi
Rb AuTe
120 98
120 8991
120 8170
120 1034
110 5702
110 5327
Cs Ti
Cs Cr
Cs Cd
Cs PbCl
Cs AgCl
122 68
ĠNbSi Tc
ĠTiSi Ru
114 89
1216 310
1216 169
1216 677
1216 451
1216 278
1216 427
1216 601
1216 056
1216 135
1216 843
116 21
1220 675
1220 670
1220 587
1220 761
1183 607
1183 173
1183 151
1183 490
1079 224
569 886
1186 209
1186 232
1186 187
119 1078
101 75
101 8652
867 0
867 233
867 163
867 125
ĠTiTe S
ĠTiTe Ru
ĠSCu Ni
ĠMnP S
1187 209
1187 431
1187 068
1187 097
567 114
567 279
567 736
1215 188
1215 242
1215 676
1215 898
1219 226
1219 431
1219 145
ĠSSb Pt
1224 983
1224 559
1224 413
1224 448
ĠHfGe Ru
ĠTiN Cl
1217 079
1217 089
ĠSeNa Pt
ĠZrSb Rh
ĠFeTa Te
1221 559
1221 342
ĠZrGa Rh
ĠZrGa Ru
308 47
ĠHfN Cl
1080 466
1080 561
1080 049
ĠTiGe Pt
ĠTiGe Rh
1188 987
ĠNiY Bi
ĠNbNi Te
112 52
ĠBiTe Pd
1078 200
1078 466
ĠHfGa Ru
100 1022
ĠCc c
ĠYGa Rh
1223 664
ĠNbRh Sb
ĠYIn Rh
11869 52
11869 77
11869 32
570 062
ĠSV Cr
108 46
108 44
ĠGaTe S
ĠTaAl Os
ĠSiTi Co
1184 057
ĠSbTe Rh
103 79
103 68
ĠTiGa Ir
ĠTeBi Pd
220 56
220 36
862 546
862 699
NiAs Se
ĠAlGe Ru
865 124
865 717
865 895
865 665
865 656
865 930
306 62
306 44
306 58
305 80
1077 814
1077 746
303 47
1025 229
1025 191
1025 218
1025 988
1025 819
1025 629
12243 71
12243 21
12243 93
12243 24
12243 58
12243 29
12243 03
571 103
571 505
1207 627
1207 736
973 166
973 769
CaZn Si
12180 02
12180 62
12180 41
12180 63
972 866
972 777
972 899
11880 21
11880 59
11880 95
11880 17
11880 03
ĠAsZn Si
12154 55
12154 53
12154 77
117 54
ĠSNb Cu
1069 824
1072 944
8655 88
8655 92
12203 66
12203 58
12203 91
1009 581
1246 229
1246 514
1246 517
1246 089
866 156
866 163
866 160
866 051
204 19
11846 84
1103 545
12153 53
1029 337
1029 915
12155 36
ZrRh Ge
ZrRh Sb
ĠZrZn Co
ĠGaP Pd
1102 101
1102 115
1102 693
12289 45
12289 87
ĠAlV Ni
307 8
ĠSeSb Pd
229 77
1225 119
1225 200
1206 699
1206 893
1206 135
208 46
10253 71
10253 24
10253 01
1008 680
1247 376
980 1
980 200
PtGe Se
ĠCuSi Rh
1228 745
126 62
ĠKSb Cl
8654 87
12172 42
12172 53
12172 60
223 15
202 57
861 501
1104 194
YPd Sn
TiSi Y
977 541
977 426
977 162
8649 47
310 84
9989 70
607 409
CaNi Ga
6722 16
12171 71
12171 75
12171 30
129 10
129 51
RuIr Ga
1218 856
NbRh Sb
ĠYZn Si
ĠTaRh Te
697 575
11032 43
FeCo Zr
FeCo Sn
12067 90
HfPd Sb
11847 66
1209 960
1209 061
CaPt Cd
198 71
10799 08
288 77
10255 86
10255 87
ScHf Ru
ScHf Os
12288 29
12288 17
12260 67
12260 08
12260 35
232 89
232 75
SrCd Ge
ĠNCr Ni
152 72
10954 97
10954 91
CuSn Ti
5686 56
5683 45
5683 94
1070 557
ĠNNa Ge
YZn Si
8650 10
8650 51
8650 01
8650 30
10788 95
283 2
283 24
5716 42
5716 36
214 05
199 53
199 06
11840 55
11840 05
680 850
YAu Al
YAu Sn
10955 36
IrSb As
9722 38
12159 48
11030 46
11030 36
8656 81
12242 44
8660 12
8660 41
12189 76
ĠGaFe Ru
975 140
12195 21
11872 11
12216 43
12216 62
12216 56
GaSe GaS
ĠVZn Rh
ĠSeCa Pb
HfCo Sn
142 44
769 218
1191 862
11043 66
226 19
542 537
5055 11
12173 71
297 11
278 50
12152 71
180 93
YNi In
YNi Bi
ĠNiZn Sb
ĠCaCd Pd
8623 66
9773 67
9773 53
9773 61
183 61
864 672
HfN Cl
ĠTeSb Rh
8657 28
TiW Mn
971 737
YPt As
TiN Cl
12273 22
12273 13
8661 42
8661 41
300 39
12290 05
12290 32
10239 25
12070 15
11031 50
11834 54
11907 88
VNi Ge
1057 286
6723 89
12244 55
8659 16
8659 14
8659 28
AgAl S
11874 97
1095 628
1106 121
1106 219
10779 15
10779 94
10797 21
10797 68
1013 525
1013 548
8647 15
8647 82
1205 800
1205 335
1205 337
10956 07
12249 08
12249 13
313 47
12082 43
FeNi Ge
9785 32
12215 96
10793 93
10793 13
12063 69
12063 65
HfMo Sb
9775 50
11028 40
12167 00
12248 22
TiFe Al
11026 50
ĠGaGe Ru
1002 114
12077 76
10794 07
11842 29
12257 71
8622 88
1068 746
RhV As
225 96
10806 67
10806 11
10806 57
5696 62
12188 75
560 025
6363 20
12062 67
11057 49
11830 05
11830 41
643 651
643 907
1027 335
12069 26
12169 77
10804 69
5416 86
10951 45
5689 40
284 19
314 53
314 81
185 62
ĠGaCu Ni
12074 48
5407 73
12160 47
6043 25
1101 809
11019 95
CdZn Te
11041 83
12286 05
8679 04
12137 54
5685 65
991 428
8624 45
9833 65
10293 49
600 124
6372 92
10782 80
10782 47
574 339
ZrAu Ga
11011 73
12068 54
1024 974
6726 96
10285 76
12239 86
ĠSGa Ni
1213 092
NbNi Ge
11025 65
11909 15
12270 42
6419 24
12177 75
12177 68
12269 57
12285 22
12200 04
10296 59
5709 71
12147 93
12147 94
ĠAlRe Ge
ĠFeNi Pt
11004 12
11004 15
362 16
ĠTiIn Au
ĠHfIn Co
11022 68
5555 69
12469 70
10259 05
271 78
SbN Ca
12245 16
12245 98
266 8
NiZn Sb
8662 79
12264 53
12214 07
12214 85
945 184
10276 47
11901 41
12065 50
11062 45
10783 62
5410 47
5047 41
11819 40
10790 80
144 33
ĠCdIn Rh
12284 67
286 45
12185 60
272 55
11730 43
5539 94
10685 10
302 93
366 41
621 348
12207 43
640 159
ĠHgAs Pd
6308 83
CsV Cl
912 418
6750 60
12278 10
10269 80
10682 50
12139 48
122059 8
8490 67
580 930
5725 96
12158 85
10940 21
10286 04
12456 33
620 571
358 69
12221 81
386 05
614 572
9894 07
ĠCri stob
ĠBad deleyite
ĠAsGeAs Au
ĠAsCuTe As
10648 54
10207 12
ĠAgHg Pd
5419 11
1566 8
5600 46
ĠCristob alite
2 43
3 1080
3 1072
3 129
3 648
3 797
3 830
4 08
4 573
4 813
4 578
5 101
5 213
6 02
6 105
6 695
6 22375
7 64
7 126
7 437
7 939
7 221
7 421
7 400
7 883
7 684
8 714
8 418
8 435
8 799
9 576
9 437
9 027
K CuS
K ZnP
K BiSe
K MnSe
K CdAs
K AuCl
K AlH
K NbCl
P Sn
V Ti
V CoSi
V CoAs
V CrP
Y Hg
Y CuS
Y ZnAl
Ã ¢
Æ Ĵ
âĢ ļ
ĠIn GaP
ĠAl InSb
ĠTi MnRh
ĠNi AgSe
Al Ir
ĠHf Cd
ĠHf ScIr
ĠZr TiMo
ĠZr TiCr
ĠCa Ga
20 108
20 697
ĠB oron
Fe NbSb
ĠNb Cu
ĠNb CrS
ĠCu AgTe
ĠY Cr
ĠY CuSi
ĠY ScS
ĠTa Sn
ĠTa TiAl
ĠTa NbTe
ĠTa SnRh
ĠTa FeRu
ĠRh Sr
ĠSc V
ĠSc MnRh
Ti NiAs
Ti CoGe
Ti OsSi
Ti SnSb
Ti ZnAl
Ti OsP
Ti MnAs
Ti PtGa
Ti FeAs
Ti MnRh
Pd HfSn
In SbS
In GaP
In AlSb
Ni H
Ni In
Ni Pt
Ni TiSb
Ni AgSe
ĠCo Cl
ĠTe Cs
ĠFe NiAs
ĠFe CoAs
Pt Pt
10 670
10 891
ĠMn FeSi
ĠMn RbTe
ĠSr PbS
ĠSn Pb
ĠSn PbS
ĠSn GeS
Ga Rh
Ga Cu
ĠNa FeAs
ĠNa MnSe
Ge W
Ge Os
ĠAg SnTe
ĠAg BiPd
12 116
12 472
12 136
12 126
12 675
12 674
Rh Pt
Rh Sr
Rh PtZn
Rh NiZn
Cu AsS
ĠAu Tl
ĠAu PS
ĠIr Sc
ĠK MnSe
Mo Ga
Zr Pd
Zr NiAs
Zr TiPd
Zr MnAl
Zr TiMo
Zr OsSi
Zr NiSb
Zr CuSn
Zr RuGe
Zr TiMn
Zr VP
Sn Mo
Sn GeS
Sn HfS
Hf CuGa
Hf OsP
Hf VP
Ag SnTe
Ag CuTe
67 44
67 51
67 95
33 40
54 93
54 1180
Co Zn
Co CuS
Co CrSi
43 70
Ru H
Ru Cl
Ru SeS
Ru AsS
96 22
Ir Os
Ir NiZn
11 113
11 829
11 400
11 660
Nb PbS
Nb CrS
Nb SnSb
Nb CoAl
Nb CuGa
Nb InSe
Nb PtSi
Nb VSi
Nb CrSe
Au PS
ĠCd Bi
42 81
42 59
69 73
69 26
69 5850
Ta RhSn
Ta CrP
Ta IrSi
Ta VNi
Ta NbTe
Ta ReSi
Ta GeSi
50 42
50 44
50 28
Sc HfIr
Sc IrSi
Sc MnRh
55 73
55 28
16 62
16 225
16 029
ĠRb MnP
22 63
22 167
22 426
22 731
22 881
53 67
53 05
Cr Pd
Cr CuS
Cr ZnN
Ca GaAl
Ca GaGe
Ca AgAl
Ca ZrS
88 2
88 43
15 54
Mn Re
ĠTl AsPt
Cd Pd
Cd SnP
Cd GeAs
Bi Au
Bi InS
21 306
21 756
21 413
21 893
86 20
86 07
47 55
52 8
40 25
40 30
Pb GeTe
06 13
ĠHg Pb
ĠCs MnSe
46 12
57 1147
57 4025
Sr Si
Sr PbS
Sr CaZn
Sr IrP
Sr PdSi
Sr IrIn
Os AsSe
Os SbSe
73 66
73 92
83 88
19 968
24 54
24 719
56 54
56 14
81 67
60 186
60 5028
Na AlGe
Na VN
Na MnSe
Na CrN
Na NbSe
Na CdSb
78 4
72 40
59 1
59 18
41 20
77 71
77 81
51 49
Tl FeS
Tl InS
Tl SbTe
Tl CaCl
Tl AlCl
04 47
49 53
49 79
63 2686
29 77
29 568
29 163
29 175
76 42
48 42
13 573
13 202
13 459
13 203
13 094
97 10
14 434
87 69
87 65
87 25
32 780
36 539
36 053
95 71
99 52
99 81
99 87
35 152
17 558
17 835
38 49
30 459
30 424
98 45
28 126
28 968
28 759
31 502
Rb InS
Rb MnP
Rb MnTe
Rb NaS
120 56
120 9946
120 5493
120 4281
110 0
110 1867
110 1118
Cs K
Cs BiS
Cs MnSe
Cs SnCl
Cs AlTe
Cs TaSe
Cs NaS
109 6795
122 5654
ĠZrSi Ru
1216 108
1216 136
1216 052
1216 437
1216 698
107 0613
107 7240
ĠAlSc Au
1220 110
1220 472
1220 559
1220 470
1220 492
1220 057
1220 458
1220 879
102 75
102 7273
1183 166
1183 462
1183 938
1183 591
ĠNiTe Se
ĠAlCu Ni
1079 158
569 298
569 408
1186 074
119 1223
119 8948
119 8388
867 120
867 179
867 850
867 216
867 792
867 327
867 292
867 799
867 917
ĠSZn Cd
1187 124
1187 200
1187 718
1187 473
1187 704
1187 701
1187 470
1187 703
ĠMnSi Tc
567 981
567 228
1215 179
1215 714
1215 804
1215 230
1215 177
1215 170
1215 806
1215 600
1219 501
1219 203
1219 437
1219 193
1219 423
1219 732
1224 108
1224 972
1224 544
1224 691
1224 092
1224 418
1224 473
1224 831
1224 859
1217 126
1217 864
1217 891
1217 065
1221 935
1221 780
1221 824
1221 876
1221 734
ĠNNb Zn
308 77
308 64
ĠSnHf S
1018 714
1018 806
1018 736
1018 726
1080 835
1080 463
1080 056
ĠPdSn Hf
1188 158
1188 829
112 3
ĠYAg S
ĠYAg Sn
1078 677
1078 776
1078 162
1078 739
1078 547
1078 963
ĠAlMn Fe
ĠAlMn Pd
ĠNaSb Se
100 46
1223 529
1223 824
1223 642
1223 859
106 8167
ĠYIn Ag
11869 42
11869 85
11869 56
108 73
ĠGaAs Pd
ĠFeNb Sb
103 0447
1189 265
1189 066
1189 272
1189 075
1189 764
ĠTiGa Tc
220 07
220 84
1007 6
862 423
ĠNbAl Fe
10180 20
10180 46
10180 66
10180 76
ĠYCd Ag
ĠYCd Hg
NiAs S
865 503
865 165
865 128
865 931
167 90
568 208
568 501
305 23
ĠAlP Pt
1077 883
1077 722
303 11
1025 173
1025 925
12243 72
12243 18
12243 95
571 310
571 534
571 471
ĠTiNi Sb
296 58
ĠAgCu Te
11860 06
1207 101
1207 127
1207 428
1207 090
1207 799
1207 727
12180 22
12180 53
12180 19
12180 64
12180 39
12180 03
136 86
972 877
11880 19
ĠScIn Pt
ĠSrZn In
8655 23
8655 25
12203 62
12203 45
212 60
1246 058
1246 243
11846 15
11846 01
12153 40
12153 24
12153 79
12153 68
12153 26
304 92
1029 422
1029 334
12155 10
12155 83
ZrRh Al
209 52
ĠZrZn Ni
ĠZrZn Rh
1102 541
1102 631
1102 532
1102 660
104 54
104 69
12289 10
12289 05
12289 73
12289 18
12289 38
TiPd Ga
186 45
186 48
213 16
213 71
213 65
ĠMnSb Rh
274 55
1023 2
229 09
229 22
1225 810
1206 529
1206 058
10253 53
10253 02
10253 46
10253 65
10253 18
10253 48
179 7
179 85
AlSi Y
1208 205
1208 335
1208 228
1008 556
755 523
1247 422
1247 449
1247 333
ĠScNi Bi
TiMo As
1228 117
1228 473
1228 807
227 69
12172 83
12172 72
RuRh Ga
223 96
223 02
311 85
311 53
1193 208
1193 227
1193 832
1193 899
1193 708
202 55
861 889
NiSe Te
ĠSnP Pt
1226 104
1226 089
1226 070
CaCu In
CaCu As
1104 965
CrFe P
977 427
279 07
ScCu Sn
1120 733
YAg Ge
YAg Sb
8649 70
12179 42
12179 90
12179 17
12179 00
9989 12
983 602
169 30
YCu Sn
10786 45
129 23
1218 103
1218 336
NbRh Ge
981 4
ĠAlSi Pd
ZrSi As
11032 93
672 661
ĠInAs Pd
1209 887
216 62
CaPt Al
198 77
10799 52
288 84
8627 47
SrZn In
203 20
12164 96
12164 81
TaFe Al
ScHf Co
12288 32
205 21
12260 54
SrCd Bi
10954 42
10954 19
12073 82
12073 59
10252 71
10252 93
TiCr Tc
12166 02
PdSn Te
273 61
849 073
849 071
1214 809
10181 50
5677 16
TiRh Ge
505 804
505 333
5683 98
12163 54
1070 099
1227 422
1227 717
1227 421
282 70
CaAu Bi
8650 66
8650 00
283 55
214 09
214 67
10955 22
10955 63
10955 84
9722 75
9722 24
12159 15
12159 14
ScRh Ge
12267 87
11836 40
TiAs Te
328 11
11020 86
CuSi Ti
ĠPIn Ga
197 46
12189 54
12189 52
12189 77
12189 51
ĠInAg S
ĠHfZr Ru
10780 08
10780 64
12216 06
5679 45
HfZr Ru
754 850
MoSi Zr
1191 202
230 37
226 40
226 62
11845 67
5055 54
12173 81
12152 40
12152 77
ScNi Bi
8623 69
8623 40
8623 68
8623 76
12193 69
12247 68
12247 32
12247 03
153 20
183 44
864 939
8657 80
8657 86
11007 81
ĠCaIn Cu
276 69
IrAs Te
11017 71
971 836
12273 20
12273 54
215 77
8646 54
8646 07
12183 28
162 60
12290 06
10239 43
12170 09
12170 39
1245 8
1245 698
11031 72
ĠSrCd Hg
8651 67
8651 74
10796 35
149 83
12206 67
1190 092
1190 451
11877 08
11877 06
134 16
1095 673
1095 128
SrPd As
AlCu Y
5712 81
10779 79
10800 43
ĠSCs In
10797 16
1019 104
1013 555
11867 59
11867 61
AlFe Zr
8647 61
1205 828
1017 632
12249 16
12249 51
12082 20
12082 48
12066 00
1196 650
12215 17
10793 23
10793 24
10793 61
5698 23
12199 70
9813 77
1222 126
554 212
5707 69
9775 82
12167 34
12167 13
12248 85
1028 459
ĠCuGe Rh
12263 09
301 75
NbH S
8622 64
12033 38
1068 464
ĠNaCd Hg
182 79
5418 79
10789 38
637 736
11029 45
9762 20
ĠTiCr Tc
1066 232
632 693
12062 42
11830 42
643 912
1027 687
12169 06
10804 89
5705 98
10951 48
ĠTeZn Hg
8652 80
12262 45
284 89
11063 52
SnN Ni
295 96
185 94
12057 41
12463 70
12074 08
11787 62
5407 03
12274 19
12160 33
12160 05
11041 20
10250 45
TaRh Ge
ĠCrGa Co
12204 09
12204 88
10293 96
6755 76
ĠHgP Pd
1071 862
1030 106
ZrCr V
10782 57
12238 45
287 69
ĠTlP Pd
5711 63
5412 91
12181 40
239 54
11035 67
10695 20
6726 89
12015 66
605 735
11056 54
1213 703
11025 20
10254 57
7554 35
275 12
275 33
1021 494
12177 77
12200 35
AsN Sr
12147 86
12147 84
11004 08
ĠHfIn Rh
ĠHfIn Au
12213 96
12275 67
11943 90
9769 20
6753 26
8625 86
12465 09
350 15
12032 83
277 69
11843 64
ĠHfSc Co
5049 51
11060 20
1173 475
5610 33
12252 10
12284 54
ĠZrCd Pd
12265 12
12265 86
8663 76
9752 75
5100 41
6754 62
5413 10
5413 78
ĠCdHg Pd
5052 78
5056 34
1203 422
1203 241
12218 72
TiTa Al
11055 59
12278 71
10269 16
10808 15
10682 86
12120 52
5587 60
8629 11
6442 29
9767 65
9721 20
10781 55
11944 67
10307 21
10294 07
10297 11
6763 29
10288 23
623 814
1016 106
CoCr Ta
12266 52
11008 73
10688 91
6693 87
12268 21
5101 33
6105 22
6695 66
ĠHfCd Rh
12136 42
12126 82
6744 93
5044 98
5573 08
5614 19
60186 1
1 7291
2 8660
2 8658
3 15
3 464
3 102
3 504
3 927
4 124
4 861
4 805
5 88
5 66
5 102
5 106
6 961
6 437
7 077
7 439
8 159
8 456
8 203
8 487
9 54
9 856
9 900
K Si
K Ti
K Co
K SnS
K MnP
K MnAs
K YTe
K CuCl
K MnCl
N In
S PS
V Sn
V Cl
V NiAs
V CrSi
V CrAs
V RuSb
W Zn
Y V
Y Ge
Y Bi
Y CrFe
Y IrSn
b m
ĠIn GaS
ĠIn CuPd
ĠAl GaAs
ĠTi SnRu
Al Os
ĠSi SbPt
ĠPd Pb
ĠPd PS
ĠHf Mn
ĠHf Cl
ĠHf TaRu
ĠHf TiSe
ĠHf TaV
ĠZr Tc
ĠZr TiW
ĠZr ScRu
ĠZr TiCu
ĠCa Y
ĠCa CoSi
ĠCa CuSi
20 02
20 422
20 731
20 235
Fe NiSe
Fe MnGe
ĠV FeSb
ĠV SnRu
ĠV CuRh
ĠNb WSe
ĠNb VRe
Si Al
Si Rh
ĠCu Cd
ĠY CrFe
ĠTa SeS
ĠTa NbTc
ĠTa MoW
ĠTa WMo
ĠTa SnRu
ĠSc TaRu
Ti CoNi
Ti GeS
Ti CrSi
Ti ReN
Ti ZnGa
Ti NbRe
Ti VAl
ĠZn SiRh
Pd In
Pd PS
Pd CuAl
Pd AsS
Pd ZrSn
In Ru
In BiSe
As Bi
Ni PS
ĠFe Ca
ĠFe AlSi
ĠFe NiSb
ĠCr CoPt
Pt As
Pt BiSb
ĠSb Cr
10 435
10 898
10 404
ĠMn Bi
ĠMn CoGe
ĠMn RhSb
ĠSr Fe
ĠSr GaSi
ĠSr CaIn
Ga W
Ga Os
Ga PS
ĠNa VSe
Ge Mo
ĠAg BiS
12 53
12 30
12 1216
Rh AsSe
Rh BiS
Rh SbAs
Rh AuZn
Rh TiSn
Zn Pb
Cu TaS
Cu NbTe
Cu ScS
ĠAu Cs
09 95
ĠK Nb
ĠK MnP
ĠK YTe
Mo Pt
Mo Sb
Mo Cr
Mo CrAs
Zr Ir
Zr GeTe
Zr NiP
Zr TiW
Zr CuGe
Zr OsAl
Zr PdGe
Hf CoGe
Hf CoP
Hf NiGa
Hf TaRu
Hf TaFe
Hf ReSi
Hf TaV
Ag Ge
Ag Os
Ag BiTe
67 17
67 569
67 2194
33 12
54 98
54 1558
Co MoP
43 43
43 84
ĠBi Mo
Ru NiAl
Ru SbTe
96 80
96 169
11 438
11 926
11 658
Nb CoSi
Nb PtGe
Nb IrSi
Nb VNi
Nb MoAl
Nb VRe
Nb CrGe
Nb VCr
ĠPb CN
Au H
Au Se
Au CuSn
ĠCd Sn
ĠCd Tl
ĠCd SnTe
ĠCd AlCl
69 80
Ta Cu
Ta RuSi
Ta CoP
Ta ZnAl
Ta MnGe
Ta NbTc
Ta NbMo
Ta WMo
Ta WFe
50 66
50 5820
08 8
Sc Al
Sc NiP
Sc CoP
Sc TaRu
Sc PdSn
Sc ZrRu
55 60
55 8973
55 5066
16 24
16 258
16 886
ĠRe Si
ĠRb YS
22 227
22 529
22 130
53 59
Cr W
Cr CoSi
Cr WN
Cr TaN
Cr CoPt
Ca CN
Ca CoSi
Ca MnSb
Ca PdSi
Ca MnGe
Ca TcN
88 42
88 18
15 226
15 679
Mn Tc
Mn GeTe
Mn CoGe
Cd H
Cd Tl
Cd SnTe
Cd AlCl
Bi Mo
21 88
21 508
47 56
47 90
52 57
Pb Sn
Pb CN
Pb SnTe
Pb PSe
ĠCs Pb
ĠCs MnAs
46 53
23 82
23 174
23 291
57 49
57 1085
57 1216
62 1624
74 1
89 32
82 49
Sr Rh
Sr CuSn
Sr CaIn
Sr CrN
Os Ag
Os AsTe
Tc Mn
Tc PdAl
73 63
73 76
73 61
70 49
45 16
19 955
19 787
19 936
79 97
56 06
56 1258
25 89
Hg Cr
60 1253
60 4516
Na InS
Na VSe
Na AlSe
68 6717
72 80
72 85
72 89
18 474
18 556
18 217
Tl Co
Tl Cd
Tl PS
Tl BiSe
Tl GaSe
63 76
29 110
29 136
29 678
29 428
29 932
29 091
76 8613
48 46
13 68
13 160
97 82
97 7443
97 4790
97 7049
92 70
92 65
14 557
32 10
36 18
91 77
37 72
99 57
99 9265
35 67
27 50
17 092
17 638
17 577
30 151
30 326
98 2188
Rb YS
120 307
120 981
120 8973
120 5610
120 8629
120 4805
120 1230
110 73
110 296
110 1606
110 0995
Cs SbS
Cs MnAs
Cs GaSe
118 22
109 7916
122 7997
ĠPP Pd
206 21
1216 167
1216 156
1216 210
1216 850
1216 672
1216 170
1216 079
1216 661
1216 029
1216 078
1216 072
1216 091
1216 468
281 43
107 2382
107 2589
ĠNbSe Cl
ĠAlSc Ni
1220 569
1220 541
1220 758
1220 429
1220 443
1220 427
1220 636
1220 442
1220 786
1220 579
1220 586
1220 732
1183 165
1183 191
1183 728
1183 708
1183 135
ĠAlCu Rh
1079 167
1079 831
1079 513
1079 726
1079 075
569 152
569 423
569 954
1186 222
1186 124
119 1589
119 5257
101 8658
867 308
867 127
867 117
867 335
867 851
867 475
867 897
867 794
ĠTiTe Se
ĠCaP Pt
1187 713
1187 809
1187 698
1187 738
567 545
567 636
1215 503
1215 175
1215 180
1215 663
1215 181
1215 817
1215 726
1215 234
1219 132
1219 430
1219 939
1219 259
1219 478
1224 121
1224 173
1224 498
1224 137
1224 426
1224 900
1224 427
1224 540
1224 863
1217 118
1217 124
1217 202
1217 935
1217 897
1217 064
1217 070
ĠZrSb Ru
1221 434
1221 505
1221 335
1221 404
1221 948
ĠMnGe Te
ĠZrGa Pd
308 4
222 62
222 68
ĠRhTe Cl
1018 709
1080 204
1080 677
1080 624
1080 771
ĠTiGe S
ĠZnAs Pt
1188 542
112 41
ĠNbGa Os
1078 751
ĠGeSe N
100 1017
ĠTiCo Sn
1223 828
1223 754
1223 832
1223 837
1223 791
ĠZnAg Pd
11869 53
11869 58
ĠScAl Co
ĠScGe Au
ĠAuCu Se
ĠWP Cl
570 130
ĠSTi Cu
108 48
ĠSeCs Sb
1184 118
1184 573
1184 104
ĠTiZn Pd
ĠTiZn Ga
ĠSRu Rh
ĠYAl Au
103 81
1189 212
1189 978
1189 171
1189 871
1189 235
ĠSBi Rh
127 81
ĠTiGa Pd
220 18
1007 974
862 431
862 703
10180 60
974 973
865 809
865 079
865 651
865 548
865 888
865 664
167 40
167 63
ĠClK Pb
306 52
305 98
1077 935
1025 678
1025 180
1025 690
12243 66
571 333
ĠScTe Rh
296 62
105 54
11860 04
1207 717
ĠZrGe Te
ĠZrGe Ru
1105 163
1105 802
12180 60
972 961
972 884
11880 15
11880 04
11880 01
11880 14
11880 36
156 85
ĠAsZn Sn
12154 16
1229 235
1229 060
1229 000
979 980
ĠTiNb Re
ĠSrZn Ge
8655 38
8655 31
ĠSiCo P
12203 67
12203 42
12203 69
12203 74
12203 29
280 80
280 19
212 48
1246 110
1246 123
1246 648
866 088
11846 47
11846 02
11846 04
1103 098
1103 160
1103 728
12153 05
12153 65
12153 78
12153 92
12153 17
1029 418
1029 975
1029 506
1029 719
1029 838
1029 811
ZrRh P
209 87
ĠZrZn Ir
ĠGaP Pt
999 540
1102 857
1102 687
1102 458
104 57
12289 43
12289 91
210 40
ĠSiFe Ru
213 52
229 45
229 56
229 14
1225 871
1225 141
1225 839
1206 544
1206 129
1206 525
1206 829
1206 431
1206 679
10253 47
10253 66
10253 56
10253 04
179 84
1008 624
5708 63
755 7
1247 566
980 193
980 936
980 948
1228 691
1228 192
1228 158
1228 436
HfIr Al
159 85
ĠTlS Cl
8654 84
227 12
227 06
YRh Ga
RuRh S
223 12
1193 541
1193 423
1193 748
ĠTiZr Te
202 89
202 79
1226 111
1226 421
1226 090
CaCu Si
1104 462
1104 502
1104 337
YPd Si
YPd Bi
ĠCaAg Hg
CrFe Ge
541 487
977 545
977 537
977 425
279 10
279 97
ĠScCd Rh
ĠScCd Ag
1120 730
1120 767
YAg Ga
111 44
12179 02
12179 89
12179 95
163 24
607 230
607 475
PdAu Sn
PdAu Pb
12171 43
12171 93
12171 44
12171 72
12171 32
1218 111
1218 804
1218 699
139 23
139 18
ĠAlSi Pt
ĠTeMn Zn
ĠCrSi Ru
HfPd Si
10142 26
ĠVRu Sb
CaPt Sb
11879 22
11879 26
288 75
ĠHNa Ca
TaRu P
8627 02
SrZn Ge
203 16
10255 75
11023 10
12288 93
12288 91
247 28
GaAl As
10954 27
12073 65
10252 70
10252 91
12166 40
12166 41
1067 1
1067 925
273 19
849 081
976 082
1214 857
ĠMnAl Ir
12163 78
12163 97
1227 503
1227 698
1227 574
282 42
CaAu As
YZn Ge
YZn Sn
8650 88
10788 25
10788 60
283 03
214 40
199 71
11840 30
AuCu Se
SrAu Si
SrAu As
10955 53
10955 75
10955 73
989 576
12159 88
FeV Sb
ScRh Te
12267 40
12267 83
616 204
HfNi Ge
8656 53
SrPt As
SrPt Cd
SrPt Tl
11020 73
11020 41
12242 75
197 47
12189 55
12189 70
504 838
ĠYBi Pd
ĠYBi Pt
676 828
677 105
975 144
ĠHfZr Zn
ĠHfZr Co
PtZn AsPt
12195 12
11872 45
11040 00
12216 10
12216 96
12216 69
12216 32
CaCd Ge
ĠVZn Co
TiNi Cu
RhTe Cl
HfZr S
HfZr Zn
HfZr Co
754 556
ĠMnGa Pd
1191 100
1191 422
1191 401
793 7
226 02
11845 89
11845 87
9896 11
9896 49
ĠScZn Pt
ĠAsIn Ga
1179 970
5702 70
12152 86
180 2
8616 04
8616 39
8623 71
8623 00
9773 71
9773 84
12193 80
12247 84
153 08
153 58
864 835
5424 86
8657 91
TiW Mo
TiW Re
11017 85
11017 53
11017 74
12273 80
12273 64
12273 51
CuZn As
8646 50
8646 51
12183 49
8661 40
8661 73
8661 83
10239 48
12170 15
1245 636
11031 80
11834 53
HfCr Ga
8651 45
8651 31
10796 43
11874 20
11874 33
11874 18
11877 11
11877 71
178 67
178 71
1095 504
1095 201
218 85
218 47
SrPd Cd
309 79
ZrNi Ge
10779 44
MnRh Sb
8626 02
6846 38
1019 578
1013 588
9723 23
11867 66
11867 63
NaAu In
12249 54
160 37
12082 65
12082 87
157 24
9813 79
1222 206
1222 167
NbSe Cl
HfMo Tc
12248 10
12248 75
TiFe H
11026 40
12077 07
12077 23
12263 85
12263 40
CoTi Sn
290 69
9717 12
10913 90
11038 79
11902 62
10806 46
ĠAsAl Ga
5703 55
11029 25
MnFe Pd
9762 57
662 563
1084 838
11036 08
12188 12
12188 50
293 71
5050 34
11057 15
11057 01
11830 38
12388 23
12069 41
12169 49
12169 27
11896 89
5416 89
10951 85
207 08
1198 114
CaAg Hg
8652 35
5689 03
12262 54
12262 49
10257 99
5690 44
ĠSrCa Pb
11063 56
314 55
295 85
ĠVGa Os
12057 84
312 34
KAg Cl
ĠGaCu Pd
12250 23
12190 34
184 40
12274 41
12261 79
ZrCu Ti
11019 76
9799 10
708 4
11041 39
11049 51
8679 09
ZrW Tc
8624 86
12204 53
12204 82
6755 31
600 125
11010 75
12272 46
5693 91
ĠZnIn Rh
ZrCr Co
6372 63
12238 42
12238 23
287 42
SrCa Pb
8677 75
8677 68
5412 36
1357 2
11042 90
12181 10
9969 40
11033 46
11033 59
10847 67
10847 70
1024 052
1024 051
10285 86
11477 09
10136 43
1213 974
9616 87
10260 34
12194 96
1052 7
12280 17
5713 43
5713 70
5713 77
696 216
984 714
9827 25
12270 14
12270 38
12455 38
12177 63
10296 86
10296 81
10240 48
ScAu Ge
5737 21
10950 57
11004 05
ĠTiIn Co
ĠHfIn Cu
11908 80
12213 19
1683 9
6287 73
12275 71
12287 52
12287 24
11906 61
12214 54
9729 14
9847 04
12182 62
10263 56
10276 08
12217 89
277 76
AlNb Cr
1210 826
12459 67
5411 49
1195 837
11018 85
11018 70
11018 49
11843 68
6759 20
6759 77
8648 44
147 91
11039 56
10193 22
12156 09
10258 15
12474 19
ĠZrCd Rh
5576 40
TlN Ca
10785 74
10785 14
11730 50
9752 72
10953 96
10953 72
5100 40
1197 539
1197 660
12233 76
10287 55
5567 12
11027 02
12007 50
122059 9
8490 54
ĠMnFe Pd
5538 75
6442 80
9767 24
9721 83
10781 83
11912 80
11944 81
5421 38
11958 55
10968 10
6743 55
5423 87
11045 54
12277 88
11887 25
11207 16
6444 83
ĠGaH Cl
5603 70
12088 37
12061 77
11890 54
11938 21
6400 41
10716 23
12470 04
6799 83
315 10
5102 83
5106 96
SPS SCs
YGe Sn
YBi Pt
10404 53
121216 1
67569 1
96169 7
11926 18
5560 05
6376 14
120307 3
120981 8
110296 1
1 435
3 1187
3 862
3 159
3 529
3 829
3 704
3 532
4 549
4 897
5 129
5 829
6 06
6 19905
7 15
7 632
7 881
7 639
8 422
8 966
8 543
9 025
9 223
9 023
9 868
K K
K Pt
K Cd
K AsSe
K BiS
K FeN
K PbBi
K SbCl
K CoN
N V
V Mo
V NiSi
V CoGe
V CrFe
V CoP
Y Sc
Y Cr
ĠIn Mo
ĠIn GeTe
ĠIn SiPt
ĠAl CrRu
ĠTi V
ĠTi CrAs
ĠTi InPt
ĠNi Sn
Al Pd
Al In
Al MoSi
ĠPd Cs
ĠHf TiZn
ĠZr Nb
ĠZr TaCo
ĠCa YRh
ĠCa YPt
ĠCa MnS
20 152
20 199
20 793
20 331
20 244
Fe Nb
Fe AsS
Fe CoS
Fe MoP
ĠMo WS
ĠY Sc
ĠTa InSe
ĠTa VH
ĠSc Os
Ti Pt
Ti Rb
Ti NiSi
Ti VSe
Ti RuAs
ĠZn HgS
ĠZn HgSe
Pd AsSe
In V
In Si
In Ni
In Ag
In GeTe
Ni V
Ni Ti
Ni AuSn
ĠGe Zn
ĠCo Mo
ĠTe W
ĠTe Mo
ĠFe Tc
ĠCr FeAs
ĠCr MoV
Pt Bi
Pt AsS
Pt PdZn
Pt PbTe
10 223
10 895
10 137
10 21328
ĠMn CrN
ĠMn CoSn
ĠSr Ni
ĠSr Nb
ĠSn Cd
ĠSn PbSe
Ga Zr
ĠNa SnP
ĠNa FeN
ĠAg SnSe
ĠAg PdAu
ĠAg SbTe
ĠAg BiSe
12 52
12 119
12 115
12 731
Rh CoS
Rh PtCd
Zn C
Zn Rh
Zn Au
Zn Tl
Zn PS
Zn CdSb
Zn SnN
Cu SbS
Cu ZrSi
Cu SbSe
ĠK Pt
ĠK Cd
ĠK BiS
ĠK ZnAs
Zr Nb
Zr PbS
Zr FeSi
Zr TiRh
Zr TiFe
Zr CrMn
Zr TaCo
Zr MoFe
Hf SeS
Hf PtGe
Hf CrAl
Hf MnGa
Hf TiZn
Ag N
Ag SnSe
Ag SbTe
Ag CrSe
67 57
67 56
67 49
33 45
54 05
54 85
54 14
54 282
Co Nb
Co SeS
Co PS
Co TeSe
43 66
43 92
Ru NiSb
96 93
96 87
Ir AsSe
11 167
11 123
11 739
11 719
Nb PdSi
Nb CrGa
Nb ReSi
ĠPb SnS
Au Hg
ĠCd Zr
42 67
42 47
42 52
69 33
69 16
69 79
Ta PbS
Ta InSe
Sc V
Sc Ti
Sc Re
Sc AgZn
Sc CoAl
Sc IrGe
Sc TaN
Sc MnGe
Sc TlS
55 6916
16 84
16 39
16 304
16 961
16 335
16 090
16 687
ĠRe Sc
05 65
ĠRb NH
ĠRb CaCl
22 86
22 522
22 857
22 418
22 506
22 936
53 50
Cr CoP
Cr NiSb
Cr MnN
Cr MoV
Ca Ge
Ca YRh
Ca GaSn
Ca YPt
Ca AgP
Ca MnS
Ca SrPb
15 11
15 27
15 687
15 868
Mn Ti
Mn Cr
Mn AlGe
Mn IrSi
Mn CoSn
Cd Ge
Cd AsP
Cd SnAs
71 73
71 91
71 98
21 99
21 459
21 851
21 774
21 883
21 547
40 13
Pb PS
Pb SnSe
Pb HfS
ĠHg Pt
ĠHg GaCl
ĠCs Fe
23 97
23 01
23 27
23 827
23 049
57 29
57 00
74 94
89 52
89 41
89 77
82 88
82 57
82 77
75 83
93 82
93 83
Sr Hf
Sr Nb
Sr Sc
Sr AlGe
Sr CuP
Sr SiN
Os Ir
Tc Tl
70 38
45 95
83 61
24 081
79 29
56 183
56 1118
56 1902
56 1639
56 1511
Hg Au
Hg ZnS
Hg ZnSe
Hg GaCl
60 5485
Na Mo
Na PS
Na AlSi
Na SnP
Na SbTe
Na AuSn
Na FeN
Na GaTe
Na AlH
Na ZnSb
78 54
72 1582
59 21
59 29
77 73
51 88
18 49
18 165
18 198
Tl Fe
Tl Ni
Tl Zn
Tl Cr
Tl Tc
49 87
29 56
29 861
29 889
29 152
29 744
29 529
29 679
29 491
29 749
76 57
48 70
13 666
97 4267
84 09
92 52
92 89
14 206
14 336
14 338
90 10
ĠAlTi Fe
94 07
37 08
37 808
26 62
99 88
27 57
27 549
27 335
27 898
27 814
27 532
17 892
30 208
30 437
30 465
30 461
30 075
39 44
28 201
31 207
Rb Si
Rb NH
Rb Mo
Rb TiS
Rb MnSe
Rb CaCl
Rb FeN
Rb AlH
Rb CoN
Rb CdCl
Rb SH
120 9823
120 8621
120 4392
120 8952
120 8409
120 2662
110 452
110 2147
110 5693
121 4842
Cs Te
Cs CuS
Cs InSe
Cs GaS
Cs AuTe
Cs TaN
118 4870
ĠTiAl Au
122 1139
122 1252
122 8288
114 86
233 90
ĠScSb Pt
ĠScSb Ru
1216 503
1216 894
1216 460
1216 214
1216 134
1216 338
1216 348
1216 581
1216 066
1216 254
1216 245
1216 963
1216 065
116 07
107 2286
107 7854
ĠAlSc Ag
1220 503
1220 691
1220 695
1220 700
1220 546
1220 692
1220 083
1220 883
1220 148
ĠTaSi Se
102 5689
1183 167
1183 571
1183 634
1183 048
1183 528
1079 862
1079 228
1079 193
1079 729
1079 048
569 132
569 204
569 060
569 881
569 523
ĠHfAl Rh
1186 227
1186 205
1186 140
1186 185
119 1009
119 1068
119 2510
119 4990
119 1527
119 2397
119 5188
119 4987
101 7554
867 109
867 173
867 249
867 326
867 187
867 748
ĠSZn Hg
1187 730
1187 079
ĠMnSi Ru
567 883
1215 296
1215 678
1215 205
1215 506
1215 776
1215 928
1215 665
1215 339
1215 291
1215 244
1219 220
1219 249
1219 291
1219 442
1219 497
1224 862
1224 175
1224 466
1224 860
ĠCdAg Au
1217 151
1217 437
1217 094
1217 790
1221 501
1221 125
1221 975
1221 900
1221 718
1221 491
1221 807
1221 748
1221 499
1221 787
222 53
222 84
222 61
1080 693
1080 769
1080 715
ĠZnP S
ĠCoSb Rh
1188 559
1188 445
1188 741
112 85
112 53
ĠSeIn Cu
1078 780
1078 766
ĠNaSb Te
100 10
ĠAlAg S
1223 866
1223 443
1223 831
1223 510
1223 749
1223 647
106 4013
106 8941
ĠGeTe Rh
11869 78
11869 92
ĠZrIn Rh
113 66
108 49
108 76
ĠTaAl Fe
1184 579
ĠSbTe Pd
103 71
103 0565
1189 305
1189 981
1189 249
1189 510
1189 225
1189 520
ĠHfNi Sn
862 561
10180 72
10180 51
ĠAgP Pt
974 713
ĠAlGe Sr
865 100
865 659
167 70
167 65
568 695
568 856
306 59
306 03
ĠNaBi S
303 61
1025 222
1025 219
1025 195
1025 876
12243 85
12243 64
12243 17
571 203
296 07
296 03
105 33
105 21
11860 11
11860 69
1207 714
1207 125
1207 671
973 434
1105 097
1105 859
123 59
12180 73
133 12
133 11
ĠScSn Ru
972 861
972 631
972 879
11880 20
ĠScIn Rh
ĠScIn Ir
12154 47
12154 66
12154 76
12154 84
12154 87
12154 03
1229 165
1229 208
1229 158
979 414
ĠTiNb N
117 68
117 8620
12203 93
280 69
280 64
1246 060
1246 059
1246 490
866 168
204 85
11846 11
11846 57
1103 555
1103 697
1103 091
12153 85
12153 06
12153 23
12153 72
304 10
1029 9
1029 420
1029 569
1029 737
1029 258
1029 444
1029 491
ĠPTi MnP
12155 64
209 85
209 83
209 49
ĠCrNi Sb
999 576
1102 834
ĠSiV Fe
12289 53
12289 71
ĠAlV Mn
213 40
ĠCAl Fe
WSe Te
ĠSrIn Hg
307 22
307 47
307 01
307 98
1023 931
1225 101
1225 166
1225 994
1206 858
10253 55
10253 85
10253 86
10253 70
10253 44
179 89
179 26
1208 222
1208 730
1208 217
ĠPY Pt
1247 569
1247 555
1247 541
1247 327
555 805
1228 738
159 58
AuAg Zn
AuAg Cd
1199 965
1199 518
8654 65
8654 41
FeSb S
227 22
227 93
12172 69
12172 85
12172 86
12172 91
RuRh Al
311 69
311 70
1193 568
1193 265
1193 594
675 208
1226 106
1226 130
1226 236
1104 117
1104 097
1104 053
YPd Al
CrFe Nb
977 204
977 543
279 16
279 04
ĠScCd Pt
8649 91
12179 10
163 21
163 18
607 437
607 267
607 990
PdAu Cu
12171 46
12171 79
12171 97
12171 37
169 77
YCu P
10786 21
10786 27
10786 28
129 06
ĠNaIn Pd
ĠNaIn Hg
1218 117
1218 730
1218 961
1218 424
1218 708
1218 773
1218 858
139 49
557 737
557 523
11032 80
5710 33
5710 96
5710 21
ĠHTa V
HfPd Al
559 204
559 492
1209 191
216 06
216 59
CaPt Sn
8627 12
8627 81
203 93
12288 10
12288 66
12288 31
205 65
ĠSeZn Hg
12260 04
12260 48
12260 30
219 01
12053 43
12053 07
12053 42
12053 29
12053 92
10954 64
12073 83
10252 82
10252 78
10252 63
10252 35
TiCr Mn
ĠMnAl Pd
SrP Se
12163 51
12163 49
336 83
1227 504
1227 436
1227 051
289 95
228 55
8650 02
8650 39
10788 73
171 85
171 48
199 15
199 46
680 754
YAu Si
10955 32
989 401
1147 773
9722 17
12159 18
12159 87
12267 54
11836 33
11836 88
242 87
616 461
HfNi Sn
221 47
8656 52
8656 89
8656 00
11020 40
11020 23
12242 50
12242 82
211 66
211 41
211 18
211 34
12189 25
12189 94
12189 17
12189 38
ĠZnCu Pt
504 835
676 437
676 058
975 897
975 176
ĠInAg Au
ZrSn Te
998 197
10780 54
10780 77
10780 49
10780 00
11040 27
12216 89
CaCd Sn
142 66
142 41
1191 777
1191 428
230 33
11043 77
11845 54
11845 86
11845 94
443 1
CrAs TiAs
9896 47
9896 35
12173 19
12173 60
12173 14
ĠScZn Au
297 40
1179 5
1179 773
5702 58
12152 46
180 03
8623 70
CuP N
12193 22
12193 93
12247 70
12247 25
12247 91
5673 94
153 22
183 47
864 671
864 966
5424 43
8678 42
158 42
12157 33
12157 50
12157 57
971 739
YPt P
8646 84
162 61
300 19
300 30
12290 11
12290 19
12290 31
10239 54
10239 41
ZrAl V
12170 16
12170 22
1245 808
11834 82
11907 73
11871 95
HfCr Ge
ScRu Ge
8659 29
8659 90
1190 500
11877 25
SrPd Tl
309 38
5712 63
MnRh N
1013 545
12249 47
313 63
12066 38
12215 21
10793 25
12199 54
9813 12
9813 65
9813 68
1222 132
12063 79
554 575
9775 68
12071 96
11028 43
11028 55
12167 75
12167 64
12167 99
1028 731
1028 414
146 59
342 93
760 381
ĠTeZr Cu
8637 57
12077 53
12077 88
12077 82
934 092
11842 76
12263 98
5429 53
561 456
6971 44
510 052
8622 57
8622 56
225 80
290 22
181 93
181 32
ĠSbAl In
5418 10
5418 78
11038 69
10789 08
8619 50
293 42
293 08
5050 16
5048 15
560 806
632 502
11057 75
12388 47
329 9
685 607
1027 525
12169 46
12169 45
207 57
5689 34
12262 12
5690 08
ScPt In
ScPt Sb
185 83
ĠVGa Ni
ĠVGa Co
1232 423
1192 151
12090 47
11021 95
12463 46
312 33
312 97
5688 48
5688 32
12074 67
12250 04
ĠZrSn Ru
RbAu S
12009 72
12274 16
12160 16
12160 21
1101 894
1101 813
11019 82
10642 20
11049 55
12286 11
CoN Cs
ĠCrGa Ru
11052 10
562 726
ĠVCr Mo
6755 53
ĠHgP Pt
10941 48
5693 44
5693 60
1030 119
12238 70
ĠCrGe Ru
12078 11
12078 48
RbGa H
12467 97
1096 809
1096 802
TaV H
298 11
ĠCoNi Pt
10847 75
1024 4
1024 076
1212 666
605 663
1094 108
1094 105
CdN Ni
11061 77
ĠSGa Fe
294 69
294 15
12194 88
644 494
12102 46
12178 16
12280 15
5104 09
696 804
696 805
11957 58
909 802
YIr Ga
135 83
10240 67
10240 49
ScAu Al
ScAu Si
5737 55
10950 61
ScH Cl
6080 81
11024 43
11024 52
11972 12
446 8
10259 06
ĠScH Cl
6753 25
10263 62
10263 51
10263 49
924 128
12217 42
277 88
12459 22
1195 505
12065 94
10784 11
10784 69
SK H
6759 89
5049 41
5049 28
147 96
1173 060
11046 12
11046 86
12284 43
10193 78
12156 33
12265 14
12454 01
6430 05
6430 22
ĠNCl Ca
ĠNCl Sr
6762 50
86233 7
5741 12
9752 37
12085 87
285 80
285 83
619 279
1197 835
11933 37
6308 75
12218 15
11899 16
11055 58
11048 54
11048 96
11048 41
12196 45
10808 44
12007 20
10292 69
10292 57
6432 57
5725 98
10712 88
12158 72
650 513
10294 69
10297 50
10968 20
6743 28
11887 96
996 162
996 161
BiN Sr
SrZr N
1238 795
11928 77
10274 83
1113 233
9912 96
12056 41
10275 69
10454 65
12458 96
6437 02
5606 63
5829 88
606 503
10137 60
12119 81
6757 50
54282 6
11167 69
11123 53
6979 77
ScRe Ge
5700 08
56183 0
110452 6
0 21
2 60
2 7260
3 57
3 44
3 59
3 41
3 1018
3 698
3 934
3 701
3 827
4 83
4 678
4 160
4 475
4 962
5 85
5 166
5 1008
5 807
5 883
5 190
6 86
6 083
6 086
6 534
6 190
7 81
7 116
7 223
7 434
7 436
7 829
7 051
8 78
8 117
8 717
8 695
8 479
9 14
9 673
9 029
9 071
K Sn
K SnSe
K FeS
K CuTe
K MnTe
K FeCl
K TaCl
K YS
K CaBi
P AuCl
Y MnSi
Y ScZn
Y ZrS
Y ZrRu
Y ZrFe
e ight
o gen
ĠC yan
ĠN K
ĠN CuGe
ĠP H
ĠIn Sn
ĠIn CuTe
ĠIn SnCl
ĠIn CuPt
ĠH Se
ĠTi CuS
ĠTi CrS
ĠTi VN
Al BiCl
ĠHf ScRh
ĠHf NbN
ĠZr RuSb
ĠZr TaCr
ĠCa ZrRh
ĠCa PbSe
20 025
20 133
20 227
20 730
20 335
20 744
20 860
20 649
20 791
Fe Mo
Fe NiP
Fe CrP
Fe PdSb
ĠV Cu
ĠNb InS
ĠNb CrN
ĠY ScZn
ĠY CuSe
ĠY ZrS
ĠY ZrRu
ĠY TlAg
ĠY ZrFe
ĠTa NbRe
ĠTa MnRu
ĠTa InRu
ĠSc Ti
ĠSc Cr
ĠSc CoTe
ĠSc TiRu
Ti CuS
Ti CrS
Ti VN
Ti NbRu
Ti NbFe
Ti NbCr
ĠZn CdTe
Pd Ga
Pd SbS
Pd NiTe
Pd TlPb
In SnSe
In SnCl
In AlSe
As Pd
As Tl
Ni HfSi
ĠGe BiPd
ĠCo H
ĠCo SnRh
ĠTe Ga
Pt SnSb
Pt MnGa
Pt CuZn
Pt AgCd
10 50
10 208
10 163
10 214
10 428
10 748
ĠMn Tl
ĠMn CoSb
ĠMn CdTe
ĠMn CuPt
ĠSr Ru
ĠSn GeSe
Ga GeTe
ĠNa Fe
ĠNa Zn
ĠNa Mo
ĠNa SrAu
ĠNa GeN
Ge Bi
Sb CrSe
12 56
12 557
12 418
12 527
Rh Ag
Rh BiTe
Zn Pt
Zn Bi
Zn MnSe
Cu Ti
Cu SeS
Cu PS
Cu YSe
ĠAu SCl
ĠIr Mn
ĠK Ni
ĠK MnTe
ĠK CuCl
ĠK RbCl
ĠK YS
Mo Mn
Zr TiS
Zr TaFe
Zr TaCr
Sn GeTe
Sn GeSe
Hf CoSi
Hf FeSi
Hf NbN
Ag Rh
Ag GaSe
67 67
67 52
67 65
67 607
33 16
33 85
33 90
33 333
54 43
54 96
54 35
Co NiS
Co NiAs
Co GeTe
Co FeP
43 07
96 82
96 59
96 167
Ir SbSe
11 164
11 501
11 430
11 677
11 900
11 444
11 401
Nb CoP
Nb MnP
Nb MnSi
Nb IrTe
Nb CrN
Nb VCo
ĠPb Ge
Au SiP
Au SCl
ĠCd SnRh
ĠCd HgSe
ĠCd HgTe
42 61
Ta PS
Ta FeP
Ta NiTe
Ta NbRe
Ġ8 8
Sc MnSi
Sc CoTe
Sc OsGe
Sc TiRu
Sc MoTc
55 85
55 70
55 58
55 84
ĠRb Fe
22 503
22 152
22 897
22 787
53 96
53 18
Cr Nb
Cr Cs
Cr AuTe
Ca ZrRh
Ca PbSe
15 074
15 236
Mn RhSi
Mn FeAs
Mn CdTe
Mn CuSe
ĠTl AsPd
Cd Ag
Cd SnSb
71 12
71 94
Bi Pb
21 31
21 336
21 863
21 449
21 495
86 80
86 64
86 18
47 44
46 89
23 204
23 977
23 484
23 739
23 949
23 859
57 31
57 3316
62 5
62 53
74 07
89 76
82 11
93 25
Sr Ag
Sr AlSi
Sr MnN
Sr AgP
Sr AgBi
Os Ni
Tc Mo
73 78
65 6253
83 89
83 60
56 1682
44 88
44 52
Hg CdTe
Na Fe
Na Zn
Na MnP
Na SrAu
Na ZnN
Na CuTe
Na CdAs
Na GeN
Na RuN
Na AlTe
Na ScCl
78 23
68 76
72 95
59 8
59 10
41 72
77 07
77 85
64 4307
51 42
18 105
18 163
Tl Sn
04 52
63 9659
63 7194
29 111
29 139
29 579
29 432
29 598
76 8680
13 673
13 542
13 448
97 5359
97 7407
97 6876
92 73
92 72
87 66
90 07
ĠAlTi Au
36 23
36 577
91 45
95 50
95 22
37 15
27 961
27 826
27 475
27 656
17 691
17 538
17 625
38 54
28 717
28 192
28 423
28 334
28 797
28 497
Rb Cr
Rb FeS
Rb PSe
Rb CaH
Rb CuCl
Rb SnCl
Rb KCl
Rb KS
120 5588
120 0452
120 9522
110 58
110 5435
110 4488
121 1251
121 4261
Cs N
Cs Pt
Cs Bi
Cs FeS
Cs ReN
Cs TiCl
Cs AlCl
Cs PSe
Cs AgSe
118 1222
122 5702
122 7045
122 7112
ĠNiP Se
ĠTaNi Te
1216 571
1216 230
1216 666
1216 495
1216 600
1216 883
1216 848
1216 577
281 12
1220 522
1220 676
1220 756
1220 701
1220 590
1220 738
1220 511
1220 596
1220 594
1220 746
1183 464
1183 989
1183 218
1183 448
1183 537
1183 547
1183 458
1183 516
ĠAlCu Au
1079 999
1079 546
1079 754
1079 094
1079 718
1079 679
1079 597
569 7
569 983
569 151
569 532
569 511
1186 224
119 5050
119 2450
119 8311
119 1954
867 306
867 169
867 149
867 168
867 330
867 751
ĠSCu Pt
ĠMnP Se
1187 231
1187 731
567 1
567 196
567 558
567 330
567 749
1215 979
1215 213
1215 700
1215 331
1215 189
1215 662
1215 937
1215 298
1215 190
1219 472
1219 434
1219 926
1219 293
1224 865
1224 980
1224 430
1224 082
1224 506
1224 897
1224 414
1224 091
1217 100
1217 213
1217 162
1217 934
ĠSiSi Ni
1221 310
1221 421
1221 777
1221 692
1221 436
1221 728
1221 827
1221 548
1221 534
1221 761
ĠCaSb Pd
308 44
1018 803
1080 452
ĠNbIr Te
ĠSiP Au
ĠNbGa Tc
1078 168
1078 703
ĠAlMn Co
1223 955
1223 673
1223 857
1223 898
1223 813
1223 884
1223 781
ĠSnTe Pt
ĠGeTe Pt
ĠCh loride
11869 54
11869 50
11869 44
11869 51
11869 38
ĠScGa Ir
ĠSeBi Ir
570 505
570 091
113 60
108 78
ĠGaTe Se
1184 678
103 74
103 59
1189 438
1189 260
127 43
ĠYSn Au
ĠTeGe Pt
ĠTeGe Rh
ĠTeBi Rh
ĠSFe Ni
115 83
220 61
862 787
10180 85
10180 22
974 690
865 121
1025 185
1025 190
12243 89
12243 76
12243 26
ĠTeSn Pt
571 461
11860 05
11860 13
1207 728
1207 095
973 666
CaZn Ge
12180 42
12180 90
12180 35
12180 27
133 50
136 85
ĠScSn Pt
972 935
972 882
12154 06
12154 23
1229 167
979 267
ĠTiNb Ru
ĠTiNb Cr
8655 60
8655 14
8655 94
ĠReN Cl
212 49
1246 460
1246 430
1246 073
1246 877
1246 021
866 104
866 159
11846 12
1103 227
1103 162
1103 787
1103 749
12153 21
12153 75
12153 45
ĠHgTe S
1029 730
1029 899
1029 479
1029 771
1029 878
12155 52
12155 17
12155 28
999 136
999 517
1102 564
ĠSiV Co
104 12
104 8662
12289 06
CuAl Se
TiPd Zn
213 74
213 01
ĠMnZn Se
ĠMnZn Ni
274 90
NiP Se
1023 129
1225 136
1225 174
1225 224
1225 897
1206 406
1206 072
10253 22
179 80
179 45
179 48
5708 58
1247 459
1247 331
1247 351
980 659
980 649
980 661
1228 506
FeS P
8654 69
8654 85
8654 62
227 75
227 25
311 71
311 58
1193 111
1193 856
164 82
164 93
675 101
1226 121
1226 449
1226 432
1226 064
1226 458
CaCu Sb
1104 438
1104 829
279 47
1120 739
MnP Se
8649 50
8649 74
8649 83
8649 51
12179 83
NiSb Se
6722 73
CoS P
12171 95
YCu Ga
10786 35
AsSe Ag
1218 960
139 67
139 92
981 311
981 539
ĠAlSi Sr
ZrSi Al
5710 16
ĠSnAs Pd
1209 089
216 57
216 25
198 10
198 33
198 44
288 42
288 88
8627 23
203 78
673 824
12164 43
SrSn N
11023 14
ScHf Rh
12288 45
205 33
205 54
205 11
205 86
125 65
12260 69
12260 36
12260 17
12260 39
12260 03
247 3
247 47
HfPt Ga
152 52
634 676
9720 48
10252 81
10252 36
10252 39
OsP Se
175 97
12166 80
12166 22
ĠSeMn Cu
1067 6
273 94
976 401
ĠMnV Ru
5686 61
5686 03
ĠMnAl V
ĠMnAl Rh
ĠMnAl Os
505 164
505 628
5683 49
1185 926
1185 970
1070 483
1227 206
1227 695
1227 558
1227 426
282 83
289 54
289 47
289 45
289 41
289 97
289 87
8650 41
283 47
283 02
5716 09
5716 61
171 86
214 47
680 639
YAu Ga
10955 07
1147 666
12159 45
12267 41
12267 29
242 90
ĠSeCd Hg
11020 06
12242 12
12242 71
197 65
12189 09
12189 15
12189 99
12189 28
ĠZnCu Au
998 787
674 465
11872 10
11872 12
11872 42
11872 40
10780 05
11040 42
11040 24
12216 67
12216 50
12216 19
12216 24
12216 41
11878 69
985 699
230 05
11043 78
154 31
1178 808
11845 92
9896 45
9896 24
9896 51
9896 17
ĠScZn Ni
ĠCaCd Hg
8616 62
8623 62
8623 65
8623 79
8623 72
8623 61
9773 56
9773 63
5673 54
183 02
ĠCaZn Si
864 890
10969 92
8678 11
170 30
12157 09
12157 21
971 837
971 827
5426 42
5426 81
12273 00
8646 40
8646 23
12183 67
12183 79
12183 84
162 66
162 63
NaHg NaSn
12290 08
10239 53
756 473
12244 19
11874 91
11874 99
11877 07
11877 05
178 11
1095 694
1095 664
309 71
309 73
309 99
CaH Cl
1106 051
10779 80
VMn Ru
11867 68
ĠSTa Cu
ĠSeHf Tl
NaAu Se
12249 15
12249 86
12249 87
313 8
313 60
313 13
12082 41
12066 35
1087 479
1087 238
9785 23
9785 95
12215 09
12215 28
TiTe S
1222 504
554 074
12071 69
12167 67
12248 96
12248 19
645 719
1028 690
1028 492
1028 761
8637 07
12077 08
TiMn Ir
12257 47
CaPd Sb
510 557
8622 58
RhV Sb
225 65
ĠTiMn Ir
CrMn Pt
637 866
11029 19
9762 65
5696 39
12188 35
293 76
293 87
9749 51
12388 55
12388 25
12388 76
12388 94
643 945
1027 692
ĠSrTl Hg
12169 03
YH Se
5416 87
TaMn Ru
10951 80
774 873
ĠAlGa Ru
207 40
ĠTeZn Cd
5689 20
12262 48
12262 84
10257 33
5690 12
284 80
1006 3
1006 888
1194 113
314 71
314 57
1192 540
12090 09
9854 42
12250 22
12250 00
12190 09
12190 50
12190 01
InN Ni
1014 204
RbAu Se
12274 86
11019 71
11019 52
11019 83
10798 96
11041 33
11049 29
8679 16
8679 58
991 434
ĠCrGa Fe
SrCu As
10293 57
10293 13
773 137
SrHg In
10782 74
287 66
287 70
287 60
KNa Se
SrCa Ge
5711 62
12467 50
11042 15
SbRu Zr
239 33
1212 637
11870 06
1094 106
ĠZnGa Ir
1213 692
299 12
12194 80
12194 10
ĠVSb Rh
12102 11
11909 50
11909 72
12270 03
12455 62
12455 98
135 12
12269 39
10240 69
HgCd Se
11108 80
11022 85
11022 84
12213 82
12275 12
11922 66
1063 938
12264 52
9729 57
910 968
6753 74
6753 91
CrNi Nb
11051 87
12182 56
10276 82
12217 02
12065 10
12064 05
11018 41
6759 02
5047 53
5049 09
147 90
144 44
1173 513
1173 830
11046 04
11046 13
11039 96
12474 93
6430 10
6430 06
11730 40
86233 4
5741 69
10953 97
12471 94
285 95
302 53
5100 01
6754 52
640 312
5056 32
10707 13
10775 89
12218 43
ĠMnCr Pt
6750 09
12139 59
12220 31
6428 21
9986 04
12165 66
10712 69
11912 85
12259 67
5421 88
5054 67
5054 95
8630 11
10940 08
10307 32
10970 67
10970 21
10288 69
10284 09
10284 52
6444 86
12088 39
12061 10
11938 47
1238 784
11928 16
11047 32
11047 35
10274 92
12466 57
12473 61
10175 67
10175 15
12116 43
12472 46
6751 32
11829 50
9987 50
9845 86
1100 417
5405 69
357 46
344 67
359 5
341 69
585 949
51008 6
686 056
6083 14
6086 62
6534 54
6190 32
ĠCyan ogen
ĠHSe Y
ĠMnTl Rh
1256 151
6767 37
6752 90
6765 86
67607 6
96167 8
11900 41
5585 18
8664 81
8618 77
5731 45
3 52
3 72
3 18
3 291
3 807
3 592
3 787
4 15
4 192
4 152
4 809
4 899
5 124
5 549
5 151
5 339
5 881
6 57
6 166
6 219
6 628
6 540
6 10744
7 96
7 07
7 40
7 113
7 430
7 429
7 432
7 794
7 070
8 44
8 116
8 713
8 965
8 704
9 82
9 41
9 330
9 295
K NH
K Zn
K SnSb
K GaSb
K NaCl
K SnAs
K CrCl
P Pd
V Tl
Y MoN
Y MnCo
ĠC Co
ĠC Na
ĠI a
ĠIn FeRh
âĤĤ âĤĪ
ĠTi CrN
ĠPd RhPb
ĠHf TiMo
ĠZr NbCo
ĠCa Cr
20 63
20 90
20 832
20 545
ĠGa SiNi
Fe In
Fe NbP
ĠNb Ag
ĠSe Ta
ĠY FeNi
ĠTa HgS
ĠSc ReTc
Ti TeSe
Ti ZrTe
Ti OsGe
ĠZn Cr
Pd N
Pd MnTe
In SbSe
In PbCl
In GaTe
As Au
Ni Cl
ĠCo NiAs
ĠTe HfCu
ĠTe TaCu
80 16
ĠCr GeTe
Pt SnSe
Pt SbSe
Pt BiSe
Pt MnSb
Pt MnSn
10 166
10 204
10 165
10 164
10 226
10 470
10 059
10 749
Te Bi
ĠMn In
ĠMn Sn
ĠMn Tc
ĠMn SbPt
ĠMn ZnS
ĠMn SnPt
ĠMn SnRu
ĠMn SnPd
ĠSr AuIn
Ga Ru
Ga Tc
ĠNa Ti
ĠNa VS
ĠNa SnN
ĠNa CaPb
ĠNa YS
Ge Cs
ĠAg BiTe
12 101
12 100
12 648
12 12167
12 12110
12 11440
Rh NiAs
ĠK Zn
ĠK Mo
ĠK Rb
ĠK SnS
ĠK SnSb
ĠK CaCl
ĠK NaCl
ĠK SnAs
Mo FeAs
Zr SnS
Zr CrSi
Zr MnP
Zr NbCo
Zr CoBi
Zr NbFe
Sn In
Sn NbS
Hf Te
Hf TiMo
Hf TiSe
Hf ZnN
Ag Ru
Ag CrS
Ag GaTe
Ag AuCl
Ag TlS
67 30
33 024
54 247
54 1989
43 63
Ru Ag
Ru Co
Ru CoS
96 30
Ir H
Ir MnSb
Ir BiTe
11 37
11 111
11 500
11 12173
11 431
11 417
11 12648
Nb PS
Nb RhSi
Nb CrP
Au CrS
ĠCd PbS
ĠCd PS
69 54
69 84
Ta SeS
Ta FeSi
Ta VCo
50 58
50 5149
08 4
08 7
Ġ8 3
Sc FeSi
Sc ReTc
Sc TlSe
55 53
55 89
55 13
55 7373
16 026
16 889
16 234
ĠRe Hf
85 81
85 30
85 39
ĠRb N
22 93
22 233
22 304
22 171
22 792
22 473
22 701
22 736
22 630
22 490
Cr Ag
Cr Au
Cr Tl
Cr GeTe
Cr GaSe
Cr MnTe
Cr NbSi
Ca NH
Ca HfS
88 29
88 90
15 121
15 776
15 071
Mn H
Mn NiSb
ĠTl Mo
ĠTl SiPt
Cd PbS
Cd PS
Cd PSe
21 418
86 196
86 2339
47 21
47 62
47 30
40 42
ĠCs Hg
ĠCs Rb
ĠCs MnTe
ĠCs SnCl
02 62
46 96
46 64
46 38
23 17
23 026
23 538
23 474
23 059
23 486
57 56
57 94
57 35
57 98
57 1215
93 84
Sr TiS
Sr PtGe
Sr SnP
Sr CuSb
Sr CaTl
Sr AgAs
Sr GaH
Os IrAl
Tc H
73 64
70 67
70 50
70 17
19 809
19 887
24 119
24 428
56 21
56 0262
Hg TaS
Na Ti
Na Nb
Na VS
Na InSe
Na TiSe
Na MnSb
Na PtCd
Na NbN
Na SnN
Na CaPb
Na YS
78 85
41 82
77 52
64 94
18 100
18 691
Tl Si
Tl CrS
Tl CrTe
Tl TlCl
49 09
49 22
63 278
63 7771
29 216
29 198
29 484
29 808
34 86
34 81
34 126
34 932
48 72
13 11
13 463
13 079
84 11
61 7
87 68
32 758
32 791
36 50
91 7343
94 54
95 86
99 9454
27 62
27 205
27 677
27 851
27 241
27 629
27 882
17 129
17 803
17 473
17 401
17 060
17 801
30 21
30 19
30 00
30 807
98 4696
98 4872
28 557
28 487
28 792
31 67
31 72
31 451
31 406
Rb K
Rb N
Rb Na
Rb CuSe
Rb FeCl
Rb NiCl
120 6849
120 7598
120 2780
ĠTiS Cl
110 1014
110 4485
121 4042
Cs Rb
Cs MnTe
Cs FeCl
Cs CrCl
Cs NaTe
Cs ScCl
122 1198
122 1137
ĠNCa Si
206 18
233 97
ĠScSb Pd
1216 110
1216 567
1216 865
1216 648
1216 178
1216 225
1216 470
281 74
281 89
281 75
1220 167
1220 549
1220 476
1220 425
1220 798
1220 734
1220 810
1183 5
1183 586
1183 740
1183 617
1079 559
1079 860
1079 246
569 193
569 952
ĠFeSe Cl
ĠHfAl Pt
1186 015
1186 107
1186 961
119 1025
119 6730
119 7050
101 54
867 113
867 242
867 739
867 761
ĠCoZr Bi
1187 098
ĠMnSi Ni
567 6
567 857
567 197
1215 955
1215 961
1215 214
1215 960
1215 704
1215 168
1215 729
1215 299
1215 638
1215 811
1219 015
1219 441
1219 530
1219 795
1219 917
1219 513
1219 787
1219 761
1219 527
ĠSeTi Cr
1224 336
1224 834
1224 193
1217 109
1217 890
ĠCaSi Au
1221 503
1221 549
1221 502
1221 678
1221 723
1221 774
1221 798
1221 333
1221 497
1221 907
ĠMnGe Rh
ĠNiZr Bi
222 89
1018 722
1080 529
ĠAgAu Cl
1188 794
1188 318
ĠYAg Se
1078 160
1078 709
ĠAlMn Ni
ĠHfGa Rh
100 2063
1223 976
1223 851
1223 971
1223 869
1223 581
ĠMnPd Te
ĠYIn Cu
11869 57
11869 36
11869 39
ĠScAl Pt
ĠZrIn Ni
ĠZrIn Co
TiS Cl
113 06
113 13
1184 829
ĠInSb Se
ĠInSb As
ĠTiZn Rh
ĠTiZn Au
ĠYAl Ag
ĠYAl Co
1189 107
1189 266
124 33
124 5407
1007 4
862 473
862 704
862 424
ĠSrSi Ge
865 504
865 076
568 965
568 543
ĠPN Cl
ĠNaBi Pd
305 93
1077 098
1025 151
1025 331
1025 207
1025 176
296 45
296 56
11860 10
11860 02
11860 01
1207 026
1207 222
973 153
973 141
123 47
123 2302
123 2317
CaZn Sn
12180 51
CoNi P
133 13
ĠScSn Rh
972 119
11880 66
11880 77
ĠScIn Ni
12154 20
12154 34
979 4
979 8
1069 706
1069 057
8655 87
12203 56
212 44
1246 116
1246 649
204 08
11846 20
11846 09
1103 938
1103 814
1103 534
1103 859
12153 74
12153 56
1029 832
ĠSTl V
12155 54
12155 73
12155 95
573 891
209 70
ĠZrZn Pt
ĠCdSb Au
999 139
999 508
1102 545
12289 92
210 67
210 27
186 19
186 60
ĠMnSb Ir
ĠMnZn Pd
ĠMnZn Pt
ĠMnZn Ir
274 71
307 21
1023 928
1225 125
1206 541
1206 500
1206 863
10253 80
10253 59
10253 29
1208 195
5708 37
1247 259
1228 500
1228 194
AuAg Te
227 21
1193 199
1193 657
202 42
675 124
675 628
1226 837
541 449
541 937
8673 62
977 244
279 99
ĠScCd Cu
YAg Te
8649 85
8649 71
310 97
12179 79
6722 65
ĠCdP Se
1218 857
1218 236
1218 548
139 94
557 629
131 40
ĠCaTl Cl
10142 51
11847 54
11847 57
FeSe Cl
1209 111
1209 292
1209 241
ĠHfZn N
ĠHfZn Ir
288 10
8627 20
SrZn Sn
SrZn Cl
173 24
ĠCaSn Hg
203 95
12260 09
12260 40
12260 14
232 87
SrCd Sn
12053 79
10954 99
12073 81
12073 41
TiCr N
12166 81
1067 7
273 69
273 21
273 59
849 084
976 190
5686 28
ĠMnAl Fe
12163 52
336 18
1185 972
1185 546
1227 555
ĠCaH N
CaAu P
CaAu Si
CaAu Cd
289 22
8650 11
8650 19
10788 96
283 83
5716 23
171 74
SrAu P
SrAu Cd
10955 13
10955 94
1147 754
1147 769
SrGe Si
12159 53
12159 57
628 726
12267 68
12267 61
12267 31
242 92
616 255
12242 59
12242 18
211 71
197 68
12189 26
871 9
ĠHfZr Mo
998 151
12216 20
12216 64
CaCd Pb
142 42
HfZr Mo
230 67
230 34
11043 81
SrAl H
11845 88
11845 68
9896 15
9896 04
9896 34
9896 38
12173 50
ĠScZn Cu
297 85
297 70
ZnN Ni
1179 796
YNi Co
8623 67
8623 11
8623 60
224 83
627 439
183 05
183 65
183 17
864 670
864 897
5424 96
8678 96
8657 30
11007 79
ĠCaIn Pd
ĠCaIn Ag
12157 12
12157 11
5426 80
12273 56
12273 72
215 98
8646 35
8646 39
12183 42
12183 72
162 46
NaIn Te
1245 818
1245 927
12070 11
11834 93
1057 2
1057 785
8651 78
8651 30
12206 89
1190 098
1190 111
11874 19
11877 16
11877 62
201 47
201 46
201 44
218 55
309 08
ZrNi Bi
ĠSCs Sb
MnRh Ge
8626 09
8626 23
NaP N
1019 279
1019 087
1013 900
1013 550
ScPd Sb
9723 27
8647 98
1205 964
1017 529
12249 44
12249 90
313 28
160 33
12082 61
338 80
1087 504
12215 54
9813 86
12063 50
12063 62
12063 78
554 868
9775 92
12167 72
146 24
5687 11
12263 02
AuCd Sb
10952 47
510 441
CaSn N
1068 786
1068 239
181 48
5680 20
182 90
5418 77
11038 46
5703 40
5703 70
637 251
11029 80
11029 24
5696 28
11036 07
293 0
293 74
293 03
12388 31
685 969
685 928
685 941
1027 890
12169 12
10804 86
ĠSrCa Tl
314 52
1192 856
1192 424
11021 32
312 76
312 31
5688 66
12074 14
12074 17
12250 02
InN Co
184 11
12009 71
12274 07
12160 80
12160 01
11019 43
11019 50
ĠCrSn Ru
9716 69
FeAl Nb
9833 62
12204 54
6755 77
11930 21
1030 504
10782 40
12238 10
12238 44
287 22
287 82
287 73
KNa S
248 22
10692 70
11011 19
925 1
622 755
ĠSeGa Hg
1024 072
1212 695
6726 80
6726 54
6726 53
138 72
10285 94
10285 26
10285 98
2783 9
12239 07
299 33
12194 69
12178 50
10792 54
5713 67
12270 33
12270 46
11957 69
642 736
1021 465
9746 82
9746 25
12269 52
12269 40
12200 13
10296 10
10296 33
10296 89
10240 50
ĠSeV Cu
10950 40
374 05
RhPd Pb
703 527
10259 11
10259 22
271 71
271 81
SbN Sr
8662 84
12214 10
9729 07
6753 10
10263 48
10276 45
12217 43
12217 07
583 071
1210 460
12065 91
12064 09
11940 30
10784 19
5053 41
5053 51
8648 96
147 63
5610 51
12252 32
11977 25
286 10
12240 47
10785 67
12454 51
10703 75
10703 56
6762 84
285 66
302 94
6754 77
6754 76
RbGe Cl
640 158
5056 22
6308 51
12233 11
12233 82
12233 13
10287 62
11905 73
6750 66
5605 38
5684 50
11055 70
12246 49
10808 16
12007 60
12220 92
6432 43
6432 70
6432 60
580 234
12120 11
12120 45
5587 62
9986 11
9986 05
9986 01
10712 30
11912 56
ZrV Mo
5054 51
5818 33
GaH Cl
12456 42
6763 48
5423 16
5045 64
9985 12
9985 67
11045 61
10970 00
10284 20
11207 81
623 089
1016 109
12266 87
6400 47
10716 45
12470 40
12473 60
1113 510
6959 98
9912 57
12116 33
12472 84
11829 52
9981 55
9987 55
1100 809
12115 33
6756 44
6749 84
10299 43
5570 18
5558 43
5697 79
352 67
5549 93
6166 15
6219 25
6628 15
6540 08
707 836
982 443
10059 86
12101 41
12100 02
54247 5
11111 82
5058 22
5553 70
86196 1
5794 96
5735 81
6494 19
63278 7
0 67
2 1199
3 96
3 1220
3 103
3 208
3 861
3 441
3 553
4 052
5 804
6 53
6 1019
6 476
6 085
7 78
7 086
8 80
8 857
8 221
8 432
K PS
K CrS
K AuTe
K PSe
K AgSe
K InTe
P H
V MnGa
V TlCl
Y MnGe
Y TlS
Y ScFe
ĠIn N
ĠAl CoNi
ĠAl FeCo
ĠAl GaSb
ĠTi VH
ĠPd K
ĠHf Ti
ĠZr NbFe
ĠZr NbCr
ĠCa MnSe
20 456
20 938
20 790
ĠGa AgSe
Fe Zn
ĠNb InRu
Se Rb
ĠY CuTe
ĠY TlS
ĠY ScFe
Ti Cs
Ti VH
ĠZn Hg
ĠZn TeSe
ĠZn SnSb
Pd SbSe
In Tl
In PS
In AlCl
Ni Co
Ni TlCl
ĠGe AsSe
ĠCo Fe
ĠTe Al
80 61
80 17
ĠCr CuS
ĠCr AgTe
ĠCr WC
Pt SbS
10 303
10 198
10 249
10 884
ĠMn Cu
ĠMn TlCl
ĠSr GaGe
ĠSr CuGe
ĠSn Mo
Ga V
Ga Mo
Ġthir ty
Ge AsSe
12 57
12 113
12 559
12 11890
12 903
Rh CoAs
Rh SbTe
Rh BiSe
Rh AuCd
Cu TeSe
Cu BiS
Cu AsTe
ĠK AgCl
ĠK CrCl
Mo Tl
Zr CoGe
Zr RuAs
Zr PdAs
Zr NbCr
Hf GeTe
Ag AsSe
67 6398
67 6799
54 75
54 91
54 233
Co H
Co Mn
43 68
96 35
Ir W
Ir MnGe
11 418
11 694
ĠCd K
42 38
Ta Tl
Sc RuGa
Sc AuZn
55 71
55 68
55 18
55 29
55 99
16 21
16 102
16 336
16 236
16 290
16 068
ĠCl Mn
ĠRb FeCl
22 607
22 546
22 658
53 42
53 72
53 76
Cr RhAs
Cr AgTe
Ca ReN
Ca MnSe
88 54
15 75
15 777
Mn Y
Mn NiAs
Mn CoAs
Mn RhAs
ĠTl CuCl
Cd Os
Cd SiP
21 852
21 504
21 934
86 88
52 88
52 51
52 92
52 38
40 21
40 26
Pb GeS
ĠHg TeSe
ĠCs CdCl
ĠCs HgCl
46 66
23 434
23 418
23 406
23 860
23 704
23 425
23 499
23 414
57 45
74 20
89 78
82 67
93 85
93 02
Sr PtSi
Sr ReN
Sr CuGe
Os Cd
Tc Hg
45 20
65 1582
19 851
19 792
19 791
19 727
19 797
79 09
79 11
79 42
Re MnN
56 49
56 17
44 83
Na AlCl
Na TaN
Na ZnAs
Na GaCl
Na NiN
68 4021
72 69
41 80
77 86
77 74
64 1575
18 45
Tl AsS
Tl GaTe
Tl CuCl
Tl MnCl
58 4
58 1024
49 88
63 48
63 26
63 7918
63 8061
29 94
29 462
29 549
29 809
29 249
29 168
29 400
29 187
29 592
29 784
76 43
34 96
13 53
13 082
13 097
13 963
97 5423
97 8854
97 6326
01 55
92 66
14 091
87 16
87 53
87 70
91 53
95 80
95 69
37 85
99 1219
99 1664
99 8147
27 126
27 462
27 828
27 331
27 899
27 829
27 735
27 632
27 664
17 74
17 678
17 228
17 230
30 06
30 227
39 51
28 108
28 501
28 224
28 858
28 859
31 339
Rb SbS
Rb FeSe
Rb AlCl
Rb CaAs
120 9302
120 7911
120 9153
120 1774
110 1628
110 1621
121 8620
Cs SnS
Cs VN
Cs SbCl
Cs GaCl
Cs CdCl
Cs NaSe
118 11
118 73
118 4180
122 8170
ĠMnAs Pd
233 09
233 55
233 18
233 63
1216 223
1216 082
1216 184
1216 176
1216 687
107 63
1220 914
102 5425
102 8978
102 5649
102 7269
1183 541
1183 460
1183 468
ĠHTi V
1079 106
1079 184
569 978
1186 203
119 4520
119 1845
119 1353
867 110
867 203
ĠMnSi Rh
567 856
567 817
567 583
1215 935
1215 224
1215 659
1215 734
1215 660
1215 217
1219 871
1219 458
1224 505
1224 985
1224 524
1224 528
ĠHfGe Te
1217 214
1217 224
ĠZrAl Rh
1221 101
1221 713
1221 804
1221 938
1221 530
1221 987
1221 703
ĠSnS Se
1080 233
1080 824
1080 424
1188 435
ĠSnSe S
ĠYAg Hg
1078 114
1078 104
1078 965
ĠAlMn Au
ĠHZr Ti
ĠHfGa Ir
ĠFeSi Tc
1223 835
1223 932
1223 561
1223 584
ĠNV Zn
106 5359
ĠSIn Ag
11869 35
ĠSeBi Rh
ĠHfSi Te
570 555
ĠGaTe Cl
103 0155
1189 202
1189 988
1189 516
124 5706
220 29
862 790
862 629
10180 71
10180 21
10180 84
ĠYCd Au
SnS Se
865 502
865 097
568 100
568 544
ĠNaBi Se
1025 203
1025 201
571 313
296 16
1207 078
973 170
973 067
12180 31
136 54
972 337
972 925
156 83
ĠScCu Se
12154 52
12154 75
979 7
1072 802
8655 22
8655 13
280 11
280 22
280 06
280 90
1246 666
1246 637
866 132
866 117
866 805
12153 67
12153 97
12153 98
ĠTaGa Ru
1029 677
1029 466
1029 542
1029 293
1029 733
1029 404
12155 13
12155 32
573 523
104 19
104 5417
12289 22
12289 72
CuAl Te
186 25
186 63
274 50
274 49
229 82
229 41
1225 169
1225 880
1206 817
208 40
208 79
AlSi Te
1008 728
ĠZrH Cl
ĠSiMn Fe
155 67
1228 438
1193 575
202 11
202 56
675 163
675 801
1226 897
CaCu P
CaCu Bi
1104 129
1104 125
1104 575
977 435
279 70
ScCu Se
ĠScCd Au
1120 780
YAg Hg
111 3496
8649 89
CaNi H
12171 96
12171 40
169 16
169 45
10786 43
PdBi Te
ĠNaIn Ag
1218 678
1218 415
ĠAlSi Te
11847 09
1209 422
216 22
CaPt As
ĠYSb Pd
198 85
198 70
11879 16
ĠHfZn Au
288 4
288 43
288 66
BiS Cl
12288 90
12288 95
ĠSeZn Fe
SrCd Pb
CuGa S
GaAl Sb
CaHg Pb
ĠGaSb Cl
1214 099
505 803
nc m
1185 995
1070 498
GaSb Cl
1227 083
1227 656
1227 053
5706 66
282 33
282 78
CaAu Ga
HfSi Te
228 11
8650 15
283 40
680 555
KHg As
KHg Sb
12159 42
8656 41
128 43
8660 10
ReN Cl
137 40
12189 12
12189 24
ĠGaFe Ni
ZrH Cl
504 898
677 072
677 093
998 713
998 421
11872 80
985 304
ĠTeNb Cu
226 13
5055 15
5055 98
9896 09
9896 06
PdS Se
1179 8
5702 90
180 59
ĠCaCd Au
8623 74
9773 82
12193 12
12247 16
12247 92
183 83
158 96
8657 29
11017 65
971 891
971 914
5426 44
12273 40
12273 83
215 7
215 88
8661 70
1245 861
1245 673
12070 22
11031 74
11031 48
11907 61
ĠNaHg Pd
12244 80
12244 46
8659 98
8651 38
10796 46
706 272
12206 20
12206 96
AgAl Se
134 46
AlCu Ti
1106 085
10779 50
669 436
10797 52
5552 69
8647 88
292 46
12249 40
313 62
160 36
1196 396
12215 10
10773 83
1222 102
1222 474
554 304
554 676
554 579
ĠPCd CuP
ĠCaNi H
11028 50
1028 749
GaTe Cl
11026 18
342 92
12263 73
12257 86
12257 44
6971 35
510 484
510 458
GeN Cr
225 66
290 11
181 79
181 39
ĠSbAl Ga
ScAg Ge
5680 32
11038 12
10789 73
11902 94
145 88
5703 51
662 549
662 572
11036 42
11036 85
293 79
TiGe Sb
1066 131
10774 48
12388 72
12388 90
643 279
685 980
685 956
CaAg Pb
6907 99
314 80
1192 730
1192 824
12074 46
12250 54
12250 16
12190 16
12110 46
176 67
991 676
624 190
CsHg Cl
12204 69
12204 83
172 54
773 980
6755 26
11010 55
12272 96
ĠZnIn Pd
1071 955
1030 331
287 68
287 72
SrH Cl
8677 81
12467 11
12467 17
1096 927
12068 74
11035 20
363 81
819 0
1212 441
10285 89
10285 14
1094 107
1094 098
1094 079
MnNi N
TlIn Cl
11056 47
294 19
696 867
12270 11
275 07
275 85
642 331
ĠSiH S
12177 80
12269 90
10296 56
10240 47
5709 30
ĠTiIn Rh
11908 66
12059 86
12059 78
CsAu S
2049 7
12182 73
12182 72
12465 15
647 164
10276 83
12217 20
5411 40
12065 18
5057 81
147 80
144 42
5406 19
5406 87
ĠCdIn Pd
CaGa H
11046 63
11977 23
ĠPdS Se
12240 05
10785 78
10785 17
10953 69
12471 85
302 85
9984 20
11933 19
5413 12
1203 027
646 102
5684 05
5103 80
12139 76
12220 74
12220 00
10769 73
10292 62
10292 56
580 748
5587 06
5701 73
582 751
5408 18
5421 54
10977 09
12464 46
9985 54
9985 61
11045 18
11207 63
620 190
11890 11
11008 68
10688 13
12466 09
12473 47
6751 20
12056 52
10275 80
10454 92
12458 55
11144 89
12115 89
ZnC Ni
6756 37
6749 93
10299 59
11058 33
11058 40
11835 12
5804 80
653 120
61019 0
6476 06
6085 16
10303 93
10249 58
1257 684
54233 3
5571 79
5568 15
5599 18
5617 10
6348 55
