{"!":0,"\"":1,"#":2,"$":3,"%":4,"&":5,"'":6,"(":7,")":8,"*":9,"+":10,",":11,"-":12,".":13,"/":14,"0":15,"1":16,"2":17,"3":18,"4":19,"5":20,"6":21,"7":22,"8":23,"9":24,":":25,";":26,"<":27,"=":28,">":29,"?":30,"@":31,"A":32,"B":33,"C":34,"D":35,"E":36,"F":37,"G":38,"H":39,"I":40,"J":41,"K":42,"L":43,"M":44,"N":45,"O":46,"P":47,"Q":48,"R":49,"S":50,"T":51,"U":52,"V":53,"W":54,"X":55,"Y":56,"Z":57,"[":58,"\\":59,"]":60,"^":61,"_":62,"`":63,"a":64,"b":65,"c":66,"d":67,"e":68,"f":69,"g":70,"h":71,"i":72,"j":73,"k":74,"l":75,"m":76,"n":77,"o":78,"p":79,"q":80,"r":81,"s":82,"t":83,"u":84,"v":85,"w":86,"x":87,"y":88,"z":89,"{":90,"|":91,"}":92,"~":93,"¡":94,"¢":95,"£":96,"¤":97,"¥":98,"¦":99,"§":100,"¨":101,"©":102,"ª":103,"«":104,"¬":105,"®":106,"¯":107,"°":108,"±":109,"²":110,"³":111,"´":112,"µ":113,"¶":114,"·":115,"¸":116,"¹":117,"º":118,"»":119,"¼":120,"½":121,"¾":122,"¿":123,"À":124,"Á":125,"Â":126,"Ã":127,"Ä":128,"Å":129,"Æ":130,"Ç":131,"È":132,"É":133,"Ê":134,"Ë":135,"Ì":136,"Í":137,"Î":138,"Ï":139,"Ð":140,"Ñ":141,"Ò":142,"Ó":143,"Ô":144,"Õ":145,"Ö":146,"×":147,"Ø":148,"Ù":149,"Ú":150,"Û":151,"Ü":152,"Ý":153,"Þ":154,"ß":155,"à":156,"á":157,"â":158,"ã":159,"ä":160,"å":161,"æ":162,"ç":163,"è":164,"é":165,"ê":166,"ë":167,"ì":168,"í":169,"î":170,"ï":171,"ð":172,"ñ":173,"ò":174,"ó":175,"ô":176,"õ":177,"ö":178,"÷":179,"ø":180,"ù":181,"ú":182,"û":183,"ü":184,"ý":185,"þ":186,"ÿ":187,"Ā":188,"ā":189,"Ă":190,"ă":191,"Ą":192,"ą":193,"Ć":194,"ć":195,"Ĉ":196,"ĉ":197,"Ċ":198,"ċ":199,"Č":200,"č":201,"Ď":202,"ď":203,"Đ":204,"đ":205,"Ē":206,"ē":207,"Ĕ":208,"ĕ":209,"Ė":210,"ė":211,"Ę":212,"ę":213,"Ě":214,"ě":215,"Ĝ":216,"ĝ":217,"Ğ":218,"ğ":219,"Ġ":220,"ġ":221,"Ģ":222,"ģ":223,"Ĥ":224,"ĥ":225,"Ħ":226,"ħ":227,"Ĩ":228,"ĩ":229,"Ī":230,"ī":231,"Ĭ":232,"ĭ":233,"Į":234,"į":235,"İ":236,"ı":237,"Ĳ":238,"ĳ":239,"Ĵ":240,"ĵ":241,"Ķ":242,"ķ":243,"ĸ":244,"Ĺ":245,"ĺ":246,"Ļ":247,"ļ":248,"Ľ":249,"ľ":250,"Ŀ":251,"ŀ":252,"Ł":253,"ł":254,"Ń":255,"Ġa":256,"Ġt":257,"he":258,"on":259,"le":260,"Ġi":261,"Ġthe":262,"om":263,"Ġb":264,"Ġs":265,"Ġo":266,"Ġc":267,"it":268,"re":269,"nd":270,"ond":271,"at":272,"ng":273,"or":274,"Ġbond":275,"Ġis":276,"Ġat":277,"en":278,"Ġatom":279,"al":280,"Ġand":281,"ar":282,"Ġe":283,"The":284,"Ġf":285,"Ġof":286,"ed":287,"Ġm":288,"Ġw":289,"âĤ":290,"ro":291,"Ġto":292,"ac":293,"Ġatoms":294,"lec":295,"Ġin":296,"iv":297,"ĠThe":298,"et":299,"ate":300,"ic":301,"ra":302,"len":303,"ing":304,"di":305,"alen":306,"es":307,"er":308,"alent":309,"ĠC":310,"Ġh":311,"Ġp":312,"ith":313,"Ġwith":314,"gen":315,"Ġmo":316,"âģ":317,"qu":318,"lecu":319,"Ġmolecu":320,"st":321,"ur":322,"ivalent":323,"quivalent":324,"th":325,"Ãħ":326,"ĠÃħ":327,"ds":328,"Ġg":329,"Ġon":330,"Ġ1":331,"Ġequivalent":332,"ct":333,"Ġare":334,"ĠI":335,"hed":336,"dsor":337,"Ġmolecule":338,"Ġtw":339,"dsorb":340,"Ġdi":341,"Ġsit":342,"Ġ(":343,"âĢ":344,"âĢĵ":345,"ace":346,"arb":347,"arbon":348,"hedra":349,"Ġbonded":350,"ĠS":351,"Ġcarbon":352,"Ġle":353,"Ġfor":354,"ngth":355,"Ġlength":356,"ry":357,"cta":358,"Ġtwo":359,"Ġth":360,"ly":361,"Ġsite":362,"ri":363,"Ġadsorb":364,"an":365,"xy":366,"Ġ2":367,"rogen":368,"Ġor":369,"ctahedra":370,"Ġhy":371,"tr":372,"ĠA":373,"ub":374,"ĠN":375,"Ġsi":376,"Ġsp":377,"bit":378,"bital":379,"aly":380,"ataly":381,"ent":382,"Ġcataly":383,"Ġha":384,"ol":385,"xygen":386,"Ġform":387,"Ġsur":388,"een":389,"Ġcub":390,"Ġn":391,"Ġsurf":392,"omet":393,"Ġorbital":394,"ĠP":395,"ĠIn":396,"Ġsurface":397,"our":398,"eomet":399,"Ġgeomet":400,"Ġgeometry":401,"Ġoxygen":402,"ĠT":403,"âģº":404,"tic":405,"âģ»":406,"Ġfour":407,"Ġd":408,"Ġhas":409,"Ġbet":410,"har":411,"Ġcatalytic":412,"ween":413,"Ġbetween":414,"Ġadsorbate":415,"ĠThere":416,"Ġcubo":417,"Ġcuboctahedra":418,"Â²":419,"rou":420,"im":421,"tron":422,"ner":423,"orner":424,"Ġelec":425,"Ġcorner":426,"xim":427,"pp":428,"Ġelectron":429,"CH":430,"ately":431,"Ġapp":432,"roxim":433,"Ġapproxim":434,"Ġapproximately":435,"Ġhyd":436,"ion":437,"dg":438,"ĠM":439,"po":440,"Ġdist":441,"Ġang":442,"eg":443,"Ġlengths":444,"li":445,"ĠAl":446,"gh":447,"Ġsh":448,"Ġangle":449,"Ġone":450,"rom":451,"âĤĤ":452,"lar":453,"âĤĦ":454,"OH":455,"Ġgrou":456,"pole":457,"Ġsix":458,"ter":459,"ive":460,"Ġgroup":461,"co":462,"Ġwh":463,"âĤĨ":464,"Ġhydrogen":465,"Ġpl":466,"Ġorbitals":467,"Ġbi":468,"oment":469,"Ġmoment":470,"Ġedg":471,"ir":472,"Ġdipole":473,"Ġthat":474,"Ġra":475,"nate":476,"ordi":477,"coordi":478,"coordinate":479,"il":480,"igh":481,"itrogen":482,"Ġmolecular":483,"Ġfrom":484,"ree":485,"bri":486,"Ġnitrogen":487,"Ġthree":488,"ĠH":489,"nding":490,"ure":491,"ight":492,"aced":493,"Ġplaced":494,"Ġchar":495,"Ġbinding":496,"Â³":497,"Ġre":498,"Ġhybri":499,"Ġit":500,"Ġco":501,"Ġcorners":502,"valent":503,"are":504,"Ġse":505,"Ġcovalent":506,"Ġbonds":507,"ces":508,"in":509,"Ġrang":510,"Ġelectrons":511,"ĠR":512,"ĠO":513,"ow":514,"ĠTi":515,"ĠZ":516,"Ġl":517,"haring":518,"Ġbonding":519,").":520,"mp":521,"etra":522,"Ġeight":523,"gon":524,"gonal":525,"Ġtetra":526,"Ġlon":527,"ve":528,"Ġas":529,"Â¹":530,"ce":531,"ĠG":532,"Ġ*":533,"ical":534,"âĤģ":535,"ĠCH":536,"Ġedges":537,"sharing":538,"ille":539,"Ġdistan":540,"Ġdistances":541,"rea":542,"Ġadsorbed":543,"Ġ0":544,"ich":545,"egat":546,"Ġwhich":547,"Ġsprea":548,"Ġranging":549,"Ġspread":550,"olar":551,"ted":552,"Ġoctahedra":553,"Ġshare":554,"Ġal":555,"ex":556,"ĠInd":557,"ity":558,"ĠMille":559,"ĠMiller":560,"Ġtri":561,"Adsorb":562,"ĠIndex":563,"Adsorbate":564,"zes":565,"Ġcry":566,"alli":567,"stalli":568,"Ġspace":569,"Ġcrystalli":570,"Ġcrystallizes":571,"ze":572,"Ġdeg":573,"Ġpolar":574,"pe":575,"rees":576,"Ġdegrees":577,"âĤĪ":578,"aces":579,"ver":580,"diz":581,"Ġ3":582,"ist":583,"uct":584,"ĠĊ":585,"hy":586,"Ġcon":587,"el":588,"ation":589,"ĠD":590,"ĠAll":591,"truct":592,"tructure":593,"Ġstructure":594,"Ġpar":595,"âĤĥ":596,"âĤģâĤĤ":597,"orted":598,"Ġdistorted":599,"Ġangles":600,"Ġfaces":601,"ti":602,"Ġcharg":603,"la":604,"ĠNi":605,"Ġu":606,"act":607,"ile":608,"Ġan":609,"so":610,"Â°":611,"ram":612,"ere":613,"Al":614,"cond":615,"irst":616,"equivalent":617,"Ġfirst":618,"Ġinequivalent":619,"Ġsites":620,"Ġsecond":621,"Ġwhile":622,"Ġsize":623,"ĠSi":624,"ue":625,"Ġhybridiz":626,"Ġalso":627,"yram":628,"yrami":629,"ĠPd":630,"Ġdue":631,"ach":632,"ĠHf":633,"ger":634,"orter":635,"Ġshorter":636,"Ġlonger":637,"Ġv":638,"all":639,"Ġtetrahedra":640,"ĠZr":641,"Ġits":642,"Ġeach":643,"op":644,"Ġatop":645,"ĠCa":646,"Ġcharge":647,"âģ´":648,"ivity":649,"ma":650,"Ġtwel":651,"yramids":652,"hem":653,"Ġtwelve":654,"Ġ10":655,"ĠPt":656,"Ġty":657,"20":658,"Ġchem":659,"ĠGa":660,"Ġchemical":661,"ĠB":662,"Ġelectronegat":663,"ut":664,"Ġsig":665,"Ġparti":666,"Ġpartial":667,"Fe":668,"hedr":669,"ĠV":670,"Ġtype":671,"ĠNb":672,"de":673,"lin":674,"Ġedge":675,"Ġsing":676,"ĠMo":677,"hedral":678,"Ġcatalyst":679,"Si":680,"ĠSe":681,"Ġhybrid":682,"Se":683,"kn":684,"Ġkn":685,"own":686,"Ġknown":687,"acter":688,"Ġcharacter":689,"Ġsingle":690,"mm":691,"Ġun":692,"by":693,"Ġcan":694,"ĠCu":695,"os":696,"Ġcubic":697,"âĤħ":698,"ĠY":699,"ĠTa":700,"Ġfive":701,"eby":702,"Â°.":703,"Ġtrigonal":704,"low":705,"ĠRh":706,"ĠSc":707,"ĠIt":708,"Ġstructured":709,"Ti":710,"Ġelectronegativity":711,"ĠZn":712,"ics":713,"ebye":714,"Ġcharacterist":715,"Ġeth":716,"Pd":717,"Ġcom":718,"Ġcharacteristics":719,"ĠAs":720,"ear":721,"In":722,"Ġinter":723,"Ġover":724,"Ġpos":725,"nce":726,"air":727,"us":728,"action":729,"As":730,"ple":731,"Ni":732,"ix":733,"ture":734,"Ġmix":735,"Ġmixture":736,"lene":737,"Ġ4":738,"Ġpair":739,"ĠDebye":740,"ĠGe":741,"ĠCo":742,"ĠTe":743,"ff":744,"Ġdiff":745,"yl":746,"agonal":747,"ĠW":748,"Ġlin":749,"her":750,"ylene":751,"Ġdiffere":752,"80":753,"Ġlinear":754,"Ġcons":755,"Ġres":756,"Ġsigma":757,"ĠFe":758,"Ġby":759,"Ġbo":760,"ĠCr":761,"ollow":762,"Pt":763,"ĠSb":764,"Ġbri":765,"dge":766,"Ġbridge":767,"ndic":768,"OHCH":769,"Ġhybridized":770,"Ġma":771,"10":772,"onding":773,"if":774,"Ġlone":775,"Ġtriple":776,"Te":777,"Ġpi":778,"ul":779,"Ġposit":780,"ĠMn":781,"ĠSr":782,"Ġconsist":783,"anar":784,"Ġtil":785,"Ġpyramids":786,"mol":787,"Ġ6":788,"Ġnegat":789,"Ġpositive":790,"Ġnegative":791,"Ġhave":792,"Ġdo":793,"ula":794,"Ġformula":795,"ĠSn":796,"Ga":797,"ses":798,"Ġab":799,"Ġgly":800,"Ġbe":801,"Ġoverla":802,"ctahedral":803,"teen":804,"Ġthir":805,"Ġoctahedral":806,"Ġarou":807,"Ġaround":808,"vol":809,"Ġinvol":810,"cet":811,"Ġdifference":812,"ĠÏ":813,"ther":814,"se":815,"Ġindic":816,"Ġ5":817,"Ġtilt":818,"ĠNa":819,"NH":820,"Ġoverlap":821,"roxy":822,"Ge":823,"Sb":824,"strom":825,"ant":826,"ĠAg":827,"Ġhybridization":828,"dy":829,"12":830,"stroms":831,"mall":832,"Ġsmall":833,"Ġthird":834,"Ġmet":835,"Ìħ":836,"uble":837,"anol":838,"actions":839,"OCH":840,"ered":841,"out":842,"Ġabout":843,"Rh":844,"Ġother":845,"Zn":846,"ĠNO":847,"ke":848,"Ġ180":849,"Ġface":850,"ating":851,"Cu":852,"ta":853,"ĠRu":854,"ven":855,"cent":856,"Ġbody":857,"centered":858,"is":859,"ĠAu":860,"09":861,"Ġformed":862,"ĠIr":863,"col":864,"Ġglycol":865,"Ġwe":866,"Ġ120":867,"Ġdouble":868,"Ġbip":869,"res":870,"Ġinvolv":871,"Ġacet":872,"ĠK":873,"Ġresul":874,"Ġresult":875,"Mo":876,"Zr":877,"Ġhydroxy":878,"Ġcarbonyl":879,"Ġhollow":880,"ine":881,"Over":882,"Overall":883,"NO":884,"Ġ109":885,"oc":886,"oth":887,"ĠBoth":888,"Ġsqu":889,"Ġsquare":890,"ific":891,"Ġplanar":892,"ĠOH":893,"Ġbipyramids":894,"ĠCCH":895,"Ġseven":896,"Ġ9":897,"ively":898,"up":899,"Sn":900,"erm":901,"Ġ11":902,"Ġweight":903,"ngstroms":904,"hyl":905,"bonding":906,"Ġnon":907,"Ġno":908,"Ġwhe":909,"Hf":910,"Ġgroups":911,"Ġrange":912,"Ġindicating":913,"tain":914,"lu":915,"like":916,"Ġpent":917,"Ġpentagonal":918,"Ag":919,"pa":920,"oxygen":921,"lat":922,"Ġrelat":923,"ers":924,"Ġhe":925,"rib":926,"ĠAngstroms":927,"Ġ7":928,"Ġten":929,"cup":930,"67":931,"33":932,"sed":933,"Ġtetrahedral":934,"ire":935,"Ġrelatively":936,"hyd":937,"dical":938,"Ġradical":939,"54":940,"Ġwhere":941,"ional":942,"ĠE":943,"Ġcompo":944,"his":945,"ĠThis":946,"bic":947,"hom":948,"orhom":949,"thorhom":950,"thorhombic":951,"alence":952,"ĠÏĥ":953,"Co":954,"Ġorthorhombic":955,"id":956,"43":957,"ĠBi":958,"Ru":959,"96":960,"als":961,"Ġunpa":962,"ired":963,"Ġunpaired":964,"Ir":965,"ari":966,"CO":967,"Ġreact":968,"Ġpres":969,"Ġpro":970,"Ġvalence":971,"11":972,"Nb":973,"ĠPb":974,"Ġsy":975,"Ġme":976,"Au":977,"Ġoc":978,"Ġcontain":979,"Ġcontains":980,"Ġconsists":981,"nific":982,"Ġsignific":983,"Ġsignificant":984,"),":985,"ĠCd":986,"ig":987,"aals":988,"ĠWaals":989,"07":990,"ence":991,"Ġresulting":992,"Ġpairs":993,"ite":994,"42":995,"carbon":996,"zero":997,"ĠNH":998,"ha":999,"Ġhydroxyl":1000,"69":1001,"COH":1002,"Ta":1003,"rises":1004,"hydrogen":1005,"50":1006,"08":1007,"Ġoccup":1008,"xagonal":1009,"Ġhexagonal":1010,"Ġpolarity":1011,"Ġconsisting":1012,"ĠTc":1013,"ment":1014,"Ġmethyl":1015,"Ġvan":1016,"Ġ8":1017,"Ġder":1018,"bridiz":1019,"hybridiz":1020,"hybridized":1021,"Ġelectronic":1022,"ide":1023,"ape":1024,"Ġshape":1025,"pt":1026,"ption":1027,"Ġfourth":1028,"Ġtetragonal":1029,"rough":1030,"Sc":1031,"Ġarises":1032,"55":1033,"16":1034,"ĠRe":1035,"per":1036,"Ġex":1037,"ĠCl":1038,"Ġinteractions":1039,"05":1040,"Ġzero":1041,"ined":1042,"ies":1043,"Ġethanol":1044,"85":1045,"Ġadsor":1046,"Ġadsorption":1047,"ĠRb":1048,"ĠEth":1049,"ribut":1050,"war":1051,"Ġtowar":1052,"Ġtowards":1053,"Ġnine":1054,"Ġpartic":1055,"22":1056,"53":1057,"Ġreactions":1058,"etr":1059,"mmetr":1060,"Ġfourteen":1061,"ding":1062,"Ġthrough":1063,"ip":1064,"ĠOs":1065,"Ġsixteen":1066,"Ġinvolves":1067,"ens":1068,"ĠCOCH":1069,"ble":1070,"rbital":1071,"alde":1072,"hyde":1073,"aldehyde":1074,"Cr":1075,"um":1076,"Ca":1077,"88":1078,"ĠCOHCH":1079,"rect":1080,"Ġdirect":1081,"Ġmak":1082,"Ġforming":1083,"lecular":1084,"linic":1085,"Ġcen":1086,"tral":1087,"Ġcentral":1088,"Ġsli":1089,"ght":1090,"Ġslight":1091,"15":1092,"dius":1093,"Ġradius":1094,"Ġdet":1095,"Mn":1096,"Ġmean":1097,"ĠTl":1098,"der":1099,"Ġforms":1100,"Ġwate":1101,"Ġwater":1102,"ular":1103,"Ġcomb":1104,"Ġpm":1105,"Ġst":1106,"am":1107,"Cd":1108,"71":1109,"Ġanti":1110,"ĠOCH":1111,"ented":1112,"Ġparticip":1113,"Ġparticipate":1114,"Ġunhybridized":1115,"Bi":1116,"ometers":1117,"21":1118,"und":1119,"Ġdirection":1120,"86":1121,"47":1122,"Ġreactivity":1123,"Ġterm":1124,"Ġterms":1125,"Ġsharing":1126,"âģº,":1127,"52":1128,"ĠÏĢ":1129,"40":1130,"Ġdeterm":1131,"aus":1132,"Ġsu":1133,"Ġshe":1134,"Ġethylene":1135,"Ġmay":1136,"Ġinf":1137,"ĠF":1138,"clu":1139,"Ġinclu":1140,"han":1141,"ipole":1142,"Ġnot":1143,"Ġfollow":1144,"Cl":1145,"Ġacetylene":1146,"âĤĩ":1147,"Pb":1148,"ous":1149,"ied":1150,"edi":1151,"Ġvari":1152,"mmm":1153,"06":1154,"Ġthese":1155,"ĠHg":1156,"Ġori":1157,"Ġoriented":1158,"Ġimp":1159,"gn":1160,"Ġmon":1161,"oclinic":1162,"Ġmonoclinic":1163,"ving":1164,"Ġmolecules":1165,"Ġhaving":1166,"ĠCs":1167,"âĤĢ":1168,"Ġinteract":1169,"Ġpresence":1170,"lanar":1171,"planar":1172,"02":1173,"CCH":1174,"âĤģâĤĢ":1175,"Ġdetermined":1176,"Ġmaking":1177,"Ġfif":1178,"orbital":1179,"46":1180,"23":1181,"Ġinteraction":1182,"57":1183,"Ġatomic":1184,"Ġhigh":1185,"Ġsymmetr":1186,"omic":1187,"atomic":1188,"Ġrema":1189,"ining":1190,"Ġremaining":1191,"qual":1192,"62":1193,"Ġvarious":1194,"Ġnet":1195,"iz":1196,"Ġmore":1197,"ge":1198,"74":1199,"89":1200,"Ġcompound":1201,"Ġcomposed":1202,"Ġboth":1203,"tant":1204,"ortant":1205,"Ġimportant":1206,"82":1207,"Â°,":1208,"Ġincluding":1209,"ination":1210,"Ġcombination":1211,"Ġinvolved":1212,"ĠCHOH":1213,"Ġslightly":1214,"Ġhig":1215,"6âĤĥ":1216,"rop":1217,"Ġantibonding":1218,"Ġout":1219,"75":1220,"Ġallow":1221,"as":1222,"93":1223,"icometers":1224,"Ïĥ":1225,"un":1226,"ĠTiTi":1227,"Sr":1228,"Os":1229,"Tc":1230,"Ġoccupy":1231,"yn":1232,"Ġwid":1233,"Ġwidth":1234,"Ġar":1235,"ĠCHCH":1236,"Ġsymmetrical":1237,"73":1238,"66":1239,"70":1240,"ĠOHNH":1241,"Ġelectronegative":1242,"Ġsheet":1243,"45":1244,"ium":1245,"ary":1246,"ates":1247,"Ġindicates":1248,"ental":1249,"imental":1250,"perimental":1251,"Ġexperimental":1252,"65":1253,"83":1254,"Ġ104":1255,"oxy":1256,"ature":1257,"19":1258,"24":1259,"Ġfifth":1260,"79":1261,"par":1262,"Ġsepar":1263,"Ġseparation":1264,"ĠCHOHCH":1265,"Ġper":1266,"Re":1267,"gan":1268,"Ġorgan":1269,"Ġorganic":1270,"ci":1271,"mens":1272,"dimens":1273,"dimensional":1274,"56":1275,"etic":1276,"gnetic":1277,"81":1278,"Orbital":1279,"ated":1280,"nder":1281,"Ġproces":1282,"Ġsince":1283,"25":1284,"orm":1285,"ell":1286,"ĠPm":1287,"44":1288,"Hg":1289,"ec":1290,"Ġspec":1291,"fig":1292,"uration":1293,"Ġconfig":1294,"Ġconfiguration":1295,"60":1296,"Ġused":1297,"Ġsurfaces":1298,"Ġcharged":1299,"Ġne":1300,"Na":1301,"78":1302,"yan":1303,"ives":1304,"Ġgives":1305,"ĠFm":1306,"68":1307,"âĤī":1308,"cel":1309,"Ġcancel":1310,"rim":1311,"Ġ(-":1312,"dd":1313,"Ġpicometers":1314,"Ġstron":1315,"Ġstrong":1316,"MO":1317,"em":1318,"tribut":1319,"Ġcontribut":1320,"Ġcar":1321,"Ġ-":1322,"stem":1323,"Ġsystem":1324,"72":1325,"59":1326,"Ġnature":1327,"Ġde":1328,"nge":1329,"41":1330,"'s":1331,"ynol":1332,"âģµ":1333,"Ġval":1334,"Ġethoxy":1335,"Ġcharges":1336,"yramid":1337,"77":1338,"64":1339,"Ġarra":1340,"ĠL":1341,"Ġtwent":1342,"51":1343,"ethan":1344,"Ġresults":1345,"Ġdifferen":1346,"18":1347,"Ġprim":1348,"arily":1349,"Ġprimarily":1350,"ĠEthylene":1351,"Tl":1352,"edge":1353,"Ġedgeedge":1354,"Ġtwenty":1355,"ĠIts":1356,"Ġwell":1357,"Ġpartially":1358,"04":1359,"58":1360,"mmc":1361,"ÏĢ":1362,"49":1363,"mo":1364,"63":1365,"Ġwithin":1366,"ddit":1367,"ediol":1368,"Prop":1369,"Propanol":1370,"Ġunder":1371,"29":1372,"Ġrep":1373,"76":1374,"mc":1375,"Ġdistribut":1376,"Ġdistribution":1377,"Ġprocesses":1378,"Ġoverall":1379,"ot":1380,"34":1381,"Ġsever":1382,"Ġseveral":1383,"Ġbec":1384,"ĠPn":1385,"tac":1386,"Ġattac":1387,"Ġattached":1388,"Ġpresent":1389,"48":1390,"Ġmeaning":1391,"ĠThese":1392,"Ġhighly":1393,"hol":1394,"cohol":1395,"Ġalcohol":1396,"Ġ62":1397,"ities":1398,"13":1399,"Ġsam":1400,"Ġsame":1401,"ethyl":1402,"Ġmoder":1403,"ĠBond":1404,"Ġeighteen":1405,"97":1406,"ized":1407,"illed":1408,"ĠU":1409,"Ġmeans":1410,"01":1411,"aw":1412,"saw":1413,"Ġsee":1414,"ox":1415,"oxal":1416,"oo":1417,"84":1418,"Ġ12":1419,"92":1420,"Ġangstroms":1421,"tal":1422,"Ġtotal":1423,"14":1424,"COHCOH":1425,"Ġcomm":1426,"Bond":1427,"Bonding":1428,"Dipole":1429,"Molecular":1430,"61":1431,"ties":1432,"Ġproper":1433,"Ġproperties":1434,"lam":1435,"hest":1436,"ngement":1437,"Ġarrangement":1438,"ethanediol":1439,"ped":1440,"sha":1441,"shaped":1442,"CHCH":1443,"acet":1444,"Ġhigher":1445,"ch":1446,"Ġsuch":1447,"cataly":1448,"catalyst":1449,"Ġany":1450,"ĠNNO":1451,"ons":1452,"87":1453,"sing":1454,"pendic":1455,"Ġperpendic":1456,"Ġperpendicular":1457,"Ġfun":1458,"ctional":1459,"Ġfunctional":1460,"90":1461,"nitrogen":1462,"32":1463,"Ġforces":1464,"Ġcaus":1465,"ived":1466,"derived":1467,"ĠCOHCHO":1468,"Ġsta":1469,"Ġoccupied":1470,"Ġinflu":1471,"Ġsixth":1472,"Ġposses":1473,"Ġdiatomic":1474,"mcm":1475,"Ġthere":1476,"Ġbent":1477,"ilic":1478,"COHCH":1479,"Ġtheor":1480,"ions":1481,"ilicide":1482,"ĠAlTi":1483,"Ġend":1484,"dj":1485,"Ġadj":1486,"acent":1487,"Ġadjacent":1488,"Ġsystems":1489,"Ġformation":1490,"coplanar":1491,"ĠPnma":1492,"equal":1493,"Ġunequal":1494,"36":1495,"Ġinform":1496,"Ġinformation":1497,"Ġdia":1498,"ause":1499,"Ġbecause":1500,"NN":1501,"91":1502,"Ġglycolaldehyde":1503,"Ġrepres":1504,"Ġca":1505,"Ġground":1506,"Ġstate":1507,"Ġreactive":1508,"ler":1509,"xime":1510,"Ġacetate":1511,"Ġcyan":1512,"ĠCCO":1513,"to":1514,"Ġthan":1515,"Ġformate":1516,"ues":1517,"Ġvalues":1518,"Ġ107":1519,"Ġ16":1520,"face":1521,"Ġfaceface":1522,"Ġdepe":1523,"Ġmoments":1524,"ations":1525,"erv":1526,"Ġcatalysts":1527,"ĠAddit":1528,"ionally":1529,"ĠAdditionally":1530,"NONH":1531,"Ġglyoxal":1532,"Ġhydroxylam":1533,"ible":1534,"pons":1535,"Ġrespons":1536,"Ġresponsible":1537,"ĠCOHCHOH":1538,"Ġfollowing":1539,"ĠTiSe":1540,"ĠCCHO":1541,"Ġmake":1542,"Ġpyramid":1543,"Ġbeing":1544,"eus":1545,"eusler":1546,"Ġacetyl":1547,"ĠOrbital":1548,"ĠDipole":1549,"ĠBonding":1550,"ance":1551,"int":1552,"Ġdifferent":1553,"Ġnit":1554,"oint":1555,"Ġpoint":1556,"94":1557,"hys":1558,"Ġethynol":1559,"95":1560,"37":1561,"26":1562,"Ġind":1563,"bond":1564,"Ġcre":1565,"99":1566,"ood":1567,"los":1568,"Ġclos":1569,"ngular":1570,"ctangular":1571,"Ġrectangular":1572,"Ġcarri":1573,"Ġsol":1574,"acetylene":1575,"Ġstable":1576,"Ġen":1577,"35":1578,"polar":1579,"Ġnonpolar":1580,"ĠHeusler":1581,"Ġinvolve":1582,"ran":1583,"ust":1584,"fers":1585,"Ġrefers":1586,"Ġmeas":1587,"ĠEthanol":1588,"Ġsci":1589,"Ġfollows":1590,"Ġspecies":1591,"27":1592,"Ġdoes":1593,"ne":1594,"Ġdiam":1595,"Ġ111":1596,"Ġshared":1597,"ĠUran":1598,"ĠUranium":1599,"Ġj":1600,"Ġ60":1601,"enot":1602,"Ġdenot":1603,"Ġdenotes":1604,"eter":1605,"Ġdiameter":1606,"ĠCN":1607,"ĠSilicide":1608,"Ġcontributes":1609,"Ġinfluence":1610,"Ġhydroxylamine":1611,"ever":1612,"ĠHow":1613,"ĠHowever":1614,"Ġshares":1615,"Ġmoderate":1616,"Ġ110":1617,"Ġequal":1618,"Ġcyano":1619,"2âĤģ":1620,"methyl":1621,"17":1622,"Ġ14":1623,"Ġtriatomic":1624,"CHOHCH":1625,"ew":1626,"dent":1627,"Ġident":1628,"Ġunderst":1629,"Ġidentical":1630,"Ġnear":1631,"corner":1632,"Ġcornercorner":1633,"Ġ44":1634,"Ġmagnetic":1635,"Ġsheets":1636,"av":1637,"38":1638,"ene":1639,"Ġtyp":1640,"zene":1641,"Ġdiazene":1642,"Ġ32":1643,"zine":1644,"razine":1645,"Ġhydrazine":1646,"ama":1647,"Ġparama":1648,"Ġparamagnetic":1649,"30":1650,"Ġide":1651,"Ġideal":1652,"Ġonto":1653,"Ġdepending":1654,"Ġbeta":1655,"Ġcommon":1656,"015":1657,"98":1658,"Ġvary":1659,"bor":1660,"ric":1661,"Ġdens":1662,"Ġdensity":1663,"Ġstre":1664,"Ġtheory":1665,"ll":1666,"alized":1667,"ocalized":1668,"39":1669,"Ġrepresent":1670,"four":1671,"Ġpositively":1672,"Ġnegatively":1673,"ĠCuCu":1674,"ibit":1675,"Ġmethan":1676,"Ġmethane":1677,"Ġfilled":1678,"hibit":1679,"Ġexhibit":1680,"Ġtilted":1681,"most":1682,"Ġattr":1683,"acted":1684,"Ġattracted":1685,"28":1686,"Ġlow":1687,"Ġman":1688,"Ġmany":1689,"Ġunoc":1690,"cupied":1691,"Ġunoccupied":1692,"Ġcomple":1693,"ĠMolecular":1694,"Ġthis":1695,"Ġelectr":1696,"est":1697,"ymmetr":1698,"Ġasymmetr":1699,"Ġasymmetric":1700,"Ġthey":1701,"Ġoverlaps":1702,"vi":1703,"Ġcarries":1704,"Ġpointing":1705,"âģ¶":1706,"31":1707,"Ġqu":1708,"ru":1709,"Ġcru":1710,"cial":1711,"Ġcrucial":1712,"Ġnitro":1713,"Ġmeasure":1714,"Ġphys":1715,"ctively":1716,"pectively":1717,"Ġrespectively":1718,"ighbor":1719,"Ġneighbor":1720,"Ġneighboring":1721,"uted":1722,"Ġdistrib":1723,"Ġdistributed":1724,"ak":1725,"Ġweak":1726,"Ġhydroxyacetylene":1727,"leven":1728,"Ġeleven":1729,"Ġ116":1730,"pha":1731,"00":1732,"Ġmetal":1733,"ility":1734,"Ġability":1735,"Rb":1736,"ĠCHCOH":1737,"ĠCOCHO":1738,"120":1739,"Ġseventh":1740,"Ġcausing":1741,"elf":1742,"Ġitself":1743,"ĠEach":1744,"Ġpul":1745,"Ġ74":1746,"entific":1747,"Ġscientific":1748,"iel":1749,"Ġfiel":1750,"Ġfields":1751,"Ġpossesses":1752,"ride":1753,"These":1754,"ore":1755,"Ġtriplet":1756,"HO":1757,"Ġhighest":1758,"HOMO":1759,"COCH":1760,"ock":1761,"ĠCaN":1762,"Ġuse":1763,"Ġsurrou":1764,"Ġsurrounding":1765,"dipole":1766,"Ġlea":1767,"ĠTiS":1768,"Ġtheir":1769,"Ġver":1770,"Ġthem":1771,"Ġsimp":1772,"Ġsimple":1773,"ĠZnZn":1774,"âī":1775,"âī¡":1776,"03":1777,"NNCH":1778,"cted":1779,"Ġconne":1780,"Ġconnected":1781,"ĠVS":1782,"CHOH":1783,"hydroxy":1784,"Ġcal":1785,"Ġspecific":1786,"Ġdipoles":1787,"Ġalpha":1788,"vir":1789,"onment":1790,"Ġstu":1791,"Ġenvir":1792,"Ġenvironment":1793,"Ġpolarities":1794,"ically":1795,"Ġ58":1796,"oxime":1797,"dioxime":1798,"Ġdimethyl":1799,"Ġdimethyldioxime":1800,"ane":1801,"110":1802,"Ġbeen":1803,"Ġexperimentally":1804,"Ġplane":1805,"aur":1806,"icup":1807,"ĠTetra":1808,"auricup":1809,"ĠTetraauricup":1810,"ĠTetraauricupride":1811,"Ġintermo":1812,"Ġintermolecular":1813,"Ġacetaldehyde":1814,"Ġallows":1815,"Ġonly":1816,"its":1817,"Ġunits":1818,"ĠAcet":1819,"Ġcond":1820,"itions":1821,"Ġconditions":1822,"stly":1823,"ĠAlAl":1824,"arby":1825,"Ġnearby":1826,"Ġjust":1827,"Ġgive":1828,"bs":1829,"Ġobs":1830,"Ġobserv":1831,"anometers":1832,"Ġnanometers":1833,"*(":1834,"âģ°":1835,"Ġ106":1836,"Ġ121":1837,"Ġusing":1838,"CHOCH":1839,"Ġinvolving":1840,"ay":1841,"Ġro":1842,"Ġplay":1843,"Ġrole":1844,"ĠCHOCH":1845,"medi":1846,"Ġsub":1847,"Ġcovalently":1848,"Ġintermedi":1849,"Ġintermediate":1850,"Ġdebye":1851,"one":1852,"Ġconsid":1853,"Ġox":1854,"ĠHfHf":1855,"Ġmakes":1856,"Ġstrength":1857,"vent":1858,"ĠCmcm":1859,"rying":1860,"Ġcarrying":1861,"erg":1862,"Ġ119":1863,"nit":1864,"Ġdel":1865,"go":1866,"Ġundergo":1867,"uter":1868,"Ġouter":1869,"Ġshell":1870,"Ġoutermost":1871,"Ġcha":1872,"nal":1873,"Ġeigh":1874,"Ġeighth":1875,"ĠCHCHO":1876,"Ġmeasured":1877,"ndid":1878,"Ġgood":1879,"Ġcandid":1880,"Ġcandidate":1881,"Ġcent":1882,"Ġcenter":1883,"sion":1884,"ulsion":1885,"thest":1886,"arthest":1887,"Ġfarthest":1888,"uent":1889,"ituent":1890,"stituent":1891,"Ġconstituent":1892,"Ġba":1893,"ten":1894,"Ġoften":1895,"Ġtetrahedr":1896,"Ġtetrahedron":1897,"Ġexhibits":1898,"tro":1899,"atic":1900,"static":1901,"Ġelectro":1902,"Ġelectrostatic":1903,"hanol":1904,"Ġmethanol":1905,"Ġdelocalized":1906,"ĠDeby":1907,"ĠDebyes":1908,"Ġ49":1909,"ĠNiNi":1910,"form":1911,"Ġperform":1912,"Ġperformance":1913,"mmary":1914,"Ġsummary":1915,"onance":1916,"Ġresonance":1917,"Ġclose":1918,"Ġclu":1919,"Ġclust":1920,"lock":1921,"ĠOHNNCH":1922,"istry":1923,"Ġinteracts":1924,"ergy":1925,"Ġcreating":1926,"Ġbut":1927,"Ġx":1928,"ĠNiTa":1929,"Ġq":1930,"LU":1931,"Ġlowest":1932,"LUMO":1933,"Ġlar":1934,"Ġlarge":1935,"ls":1936,"olum":1937,"Ġvolum":1938,"Ġpulls":1939,"Ġvolume":1940,"Ġtric":1941,"Ġtriclinic":1942,"dize":1943,"Ġhybridize":1944,"filled":1945,"sat":1946,"urated":1947,"Ġunsat":1948,"Ġunsaturated":1949,"other":1950,"Ġanother":1951,"121":1952,"Ġsoluble":1953,"Ġsolvent":1954,"Ġsolvents":1955,"Ġcapa":1956,"Ġcompounds":1957,"Ġphysical":1958,"Ġcreate":1959,"Ġelectric":1960,"hase":1961,"ĠAgAg":1962,"Ġmain":1963,"Ġ115":1964,"ĠCuS":1965,"ĠOHCH":1966,"Ġfree":1967,"inyl":1968,"Ġvinyl":1969,"Ġsingly":1970,"Ġleads":1971,"ĠMoSe":1972,"Ġcloser":1973,"prop":1974,"the":1975,"then":1976,"Cs":1977,"ĠSbS":1978,"ĠZrZr":1979,"Ġest":1980,"imated":1981,"Ġestimated":1982,"Ġcauses":1983,"ĠReRe":1984,"ponding":1985,"Ġcor":1986,"responding":1987,"Ġcorresponding":1988,"Ġbeha":1989,"vior":1990,"Ġbehavior":1991,"led":1992,"CN":1993,"Ġbipyramid":1994,"Eth":1995,"Ethylene":1996,"Ġshow":1997,"Ġdifferences":1998,"rite":1999,"Ġdef":2000,"Ġheav":2001,"Ġheavy":2002,"Â°).":2003,"Ġact":2004,"nds":2005,"Ġgen":2006,"erating":2007,"Ġgenerating":2008,"Ġgas":2009,"luor":2010,"Ġcombined":2011,"ĠOxime":2012,"Â°),":2013,"ĠAcetaldehyde":2014,"ament":2015,"cu":2016,"uil":2017,"Ġblock":2018,"Ġbuil":2019,"Ġserv":2020,"Ġfund":2021,"ivities":2022,"Ġelectronegativities":2023,"Ġdocu":2024,"mented":2025,"Ġunderstood":2026,"01588":2027,"amental":2028,"Ġbuilding":2029,"Ġserves":2030,"Ġfundamental":2031,"Ġdocumented":2032,"cce":2033,"Ġcer":2034,"Ġcertain":2035,"ĠScSc":2036,"Ġtypes":2037,"Ġquite":2038,"tical":2039,"oretical":2040,"hydroxyethyl":2041,"taining":2042,"118":2043,"Ġopp":2044,"osite":2045,"Ġopposite":2046,"ĠCrS":2047,"pted":2048,"Ġacce":2049,"Ġwide":2050,"unity":2051,"Ġcommunity":2052,"Ġaccepted":2053,"Ġwidely":2054,"ĠSY":2055,"NNH":2056,"Ġthirteen":2057,"bd":2058,"lybd":2059,"ĠMolybd":2060,"ĠMolybden":2061,"Ġmoderately":2062,"anding":2063,"cul":2064,"luct":2065,"uate":2066,"Ġtheoretical":2067,"Ġfluct":2068,"Ġmostly":2069,"Ġdioxygen":2070,"Ġchemically":2071,"Ġhence":2072,"idated":2073,"Ġnote":2074,"Ġvalidated":2075,"Ġunderstanding":2076,"Ġcalcul":2077,"Ġstudy":2078,"Ġobservations":2079,"Ġfluctuate":2080,"Ġcalculations":2081,"109":2082,"Ġ117":2083,"get":2084,"Ġtoget":2085,"Ġtogether":2086,"CHO":2087,"ĠCHOCHO":2088,"ĠTiAl":2089,"122":2090,"Ġpolariz":2091,"Ġpolarization":2092,"ĠAlHf":2093,"Ġethan":2094,"ĠAlZr":2095,"uce":2096,"Ġparticular":2097,"Ġcontributing":2098,"Ġthereby":2099,"Ġinduce":2100,"Ġtypically":2101,"Ġvery":2102,"Ġ46":2103,"ĠPtPt":2104,"ĠLav":2105,"ĠNbSi":2106,"ĠLaves":2107,"ĠPdPd":2108,"ĠNiS":2109,"ĠNiSe":2110,"Ġnin":2111,"ĠNbS":2112,"ĠMoMo":2113,"ty":2114,"Ġrough":2115,"Ġemp":2116,"Ġroughly":2117,"Ġempty":2118,"ĠNiP":2119,"Ġ42":2120,"VB":2121,"able":2122,"crib":2123,"des":2124,"Ġaddit":2125,"itable":2126,"ĠMO":2127,"Ġsuitable":2128,"ĠUsing":2129,"Ġtheories":2130,"cribed":2131,"described":2132,"Ġaddition":2133,"ĠPP":2134,"Ġinclude":2135,"ĠNCa":2136,"Ġ55":2137,"alf":2138,"Ġhalf":2139,"ino":2140,"ĠFeS":2141,"Ġfifteen":2142,"ĠTiSi":2143,"955":2144,"Ġoccupies":2145,"Ġoxide":2146,"Acet":2147,"iqu":2148,"lel":2149,"allel":2150,"ĠCC":2151,"Ġcarbons":2152,"rial":2153,"Ġparallel":2154,"Ġuniqu":2155,"Ġindust":2156,"Acetylene":2157,"Ġunique":2158,"Ġindustrial":2159,"Ġninth":2160,"ĠYS":2161,"ĠNiAl":2162,"ĠPdCu":2163,"mu":2164,"ĠPdTl":2165,"nite":2166,"ĠPtIn":2167,"ĠTaNi":2168,"1085":2169,"ĠMnAs":2170,"Ġve":2171,"ctor":2172,"Ġ57":2173,"antity":2174,"Ġquantity":2175,"Ġvector":2176,"ork":2177,"Ġfram":2178,"ework":2179,"Ġframework":2180,"traction":2181,"reas":2182,"Ġwhereas":2183,"Ġrepresented":2184,"Ġenergy":2185,"Ġsubtraction":2186,"Ġconsidered":2187,"nitric":2188,"ĠAlNi":2189,"Ġhybrids":2190,"Ġloc":2191,"Ġ30":2192,"Ġpositions":2193,"Ġlocated":2194,"Ġ48":2195,"nm":2196,"hion":2197,"Ġfas":2198,"Ġalter":2199,"Ġethyn":2200,"114":2201,"Ġprocess":2202,"Ġchange":2203,"Ġfashion":2204,"Ġethyne":2205,"con":2206,"ĠIm":2207,"arbide":2208,"ĠNiAs":2209,"adi":2210,"026":2211,"Ġclusters":2212,"ĠHa":2213,"Ġ75":2214,"Ġpyramidal":2215,"Ġmin":2216,"ticip":2217,"imiz":2218,"Ġanticip":2219,"Ġrepulsion":2220,"Ġelectrical":2221,"Ġminimiz":2222,"Ġanticipation":2223,"Ġminimizing":2224,"ĠCrTe":2225,"duct":2226,"rocarbon":2227,"quent":2228,"Ġhydrocarbon":2229,"hylene":2230,"sequent":2231,"Ġmethylene":2232,"Ġproduct":2233,"Ġcomplex":2234,"Ġsubsequent":2235,"Ġhydrocarbons":2236,"Ġproducts":2237,"gram":2238,"Ġent":2239,"ĠNN":2240,"ĠNNH":2241,"Ġlocalized":2242,"Ġdiagram":2243,"Ġentire":2244,"ONH":2245,"picometers":2246,"also":2247,"Ġ142":2248,"pping":2249,"ĠONH":2250,"Ġoverlapping":2251,"RC":2252,"boo":2253,"eer":2254,"les":2255,"Ġsour":2256,"revi":2257,"ndboo":2258,"ĠChem":2259,"ĠCRC":2260,"Ġpeer":2261,"ĠPhys":2262,"ournal":2263,"ticles":2264,"ified":2265,"NHNH":2266,"ĠNHNH":2267,"Ġarticles":2268,"Ġjournal":2269,"ewed":2270,"Ġverified":2271,"ĠHandboo":2272,"Ġsources":2273,"reviewed":2274,"ĠChemistry":2275,"ĠPhysics":2276,"ĠHandbook":2277,"fluor":2278,"ĠCarbon":2279,"Ġformaldehyde":2280,"fluoride":2281,"muth":2282,"ĠInS":2283,"Ġparticipates":2284,"ĠTcTc":2285,"ences":2286,"Ġhow":2287,"Ġdetermine":2288,"Ġinfluences":2289,"Ġconsider":2290,"ĠAuAg":2291,"Ġlower":2292,"ĠTaS":2293,"Ġ123":2294,"Ġcharacterized":2295,"CHCHO":2296,"Ġ76":2297,"onating":2298,"Ġdonating":2299,"ĠLew":2300,"Ġbase":2301,"Ġcapable":2302,"ĠLewis":2303,"ĠCaAs":2304,"Ġ47":2305,"nged":2306,"Ġethyl":2307,"Ġ114":2308,"Ġwhen":2309,"Ġinteracting":2310,"Ġcancels":2311,"Ġarranged":2312,"Ġundergoes":2313,"Ġ150":2314,"ĠNaSe":2315,"smuth":2316,"Ġbismuth":2317,"Ġtrifluoride":2318,"âĤģâĤģ":2319,"ake":2320,"ander":2321,"gor":2322,"pm":2323,"Ġtake":2324,"Ġcate":2325,"Ġfall":2326,"Ġinto":2327,"lecule":2328,"Ġ112":2329,"Ġpart":2330,"ĠVander":2331,"ĠMolecule":2332,"Ġ95":2333,"025":2334,"Ġnitroso":2335,"gory":2336,"Ġcategory":2337,"Ġfalls":2338,"ĠMoS":2339,"196":2340,"fore":2341,"gg":2342,"mon":2343,"Ġamon":2344,"ĠMethan":2345,"ternal":2346,"Ġexternal":2347,"Ġsugg":2348,"Ġtherefore":2349,"ests":2350,"Ġamong":2351,"ĠMethane":2352,"Ġsuggests":2353,"te":2354,"452":2355,"agn":2356,"esium":2357,"ĠMagn":2358,"ĠMagnesium":2359,"aile":2360,"ĠÃħngstroms":2361,"ĠSin":2362,"ĠHere":2363,"Ġdetaile":2364,"ĠSince":2365,"Ġdetailed":2366,"CCHO":2367,"Ġstrongly":2368,"Ġcomplete":2369,"Ġcompletely":2370,"ĠAlTa":2371,"ĠMolybdenite":2372,"206":2373,"There":2374,"OHNH":2375,"Ġ96":2376,"Ġbased":2377,"Ġ71":2378,"ĠPdBi":2379,"ĠTlPd":2380,"kite":2381,"Ġ73":2382,"ĠRhSi":2383,"Ġmetals":2384,"ĠCCHOH":2385,"ides":2386,"ĠEthynol":2387,"CCHOH":2388,"Ġoxides":2389,"ĠDis":2390,"Debye":2391,"EP":2392,"Valence":2393,"ced":2394,"ind":2395,"pers":2396,"pically":2397,"pulsion":2398,"spers":2399,"uced":2400,"ypically":2401,"hell":2402,"ondon":2403,"orption":2404,"lectron":2405,"Ġdispers":2406,"ĠShell":2407,"ĠPair":2408,"ĠTypically":2409,"ĠOne":2410,"Ġdegree":2411,"isorption":2412,"ĠElectron":2413,"ĠRepulsion":2414,"ĠEthoxy":2415,"Ġdirected":2416,"ĠLondon":2417,"Ġdepends":2418,"Ġphysisorption":2419,"ĠVSEP":2420,"Ġcalled":2421,"induced":2422,"Ġdispersion":2423,"ĠVSEPR":2424,"233":2425,"yd":2426,"Ġisoc":2427,"yanate":2428,"Ġisocyanate":2429,"ĠDisilicide":2430,"4âĤĤ":2431,"ĠInTi":2432,"ĠZrSi":2433,"ĠScSb":2434,"Ġtenth":2435,"ĠHex":2436,"ĠHexagonal":2437,"1216":2438,"ĠZnS":2439,"ĠGaTi":2440,"Hyd":2441,"pynol":2442,"ĠĠĊ":2443,"roxyacetylene":2444,"Ġpropynol":2445,"Hydroxyacetylene":2446,"ĠCm":2447,"ĠCHCHOH":2448,"CHCHOH":2449,"sure":2450,"ĠHY":2451,"be":2452,"ual":2453,"Ġset":2454,"Ġsens":2455,"itivity":2456,"nges":2457,"ivid":2458,"dies":2459,"Ġprobe":2460,"Ġindivid":2461,"Ġscience":2462,"Ġnearly":2463,"Ġstudies":2464,"Ġchanges":2465,"Ġsets":2466,"Ġsensitivity":2467,"Ġindividual":2468,"cur":2469,"Ġoccur":2470,"red":2471,"covalent":2472,"Ġcontribute":2473,"Ġpossess":2474,"Ġweaker":2475,"COCHO":2476,"ĠIrIr":2477,"116":2478,"Ġion":2479,"omal":2480,"Ġanion":2481,"Ġanomal":2482,"Ġanomalous":2483,"ased":2484,"based":2485,"rit":2486,"syl":2487,"omer":2488,"Ġisomer":2489,"ĠHence":2490,"Ġnitrite":2491,"Ġnitrosyl":2492,"nitrit":2493,"nitrito":2494,"Ġethen":2495,"Ġalmost":2496,"Ġsymmetric":2497,"Ġethenyl":2498,"464":2499,"ain":2500,"ĠMoNi":2501,"ĠCoGe":2502,"Ġom":2503,"ega":2504,"Ġomega":2505,"cy":2506,"ien":2507,"lic":2508,"ome":2509,"omain":2510,"Ġcm":2511,"icien":2512,"Ġmove":2513,"Ġ143":2514,"Ġ152":2515,"ĠIso":2516,"analdehyde":2517,"Ġdomain":2518,"Ġreadi":2519,"Ġvaries":2520,"Ġimplic":2521,"Ġbecome":2522,"COHCHO":2523,"Ġrepresents":2524,"hydroxyprop":2525,"propyl":2526,"Ġdeficien":2527,"Ġmovement":2528,"ĠIsopropyl":2529,"Ġdomains":2530,"Ġreadily":2531,"Ġimplications":2532,"hydroxypropanaldehyde":2533,"Ġdeficiency":2534,"Ġ59":2535,"281":2536,"420":2537,"*)":2538,"ctive":2539,"Ġdistin":2540,"ĠFeAs":2541,"Ġacetone":2542,"Ġplanarity":2543,"acetone":2544,"Ġdistinctive":2545,"ĠCoP":2546,"ĠNaNa":2547,"Ġ50":2548,"Ġphase":2549,"ĠCrP":2550,"-),":2551,"ean":2552,"hile":2553,"while":2554,"ngthen":2555,"Ġprom":2556,"Ġdiol":2557,"ĠMean":2558,"Orbitally":2559,"oting":2560,"Ġstrengthen":2561,"Ġactivity":2562,"Ġpromoting":2563,"ĠMeanwhile":2564,"Reg":2565,"arding":2566,"Ġchemistry":2567,"Regarding":2568,"472":2569,"ĠScAs":2570,"ial":2571,"Ġpot":2572,"ential":2573,"ĠDue":2574,"Ġwherein":2575,"mentary":2576,"Ġpossessing":2577,"Ġcommonly":2578,"Ġcomplementary":2579,"Ġpotential":2580,"Ġpressure":2581,"cyan":2582,"Ġdiffer":2583,"Ġcarriers":2584,"cyanide":2585,"ĠSbTi":2586,"107":2587,"098":2588,"ĠCarbide":2589,"ĠVSi":2590,"ĠNbSe":2591,"La":2592,"Ġcluster":2593,"erature":2594,"mperature":2595,"ĠSbPt":2596,"ĠPtSb":2597,"prises":2598,"uring":2599,"Ġcomprises":2600,"Ġmeasuring":2601,"emperature":2602,"Ġari":2603,"Ġtemperature":2604,"react":2605,"Ġunreact":2606,"containing":2607,"Ġpressures":2608,"Ġarise":2609,"Ġtemperatures":2610,"Ġunreactive":2611,"ĠPhase":2612,"pla":2613,"Ġali":2614,"Ġwil":2615,"OCHCH":2616,"COOCH":2617,"Ġexpla":2618,"ĠOCHCH":2619,"gning":2620,"Ġaligning":2621,"Ġwill":2622,"Ġexplained":2623,"CCO":2624,"HNO":2625,"dra":2626,"wing":2627,"with":2628,"Ġcyanide":2629,"Lastly":2630,"drawing":2631,"withdrawing":2632,"ONN":2633,"omin":2634,"Ġpred":2635,"ĠONN":2636,"Ġdistance":2637,"antly":2638,"Ġdefined":2639,"ominantly":2640,"Ġpredominantly":2641,"-).":2642,"bil":2643,"ithin":2644,"ĠWithin":2645,"Ġ90":2646,"COO":2647,"Ġcapabil":2648,"Ġcapabilities":2649,"Ġ13":2650,"itan":2651,"ĠTitan":2652,"ĠTitanium":2653,"Ġmul":2654,"tiple":2655,"Ġmultiple":2656,"ĠAlSc":2657,"Ġ45":2658,"1220":2659,"ĠVZr":2660,"ONNH":2661,"sary":2662,"Ġretaining":2663,"cessary":2664,"ĠONNH":2665,"Ġ105":2666,"Ġnecessary":2667,"Ġobserved":2668,"ĠCrSe":2669,"Ġcentralized":2670,"COHCHOH":2671,"ĠNHf":2672,"pper":2673,"angstroms":2674,"ked":2675,"Ġlinked":2676,"Ġrepresenting":2677,"Ġpulled":2678,"Ġcorrespondingly":2679,"ĠGaS":2680,"tun":2681,"ĠCotun":2682,"ĠCotunnite":2683,"gions":2684,"Ġregions":2685,"Ġcharacteristic":2686,"Ġcombine":2687,"ĠCopper":2688,"ĠFeP":2689,"yrite":2690,"âģ»,":2691,"ĠAgCd":2692,"ĠTaSi":2693,"gation":2694,"ju":2695,"lyoxal":2696,"ĠGlyoxal":2697,"Ġconju":2698,"Ġup":2699,"edial":2700,"Ġethanedial":2701,"Ġconjugation":2702,"ung":2703,"sten":2704,"ĠTung":2705,"ĠTungsten":2706,"ĠNiSi":2707,"nmm":2708,"ĠNiNb":2709,"Ġall":2710,"Ġethanediol":2711,"ĠRhRu":2712,"ĠNaS":2713,"ĠGaZr":2714,"ĠMoAl":2715,"zed":2716,"energy":2717,"alyzed":2718,"CHCO":2719,"ĠCHCO":2720,"Ġanalyzed":2721,"ĠFeZr":2722,"Ġstands":2723,"Ġmeasures":2724,"Ġleading":2725,"ĠAcetyl":2726,"ĠCuAl":2727,"ĠSnZr":2728,"ĠCoCo":2729,"verite":2730,"ĠCrZr":2731,"ubic":2732,"ĠYY":2733,"102":2734,"ĠNbGe":2735,"Ġ51":2736,"ĠZnTi":2737,"1183":2738,"ĠNiTe":2739,"ĠGaNb":2740,"Ġeleventh":2741,"ĠPdMo":2742,"ĠHTi":2743,"alite":2744,"ia":2745,"Ġvia":2746,"ĠCHOHCHOH":2747,"CHOHCHOH":2748,"Each":2749,"Ġ134":2750,"Ġangstrom":2751,"alt":2752,"ĠSalt":2753,"ĠHalite":2754,"ĠRock":2755,"CHOCHOH":2756,"ĠCHOCHOH":2757,"ĠRuRu":2758,"ĠRhV":2759,"ĠSrN":2760,"ĠPnnm":2761,"ĠImmm":2762,"ĠPtNb":2763,"ĠInSe":2764,"Ġ52":2765,"ĠAsAs":2766,"ĠNiGa":2767,"ĠAlCu":2768,"ĠInSc":2769,"1079":2770,"ĠRuIr":2771,"ĠMnMn":2772,"569":2773,"ĠFeSe":2774,"ĠHfAl":2775,"ĠAgZn":2776,"ĠCmmm":2777,"ĠInPt":2778,"met":2779,"Ġdimet":2780,"OHNNCH":2781,"hylam":2782,"Ġrelative":2783,"Ġhydroxylamino":2784,"Ġdimethylam":2785,"Ġdimethylamino":2786,"ĠMoTe":2787,"ĠAmm":2788,"Ġ54":2789,"ĠSrP":2790,"ĠSeK":2791,"Ġrib":2792,"Ġribb":2793,"AX":2794,"ĠMAX":2795,"1186":2796,"ĠFluor":2797,"ĠFluorite":2798,"119":2799,"101":2800,"ĠFd":2801,"ĠPdHg":2802,"ĠPmm":2803,"ĠPdZn":2804,"ĠCuSe":2805,"ĠCoSi":2806,"ĠVRh":2807,"867":2808,"ĠVV":2809,"ĠAlS":2810,"ĠTiTe":2811,"ĠMolybdenum":2812,"ĠPdNb":2813,"ĠBiPd":2814,"fth":2815,"Ġtwelfth":2816,"ĠTaTe":2817,"ĠCrAs":2818,"ĠRhPt":2819,"ĠIrSi":2820,"ĠInZr":2821,"ĠScSi":2822,"ĠCaP":2823,"ĠCoZr":2824,"ĠPtTi":2825,"ĠNbPt":2826,"ĠMoSi":2827,"ĠNbTe":2828,"ĠAlY":2829,"ĠAlNb":2830,"ĠMnZr":2831,"ĠSCu":2832,"hat":2833,"rkite":2834,"yrkite":2835,"ĠKhat":2836,"ĠKhatyrkite":2837,"ĠGaNi":2838,"ĠMnP":2839,"ĠMnS":2840,"ĠTaGe":2841,"ĠSZn":2842,"Ġapproximate":2843,"ĠNiHf":2844,"1187":2845,"ĠGaPt":2846,"ĠHgPd":2847,"ĠPbc":2848,"ĠMnSi":2849,"567":2850,"ĠPtGa":2851,"ĠFeSb":2852,"mb":2853,"ĠPtAl":2854,"ĠBiSe":2855,"ĠVSe":2856,"Ġ40":2857,"ĠWN":2858,"1215":2859,"ĠSrAs":2860,"ĠTaN":2861,"1219":2862,"ĠWS":2863,"ĠCoSe":2864,"ĠSeTi":2865,"ĠHCa":2866,"ĠRhMo":2867,"ĠSSb":2868,"sw":2869,"sil":2870,"ĠCasw":2871,"ellsil":2872,"ĠCaswellsil":2873,"ĠCaswellsilverite":2874,"ĠGaHf":2875,"1224":2876,"ĠNTi":2877,"ĠHfGe":2878,"mbm":2879,"ĠTiPt":2880,"ĠAlPt":2881,"ĠLa":2882,"ĠTiN":2883,"ĠCdAg":2884,"ĠCubic":2885,"ĠOsTa":2886,"1217":2887,"ĠPCa":2888,"ĠPyrite":2889,"Ġ18":2890,"dder":2891,"ĠModder":2892,"ĠModderite":2893,"ĠNbN":2894,"ĠIrNb":2895,"ĠTlTl":2896,"ĠNSr":2897,"ĠSeNa":2898,"ĠFeFe":2899,"Ġribbons":2900,"ĠPSr":2901,"ĠNaTe":2902,"ĠZrSb":2903,"ĠZrAl":2904,"ĠNiTi":2905,"mnm":2906,"ĠCSi":2907,"ĠCuSc":2908,"ĠCdS":2909,"ĠCaSi":2910,"ĠPmma":2911,"ĠSiSi":2912,"ĠFeTa":2913,"ĠPbS":2914,"ĠVTe":2915,"ĠMoAs":2916,"ĠSNi":2917,"ĠTaTa":2918,"ĠNiGe":2919,"ĠWSi":2920,"Ġ63":2921,"ĠPtMo":2922,"1221":2923,"ĠCaSb":2924,"ĠHSr":2925,"ĠNNb":2926,"ĠPdV":2927,"ĠPbPd":2928,"4âĤģ":2929,"ĠMnGe":2930,"ĠIrRe":2931,"ĠBiS":2932,"ĠMnN":2933,"ĠNiZr":2934,"ĠSiC":2935,"ĠZrGa":2936,"ĠGeS":2937,"ĠCdCd":2938,"308":2939,"ĠPdAg":2940,"ĠNiSb":2941,"ĠSnHf":2942,"ĠZnPd":2943,"222":2944,"ĠHfN":2945,"ĠRhTe":2946,"ĠRhSn":2947,"ĠSnTi":2948,"ĠPdTa":2949,"ĠSnS":2950,"ĠWPd":2951,"ĠAgAl":2952,"ĠOsP":2953,"ĠWTe":2954,"ĠRhS":2955,"ĠCsCl":2956,"man":2957,"1018":2958,"ĠAsCa":2959,"1080":2960,"ĠNaAs":2961,"ĠAgAu":2962,"ĠPdSn":2963,"ero":2964,"skite":2965,"vskite":2966,"ĠPero":2967,"ĠNiCa":2968,"ĠPerovskite":2969,"ĠZnP":2970,"ĠCdTi":2971,"ĠScP":2972,"ĠPdTi":2973,"ĠAgS":2974,"ĠZrP":2975,"ĠCoV":2976,"ĠPdMn":2977,"ĠSNa":2978,"ĠPmmn":2979,"Ġ53":2980,"ĠPa":2981,"Ġ15":2982,"ĠNbP":2983,"Ġ43":2984,"ĠAgY":2985,"cas":2986,"arcas":2987,"ĠMarcas":2988,"ĠPdAs":2989,"ĠMarcasite":2990,"ĠTiGe":2991,"ĠGeCu":2992,"ĠRhNb":2993,"rd":2994,"ĠCoSb":2995,"Ġthirteenth":2996,"ĠTcP":2997,"ĠZnAs":2998,"ĠIndium":2999,"ĠCoS":3000,"Ġ56":3001,"1188":3002,"ĠNbIr":3003,"ĠPtRh":3004,"ĠRhZn":3005,"ĠPAg":3006,"ĠNiY":3007,"ĠNZr":3008,"ĠInY":3009,"ĠIrTe":3010,"ĠInAu":3011,"ĠSiN":3012,"ĠSiP":3013,"ĠNbNi":3014,"ĠCuTe":3015,"ĠImma":3016,"ĠNbPd":3017,"Ġfourteenth":3018,"ĠSnSe":3019,"ĠCdAs":3020,"112":3021,"ĠCmce":3022,"ĠKCl":3023,"ĠSnRh":3024,"ĠTiP":3025,"ĠScHf":3026,"anite":3027,"ĠGaV":3028,"ĠTaPd":3029,"ĠBiTe":3030,"ĠFeY":3031,"ĠIrTa":3032,"ĠCuZn":3033,"ĠZnZr":3034,"ĠCuHf":3035,"ĠMoZr":3036,"ĠYAg":3037,"ĠPtCd":3038,"ĠWAl":3039,"ĠPdZr":3040,"ĠMoZn":3041,"Ġ64":3042,"ĠPZn":3043,"ĠPTc":3044,"ĠSeIn":3045,"ĠRhSe":3046,"ĠCrTa":3047,"ĠCrAl":3048,"ĠRhAs":3049,"ĠZnSe":3050,"ĠNbGa":3051,"ĠMnTe":3052,"1078":3053,"ĠCmc":3054,"ĠTiPd":3055,"ĠPtAg":3056,"ĠRhP":3057,"ĠZnY":3058,"ĠAlMn":3059,"ĠCrNb":3060,"ĠHZr":3061,"ĠHfGa":3062,"Ġfifteenth":3063,"pin":3064,"ĠSpin":3065,"ĠYSi":3066,"ĠSpinel":3067,"ĠRuTa":3068,"ĠIrMo":3069,"ĠRhRh":3070,"Ġ20":3071,"ĠTiAs":3072,"ĠCuZr":3073,"Ġsevent":3074,"ĠPbam":3075,"Ġseventeen":3076,"ĠPFe":3077,"prim":3078,"prime":3079,"Ġ41":3080,"ĠNaSb":3081,"ĠZnN":3082,"ĠGeSe":3083,"ĠCoY":3084,"ĠFeSi":3085,"ĠFdd":3086,"ĠKSe":3087,"MoS":3088,"ĠRhGa":3089,"ĠCoAs":3090,"ĠInTe":3091,"100":3092,"ĠTaIr":3093,"ĠZrSe":3094,"ĠNTa":3095,"ĠCoHf":3096,"ĠAuIn":3097,"ĠAlAg":3098,"ĠCrTi":3099,"ĠCc":3100,"ĠGaSe":3101,"ĠAgSe":3102,"ĠTiCo":3103,"ĠPbTe":3104,"ĠYGa":3105,"1223":3106,"ĠNbRh":3107,"ĠNV":3108,"ircon":3109,"ĠZircon":3110,"ĠPtV":3111,"dm":3112,"Ġgol":3113,"Ġcadm":3114,"Ġgold":3115,"Ġcadmium":3116,"ĠZnTa":3117,"ĠRuRe":3118,"ĠRhSb":3119,"106":3120,"amd":3121,"ĠZnAg":3122,"ĠMnPd":3123,"ĠOsRe":3124,"ĠWSe":3125,"ĠSIn":3126,"ĠNbNb":3127,"ĠSnTe":3128,"ĠHgTi":3129,"ĠGeTe":3130,"ĠCoTi":3131,"ĠRuRh":3132,"ĠAsNi":3133,"ĠCh":3134,"ĠYIn":3135,"Ġtetrabor":3136,"Ġtetraboride":3137,"Heusler":3138,"âĤģâĤĥ":3139,"11869":3140,"ĠCdAu":3141,"ĠCoNb":3142,"ĠAgTi":3143,"ĠSCo":3144,"ĠScAl":3145,"ĠScGe":3146,"ĠSnSc":3147,"ĠZrIn":3148,"ĠVPd":3149,"ĠPtSn":3150,"Ġ68":3151,"ĠKK":3152,"ĠPNa":3153,"ĠScGa":3154,"ĠIb":3155,"PbS":3156,"ĠVN":3157,"ĠSeBi":3158,"ĠAuCu":3159,"ĠZirconium":3160,"SeS":3161,"ĠMnSe":3162,"ĠNaCl":3163,"Ġcarbide":3164,"TiS":3165,"âģ¸":3166,"ĠWP":3167,"ĠIbam":3168,"atlock":3169,"ĠMatlock":3170,"ĠMatlockite":3171,"ĠCaS":3172,"ĠWIr":3173,"ĠPCo":3174,"ĠHfSi":3175,"ĠIrP":3176,"ĠVCo":3177,"alco":3178,"ĠChalco":3179,"ĠAsTe":3180,"ĠKS":3181,"eta":3182,"570":3183,"ĠSV":3184,"ĠGaSc":3185,"ĠRhRe":3186,"ĠNiSc":3187,"ĠSrPb":3188,"PS":3189,"ĠVPt":3190,"ĠPdSi":3191,"113":3192,"ĠCV":3193,"ron":3194,"zeta":3195,"Ġzeta":3196,"Ġiron":3197,"ĠCdHf":3198,"ĠGaRh":3199,"ĠMoHf":3200,"ĠAsSr":3201,"cble":3202,"nde":3203,"ĠSpha":3204,"incble":3205,"ĠZincble":3206,"ĠNaP":3207,"lerite":3208,"ĠSphalerite":3209,"ĠZincblende":3210,"Ġcuboctahedral":3211,"ĠRuAs":3212,"ĠPbcn":3213,"ĠSTi":3214,"ĠGaY":3215,"108":3216,"ĠNY":3217,"ĠPS":3218,"âĤģâĤĨ":3219,"Ġsixteenth":3220,"12âĤģ":3221,"ĠRhGe":3222,"ĠGaTe":3223,"ĠSbSe":3224,"ĠTaAs":3225,"ĠCdPt":3226,"ĠZrS":3227,"ĠGaAs":3228,"ĠCoTe":3229,"ĠRbS":3230,"ĠMoP":3231,"ĠCNb":3232,"ĠZrN":3233,"422":3234,"ĠSbCu":3235,"ĠSnNb":3236,"ĠInP":3237,"ĠAlN":3238,"ĠHfSb":3239,"ĠSnPd":3240,"WS":3241,"ĠSSr":3242,"ĠVC":3243,"ĠMoPt":3244,"ĠSeCr":3245,"ĠTaAl":3246,"ĠAuAu":3247,"pyrite":3248,"ĠFeNb":3249,"ĠChalcopyrite":3250,"ĠCuPd":3251,"ĠFeTi":3252,"ĠSAg":3253,"ĠCoTa":3254,"ĠSrSb":3255,"Cubic":3256,"ĠSnY":3257,"ĠMnSc":3258,"ĠNMn":3259,"ĠPSn":3260,"ĠSeCs":3261,"ĠSPb":3262,"ĠSiTi":3263,"ĠCaCa":3264,"ĠZrTe":3265,"ĠTaRu":3266,"ĠScBi":3267,"1184":3268,"averite":3269,"alaverite":3270,"ĠCalaverite":3271,"ĠInSb":3272,"ĠHfPd":3273,"ĠHfPt":3274,"ĠCdY":3275,"ĠTiZn":3276,"ĠSnCu":3277,"dite":3278,"kut":3279,"udite":3280,"ĠSRu":3281,"ĠSkut":3282,"terudite":3283,"ĠRuSb":3284,"ĠSkutterudite":3285,"ĠZnHf":3286,"ĠFmmm":3287,"ĠAlSe":3288,"ĠSeY":3289,"MoSe":3290,"adium":3291,"ĠYAl":3292,"ĠSbTe":3293,"ĠRuCu":3294,"103":3295,"ĠPbca":3296,"1189":3297,"ĠAuCd":3298,"ĠPbSe":3299,"ĠSBi":3300,"ĠNiCr":3301,"ĠCuTi":3302,"ĠRbTe":3303,"127":3304,"132":3305,"Ġ17":3306,"ĠYSn":3307,"ĠSnV":3308,"ĠTeGe":3309,"ĠFeHf":3310,"ellur":3311,"ĠTiGa":3312,"ĠScAg":3313,"ĠWCo":3314,"ĠCdTe":3315,"ĠTeBi":3316,"124":3317,"ĠAuSn":3318,"ĠPtGe":3319,"ĠBerg":3320,"NiS":3321,"ĠFeSc":3322,"ĠBergman":3323,"ĠSFe":3324,"ĠPtNi":3325,"ĠYGe":3326,"115":3327,"SbPt":3328,"220":3329,"dium":3330,"ĠSiCu":3331,"ĠHfNi":3332,"1007":3333,"CaSi":3334,"Ġgam":3335,"ĠGaGa":3336,"Ġgamma":3337,"ĠTaOs":3338,"862":3339,"ĠHgSc":3340,"ĠBiHf":3341,"ĠSRh":3342,"ĠSiS":3343,"ĠZnSc":3344,"+,":3345,"âģ·":3346,"ĠNbAl":3347,"10180":3348,"ĠAgP":3349,"ĠPNaP":3350,"974":3351,"ĠAlAs":3352,"ĠGeN":3353,"ĠRuPt":3354,"ĠIrAs":3355,"ĠPPIr":3356,"ĠIrGe":3357,"vc":3358,"orund":3359,"ĠCorund":3360,"ĠYCd":3361,"ĠFddd":3362,"ĠCorundum":3363,"tz":3364,"urtz":3365,"ĠWurtz":3366,"ĠWurtzite":3367,"NiAs":3368,"ĠImm":3369,"NbS":3370,"ĠMoN":3371,"ĠMnTi":3372,"SnS":3373,"ĠCdSc":3374,"ĠZrAs":3375,"166":3376,"ĠAlGe":3377,"ĠSrSi":3378,"Ġ65":3379,"ĠNFe":3380,"ĠIrV":3381,"865":3382,"167":3383,"sanite":3384,"ĠHaus":3385,"ĠMois":3386,"ZnS":3387,"mannite":3388,"ĠHausmannite":3389,"ĠMoissanite":3390,"ĠCuTa":3391,"ĠAgSc":3392,"ĠClK":3393,"ĠPtZn":3394,"ĠMoCo":3395,"ĠTcAl":3396,"568":3397,"306":3398,"oride":3399,"ĠAsAsIr":3400,"ĠPN":3401,"ĠGeGe":3402,"ĠRuNi":3403,"ĠZnSr":3404,"ĠNaBi":3405,"ĠGeNi":3406,"305":3407,"ĠCW":3408,"ĠRhIn":3409,"mvc":3410,"ĠCuY":3411,"ĠPPRh":3412,"ĠAlP":3413,"1077":3414,"303":3415,"ĠYTe":3416,"ĠHfP":3417,"NiSi":3418,"1025":3419,"ĠIrRu":3420,"ĠSnNi":3421,"12243":3422,"ĠHfSe":3423,"ement":3424,"ĠCement":3425,"ĠCuAu":3426,"ĠTeSn":3427,"ĠCementite":3428,"571":3429,"ĠTiNi":3430,"CuS":3431,"gite":3432,"nar":3433,"ĠZnRh":3434,"ĠWAs":3435,"ĠFeTe":3436,"ĠEnar":3437,"ĠEnargite":3438,"$\\":3439,"Kas":3440,"Ġ$\\":3441,"ĠHfCu":3442,"ĠHfAu":3443,"ĠGaN":3444,"ĠOsOs":3445,"ĠFran":3446,"Kasper":3447,"ĠFrank":3448,"bnite":3449,"ĠSti":3450,"ĠPdHf":3451,"ĠScN":3452,"ĠScTe":3453,"ĠRuTc":3454,"ĠStibnite":3455,"296":3456,"ĠRuSi":3457,"ĠZrCl":3458,"ĠNbC":3459,"ĠCuP":3460,"TeSe":3461,"ĠPmc":3462,"ĠHfAs":3463,"ĠCrN":3464,"ĠCrHf":3465,"105":3466,"ĠMnHf":3467,"ĠAgCu":3468,"11860":3469,"ĠCaGe":3470,"side":3471,"Ġinside":3472,"ĠVP":3473,"ĠTeNa":3474,"1207":3475,"ĠTiMo":3476,"ĠZrGe":3477,"ĠPtRu":3478,"ĠRhZr":3479,"ĠPbTl":3480,"973":3481,"ĠMoCl":3482,"1105":3483,"123":3484,"CaZn":3485,"12180":3486,"ĠSiZr":3487,"ĠVAs":3488,"ĠIrTc":3489,"CoNi":3490,"RuSi":3491,"503":3492,"133":3493,"ĠStructure":3494,"136":3495,"ĠScSn":3496,"ĠSrGe":3497,"ĠRuSe":3498,"ĠPbSc":3499,"ĠAsAsRh":3500,"972":3501,"ĠVTa":3502,"11880":3503,"Ġ39":3504,"ĠPtTe":3505,"rthorhombic":3506,"ĠPmmm":3507,"ĠOrthorhombic":3508,"ĠTiAu":3509,"156":3510,"ĠScIn":3511,"ĠScCu":3512,"ĠAsZn":3513,"12154":3514,"ĠWNi":3515,"ĠSbRh":3516,"1229":3517,"ĠTcGa":3518,"979":3519,"ĠTiNb":3520,"ĠSiAs":3521,"ĠZnNb":3522,"ĠSbNi":3523,"SnSe":3524,"Ġribbon":3525,"ĠIrTi":3526,"lm":3527,"enite":3528,"ĠIlm":3529,"ĠTiCl":3530,"ĠIlmenite":3531,"117":3532,"ĠSNb":3533,"ĠAlCa":3534,"ĠPdGe":3535,"TiAl":3536,"ĠWPt":3537,"1069":3538,"Ġ77":3539,"Ġ19":3540,"ĠPHf":3541,"1072":3542,"ĠSrZn":3543,"8655":3544,"ĠSiCo":3545,"ĠAsTi":3546,"GeTe":3547,"ĠReN":3548,"CrS":3549,"12203":3550,"280":3551,"ĠSK":3552,"212":3553,"ĠTiIr":3554,"1009":3555,"1246":3556,"ĠRbRb":3557,"866":3558,"204":3559,"11846":3560,"1103":3561,"12153":3562,"ĠPc":3563,"Ġ35":3564,"ĠHgTe":3565,"WTe":3566,"anadium":3567,"ĠVanadium":3568,"ĠAuTi":3569,"ĠIrZn":3570,"Ġnitride":3571,"304":3572,"ĠSeRb":3573,"ĠTaGa":3574,"1029":3575,"ĠSTl":3576,"ĠPTi":3577,"ĠAlSb":3578,"ĠVIr":3579,"ĠRhTc":3580,"ĠSSn":3581,"12155":3582,"ĠAuTe":3583,"ZrRh":3584,"573":3585,"GeS":3586,"ĠTiRh":3587,"209":3588,"CoGe":3589,"Ġtellur":3590,"Ġtelluride":3591,"ĠPdIn":3592,"ĠZrZn":3593,"ĠTaP":3594,"ĠPSi":3595,"ĠTiH":3596,"âĤģâĤħ":3597,"ĠSrS":3598,"ĠCdSb":3599,"ĠPRe":3600,"ĠGaP":3601,"ĠSePb":3602,"ĠYSe":3603,"ĠCrNi":3604,"ĠRuP":3605,"999":3606,"1102":3607,"ĠNAl":3608,"ĠSiV":3609,"104":3610,"ĠPFeP":3611,"ĠAgTe":3612,"ĠIrSb":3613,"TaS":3614,"12289":3615,"ĠTeTe":3616,"ĠAlPd":3617,"ĠZrPd":3618,"CuAl":3619,"165":3620,"eteen":3621,"CoSi":3622,"Ġnineteen":3623,"210":3624,"ĠSiY":3625,"ĠTaCu":3626,"TiPd":3627,"ĠTlSe":3628,"186":3629,"ĠAlV":3630,"Ġ69":3631,"AlGe":3632,"ĠSiFe":3633,"ĠPtNa":3634,"SiC":3635,"Ġ66":3636,"ĠScCl":3637,"ĠGeV":3638,"ĠReZr":3639,"ĠPmn":3640,"ĠInRh":3641,"ĠSbFe":3642,"213":3643,"ĠRbCl":3644,"ĠCAl":3645,"ĠSeRh":3646,"ĠMnSb":3647,"ĠMnZn":3648,"ĠSnAu":3649,"ĠReSe":3650,"CrSi":3651,"274":3652,"ĠPtCo":3653,"WSe":3654,"ĠPtSi":3655,"NiP":3656,"ĠSrIn":3657,"307":3658,"ĠSeSb":3659,"ĠCuCl":3660,"1023":3661,"229":3662,"ĠZrHf":3663,"ĠHgHf":3664,"ĠNbSb":3665,"1225":3666,"MnAl":3667,"1206":3668,"ĠNRe":3669,"ĠInPd":3670,"208":3671,"ĠAgCa":3672,"ĠAuRb":3673,"Ġ78":3674,"10253":3675,"Ġseventeenth":3676,"ĠSMn":3677,"CoAs":3678,"179":3679,"ĠSCr":3680,"Ġ22":3681,"AlSi":3682,"ĠSnSr":3683,"1208":3684,"ĠNbAs":3685,"ĠGeNb":3686,"1008":3687,"ĠOsMn":3688,"5708":3689,"ĠPtTc":3690,"ĠRuZn":3691,"1652":3692,"ĠTlCa":3693,"ĠPY":3694,"ĠInSr":3695,"755":3696,"ĠPo":3697,"ĠZrH":3698,"ĠRhAl":3699,"ĠAsZr":3700,"1247":3701,"ĠBiBi":3702,"ĠPbHf":3703,"555":3704,"ĠSiMn":3705,"ĠZrCu":3706,"ĠScNi":3707,"ĠRuTe":3708,"155":3709,"980":3710,"ĠAlRh":3711,"ĠNiMn":3712,"ĠCdCa":3713,"9743":3714,"544":3715,"ĠOsAs":3716,"lac":3717,"Ġblac":3718,"ĠSam":3719,"PtGe":3720,"arium":3721,"Ġblack":3722,"ĠSamarium":3723,"ĠCuSi":3724,"TiMo":3725,"ĠSiSc":3726,"1228":3727,"ĠRuS":3728,"ĠPtFe":3729,"ĠScS":3730,"HfIr":3731,"CoSe":3732,"159":3733,"800":3734,"AuAg":3735,"8653":3736,"-,":3737,"inum":3738,"Ġ31":3739,"ĠGaTa":3740,"FeS":3741,"126":3742,"ĠKSb":3743,"969":3744,"1199":3745,"uminum":3746,"ĠTlS":3747,"8654":3748,"FeSb":3749,"ĠCdSe":3750,"227":3751,"ĠTlZr":3752,"12172":3753,"YRh":3754,"FeSi":3755,"ĠTeAs":3756,"RuRh":3757,"ĠTcAs":3758,"223":3759,"717":3760,"311":3761,"462":3762,"1193":3763,"164":3764,"Phase":3765,"ĠTiZr":3766,"202":3767,"675":3768,"861":3769,"ĠHgNa":3770,"vanite":3771,"Ġ37":3772,"ĠSiNb":3773,"ĠSiCa":3774,"ĠRhTi":3775,"ĠAsHf":3776,"ĠCrSc":3777,"Ġ67":3778,"ĠAgHf":3779,"ĠKAs":3780,"ĠOsRu":3781,"322":3782,"Ġ36":3783,"NiSe":3784,"ĠSnP":3785,"1226":3786,"SnP":3787,"CaCu":3788,"1104":3789,"YPd":3790,"tact":3791,"rotact":3792,"ĠProtact":3793,"inium":3794,"ĠCaAg":3795,"OsSi":3796,"ĠProtactinium":3797,"ĠCTi":3798,"TiSi":3799,"AsS":3800,"NiAl":3801,"670":3802,"ĠCdNa":3803,"CrFe":3804,"âĤĤâĤĢ":3805,"ĠPtMn":3806,"ĠNbTi":3807,"ĠZnMn":3808,"ĠSRb":3809,"Ġ33":3810,"ĠRuMo":3811,"541":3812,"8673":3813,"977":3814,"odium":3815,"sen":3816,"ĠSodium":3817,"SiP":3818,"ĠRhTa":3819,"SrIn":3820,"Ġarsen":3821,"Ġarsenide":3822,"279":3823,"ĠInIn":3824,"200":3825,"ĠAuNb":3826,"ScCu":3827,"ĠAlTe":3828,"InS":3829,"Pa":3830,"ĠPK":3831,"ĠSiNi":3832,"ĠBoride":3833,"ĠScCd":3834,"Ġeighteenth":3835,"Ġdelta":3836,"ĠSSc":3837,"CoP":3838,"1120":3839,"691":3840,"YAg":3841,"111":3842,"MnP":3843,"8649":3844,"ĠHgZr":3845,"10942":3846,"310":3847,"714":3848,"TcRu":3849,"12179":3850,"ĠVNb":3851,"NiSb":3852,"163":3853,"ĠRbAu":3854,"828":3855,"730":3856,"9989":3857,"607":3858,"ĠSCd":3859,"ĠInNa":3860,"Ġ38":3861,"ĠSiHf":3862,"ĠTcRu":3863,"CaNi":3864,"850":3865,"983":3866,"ĠSeSn":3867,"RhSi":3868,"6722":3869,"ĠPbY":3870,"459":3871,"092":3872,"CoS":3873,"MnSi":3874,"ĠCaHg":3875,"PdAu":3876,"ĠAuZn":3877,"12171":3878,"VS":3879,"SiS":3880,"ĠRuOs":3881,"169":3882,"YCu":3883,"ĠSAs":3884,"ĠYN":3885,"ĠAgNa":3886,"10786":3887,"onium":3888,"ĠSyl":3889,"129":3890,"ĠIrSe":3891,"ĠClRb":3892,"ĠSylvanite":3893,"ĠMg":3894,"Ġ34":3895,"ĠZrHg":3896,"ĠWZr":3897,"RuIr":3898,"ĠCdP":3899,"ĠFmm":3900,"ĠZnTe":3901,"AsSe":3902,"ĠTeIn":3903,"ĠWOs":3904,"Ġ72":3905,"Ġ79":3906,"894":3907,"ĠPna":3908,"188":3909,"ĠSAl":3910,"PdBi":3911,"NiGa":3912,"ĠTeAg":3913,"ĠTeCd":3914,"ĠSbTl":3915,"ĠNaIn":3916,"1218":3917,"SnSb":3918,"AgZn":3919,"549":3920,"NbRh":3921,"192":3922,"139":3923,"Ġnineteenth":3924,"ĠAlMo":3925,"ĠHfS":3926,"ĠTaZn":3927,"803":3928,"ĠSbAg":3929,"ĠSnAg":3930,"501":3931,"557":3932,"981":3933,"WN":3934,"ĠAlSi":3935,"ĠPtRe":3936,"FeP":3937,"ĠCuRu":3938,"ĠYZn":3939,"ĠTaRh":3940,"SbS":3941,"RhSn":3942,"ZrSi":3943,"502":3944,"ĠTcZn":3945,"ĠOsSi":3946,"713":3947,"ĠNZn":3948,"ĠPZr":3949,"ĠSiSe":3950,"SbTe":3951,"697":3952,"895":3953,"11032":3954,"ĠAsAsRu":3955,"oron":3956,"AlN":3957,"ĠYP":3958,"ĠAsCd":3959,"GeSe":3960,"672":3961,"5710":3962,"131":3963,"ĠHTa":3964,"ĠHSc":3965,"ĠMoRu":3966,"CoAl":3967,"ĠAlSr":3968,"ĠAluminum":3969,"ĠCaTl":3970,"FeCo":3971,"ĠSeCu":3972,"ĠRhY":3973,"ĠTeMn":3974,"ĠTePb":3975,"ĠCrSi":3976,"SbSe":3977,"678":3978,"12067":3979,"ĠPAgP":3980,"ĠSZr":3981,"ĠHigh":3982,"ĠCaAu":3983,"ĠZnCa":3984,"ĠSnAs":3985,"HfPd":3986,"539":3987,"PbSe":3988,"10142":3989,"ĠCaCl":3990,"ĠRuY":3991,"ĠTcCo":3992,"ĠHgSe":3993,"ĠCaSe":3994,"Ġ21":3995,"ĠInAs":3996,"ĠVRu":3997,"ZrGa":3998,"CoTe":3999,"NbP":4000,"559":4001,"576":4002,"11847":4003,"Ġboron":4004,"FeSe":4005,"ĠMoIr":4006,"ĠZnV":4007,"ĠZnPt":4008,"ĠGeMo":4009,"ĠRuFe":4010,"IrV":4011,"ĠTlSc":4012,"1209":4013,"216":4014,"693":4015,"CaPt":4016,"ĠTiSb":4017,"ĠCuSn":4018,"ĠYSb":4019,"ĠRhFe":4020,"ĠCrCr":4021,"TcAl":4022,"198":4023,"11879":4024,"ĠHfZn":4025,"460":4026,"10799":4027,"ĠGeGePt":4028,"288":4029,"Ġ29":4030,"ĠHNa":4031,"ĠPtPd":4032,"ĠSrH":4033,"ZnAl":4034,"ĠAuPd":4035,"TaRu":4036,"BiS":4037,"8627":4038,"SrZn":4039,"456":4040,"173":4041,"978":4042,"ĠCaSn":4043,"203":4044,"ĠVGe":4045,"ĠSeAs":4046,"ĠYIr":4047,"ĠZnSb":4048,"Ġ70":4049,"673":4050,"RuAl":4051,"ĠCMo":4052,"ĠPAl":4053,"ĠAlCo":4054,"ĠMoRh":4055,"12164":4056,"10255":4057,"ĠSCa":4058,"ĠNiV":4059,"ĠCaTe":4060,"PdH":4061,"ĠAsGa":4062,"GeAs":4063,"430":4064,"TaFe":4065,"500":4066,"SrSn":4067,"11023":4068,"ĠYAu":4069,"ScHf":4070,"ĠReS":4071,"12288":4072,"GPa":4073,"VN":4074,"ĠHfCo":4075,"205":4076,"ĠSeZn":4077,"ĠSrSr":4078,"125":4079,"695":4080,"ĠTcS":4081,"ĠHgK":4082,"TlP":4083,"12260":4084,"ĠAsFe":4085,"ĠGeSr":4086,"232":4087,"SrCd":4088,"Er":4089,"cor":4090,"eving":4091,"ror":4092,"tri":4093,"Ġrecor":4094,"Ġretri":4095,"ĠWCl":4096,"ĠFeCl":4097,"CuGa":4098,"219":4099,"Ġoccurred":4100,"Error":4101,"Ġrecord":4102,"Ġretrieving":4103,"247":4104,"ĠNCr":4105,"ĠPdTc":4106,"ĠCaPb":4107,"ĠSeCo":4108,"GaN":4109,"GaAl":4110,"HfPt":4111,"889":4112,"152":4113,"634":4114,"12053":4115,"10954":4116,"tor":4117,"ittor":4118,"ĠHittor":4119,"ĠPdAl":4120,"ĠZrRh":4121,"ĠGaCa":4122,"TiH":4123,"ĠGeMn":4124,"809":4125,"9720":4126,"ĠSFeCu":4127,"ĠHittorf":4128,"ĠTiFe":4129,"804":4130,"ĠSbSb":4131,"ĠSbRu":4132,"MoAs":4133,"12073":4134,"10252":4135,"ĠZrHN":4136,"Ġ23":4137,"ĠNSc":4138,"ĠPtCa":4139,"TiCr":4140,"ĠHgS":4141,"ZnP":4142,"ĠRuSc":4143,"434":4144,"OsP":4145,"700":4146,"498":4147,"175":4148,"522":4149,"iet":4150,"ĠPtBi":4151,"InSe":4152,"ĠSbCo":4153,"ĠSnPt":4154,"ĠAuSr":4155,"CrP":4156,"825":4157,"Ġtwentiet":4158,"12166":4159,"Ġtwentieth":4160,"ĠSP":4161,"ĠSeGe":4162,"ĠSeRu":4163,"ĠSeMn":4164,"PdSn":4165,"ĠCoTc":4166,"1067":4167,"ĠAuCa":4168,"ZrIn":4169,"ĠBiTl":4170,"ĠOsZr":4171,"273":4172,"849":4173,"976":4174,"ĠInNi":4175,"ĠNiFe":4176,"ĠCrRh":4177,"GaAs":4178,"CuSn":4179,"961":4180,"CaHg":4181,"fide":4182,"Ġsul":4183,"ĠGaSb":4184,"ĠCuNi":4185,"ĠScAu":4186,"TiGa":4187,"ĠMnV":4188,"ĠSrBi":4189,"1214":4190,"ĠTcIr":4191,"024":4192,"5686":4193,"Ġindium":4194,"10181":4195,"5677":4196,"Ġsulfide":4197,"TiRh":4198,"ĠSbCl":4199,"ĠMnAl":4200,"MoTe":4201,"505":4202,"938":4203,"SrP":4204,"TcRh":4205,"5683":4206,"12163":4207,"nc":4208,"ĠNiPt":4209,"ĠNbZn":4210,"ĠYPt":4211,"335":4212,"336":4213,"1185":4214,"ĠPbPb":4215,"052":4216,"SiAs":4217,"PdAg":4218,"PtSi":4219,"1070":4220,"GaGe":4221,"GaSb":4222,"1227":4223,"ĠKHg":4224,"SnPt":4225,"IrTe":4226,"MnN":4227,"BiSe":4228,"5706":4229,"282":4230,"WP":4231,"Ġ80":4232,"ĠNNa":4233,"ĠSiTa":4234,"ĠPdP":4235,"ĠCaH":4236,"NiTe":4237,"ĠWRu":4238,"ĠCrSb":4239,"ĠSbRb":4240,"ĠAgPd":4241,"ĠClCs":4242,"857":4243,"ĠOsTc":4244,"CaAu":4245,"289":4246,"YZn":4247,"ĠPtSr":4248,"ĠRuN":4249,"HfSi":4250,"1133":4251,"228":4252,"8650":4253,"191":4254,"151":4255,"10788":4256,"283":4257,"ĠPdNa":4258,"ĠTeTi":4259,"ĠSnSb":4260,"ZrTe":4261,"546":4262,"IrP":4263,"ĠTcRh":4264,"CrAl":4265,"5716":4266,"514":4267,"171":4268,"WSi":4269,"ĠSbBi":4270,"ĠMnTa":4271,"ĠSrSn":4272,"437":4273,"ĠClNa":4274,"853":4275,"214":4276,"939":4277,"199":4278,"11840":4279,"680":4280,"YAu":4281,"ĠPRb":4282,"ĠMoPd":4283,"HfSb":4284,"AuCu":4285,"082":4286,"ĠTcHf":4287,"ĠReOs":4288,"SrAu":4289,"10955":4290,"989":4291,"KHg":4292,"Ġmp":4293,"ĠMnOs":4294,"ĠAgPt":4295,"ĠRuZr":4296,"337":4297,"IrSb":4298,"1147":4299,"SrGe":4300,"9722":4301,"12159":4302,"ĠAlC":4303,"ĠPtSe":4304,"FeV":4305,"FeTe":4306,"RhAs":4307,"ScRh":4308,"852":4309,"628":4310,"11030":4311,"12267":4312,"11836":4313,"242":4314,"616":4315,"Ġ24":4316,"ĠTiCu":4317,"ĠSiPt":4318,"ĠPdNi":4319,"ĠVHf":4320,"ĠSeCd":4321,"TiAs":4322,"GaSi":4323,"HfNi":4324,"558":4325,"ĠReTe":4326,"221":4327,"8656":4328,"SrPt":4329,"487":4330,"328":4331,"11020":4332,"174":4333,"128":4334,"CuSi":4335,"418":4336,"12242":4337,"211":4338,"ĠPIn":4339,"ĠVW":4340,"PtMo":4341,"ĠReP":4342,"856":4343,"8660":4344,"935":4345,"197":4346,"ReN":4347,"137":4348,"12189":4349,"ĠSHf":4350,"ĠGaFe":4351,"ĠZnCu":4352,"InP":4353,"ĠFeGe":4354,"096":4355,"ĠKP":4356,"ZrH":4357,"504":4358,"ScGa":4359,"MnAs":4360,"484":4361,"ĠSeZr":4362,"ĠYBi":4363,"TiSe":4364,"PtGa":4365,"676":4366,"677":4367,"758":4368,"ĠSeKBi":4369,"ĠPdAsPd":4370,"780":4371,"871":4372,"975":4373,"loride":4374,"ĠPNi":4375,"ĠInAg":4376,"ĠPdSr":4377,"ĠHfZr":4378,"FeTi":4379,"FeAs":4380,"ĠTaCl":4381,"ĠScPd":4382,"ĠScPt":4383,"RhSe":4384,"ZrSn":4385,"CaIn":4386,"MnSb":4387,"CdS":4388,"mcc":4389,"998":4390,"ĠInCo":4391,"âĤĤâĤģ":4392,"âĤģâĤī":4393,"PtZn":4394,"674":4395,"699":4396,"ScZn":4397,"Ġlead":4398,"12195":4399,"ss":4400,"ĠCuSb":4401,"ĠCuNb":4402,"ĠMnCa":4403,"ĠRuV":4404,"ĠRuMn":4405,"ĠTlCl":4406,"441":4407,"11872":4408,"10780":4409,"ĠSePt":4410,"ĠRhCr":4411,"ĠSbSbPt":4412,"ĠIrY":4413,"MoP":4414,"ZrCl":4415,"IrSn":4416,"429":4417,"MnSe":4418,"451":4419,"249":4420,"11040":4421,"12216":4422,"5679":4423,"rich":4424,"Ġtrich":4425,"acd":4426,"ĠSeSr":4427,"PdP":4428,"GaSe":4429,"ĠAgIn":4430,"CoGa":4431,"ĠPbCa":4432,"CaCd":4433,"Ġtrichloride":4434,"YIn":4435,"YTe":4436,"ĠVZn":4437,"ĠSeCa":4438,"TiNi":4439,"ĠCoSc":4440,"ĠSbSnPt":4441,"ĠSnSbPt":4442,"GaSn":4443,"HfCo":4444,"IrSi":4445,"421":4446,"MnGa":4447,"11878":4448,"ĠPbcm":4449,"ĠPKP":4450,"142":4451,"985":4452,"ĠCaBi":4453,"SiNi":4454,"AsP":4455,"ĠTeNb":4456,"RhP":4457,"RhTe":4458,"ĠIrSn":4459,"HfZr":4460,"826":4461,"TcIr":4462,"'{":4463,"754":4464,"769":4465,"\\'{":4466,"Ġiri":4467,"arevi":4468,"ĠPtS":4469,"ĠAsRh":4470,"ĠMnGa":4471,"ĠNaN":4472,"MoSi":4473,"1191":4474,"698":4475,"506":4476,"Ġvanadium":4477,"ĠClSr":4478,"230":4479,"776":4480,"11043":4481,"ĠLavarevi":4482,"Ġiridium":4483,"154":4484,"793":4485,"RhZn":4486,"SnTe":4487,"1178":4488,"226":4489,"466":4490,"SrAl":4491,"11845":4492,"140":4493,"443":4494,"ĠPdCa":4495,"ĠTeY":4496,"ĠRuSeS":4497,"542":4498,"RuGa":4499,"5055":4500,"CrN":4501,"CrAs":4502,"9896":4503,"12173":4504,"VSi":4505,"ĠPGa":4506,"ĠPres":4507,"ĠTellur":4508,"tile":4509,"ĠScZn":4510,"PdZn":4511,"ĠAsIn":4512,"ĠRutile":4513,"ĠKTe":4514,"RuSb":4515,"IrGe":4516,"426":4517,"744":4518,"834":4519,"297":4520,"900":4521,"ĠPressure":4522,"ĠTellurium":4523,"278":4524,"Ġsup":4525,"ercond":4526,"ĠPTlP":4527,"uctor":4528,"PdS":4529,"ĠAsCo":4530,"1056":4531,"ZnN":4532,"MoCl":4533,"331":4534,"1179":4535,"ĠCdPd":4536,"ĠCdCl":4537,"42âĤģ":4538,"851":4539,"5702":4540,"Ġdiamond":4541,"12152":4542,"ĠAsSrAs":4543,"Ġsupercond":4544,"Ġsuperconductor":4545,"180":4546,"YNi":4547,"ĠTheoretical":4548,"ĠSPt":4549,"ĠAlCl":4550,"ĠNiZn":4551,"ĠCaCd":4552,"ĠGeCa":4553,"HfAl":4554,"964":4555,"ScNi":4556,"8616":4557,"8623":4558,"OsRu":4559,"777":4560,"177":4561,"Ġ25":4562,"ĠTaSe":4563,"RhS":4564,"CuP":4565,"224":4566,"627":4567,"648":4568,"9773":4569,"12193":4570,"12247":4571,"5673":4572,"153":4573,"183":4574,"VSe":4575,"âĤģâĤĩ":4576,"ĠCaZn":4577,"PdSi":4578,"ĠCoPt":4579,"ĠFeN":4580,"ZnGa":4581,"094":4582,"MoGe":4583,"435":4584,"692":4585,"864":4586,"737":4587,"792":4588,"VGa":4589,"ĠInNb":4590,"âĤĤâĤĦ":4591,"AlP":4592,"PtCd":4593,"10969":4594,"HfN":4595,"HfCu":4596,"5424":4597,"965":4598,"IrAl":4599,"CaCl":4600,"12174":4601,"8678":4602,"170":4603,"YSn":4604,"cm":4605,"first":4606,"Ġpyrite":4607,"ĠHNb":4608,"ĠNiBi":4609,"AlNi":4610,"ĠTeSb":4611,"GaP":4612,"second":4613,"CuTe":4614,"ZrAs":4615,"AuSn":4616,"ĠReIr":4617,"6847":4618,"ĠAlH":4619,"AlCr":4620,"ĠCuCa":4621,"ĠScPb":4622,"TiCl":4623,"ĠGeRh":4624,"ĠWRh":4625,"ĠMnRu":4626,"GaS":4627,"AuTe":4628,"428":4629,"ĠReAs":4630,"158":4631,"8657":4632,"HgTi":4633,"11007":4634,"ĠPTcP":4635,"AlCl":4636,"ĠCaIn":4637,"ĠVFe":4638,"ĠVNi":4639,"TiW":4640,"ĠIrBi":4641,"ZrGe":4642,"CoSb":4643,"438":4644,"ĠBiGa":4645,"ĠPbCl":4646,"TaN":4647,"MnGe":4648,"529":4649,"928":4650,"10179":4651,"276":4652,"olonium":4653,"ĠPolonium":4654,"ĠSeAg":4655,"TiAu":4656,"ĠAsY":4657,"ĠAsSc":4658,"ĠGeAs":4659,"ĠCoAl":4660,"ĠSnN":4661,"IrAs":4662,"231":4663,"SrAs":4664,"665":4665,"11017":4666,"12157":4667,"971":4668,"YPt":4669,"ĠHfIr":4670,"ĠNbCl":4671,"TiN":4672,"ĠAsSe":4673,"ĠFeGa":4674,"ĠSbNb":4675,"5426":4676,"RuAs":4677,"NbTc":4678,"ĠTcSc":4679,"832":4680,"258":4681,"RbSb":4682,"12273":4683,"215":4684,"PSe":4685,"ĠPMo":4686,"ĠPSc":4687,"ĠPtAs":4688,"ĠGeCo":4689,"ĠTeFe":4690,"CuZn":4691,"ĠBiSbPt":4692,"531":4693,"8646":4694,"TcOs":4695,"12183":4696,"ĠCmm":4697,"âĤģâĤĦ":4698,"TiP":4699,"802":4700,"RuTe":4701,"427":4702,"690":4703,"081":4704,"162":4705,"8661":4706,"NaHg":4707,"TlTe":4708,"014":4709,"300":4710,"12290":4711,"10239":4712,"YGa":4713,"ĠSOs":4714,"ĠSilic":4715,"ĠHRb":4716,"ĠVMn":4717,"ĠNbCo":4718,"SiTe":4719,"ĠZnAu":4720,"ĠZnCl":4721,"ZnSe":4722,"ZrAl":4723,"339":4724,"436":4725,"ĠOsS":4726,"NaIn":4727,"517":4728,"494":4729,"12170":4730,"ĠPtSnSb":4731,"ĠSbBiPt":4732,"ĠSilicon":4733,"VOs":4734,"ĠPdH":4735,"1245":4736,"HfP":4737,"545":4738,"077":4739,"731":4740,"12070":4741,"11031":4742,"11834":4743,"11907":4744,"VNi":4745,"YAl":4746,"ĠNp":4747,"ĠGaMn":4748,"ĠNbTc":4749,"ĠAsSb":4750,"ĠTeSc":4751,"ĠSbAs":4752,"ĠSrCd":4753,"ZrP":4754,"ScSn":4755,"CdTe":4756,"718":4757,"406":4758,"837":4759,"327":4760,"11871":4761,"VW":4762,"VGe":4763,"bra":4764,"nt":4765,"ĠPare":4766,"ĠAsS":4767,"1057":4768,"ĠNaHg":4769,"1259":4770,"MoAl":4771,"HfCr":4772,"6723":4773,"074":4774,"538":4775,"CrSe":4776,"473":4777,"525":4778,"756":4779,"739":4780,"835":4781,"12244":4782,"Ġsuperconductors":4783,"brass":4784,"ĠParent":4785,"ĠSeFe":4786,"ĠMnPt":4787,"MoRh":4788,"HfRh":4789,"IrTi":4790,"NbW":4791,"ScRu":4792,"8659":4793,"8651":4794,"8658":4795,"899":4796,"10796":4797,"ĠSAgBi":4798,"149":4799,"706":4800,"ĠCcce":4801,"ĠHPd":4802,"ĠGaCl":4803,"12206":4804,"ĠAuCl":4805,"ĠIrZr":4806,"HfSn":4807,"AgAl":4808,"1190":4809,"MnTe":4810,"444":4811,"413":4812,"TlPb":4813,"11874":4814,"11877":4815,"178":4816,"134":4817,"ĠSHg":4818,"ĠHCo":4819,"ĠTiW":4820,"201":4821,"FeN":4822,"ĠZnCs":4823,"PtS":4824,"1095":4825,"ĠSrAl":4826,"ZnIn":4827,"AgHf":4828,"CoSn":4829,"NbAl":4830,"218":4831,"PbTe":4832,"023":4833,"SrPd":4834,"1867":4835,"193":4836,"309":4837,"YCd":4838,"AlCu":4839,"ZrNi":4840,"083":4841,"CaH":4842,"526":4843,"5712":4844,"291":4845,"1106":4846,"10779":4847,"10800":4848,"669":4849,"hide":4850,"ĠSCs":4851,"ĠPdSb":4852,"ĠGaCr":4853,"Ġ61":4854,"CuSe":4855,"MoW":4856,"HfTc":4857,"540":4858,"TaTe":4859,"MnRh":4860,"8626":4861,"829":4862,"818":4863,"NaP":4864,"6846":4865,"10797":4866,"10032":4867,"VMn":4868,"2030":4869,"ĠTaSb":4870,"ĠScRh":4871,"ĠAsRu":4872,"ĠAsNb":4873,"ĠAsOs":4874,"1019":4875,"1013":4876,"ĠAuHf":4877,"ĠAuTa":4878,"AgCd":4879,"IrSe":4880,"AuTa":4881,"ScPd":4882,"CrTe":4883,"635":4884,"9723":4885,"11867":4886,"ĠSeSbRu":4887,"ĠSTa":4888,"ĠPRh":4889,"ĠPIr":4890,"AlFe":4891,"ĠPdTe":4892,"NiY":4893,"MoPd":4894,"ZrSe":4895,"TaZn":4896,"5552":4897,"CrGa":4898,"CdAs":4899,"8647":4900,"474":4901,"893":4902,"130":4903,"1364":4904,"926":4905,"1205":4906,"11789":4907,"lenium":4908,"thir":4909,"ĠPNb":4910,"ĠSeHf":4911,"PdAl":4912,"PdCu":4913,"1017":4914,"ĠRuHf":4915,"ZrHg":4916,"423":4917,"PbCl":4918,"ĠCsCs":4919,"NaAu":4920,"292":4921,"fourth":4922,"10956":4923,"2339":4924,"12249":4925,"third":4926,"313":4927,"tan":4928,"itride":4929,"ĠStan":4930,"Ġcarbonitride":4931,"ĠNiCu":4932,"ĠSiMo":4933,"ĠPdCd":4934,"ĠCaPt":4935,"FeGa":4936,"PtCl":4937,"ĠSbIr":4938,"ĠSbSr":4939,"ĠSrPd":4940,"960":4941,"1157":4942,"NbPd":4943,"NbAs":4944,"ScGe":4945,"160":4946,"ĠReRu":4947,"463":4948,"932":4949,"ReIr":4950,"259":4951,"12082":4952,"12066":4953,"ĠTeTeIr":4954,"ĠStannite":4955,"lut":4956,"ĠPlut":4957,"AlPt":4958,"FeNi":4959,"ĠFeMn":4960,"RhIn":4961,"MoRu":4962,"ZrS":4963,"338":4964,"1196":4965,"TaSi":4966,"157":4967,"MnOs":4968,"ĠTlTe":4969,"BiAs":4970,"ĠPlutonium":4971,"240":4972,"md":4973,"ĠPOs":4974,"ĠYRh":4975,"ĠSbIn":4976,"1087":4977,"ĠBiSr":4978,"ĠCdGe":4979,"079":4980,"ĠReCo":4981,"860":4982,"475":4983,"5704":4984,"824":4985,"704":4986,"448":4987,"636":4988,"9785":4989,"12215":4990,"ĠPPRu":4991,"10793":4992,"10773":4993,"5698":4994,"12199":4995,"ĠPCaSi":4996,"9813":4997,"ĠTiTc":4998,"ĠZrAu":4999,"TiTe":5000,"ĠAgCl":5001,"1222":5002,"CuSb":5003,"HfS":5004,"NbSe":5005,"898":5006,"656":5007,"659":5008,"831":5009,"12063":5010,"ĠAsCaAs":5011,"10727":5012,"ĠPRbP":5013,"554":5014,"723":5015,"ĠPCd":5016,"ĠCaNi":5017,"ĠAsPt":5018,"ZnAs":5019,"HfZn":5020,"HfMo":5021,"431":5022,"ĠBiCa":5023,"RuGe":5024,"424":5025,"5707":5026,"666":5027,"195":5028,"9775":5029,"12071":5030,"11028":5031,"12167":5032,"12248":5033,"645":5034,"NCl":5035,"ĠNiPd":5036,"ĠSeNb":5037,"ĠScIr":5038,"TiFe":5039,"ĠCrC":5040,"1028":5041,"GaTe":5042,"HfAu":5043,"NbTe":5044,"TaOs":5045,"PbBi":5046,"236":5047,"745":5048,"813":5049,"11026":5050,"146":5051,"342":5052,"760":5053,"869":5054,"949":5055,"SS":5056,"ĠNiRe":5057,"ĠSiRh":5058,"ĠSiIr":5059,"ĠPdGa":5060,"ĠPtP":5061,"ĠGaGe":5062,"ĠTeZr":5063,"PtAl":5064,"PtAg":5065,"PtAu":5066,"ĠSbCa":5067,"1002":5068,"ĠSrCl":5069,"ZnZr":5070,"ĠAuNa":5071,"090":5072,"1156":5073,"NbN":5074,"NbRu":5075,"ĠTcRe":5076,"ScS":5077,"8637":5078,"SrS":5079,"OsGe":5080,"790":5081,"ReSi":5082,"12077":5083,"10794":5084,"785":5085,"AlSc":5086,"ĠCuGe":5087,"TiMn":5088,"ĠZnNi":5089,"ĠTeCr":5090,"ĠSbY":5091,"ĠSnCl":5092,"HfAs":5093,"AuCl":5094,"073":5095,"CaP":5096,"934":5097,"5687":5098,"326":5099,"9991":5100,"11842":5101,"12263":5102,"442":5103,"ob":5104,"Ġtetrafluoride":5105,"AlAs":5106,"ĠNbRe":5107,"ĠSeS":5108,"PdNi":5109,"ĠGeY":5110,"ĠFePt":5111,"ĠAgK":5112,"5429":5113,"NbGe":5114,"ĠPbRh":5115,"AuCd":5116,"086":5117,"168":5118,"537":5119,"MnZn":5120,"663":5121,"701":5122,"799":5123,"ReTc":5124,"561":5125,"NaPd":5126,"631":5127,"12257":5128,"301":5129,"782":5130,"988":5131,"WPd":5132,"TiSb":5133,"ĠFeRh":5134,"ĠNaPb":5135,"SbCl":5136,"CoTi":5137,"IrNb":5138,"NbSi":5139,"6971":5140,"ScIn":5141,"CaPd":5142,"CdGa":5143,"401":5144,"6322":5145,"10952":5146,"510":5147,"WIr":5148,"tw":5149,"ĠIma":5150,"ĠInCa":5151,"ĠCaCu":5152,"FeCl":5153,"ĠNbMo":5154,"TiZn":5155,"ĠIrAl":5156,"1118":5157,"NbH":5158,"ĠRbSe":5159,"CaSn":5160,"CdPb":5161,"8622":5162,"SrCl":5163,"TcPd":5164,"735":5165,"814":5166,"348":5167,"12033":5168,"ĠPCaP":5169,"two":5170,"786":5171,"ĠSCl":5172,"ĠSeNi":5173,"AsPt":5174,"1068":5175,"ĠNaCd":5176,"GeN":5177,"SbAs":5178,"RhV":5179,"5425":5180,"RuS":5181,"ScSi":5182,"225":5183,"649":5184,"290":5185,"189":5186,"181":5187,"9717":5188,"VTc":5189,"ĠAem":5190,"ĠTiMn":5191,"ĠNiCo":5192,"ĠGaPd":5193,"ĠGaCo":5194,"ĠTaAu":5195,"ĠCoRe":5196,"805":5197,"ĠSbAl":5198,"ĠSnSn":5199,"SnRh":5200,"ScAg":5201,"058":5202,"863":5203,"TcP":5204,"TcGa":5205,"791":5206,"5680":5207,"NaCl":5208,"728":5209,"10913":5210,"ĠSTlIn":5211,"182":5212,"876":5213,"fif":5214,"Ġ28":5215,"AlH":5216,"ĠZrBi":5217,"TiOs":5218,"ĠMnAu":5219,"ĠNaH":5220,"CuGe":5221,"099":5222,"5418":5223,"694":5224,"CrMn":5225,"476":5226,"524":5227,"11038":5228,"10789":5229,"11831":5230,"11902":5231,"10806":5232,"10874":5233,"ncc":5234,"fifth":5235,"145":5236,"ĠSGe":5237,"ĠPtCr":5238,"ĠAsAl":5239,"ĠCrCl":5240,"ZnIr":5241,"MoV":5242,"679":5243,"CoPt":5244,"NbMo":5245,"CrRu":5246,"CdIn":5247,"478":5248,"5703":5249,"7291":5250,"491":5251,"637":5252,"11029":5253,"864984":5254,"canite":5255,"na":5256,"ĠNNi":5257,"ĠVul":5258,"ĠNbH":5259,"PtY":5260,"PtNi":5261,"GeSi":5262,"CuIn":5263,"AgP":5264,"334":5265,"ĠBiSc":5266,"RuSe":5267,"968":5268,"ScTc":5269,"MnFe":5270,"8619":5271,"661":5272,"9762":5273,"ĠPSrP":5274,"ĠVulcanite":5275,"662":5276,"KSb":5277,"VTe":5278,"WCl":5279,"hos":5280,"phide":5281,"Ġphos":5282,"Ġ27":5283,"ĠAma":5284,"ĠInCl":5285,"ĠNiob":5286,"ĠYAs":5287,"ĠZnIr":5288,"1084":5289,"330":5290,"ĠTcPt":5291,"ScIr":5292,"161":5293,"222âĤģ":5294,"886":5295,"2147":5296,"029":5297,"235":5298,"891":5299,"897":5300,"1953":5301,"5696":5302,"11036":5303,"12188":5304,"11849":5305,"ĠSZnIn":5306,"ĠSSbIr":5307,"11796":5308,"Ġphosphide":5309,"ĠNiobium":5310,"293":5311,"PIr":5312,"ale":5313,"dale":5314,"ĠTiCr":5315,"ĠMillerite":5316,"TiGe":5317,"AsTe":5318,"ĠGeP":5319,"ĠCoGa":5320,"1066":5321,"GaY":5322,"ĠNaPd":5323,"RuTa":5324,"ĠPbNa":5325,"5050":5326,"5048":5327,"089":5328,"553":5329,"CrRh":5330,"884":5331,"060":5332,"ĠCsS":5333,"465":5334,"OsAl":5335,"OsGa":5336,"560":5337,"449":5338,"729":5339,"ĠLons":5340,"1823":5341,"632":5342,"6363":5343,"12062":5344,"11057":5345,"10774":5346,"11830":5347,"ĠAsAsOs":5348,"ĠSSbRu":5349,"ĠSFeCo":5350,"9749":5351,"12388":5352,"daleite":5353,"ĠLonsdaleite":5354,"329":5355,"643":5356,"685":5357,"ĠHHf":5358,"ĠNiIn":5359,"ĠPdFe":5360,"ĠHfSn":5361,"ĠPtY":5362,"2006":5363,"ĠSelenium":5364,"TiCo":5365,"807":5366,"ĠFePd":5367,"ĠFeIr":5368,"1027":5369,"ĠSrTl":5370,"CuZr":5371,"CuCl":5372,"ĠIrFe":5373,"SnCl":5374,"ĠPbN":5375,"ScCd":5376,"827":5377,"751":5378,"241":5379,"2583":5380,"495":5381,"12069":5382,"12169":5383,"11896":5384,"11875":5385,"10804":5386,"YH":5387,"odi":5388,"Ġtriodi":5389,"ĠBis":5390,"PdTe":5391,"ZnGe":5392,"AgS":5393,"5416":5394,"TaMn":5395,"ĠClPb":5396,"CdSb":5397,"8696":5398,"ĠHgHg":5399,"ĠCsSe":5400,"5705":5401,"10951":5402,"1058696":5403,"Ġtriodide":5404,"ĠBismuth":5405,"774":5406,"ĠAlGa":5407,"ĠSiOs":5408,"207":5409,"ĠAsTa":5410,"ĠTeZn":5411,"1062":5412,"ĠSrPt":5413,"GaCl":5414,"ĠNaPt":5415,"AgSe":5416,"ĠBiIr":5417,"IrIn":5418,"1198":5419,"425":5420,"ĠOsSc":5421,"CaAg":5422,"ĠTlTi":5423,"8652":5424,"470":5425,"400":5426,"TcPt":5427,"651":5428,"798":5429,"5689":5430,"TlCl":5431,"9993":5432,"12262":5433,"10257":5434,"5690":5435,"21359":5436,"ĠPYP":5437,"267":5438,"284":5439,"612":5440,"FeRh":5441,"TiTc":5442,"PdSe":5443,"ĠTeHg":5444,"ĠSbK":5445,"1006":5446,"10227":5447,"ĠSrCa":5448,"ĠKIn":5449,"ZrRu":5450,"RuIn":5451,"1194":5452,"6907":5453,"TaAs":5454,"ScPt":5455,"CaRh":5456,"719":5457,"626":5458,"759":5459,"601":5460,"11063":5461,"867351":5462,"314":5463,"hr":5464,"ĠClat":5465,"ĠCCr":5466,"ĠCMn":5467,"ĠPCu":5468,"SiN":5469,"TiIn":5470,"PdCl":5471,"ĠFeV":5472,"ĠAuV":5473,"ĠAuSi":5474,"SnN":5475,"AgCu":5476,"548":5477,"AuPb":5478,"5302":5479,"ĠOsTe":5480,"479":5481,"7565":5482,"OsRh":5483,"TcNi":5484,"ReOs":5485,"HgS":5486,"295":5487,"13164":5488,"ĠSPOs":5489,"hrate":5490,"ĠClathrate":5491,"185":5492,"393":5493,"VPd":5494,"WAl":5495,"ĠVGa":5496,"TiRu":5497,"ĠAsPd":5498,"ĠTeSe":5499,"806":5500,"PtV":5501,"ĠSrSe":5502,"ĠNaAu":5503,"1232":5504,"RuV":5505,"IrRu":5506,"1192":5507,"NbPt":5508,"078":5509,"530":5510,"838":5511,"187":5512,"TlS":5513,"1483":5514,"12057":5515,"12090":5516,"11021":5517,"867780":5518,"1187474":5519,"1188061":5520,"12463":5521,"17190":5522,"1017983":5523,"1487":5524,"312":5525,"9939":5526,"KAg":5527,"VCo":5528,"VRu":5529,"Ġ26":5530,"ĠAlFe":5531,"AlSb":5532,"2070":5533,"ĠGaCu":5534,"ĠVAl":5535,"SiH":5536,"ĠTaMo":5537,"ĠTaCo":5538,"ĠSbOs":5539,"1061":5540,"1235":5541,"HfRu":5542,"NbCl":5543,"AuZn":5544,"ĠNHS":5545,"534":5546,"535":5547,"CaAs":5548,"CaCo":5549,"CaTl":5550,"15965":5551,"2354":5552,"5688":5553,"NaAg":5554,"1786":5555,"9854":5556,"12074":5557,"12250":5558,"11454":5559,"ĠAsAsPd":5560,"1187541":5561,"12190":5562,"ĠHCaNi":5563,"ĠSSbRh":5564,"ĠSSbOs":5565,"ĠCccm":5566,"ĠSBiIr":5567,"1217255":5568,"672232":5569,"1078867":5570,"11787":5571,"1217407":5572,"684602":5573,"316":5574,"5105":5575,"YSe":5576,"ĠNCo":5577,"ĠSiCr":5578,"ĠZrSn":5579,"20418":5580,"ĠVMo":5581,"ĠCuAs":5582,"InN":5583,"NiBi":5584,"PtP":5585,"1042":5586,"1014":5587,"TeS":5588,"MoN":5589,"SnAs":5590,"5407":5591,"IrZn":5592,"6985":5593,"MnIr":5594,"7192":5595,"2302":5596,"795":5597,"6849":5598,"184":5599,"9953":5600,"RbAu":5601,"12009":5602,"12274":5603,"12261":5604,"12160":5605,"11946":5606,"1187665":5607,"1061133":5608,"1189573":5609,"9744":5610,"1077503":5611,"8462":5612,"SV":5613,"prite":5614,"ĠPdCr":5615,"ĠPtH":5616,"ĠVCl":5617,"ĠCuprite":5618,"ĠAsP":5619,"InPt":5620,"ĠTeCl":5621,"PtRh":5622,"ĠMnNi":5623,"ĠSnTa":5624,"ĠAgSr":5625,"ZrCu":5626,"AgZr":5627,"CoIn":5628,"NbRe":5629,"8886":5630,"2319":5631,"736":5632,"ReRh":5633,"6043":5634,"9789":5635,"917":5636,"003":5637,"1101":5638,"11019":5639,"10798":5640,"1186427":5641,"30871":5642,"30876":5643,"10642":5644,"568792":5645,"9799":5646,"1208852":5647,"708":5648,"KPb":5649,"SZr":5650,"WOs":5651,"YFe":5652,"ĠHNi":5653,"ĠRhN":5654,"TiCd":5655,"ĠAsRe":5656,"ĠTePIr":5657,"ĠCrSn":5658,"PtH":5659,"ĠAgGe":5660,"RhSb":5661,"1180":5662,"536":5663,"ĠOsN":5664,"ĠOsV":5665,"1563":5666,"CdZn":5667,"8939":5668,"930":5669,"2510":5670,"NaPt":5671,"9716":5672,"30500":5673,"000":5674,"11041":5675,"11049":5676,"12286":5677,"11420":5678,"ĠCoPS":5679,"10250":5680,"569249":5681,"8679":5682,"1217422":5683,"MoSSe":5684,"570691":5685,"1007786":5686,"30366":5687,"1207024":5688,"1079796":5689,"1072724":5690,"WRu":5691,"nmc":5692,"ĠHK":5693,"ĠNbAu":5694,"ĠMoV":5695,"ĠMoW":5696,"SiPt":5697,"ĠYPb":5698,"PdHg":5699,"ĠCoCr":5700,"10015":5701,"ĠNaK":5702,"12110":5703,"12137":5704,"ZrW":5705,"CoN":5706,"NbGa":5707,"TaRh":5708,"ĠTcCl":5709,"ScTe":5710,"1620":5711,"CaFe":5712,"MnS":5713,"578":5714,"SrRu":5715,"5685":5716,"5681":5717,"7846":5718,"592":5719,"TlSe":5720,"630":5721,"1186437":5722,"1018124":5723,"15681":5724,"16521":5725,"974376":5726,"2732":5727,"1216323":5728,"616559":5729,"1187816":5730,"1095669":5731,"11563":5732,"176":5733,"766":5734,"846":5735,"875":5736,"991":5737,"YRu":5738,"ĠAlCr":5739,"ĠAlOs":5740,"AlMo":5741,"ĠPdCl":5742,"20928":5743,"ĠGaMo":5744,"FeAl":5745,"ĠMoTa":5746,"ĠSeAl":5747,"ĠCrGa":5748,"PtRu":5749,"1239":5750,"MoTa":5751,"HfGa":5752,"671":5753,"332":5754,"072":5755,"1642":5756,"22337":5757,"881":5758,"ĠTlPb":5759,"8624":5760,"8638":5761,"068":5762,"624":5763,"748":5764,"892":5765,"SrCu":5766,"NaPb":5767,"2733":5768,"9833":5769,"11052":5770,"CsHg":5771,"11411":5772,"1216530":5773,"12204":5774,"10293":5775,"569785":5776,"10155":5777,"1217895":5778,"570428":5779,"1184650":5780,"1120769":5781,"1094255":5782,"1103211":5783,"1229012":5784,"1080001":5785,"542915":5786,"172":5787,"2560":5788,"562":5789,"773":5790,"nb":5791,"ĠTiRe":5792,"ĠPdRe":5793,"2034":5794,"ĠVCr":5795,"PdTl":5796,"ĠCrPd":5797,"ĠSbV":5798,"ĠSbSc":5799,"10559":5800,"ĠSnCr":5801,"GeSb":5802,"MoIr":5803,"6755":5804,"966":5805,"IrRh":5806,"ScOs":5807,"858":5808,"ĠHgP":5809,"600":5810,"NaCd":5811,"1359":5812,"2705":5813,"11010":5814,"10910":5815,"10941":5816,"12272":5817,"1963":5818,"1220023":5819,"5693":5820,"10698":5821,"ĠPcc":5822,"16526":5823,"11930":5824,"1014231":5825,"ĠAsFeNi":5826,"972071":5827,"976128":5828,"1224298":5829,"978531":5830,"1184265":5831,"6âĤģ":5832,"733":5833,"SCs":5834,"VPt":5835,"mnc":5836,"ĠSPd":5837,"ĠHV":5838,"2059":5839,"ĠSePd":5840,"ĠSeHg":5841,"ĠZnIn":5842,"ĠFeCu":5843,"ĠSbMn":5844,"1071":5845,"1030":5846,"10025":5847,"12108":5848,"ZrCr":5849,"HfFe":5850,"HfSe":5851,"11192":5852,"NbCo":5853,"AuTl":5854,"ĠCdN":5855,"ScN":5856,"059":5857,"2271":5858,"15649":5859,"CdSn":5860,"CdCl":5861,"402":5862,"062":5863,"579":5864,"SrHg":5865,"NaAs":5866,"6372":5867,"10782":5868,"30811":5869,"1018113":5870,"12238":5871,"974335":5872,"1337":5873,"979115":5874,"1072645":5875,"12614":5876,"1104047":5877,"17706":5878,"1064227":5879,"141":5880,"287":5881,"2108":5882,"2670":5883,"KNa":5884,"SCl":5885,"VRe":5886,"xSn":5887,"ĠHfTe":5888,"ĠPtCl":5889,"ĠMoGe":5890,"SiSe":5891,"ĠCuFe":5892,"ĠYCo":5893,"ĠRhCo":5894,"PdTa":5895,"ĠAsRb":5896,"ĠGeFe":5897,"ĠGeHf":5898,"ĠTeCa":5899,"ĠWW":5900,"ĠCrGe":5901,"PtSe":5902,"ĠSbHf":5903,"ĠNaAg":5904,"097":5905,"ĠKPb":5906,"MoTeSe":5907,"CoRu":5908,"ĠBiK":5909,"11809":5910,"TaNi":5911,"TaGe":5912,"ĠTcY":5913,"552":5914,"ĠOsY":5915,"1515":5916,"2187":5917,"574":5918,"8937":5919,"937":5920,"SrCa":5921,"OsAs":5922,"1922":5923,"248":5924,"2455":5925,"727":5926,"513":5927,"499":5928,"ĠPnna":5929,"13156":5930,"2767":5931,"12078":5932,"1216195":5933,"569776":5934,"10692":5935,"1184633":5936,"ĠSSnPt":5937,"16529":5938,"974358":5939,"15953":5940,"1094267":5941,"ĠSAsOs":5942,"ĠSeAsRu":5943,"11334":5944,"19724":5945,"864647":5946,"ĠAsSbIr":5947,"ĠSbAsIr":5948,"12595":5949,"976273":5950,"1014111":5951,"979911":5952,"246":5953,"265":5954,"2105":5955,"586":5956,"7092":5957,"9938":5958,"lw":5959,"ĠAlRu":5960,"ĠTiRu":5961,"zelw":5962,"20576":5963,"ĠSeCl":5964,"ĠYCl":5965,"ĠTeCu":5966,"ĠCrCo":5967,"10000":5968,"ĠAuZr":5969,"ZrAu":5970,"SnSi":5971,"CoIr":5972,"432":5973,"RuTi":5974,"11506":5975,"076":5976,"ĠRbH":5977,"22568":5978,"532":5979,"ĠOsSb":5980,"ĠTlP":5981,"5711":5982,"7598":5983,"SrH":5984,"734":5985,"6049":5986,"6398":5987,"oodite":5988,"17123":5989,"RbGa":5990,"11011":5991,"ĠHazelw":5992,"8677":5993,"mbc":5994,"1221420":5995,"1188800":5996,"12467":5997,"1339":5998,"865527":5999,"20847":6000,"1025397":6001,"ĠSMnCd":6002,"17974":6003,"1025513":6004,"972069":6005,"1216621":6006,"2824":6007,"680576":6008,"866186":6009,"1207013":6010,"542569":6011,"1193055":6012,"ĠHazelwoodite":6013,"381":6014,"7790":6015,"925":6016,"PCl":6017,"VAl":6018,"ĠSC":6019,"20695":6020,"ĠVOs":6021,"ĠAsNa":6022,"NiPd":6023,"ĠCoN":6024,"1096":6025,"ĠSrTe":6026,"GeC":6027,"1260":6028,"095":6029,"3342":6030,"5412":6031,"IrMo":6032,"11573":6033,"11328":6034,"TaV":6035,"556":6036,"16074":6037,"883":6038,"1523":6039,"MnPd":6040,"238":6041,"2377":6042,"575":6043,"571247":6044,"571199":6045,"7045":6046,"836":6047,"ReRu":6048,"687":6049,"639":6050,"298":6051,"1357":6052,"13155":6053,"12068":6054,"11042":6055,"12181":6056,"11481":6057,"1216825":6058,"1216231":6059,"ĠMoTeSe":6060,"30836":6061,"1078697":6062,"12778":6063,"22033":6064,"30483":6065,"999502":6066,"1199529":6067,"1887":6068,"1216655":6069,"ĠCrSbAs":6070,"567929":6071,"29767":6072,"ZrPP":6073,"1206659":6074,"450":6075,"51069":6076,"9969":6077,"KBi":6078,"WMo":6079,"alla":6080,"Ġpalla":6081,"ĠNGa":6082,"ĠPSe":6083,"Ġaluminum":6084,"ĠCaAl":6085,"20800":6086,"FeIr":6087,"ĠCoNi":6088,"ĠTeV":6089,"808":6090,"PtTe":6091,"10052":6092,"10201":6093,"ĠNaTl":6094,"SbRu":6095,"1278":6096,"12107":6097,"RhPb":6098,"ZnCl":6099,"CuIr":6100,"ĠIrCl":6101,"MoCo":6102,"RuN":6103,"11549":6104,"11456":6105,"11690":6106,"NbZn":6107,"AuSb":6108,"0580":6109,"2180":6110,"21328":6111,"8640":6112,"239":6113,"1989":6114,"1900":6115,"NaBi":6116,"30673":6117,"30674":6118,"11033":6119,"11035":6120,"1070580":6121,"1079127":6122,"1079438":6123,"1217092":6124,"1217804":6125,"30852":6126,"1188926":6127,"1186916":6128,"11322":6129,"10847":6130,"10388":6131,"1018056":6132,"974421":6133,"1077723":6134,"10695":6135,"1220323":6136,"1215518":6137,"ĠPmna":6138,"27413":6139,"20263":6140,"20033":6141,"607111":6142,"9835":6143,"1882":6144,"1103212":6145,"1214889":6146,"972228":6147,"1103038":6148,"1219509":6149,"542640":6150,"977585":6151,"30180":6152,"978974":6153,"639874":6154,"510691":6155,"Ġpalladium":6156,"363":6157,"486":6158,"5803":6159,"622":6160,"819":6161,"PN":6162,"VP":6163,"YSb":6164,"five":6165,"ithium":6166,"stibit":6167,"ĠPTe":6168,"ĠPMn":6169,"ĠPAsPt":6170,"ĠHRh":6171,"ĠTiOs":6172,"Ġlithium":6173,"ĠGPa":6174,"2086":6175,"20672":6176,"ĠSeGa":6177,"ĠSeSiPt":6178,"ĠTaNbW":6179,"ĠScSe":6180,"PdPt":6181,"InSn":6182,"ĠTeK":6183,"ĠCrPt":6184,"1024":6185,"10744":6186,"1212":6187,"12524":6188,"RhRu":6189,"ZnTe":6190,"ĠIrHf":6191,"AgTe":6192,"AgCl":6193,"6726":6194,"547":6195,"RuNi":6196,"IrPd":6197,"11191":6198,"ĠPbK":6199,"6938":6200,"ĠTcZr":6201,"1638":6202,"ĠClCa":6203,"ĠClCd":6204,"2243":6205,"BiP":6206,"2322":6207,"890":6208,"8282":6209,"TcS":6210,"24082":6211,"590":6212,"138":6213,"1412":6214,"9481":6215,"30675":6216,"30501":6217,"12015":6218,"1105302":6219,"11870":6220,"10285":6221,"1183222":6222,"1219503":6223,"1217081":6224,"30846":6225,"1018121":6226,"1018105":6227,"ĠNZrZn":6228,"1186901":6229,"ĠChalcostibit":6230,"11329":6231,"1184558":6232,"ĠSBiPb":6233,"12772":6234,"22040":6235,"16609":6236,"1077116":6237,"13688":6238,"1009834":6239,"20405":6240,"ĠSeRbSb":6241,"570895":6242,"15954":6243,"867347":6244,"998981":6245,"1739":6246,"1216480":6247,"972088":6248,"1207380":6249,"568607":6250,"1018153":6251,"ĠNNaTa":6252,"11477":6253,"1102018":6254,"542634":6255,"669917":6256,"1178983":6257,"568789":6258,"1084800":6259,"504812":6260,"32994":6261,"1205786":6262,"974455":6263,"ĠAsPPt":6264,"580357":6265,"ĠPTeIr":6266,"ĠPMnNbP":6267,"ĠChalcostibite":6268,"2677":6269,"605":6270,"915":6271,"WC":6272,"ĠPRu":6273,"ĠPHg":6274,"20191":6275,"FeRu":6276,"ĠTaRe":6277,"PdY":6278,"ĠFeAl":6279,"1094":6280,"10229":6281,"10125":6282,"ĠMnCl":6283,"ĠNaGe":6284,"1251":6285,"12802":6286,"543":6287,"5409":6288,"RuPt":6289,"ĠReTa":6290,"ĠRbP":6291,"ĠOsSe":6292,"ĠOsCl":6293,"MnNi":6294,"MnCo":6295,"CdN":6296,"21104":6297,"23279":6298,"OsSe":6299,"2480":6300,"ReTa":6301,"5682":6302,"787":6303,"597":6304,"TlIn":6305,"1326":6306,"2614":6307,"2783":6308,"30337":6309,"30338":6310,"11056":6311,"11061":6312,"11471":6313,"1220003":6314,"569426":6315,"11910":6316,"ĠFeSbTe":6317,"1217894":6318,"1221484":6319,"1018103":6320,"11290":6321,"11227":6322,"12239":6323,"ĠSnTePd":6324,"1186967":6325,"ĠSCoCu":6326,"22050":6327,"1018055":6328,"1335":6329,"1072429":6330,"1072744":6331,"18622":6332,"30744":6333,"16528":6334,"7558":6335,"31172":6336,"1699":6337,"ĠSAsRu":6338,"571030":6339,"ĠSeAsOs":6340,"ĠSPRu":6341,"866046":6342,"1217048":6343,"1190774":6344,"32654":6345,"1103842":6346,"1066136":6347,"1080493":6348,"1459":6349,"1476":6350,"2540":6351,"351":6352,"550":6353,"952":6354,"ĠSGa":6355,"AlSe":6356,"ĠCaTi":6357,"ĠVTc":6358,"ĠRhHf":6359,"ĠZnGa":6360,"ĠTeSr":6361,"ĠWV":6362,"ĠSbGa":6363,"1089":6364,"10136":6365,"1213":6366,"AgHg":6367,"9616":6368,"11803":6369,"NbNi":6370,"NbSb":6371,"5046":6372,"ScFe":6373,"1601":6374,"1627":6375,"ĠReAl":6376,"056":6377,"22192":6378,"CrCl":6379,"1582":6380,"MnRu":6381,"404":6382,"2395":6383,"6254":6384,"1941":6385,"2420":6386,"ReAl":6387,"ReSe":6388,"251":6389,"414":6390,"294":6391,"299":6392,"1345":6393,"27166":6394,"1725":6395,"11453":6396,"1077045":6397,"10260":6398,"1183214":6399,"10795":6400,"8672":6401,"12194":6402,"1018156":6403,"ĠSiNCl":6404,"11229":6405,"1078123":6406,"1223977":6407,"1066254":6408,"11550":6409,"1018029":6410,"16719":6411,"568718":6412,"30594":6413,"1184632":6414,"ĠPca":6415,"16523":6416,"865342":6417,"865357":6418,"865362":6419,"983459":6420,"978498":6421,"1228815":6422,"1018148":6423,"1070103":6424,"1183647":6425,"985825":6426,"1836":6427,"1096994":6428,"1217409":6429,"27606":6430,"1187196":6431,"1220645":6432,"1187702":6433,"1017545":6434,"554462":6435,"690760":6436,"1180309":6437,"504659":6438,"1826":6439,"510032":6440,"644":6441,"987":6442,"990":6443,"9895":6444,"âĤĥâĤĤ":6445,"AlY":6446,"ĠSiRu":6447,"ĠCaFe":6448,"FeCu":6449,"ĠVSb":6450,"ĠRhMn":6451,"PdSb":6452,"NiSn":6453,"ĠGeZr":6454,"ĠWHf":6455,"PtSb":6456,"1052":6457,"12102":6458,"CuHf":6459,"HfGe":6460,"AgIn":6461,"AgCa":6462,"5461":6463,"439":6464,"11441":6465,"1578":6466,"8639":6467,"2361":6468,"23206":6469,"936":6470,"SrN":6471,"SrPb":6472,"732":6473,"655461":6474,"1973":6475,"794":6476,"797":6477,"2582":6478,"587":6479,"13503":6480,"9765":6481,"973342":6482,"9970":6483,"30671":6484,"1109":6485,"11025":6486,"12178":6487,"10901":6488,"12280":6489,"1216851":6490,"10254":6491,"10792":6492,"1079296":6493,"1079460":6494,"1079182":6495,"1186024":6496,"11909":6497,"867281":6498,"1187241":6499,"ĠSeNaV":6500,"1080448":6501,"1188336":6502,"11230":6503,"11397":6504,"22095":6505,"1007692":6506,"16723":6507,"30685":6508,"30581":6509,"1077466":6510,"1224383":6511,"5713":6512,"571557":6513,"1186055":6514,"1207100":6515,"13364":6516,"13683":6517,"9792":6518,"866121":6519,"1184658":6520,"27410":6521,"20849":6522,"1008634":6523,"570870":6524,"31144":6525,"16488":6526,"1187913":6527,"1095495":6528,"2731":6529,"989782":6530,"17413":6531,"1104341":6532,"1217363":6533,"1100773":6534,"1103177":6535,"706531":6536,"569833":6537,"863750":6538,"999133":6539,"632286":6540,"510209":6541,"1184905":6542,"1179605":6543,"1189696":6544,"1061861":6545,"622209":6546,"11220":6547,"1825":6548,"2121":6549,"2758":6550,"5104":6551,"696":6552,"710":6553,"767":6554,"822":6555,"984":6556,"9827":6557,"YCl":6558,"ĠNS":6559,"ĠAlTc":6560,"AlTe":6561,"AlSn":6562,"ĠSiCl":6563,"SiCl":6564,"ĠRhHg":6565,"NiCoGe":6566,"ĠGePt":6567,"ĠCoSn":6568,"ĠCrFe":6569,"PtTi":6570,"PtHf":6571,"ĠSnBi":6572,"seven":6573,"RhGa":6574,"RhHg":6575,"CuBi":6576,"ZrAg":6577,"AgPd":6578,"333":6579,"CoBi":6580,"ĠBiSb":6581,"IrTa":6582,"11714":6583,"ĠPbPt":6584,"ĠCdSr":6585,"CaTe":6586,"CaPb":6587,"1522":6588,"BiTe":6589,"8635":6590,"027":6591,"4647":6592,"7509":6593,"7554":6594,"RePt":6595,"2593":6596,"HgSe":6597,"604647":6598,"NaTl":6599,"7263":6600,"048":6601,"13853":6602,"017":6603,"17695":6604,"31348":6605,"12270":6606,"11412":6607,"20669":6608,"1220635":6609,"1183209":6610,"1186964":6611,"11957":6612,"1187884":6613,"567822":6614,"1217113":6615,"1018166":6616,"1188462":6617,"1188292":6618,"1188869":6619,"11231":6620,"1223755":6621,"1223860":6622,"1186970":6623,"ĠKKAs":6624,"1087509":6625,"12455":6626,"11565":6627,"1007691":6628,"1007730":6629,"16608":6630,"568232":6631,"30682":6632,"571499":6633,"1218017":6634,"1220322":6635,"1103536":6636,"ĠTiHN":6637,"999549":6638,"21012":6639,"21342":6640,"27411":6641,"12657":6642,"1217210":6643,"1094272":6644,"1217971":6645,"998949":6646,"607138":6647,"672222":6648,"ĠSAsRh":6649,"1078666":6650,"1103252":6651,"1209024":6652,"978553":6653,"ĠSPIr":6654,"ĠSeGePt":6655,"19905":6656,"1184011":6657,"1219533":6658,"1191538":6659,"989695":6660,"1215257":6661,"542454":6662,"1190736":6663,"12594":6664,"2403":6665,"570491":6666,"999143":6667,"1226170":6668,"1228607":6669,"979261":6670,"1894":6671,"275":6672,"2693":6673,"2430":6674,"321":6675,"5546":6676,"642":6677,"7818":6678,"909":6679,"9122":6680,"YIr":6681,"ĠPCl":6682,"âĤģâĤĪ":6683,"ĠSiH":6684,"ĠZrAg":6685,"2027":6686,"20539":6687,"ĠCoMn":6688,"ĠWC":6689,"ĠSbNa":6690,"1021":6691,"12561":6692,"12735":6693,"CuH":6694,"67220":6695,"TaGa":6696,"085":6697,"1682":6698,"2294":6699,"888":6700,"0220":6701,"TcSi":6702,"830":6703,"817":6704,"6419":6705,"492":6706,"638":6707,"135":6708,"9755":6709,"9746":6710,"9954":6711,"27165":6712,"RbCl":6713,"1200220":6714,"12177":6715,"CsGa":6716,"12269":6717,"12285":6718,"11416":6719,"1216675":6720,"1216242":6721,"12200":6722,"1220327":6723,"10296":6724,"10240":6725,"1183227":6726,"1079297":6727,"569535":6728,"569727":6729,"10188":6730,"1215274":6731,"1217163":6732,"1018151":6733,"570197":6734,"1184119":6735,"1184693":6736,"16718":6737,"568115":6738,"30683":6739,"1025223":6740,"1009460":6741,"1215509":6742,"999204":6743,"1008601":6744,"1552":6745,"1199503":6746,"998972":6747,"1078602":6748,"1014229":6749,"1079910":6750,"1205346":6751,"568646":6752,"24286":6753,"1207004":6754,"1187486":6755,"1102657":6756,"1002122":6757,"1190267":6758,"1103643":6759,"1206927":6760,"784630":6761,"554609":6762,"672204":6763,"2503":6764,"823":6765,"YCo":6766,"YPtGe":6767,"six":6768,"ĠPma":6769,"ĠPNbP":6770,"ĠPCuP":6771,"ĠInV":6772,"ĠZrOs":6773,"ĠGaTc":6774,"ĠSeV":6775,"PdMo":6776,"AsN":6777,"NiRu":6778,"ĠGeCr":6779,"PtPd":6780,"ĠSbPd":6781,"1022":6782,"1064":6783,"10487":6784,"1279":6785,"1281":6786,"12700":6787,"ĠRuNb":6788,"SnRu":6789,"AgGa":6790,"5417":6791,"5428":6792,"ĠBiPtCl":6793,"RuZn":6794,"1152":6795,"1159":6796,"1135":6797,"11541":6798,"TaCo":6799,"ScAu":6800,"16514":6801,"8860":6802,"PbP":6803,"064":6804,"2369":6805,"2379":6806,"5709":6807,"5737":6808,"OsZr":6809,"2449":6810,"5613":6811,"2517":6812,"518":6813,"1341":6814,"12147":6815,"Ġbipyramidal":6816,"10950":6817,"ĠNCaMo":6818,"20685":6819,"1183216":6820,"1187258":6821,"1224475":6822,"1217961":6823,"1018672":6824,"10054":6825,"ĠAsTeOs":6826,"11393":6827,"862798":6828,"30686":6829,"571342":6830,"972889":6831,"28056":6832,"28029":6833,"28026":6834,"10096":6835,"20483":6836,"16522":6837,"1208406":6838,"1008555":6839,"755328":6840,"ĠTeAsOs":6841,"1078638":6842,"557096":6843,"571059":6844,"1206704":6845,"1187974":6846,"849059":6847,"567705":6848,"571664":6849,"680570":6850,"1215997":6851,"1749":6852,"985806":6853,"7931":6854,"570287":6855,"567345":6856,"1536":6857,"867841":6858,"17045":6859,"ĠAsSbRh":6860,"ĠSbAsRh":6861,"1205858":6862,"569815":6863,"1079467":6864,"632219":6865,"569624":6866,"1206268":6867,"1022721":6868,"510522":6869,"1079810":6870,"17615":6871,"1038828":6872,"1106169":6873,"1064981":6874,"561320":6875,"037":6876,"21187":6877,"2698":6878,"374":6879,"31214":6880,"655":6881,"7526":6882,"NS":6883,"VFe":6884,"ĠAlRe":6885,"ĠHCs":6886,"AlCo":6887,"ĠSiTe":6888,"20327":6889,"ĠGaBi":6890,"ĠMoC":6891,"ĠSeP":6892,"TiIr":6893,"AsK":6894,"ĠFeNi":6895,"PtN":6896,"1020":6897,"10886":6898,"NHS":6899,"1264":6900,"1299":6901,"RhH":6902,"RhN":6903,"RhY":6904,"RhPd":6905,"CuRh":6906,"CuPb":6907,"ĠAuK":6908,"MoC":6909,"ZrOs":6910,"SnGe":6911,"AgAs":6912,"AgPt":6913,"5422":6914,"4306":6915,"RuP":6916,"RuZr":6917,"071":6918,"TaCl":6919,"ScH":6920,"1628":6921,"16960":6922,"ĠClAg":6923,"ĠRbAs":6924,"2258":6925,"1585":6926,"15624":6927,"BiZr":6928,"2305":6929,"2349":6930,"2348":6931,"7444":6932,"OsN":6933,"703":6934,"8372":6935,"HgCd":6936,"7667":6937,"13871":6938,"1415":6939,"32697":6940,"2612":6941,"11004":6942,"1214306":6943,"1220401":6944,"10212":6945,"1079082":6946,"1018123":6947,"1018128":6948,"1080586":6949,"11256":6950,"570451":6951,"11507":6952,"22075":6953,"1018027":6954,"30572":6955,"1025159":6956,"1105935":6957,"1105835":6958,"1105666":6959,"13365":6960,"1188008":6961,"999192":6962,"1102895":6963,"1008632":6964,"570832":6965,"865430":6966,"22318":6967,"1104165":6968,"1094254":6969,"31010":6970,"557719":6971,"1102364":6972,"1207393":6973,"570651":6974,"972220":6975,"1183643":6976,"866022":6977,"1056037":6978,"542484":6979,"1220657":6980,"30933":6981,"1087219":6982,"697179":6983,"1183144":6984,"1080608":6985,"991544":6986,"1201560":6987,"1502":6988,"362":6989,"317":6990,"520":6991,"KP":6992,"ĠNMo":6993,"ĠTiIn":6994,"ĠHfIn":6995,"2082":6996,"20862":6997,"20900":6998,"ĠCuH":6999,"ĠScMn":7000,"TiSn":7001,"TiHg":7002,"PdAs":7003,"InTe":7004,"ĠCoNiTe":7005,"ĠTeRh":7006,"ĠFeCo":7007,"1073":7008,"1010136":7009,"ĠSnMn":7010,"GaC":7011,"GeP":7012,"1211":7013,"12104":7014,"12777":7015,"ĠRuGe":7016,"091":7017,"HfMn":7018,"3306":7019,"IrZrSn":7020,"1115":7021,"11108":7022,"NbAu":7023,"AuSc":7024,"TaSe":7025,"Ġ81":7026,"859":7027,"22555":7028,"22704":7029,"1526":7030,"MnSn":7031,"CdCa":7032,"ĠCsH":7033,"2363":7034,"931":7035,"SrCaSi":7036,"OsTe":7037,"7343":7038,"2450":7039,"HgTe":7040,"6080":7041,"6498":7042,"63980":7043,"636498":7044,"2685":7045,"9998":7046,"1755":7047,"17728":7048,"30336":7049,"1201836":7050,"11022":7051,"11024":7052,"110186":7053,"1183306":7054,"10711":7055,"1220678":7056,"1183137":7057,"1183777":7058,"1183627":7059,"1183517":7060,"569289":7061,"1186853":7062,"11908":7063,"11972":7064,"1187525":7065,"1219539":7066,"ĠCSiH":7067,"12213":7068,"30882":7069,"1018717":7070,"1018129":7071,"ĠCdAsCl":7072,"11288":7073,"11228":7074,"1078213":7075,"10004":7076,"ĠAsTeIr":7077,"1184713":7078,"1018054":7079,"1018028":7080,"865166":7081,"16756":7082,"30527":7083,"30367":7084,"ĠTeSnPd":7085,"29646":7086,"29619":7087,"1186016":7088,"2126":7089,"30471":7090,"20905":7091,"ĠSeSbOs":7092,"ĠSCrCu":7093,"570896":7094,"ĠTeAsIr":7095,"977129":7096,"850131":7097,"1078665":7098,"1079914":7099,"1025551":7100,"17173":7101,"1103044":7102,"21162":7103,"567920":7104,"1056438":7105,"18032":7106,"1023924":7107,"972326":7108,"2404":7109,"570483":7110,"1079399":7111,"SSOs":7112,"1079496":7113,"1203324":7114,"1198692":7115,"999318":7116,"1102131":7117,"1219006":7118,"1101121":7119,"1101145":7120,"1206819":7121,"1103512":7122,"990090":7123,"639805":7124,"1101860":7125,"2500":7126,"2637":7127,"446":7128,"445":7129,"762":7130,"Ba":7131,"SY":7132,"YWN":7133,"three":7134,"ĠAlCrFe":7135,"vell":7136,"ĠSiAl":7137,"ĠHfRh":7138,"2053":7139,"20555":7140,"ĠGaRu":7141,"ĠCuN":7142,"ĠZnCd":7143,"ĠCovell":7144,"10106":7145,"ĠSnCa":7146,"ZnH":7147,"ZnTi":7148,"ZnSr":7149,"CuO":7150,"ZrMoAl":7151,"541582":7152,"11460":7153,"AuZr":7154,"TaTc":7155,"ĠTcN":7156,"5555":7157,"5565":7158,"1683":7159,"051":7160,"057":7161,"0532":7162,"2245":7163,"8880":7164,"CdY":7165,"BiSb":7166,"PbSnS":7167,"6287":7168,"TcZn":7169,"1984":7170,"19814":7171,"2490":7172,"2512":7173,"726":7174,"1822":7175,"18192":7176,"976971":7177,"990532":7178,"2715":7179,"1743":7180,"1793":7181,"RbHg":7182,"12175":7183,"CsSb":7184,"1969":7185,"1183205":7186,"1183998":7187,"569867":7188,"1186444":7189,"1187697":7190,"567832":7191,"1219734":7192,"1080443":7193,"1188283":7194,"1188413":7195,"11263":7196,"1078699":7197,"ĠPFeSi":7198,"ĠNTaMo":7199,"1223714":7200,"ĠSeCsBi":7201,"1189099":7202,"12724":7203,"12469":7204,"974430":7205,"30619":7206,"30684":7207,"1077083":7208,"10259":7209,"973100":7210,"973149":7211,"1105852":7212,"972876":7213,"1215497":7214,"573691":7215,"1228947":7216,"21048":7217,"22320":7218,"1206780":7219,"1206743":7220,"1014230":7221,"17593":7222,"1018154":7223,"28266":7224,"571640":7225,"1095592":7226,"17449":7227,"7806":7228,"1543":7229,"17757":7230,"1534":7231,"HfCuGe":7232,"867816":7233,"17013":7234,"1196961":7235,"636334":7236,"1002106":7237,"1203353":7238,"1095177":7239,"637255":7240,"1104275":7241,"510412":7242,"ĠCovellite":7243,"271":7244,"2678":7245,"2451":7246,"376":7247,"409":7248,"481":7249,"5837":7250,"7539":7251,"848":7252,"9828":7253,"VIr":7254,"YP":7255,"YS":7256,"romium":7257,"ĠScH":7258,"801":7259,"ĠFeH":7260,"GaPt":7261,"SbN":7262,"SbP":7263,"1297":7264,"ĠKFe":7265,"ZrTc":7266,"11546":7267,"TaPd":7268,"ĠTcTa":7269,"1648":7270,"1630":7271,"2223":7272,"2282":7273,"CaBi":7274,"PbAs":7275,"ĠCsTe":7276,"2318":7277,"23159":7278,"SrBi":7279,"TcTa":7280,"738":7281,"7302":7282,"7390":7283,"458":7284,"1925":7285,"7260":7286,"049":7287,"32616":7288,"9920":7289,"9925":7290,"3509":7291,"2786":7292,"982070":7293,"12059":7294,"11050":7295,"10905":7296,"12275":7297,"12245":7298,"12287":7299,"1220085":7300,"569979":7301,"1186014":7302,"1186374":7303,"11943":7304,"11922":7305,"8675":7306,"1187717":7307,"1187077":7308,"567082":7309,"567612":7310,"1217166":7311,"1217429":7312,"30835":7313,"30828":7314,"1018100":7315,"1018125":7316,"1188890":7317,"10047":7318,"1003509":7319,"1062030":7320,"ĠChromium":7321,"ĠSCoNi":7322,"11387":7323,"11571":7324,"865899":7325,"1672":7326,"30352":7327,"1105651":7328,"1105078":7329,"1218044":7330,"11765":7331,"1009756":7332,"1103139":7333,"30481":7334,"ĠNAlGa":7335,"21093":7336,"1023934":7337,"1225998":7338,"570844":7339,"980420":7340,"865385":7341,"865382":7342,"20050":7343,"1216446":7344,"17564":7345,"567747":7346,"22872":7347,"989737":7348,"1187243":7349,"505527":7350,"977390":7351,"21589":7352,"30045":7353,"1187197":7354,"672326":7355,"1224485":7356,"11572":7357,"1207781":7358,"568746":7359,"971779":7360,"1091387":7361,"1077482":7362,"1183040":7363,"1006132":7364,"1194653":7365,"568172":7366,"17216":7367,"1105633":7368,"1191083":7369,"1025448":7370,"984698":7371,"583740":7372,"753921":7373,"1501":7374,"1431":7375,"266":7376,"2857":7377,"511":7378,"581":7379,"956":7380,"WRe":7381,"ĠTiC":7382,"ĠZint":7383,"2039":7384,"FeGe":7385,"SiSb":7386,"ĠSeTl":7387,"ĠYPd":7388,"ĠTaMn":7389,"ĠScTc":7390,"TiRe":7391,"InCl":7392,"InPb":7393,"NiZn":7394,"ĠTeTl":7395,"1063":7396,"10569":7397,"10636":7398,"ĠNaSi":7399,"ZnHg":7400,"093":7401,"MoRe":7402,"SnH":7403,"HfCd":7404,"CoCu":7405,"ĠBiNa":7406,"IrCu":7407,"IrBi":7408,"11514":7409,"ĠCdNi":7410,"0894":7411,"ScBi":7412,"ĠClHg":7413,"22236":7414,"1589":7415,"1581":7416,"15670":7417,"CdP":7418,"2179":7419,"8642":7420,"8662":7421,"PbMo":7422,"23164":7423,"621581":7424,"7564":7425,"SrNi":7426,"SrSb":7427,"SrTl":7428,"19713":7429,"ReW":7430,"HgZn":7431,"7262":7432,"1373":7433,"1363":7434,"9769":7435,"32679":7436,"3760":7437,"2686":7438,"27258":7439,"17332":7440,"30464":7441,"31205":7442,"RbAs":7443,"1200894":7444,"1203760":7445,"110188":7446,"CsSn":7447,"CsAu":7448,"12264":7449,"1216498":7450,"1071078":7451,"1220634":7452,"1183224":7453,"569678":7454,"569522":7455,"569989":7456,"1186231":7457,"11906":7458,"567871":7459,"1217111":7460,"12214":7461,"1221429":7462,"10802":7463,"ĠSNaCr":7464,"11261":7465,"1223503":7466,"1186926":7467,"ĠSCoRh":7468,"11345":7469,"ĠNYSc":7470,"1184676":7471,"1184058":7472,"12723":7473,"1007758":7474,"1077232":7475,"30354":7476,"30383":7477,"1224390":7478,"9729":7479,"865565":7480,"2808":7481,"1184681":7482,"30496":7483,"573514":7484,"18609":7485,"30745":7486,"1791":7487,"1228491":7488,"865425":7489,"998979":7490,"607450":7491,"672241":7492,"571053":7493,"1184772":7494,"19880":7495,"19879":7496,"862770":7497,"1228882":7498,"20581":7499,"1207392":7500,"ĠNScTi":7501,"1214894":7502,"1070544":7503,"570632":7504,"1147714":7505,"975834":7506,"14285":7507,"505510":7508,"570276":7509,"1101783":7510,"ĠCmme":7511,"672313":7512,"972351":7513,"1077372":7514,"1206371":7515,"1458":7516,"685124":7517,"568865":7518,"1178742":7519,"541289":7520,"1218177":7521,"974620":7522,"ĠZintl":7523,"1056985":7524,"1101884":7525,"250":7526,"771":7527,"7541":7528,"910":7529,"921":7530,"945":7531,"KFe":7532,"KSe":7533,"KCu":7534,"YCoGa":7535,"ea":7536,"ĠCCa":7537,"ĠAea":7538,"ĠNiN":7539,"ĠZrMn":7540,"ĠCaMn":7541,"2052":7542,"2049":7543,"20745":7544,"FePt":7545,"ĠYH":7546,"ĠYAsSe":7547,"ĠTaMoS":7548,"TiAg":7549,"PdPb":7550,"NiCu":7551,"ĠFeRu":7552,"10157":7553,"ĠSrAg":7554,"ĠSnCo":7555,"GePt":7556,"1244":7557,"1258":7558,"ZnSn":7559,"ZnTc":7560,"CuN":7561,"CuPt":7562,"SnBi":7563,"AgSb":7564,"6753":7565,"ĠBiSbTe":7566,"RuCu":7567,"1175":7568,"11462":7569,"11675":7570,"ScAs":7571,"ĠClTl":7572,"ĠOsH":7573,"ĠOsGe":7574,"CrNi":7575,"CaS":7576,"8881":7577,"8625":7578,"8628":7579,"523":7580,"461":7581,"749":7582,"7498":7583,"TcCl":7584,"564":7585,"2516":7586,"HgGa":7587,"NaTiS":7588,"TlAg":7589,"5820":7590,"976847":7591,"9016":7592,"2752":7593,"9847":7594,"11051":7595,"12182":7596,"11850":7597,"11407":7598,"11482":7599,"1072086":7600,"10263":7601,"1079131":7602,"1079938":7603,"569322":7604,"569250":7605,"1186175":7606,"1186230":7607,"1199016":7608,"1224803":7609,"30885":7610,"30856":7611,"1080522":7612,"1078443":7613,"1186974":7614,"ĠPSnP":7615,"1189230":7616,"ĠTeGePb":7617,"22079":7618,"16610":7619,"1224391":7620,"1186050":7621,"972828":7622,"1229092":7623,"1009730":7624,"12465":7625,"30485":7626,"573579":7627,"999544":7628,"21065":7629,"22924":7630,"ĠInSrAu":7631,"865355":7632,"1199934":7633,"YAgSe":7634,"1094248":7635,"672256":7636,"ĠSAsPd":7637,"ĠSAlZn":7638,"ĠSAlMo":7639,"1079945":7640,"978546":7641,"ĠSeAsRh":7642,"24726":7643,"1205301":7644,"ĠSeMnZn":7645,"1067210":7646,"568328":7647,"1184021":7648,"1187257":7649,"1184511":7650,"27821":7651,"567397":7652,"ĠTeSbRu":7653,"1017985":7654,"1101754":7655,"17880":7656,"17848":7657,"571264":7658,"1186760":7659,"555283":7660,"1077365":7661,"981383":7662,"1072712":7663,"863720":7664,"CaPdIn":7665,"1078989":7666,"570362":7667,"636368":7668,"974920":7669,"1187591":7670,"1062804":7671,"999376":7672,"684903":7673,"1180659":7674,"nbc":7675,"1055994":7676,"1101099":7677,"540912":7678,"1210215":7679,"976589":7680,"1195735":7681,"1700":7682,"2700":7683,"2648":7684,"2663":7685,"350":7686,"596":7687,"647":7688,"6200":7689,"6851":7690,"7674":7691,"873":7692,"8200":7693,"924":7694,"995":7695,"KCl":7696,"SN":7697,"ĠCS":7698,"AlRe":7699,"ĠPdSe":7700,"ĠZrRu":7701,"ĠCaCo":7702,"20549":7703,"20131":7704,"20526":7705,"20027":7706,"SiSn":7707,"ĠYRu":7708,"ĠScHg":7709,"TiCu":7710,"PdNiSi":7711,"AsZn":7712,"AsCl":7713,"1049":7714,"ĠAgZr":7715,"12628":7716,"MoZn":7717,"ZrCo":7718,"AgAu":7719,"RuCoAl":7720,"ScP":7721,"ScHg":7722,"1637":7723,"ĠClCu":7724,"053":7725,"2221":7726,"22693":7727,"868":7728,"SrTe":7729,"7372":7730,"660":7731,"8312":7732,"190":7733,"1914":7734,"1848":7735,"761":7736,"1371":7737,"976419":7738,"611219":7739,"RbP":7740,"RbTe":7741,"12032":7742,"CsP":7743,"1220052":7744,"10276":7745,"1186017":7746,"11901":7747,"10172":7748,"1187881":7749,"567540":7750,"1217168":7751,"12217":7752,"30875":7753,"1018115":7754,"1188393":7755,"11239":7756,"ĠPZnP":7757,"1184670":7758,"1184502":7759,"ĠInSbTe":7760,"1007656":7761,"30571":7762,"29661":7763,"9731":7764,"2802":7765,"2807":7766,"2809":7767,"21294":7768,"30412":7769,"30787":7770,"1023926":7771,"570875":7772,"555935":7773,"980094":7774,"974326":7775,"1104898":7776,"1698":7777,"1184704":7778,"1209498":7779,"12593":7780,"568619":7781,"22812":7782,"1095578":7783,"558552":7784,"21182":7785,"1547":7786,"1179520":7787,"862620":7788,"1017531":7789,"1095269":7790,"14587":7791,"1184994":7792,"636328":7793,"971661":7794,"1025044":7795,"983388":7796,"20599":7797,"sixth":7798,"608072":7799,"620032":7800,"767469":7801,"1434":7802,"255":7803,"277":7804,"2828":7805,"2856":7806,"2701":7807,"2578":7808,"31219":7809,"516":7810,"583":7811,"788":7812,"9227":7813,"PTe":7814,"nner":7815,"renner":7816,"AlNb":7817,"AlTa":7818,"2076":7819,"20648":7820,"20291":7821,"ĠSeSc":7822,"PdSc":7823,"8046":7824,"8073":7825,"8091":7826,"ĠSbZr":7827,"1005":7828,"10026":7829,"10861":7830,"10014":7831,"ĠSrCaSi":7832,"GaNb":7833,"ĠNaTiS":7834,"1210":7835,"12459":7836,"CuInS":7837,"ĠIrCa":7838,"ĠKrenner":7839,"MoOs":7840,"HfH":7841,"AgSn":7842,"5411":7843,"962":7844,"IrCo":7845,"IrCl":7846,"1195":7847,"NbSn":7848,"NbOs":7849,"NbMoSe":7850,"AuGa":7851,"ĠTcOs":7852,"5588":7853,"1606":7854,"ĠReCl":7855,"22856":7856,"CrIr":7857,"CrTc":7858,"CaSb":7859,"1550":7860,"7140":7861,"BiRb":7862,"2172":7863,"7493":7864,"1919":7865,"ReP":7866,"HgBi":7867,"NaSe":7868,"7273":7869,"594":7870,"1876":7871,"1380":7872,"32861":7873,"2775":7874,"2781":7875,"27731":7876,"30463":7877,"28116":7878,"31105":7879,"12065":7880,"12064":7881,"11062":7882,"11018":7883,"11843":7884,"11885":7885,"ĠMoSSe":7886,"1216505":7887,"10783":7888,"1077263":7889,"1220631":7890,"1183501":7891,"1183484":7892,"1183710":7893,"1079832":7894,"569095":7895,"11921":7896,"11940":7897,"1191079":7898,"1198091":7899,"867212":7900,"1187073":7901,"567860":7902,"567597":7903,"1080831":7904,"1188155":7905,"1188645":7906,"11286":7907,"10784":7908,"1224388":7909,"1186047":7910,"1207251":7911,"1229048":7912,"979423":7913,"21289":7914,"1009733":7915,"1228901":7916,"16511":7917,"1225186":7918,"980949":7919,"974370":7920,"31138":7921,"1193756":7922,"20250":7923,"867356":7924,"20034":7925,"31086":7926,"571060":7927,"28879":7928,"1205321":7929,"1078875":7930,"571651":7931,"866006":7932,"776470":7933,"861610":7934,"1224796":7935,"864889":7936,"1096915":7937,"1100795":7938,"672372":7939,"865176":7940,"1079681":7941,"13450":7942,"684650":7943,"1208273":7944,"1196393":7945,"949029":7946,"863648":7947,"568067":7948,"861910":7949,"505002":7950,"1205955":7951,"1192251":7952,"ĠKrennerite":7953,"1451":7954,"1444":7955,"2103":7956,"489":7957,"51009":7958,"618":7959,"746":7960,"811":7961,"947":7962,"KTe":7963,"PK":7964,"SH":7965,"SK":7966,"VRh":7967,"ĠSul":7968,"âĤĦâĤĢ":7969,"ĠNiRu":7970,"ĠHfSc":7971,"20628":7972,"ĠSeCoNi":7973,"ĠCuAsS":7974,"PdGe":7975,"PdRu":7976,"NiGe":7977,"ĠGeAl":7978,"8041":7979,"PtSc":7980,"ĠSbN":7981,"1082":7982,"10759":7983,"ĠNaCu":7984,"ĠNaNb":7985,"12109":7986,"12124":7987,"12857":7988,"RhCu":7989,"ZnSiAs":7990,"ZrRe":7991,"HfBi":7992,"6759":7993,"6736":7994,"5410":7995,"IrSc":7996,"ĠPbHg":7997,"5053":7998,"5047":7999,"5057":8000,"5049":8001,"1664":8002,"22700":8003,"22735":8004,"ĠOsNb":8005,"887":8006,"CdAl":8007,"21673":8008,"8648":8009,"PbGe":8010,"066":8011,"7440":8012,"7446":8013,"7441":8014,"8973":8015,"8948":8016,"TcN":8017,"664":8018,"24154":8019,"NaCu":8020,"684":8021,"5193":8022,"497":8023,"1340":8024,"1393":8025,"1304":8026,"1392":8027,"927":8028,"9262":8029,"27164":8030,"17094":8031,"30672":8032,"30478":8033,"11060":8034,"1105552":8035,"CsIn":8036,"11819":8037,"10909":8038,"1095683":8039,"1216575":8040,"10790":8041,"1079776":8042,"569544":8043,"567276":8044,"1215543":8045,"1219522":8046,"121708":8047,"30840":8048,"30884":8049,"22211":8050,"ĠSNaIn":8051,"1129":8052,"1223773":8053,"570553":8054,"1039262":8055,"1007760":8056,"1018059":8057,"1105127":8058,"15650":8059,"1215488":8060,"1215401":8061,"865598":8062,"ĠSeRbBi":8063,"ĠSSnSb":8064,"30797":8065,"30717":8066,"16481":8067,"1226086":8068,"1217915":8069,"998985":8070,"850083":8071,"1217192":8072,"1690":8073,"1206741":8074,"1184791":8075,"1187946":8076,"20382":8077,"1067627":8078,"568376":8079,"1216325":8080,"570684":8081,"28391":8082,"1184018":8083,"1187811":8084,"14288":8085,"1178745":8086,"865733":8087,"30021":8088,"1183455":8089,"865910":8090,"21873":8091,"1106023":8092,"862621":8093,"1019052":8094,"1186781":8095,"1178952":8096,"1219922":8097,"570751":8098,"1068446":8099,"568077":8100,"1078996":8101,"1183143":8102,"569037":8103,"1022725":8104,"1209003":8105,"1200988":8106,"1105296":8107,"1094140":8108,"29841":8109,"568293":8110,"867262":8111,"1079269":8112,"628766":8113,"1063670":8114,"1192175":8115,"510099":8116,"ĠSulvanite":8117,"1212407":8118,"673633":8119,"147":8120,"144":8121,"2576":8122,"2534":8123,"5826":8124,"610":8125,"608":8126,"7631":8127,"994":8128,"HCs":8129,"KGe":8130,"KCr":8131,"PP":8132,"WMn":8133,"YOs":8134,"YTc":8135,"YTiGe":8136,"hil":8137,"nnc":8138,"ĠHCr":8139,"ĠHyd":8140,"ĠNiCl":8141,"AlZn":8142,"ĠCaMnSi":8143,"ĠPtSeS":8144,"20311":8145,"FeBi":8146,"ĠNbWS":8147,"ĠNbMoSe":8148,"SiRe":8149,"ĠCuPt":8150,"ĠScRu":8151,"ĠAsIr":8152,"ĠTePt":8153,"CuTc":8154,"ĠIron":8155,"ZrPtAl":8156,"uphide":8157,"HfV":8158,"HfW":8159,"HfRhSn":8160,"AgTl":8161,"33112":8162,"5406":8163,"IrAu":8164,"1111":8165,"1173":8166,"11693":8167,"NbC":8168,"AuHf":8169,"ĠCdIn":8170,"5022":8171,"ScPb":8172,"ĠClIn":8173,"2211":8174,"2291":8175,"CaGa":8176,"CaMn":8177,"CaMnSi":8178,"1591":8179,"ĠTlHg":8180,"7189":8181,"2398":8182,"8936":8183,"rophil":8184,"OsPt":8185,"TcCu":8186,"658":8187,"194":8188,"1967":8189,"19932":8190,"24161":8191,"RePd":8192,"5610":8193,"HgCl":8194,"1395":8195,"13876":8196,"977189":8197,"32630":8198,"9907":8199,"9945":8200,"2780":8201,"2815":8202,"11046":8203,"11039":8204,"12252":8205,"12284":8206,"11440":8207,"ĠDisuphide":8208,"569794":8209,"1186100":8210,"1186158":8211,"11977":8212,"1191483":8213,"10193":8214,"867303":8215,"12156":8216,"30867":8217,"1080797":8218,"1188662":8219,"1078755":8220,"1078500":8221,"ĠPbTePt":8222,"1186955":8223,"1186990":8224,"570670":8225,"11342":8226,"ĠNYW":8227,"1184478":8228,"1184808":8229,"11521":8230,"11566":8231,"1007755":8232,"30668":8233,"10258":8234,"571547":8235,"29642":8236,"CoNiTe":8237,"TiAlAu":8238,"866161":8239,"20433":8240,"1103570":8241,"ĠPTiP":8242,"1215598":8243,"20916":8244,"21068":8245,"1023937":8246,"1225656":8247,"CoAsSe":8248,"12474":8249,"974341":8250,"1199938":8251,"31150":8252,"1226096":8253,"1120774":8254,"850014":8255,"ĠSAsPt":8256,"13147":8257,"1014219":8258,"1184703":8259,"1079997":8260,"862779":8261,"ĠSeAsPd":8262,"ĠSeAsIr":8263,"1216486":8264,"1018149":8265,"1185202":8266,"1102030":8267,"567907":8268,"754064":8269,"1184591":8270,"1400":8271,"542570":8272,"1179336":8273,"567379":8274,"1215783":8275,"1936":8276,"1106195":8277,"862655":8278,"570786":8279,"570744":8280,"1102616":8281,"ReSiReSi":8282,"542587":8283,"18167":8284,"541844":8285,"1190274":8286,"570377":8287,"1106381":8288,"540791":8289,"684989":8290,"604321":8291,"ĠAsReNi":8292,"568595":8293,"1071777":8294,"604908":8295,"755453":8296,"1021498":8297,"542812":8298,"ĠSePOs":8299,"1190841":8300,"1105134":8301,"582681":8302,"PPMn":8303,"ĠHydrophil":8304,"ĠHydrophilite":8305,"1853":8306,"286":8307,"488":8308,"8426":8309,"953":8310,"913":8311,"WNiP":8312,"WFeSi":8313,"YIrGe":8314,"Ġmvc":8315,"ĠInCuS":8316,"Ġred":8317,"Ġselenium":8318,"ĠPdS":8319,"ĠZrCd":8320,"20123":8321,"SeN":8322,"TiTaFe":8323,"ĠAsCr":8324,"InAl":8325,"InAs":8326,"ĠFeMo":8327,"ĠSbCd":8328,"1060":8329,"GaNi":8330,"GePd":8331,"RhGe":8332,"RhZrSn":8333,"ZnSi":8334,"ĠAuSb":8335,"ĠAuPb":8336,"MoNi":8337,"AgBi":8338,"5430":8339,"CoOs":8340,"CoSbS":8341,"ĠBiRb":8342,"IrN":8343,"IrY":8344,"TaH":8345,"508":8346,"5576":8347,"2296":8348,"2260":8349,"CrGe":8350,"CrSb":8351,"CaSe":8352,"8632":8353,"2346":8354,"23179":8355,"OsW":8356,"8311":8357,"1958":8358,"ReZn":8359,"ReMo":8360,"8182":8361,"HgIn":8362,"NaSi":8363,"NaBiS":8364,"7822":8365,"7819":8366,"685022":8367,"5911":8368,"TlN":8369,"5850":8370,"1469":8371,"1780":8372,"1708":8373,"30421":8374,"9843":8375,"28704":8376,"RbFe":8377,"RbIn":8378,"1105911":8379,"12185":8380,"12240":8381,"12265":8382,"ĠAlNiGe":8383,"1216300":8384,"10785":8385,"1220079":8386,"11832":8387,"ĠAlCuPd":8388,"1186081":8389,"1186060":8390,"1187790":8391,"567207":8392,"567596":8393,"1221442":8394,"1221425":8395,"30883":8396,"1188663":8397,"1188913":8398,"10621":8399,"570199":8400,"1189177":8401,"12454":8402,"1007857":8403,"865077":8404,"ĠGeGeIr":8405,"1186018":8406,"1186034":8407,"1186031":8408,"973198":8409,"972981":8410,"1188040":8411,"15622":8412,"866108":8413,"30494":8414,"1215579":8415,"21030":8416,"1863":8417,"ĠAlVCo":8418,"30746":8419,"1206573":8420,"17910":8421,"1208221":8422,"1008488":8423,"974395":8424,"1228803":8425,"22375":8426,"867317":8427,"2797":8428,"16317":8429,"850068":8430,"672289":8431,"28885":8432,"1102384":8433,"23253":8434,"24723":8435,"849086":8436,"567750":8437,"505626":8438,"10703":8439,"1226736":8440,"975204":8441,"1056308":8442,"861630":8443,"AlNiGe":8444,"1183489":8445,"1219940":8446,"SSSCs":8447,"7859":8448,"1225701":8449,"1091375":8450,"1187512":8451,"1209044":8452,"ĠGaCuPt":8453,"971662":8454,"1079582":8455,"975519":8456,"573763":8457,"1009641":8458,"555599":8459,"1194350":8460,"1190654":8461,"973143":8462,"505780":8463,"1060435":8464,"543001":8465,"1462":8466,"272":8467,"6204":8468,"6430":8469,"923":8470,"9339":8471,"YIrSi":8472,"hite":8473,"phite":8474,"raphite":8475,"ĠCRe":8476,"Ġgraphite":8477,"ĠNCl":8478,"âĤĤâĤĤ":8479,"âĤĤâĤĩ":8480,"2081":8481,"20717":8482,"20826":8483,"SeCl":8484,"ĠCuRh":8485,"ĠRhH":8486,"PdTiSi":8487,"8062":8488,"PtTl":8489,"10281":8490,"1012110":8491,"ĠMnY":8492,"ĠAgAsS":8493,"CuNi":8494,"ĠIrS":8495,"HfVGe":8496,"AgSc":8497,"6762":8498,"4379":8499,"ĠBiZr":8500,"IrGa":8501,"11730":8502,"075":8503,"TaNbW":8504,"ScSb":8505,"551":8506,"5539":8507,"ĠClZn":8508,"8882":8509,"15964":8510,"2142":8511,"2194":8512,"8663":8513,"86233":8514,"ĠHgTl":8515,"ĠCsP":8516,"23713":8517,"23152":8518,"5741":8519,"574379":8520,"7373":8521,"1902":8522,"2507":8523,"2597":8524,"NaS":8525,"NaGa":8526,"685050":8527,"6323":8528,"29973":8529,"29551":8530,"1349":8531,"9752":8532,"1411":8533,"9147":8534,"ĠTiSeS":8535,"9996":8536,"9947":8537,"9902":8538,"9948":8539,"998860":8540,"2753":8541,"2760":8542,"1775":8543,"12085":8544,"12087":8545,"120175":8546,"11037":8547,"1101258":8548,"10953":8549,"ĠNCaTc":8550,"11457":8551,"1216464":8552,"1220141":8553,"1183206":8554,"1183969":8555,"569196":8556,"11916":8557,"867126":8558,"ĠSCuBi":8559,"1187152":8560,"567409":8561,"ĠWSCl":8562,"1217097":8563,"1221422":8564,"30886":8565,"30851":8566,"22270":8567,"1080834":8568,"1080376":8569,"11287":8570,"11237":8571,"10685":8572,"1186923":8573,"1186976":8574,"WSCl":8575,"1039147":8576,"12471":8577,"2201":8578,"22009":8579,"1007923":8580,"1018019":8581,"974437":8582,"ĠNFeMo":8583,"30666":8584,"30681":8585,"30368":8586,"ĠScNCl":8587,"973111":8588,"973092":8589,"1331":8590,"1188051":8591,"1229015":8592,"1072655":8593,"21276":8594,"1208223":8595,"974381":8596,"1226456":8597,"1104334":8598,"YPdZn":8599,"1217901":8600,"16315":8601,"16319":8602,"2160":8603,"1734":8604,"20351":8605,"21945":8606,"2478":8607,"24722":8608,"1067236":8609,"568320":8610,"11473":8611,"21170":8612,"769096":8613,"1104327":8614,"1219396":8615,"971751":8616,"971909":8617,"1057015":8618,"1095545":8619,"1080022":8620,"31312":8621,"1206636":8622,"32682":8623,"9888":8624,"20061":8625,"1062758":8626,"985451":8627,"1200912":8628,"604318":8629,"1213762":8630,"568186":8631,"nbm":8632,"1055940":8633,"1227285":8634,"569388":8635,"1207855":8636,"24650":8637,"571160":8638,"642659":8639,"541788":8640,"570920":8641,"1102441":8642,"976930":8643,"582067":8644,"984744":8645,"558811":8646,"620471":8647,"1201758":8648,"150":8649,"148":8650,"1460":8651,"254":8652,"285":8653,"2626":8654,"302":8655,"366":8656,"5100":8657,"621":8658,"619":8659,"6699":8660,"7670":8661,"7576":8662,"7897":8663,"842":8664,"944":8665,"9587":8666,"KC":8667,"KS":8668,"KRh":8669,"VC":8670,"YMn":8671,"bar":8672,"mite":8673,"ĠCin":8674,"ridy":8675,"ĠPCs":8676,"ĠInK":8677,"ĠTridy":8678,"ĠAlZnIr":8679,"AlGa":8680,"ĠZrFe":8681,"ĠCaRh":8682,"2084":8683,"ĠGaPS":8684,"ĠGaBiAs":8685,"FeCr":8686,"SiPd":8687,"ĠScFe":8688,"TiCoSi":8689,"TiMnSi":8690,"ĠZnSiNi":8691,"ĠCrH":8692,"PtSn":8693,"1093":8694,"1081":8695,"GaHg":8696,"1282":8697,"12892":8698,"1211471":8699,"RhCo":8700,"ZnSb":8701,"ĠKC":8702,"AgSi":8703,"AgBiS":8704,"6754":8705,"3314":8706,"CoMo":8707,"CoNiSi":8708,"ĠBiNi":8709,"ĠBiCl":8710,"9634":8711,"IrS":8712,"1197":8713,"1136":8714,"NbMn":8715,"ĠPbSr":8716,"AuN":8717,"070":8718,"6986":8719,"TaNiP":8720,"5583":8721,"559634":8722,"1608":8723,"1618":8724,"22466":8725,"22600":8726,"CrH":8727,"CaIrIn":8728,"8810":8729,"8883":8730,"1507":8731,"1519":8732,"CdPt":8733,"ĠHgCl":8734,"629":8735,"8991":8736,"SrSe":8737,"SrCo":8738,"OsH":8739,"839":8740,"24809":8741,"7927":8742,"56867":8743,"601823":8744,"ĠLow":8745,"29014":8746,"29184":8747,"9984":8748,"995193":8749,"1747":8750,"RbGe":8751,"120179":8752,"1205422":8753,"1101178":8754,"1182070":8755,"12207":8756,"1220502":8757,"1220348":8758,"1183694":8759,"1183511":8760,"1079029":8761,"569167":8762,"1186109":8763,"1186968":8764,"11933":8765,"1017565":8766,"867202":8767,"1187739":8768,"1187248":8769,"567181":8770,"1219535":8771,"30853":8772,"1018809":8773,"10644":8774,"1063314":8775,"570122":8776,"570673":8777,"ĠTaAlRu":8778,"1184121":8779,"ĠTiZnNi":8780,"30343":8781,"12322":8782,"13682":8783,"1178810":8784,"21237":8785,"20901":8786,"1023939":8787,"1226072":8788,"ScCuZn":8789,"13146":8790,"1184764":8791,"862705":8792,"1025571":8793,"1226021":8794,"567772":8795,"28930":8796,"1226726":8797,"1224223":8798,"21165":8799,"975129":8800,"1104054":8801,"985831":8802,"754628":8803,"1096950":8804,"1187154":8805,"864794":8806,"13010":8807,"1178932":8808,"14652":8809,"862259":8810,"nabar":8811,"1006118":8812,"1192532":8813,"510521":8814,"862446":8815,"1105285":8816,"1147712":8817,"1190908":8818,"556597":8819,"982871":8820,"862589":8821,"1062153":8822,"632311":8823,"669913":8824,"ĠCinnabar":8825,"ĠTridymite":8826,"1093999":8827,"558378":8828,"568671":8829,"1201790":8830,"245":8831,"454":8832,"471":8833,"593":8834,"640":8835,"6127":8836,"6235":8837,"7544":8838,"7506":8839,"VCr":8840,"YPb":8841,"YNiAl":8842,"ĠNTc":8843,"ĠPu":8844,"ĠPVS":8845,"ĠAlGaN":8846,"âĤĤâĤĥ":8847,"âĤĦâĤħ":8848,"ĠHfTeSe":8849,"ĠZrTi":8850,"ĠZrTiSe":8851,"ĠPtHg":8852,"2083":8853,"20465":8854,"20552":8855,"ĠGaSr":8856,"ĠGaNa":8857,"ĠGaGeTe":8858,"FeH":8859,"ĠVH":8860,"SiRu":8861,"ĠSeIr":8862,"ĠYCu":8863,"ĠTaWS":8864,"ĠAsAgAs":8865,"NiRh":8866,"ĠGeK":8867,"ĠGeCl":8868,"PtIn":8869,"PtMn":8870,"PtHg":8871,"1046":8872,"10675":8873,"ĠSnIr":8874,"GaFe":8875,"GaAg":8876,"GaAlN":8877,"ĠNaGa":8878,"ĠNaSn":8879,"ĠAgAsSe":8880,"1287":8881,"12635":8882,"12798":8883,"ĠIrCr":8884,"ĠKH":8885,"ZrRuSi":8886,"ZrTiCr":8887,"ZrCoGa":8888,"ZrVCo":8889,"HfZnAl":8890,"AgInS":8891,"5413":8892,"CoTc":8893,"RuPdAl":8894,"9692":8895,"11828":8896,"11537":8897,"11449":8898,"AuSi":8899,"AuIn":8900,"AuBi":8901,"ĠCdHg":8902,"5052":8903,"5056":8904,"Ġ82":8905,"ScMn":8906,"CaMoN":8907,"1509":8908,"MnAu":8909,"MnCd":8910,"CdHg":8911,"BiBi":8912,"ĠHgAs":8913,"237":8914,"8262":8915,"OsPd":8916,"OsCl":8917,"TcCo":8918,"6614":8919,"19795":8920,"2469":8921,"7916":8922,"ReNi":8923,"563":8924,"HgGe":8925,"NaTe":8926,"490":8927,"6308":8928,"636614":8929,"1397":8930,"1361":8931,"8781":8932,"9946":8933,"27800":8934,"28731":8935,"RbH":8936,"1203":8937,"110616":8938,"ĠAlAlAg":8939,"CsV":8940,"CsFe":8941,"CsPb":8942,"ĠTiAlCo":8943,"12233":8944,"1216439":8945,"10707":8946,"10775":8947,"1220423":8948,"10287":8949,"569837":8950,"569516":8951,"1186058":8952,"11905":8953,"1191118":8954,"ĠAlNbRu":8955,"1187424":8956,"567505":8957,"1219339":8958,"ĠSSbPd":8959,"1224494":8960,"1217114":8961,"ĠMoAsP":8962,"12218":8963,"1221697":8964,"1221495":8965,"1188977":8966,"ĠPAgSnP":8967,"10667":8968,"ĠNYAl":8969,"11899":8970,"13270":8971,"ĠTiGaFe":8972,"11515":8973,"ĠYCdPd":8974,"1670":8975,"571406":8976,"1186033":8977,"1186030":8978,"1105836":8979,"1188042":8980,"1215437":8981,"865520":8982,"1102436":8983,"ĠNAlTi":8984,"1228988":8985,"21321":8986,"ĠSeSbIr":8987,"31019":8988,"607139":8989,"2168":8990,"21613":8991,"862715":8992,"24721":8993,"1216329":8994,"1185931":8995,"28916":8996,"1184026":8997,"AuCuZn":8998,"865649":8999,"1104019":9000,"754434":9001,"1104388":9002,"1545":9003,"22682":9004,"27840":9005,"861626":9006,"1219328":9007,"542449":9008,"684710":9009,"1017987":9010,"971673":9011,"1227319":9012,"HfRhAl":9013,"13447":9014,"1077959":9015,"669311":9016,"AlFeY":9017,"555280":9018,"864758":9019,"29266":9020,"1226371":9021,"542909":9022,"1225751":9023,"CaPdCd":9024,"862260":9025,"863744":9026,"570562":9027,"569007":9028,"1178763":9029,"568516":9030,"562100":9031,"1094136":9032,"1227290":9033,"1069841":9034,"1096861":9035,"1084753":9036,"767208":9037,"seventh":9038,"1095024":9039,"1203253":9040,"1064497":9041,"1232213":9042,"612740":9043,"623511":9044,"1182885":9045,"1106162":9046,"0062":9047,"2123":9048,"2156":9049,"2674":9050,"340":9051,"399":9052,"646":9053,"7529":9054,"912":9055,"VH":9056,"VZn":9057,"YScS":9058,"ĠCub":9059,"ĠCFe":9060,"ĠInRb":9061,"âĤĦâĤģ":9062,"ĠTiSnRh":9063,"ĠNiMo":9064,"AlW":9065,"ĠPdY":9066,"20074":9067,"FeTc":9068,"FeCoSi":9069,"ĠYFe":9070,"ĠTaTiFe":9071,"ĠRhCa":9072,"TiTa":9073,"TiPtSi":9074,"ĠAsMn":9075,"NiIr":9076,"NiOs":9077,"1012":9078,"TeCl":9079,"ĠMnCr":9080,"ĠNaSr":9081,"121218":9082,"1212463":9083,"ZnCu":9084,"MoAlGe":9085,"ZrZn":9086,"ZrCrFe":9087,"HfRuSi":9088,"AgSbSe":9089,"6750":9090,"CoRh":9091,"RuSbSe":9092,"1182":9093,"1181":9094,"TaCoSb":9095,"ĠTcSb":9096,"5567":9097,"1667":9098,"1634":9099,"16852":9100,"ĠRbIn":9101,"ĠRbCo":9102,"2285":9103,"ĠOsHf":9104,"CrC":9105,"CrHfSi":9106,"15221":9107,"15698":9108,"MnIn":9109,"MnCl":9110,"MnZnN":9111,"21965":9112,"21400":9113,"4773":9114,"23167":9115,"572758":9116,"6273":9117,"TcFe":9118,"24155":9119,"ReS":9120,"5605":9121,"5684":9122,"NaSr":9123,"29465":9124,"4822":9125,"13456":9126,"9910":9127,"9921":9128,"2782":9129,"27666":9130,"31103":9131,"31459":9132,"31430":9133,"1200062":9134,"11055":9135,"11048":9136,"11027":9137,"12196":9138,"1181094":9139,"12246":9140,"12278":9141,"temperature":9142,"10269":9143,"569170":9144,"1186115":9145,"1194773":9146,"ĠTaTeCl":9147,"1187969":9148,"1219237":9149,"1217078":9150,"30866":9151,"10808":9152,"ĠTiGeRu":9153,"ĠCoSbTa":9154,"1188303":9155,"11238":9156,"1078331":9157,"10682":9158,"ĠSInCu":9159,"570459":9160,"1189340":9161,"12779":9162,"1018050":9163,"1077803":9164,"30373":9165,"ĠTeSnPb":9166,"29667":9167,"1186067":9168,"972204":9169,"979751":9170,"866213":9171,"1215307":9172,"1228900":9173,"TiPdGe":9174,"1868":9175,"18614":9176,"1023900":9177,"1008274":9178,"1008626":9179,"555853":9180,"15556":9181,"TiMoTc":9182,"YRhIn":9183,"22309":9184,"867345":9185,"16911":9186,"YCuSi":9187,"ĠTeInHg":9188,"559676":9189,"1209828":9190,"CaPtP":9191,"ĠCuSnPd":9192,"28860":9193,"1102342":9194,"1102395":9195,"1226015":9196,"1205390":9197,"1095440":9198,"1067974":9199,"568636":9200,"28246":9201,"865045":9202,"19954":9203,"9897":9204,"24237":9205,"865640":9206,"PtGaZr":9207,"1187812":9208,"14018":9209,"1219356":9210,"1096986":9211,"1100766":9212,"1215724":9213,"542615":9214,"TiPN":9215,"865144":9216,"AlCuSc":9217,"571262":9218,"7234":9219,"1095294":9220,"971788":9221,"18254":9222,"21477":9223,"974990":9224,"1189633":9225,"570578":9226,"ĠAlGaNi":9227,"ĠAlGaCo":9228,"1198803":9229,"690772":9230,"31493":9231,"1061769":9232,"1069815":9233,"983509":9234,"1223996":9235,"1079585":9236,"1185041":9237,"1190110":9238,"1206486":9239,"505363":9240,"540625":9241,"1197755":9242,"752947":9243,"ĠCubane":9244,"1212187":9245,"1182452":9246,"1181961":9247,"627397":9248,"2861":9249,"2434":9250,"389":9251,"3432":9252,"5103":9253,"712":9254,"933":9255,"904":9256,"CAs":9257,"PSi":9258,"PRh":9259,"WFe":9260,"YNiGa":9261,"ĠTiSn":9262,"AlC":9263,"ĠPdPtAu":9264,"ĠHfV":9265,"ĠZrTiN":9266,"2072":9267,"2095":9268,"20196":9269,"20792":9270,"20436":9271,"ĠBain":9272,"FeMn":9273,"FeNiSb":9274,"SiGe":9275,"ĠTaTiMn":9276,"TiTaMn":9277,"PdRh":9278,"PtPdAu":9279,"1032":9280,"TeP":9281,"ĠMnCdS":9282,"GaTa":9283,"ĠNaV":9284,"ĠNaCa":9285,"1231":9286,"12139":9287,"ZnRe":9288,"CuAs":9289,"CuOs":9290,"ĠRuH":9291,"ĠRuCl":9292,"ĠKCu":9293,"ZrSb":9294,"ZrTiN":9295,"SnC":9296,"SnPS":9297,"HfRuGe":9298,"AgMo":9299,"AgSbS":9300,"AgInSe":9301,"542339":9302,"ĠEss":9303,"4359":9304,"RuW":9305,"RuAsP":9306,"963":9307,"IrSbS":9308,"11800":9309,"ĠPbNi":9310,"ĠPbBi":9311,"AuS":9312,"TaCr":9313,"TaRhSi":9314,"ScNiSi":9315,"ScRuSi":9316,"ScNiSb":9317,"ScPdSi":9318,"16226":9319,"ĠReTi":9320,"0528":9321,"ĠRbZn":9322,"ĠRbMnAs":9323,"22692":9324,"22795":9325,"CaMo":9326,"CaRb":9327,"MnBi":9328,"MnCoSi":9329,"MnCdS":9330,"ĠTlV":9331,"8613":9332,"4628":9333,"23229":9334,"23162":9335,"23759":9336,"23295":9337,"577":9338,"57289":9339,"7443":9340,"7581":9341,"SrY":9342,"OsCu":9343,"OsAu":9344,"1943":9345,"1907":9346,"19717":9347,"HgP":9348,"HgTl":9349,"NaH":9350,"NaCa":9351,"685048":9352,"TlSr":9353,"TlHg":9354,"630528":9355,"2984":9356,"ĠUpper":9357,"1407":9358,"2654":9359,"9916":9360,"991900":9361,"27628":9362,"eneite":9363,"9823":9364,"RbZn":9365,"RbMnAs":9366,"RbSrCl":9367,"12007":9368,"CsCu":9369,"10911":9370,"1095302":9371,"ĠTiAlPd":9372,"12220":9373,"1221007":9374,"ĠTiSiPd":9375,"ĠTiSiOs":9376,"1216501":9377,"1216430":9378,"10769":9379,"1071032":9380,"ĠVSiRu":9381,"122059":9382,"1220151":9383,"569857":9384,"1186152":9385,"1192984":9386,"1018948":9387,"ĠTaGeRu":9388,"567525":9389,"1219466":9390,"1219928":9391,"1219266":9392,"1224867":9393,"1224809":9394,"1221672":9395,"30893":9396,"10021":9397,"1064359":9398,"1186973":9399,"570690":9400,"ĠTiZnCu":9401,"1189791":9402,"1189774":9403,"974558":9404,"30371":9405,"1025167":9406,"1224342":9407,"973904":9408,"1218055":9409,"CoNiGa":9410,"9791":9411,"865507":9412,"2128":9413,"1246068":9414,"866187":9415,"1215315":9416,"1215357":9417,"30482":9418,"10292":9419,"ĠScNiSb":9420,"1551":9421,"1199056":9422,"CrFeAs":9423,"2798":9424,"27902":9425,"ScCuSi":9426,"ĠPKTeP":9427,"CaNiIn":9428,"ZrSiSe":9429,"FeCoGa":9430,"ĠTeMnCd":9431,"CaPtIn":9432,"1102324":9433,"1025248":9434,"1067758":9435,"1067933":9436,"8490":9437,"570641":9438,"865680":9439,"1102080":9440,"1224247":9441,"ĠHfZrN":9442,"1219515":9443,"1187233":9444,"HfZrN":9445,"1191413":9446,"2784":9447,"1224798":9448,"867821":9449,"684799":9450,"684731":9451,"27607":9452,"1215779":9453,"ZrAlCo":9454,"7068":9455,"1190136":9456,"1013526":9457,"MnZnTe":9458,"29055":9459,"1087497":9460,"1102900":9461,"ĠNbHS":9462,"1084805":9463,"1077440":9464,"6432":9465,"541656":9466,"570560":9467,"1025039":9468,"568263":9469,"961659":9470,"696673":9471,"1105044":9472,"1228753":9473,"541155":9474,"1106288":9475,"1106022":9476,"610517":9477,"1025874":9478,"1012435":9479,"38970":9480,"ĠBainite":9481,"ĠEsseneite":9482,"572892":9483,"2634":9484,"385":9485,"4076":9486,"580":9487,"667":9488,"633":9489,"6428":9490,"9964":9491,"9561":9492,"KIn":9493,"SC":9494,"VSb":9495,"WFeP":9496,"YCoGe":9497,"YPtSi":9498,"ĠNiH":9499,"ĠZrCo":9500,"ĠZrFeSb":9501,"2079":9502,"20139":9503,"20723":9504,"20661":9505,"20937":9506,"ĠNbMoW":9507,"ĠMoWSe":9508,"ĠMoNbW":9509,"ĠScTaFe":9510,"TiNbN":9511,"ĠAsCl":9512,"InC":9513,"InGaS":9514,"AsC":9515,"8071":9516,"ĠCrSnRh":9517,"PtC":9518,"ĠSbZn":9519,"ĠMnFe":9520,"ĠMnCo":9521,"GeCl":9522,"12120":9523,"12972":9524,"121069":9525,"ZnAg":9526,"ZnSnAs":9527,"CuCrS":9528,"ĠKSi":9529,"ĠKNa":9530,"MoNbW":9531,"ZrPt":9532,"ZrMn":9533,"ZrFeSb":9534,"HfFeSb":9535,"HfCoAl":9536,"CoMoSi":9537,"CoVSb":9538,"RuPd":9539,"961652":9540,"1169":9541,"1170":9542,"1114":9543,"11687":9544,"NbNiAs":9545,"NbFeSi":9546,"AuGe":9547,"ScCl":9548,"ScNiAl":9549,"ScTaFe":9550,"5557":9551,"5587":9552,"5538":9553,"555410":9554,"558071":9555,"22862":9556,"CaN":9557,"CaPtGe":9558,"1573":9559,"1572":9560,"15339":9561,"MnZnS":9562,"MnWN":9563,"ĠTlIn":9564,"CdSe":9565,"CdAu":9566,"CdSiN":9567,"217":9568,"2146":9569,"8629":9570,"4022":9571,"PbC":9572,"PbSi":9573,"065":9574,"ĠCsZn":9575,"23209":9576,"23299":9577,"5725":9578,"5701":9579,"1954":9580,"1918":9581,"244":9582,"2565":9583,"HgAl":9584,"6442":9585,"18504":9586,"TlAs":9587,"4978":9588,"29026":9589,"7608":9590,"13852":9591,"9767":9592,"9721":9593,"9986":9594,"991114":9595,"27838":9596,"30555":9597,"28229":9598,"31472":9599,"RbS":9600,"1207608":9601,"CsZn":9602,"1182146":9603,"12165":9604,"1216290":9605,"10712":9606,"10781":9607,"ĠVSiOs":9608,"1220335":9609,"1220475":9610,"1220099":9611,"10264":9612,"1079172":9613,"1079574":9614,"569436":9615,"569594":9616,"1186127":9617,"11912":9618,"11944":9619,"867141":9620,"1187694":9621,"567278":9622,"12158":9623,"1219292":9624,"1224502":9625,"1224484":9626,"1224886":9627,"1221793":9628,"22240":9629,"1018107":9630,"1018807":9631,"1080121":9632,"1080459":9633,"1188102":9634,"ĠFeSiW":9635,"ĠScAlRh":9636,"ĠVCoSb":9637,"862791":9638,"862694":9639,"865501":9640,"865506":9641,"568745":9642,"30596":9643,"30574":9644,"30536":9645,"29639":9646,"973089":9647,"1215400":9648,"865554":9649,"21273":9650,"21235":9651,"1215524":9652,"1215561":9653,"10455":9654,"10445":9655,"1228983":9656,"21021":9657,"18654":9658,"27467":9659,"30792":9660,"12259":9661,"1206157":9662,"1025375":9663,"ĠSMnZn":9664,"1208557":9665,"1208239":9666,"755633":9667,"1558":9668,"1217250":9669,"YRhZn":9670,"1226108":9671,"1104074":9672,"YPdGe":9673,"2790":9674,"11201":9675,"16358":9676,"CaNiGe":9677,"850049":9678,"1883":9679,"19855":9680,"1187952":9681,"862711":9682,"1025573":9683,"CaHgSn":9684,"567752":9685,"1070151":9686,"28353":9687,"1215971":9688,"1226718":9689,"1183654":9690,"865650":9691,"ĠHfZrW":9692,"1078012":9693,"ĠCaBiAu":9694,"HfZrW":9695,"ĠMnGaFe":9696,"1104372":9697,"22642":9698,"1404":9699,"505528":9700,"18063":9701,"22481":9702,"684798":9703,"1218327":9704,"1103176":9705,"1057273":9706,"HfRhGe":9707,"865840":9708,"865878":9709,"1079600":9710,"30952":9711,"ZrNiH":9712,"1106227":9713,"1077978":9714,"972373":9715,"864754":9716,"11578":9717,"1196514":9718,"1206374":9719,"1224823":9720,"ĠGaGePt":9721,"NbRuP":9722,"971754":9723,"1077453":9724,"32913":9725,"1194073":9726,"1102167":9727,"1225059":9728,"867922":9729,"784631":9730,"966800":9731,"IrRhAl":9732,"574338":9733,"23870":9734,"1103310":9735,"1212435":9736,"1147746":9737,"961653":9738,"867264":9739,"27513":9740,"1220009":9741,"ĠZnCdAu":9742,"956096":9743,"1226445":9744,"1210567":9745,"1078326":9746,"1079042":9747,"557643":9748,"1224067":9749,"1070391":9750,"990232":9751,"1190583":9752,"646824":9753,"38511":9754,"667294":9755,"1210697":9756,"555763":9757,"1473":9758,"2699":9759,"380":9760,"507":9761,"582":9762,"650":9763,"7524":9764,"879":9765,"8219":9766,"948":9767,"KNi":9768,"KZnAs":9769,"SCuS":9770,"VMnAs":9771,"ĠSAu":9772,"ĠNW":9773,"ĠPMoP":9774,"ĠInHg":9775,"ĠInBiSe":9776,"ĠHfScSi":9777,"ĠZrTiS":9778,"2089":9779,"2056":9780,"20132":9781,"20935":9782,"20536":9783,"FeOs":9784,"ĠSeSbPt":9785,"ĠYV":9786,"ĠTaCr":9787,"ĠTaNbMo":9788,"TiRuSi":9789,"TiIrSi":9790,"ĠZnSnP":9791,"InSb":9792,"AsSb":9793,"NiN":9794,"ĠGeGaGe":9795,"ĠCoBi":9796,"ĠFeCoSb":9797,"PtCu":9798,"10939":9799,"109785":9800,"ĠSrSnP":9801,"ĠAgMo":9802,"1266":9803,"1237":9804,"121223":9805,"12699":9806,"RhNi":9807,"RhSbS":9808,"ZnSnP":9809,"CuW":9810,"CuPd":9811,"ZrV":9812,"ZrFe":9813,"ZrIrAs":9814,"SnCu":9815,"SnHf":9816,"HfMnAl":9817,"HfOsSi":9818,"HfNiSb":9819,"HfWSi":9820,"HfMoGe":9821,"HfTiFe":9822,"5408":9823,"5421":9824,"ĠBiPt":9825,"IrBiS":9826,"IrCuZn":9827,"11466":9828,"11814":9829,"11513":9830,"NbFe":9831,"NbIn":9832,"NbNiSi":9833,"NbGeAs":9834,"6903":9835,"TaMoS":9836,"TaMnSi":9837,"TaPtSi":9838,"5054":9839,"ScCo":9840,"ScAlGe":9841,"ScPtGe":9842,"ScNiGa":9843,"ScCrMn":9844,"5563":9845,"1602":9846,"2210":9847,"22204":9848,"22444":9849,"22817":9850,"CrOs":9851,"CrRe":9852,"CrZrAl":9853,"CaAl":9854,"1521":9855,"15700":9856,"15656":9857,"15651":9858,"ĠTlNi":9859,"BiSbTe":9860,"8621":9861,"8630":9862,"4771":9863,"Ġmonox":9864,"ĠCsV":9865,"ĠCsAs":9866,"ĠCsAu":9867,"4667":9868,"234":9869,"23714":9870,"23214":9871,"SrHfN":9872,"SrAgAl":9873,"OsFe":9874,"OsSbS":9875,"6615":9876,"4560":9877,"656615":9878,"1950":9879,"HgPb":9880,"684560":9881,"7250":9882,"4131":9883,"1874":9884,"TlCu":9885,"TlBi":9886,"632319":9887,"639755":9888,"1321":9889,"617291":9890,"8712":9891,"906903":9892,"3245":9893,"ĠAlTiCu":9894,"2667":9895,"2642":9896,"9922":9897,"17813":9898,"30092":9899,"30479":9900,"28800":9901,"RbPbCl":9902,"120279":9903,"1105850":9904,"CsAg":9905,"1181237":9906,"10940":9907,"10977":9908,"ĠTiAlIr":9909,"11445":9910,"1216867":9911,"1216296":9912,"1216463":9913,"11609":9914,"1220089":9915,"10286":9916,"1183232":9917,"1183158":9918,"1186137":9919,"1186142":9920,"11958":9921,"1198712":9922,"867156":9923,"867928":9924,"1187464":9925,"1187208":9926,"1187432":9927,"1187095":9928,"1215336":9929,"1215627":9930,"1219462":9931,"1224871":9932,"1224331":9933,"1224401":9934,"1224495":9935,"1217229":9936,"1217228":9937,"1217093":9938,"1221413":9939,"22275":9940,"1188159":9941,"ĠNZrSc":9942,"ĠSiPH":9943,"ĠCdAsPt":9944,"ĠBiTeIr":9945,"ĠCrTaN":9946,"1078544":9947,"10009":9948,"ĠNTaCr":9949,"1186933":9950,"1186902":9951,"ĠScGaRh":9952,"ĠScGaRu":9953,"ĠSeBiPt":9954,"1184804":9955,"1184548":9956,"10307":9957,"1189474":9958,"1189342":9959,"ĠTeBiIr":9960,"1007976":9961,"862691":9962,"862679":9963,"862630":9964,"974435":9965,"ĠZrAsIr":9966,"ĠClKNa":9967,"568476":9968,"30595":9969,"1224306":9970,"1224346":9971,"ĠTeSnBi":9972,"571555":9973,"571424":9974,"571537":9975,"1186040":9976,"1207421":9977,"1207893":9978,"1105851":9979,"972895":9980,"1215429":9981,"865586":9982,"1220396":9983,"1220392":9984,"1220390":9985,"1009130":9986,"866218":9987,"1103248":9988,"1215346":9989,"10294":9990,"10297":9991,"1029921":9992,"ĠSSnPb":9993,"1215586":9994,"ĠPSiP":9995,"1102836":9996,"1102732":9997,"1102658":9998,"1228908":9999,"CuAlS":10000,"1225811":10001,"1025311":10002,"1247450":10003,"15514":10004,"980109":10005,"980665":10006,"1228126":10007,"1228713":10008,"1228701":10009,"HfIrGe":10010,"865496":10011,"1217293":10012,"1217270":10013,"1104825":10014,"1104406":10015,"YPdGa":10016,"541837":10017,"867352":10018,"SiPN":10019,"YAgS":10020,"YAgSn":10021,"31002":10022,"983850":10023,"ĠSeSnPt":10024,"ĠCdPCl":10025,"ĠAlSiMo":10026,"FeCoSb":10027,"NbPSe":10028,"1184721":10029,"1079951":10030,"28878":10031,"ĠSCaTi":10032,"TaFeGe":10033,"1102307":10034,"1102348":10035,"ScHfSi":10036,"23269":10037,"HfPtAl":10038,"1205322":10039,"1095449":10040,"ĠSbSbPd":10041,"849060":10042,"567769":10043,"568380":10044,"PdAgHf":10045,"1227330":10046,"28256":10047,"28304":10048,"17146":10049,"1103031":10050,"24289":10051,"865654":10052,"504425":10053,"ĠHfZrS":10054,"ĠHfZrTc":10055,"HfZrTc":10056,"ĠMnGaIr":10057,"1401":10058,"1179802":10059,"1215268":10060,"18026":10061,"627601":10062,"977383":10063,"1219323":10064,"PtCdAsPt":10065,"27647":10066,"1101789":10067,"YPtSn":10068,"542613":10069,"1218362":10070,"1218359":10071,"1023940":10072,"1103196":10073,"1183471":10074,"1224488":10075,"865948":10076,"1079695":10077,"PbTePbS":10078,"669546":10079,"1019576":10080,"1013558":10081,"1095643":10082,"1224950":10083,"31383":10084,"1102833":10085,"1102841":10086,"16842":10087,"1225731":10088,"9882":10089,"1095253":10090,"568018":10091,"1087488":10092,"1087486":10093,"33018":10094,"1218893":10095,"1179656":10096,"1105778":10097,"974943":10098,"541609":10099,"ĠAlGaIr":10100,"568971":10101,"ĠPCuSnP":10102,"ĠVGaRu":10103,"1246392":10104,"ĠGaCuRh":10105,"1227418":10106,"1194643":10107,"ZrWCr":10108,"862485":10109,"1071127":10110,"1207843":10111,"1103317":10112,"20868":10113,"ĠSeGaMo":10114,"1219457":10115,"1228032":10116,"571383":10117,"1228562":10118,"1018812":10119,"542239":10120,"ĠTiInPd":10121,"1197242":10122,"1105040":10123,"972941":10124,"945077":10125,"685149":10126,"995122":10127,"1188512":10128,"684969":10129,"1217087":10130,"1208554":10131,"1247199":10132,"25469":10133,"619071":10134,"1070755":10135,"1077599":10136,"1066718":10137,"560588":10138,"1224642":10139,"510321":10140,"1076981":10141,"1093991":10142,"1097859":10143,"1212231":10144,"556395":10145,"Ġmonoxide":10146,"1202791":10147,"3539":10148,"3804":10149,"5862":10150,"5544":10151,"5541":10152,"5818":10153,"6856":10154,"6465":10155,"7549":10156,"7162":10157,"877":10158,"907":10159,"9889":10160,"9961":10161,"9857":10162,"KSbSe":10163,"KCaCl":10164,"STl":10165,"VMnP":10166,"YCoSi":10167,"YReN":10168,"ĠNSb":10169,"ĠPTa":10170,"ĠAlCN":10171,"ĠHfTc":10172,"20192":10173,"20473":10174,"ĠGaSiRu":10175,"FeNiAl":10176,"FeMoSi":10177,"ĠNbCoTe":10178,"ĠYMn":10179,"TiRhSi":10180,"TiMnN":10181,"PdZrAl":10182,"InGe":10183,"ĠGeTa":10184,"8053":10185,"8045":10186,"1047":10187,"105708":10188,"10159":10189,"10968":10190,"ĠMnNiSb":10191,"ĠSrPdSn":10192,"GaH":10193,"12464":10194,"12456":10195,"CuFe":10196,"SnPd":10197,"SnHg":10198,"HfRhSi":10199,"HfMnSi":10200,"HfMnGe":10201,"6743":10202,"6760":10203,"6763":10204,"3304":10205,"5486":10206,"5423":10207,"CoRe":10208,"4316":10209,"4364":10210,"RuSbS":10211,"11713":10212,"NbSeS":10213,"NbCoTe":10214,"NbMoSi":10215,"NbCoSb":10216,"4276":10217,"5045":10218,"5581":10219,"2242":10220,"2231":10221,"22853":10222,"CrCu":10223,"CaPdSn":10224,"15895":10225,"MnPt":10226,"MnFeSi":10227,"ĠTlCu":10228,"CdC":10229,"BiPd":10230,"21895":10231,"8666":10232,"8634":10233,"ĠCsTi":10234,"028":10235,"571079":10236,"753304":10237,"SrFe":10238,"SrNiSi":10239,"SrPdSn":10240,"SrZrS":10241,"OsNiAl":10242,"OsSbTe":10243,"OsAsP":10244,"669692":10245,"1912":10246,"2447":10247,"ReCo":10248,"4485":10249,"HgAs":10250,"HgSn":10251,"604":10252,"NaCrS":10253,"NaSbS":10254,"NaSbSe":10255,"NaFeAs":10256,"417":10257,"6490":10258,"TlV":10259,"4990":10260,"29174":10261,"29072":10262,"34202":10263,"4840":10264,"13472":10265,"9268":10266,"9942":10267,"9985":10268,"3896":10269,"30557":10270,"30028":10271,"28424":10272,"31460":10273,"11045":10274,"1105716":10275,"CsCaCl":10276,"CsSrCl":10277,"10970":10278,"12277":10279,"1216173":10280,"1216148":10281,"ĠNbSeS":10282,"1220436":10283,"1220413":10284,"1220748":10285,"10288":10286,"10284":10287,"10261":10288,"1183503":10289,"1183155":10290,"1183187":10291,"569280":10292,"569247":10293,"569708":10294,"ĠHfAlRu":10295,"1187430":10296,"1187434":10297,"1187531":10298,"1187427":10299,"ĠFeSbRh":10300,"1219296":10301,"1219800":10302,"1219258":10303,"1224850":10304,"1224978":10305,"1217024":10306,"1221555":10307,"1221431":10308,"30834":10309,"30826":10310,"1080518":10311,"ĠZnPPd":10312,"11887":10313,"1188762":10314,"ĠTiPN":10315,"1078100":10316,"1078782":10317,"10033":10318,"1223802":10319,"10654":10320,"1068053":10321,"ĠCoNbSb":10322,"10877":10323,"10312":10324,"12780":10325,"ĠTiGaRu":10326,"ĠCdTeSe":10327,"ĠYGePt":10328,"862695":10329,"862604":10330,"865093":10331,"30592":10332,"1224386":10333,"29618":10334,"973676":10335,"1105077":10336,"12383":10337,"1218052":10338,"1188079":10339,"15669":10340,"1215491":10341,"1229118":10342,"1229101":10343,"979259":10344,"1069139":10345,"1220377":10346,"1009152":10347,"866094":10348,"1103213":10349,"1103434":10350,"1215302":10351,"1215366":10352,"1029330":10353,"1215529":10354,"999052":10355,"21096":10356,"30708":10357,"1225835":10358,"1206152":10359,"1206853":10360,"1206898":10361,"1208235":10362,"1208400":10363,"755169":10364,"TiMoRe":10365,"1228801":10366,"865448":10367,"865490":10368,"865494":10369,"865495":10370,"865499":10371,"FeSbSe":10372,"FeSbTe":10373,"1193848":10374,"20001":10375,"ScCuGa":10376,"CoPSe":10377,"11207":10378,"864980":10379,"864909":10380,"864916":10381,"864953":10382,"31040":10383,"983445":10384,"PdAuZn":10385,"1217180":10386,"1217191":10387,"1078696":10388,"RuIrAl":10389,"ĠCdPPd":10390,"1218558":10391,"1103256":10392,"571038":10393,"1184755":10394,"21681":10395,"ĠHfZnCu":10396,"1079946":10397,"1102373":10398,"CuGaSe":10399,"1025258":10400,"5221":10401,"ĠMnAlRu":10402,"ĠNbZnRh":10403,"1185935":10404,"570689":10405,"28910":10406,"865026":10407,"1078813":10408,"11474":10409,"972236":10410,"1215949":10411,"1103012":10412,"1226716":10413,"1226728":10414,"1183641":10415,"616026":10416,"ĠTiCuNi":10417,"865615":10418,"SrPtSn":10419,"19740":10420,"504825":10421,"975079":10422,"FeAsTe":10423,"ĠCuSbRh":10424,"1104010":10425,"567996":10426,"985829":10427,"1191713":10428,"14017":10429,"989613":10430,"1217357":10431,"1179094":10432,"861656":10433,"861641":10434,"1224765":10435,"567313":10436,"864831":10437,"YPtIn":10438,"1245699":10439,"1245848":10440,"MoRhPd":10441,"HfRhGa":10442,"865989":10443,"865842":10444,"1190478":10445,"1187444":10446,"17875":10447,"571266":10448,"1077942":10449,"555293":10450,"16044":10451,"1207193":10452,"1224840":10453,"1028441":10454,"1226323":10455,"1102926":10456,"861983":10457,"569683":10458,"1103618":10459,"1179693":10460,"1066445":10461,"1187511":10462,"865232":10463,"568936":10464,"1226290":10465,"612701":10466,"ZrRuP":10467,"18561":10468,"31277":10469,"ĠZrSnPd":10470,"974411":10471,"1079842":10472,"1104956":10473,"1213747":10474,"1069811":10475,"1078242":10476,"1223820":10477,"867753":10478,"867779":10479,"672645":10480,"1226933":10481,"1228524":10482,"1009657":10483,"1102288":10484,"1197287":10485,"27195":10486,"862871":10487,"685146":10488,"1181926":10489,"1245445":10490,"866375":10491,"1189957":10492,"991656":10493,"570112":10494,"554405":10495,"554134":10496,"685605":10497,"646507":10498,"754954":10499,"985782":10500,"1057086":10501,"676038":10502,"558110":10503,"866659":10504,"649033":10505,"1714":10506,"2164":10507,"3498":10508,"4500":10509,"5090":10510,"5168":10511,"620":10512,"623":10513,"6444":10514,"616481":10515,"720":10516,"722":10517,"7422":10518,"810":10519,"996":10520,"922":10521,"970":10522,"918":10523,"HN":10524,"KN":10525,"KV":10526,"KTiS":10527,"PCa":10528,"YAlGe":10529,"YCoAl":10530,"hl":10531,"ÃĮ":10532,"Ġchl":10533,"orate":10534,"âĢ¦":10535,"ĠNPCa":10536,"ĠInGaAs":10537,"ĠAlPS":10538,"ĠRÃĮ":10539,"ĠTiFeSb":10540,"ĠTiVSe":10541,"AlTi":10542,"AlAg":10543,"AlCd":10544,"ĠHfSeS":10545,"ĠHfScGe":10546,"ĠHfTiRu":10547,"ĠCaGaN":10548,"ĠPtTl":10549,"ĠGaH":10550,"FeSn":10551,"ĠVCrFe":10552,"ĠNbW":10553,"ĠNbFeTe":10554,"SeTa":10555,"ĠCuMn":10556,"ĠTaWSe":10557,"ĠTaTiTe":10558,"ĠTaTiRu":10559,"TiMoS":10560,"TiFeSi":10561,"TiTaRu":10562,"ĠZnGe":10563,"ĠZnRu":10564,"ĠZnHgTe":10565,"ĠAsHg":10566,"InGaAs":10567,"NiCr":10568,"NiMn":10569,"ĠTeHf":10570,"PtSeS":10571,"PtSnS":10572,"PtYAl":10573,"ĠSbSrSn":10574,"1016":10575,"10678":10576,"10887":10577,"ĠMnRh":10578,"ĠMnCd":10579,"ĠSrCuSi":10580,"GaHf":10581,"ĠNaCaTl":10582,"ĠNaSrHg":10583,"GeZn":10584,"SbBiSbTe":10585,"ĠAgSbSe":10586,"12106":10587,"12697":10588,"12678":10589,"12826":10590,"12627":10591,"RhPdZn":10592,"CuInSe":10593,"CuZrGe":10594,"tass":10595,"ĠKN":10596,"ĠKV":10597,"ĠKTi":10598,"ĠKTiS":10599,"ZrTi":10600,"ZrMnSi":10601,"ZrNbP":10602,"ZrFeAs":10603,"ZrMnFe":10604,"HfSiS":10605,"HfMoAl":10606,"HfTiRu":10607,"AgPb":10608,"6727":10609,"541062":10610,"CoCr":10611,"RuAu":10612,"RuNiGa":10613,"9617":10614,"1139":10615,"11567":10616,"11824":10617,"NbWS":10618,"NbInS":10619,"NbFeTe":10620,"TaNiAs":10621,"TaInS":10622,"TaMoNi":10623,"ScPtZn":10624,"5592":10625,"16501":10626,"16491":10627,"ĠRbGe":10628,"ĠRbNa":10629,"2295":10630,"22691":10631,"22258":10632,"22631":10633,"CrCo":10634,"CrMnSi":10635,"CaGaN":10636,"MnNiP":10637,"ĠTlPt":10638,"7187":10639,"BiN":10640,"BiCl":10641,"21710":10642,"861672":10643,"527":10644,"2371":10645,"23157":10646,"572":10647,"7582":10648,"SrZr":10649,"SrVN":10650,"SrCuSi":10651,"OsCo":10652,"8308":10653,"8300":10654,"1982":10655,"19728":10656,"2418":10657,"24208":10658,"7908":10659,"7945":10660,"7918":10661,"ReCl":10662,"5603":10663,"8170":10664,"HgZnTe":10665,"603":10666,"NaCaTl":10667,"NaSrHg":10668,"7770":10669,"18670":10670,"TlSb":10671,"5841":10672,"29828":10673,"29487":10674,"29736":10675,"1379":10676,"14500":10677,"9040":10678,"3274":10679,"3276":10680,"32669":10681,"32868":10682,"ĠAlTiNi":10683,"3740":10684,"2650":10685,"17964":10686,"17639":10687,"30418":10688,"30086":10689,"28128":10690,"RbPb":10691,"1201":10692,"12088":10693,"12061":10694,"1209791":10695,"1208308":10696,"1205841":10697,"1102705":10698,"1101109":10699,"CsAuCl":10700,"1091415":10701,"ĠTiAlFe":10702,"ĠTiAlRu":10703,"12266":10704,"ĠTiSiPt":10705,"1216222":10706,"1216166":10707,"1216327":10708,"1216513":10709,"1216563":10710,"10755":10711,"ĠVSiTc":10712,"1220418":10713,"1220441":10714,"1220081":10715,"1220525":10716,"1220663":10717,"1183542":10718,"1079110":10719,"1079112":10720,"1079155":10721,"1079278":10722,"569175":10723,"ĠHfAlCu":10724,"ĠSrPPt":10725,"1187461":10726,"567484":10727,"567927":10728,"1215208":10729,"1215634":10730,"1215338":10731,"1215295":10732,"1215639":10733,"1219003":10734,"1219748":10735,"1219720":10736,"1224464":10737,"1224169":10738,"1224337":10739,"1224451":10740,"1224435":10741,"1224805":10742,"1224425":10743,"1224402":10744,"1217205":10745,"1217791":10746,"1217968":10747,"1221675":10748,"1221402":10749,"ĠZrGaCo":10750,"1080760":10751,"1080073":10752,"1188693":10753,"ĠCdAsPd":10754,"ĠRhAsP":10755,"1078464":10756,"1078107":10757,"1078729":10758,"1078402":10759,"1078767":10760,"1223834":10761,"1068300":10762,"ĠYInPd":10763,"ĠZrInPt":10764,"570801":10765,"PSOs":10766,"ĠSTiCr":10767,"ĠCoTeSe":10768,"ĠInPPd":10769,"11890":10770,"ĠYSnRh":10771,"1245417":10772,"862548":10773,"ĠNbAlOs":10774,"865960":10775,"865807":10776,"568402":10777,"1077939":10778,"1077470":10779,"1025161":10780,"1224377":10781,"29602":10782,"1207828":10783,"1207805":10784,"973983":10785,"1218034":10786,"1218026":10787,"CoNiAl":10788,"1188052":10789,"1188000":10790,"15657":10791,"1215412":10792,"1215462":10793,"1229100":10794,"1229090":10795,"979288":10796,"1069956":10797,"865569":10798,"865518":10799,"1220344":10800,"ĠSKBi":10801,"1246856":10802,"1246556":10803,"866219":10804,"1103123":10805,"1103826":10806,"1103235":10807,"1215371":10808,"1215382":10809,"ĠTaGaFe":10810,"1029531":10811,"1102534":10812,"1102603":10813,"1228909":10814,"1228913":10815,"27488":10816,"22904":10817,"1225676":10818,"MnAlTi":10819,"1206674":10820,"1206964":10821,"1206239":10822,"AlSiP":10823,"755988":10824,"ĠPotass":10825,"TiMoSb":10826,"1228758":10827,"865486":10828,"865472":10829,"1217254":10830,"YRhSi":10831,"11938":10832,"1193918":10833,"861935":10834,"1226441":10835,"SnPSe":10836,"CaCuGa":10837,"YPdIn":10838,"NiAlHf":10839,"977115":10840,"864988":10841,"31011":10842,"31055":10843,"1217967":10844,"1217923":10845,"16356":10846,"CaNiN":10847,"1217145":10848,"YCuTe":10849,"ĠTeCdHg":10850,"13911":10851,"ĠTaZnRu":10852,"1014252":10853,"ĠInAsP":10854,"1187920":10855,"1187921":10856,"ĠHfZnPd":10857,"28832":10858,"ĠCaSnRh":10859,"1216457":10860,"1025550":10861,"ScHfGe":10862,"12585":10863,"1226011":10864,"1095478":10865,"972042":10866,"1025294":10867,"1216612":10868,"1216683":10869,"849082":10870,"976236":10871,"1216347":10872,"1185099":10873,"1227335":10874,"1227096":10875,"1227463":10876,"CaAuIn":10877,"CaAuGe":10878,"865027":10879,"680339":10880,"YAuCd":10881,"972241":10882,"22154":10883,"SrPtP":10884,"1218931":10885,"ĠInAgSe":10886,"FeTiSb":10887,"674456":10888,"ĠVZnRu":10889,"TiNiGe":10890,"ĠMnGaRh":10891,"MoSiHf":10892,"7930":10893,"1184560":10894,"542730":10895,"505531":10896,"10564":10897,"1056486":10898,"1215275":10899,"862364":10900,"977347":10901,"18388":10902,"864839":10903,"1217418":10904,"684744":10905,"1100786":10906,"TiWTc":10907,"23193":10908,"542614":10909,"21525":10910,"866155":10911,"1023942":10912,"1217020":10913,"865810":10914,"865877":10915,"20145":10916,"21875":10917,"ScPdGe":10918,"31381":10919,"2402":10920,"570452":10921,"1221529":10922,"1077354":10923,"1102844":10924,"1216784":10925,"1184299":10926,"PdNiGe":10927,"1095240":10928,"29035":10929,"541885":10930,"1087485":10931,"1087487":10932,"637052":10933,"861908":10934,"1218865":10935,"29381":10936,"1206296":10937,"1238845":10938,"1238878":10939,"685155":10940,"ĠHfSnRu":10941,"1216913":10942,"865278":10943,"865234":10944,"ScPtSn":10945,"1192706":10946,"1246302":10947,"31294":10948,"568880":10949,"1207419":10950,"1207418":10951,"1227450":10952,"ĠAsPRh":10953,"1180961":10954,"1104167":10955,"1104974":10956,"8468":10957,"1220455":10958,"675590":10959,"1101092":10960,"571143":10961,"604914":10962,"1096832":10963,"1069533":10964,"540922":10965,"644500":10966,"1217815":10967,"1217821":10968,"1228043":10969,"1018891":10970,"542816":10971,"11598":10972,"1221395":10973,"556516":10974,"867507":10975,"866296":10976,"1218268":10977,"1246521":10978,"1245988":10979,"1195198":10980,"1188531":10981,"1194040":10982,"1103984":10983,"1225290":10984,"1247457":10985,"863261":10986,"1218586":10987,"676241":10988,"1208721":10989,"1068587":10990,"24517":10991,"568483":10992,"1219661":10993,"582549":10994,"540884":10995,"1097716":10996,"Ġchlorate":10997,"ĠZnGeRh":10998,"1067880":10999,"1210618":11000,"672706":11001,"961706":11002,"559278":11003,"ĠPotassium":11004,")(":11005,"262":11006,"263":11007,"2730":11008,"2152":11009,"369":11010,"358":11011,"3999":11012,"4889":11013,"4852":11014,"4824":11015,"509":11016,"5157":11017,"510285":11018,"6113":11019,"6969":11020,"6426":11021,"6400":11022,"6404":11023,"709":11024,"820":11025,"9124":11026,"9198":11027,"9538":11028,"9463":11029,"9225":11030,"KAuS":11031,"YPS":11032,"YAsSe":11033,"YCoIn":11034,"ca":11035,"Ġber":11036,"Ġboride":11037,"ĠNCu":11038,"ĠNCd":11039,"ĠPCuSi":11040,"lia":11041,"ĠAlGaP":11042,"ĠSiAgPt":11043,"ĠHfNbTc":11044,"ĠHfInPt":11045,"ĠZrNbAl":11046,"ĠZrNiSn":11047,"20083":11048,"20479":11049,"20838":11050,"FeNiS":11051,"FeNiAs":11052,"FeCoAs":11053,"ĠNbRuSb":11054,"ĠNbSnRu":11055,"SiMo":11056,"ĠTaFe":11057,"ĠTaTc":11058,"ĠTaTiNi":11059,"ĠScVRu":11060,"ĠScTaTc":11061,"TiZr":11062,"TiSeS":11063,"TiTaNi":11064,"ĠZnSnRh":11065,"ĠZnSnAs":11066,"AsTiZr":11067,"NiMo":11068,"NiMoP":11069,"ĠCoNiSe":11070,"yllia":11071,"PtAsP":11072,"10098":11073,"10866":11074,"10456":11075,"10441":11076,"ĠMnHg":11077,"ĠSrGa":11078,"ĠSrCu":11079,"ĠSrCaHg":11080,"SbAu":11081,"ĠAgSbS":11082,"1238":11083,"12221":11084,"1212189":11085,"121259":11086,"12537":11087,"12759":11088,"12962":11089,"RhPS":11090,"ZnNi":11091,"CuAg":11092,"CuZrAl":11093,"ĠKZr":11094,"ĠKCr":11095,"ĠKNbCl":11096,"MoFe":11097,"MoCoP":11098,"ZrGeS":11099,"ZrCuGa":11100,"ZrMnGa":11101,"ZrZnN":11102,"ZrPdSi":11103,"ZrIrAl":11104,"ZrTiAu":11105,"ZrVNi":11106,"ZrVW":11107,"ZrNbAl":11108,"ZrOsGe":11109,"HfCuAl":11110,"HfMnP":11111,"HfRuSb":11112,"HfNbTc":11113,"AgGaS":11114,"67233":11115,"CoFe":11116,"RuPtGa":11117,"RuCoGa":11118,"IrPt":11119,"IrCoAl":11120,"11928":11121,"11639":11122,"NbRuSb":11123,"NbIrGe":11124,"NbVP":11125,"4253":11126,"6987":11127,"TaCuS":11128,"TaCoGe":11129,"5065":11130,"0869":11131,"ScCoSi":11132,"ScPtSi":11133,"ScTlTe":11134,"ScVRu":11135,"ScTaTc":11136,"16495":11137,"16497":11138,"ĠReY":11139,"2261":11140,"22717":11141,"22295":11142,"CrBi":11143,"CrMnAl":11144,"CrMnP":11145,"CaRu":11146,"CaPS":11147,"CaRhSn":11148,"CaIrSi":11149,"CaCrN":11150,"CaHfN":11151,"CaGeN":11152,"15120":11153,"MnHg":11154,"MnCoAl":11155,"MnGaGe":11156,"CdGeP":11157,"8645":11158,"861507":11159,"4061":11160,"061":11161,"ĠCsK":11162,"ĠCsCo":11163,"ĠCsSrCl":11164,"7499":11165,"8276":11166,"9305":11167,"9391":11168,"SrMn":11169,"SrPdH":11170,"SrCaHg":11171,"OsCoAl":11172,"TcMnAl":11173,"1944":11174,"ReMn":11175,"8147":11176,"601326":11177,"NaTa":11178,"NaNbS":11179,"NaZnP":11180,"NaBiSe":11181,"18127":11182,"18104":11183,"4997":11184,"639910":11185,"2949":11186,"29156":11187,"29866":11188,"29804":11189,"29153":11190,"29073":11191,"3419":11192,"1374":11193,"13962":11194,"975065":11195,"8446":11196,"9254":11197,"32884":11198,"ĠAlTiCo":11199,"3602":11200,"9906":11201,"27630":11202,"982261":11203,"28339":11204,"31456":11205,"1204061":11206,"1203419":11207,"11008":11208,"11047":11209,"1101887":11210,"CsMo":11211,"10991":11212,"ĠTiAlOs":11213,"2337":11214,"23304":11215,"1216112":11216,"1216179":11217,"1216678":11218,"1216247":11219,"1216128":11220,"1216081":11221,"1216193":11222,"1216017":11223,"1216057":11224,"10716":11225,"1070869":11226,"ĠAlScCu":11227,"1220426":11228,"1220795":11229,"1220597":11230,"1220944":11231,"10274":11232,"1183456":11233,"1183837":11234,"1183246":11235,"1079863":11236,"1079508":11237,"569310":11238,"569267":11239,"ĠHfAlFe":11240,"ĠHfAlIr":11241,"1186233":11242,"1186117":11243,"1186162":11244,"11959":11245,"1191953":11246,"1192507":11247,"867137":11248,"867331":11249,"1187939":11250,"1187096":11251,"1187429":11252,"1187225":11253,"1187238":11254,"1215279":11255,"1215169":11256,"1215216":11257,"1215203":11258,"1215221":11259,"1215751":11260,"1215194":11261,"1219799":11262,"1219262":11263,"1224116":11264,"1224456":11265,"1224893":11266,"1217096":11267,"1217832":11268,"1217076":11269,"1217251":11270,"ĠZrAlRu":11271,"1221714":11272,"1221673":11273,"1221487":11274,"1221731":11275,"22267":11276,"22216":11277,"22287":11278,"1018802":11279,"1080495":11280,"1080509":11281,"ĠZnPPt":11282,"1188208":11283,"ĠSeInAg":11284,"1078231":11285,"1078756":11286,"1078708":11287,"ĠNTaZn":11288,"1223807":11289,"10688":11290,"1068653":11291,"1186988":11292,"ĠScAlIr":11293,"ĠScGeRh":11294,"ĠIbca":11295,"ĠHfSiSe":11296,"ĠHfSiRu":11297,"ĠAsTeRh":11298,"11350":11299,"10843":11300,"ĠTiZnCo":11301,"ĠTiZnIr":11302,"ĠRuSbHf":11303,"12783":11304,"13240":11305,"CaSiN":11306,"ĠAgPPd":11307,"ĠAlAsPt":11308,"865094":11309,"865898":11310,"568121":11311,"30570":11312,"30312":11313,"1025224":11314,"1025187":11315,"ĠTiNiSn":11316,"2960":11317,"29623":11318,"10596":11319,"1207463":11320,"1207079":11321,"ĠTiMoP":11322,"973053":11323,"973066":11324,"1105830":11325,"1218008":11326,"1218049":11327,"1218061":11328,"1218037":11329,"1218028":11330,"CoNiSe":11331,"CoNiSb":11332,"13314":11333,"15652":11334,"ĠScInPd":11335,"1215478":11336,"1215448":11337,"1215490":11338,"1229023":11339,"1229062":11340,"TiAlCr":11341,"865585":11342,"865591":11343,"ĠSiCoSi":11344,"1220347":11345,"1220382":11346,"1220364":11347,"1220318":11348,"28024":11349,"1009222":11350,"12466":11351,"1246504":11352,"866062":11353,"1103166":11354,"1103414":11355,"1215318":11356,"1215327":11357,"30493":11358,"1029799":11359,"1029246":11360,"1215533":11361,"1215575":11362,"ZrRhGa":11363,"ĠZrZnN":11364,"1102531":11365,"1102525":11366,"1102537":11367,"1102524":11368,"1228912":11369,"ĠMnZnTe":11370,"1225183":11371,"1206424":11372,"1025306":11373,"755263":11374,"12470":11375,"12473":11376,"1247294":11377,"980947":11378,"TiMoP":11379,"1228856":11380,"1228792":11381,"1199930":11382,"865442":11383,"YRhGe":11384,"20268":11385,"1104960":11386,"867319":11387,"977436":11388,"977578":11389,"YAgAl":11390,"11176":11391,"864990":11392,"31053":11393,"31081":11394,"1217959":11395,"1217987":11396,"850249":11397,"1217112":11398,"1217185":11399,"1217178":11400,"YCuAs":11401,"ĠCdPPt":11402,"1218335":11403,"1218331":11404,"1218330":11405,"1218414":11406,"NbRhP":11407,"13993":11408,"ĠAlSiRu":11409,"ĠYZnPd":11410,"697076":11411,"1103261":11412,"571035":11413,"ĠSeCuPd":11414,"ĠTeMnHg":11415,"1014244":11416,"1209130":11417,"1187911":11418,"ĠHNaPd":11419,"862721":11420,"862778":11421,"SrZnBi":11422,"20389":11423,"ĠVGeRu":11424,"1216450":11425,"1216453":11426,"1216440":11427,"1025557":11428,"1228888":11429,"1228894":11430,"1226006":11431,"1226013":11432,"SrCdGa":11433,"HfPtSi":11434,"1095443":11435,"1095465":11436,"1207394":11437,"1025220":11438,"1025269":11439,"1025279":11440,"1025272":11441,"TiCrAs":11442,"ĠSPRh":11443,"849083":11444,"976184":11445,"1214851":11446,"1214838":11447,"ĠNbZnRu":11448,"1185976":11449,"PtSiSe":11450,"1070152":11451,"570687":11452,"ĠNNaSi":11453,"HfSiSe":11454,"11338":11455,"22871":11456,"865048":11457,"1078884":11458,"IrPTe":11459,"19941":11460,"680731":11461,"YAuGe":11462,"SrAuIn":11463,"1215933":11464,"FeTeFe":11465,"RhAsTe":11466,"1103034":11467,"1183608":11468,"22150":11469,"SrPtIn":11470,"1102011":11471,"7801":11472,"FeTiP":11473,"PtZnPt":11474,"1219516":11475,"1187252":11476,"1078010":11477,"1078086":11478,"1078093":11479,"1078079":11480,"1078058":11481,"1078026":11482,"1221642":11483,"1221629":11484,"YInCu":11485,"TiNiSn":11486,"1187874":11487,"1187876":11488,"1425":11489,"RhPSe":11490,"23012":11491,"1178678":11492,"1217322":11493,"1217325":11494,"29752":11495,"1179173":11496,"570293":11497,"1215270":11498,"18021":11499,"ScNiGe":11500,"PtCdPt":11501,"867878":11502,"15819":11503,"865712":11504,"865707":11505,"865779":11506,"865768":11507,"ZrGeSb":11508,"1215715":11509,"1227346":11510,"1218380":11511,"1218329":11512,"1217040":11513,"1183450":11514,"1224496":11515,"1224408":11516,"1224481":11517,"865193":11518,"865876":11519,"1079623":11520,"1079641":11521,"7066":11522,"1190672":11523,"1095502":11524,"1095505":11525,"30931":11526,"ZrNiSn":11527,"1080033":11528,"TaTeCl":11529,"1019077":11530,"1013554":11531,"13020":11532,"1205965":11533,"1095603":11534,"1208257":11535,"1221515":11536,"1221513":11537,"1221591":11538,"1077351":11539,"1219943":11540,"1219924":11541,"1216724":11542,"1224841":11543,"34232":11544,"11560":11545,"1226375":11546,"NbGeSb":11547,"30147":11548,"30183":11549,"1068157":11550,"649479":11551,"1091395":11552,"541875":11553,"1183148":11554,"NbMoNi":11555,"CuInTe":11556,"861940":11557,"1218889":11558,"1105752":11559,"1105799":11560,"643273":11561,"1206920":11562,"541622":11563,"1226258":11564,"1025728":11565,"ĠSrCaS":11566,"1106367":11567,"1106301":11568,"18567":11569,"1225013":11570,"1226120":11571,"1216045":11572,"1194660":11573,"1101948":11574,"1104155":11575,"1104926":11576,"867901":11577,"983358":11578,"1029359":11579,"1029387":11580,"675510":11581,"SrCaS":11582,"604910":11583,"GeCCr":11584,"556225":11585,"1212900":11586,"1191026":11587,"1223908":11588,"ĠZnGaCo":11589,"1213756":11590,"976584":11591,"1079260":11592,"1245524":11593,"1245537":11594,"1018811":11595,"ĠSePRh":11596,"ĠZnCdPt":11597,"1246957":11598,"1246975":11599,"982870":11600,"1227562":11601,"1224560":11602,"581733":11603,"SrNiIn":11604,"1185042":11605,"924129":11606,"924130":11607,"995201":11608,"1184318":11609,"1194003":11610,"1078483":11611,"504772":11612,"864840":11613,"1217088":11614,"1019319":11615,"1215689":11616,"863250":11617,"984352":11618,"553973":11619,"862336":11620,"574138":11621,"1103757":11622,"1103724":11623,"1191625":11624,"1191644":11625,"3668":11626,"621960":11627,"1220742":11628,"1193397":11629,"505297":11630,"556742":11631,"1102743":11632,"982370":11633,"642845":11634,"1216519":11635,"1225993":11636,"ZrVCu":11637,"1246496":11638,"36988":11639,"611341":11640,"642644":11641,"640416":11642,"912440":11643,"Ġberyllia":11644,"1086669":11645,"1212597":11646,"672335":11647,".(":11648,"1498":11649,"21069":11650,"2932":11651,"386":11652,"3791":11653,"3241":11654,"3479":11655,"3732":11656,"3587":11657,"31507":11658,"4828":11659,"4404":11660,"5122":11661,"5659":11662,"614":11663,"6693":11664,"7505":11665,"7792":11666,"843":11667,"8126":11668,"9894":11669,"9248":11670,"CS":11671,"HV":11672,"HPd":11673,"KCdSb":11674,"KAlTe":11675,"PVS":11676,"VMoAs":11677,"VFeAs":11678,"VMoSi":11679,"YRuSi":11680,"YCoSn":11681,"YFeNi":11682,"YScN":11683,"YZrSb":11684,"ad":11685,"beta":11686,"yite":11687,"leyite":11688,"ĠCri":11689,"ĠCNi":11690,"stob":11691,"ĠInSnSe":11692,"ĠInCuSe":11693,"ĠAlZnCu":11694,"ĠTiSnPt":11695,"ĠTiReTc":11696,"ĠTiVTc":11697,"ĠTiVRe":11698,"ĠNiSrSn":11699,"AlS":11700,"AlHf":11701,"AlRu":11702,"AlPb":11703,"AlPS":11704,"ĠSiSnPt":11705,"ĠSiSnPd":11706,"ĠHfFe":11707,"ĠHfScRu":11708,"ĠHfScOs":11709,"ĠZrSnRh":11710,"ĠZrScTc":11711,"ĠZrScOs":11712,"ĠCaMo":11713,"ĠCaGaSi":11714,"20506":11715,"20817":11716,"ĠGaFeCo":11717,"ĠBad":11718,"FeZr":11719,"FeTiH":11720,"FeGaGe":11721,"FeTaTe":11722,"ĠNbCrSe":11723,"deleyite":11724,"SiPb":11725,"SiOs":11726,"ĠYNi":11727,"ĠYScN":11728,"ĠTaInS":11729,"ĠTaPbSe":11730,"ĠScCo":11731,"ĠScTaOs":11732,"TiPtGe":11733,"TiMnP":11734,"TiCoGa":11735,"TiRuTe":11736,"TiReSi":11737,"TiReTc":11738,"TiVTc":11739,"TiVRe":11740,"TiVP":11741,"TiPtSn":11742,"ĠZnSiAs":11743,"ĠZnCdS":11744,"ĠZnFeRh":11745,"ĠAsK":11746,"ĠAsGeAs":11747,"ĠAsCuTe":11748,"InAu":11749,"InHg":11750,"NiCa":11751,"NiWP":11752,"NiMnSb":11753,"ĠGeH":11754,"PtPdBi":11755,"1034":11756,"10648":11757,"10899":11758,"10207":11759,"ĠSrCo":11760,"ĠSnPS":11761,"ĠSnGeTe":11762,"GaIr":11763,"GaSr":11764,"ĠNaCrS":11765,"GeH":11766,"GeCa":11767,"ĠAgHg":11768,"ĠAgSnS":11769,"1212193":11770,"12659":11771,"RhAu":11772,"RhAsS":11773,"ZnRu":11774,"ZnCr":11775,"ZnSiP":11776,"ZnSiN":11777,"CuRu":11778,"ĠAuSc":11779,"ĠKCo":11780,"ĠKBi":11781,"MoTc":11782,"MoMnAs":11783,"MoRhP":11784,"ZrCoSi":11785,"ZrPtSi":11786,"ZrCuSi":11787,"ZrTiSe":11788,"ZrMoGe":11789,"ZrPdSb":11790,"SnZn":11791,"HfTeSe":11792,"HfGeS":11793,"HfCoAs":11794,"AgIr":11795,"AgSnS":11796,"AgAsS":11797,"AgBiSe":11798,"6799":11799,"5419":11800,"CoSbSe":11801,"CoMnSb":11802,"RuFe":11803,"RuOsSi":11804,"RuAsSe":11805,"RuPtAl":11806,"9690":11807,"IrNi":11808,"IrAg":11809,"IrPS":11810,"IrCoGa":11811,"1113":11812,"11202":11813,"11504":11814,"NbIr":11815,"NbCr":11816,"NbNiTe":11817,"ĠPbSb":11818,"AuP":11819,"AuAs":11820,"AuGeAs":11821,"ĠCdGa":11822,"6959":11823,"6931":11824,"TaWS":11825,"TaCoSi":11826,"TaRhTe":11827,"TaMoCo":11828,"TaCrNi":11829,"ScCoSn":11830,"ScTaOs":11831,"ScZrOs":11832,"ScZrTc":11833,"1649":11834,"16421":11835,"16259":11836,"16448":11837,"16439":11838,"8580":11839,"8507":11840,"ĠRbPbCl":11841,"ĠRbSrCl":11842,"22179":11843,"22889":11844,"22332":11845,"5327":11846,"CrAlGe":11847,"CaPdH":11848,"CaGaSi":11849,"CaPdZn":11850,"CaAlH":11851,"8848":11852,"1566":11853,"1518":11854,"1592":11855,"15695":11856,"MnPS":11857,"MnNiSi":11858,"MnNiAl":11859,"ĠTlHPd":11860,"CdZnS":11861,"CdSiAs":11862,"21491":11863,"4763":11864,"5244":11865,"PbN":11866,"PbIn":11867,"PbSb":11868,"PbAu":11869,"PbTaSe":11870,"ĠHgPS":11871,"ĠCsCr":11872,"ĠCsCd":11873,"ĠCsCaCl":11874,"468":11875,"4656":11876,"23186":11877,"23706":11878,"23290":11879,"5748":11880,"574485":11881,"571518":11882,"9306":11883,"SrMnSb":11884,"SrRhIn":11885,"SrNiSn":11886,"OsAsS":11887,"TcAg":11888,"7365":11889,"19983":11890,"19804":11891,"19835":11892,"19824":11893,"7906":11894,"ReAlGe":11895,"5600":11896,"568673":11897,"HgPS":11898,"NaGe":11899,"NaSn":11900,"NaSrAs":11901,"NaYCl":11902,"7877":11903,"TlH":11904,"4955":11905,"29570":11906,"29179":11907,"29849":11908,"29154":11909,"29476":11910,"3469":11911,"13464":11912,"13555":11913,"972187":11914,"14086":11915,"618991":11916,"8786":11917,"903":11918,"9008":11919,"3657":11920,"9912":11921,"17856":11922,"38494":11923,"30460":11924,"30676":11925,"30805":11926,"3909":11927,"28107":11928,"31125":11929,"31438":11930,"31473":11931,"RbAg":11932,"RbBi":11933,"RbAuTe":11934,"12098":11935,"1208991":11936,"1208170":11937,"1201034":11938,"1105702":11939,"1105327":11940,"CsTi":11941,"CsCr":11942,"CsCd":11943,"CsPbCl":11944,"CsAgCl":11945,"12268":11946,"ĠNbSiTc":11947,"ĠTiSiRu":11948,"11489":11949,"1216310":11950,"1216169":11951,"1216677":11952,"1216451":11953,"1216278":11954,"1216427":11955,"1216601":11956,"1216056":11957,"1216135":11958,"1216843":11959,"11621":11960,"1220675":11961,"1220670":11962,"1220587":11963,"1220761":11964,"1183607":11965,"1183173":11966,"1183151":11967,"1183490":11968,"1079224":11969,"569886":11970,"1186209":11971,"1186232":11972,"1186187":11973,"1191078":11974,"10175":11975,"1018652":11976,"8670":11977,"867233":11978,"867163":11979,"867125":11980,"ĠTiTeS":11981,"ĠTiTeRu":11982,"ĠSCuNi":11983,"ĠMnPS":11984,"1187209":11985,"1187431":11986,"1187068":11987,"1187097":11988,"567114":11989,"567279":11990,"567736":11991,"1215188":11992,"1215242":11993,"1215676":11994,"1215898":11995,"1219226":11996,"1219431":11997,"1219145":11998,"ĠSSbPt":11999,"1224983":12000,"1224559":12001,"1224413":12002,"1224448":12003,"ĠHfGeRu":12004,"ĠTiNCl":12005,"1217079":12006,"1217089":12007,"ĠSeNaPt":12008,"ĠZrSbRh":12009,"ĠFeTaTe":12010,"1221559":12011,"1221342":12012,"ĠZrGaRh":12013,"ĠZrGaRu":12014,"30847":12015,"ĠHfNCl":12016,"1080466":12017,"1080561":12018,"1080049":12019,"ĠTiGePt":12020,"ĠTiGeRh":12021,"1188987":12022,"ĠNiYBi":12023,"ĠNbNiTe":12024,"11252":12025,"ĠBiTePd":12026,"1078200":12027,"1078466":12028,"ĠHfGaRu":12029,"1001022":12030,"ĠCcc":12031,"ĠYGaRh":12032,"1223664":12033,"ĠNbRhSb":12034,"ĠYInRh":12035,"1186952":12036,"1186977":12037,"1186932":12038,"570062":12039,"ĠSVCr":12040,"10846":12041,"10844":12042,"ĠGaTeS":12043,"ĠTaAlOs":12044,"ĠSiTiCo":12045,"1184057":12046,"ĠSbTeRh":12047,"10379":12048,"10368":12049,"ĠTiGaIr":12050,"ĠTeBiPd":12051,"22056":12052,"22036":12053,"862546":12054,"862699":12055,"NiAsSe":12056,"ĠAlGeRu":12057,"865124":12058,"865717":12059,"865895":12060,"865665":12061,"865656":12062,"865930":12063,"30662":12064,"30644":12065,"30658":12066,"30580":12067,"1077814":12068,"1077746":12069,"30347":12070,"1025229":12071,"1025191":12072,"1025218":12073,"1025988":12074,"1025819":12075,"1025629":12076,"1224371":12077,"1224321":12078,"1224393":12079,"1224324":12080,"1224358":12081,"1224329":12082,"1224303":12083,"571103":12084,"571505":12085,"1207627":12086,"1207736":12087,"973166":12088,"973769":12089,"CaZnSi":12090,"1218002":12091,"1218062":12092,"1218041":12093,"1218063":12094,"972866":12095,"972777":12096,"972899":12097,"1188021":12098,"1188059":12099,"1188095":12100,"1188017":12101,"1188003":12102,"ĠAsZnSi":12103,"1215455":12104,"1215453":12105,"1215477":12106,"11754":12107,"ĠSNbCu":12108,"1069824":12109,"1072944":12110,"865588":12111,"865592":12112,"1220366":12113,"1220358":12114,"1220391":12115,"1009581":12116,"1246229":12117,"1246514":12118,"1246517":12119,"1246089":12120,"866156":12121,"866163":12122,"866160":12123,"866051":12124,"20419":12125,"1184684":12126,"1103545":12127,"1215353":12128,"1029337":12129,"1029915":12130,"1215536":12131,"ZrRhGe":12132,"ZrRhSb":12133,"ĠZrZnCo":12134,"ĠGaPPd":12135,"1102101":12136,"1102115":12137,"1102693":12138,"1228945":12139,"1228987":12140,"ĠAlVNi":12141,"3078":12142,"ĠSeSbPd":12143,"22977":12144,"1225119":12145,"1225200":12146,"1206699":12147,"1206893":12148,"1206135":12149,"20846":12150,"1025371":12151,"1025324":12152,"1025301":12153,"1008680":12154,"1247376":12155,"9801":12156,"980200":12157,"PtGeSe":12158,"ĠCuSiRh":12159,"1228745":12160,"12662":12161,"ĠKSbCl":12162,"865487":12163,"1217242":12164,"1217253":12165,"1217260":12166,"22315":12167,"20257":12168,"861501":12169,"1104194":12170,"YPdSn":12171,"TiSiY":12172,"977541":12173,"977426":12174,"977162":12175,"864947":12176,"31084":12177,"998970":12178,"607409":12179,"CaNiGa":12180,"672216":12181,"1217171":12182,"1217175":12183,"1217130":12184,"12910":12185,"12951":12186,"RuIrGa":12187,"1218856":12188,"NbRhSb":12189,"ĠYZnSi":12190,"ĠTaRhTe":12191,"697575":12192,"1103243":12193,"FeCoZr":12194,"FeCoSn":12195,"1206790":12196,"HfPdSb":12197,"1184766":12198,"1209960":12199,"1209061":12200,"CaPtCd":12201,"19871":12202,"1079908":12203,"28877":12204,"1025586":12205,"1025587":12206,"ScHfRu":12207,"ScHfOs":12208,"1228829":12209,"1228817":12210,"1226067":12211,"1226008":12212,"1226035":12213,"23289":12214,"23275":12215,"SrCdGe":12216,"ĠNCrNi":12217,"15272":12218,"1095497":12219,"1095491":12220,"CuSnTi":12221,"568656":12222,"568345":12223,"568394":12224,"1070557":12225,"ĠNNaGe":12226,"YZnSi":12227,"865010":12228,"865051":12229,"865001":12230,"865030":12231,"1078895":12232,"2832":12233,"28324":12234,"571642":12235,"571636":12236,"21405":12237,"19953":12238,"19906":12239,"1184055":12240,"1184005":12241,"680850":12242,"YAuAl":12243,"YAuSn":12244,"1095536":12245,"IrSbAs":12246,"972238":12247,"1215948":12248,"1103046":12249,"1103036":12250,"865681":12251,"1224244":12252,"866012":12253,"866041":12254,"1218976":12255,"ĠGaFeRu":12256,"975140":12257,"1219521":12258,"1187211":12259,"1221643":12260,"1221662":12261,"1221656":12262,"GaSeGaS":12263,"ĠVZnRh":12264,"ĠSeCaPb":12265,"HfCoSn":12266,"14244":12267,"769218":12268,"1191862":12269,"1104366":12270,"22619":12271,"542537":12272,"505511":12273,"1217371":12274,"29711":12275,"27850":12276,"1215271":12277,"18093":12278,"YNiIn":12279,"YNiBi":12280,"ĠNiZnSb":12281,"ĠCaCdPd":12282,"862366":12283,"977367":12284,"977353":12285,"977361":12286,"18361":12287,"864672":12288,"HfNCl":12289,"ĠTeSbRh":12290,"865728":12291,"TiWMn":12292,"971737":12293,"YPtAs":12294,"TiNCl":12295,"1227322":12296,"1227313":12297,"866142":12298,"866141":12299,"30039":12300,"1229005":12301,"1229032":12302,"1023925":12303,"1207015":12304,"1103150":12305,"1183454":12306,"1190788":12307,"VNiGe":12308,"1057286":12309,"672389":12310,"1224455":12311,"865916":12312,"865914":12313,"865928":12314,"AgAlS":12315,"1187497":12316,"1095628":12317,"1106121":12318,"1106219":12319,"1077915":12320,"1077994":12321,"1079721":12322,"1079768":12323,"1013525":12324,"1013548":12325,"864715":12326,"864782":12327,"1205800":12328,"1205335":12329,"1205337":12330,"1095607":12331,"1224908":12332,"1224913":12333,"31347":12334,"1208243":12335,"FeNiGe":12336,"978532":12337,"1221596":12338,"1079393":12339,"1079313":12340,"1206369":12341,"1206365":12342,"HfMoSb":12343,"977550":12344,"1102840":12345,"1216700":12346,"1224822":12347,"TiFeAl":12348,"1102650":12349,"ĠGaGeRu":12350,"1002114":12351,"1207776":12352,"1079407":12353,"1184229":12354,"1225771":12355,"862288":12356,"1068746":12357,"RhVAs":12358,"22596":12359,"1080667":12360,"1080611":12361,"1080657":12362,"569662":12363,"1218875":12364,"560025":12365,"636320":12366,"1206267":12367,"1105749":12368,"1183005":12369,"1183041":12370,"643651":12371,"643907":12372,"1027335":12373,"1206926":12374,"1216977":12375,"1080469":12376,"541686":12377,"1095145":12378,"568940":12379,"28419":12380,"31453":12381,"31481":12382,"18562":12383,"ĠGaCuNi":12384,"1207448":12385,"540773":12386,"1216047":12387,"604325":12388,"1101809":12389,"1101995":12390,"CdZnTe":12391,"1104183":12392,"1228605":12393,"867904":12394,"1213754":12395,"568565":12396,"991428":12397,"862445":12398,"983365":12399,"1029349":12400,"600124":12401,"637292":12402,"1078280":12403,"1078247":12404,"574339":12405,"ZrAuGa":12406,"1101173":12407,"1206854":12408,"1024974":12409,"672696":12410,"1028576":12411,"1223986":12412,"ĠSGaNi":12413,"1213092":12414,"NbNiGe":12415,"1102565":12416,"1190915":12417,"1227042":12418,"641924":12419,"1217775":12420,"1217768":12421,"1226957":12422,"1228522":12423,"1220004":12424,"1029659":12425,"570971":12426,"1214793":12427,"1214794":12428,"ĠAlReGe":12429,"ĠFeNiPt":12430,"1100412":12431,"1100415":12432,"36216":12433,"ĠTiInAu":12434,"ĠHfInCo":12435,"1102268":12436,"555569":12437,"1246970":12438,"1025905":12439,"27178":12440,"SbNCa":12441,"1224516":12442,"1224598":12443,"2668":12444,"NiZnSb":12445,"866279":12446,"1226453":12447,"1221407":12448,"1221485":12449,"945184":12450,"1027647":12451,"1190141":12452,"1206550":12453,"1106245":12454,"1078362":12455,"541047":12456,"504741":12457,"1181940":12458,"1079080":12459,"14433":12460,"ĠCdInRh":12461,"1228467":12462,"28645":12463,"1218560":12464,"27255":12465,"1173043":12466,"553994":12467,"1068510":12468,"30293":12469,"36641":12470,"621348":12471,"1220743":12472,"640159":12473,"ĠHgAsPd":12474,"630883":12475,"CsVCl":12476,"912418":12477,"675060":12478,"1227810":12479,"1026980":12480,"1068250":12481,"1213948":12482,"1220598":12483,"849067":12484,"580930":12485,"572596":12486,"1215885":12487,"1094021":12488,"1028604":12489,"1245633":12490,"620571":12491,"35869":12492,"1222181":12493,"38605":12494,"614572":12495,"989407":12496,"ĠCristob":12497,"ĠBaddeleyite":12498,"ĠAsGeAsAu":12499,"ĠAsCuTeAs":12500,"1064854":12501,"1020712":12502,"ĠAgHgPd":12503,"541911":12504,"15668":12505,"560046":12506,"ĠCristobalite":12507,"243":12508,"31080":12509,"31072":12510,"3129":12511,"3648":12512,"3797":12513,"3830":12514,"408":12515,"4573":12516,"4813":12517,"4578":12518,"5101":12519,"5213":12520,"602":12521,"6105":12522,"6695":12523,"622375":12524,"764":12525,"7126":12526,"7437":12527,"7939":12528,"7221":12529,"7421":12530,"7400":12531,"7883":12532,"7684":12533,"8714":12534,"8418":12535,"8435":12536,"8799":12537,"9576":12538,"9437":12539,"9027":12540,"KCuS":12541,"KZnP":12542,"KBiSe":12543,"KMnSe":12544,"KCdAs":12545,"KAuCl":12546,"KAlH":12547,"KNbCl":12548,"PSn":12549,"VTi":12550,"VCoSi":12551,"VCoAs":12552,"VCrP":12553,"YHg":12554,"YCuS":12555,"YZnAl":12556,"Ã¢":12557,"ÆĴ":12558,"âĢļ":12559,"ĠInGaP":12560,"ĠAlInSb":12561,"ĠTiMnRh":12562,"ĠNiAgSe":12563,"AlIr":12564,"ĠHfCd":12565,"ĠHfScIr":12566,"ĠZrTiMo":12567,"ĠZrTiCr":12568,"ĠCaGa":12569,"20108":12570,"20697":12571,"ĠBoron":12572,"FeNbSb":12573,"ĠNbCu":12574,"ĠNbCrS":12575,"ĠCuAgTe":12576,"ĠYCr":12577,"ĠYCuSi":12578,"ĠYScS":12579,"ĠTaSn":12580,"ĠTaTiAl":12581,"ĠTaNbTe":12582,"ĠTaSnRh":12583,"ĠTaFeRu":12584,"ĠRhSr":12585,"ĠScV":12586,"ĠScMnRh":12587,"TiNiAs":12588,"TiCoGe":12589,"TiOsSi":12590,"TiSnSb":12591,"TiZnAl":12592,"TiOsP":12593,"TiMnAs":12594,"TiPtGa":12595,"TiFeAs":12596,"TiMnRh":12597,"PdHfSn":12598,"InSbS":12599,"InGaP":12600,"InAlSb":12601,"NiH":12602,"NiIn":12603,"NiPt":12604,"NiTiSb":12605,"NiAgSe":12606,"ĠCoCl":12607,"ĠTeCs":12608,"ĠFeNiAs":12609,"ĠFeCoAs":12610,"PtPt":12611,"10670":12612,"10891":12613,"ĠMnFeSi":12614,"ĠMnRbTe":12615,"ĠSrPbS":12616,"ĠSnPb":12617,"ĠSnPbS":12618,"ĠSnGeS":12619,"GaRh":12620,"GaCu":12621,"ĠNaFeAs":12622,"ĠNaMnSe":12623,"GeW":12624,"GeOs":12625,"ĠAgSnTe":12626,"ĠAgBiPd":12627,"12116":12628,"12472":12629,"12136":12630,"12126":12631,"12675":12632,"12674":12633,"RhPt":12634,"RhSr":12635,"RhPtZn":12636,"RhNiZn":12637,"CuAsS":12638,"ĠAuTl":12639,"ĠAuPS":12640,"ĠIrSc":12641,"ĠKMnSe":12642,"MoGa":12643,"ZrPd":12644,"ZrNiAs":12645,"ZrTiPd":12646,"ZrMnAl":12647,"ZrTiMo":12648,"ZrOsSi":12649,"ZrNiSb":12650,"ZrCuSn":12651,"ZrRuGe":12652,"ZrTiMn":12653,"ZrVP":12654,"SnMo":12655,"SnGeS":12656,"SnHfS":12657,"HfCuGa":12658,"HfOsP":12659,"HfVP":12660,"AgSnTe":12661,"AgCuTe":12662,"6744":12663,"6751":12664,"6795":12665,"3340":12666,"5493":12667,"541180":12668,"CoZn":12669,"CoCuS":12670,"CoCrSi":12671,"4370":12672,"RuH":12673,"RuCl":12674,"RuSeS":12675,"RuAsS":12676,"9622":12677,"IrOs":12678,"IrNiZn":12679,"11113":12680,"11829":12681,"11400":12682,"11660":12683,"NbPbS":12684,"NbCrS":12685,"NbSnSb":12686,"NbCoAl":12687,"NbCuGa":12688,"NbInSe":12689,"NbPtSi":12690,"NbVSi":12691,"NbCrSe":12692,"AuPS":12693,"ĠCdBi":12694,"4281":12695,"4259":12696,"6973":12697,"6926":12698,"695850":12699,"TaRhSn":12700,"TaCrP":12701,"TaIrSi":12702,"TaVNi":12703,"TaNbTe":12704,"TaReSi":12705,"TaGeSi":12706,"5042":12707,"5044":12708,"5028":12709,"ScHfIr":12710,"ScIrSi":12711,"ScMnRh":12712,"5573":12713,"5528":12714,"1662":12715,"16225":12716,"16029":12717,"ĠRbMnP":12718,"2263":12719,"22167":12720,"22426":12721,"22731":12722,"22881":12723,"5367":12724,"5305":12725,"CrPd":12726,"CrCuS":12727,"CrZnN":12728,"CaGaAl":12729,"CaGaGe":12730,"CaAgAl":12731,"CaZrS":12732,"882":12733,"8843":12734,"1554":12735,"MnRe":12736,"ĠTlAsPt":12737,"CdPd":12738,"CdSnP":12739,"CdGeAs":12740,"BiAu":12741,"BiInS":12742,"21306":12743,"21756":12744,"21413":12745,"21893":12746,"8620":12747,"8607":12748,"4755":12749,"528":12750,"4025":12751,"4030":12752,"PbGeTe":12753,"0613":12754,"ĠHgPb":12755,"ĠCsMnSe":12756,"4612":12757,"571147":12758,"574025":12759,"SrSi":12760,"SrPbS":12761,"SrCaZn":12762,"SrIrP":12763,"SrPdSi":12764,"SrIrIn":12765,"OsAsSe":12766,"OsSbSe":12767,"7366":12768,"7392":12769,"8388":12770,"19968":12771,"2454":12772,"24719":12773,"5654":12774,"5614":12775,"8167":12776,"60186":12777,"605028":12778,"NaAlGe":12779,"NaVN":12780,"NaMnSe":12781,"NaCrN":12782,"NaNbSe":12783,"NaCdSb":12784,"784":12785,"7240":12786,"591":12787,"5918":12788,"4120":12789,"7771":12790,"7781":12791,"5149":12792,"TlFeS":12793,"TlInS":12794,"TlSbTe":12795,"TlCaCl":12796,"TlAlCl":12797,"0447":12798,"4953":12799,"4979":12800,"632686":12801,"2977":12802,"29568":12803,"29163":12804,"29175":12805,"7642":12806,"4842":12807,"13573":12808,"13202":12809,"13459":12810,"13203":12811,"13094":12812,"9710":12813,"14434":12814,"8769":12815,"8765":12816,"8725":12817,"32780":12818,"36539":12819,"36053":12820,"9571":12821,"9952":12822,"9981":12823,"9987":12824,"35152":12825,"17558":12826,"17835":12827,"3849":12828,"30459":12829,"30424":12830,"9845":12831,"28126":12832,"28968":12833,"28759":12834,"31502":12835,"RbInS":12836,"RbMnP":12837,"RbMnTe":12838,"RbNaS":12839,"12056":12840,"1209946":12841,"1205493":12842,"1204281":12843,"1100":12844,"1101867":12845,"1101118":12846,"CsK":12847,"CsBiS":12848,"CsMnSe":12849,"CsSnCl":12850,"CsAlTe":12851,"CsTaSe":12852,"CsNaS":12853,"1096795":12854,"1225654":12855,"ĠZrSiRu":12856,"1216108":12857,"1216136":12858,"1216052":12859,"1216437":12860,"1216698":12861,"1070613":12862,"1077240":12863,"ĠAlScAu":12864,"1220110":12865,"1220472":12866,"1220559":12867,"1220470":12868,"1220492":12869,"1220057":12870,"1220458":12871,"1220879":12872,"10275":12873,"1027273":12874,"1183166":12875,"1183462":12876,"1183938":12877,"1183591":12878,"ĠNiTeSe":12879,"ĠAlCuNi":12880,"1079158":12881,"569298":12882,"569408":12883,"1186074":12884,"1191223":12885,"1198948":12886,"1198388":12887,"867120":12888,"867179":12889,"867850":12890,"867216":12891,"867792":12892,"867327":12893,"867292":12894,"867799":12895,"867917":12896,"ĠSZnCd":12897,"1187124":12898,"1187200":12899,"1187718":12900,"1187473":12901,"1187704":12902,"1187701":12903,"1187470":12904,"1187703":12905,"ĠMnSiTc":12906,"567981":12907,"567228":12908,"1215179":12909,"1215714":12910,"1215804":12911,"1215230":12912,"1215177":12913,"1215170":12914,"1215806":12915,"1215600":12916,"1219501":12917,"1219203":12918,"1219437":12919,"1219193":12920,"1219423":12921,"1219732":12922,"1224108":12923,"1224972":12924,"1224544":12925,"1224691":12926,"1224092":12927,"1224418":12928,"1224473":12929,"1224831":12930,"1224859":12931,"1217126":12932,"1217864":12933,"1217891":12934,"1217065":12935,"1221935":12936,"1221780":12937,"1221824":12938,"1221876":12939,"1221734":12940,"ĠNNbZn":12941,"30877":12942,"30864":12943,"ĠSnHfS":12944,"1018714":12945,"1018806":12946,"1018736":12947,"1018726":12948,"1080835":12949,"1080463":12950,"1080056":12951,"ĠPdSnHf":12952,"1188158":12953,"1188829":12954,"1123":12955,"ĠYAgS":12956,"ĠYAgSn":12957,"1078677":12958,"1078776":12959,"1078162":12960,"1078739":12961,"1078547":12962,"1078963":12963,"ĠAlMnFe":12964,"ĠAlMnPd":12965,"ĠNaSbSe":12966,"10046":12967,"1223529":12968,"1223824":12969,"1223642":12970,"1223859":12971,"1068167":12972,"ĠYInAg":12973,"1186942":12974,"1186985":12975,"1186956":12976,"10873":12977,"ĠGaAsPd":12978,"ĠFeNbSb":12979,"1030447":12980,"1189265":12981,"1189066":12982,"1189272":12983,"1189075":12984,"1189764":12985,"ĠTiGaTc":12986,"22007":12987,"22084":12988,"10076":12989,"862423":12990,"ĠNbAlFe":12991,"1018020":12992,"1018046":12993,"1018066":12994,"1018076":12995,"ĠYCdAg":12996,"ĠYCdHg":12997,"NiAsS":12998,"865503":12999,"865165":13000,"865128":13001,"865931":13002,"16790":13003,"568208":13004,"568501":13005,"30523":13006,"ĠAlPPt":13007,"1077883":13008,"1077722":13009,"30311":13010,"1025173":13011,"1025925":13012,"1224372":13013,"1224318":13014,"1224395":13015,"571310":13016,"571534":13017,"571471":13018,"ĠTiNiSb":13019,"29658":13020,"ĠAgCuTe":13021,"1186006":13022,"1207101":13023,"1207127":13024,"1207428":13025,"1207090":13026,"1207799":13027,"1207727":13028,"1218022":13029,"1218053":13030,"1218019":13031,"1218064":13032,"1218039":13033,"1218003":13034,"13686":13035,"972877":13036,"1188019":13037,"ĠScInPt":13038,"ĠSrZnIn":13039,"865523":13040,"865525":13041,"1220362":13042,"1220345":13043,"21260":13044,"1246058":13045,"1246243":13046,"1184615":13047,"1184601":13048,"1215340":13049,"1215324":13050,"1215379":13051,"1215368":13052,"1215326":13053,"30492":13054,"1029422":13055,"1029334":13056,"1215510":13057,"1215583":13058,"ZrRhAl":13059,"20952":13060,"ĠZrZnNi":13061,"ĠZrZnRh":13062,"1102541":13063,"1102631":13064,"1102532":13065,"1102660":13066,"10454":13067,"10469":13068,"1228910":13069,"1228905":13070,"1228973":13071,"1228918":13072,"1228938":13073,"TiPdGa":13074,"18645":13075,"18648":13076,"21316":13077,"21371":13078,"21365":13079,"ĠMnSbRh":13080,"27455":13081,"10232":13082,"22909":13083,"22922":13084,"1225810":13085,"1206529":13086,"1206058":13087,"1025353":13088,"1025302":13089,"1025346":13090,"1025365":13091,"1025318":13092,"1025348":13093,"1797":13094,"17985":13095,"AlSiY":13096,"1208205":13097,"1208335":13098,"1208228":13099,"1008556":13100,"755523":13101,"1247422":13102,"1247449":13103,"1247333":13104,"ĠScNiBi":13105,"TiMoAs":13106,"1228117":13107,"1228473":13108,"1228807":13109,"22769":13110,"1217283":13111,"1217272":13112,"RuRhGa":13113,"22396":13114,"22302":13115,"31185":13116,"31153":13117,"1193208":13118,"1193227":13119,"1193832":13120,"1193899":13121,"1193708":13122,"20255":13123,"861889":13124,"NiSeTe":13125,"ĠSnPPt":13126,"1226104":13127,"1226089":13128,"1226070":13129,"CaCuIn":13130,"CaCuAs":13131,"1104965":13132,"CrFeP":13133,"977427":13134,"27907":13135,"ScCuSn":13136,"1120733":13137,"YAgGe":13138,"YAgSb":13139,"864970":13140,"1217942":13141,"1217990":13142,"1217917":13143,"1217900":13144,"998912":13145,"983602":13146,"16930":13147,"YCuSn":13148,"1078645":13149,"12923":13150,"1218103":13151,"1218336":13152,"NbRhGe":13153,"9814":13154,"ĠAlSiPd":13155,"ZrSiAs":13156,"1103293":13157,"672661":13158,"ĠInAsPd":13159,"1209887":13160,"21662":13161,"CaPtAl":13162,"19877":13163,"1079952":13164,"28884":13165,"862747":13166,"SrZnIn":13167,"20320":13168,"1216496":13169,"1216481":13170,"TaFeAl":13171,"ScHfCo":13172,"1228832":13173,"20521":13174,"1226054":13175,"SrCdBi":13176,"1095442":13177,"1095419":13178,"1207382":13179,"1207359":13180,"1025271":13181,"1025293":13182,"TiCrTc":13183,"1216602":13184,"PdSnTe":13185,"27361":13186,"849073":13187,"849071":13188,"1214809":13189,"1018150":13190,"567716":13191,"TiRhGe":13192,"505804":13193,"505333":13194,"568398":13195,"1216354":13196,"1070099":13197,"1227422":13198,"1227717":13199,"1227421":13200,"28270":13201,"CaAuBi":13202,"865066":13203,"865000":13204,"28355":13205,"21409":13206,"21467":13207,"1095522":13208,"1095563":13209,"1095584":13210,"972275":13211,"972224":13212,"1215915":13213,"1215914":13214,"ScRhGe":13215,"1226787":13216,"1183640":13217,"TiAsTe":13218,"32811":13219,"1102086":13220,"CuSiTi":13221,"ĠPInGa":13222,"19746":13223,"1218954":13224,"1218952":13225,"1218977":13226,"1218951":13227,"ĠInAgS":13228,"ĠHfZrRu":13229,"1078008":13230,"1078064":13231,"1221606":13232,"567945":13233,"HfZrRu":13234,"754850":13235,"MoSiZr":13236,"1191202":13237,"23037":13238,"22640":13239,"22662":13240,"1184567":13241,"505554":13242,"1217381":13243,"1215240":13244,"1215277":13245,"ScNiBi":13246,"862369":13247,"862340":13248,"862368":13249,"862376":13250,"1219369":13251,"1224768":13252,"1224732":13253,"1224703":13254,"15320":13255,"18344":13256,"864939":13257,"865780":13258,"865786":13259,"1100781":13260,"ĠCaInCu":13261,"27669":13262,"IrAsTe":13263,"1101771":13264,"971836":13265,"1227320":13266,"1227354":13267,"21577":13268,"864654":13269,"864607":13270,"1218328":13271,"16260":13272,"1229006":13273,"1023943":13274,"1217009":13275,"1217039":13276,"12458":13277,"1245698":13278,"1103172":13279,"ĠSrCdHg":13280,"865167":13281,"865174":13282,"1079635":13283,"14983":13284,"1220667":13285,"1190092":13286,"1190451":13287,"1187708":13288,"1187706":13289,"13416":13290,"1095673":13291,"1095128":13292,"SrPdAs":13293,"AlCuY":13294,"571281":13295,"1077979":13296,"1080043":13297,"ĠSCsIn":13298,"1079716":13299,"1019104":13300,"1013555":13301,"1186759":13302,"1186761":13303,"AlFeZr":13304,"864761":13305,"1205828":13306,"1017632":13307,"1224916":13308,"1224951":13309,"1208220":13310,"1208248":13311,"1206600":13312,"1196650":13313,"1221517":13314,"1079323":13315,"1079324":13316,"1079361":13317,"569823":13318,"1219970":13319,"981377":13320,"1222126":13321,"554212":13322,"570769":13323,"977582":13324,"1216734":13325,"1216713":13326,"1224885":13327,"1028459":13328,"ĠCuGeRh":13329,"1226309":13330,"30175":13331,"NbHS":13332,"862264":13333,"1203338":13334,"1068464":13335,"ĠNaCdHg":13336,"18279":13337,"541879":13338,"1078938":13339,"637736":13340,"1102945":13341,"976220":13342,"ĠTiCrTc":13343,"1066232":13344,"632693":13345,"1206242":13346,"1183042":13347,"643912":13348,"1027687":13349,"1216906":13350,"1080489":13351,"570598":13352,"1095148":13353,"ĠTeZnHg":13354,"865280":13355,"1226245":13356,"28489":13357,"1106352":13358,"SnNNi":13359,"29596":13360,"18594":13361,"1205741":13362,"1246370":13363,"1207408":13364,"1178762":13365,"540703":13366,"1227419":13367,"1216033":13368,"1216005":13369,"1104120":13370,"1025045":13371,"TaRhGe":13372,"ĠCrGaCo":13373,"1220409":13374,"1220488":13375,"1029396":13376,"675576":13377,"ĠHgPPd":13378,"1071862":13379,"1030106":13380,"ZrCrV":13381,"1078257":13382,"1223845":13383,"28769":13384,"ĠTlPPd":13385,"571163":13386,"541291":13387,"1218140":13388,"23954":13389,"1103567":13390,"1069520":13391,"672689":13392,"1201566":13393,"605735":13394,"1105654":13395,"1213703":13396,"1102520":13397,"1025457":13398,"755435":13399,"27512":13400,"27533":13401,"1021494":13402,"1217777":13403,"1220035":13404,"AsNSr":13405,"1214786":13406,"1214784":13407,"1100408":13408,"ĠHfInRh":13409,"ĠHfInAu":13410,"1221396":13411,"1227567":13412,"1194390":13413,"976920":13414,"675326":13415,"862586":13416,"1246509":13417,"35015":13418,"1203283":13419,"27769":13420,"1184364":13421,"ĠHfScCo":13422,"504951":13423,"1106020":13424,"1173475":13425,"561033":13426,"1225210":13427,"1228454":13428,"ĠZrCdPd":13429,"1226512":13430,"1226586":13431,"866376":13432,"975275":13433,"510041":13434,"675462":13435,"541310":13436,"541378":13437,"ĠCdHgPd":13438,"505278":13439,"505634":13440,"1203422":13441,"1203241":13442,"1221872":13443,"TiTaAl":13444,"1105559":13445,"1227871":13446,"1026916":13447,"1080815":13448,"1068286":13449,"1212052":13450,"558760":13451,"862911":13452,"644229":13453,"976765":13454,"972120":13455,"1078155":13456,"1194467":13457,"1030721":13458,"1029407":13459,"1029711":13460,"676329":13461,"1028823":13462,"623814":13463,"1016106":13464,"CoCrTa":13465,"1226652":13466,"1100873":13467,"1068891":13468,"669387":13469,"1226821":13470,"510133":13471,"610522":13472,"669566":13473,"ĠHfCdRh":13474,"1213642":13475,"1212682":13476,"674493":13477,"504498":13478,"557308":13479,"561419":13480,"601861":13481,"17291":13482,"28660":13483,"28658":13484,"315":13485,"3464":13486,"3102":13487,"3504":13488,"3927":13489,"4124":13490,"4861":13491,"4805":13492,"588":13493,"566":13494,"5102":13495,"5106":13496,"6961":13497,"6437":13498,"7077":13499,"7439":13500,"8159":13501,"8456":13502,"8203":13503,"8487":13504,"954":13505,"9856":13506,"9900":13507,"KSi":13508,"KTi":13509,"KCo":13510,"KSnS":13511,"KMnP":13512,"KMnAs":13513,"KYTe":13514,"KCuCl":13515,"KMnCl":13516,"NIn":13517,"SPS":13518,"VSn":13519,"VCl":13520,"VNiAs":13521,"VCrSi":13522,"VCrAs":13523,"VRuSb":13524,"WZn":13525,"YV":13526,"YGe":13527,"YBi":13528,"YCrFe":13529,"YIrSn":13530,"bm":13531,"ĠInGaS":13532,"ĠInCuPd":13533,"ĠAlGaAs":13534,"ĠTiSnRu":13535,"AlOs":13536,"ĠSiSbPt":13537,"ĠPdPb":13538,"ĠPdPS":13539,"ĠHfMn":13540,"ĠHfCl":13541,"ĠHfTaRu":13542,"ĠHfTiSe":13543,"ĠHfTaV":13544,"ĠZrTc":13545,"ĠZrTiW":13546,"ĠZrScRu":13547,"ĠZrTiCu":13548,"ĠCaY":13549,"ĠCaCoSi":13550,"ĠCaCuSi":13551,"2002":13552,"20422":13553,"20731":13554,"20235":13555,"FeNiSe":13556,"FeMnGe":13557,"ĠVFeSb":13558,"ĠVSnRu":13559,"ĠVCuRh":13560,"ĠNbWSe":13561,"ĠNbVRe":13562,"SiAl":13563,"SiRh":13564,"ĠCuCd":13565,"ĠYCrFe":13566,"ĠTaSeS":13567,"ĠTaNbTc":13568,"ĠTaMoW":13569,"ĠTaWMo":13570,"ĠTaSnRu":13571,"ĠScTaRu":13572,"TiCoNi":13573,"TiGeS":13574,"TiCrSi":13575,"TiReN":13576,"TiZnGa":13577,"TiNbRe":13578,"TiVAl":13579,"ĠZnSiRh":13580,"PdIn":13581,"PdPS":13582,"PdCuAl":13583,"PdAsS":13584,"PdZrSn":13585,"InRu":13586,"InBiSe":13587,"AsBi":13588,"NiPS":13589,"ĠFeCa":13590,"ĠFeAlSi":13591,"ĠFeNiSb":13592,"ĠCrCoPt":13593,"PtAs":13594,"PtBiSb":13595,"ĠSbCr":13596,"10435":13597,"10898":13598,"10404":13599,"ĠMnBi":13600,"ĠMnCoGe":13601,"ĠMnRhSb":13602,"ĠSrFe":13603,"ĠSrGaSi":13604,"ĠSrCaIn":13605,"GaW":13606,"GaOs":13607,"GaPS":13608,"ĠNaVSe":13609,"GeMo":13610,"ĠAgBiS":13611,"1253":13612,"1230":13613,"121216":13614,"RhAsSe":13615,"RhBiS":13616,"RhSbAs":13617,"RhAuZn":13618,"RhTiSn":13619,"ZnPb":13620,"CuTaS":13621,"CuNbTe":13622,"CuScS":13623,"ĠAuCs":13624,"0995":13625,"ĠKNb":13626,"ĠKMnP":13627,"ĠKYTe":13628,"MoPt":13629,"MoSb":13630,"MoCr":13631,"MoCrAs":13632,"ZrIr":13633,"ZrGeTe":13634,"ZrNiP":13635,"ZrTiW":13636,"ZrCuGe":13637,"ZrOsAl":13638,"ZrPdGe":13639,"HfCoGe":13640,"HfCoP":13641,"HfNiGa":13642,"HfTaRu":13643,"HfTaFe":13644,"HfReSi":13645,"HfTaV":13646,"AgGe":13647,"AgOs":13648,"AgBiTe":13649,"6717":13650,"67569":13651,"672194":13652,"3312":13653,"5498":13654,"541558":13655,"CoMoP":13656,"4343":13657,"4384":13658,"ĠBiMo":13659,"RuNiAl":13660,"RuSbTe":13661,"9680":13662,"96169":13663,"11438":13664,"11926":13665,"11658":13666,"NbCoSi":13667,"NbPtGe":13668,"NbIrSi":13669,"NbVNi":13670,"NbMoAl":13671,"NbVRe":13672,"NbCrGe":13673,"NbVCr":13674,"ĠPbCN":13675,"AuH":13676,"AuSe":13677,"AuCuSn":13678,"ĠCdSn":13679,"ĠCdTl":13680,"ĠCdSnTe":13681,"ĠCdAlCl":13682,"6980":13683,"TaCu":13684,"TaRuSi":13685,"TaCoP":13686,"TaZnAl":13687,"TaMnGe":13688,"TaNbTc":13689,"TaNbMo":13690,"TaWMo":13691,"TaWFe":13692,"5066":13693,"505820":13694,"088":13695,"ScAl":13696,"ScNiP":13697,"ScCoP":13698,"ScTaRu":13699,"ScPdSn":13700,"ScZrRu":13701,"5560":13702,"558973":13703,"555066":13704,"1624":13705,"16258":13706,"16886":13707,"ĠReSi":13708,"ĠRbYS":13709,"22227":13710,"22529":13711,"22130":13712,"5359":13713,"CrW":13714,"CrCoSi":13715,"CrWN":13716,"CrTaN":13717,"CrCoPt":13718,"CaCN":13719,"CaCoSi":13720,"CaMnSb":13721,"CaPdSi":13722,"CaMnGe":13723,"CaTcN":13724,"8842":13725,"8818":13726,"15226":13727,"15679":13728,"MnTc":13729,"MnGeTe":13730,"MnCoGe":13731,"CdH":13732,"CdTl":13733,"CdSnTe":13734,"CdAlCl":13735,"BiMo":13736,"2188":13737,"21508":13738,"4756":13739,"4790":13740,"5257":13741,"PbSn":13742,"PbCN":13743,"PbSnTe":13744,"PbPSe":13745,"ĠCsPb":13746,"ĠCsMnAs":13747,"4653":13748,"2382":13749,"23174":13750,"23291":13751,"5749":13752,"571085":13753,"571216":13754,"621624":13755,"741":13756,"8932":13757,"8249":13758,"SrRh":13759,"SrCuSn":13760,"SrCaIn":13761,"SrCrN":13762,"OsAg":13763,"OsAsTe":13764,"TcMn":13765,"TcPdAl":13766,"7363":13767,"7376":13768,"7361":13769,"7049":13770,"4516":13771,"19955":13772,"19787":13773,"19936":13774,"7997":13775,"5606":13776,"561258":13777,"2589":13778,"HgCr":13779,"601253":13780,"604516":13781,"NaInS":13782,"NaVSe":13783,"NaAlSe":13784,"686717":13785,"7280":13786,"7285":13787,"7289":13788,"18474":13789,"18556":13790,"18217":13791,"TlCo":13792,"TlCd":13793,"TlPS":13794,"TlBiSe":13795,"TlGaSe":13796,"6376":13797,"29110":13798,"29136":13799,"29678":13800,"29428":13801,"29932":13802,"29091":13803,"768613":13804,"4846":13805,"1368":13806,"13160":13807,"9782":13808,"977443":13809,"974790":13810,"977049":13811,"9270":13812,"9265":13813,"14557":13814,"3210":13815,"3618":13816,"9177":13817,"3772":13818,"9957":13819,"999265":13820,"3567":13821,"2750":13822,"17092":13823,"17638":13824,"17577":13825,"30151":13826,"30326":13827,"982188":13828,"RbYS":13829,"120307":13830,"120981":13831,"1208973":13832,"1205610":13833,"1208629":13834,"1204805":13835,"1201230":13836,"11073":13837,"110296":13838,"1101606":13839,"1100995":13840,"CsSbS":13841,"CsMnAs":13842,"CsGaSe":13843,"11822":13844,"1097916":13845,"1227997":13846,"ĠPPPd":13847,"20621":13848,"1216167":13849,"1216156":13850,"1216210":13851,"1216850":13852,"1216672":13853,"1216170":13854,"1216079":13855,"1216661":13856,"1216029":13857,"1216078":13858,"1216072":13859,"1216091":13860,"1216468":13861,"28143":13862,"1072382":13863,"1072589":13864,"ĠNbSeCl":13865,"ĠAlScNi":13866,"1220569":13867,"1220541":13868,"1220758":13869,"1220429":13870,"1220443":13871,"1220427":13872,"1220636":13873,"1220442":13874,"1220786":13875,"1220579":13876,"1220586":13877,"1220732":13878,"1183165":13879,"1183191":13880,"1183728":13881,"1183708":13882,"1183135":13883,"ĠAlCuRh":13884,"1079167":13885,"1079831":13886,"1079513":13887,"1079726":13888,"1079075":13889,"569152":13890,"569423":13891,"569954":13892,"1186222":13893,"1186124":13894,"1191589":13895,"1195257":13896,"1018658":13897,"867308":13898,"867127":13899,"867117":13900,"867335":13901,"867851":13902,"867475":13903,"867897":13904,"867794":13905,"ĠTiTeSe":13906,"ĠCaPPt":13907,"1187713":13908,"1187809":13909,"1187698":13910,"1187738":13911,"567545":13912,"567636":13913,"1215503":13914,"1215175":13915,"1215180":13916,"1215663":13917,"1215181":13918,"1215817":13919,"1215726":13920,"1215234":13921,"1219132":13922,"1219430":13923,"1219939":13924,"1219259":13925,"1219478":13926,"1224121":13927,"1224173":13928,"1224498":13929,"1224137":13930,"1224426":13931,"1224900":13932,"1224427":13933,"1224540":13934,"1224863":13935,"1217118":13936,"1217124":13937,"1217202":13938,"1217935":13939,"1217897":13940,"1217064":13941,"1217070":13942,"ĠZrSbRu":13943,"1221434":13944,"1221505":13945,"1221335":13946,"1221404":13947,"1221948":13948,"ĠMnGeTe":13949,"ĠZrGaPd":13950,"3084":13951,"22262":13952,"22268":13953,"ĠRhTeCl":13954,"1018709":13955,"1080204":13956,"1080677":13957,"1080624":13958,"1080771":13959,"ĠTiGeS":13960,"ĠZnAsPt":13961,"1188542":13962,"11241":13963,"ĠNbGaOs":13964,"1078751":13965,"ĠGeSeN":13966,"1001017":13967,"ĠTiCoSn":13968,"1223828":13969,"1223754":13970,"1223832":13971,"1223837":13972,"1223791":13973,"ĠZnAgPd":13974,"1186953":13975,"1186958":13976,"ĠScAlCo":13977,"ĠScGeAu":13978,"ĠAuCuSe":13979,"ĠWPCl":13980,"570130":13981,"ĠSTiCu":13982,"10848":13983,"ĠSeCsSb":13984,"1184118":13985,"1184573":13986,"1184104":13987,"ĠTiZnPd":13988,"ĠTiZnGa":13989,"ĠSRuRh":13990,"ĠYAlAu":13991,"10381":13992,"1189212":13993,"1189978":13994,"1189171":13995,"1189871":13996,"1189235":13997,"ĠSBiRh":13998,"12781":13999,"ĠTiGaPd":14000,"22018":14001,"1007974":14002,"862431":14003,"862703":14004,"1018060":14005,"974973":14006,"865809":14007,"865079":14008,"865651":14009,"865548":14010,"865888":14011,"865664":14012,"16740":14013,"16763":14014,"ĠClKPb":14015,"30652":14016,"30598":14017,"1077935":14018,"1025678":14019,"1025180":14020,"1025690":14021,"1224366":14022,"571333":14023,"ĠScTeRh":14024,"29662":14025,"10554":14026,"1186004":14027,"1207717":14028,"ĠZrGeTe":14029,"ĠZrGeRu":14030,"1105163":14031,"1105802":14032,"1218060":14033,"972961":14034,"972884":14035,"1188015":14036,"1188004":14037,"1188001":14038,"1188014":14039,"1188036":14040,"15685":14041,"ĠAsZnSn":14042,"1215416":14043,"1229235":14044,"1229060":14045,"1229000":14046,"979980":14047,"ĠTiNbRe":14048,"ĠSrZnGe":14049,"865538":14050,"865531":14051,"ĠSiCoP":14052,"1220367":14053,"1220342":14054,"1220369":14055,"1220374":14056,"1220329":14057,"28080":14058,"28019":14059,"21248":14060,"1246110":14061,"1246123":14062,"1246648":14063,"866088":14064,"1184647":14065,"1184602":14066,"1184604":14067,"1103098":14068,"1103160":14069,"1103728":14070,"1215305":14071,"1215365":14072,"1215378":14073,"1215392":14074,"1215317":14075,"1029418":14076,"1029975":14077,"1029506":14078,"1029719":14079,"1029838":14080,"1029811":14081,"ZrRhP":14082,"20987":14083,"ĠZrZnIr":14084,"ĠGaPPt":14085,"999540":14086,"1102857":14087,"1102687":14088,"1102458":14089,"10457":14090,"1228943":14091,"1228991":14092,"21040":14093,"ĠSiFeRu":14094,"21352":14095,"22945":14096,"22956":14097,"22914":14098,"1225871":14099,"1225141":14100,"1225839":14101,"1206544":14102,"1206129":14103,"1206525":14104,"1206829":14105,"1206431":14106,"1206679":14107,"1025347":14108,"1025366":14109,"1025356":14110,"1025304":14111,"17984":14112,"1008624":14113,"570863":14114,"7557":14115,"1247566":14116,"980193":14117,"980936":14118,"980948":14119,"1228691":14120,"1228192":14121,"1228158":14122,"1228436":14123,"HfIrAl":14124,"15985":14125,"ĠTlSCl":14126,"865484":14127,"22712":14128,"22706":14129,"YRhGa":14130,"RuRhS":14131,"22312":14132,"1193541":14133,"1193423":14134,"1193748":14135,"ĠTiZrTe":14136,"20289":14137,"20279":14138,"1226111":14139,"1226421":14140,"1226090":14141,"CaCuSi":14142,"1104462":14143,"1104502":14144,"1104337":14145,"YPdSi":14146,"YPdBi":14147,"ĠCaAgHg":14148,"CrFeGe":14149,"541487":14150,"977545":14151,"977537":14152,"977425":14153,"27910":14154,"27997":14155,"ĠScCdRh":14156,"ĠScCdAg":14157,"1120730":14158,"1120767":14159,"YAgGa":14160,"11144":14161,"1217902":14162,"1217989":14163,"1217995":14164,"16324":14165,"607230":14166,"607475":14167,"PdAuSn":14168,"PdAuPb":14169,"1217143":14170,"1217193":14171,"1217144":14172,"1217172":14173,"1217132":14174,"1218111":14175,"1218804":14176,"1218699":14177,"13923":14178,"13918":14179,"ĠAlSiPt":14180,"ĠTeMnZn":14181,"ĠCrSiRu":14182,"HfPdSi":14183,"1014226":14184,"ĠVRuSb":14185,"CaPtSb":14186,"1187922":14187,"1187926":14188,"28875":14189,"ĠHNaCa":14190,"TaRuP":14191,"862702":14192,"SrZnGe":14193,"20316":14194,"1025575":14195,"1102310":14196,"1228893":14197,"1228891":14198,"24728":14199,"GaAlAs":14200,"1095427":14201,"1207365":14202,"1025270":14203,"1025291":14204,"1216640":14205,"1216641":14206,"10671":14207,"1067925":14208,"27319":14209,"849081":14210,"976082":14211,"1214857":14212,"ĠMnAlIr":14213,"1216378":14214,"1216397":14215,"1227503":14216,"1227698":14217,"1227574":14218,"28242":14219,"CaAuAs":14220,"YZnGe":14221,"YZnSn":14222,"865088":14223,"1078825":14224,"1078860":14225,"28303":14226,"21440":14227,"19971":14228,"1184030":14229,"AuCuSe":14230,"SrAuSi":14231,"SrAuAs":14232,"1095553":14233,"1095575":14234,"1095573":14235,"989576":14236,"1215988":14237,"FeVSb":14238,"ScRhTe":14239,"1226740":14240,"1226783":14241,"616204":14242,"HfNiGe":14243,"865653":14244,"SrPtAs":14245,"SrPtCd":14246,"SrPtTl":14247,"1102073":14248,"1102041":14249,"1224275":14250,"19747":14251,"1218955":14252,"1218970":14253,"504838":14254,"ĠYBiPd":14255,"ĠYBiPt":14256,"676828":14257,"677105":14258,"975144":14259,"ĠHfZrZn":14260,"ĠHfZrCo":14261,"PtZnAsPt":14262,"1219512":14263,"1187245":14264,"1104000":14265,"1221610":14266,"1221696":14267,"1221669":14268,"1221632":14269,"CaCdGe":14270,"ĠVZnCo":14271,"TiNiCu":14272,"RhTeCl":14273,"HfZrS":14274,"HfZrZn":14275,"HfZrCo":14276,"754556":14277,"ĠMnGaPd":14278,"1191100":14279,"1191422":14280,"1191401":14281,"7937":14282,"22602":14283,"1184589":14284,"1184587":14285,"989611":14286,"989649":14287,"ĠScZnPt":14288,"ĠAsInGa":14289,"1179970":14290,"570270":14291,"1215286":14292,"1802":14293,"861604":14294,"861639":14295,"862371":14296,"862300":14297,"977371":14298,"977384":14299,"1219380":14300,"1224784":14301,"15308":14302,"15358":14303,"864835":14304,"542486":14305,"865791":14306,"TiWMo":14307,"TiWRe":14308,"1101785":14309,"1101753":14310,"1101774":14311,"1227380":14312,"1227364":14313,"1227351":14314,"CuZnAs":14315,"864650":14316,"864651":14317,"1218349":14318,"866140":14319,"866173":14320,"866183":14321,"1023948":14322,"1217015":14323,"1245636":14324,"1103180":14325,"1183453":14326,"HfCrGa":14327,"865145":14328,"865131":14329,"1079643":14330,"1187420":14331,"1187433":14332,"1187418":14333,"1187711":14334,"1187771":14335,"17867":14336,"17871":14337,"1095504":14338,"1095201":14339,"21885":14340,"21847":14341,"SrPdCd":14342,"30979":14343,"ZrNiGe":14344,"1077944":14345,"MnRhSb":14346,"862602":14347,"684638":14348,"1019578":14349,"1013588":14350,"972323":14351,"1186766":14352,"1186763":14353,"NaAuIn":14354,"1224954":14355,"16037":14356,"1208265":14357,"1208287":14358,"15724":14359,"981379":14360,"1222206":14361,"1222167":14362,"NbSeCl":14363,"HfMoTc":14364,"1224810":14365,"1224875":14366,"TiFeH":14367,"1102640":14368,"1207707":14369,"1207723":14370,"1226385":14371,"1226340":14372,"CoTiSn":14373,"29069":14374,"971712":14375,"1091390":14376,"1103879":14377,"1190262":14378,"1080646":14379,"ĠAsAlGa":14380,"570355":14381,"1102925":14382,"MnFePd":14383,"976257":14384,"662563":14385,"1084838":14386,"1103608":14387,"1218812":14388,"1218850":14389,"29371":14390,"505034":14391,"1105715":14392,"1105701":14393,"1183038":14394,"1238823":14395,"1206941":14396,"1216949":14397,"1216927":14398,"1189689":14399,"541689":14400,"1095185":14401,"20708":14402,"1198114":14403,"CaAgHg":14404,"865235":14405,"568903":14406,"1226254":14407,"1226249":14408,"1025799":14409,"569044":14410,"ĠSrCaPb":14411,"1106356":14412,"31455":14413,"29585":14414,"ĠVGaOs":14415,"1205784":14416,"31234":14417,"KAgCl":14418,"ĠGaCuPd":14419,"1225023":14420,"1219034":14421,"18440":14422,"1227441":14423,"1226179":14424,"ZrCuTi":14425,"1101976":14426,"979910":14427,"7084":14428,"1104139":14429,"1104951":14430,"867909":14431,"ZrWTc":14432,"862486":14433,"1220453":14434,"1220482":14435,"675531":14436,"600125":14437,"1101075":14438,"1227246":14439,"569391":14440,"ĠZnInRh":14441,"ZrCrCo":14442,"637263":14443,"1223842":14444,"1223823":14445,"28742":14446,"SrCaPb":14447,"867775":14448,"867768":14449,"541236":14450,"13572":14451,"1104290":14452,"1218110":14453,"996940":14454,"1103346":14455,"1103359":14456,"1084767":14457,"1084770":14458,"1024052":14459,"1024051":14460,"1028586":14461,"1147709":14462,"1013643":14463,"1213974":14464,"961687":14465,"1026034":14466,"1219496":14467,"10527":14468,"1228017":14469,"571343":14470,"571370":14471,"571377":14472,"696216":14473,"984714":14474,"982725":14475,"1227014":14476,"1227038":14477,"1245538":14478,"1217763":14479,"1029686":14480,"1029681":14481,"1024048":14482,"ScAuGe":14483,"573721":14484,"1095057":14485,"1100405":14486,"ĠTiInCo":14487,"ĠHfInCu":14488,"1190880":14489,"1221319":14490,"16839":14491,"628773":14492,"1227571":14493,"1228752":14494,"1228724":14495,"1190661":14496,"1221454":14497,"972914":14498,"984704":14499,"1218262":14500,"1026356":14501,"1027608":14502,"1221789":14503,"27776":14504,"AlNbCr":14505,"1210826":14506,"1245967":14507,"541149":14508,"1195837":14509,"1101885":14510,"1101870":14511,"1101849":14512,"1184368":14513,"675920":14514,"675977":14515,"864844":14516,"14791":14517,"1103956":14518,"1019322":14519,"1215609":14520,"1025815":14521,"1247419":14522,"ĠZrCdRh":14523,"557640":14524,"TlNCa":14525,"1078574":14526,"1078514":14527,"1173050":14528,"975272":14529,"1095396":14530,"1095372":14531,"510040":14532,"1197539":14533,"1197660":14534,"1223376":14535,"1028755":14536,"556712":14537,"1102702":14538,"1200750":14539,"1220599":14540,"849054":14541,"ĠMnFePd":14542,"553875":14543,"644280":14544,"976724":14545,"972183":14546,"1078183":14547,"1191280":14548,"1194481":14549,"542138":14550,"1195855":14551,"1096810":14552,"674355":14553,"542387":14554,"1104554":14555,"1227788":14556,"1188725":14557,"1120716":14558,"644483":14559,"ĠGaHCl":14560,"560370":14561,"1208837":14562,"1206177":14563,"1189054":14564,"1193821":14565,"640041":14566,"1071623":14567,"1247004":14568,"679983":14569,"31510":14570,"510283":14571,"510696":14572,"SPSSCs":14573,"YGeSn":14574,"YBiPt":14575,"1040453":14576,"1212161":14577,"675691":14578,"961697":14579,"1192618":14580,"556005":14581,"637614":14582,"1203073":14583,"1209818":14584,"1102961":14585,"1435":14586,"31187":14587,"3862":14588,"3159":14589,"3529":14590,"3829":14591,"3704":14592,"3532":14593,"4549":14594,"4897":14595,"5129":14596,"5829":14597,"606":14598,"619905":14599,"715":14600,"7632":14601,"7881":14602,"7639":14603,"8422":14604,"8966":14605,"8543":14606,"9025":14607,"9223":14608,"9023":14609,"9868":14610,"KK":14611,"KPt":14612,"KCd":14613,"KAsSe":14614,"KBiS":14615,"KFeN":14616,"KPbBi":14617,"KSbCl":14618,"KCoN":14619,"NV":14620,"VMo":14621,"VNiSi":14622,"VCoGe":14623,"VCrFe":14624,"VCoP":14625,"YSc":14626,"YCr":14627,"ĠInMo":14628,"ĠInGeTe":14629,"ĠInSiPt":14630,"ĠAlCrRu":14631,"ĠTiV":14632,"ĠTiCrAs":14633,"ĠTiInPt":14634,"ĠNiSn":14635,"AlPd":14636,"AlIn":14637,"AlMoSi":14638,"ĠPdCs":14639,"ĠHfTiZn":14640,"ĠZrNb":14641,"ĠZrTaCo":14642,"ĠCaYRh":14643,"ĠCaYPt":14644,"ĠCaMnS":14645,"20152":14646,"20199":14647,"20793":14648,"20331":14649,"20244":14650,"FeNb":14651,"FeAsS":14652,"FeCoS":14653,"FeMoP":14654,"ĠMoWS":14655,"ĠYSc":14656,"ĠTaInSe":14657,"ĠTaVH":14658,"ĠScOs":14659,"TiPt":14660,"TiRb":14661,"TiNiSi":14662,"TiVSe":14663,"TiRuAs":14664,"ĠZnHgS":14665,"ĠZnHgSe":14666,"PdAsSe":14667,"InV":14668,"InSi":14669,"InNi":14670,"InAg":14671,"InGeTe":14672,"NiV":14673,"NiTi":14674,"NiAuSn":14675,"ĠGeZn":14676,"ĠCoMo":14677,"ĠTeW":14678,"ĠTeMo":14679,"ĠFeTc":14680,"ĠCrFeAs":14681,"ĠCrMoV":14682,"PtBi":14683,"PtAsS":14684,"PtPdZn":14685,"PtPbTe":14686,"10223":14687,"10895":14688,"10137":14689,"1021328":14690,"ĠMnCrN":14691,"ĠMnCoSn":14692,"ĠSrNi":14693,"ĠSrNb":14694,"ĠSnCd":14695,"ĠSnPbSe":14696,"GaZr":14697,"ĠNaSnP":14698,"ĠNaFeN":14699,"ĠAgSnSe":14700,"ĠAgPdAu":14701,"ĠAgSbTe":14702,"ĠAgBiSe":14703,"1252":14704,"12119":14705,"12115":14706,"12731":14707,"RhCoS":14708,"RhPtCd":14709,"ZnC":14710,"ZnRh":14711,"ZnAu":14712,"ZnTl":14713,"ZnPS":14714,"ZnCdSb":14715,"ZnSnN":14716,"CuSbS":14717,"CuZrSi":14718,"CuSbSe":14719,"ĠKPt":14720,"ĠKCd":14721,"ĠKBiS":14722,"ĠKZnAs":14723,"ZrNb":14724,"ZrPbS":14725,"ZrFeSi":14726,"ZrTiRh":14727,"ZrTiFe":14728,"ZrCrMn":14729,"ZrTaCo":14730,"ZrMoFe":14731,"HfSeS":14732,"HfPtGe":14733,"HfCrAl":14734,"HfMnGa":14735,"HfTiZn":14736,"AgN":14737,"AgSnSe":14738,"AgSbTe":14739,"AgCrSe":14740,"6757":14741,"6756":14742,"6749":14743,"3345":14744,"5405":14745,"5485":14746,"5414":14747,"54282":14748,"CoNb":14749,"CoSeS":14750,"CoPS":14751,"CoTeSe":14752,"4366":14753,"4392":14754,"RuNiSb":14755,"9693":14756,"9687":14757,"IrAsSe":14758,"11167":14759,"11123":14760,"11739":14761,"11719":14762,"NbPdSi":14763,"NbCrGa":14764,"NbReSi":14765,"ĠPbSnS":14766,"AuHg":14767,"ĠCdZr":14768,"4267":14769,"4247":14770,"4252":14771,"6933":14772,"6916":14773,"6979":14774,"TaPbS":14775,"TaInSe":14776,"ScV":14777,"ScTi":14778,"ScRe":14779,"ScAgZn":14780,"ScCoAl":14781,"ScIrGe":14782,"ScTaN":14783,"ScMnGe":14784,"ScTlS":14785,"556916":14786,"1684":14787,"1639":14788,"16304":14789,"16961":14790,"16335":14791,"16090":14792,"16687":14793,"ĠReSc":14794,"0565":14795,"ĠRbNH":14796,"ĠRbCaCl":14797,"2286":14798,"22522":14799,"22857":14800,"22418":14801,"22506":14802,"22936":14803,"5350":14804,"CrCoP":14805,"CrNiSb":14806,"CrMnN":14807,"CrMoV":14808,"CaGe":14809,"CaYRh":14810,"CaGaSn":14811,"CaYPt":14812,"CaAgP":14813,"CaMnS":14814,"CaSrPb":14815,"1511":14816,"1527":14817,"15687":14818,"15868":14819,"MnTi":14820,"MnCr":14821,"MnAlGe":14822,"MnIrSi":14823,"MnCoSn":14824,"CdGe":14825,"CdAsP":14826,"CdSnAs":14827,"7173":14828,"7191":14829,"7198":14830,"2199":14831,"21459":14832,"21851":14833,"21774":14834,"21883":14835,"21547":14836,"4013":14837,"PbPS":14838,"PbSnSe":14839,"PbHfS":14840,"ĠHgPt":14841,"ĠHgGaCl":14842,"ĠCsFe":14843,"2397":14844,"2301":14845,"2327":14846,"23827":14847,
[...]
