{"!":0,"\"":1,"#":2,"$":3,"%":4,"&":5,"'":6,"(":7,")":8,"*":9,"+":10,",":11,"-":12,".":13,"/":14,"0":15,"1":16,"2":17,"3":18,"4":19,"5":20,"6":21,"7":22,"8":23,"9":24,":":25,";":26,"<":27,"=":28,">":29,"?":30,"@":31,"A":32,"B":33,"C":34,"D":35,"E":36,"F":37,"G":38,"H":39,"I":40,"J":41,"K":42,"L":43,"M":44,"N":45,"O":46,"P":47,"Q":48,"R":49,"S":50,"T":51,"U":52,"V":53,"W":54,"X":55,"Y":56,"Z":57,"[":58,"\\":59,"]":60,"^":61,"_":62,"`":63,"a":64,"b":65,"c":66,"d":67,"e":68,"f":69,"g":70,"h":71,"i":72,"j":73,"k":74,"l":75,"m":76,"n":77,"o":78,"p":79,"q":80,"r":81,"s":82,"t":83,"u":84,"v":85,"w":86,"x":87,"y":88,"z":89,"{":90,"|":91,"}":92,"~":93,"¡":94,"¢":95,"£":96,"¤":97,"¥":98,"¦":99,"§":100,"¨":101,"©":102,"ª":103,"«":104,"¬":105,"®":106,"¯":107,"°":108,"±":109,"²":110,"³":111,"´":112,"µ":113,"¶":114,"·":115,"¸":116,"¹":117,"º":118,"»":119,"¼":120,"½":121,"¾":122,"¿":123,"À":124,"Á":125,"Â":126,"Ã":127,"Ä":128,"Å":129,"Æ":130,"Ç":131,"È":132,"É":133,"Ê":134,"Ë":135,"Ì":136,"Í":137,"Î":138,"Ï":139,"Ð":140,"Ñ":141,"Ò":142,"Ó":143,"Ô":144,"Õ":145,"Ö":146,"×":147,"Ø":148,"Ù":149,"Ú":150,"Û":151,"Ü":152,"Ý":153,"Þ":154,"ß":155,"à":156,"á":157,"â":158,"ã":159,"ä":160,"å":161,"æ":162,"ç":163,"è":164,"é":165,"ê":166,"ë":167,"ì":168,"í":169,"î":170,"ï":171,"ð":172,"ñ":173,"ò":174,"ó":175,"ô":176,"õ":177,"ö":178,"÷":179,"ø":180,"ù":181,"ú":182,"û":183,"ü":184,"ý":185,"þ":186,"ÿ":187,"Ā":188,"ā":189,"Ă":190,"ă":191,"Ą":192,"ą":193,"Ć":194,"ć":195,"Ĉ":196,"ĉ":197,"Ċ":198,"ċ":199,"Č":200,"č":201,"Ď":202,"ď":203,"Đ":204,"đ":205,"Ē":206,"ē":207,"Ĕ":208,"ĕ":209,"Ė":210,"ė":211,"Ę":212,"ę":213,"Ě":214,"ě":215,"Ĝ":216,"ĝ":217,"Ğ":218,"ğ":219,"Ġ":220,"ġ":221,"Ģ":222,"ģ":223,"Ĥ":224,"ĥ":225,"Ħ":226,"ħ":227,"Ĩ":228,"ĩ":229,"Ī":230,"ī":231,"Ĭ":232,"ĭ":233,"Į":234,"į":235,"İ":236,"ı":237,"Ĳ":238,"ĳ":239,"Ĵ":240,"ĵ":241,"Ķ":242,"ķ":243,"ĸ":244,"Ĺ":245,"ĺ":246,"Ļ":247,"ļ":248,"Ľ":249,"ľ":250,"Ŀ":251,"ŀ":252,"Ł":253,"ł":254,"Ń":255,"Ġa":256,"Ġt":257,"he":258,"on":259,"le":260,"Ġi":261,"Ġthe":262,"Ġb":263,"om":264,"Ġs":265,"Ġo":266,"Ġc":267,"it":268,"re":269,"nd":270,"ond":271,"at":272,"ng":273,"or":274,"Ġbond":275,"Ġis":276,"Ġat":277,"en":278,"Ġatom":279,"al":280,"Ġand":281,"ar":282,"Ġe":283,"The":284,"Ġf":285,"Ġof":286,"ed":287,"Ġm":288,"Ġw":289,"âĤ":290,"Ġto":291,"ro":292,"ac":293,"Ġatoms":294,"lec":295,"Ġin":296,"iv":297,"et":298,"ĠThe":299,"ate":300,"ic":301,"ra":302,"len":303,"ing":304,"alen":305,"di":306,"es":307,"er":308,"ĠC":309,"alent":310,"Ġh":311,"Ġp":312,"ith":313,"Ġwith":314,"Ġmo":315,"qu":316,"gen":317,"âģ":318,"lecu":319,"Ġmolecu":320,"st":321,"ur":322,"ivalent":323,"quivalent":324,"th":325,"Ãħ":326,"ĠÃħ":327,"ds":328,"Ġg":329,"Ġon":330,"Ġequivalent":331,"Ġ1":332,"ct":333,"Ġare":334,"ĠI":335,"hed":336,"dsor":337,"Ġmolecule":338,"Ġtw":339,"dsorb":340,"Ġdi":341,"Ġsit":342,"Ġ(":343,"âĢ":344,"âĢĵ":345,"ace":346,"arb":347,"arbon":348,"hedra":349,"Ġbonded":350,"ĠS":351,"Ġcarbon":352,"Ġfor":353,"Ġle":354,"ngth":355,"ry":356,"cta":357,"Ġtwo":358,"Ġlength":359,"Ġth":360,"ly":361,"Ġsite":362,"ri":363,"Ġadsorb":364,"an":365,"Ġor":366,"Ġ2":367,"ctahedra":368,"tr":369,"xy":370,"Ġhy":371,"ĠA":372,"rogen":373,"ub":374,"ĠN":375,"Ġsp":376,"Ġsi":377,"bit":378,"aly":379,"bital":380,"ataly":381,"ent":382,"Ġcataly":383,"ol":384,"Ġha":385,"Ġform":386,"Ġsur":387,"Ġcub":388,"xygen":389,"Ġsurf":390,"een":391,"omet":392,"Ġorbital":393,"ĠP":394,"ĠIn":395,"Ġn":396,"Ġsurface":397,"our":398,"eomet":399,"Ġgeomet":400,"Ġgeometry":401,"ĠT":402,"âģº":403,"tic":404,"âģ»":405,"Ġfour":406,"Ġoxygen":407,"Ġd":408,"Ġhas":409,"Ġcatalytic":410,"Ġbet":411,"Ġadsorbate":412,"ĠThere":413,"ween":414,"Ġbetween":415,"har":416,"Ġcubo":417,"Ġcuboctahedra":418,"Â²":419,"im":420,"rou":421,"ner":422,"orner":423,"tron":424,"Ġelec":425,"Ġcorner":426,"pp":427,"xim":428,"Ġelectron":429,"ately":430,"CH":431,"Ġapp":432,"roxim":433,"Ġapproxim":434,"Ġapproximately":435,"ion":436,"dg":437,"Ġhyd":438,"ĠM":439,"Ġdist":440,"Ġlengths":441,"li":442,"po":443,"Ġang":444,"ĠAl":445,"eg":446,"gh":447,"Ġsh":448,"Ġone":449,"âĤĤ":450,"Ġangle":451,"lar":452,"rom":453,"âĤĦ":454,"Ġgrou":455,"OH":456,"Ġsix":457,"ter":458,"Ġgroup":459,"co":460,"pole":461,"âĤĨ":462,"Ġpl":463,"Ġwh":464,"ive":465,"Ġorbitals":466,"Ġhydrogen":467,"Ġbi":468,"Ġedg":469,"ir":470,"Ġthat":471,"oment":472,"Ġmoment":473,"nate":474,"ordi":475,"coordi":476,"coordinate":477,"Ġdipole":478,"Ġra":479,"il":480,"igh":481,"Ġmolecular":482,"ree":483,"Ġfrom":484,"bri":485,"Ġthree":486,"itrogen":487,"ĠH":488,"nding":489,"ure":490,"Ġnitrogen":491,"ight":492,"aced":493,"Ġplaced":494,"Ġbinding":495,"Ġre":496,"Â³":497,"Ġhybri":498,"Ġit":499,"Ġcorners":500,"Ġchar":501,"Ġco":502,"are":503,"Ġse":504,"ces":505,"in":506,"valent":507,"Ġrang":508,"Ġbonds":509,"Ġcovalent":510,"Ġelectrons":511,"ĠR":512,"ow":513,"ĠTi":514,"ĠZ":515,"Ġl":516,"haring":517,").":518,"mp":519,"ĠO":520,"Ġbonding":521,"etra":522,"Ġeight":523,"Ġas":524,"gon":525,"gonal":526,"Ġtetra":527,"Ġlon":528,"Â¹":529,"ĠG":530,"ce":531,"ve":532,"ical":533,"âĤģ":534,"ĠCH":535,"Ġedges":536,"sharing":537,"ler":538,"Ġ*":539,"Ġdistan":540,"Ġdistances":541,"rea":542,"Ġadsorbed":543,"ted":544,"Ġ0":545,"Ġsprea":546,"Ġranging":547,"Ġspread":548,"Ġoctahedra":549,"Ġshare":550,"dsorbate":551,"Ġal":552,"ex":553,"ich":554,"Ġwhich":555,"olar":556,"ĠInd":557,"ĠMil":558,"ĠMiller":559,"Ġtri":560,"Adsorbate":561,"ĠIndex":562,"zes":563,"Ġcry":564,"alli":565,"stalli":566,"Ġspace":567,"Ġcrystalli":568,"Ġcrystallizes":569,"ity":570,"egat":571,"diz":572,"Ġdeg":573,"Ġpolar":574,"âĤĪ":575,"pe":576,"aces":577,"ver":578,"rees":579,"Ġdegrees":580,"ist":581,"ze":582,"ation":583,"Ġ3":584,"uct":585,"ĠĊ":586,"hy":587,"Ġcon":588,"el":589,"ĠAll":590,"truct":591,"tructure":592,"Ġstructure":593,"âĤĥ":594,"âĤģâĤĤ":595,"orted":596,"Ġdistorted":597,"Ġangles":598,"Ġfaces":599,"ĠD":600,"la":601,"ĠNi":602,"Ġu":603,"act":604,"Ġan":605,"Â°":606,"ram":607,"ile":608,"Ġhybridiz":609,"so":610,"Al":611,"Ġcharg":612,"cond":613,"irst":614,"equivalent":615,"Ġfirst":616,"Ġinequivalent":617,"Ġsites":618,"Ġsecond":619,"ere":620,"Ġpar":621,"ĠSi":622,"ti":623,"Ġwhile":624,"Ġalso":625,"yram":626,"yrami":627,"ĠPd":628,"ue":629,"ach":630,"ĠHf":631,"Ġsize":632,"Ġdue":633,"ger":634,"orter":635,"Ġshorter":636,"Ġlonger":637,"Ġv":638,"Ġtetrahedra":639,"ĠZr":640,"all":641,"Ġeach":642,"op":643,"Ġatop":644,"ĠCa":645,"Ġits":646,"âģ´":647,"ma":648,"Ġtwel":649,"yramids":650,"hem":651,"Ġtwelve":652,"Ġ10":653,"ivity":654,"ĠPt":655,"Ġchem":656,"ĠGa":657,"Ġty":658,"Ġchemical":659,"20":660,"de":661,"Ġsig":662,"Ġelectronegat":663,"Fe":664,"ut":665,"hedr":666,"Ġcharge":667,"ĠNb":668,"lin":669,"Ġedge":670,"ĠV":671,"ĠB":672,"Ġtype":673,"Ġsing":674,"hedral":675,"Ġcatalyst":676,"Si":677,"ĠSe":678,"Ġhybrid":679,"Se":680,"kn":681,"Ġkn":682,"own":683,"Ġknown":684,"ĠMo":685,"Ġsingle":686,"mm":687,"Ġun":688,"Ġcan":689,"ĠCu":690,"acter":691,"Ġcharacter":692,"Ġcubic":693,"âĤħ":694,"by":695,"ĠY":696,"ĠTa":697,"Ġfive":698,"Ġparti":699,"Ġpartial":700,"Â°.":701,"Ġtrigonal":702,"low":703,"ĠRh":704,"ĠSc":705,"os":706,"ĠIt":707,"eby":708,"Ġstructured":709,"Ti":710,"ĠZn":711,"Ġeth":712,"Pd":713,"Ġelectronegativity":714,"ics":715,"ebye":716,"ĠAs":717,"Ġcharacterist":718,"ear":719,"In":720,"Ġcom":721,"Ġinter":722,"Ġover":723,"Ġcharacteristics":724,"air":725,"action":726,"As":727,"ple":728,"Ni":729,"ix":730,"ture":731,"Ġmix":732,"Ġmixture":733,"lene":734,"Ġ4":735,"Ġpair":736,"nce":737,"ĠGe":738,"ĠCo":739,"us":740,"ĠTe":741,"yl":742,"agonal":743,"Ġlin":744,"her":745,"ylene":746,"Ġpos":747,"ĠDebye":748,"80":749,"ff":750,"Ġdiff":751,"Ġlinear":752,"Ġcons":753,"ĠW":754,"if":755,"Ġsigma":756,"ĠFe":757,"Ġby":758,"Ġbo":759,"ĠCr":760,"Ġdiffere":761,"ollow":762,"Pt":763,"ĠSb":764,"Ġbri":765,"dge":766,"Ġbridge":767,"ndic":768,"OHCH":769,"Ġhybridized":770,"10":771,"Ġres":772,"Ġlone":773,"Ġtriple":774,"Te":775,"Ġpi":776,"ĠMn":777,"Ġma":778,"ĠSr":779,"onding":780,"Ġconsist":781,"anar":782,"Ġtil":783,"Ġpyramids":784,"ula":785,"Ġformula":786,"ul":787,"mol":788,"Ġ6":789,"Ġdo":790,"ĠSn":791,"Ga":792,"Ġposit":793,"Ġgly":794,"Ġbe":795,"Ġoverla":796,"ively":797,"ses":798,"ctahedral":799,"teen":800,"Ġnegat":801,"Ġthir":802,"Ġoctahedral":803,"Ġhave":804,"Ġab":805,"vol":806,"Ġinvol":807,"cet":808,"ĠÏ":809,"ther":810,"se":811,"Ġindic":812,"Ġ5":813,"Ġtilt":814,"ĠNa":815,"Ġoverlap":816,"roxy":817,"Ge":818,"Sb":819,"ant":820,"ĠAg":821,"ĠNO":822,"Ġhybridization":823,"Ġdifference":824,"dy":825,"mall":826,"Ġsmall":827,"Ġthird":828,"Ġmet":829,"Ìħ":830,"uble":831,"anol":832,"actions":833,"OCH":834,"ered":835,"strom":836,"Rh":837,"Ġother":838,"Zn":839,"Ġarou":840,"Ġaround":841,"Ġ180":842,"Ġface":843,"12":844,"ating":845,"Cu":846,"ta":847,"stroms":848,"NH":849,"ĠRu":850,"ven":851,"cent":852,"out":853,"Ġbody":854,"Ġabout":855,"centered":856,"is":857,"Ġpositive":858,"Ġnegative":859,"ĠAu":860,"09":861,"ke":862,"Ġformed":863,"ĠIr":864,"col":865,"Ġglycol":866,"Ġwe":867,"Ġdouble":868,"Ġbip":869,"res":870,"Ġinvolv":871,"Ġacet":872,"ĠK":873,"Mo":874,"Zr":875,"Ġhydroxy":876,"Ġcarbonyl":877,"Ġhollow":878,"ific":879,"ine":880,"Ġ120":881,"Over":882,"Overall":883,"Ġ109":884,"oc":885,"Ġresul":886,"Ġresult":887,"oth":888,"ĠBoth":889,"Ġsqu":890,"Ġsquare":891,"Ġplanar":892,"ĠOH":893,"Ġbipyramids":894,"Ġno":895,"ĠCCH":896,"Ġseven":897,"up":898,"Sn":899,"erm":900,"Ġ11":901,"Ġweight":902,"hyl":903,"bonding":904,"Ġnon":905,"Ġwhe":906,"Ġ9":907,"Hf":908,"Ġgroups":909,"Ġrange":910,"Ġindicating":911,"tain":912,"lu":913,"like":914,"ngstroms":915,"Ġpent":916,"Ġpentagonal":917,"Ag":918,"NO":919,"pa":920,"oxygen":921,"lat":922,"Ġrelat":923,"Ġpro":924,"Ġhe":925,"rib":926,"Ġ7":927,"Ġten":928,"cup":929,"67":930,"33":931,"sed":932,"Ġtetrahedral":933,"ire":934,"Ġrelatively":935,"hyd":936,"dical":937,"Ġradical":938,"54":939,"Ġwhere":940,"ional":941,"ĠE":942,"ers":943,"his":944,"ĠThis":945,"bic":946,"hom":947,"orhom":948,"thorhom":949,"thorhombic":950,"ĠAngstroms":951,"alence":952,"ĠÏĥ":953,"Co":954,"Ġorthorhombic":955,"id":956,"43":957,"Ġme":958,"ĠBi":959,"Ru":960,"96":961,"Ġunpa":962,"ired":963,"Ġunpaired":964,"Ir":965,"ide":966,"ari":967,"CO":968,"Ġreact":969,"Ġpres":970,"Ġcompo":971,"Ġvalence":972,"11":973,"Nb":974,"ĠPb":975,"Ġsy":976,"Au":977,"Ġoc":978,"Ġcontain":979,"Ġcontains":980,"Ġconsists":981,"nific":982,"Ġsignific":983,"Ġsignificant":984,"ĠCd":985,"ig":986,"als":987,"07":988,"ence":989,"Ġpairs":990,"ite":991,"42":992,"carbon":993,"zero":994,"ĠNH":995,"ha":996,"Ġhydroxyl":997,"69":998,"COH":999,"Ta":1000,"hydrogen":1001,"50":1002,"08":1003,"Ġoccup":1004,"xagonal":1005,"Ġhexagonal":1006,"Ġpolarity":1007,"Ġconsisting":1008,"ĠTc":1009,"ment":1010,"Ġmethyl":1011,"Ġvan":1012,"Ġ8":1013,"),":1014,"aals":1015,"Ġder":1016,"ĠWaals":1017,"Ġresulting":1018,"bridiz":1019,"hybridiz":1020,"hybridized":1021,"Ġelectronic":1022,"ape":1023,"Ġshape":1024,"pt":1025,"ption":1026,"Ġfourth":1027,"Ġtetragonal":1028,"rough":1029,"Sc":1030,"Ġinf":1031,"rises":1032,"16":1033,"ĠRe":1034,"per":1035,"Ġex":1036,"05":1037,"ĠCl":1038,"Ġinteractions":1039,"Ġzero":1040,"ined":1041,"85":1042,"ies":1043,"Ġethanol":1044,"Ġadsor":1045,"Ġadsorption":1046,"ĠRb":1047,"ĠEth":1048,"ribut":1049,"war":1050,"Ġtowar":1051,"Ġtowards":1052,"Ġnine":1053,"Ġpartic":1054,"22":1055,"53":1056,"Ġarises":1057,"am":1058,"Ġreactions":1059,"etr":1060,"mmetr":1061,"Ġfourteen":1062,"ding":1063,"Ġthrough":1064,"ip":1065,"ĠOs":1066,"55":1067,"Ġsixteen":1068,"Ġinvolves":1069,"ens":1070,"ĠCOCH":1071,"ble":1072,"alde":1073,"hyde":1074,"aldehyde":1075,"Cr":1076,"um":1077,"Ca":1078,"88":1079,"ĠCOHCH":1080,"rect":1081,"Ġdirect":1082,"Ġforming":1083,"lecular":1084,"linic":1085,"Ġcen":1086,"tral":1087,"Ġcentral":1088,"Ġsli":1089,"ght":1090,"Ġslight":1091,"15":1092,"Ġdet":1093,"Mn":1094,"Ġmean":1095,"ĠTl":1096,"der":1097,"Ġsu":1098,"Ġforms":1099,"Ġwate":1100,"Ġwater":1101,"ular":1102,"Ġcomb":1103,"Ġst":1104,"Cd":1105,"71":1106,"Ġanti":1107,"ĠOCH":1108,"ented":1109,"Ġparticip":1110,"Ġparticipate":1111,"Ġunhybridized":1112,"Bi":1113,"21":1114,"rbital":1115,"orm":1116,"Ġdirection":1117,"86":1118,"Ġmak":1119,"47":1120,"Ġreactivity":1121,"Ġterm":1122,"Ġterms":1123,"52":1124,"Ġsharing":1125,"dius":1126,"Ġradius":1127,"âģº,":1128,"ĠÏĢ":1129,"Ġdeterm":1130,"40":1131,"aus":1132,"Ġshe":1133,"Ġethylene":1134,"Ġpm":1135,"Ġmay":1136,"ĠF":1137,"clu":1138,"Ġinclu":1139,"han":1140,"Ġnot":1141,"Ġfollow":1142,"Cl":1143,"Ġacetylene":1144,"âĤĩ":1145,"Pb":1146,"Ġmore":1147,"ous":1148,"ied":1149,"edi":1150,"Ġvari":1151,"mmm":1152,"06":1153,"Ġthese":1154,"ort":1155,"ĠHg":1156,"ometers":1157,"Ġori":1158,"Ġoriented":1159,"und":1160,"Ġimp":1161,"gn":1162,"Ġmon":1163,"oclinic":1164,"Ġmonoclinic":1165,"ving":1166,"Ġmolecules":1167,"Ġhaving":1168,"ĠCs":1169,"âĤĢ":1170,"Ġinteract":1171,"Ġpresence":1172,"lanar":1173,"planar":1174,"02":1175,"un":1176,"CCH":1177,"âĤģâĤĢ":1178,"Ġdetermined":1179,"Ġfif":1180,"orbital":1181,"46":1182,"23":1183,"57":1184,"Ġinteraction":1185,"Ġatomic":1186,"Ġhigh":1187,"Ġsymmetr":1188,"omic":1189,"atomic":1190,"Ġrema":1191,"ining":1192,"Ġremaining":1193,"ipole":1194,"qual":1195,"62":1196,"Ġvarious":1197,"Ġnet":1198,"iz":1199,"ge":1200,"74":1201,"89":1202,"Ġcomposed":1203,"Ġboth":1204,"ortant":1205,"Ġimportant":1206,"82":1207,"Â°,":1208,"Ġincluding":1209,"Ġinform":1210,"Ġinformation":1211,"ination":1212,"Ġcombination":1213,"Ġinvolved":1214,"ĠCHOH":1215,"Ġslightly":1216,"Ġhig":1217,"6âĤĥ":1218,"rop":1219,"ec":1220,"Ġspec":1221,"75":1222,"Ġantibonding":1223,"Ġout":1224,"Ġallow":1225,"as":1226,"93":1227,"Ïĥ":1228,"ĠTiTi":1229,"Sr":1230,"Os":1231,"Tc":1232,"Ġmaking":1233,"Ġoccupy":1234,"yn":1235,"Ġwid":1236,"Ġwidth":1237,"Ġar":1238,"ĠCHCH":1239,"Ġsymmetrical":1240,"73":1241,"66":1242,"70":1243,"ĠOHNH":1244,"Ġelectronegative":1245,"45":1246,"Ġsheet":1247,"ium":1248,"ary":1249,"ates":1250,"Ġindicates":1251,"ental":1252,"imental":1253,"perimental":1254,"Ġexperimental":1255,"65":1256,"83":1257,"Ġ104":1258,"oxy":1259,"ature":1260,"19":1261,"24":1262,"Ġfifth":1263,"79":1264,"par":1265,"Ġsepar":1266,"Ġseparation":1267,"ĠCHOHCH":1268,"Ġper":1269,"Re":1270,"gan":1271,"Ġorgan":1272,"Ġorganic":1273,"ci":1274,"56":1275,"mens":1276,"dimens":1277,"dimensional":1278,"Ġcompound":1279,"etic":1280,"gnetic":1281,"81":1282,"Orbital":1283,"Ġproces":1284,"Ġsince":1285,"25":1286,"ell":1287,"ĠPm":1288,"44":1289,"ot":1290,"Hg":1291,"fig":1292,"uration":1293,"Ġconfig":1294,"Ġconfiguration":1295,"60":1296,"Ġused":1297,"Ġsurfaces":1298,"Ġcharged":1299,"Ġne":1300,"ame":1301,"Na":1302,"yan":1303,"icometers":1304,"ives":1305,"Ġgives":1306,"ĠFm":1307,"68":1308,"âĤī":1309,"cel":1310,"Ġcancel":1311,"rim":1312,"78":1313,"Ġ(-":1314,"dd":1315,"Ġstron":1316,"Ġstrong":1317,"MO":1318,"em":1319,"tribut":1320,"Ġcontribut":1321,"Ġcar":1322,"Ġ-":1323,"stem":1324,"Ġsystem":1325,"59":1326,"72":1327,"Ġnature":1328,"Ġde":1329,"nge":1330,"41":1331,"'s":1332,"ynol":1333,"âģµ":1334,"Ġval":1335,"Ġethoxy":1336,"yramid":1337,"77":1338,"64":1339,"Ġarra":1340,"ĠL":1341,"Ġtwent":1342,"51":1343,"ethan":1344,"Ġresults":1345,"Ġdifferen":1346,"Ġprim":1347,"arily":1348,"Ġprimarily":1349,"led":1350,"18":1351,"ch":1352,"Ġsuch":1353,"ĠEthylene":1354,"Tl":1355,"edge":1356,"Ġedgeedge":1357,"Ġtwenty":1358,"ĠIts":1359,"Ġwell":1360,"04":1361,"58":1362,"mmc":1363,"ÏĢ":1364,"Ġthere":1365,"49":1366,"mo":1367,"63":1368,"Ġwithin":1369,"ddit":1370,"ediol":1371,"ated":1372,"Prop":1373,"Propanol":1374,"nder":1375,"Ġunder":1376,"29":1377,"Ġrep":1378,"76":1379,"mc":1380,"Ġdistribut":1381,"Ġdistribution":1382,"Ġprocesses":1383,"Ġoverall":1384,"34":1385,"Ġsever":1386,"Ġseveral":1387,"Ġbec":1388,"ĠPn":1389,"tac":1390,"Ġattac":1391,"Ġattached":1392,"Ġpresent":1393,"48":1394,"Ġmeaning":1395,"ĠThese":1396,"Ġhighly":1397,"hol":1398,"cohol":1399,"Ġalcohol":1400,"Ġ62":1401,"ities":1402,"13":1403,"Ġsame":1404,"ethyl":1405,"Ġmoder":1406,"97":1407,"Ġeighteen":1408,"Ġpicometers":1409,"ized":1410,"ĠU":1411,"Ġmeans":1412,"14":1413,"aw":1414,"saw":1415,"Ġsee":1416,"ox":1417,"oxal":1418,"84":1419,"oo":1420,"Ġ12":1421,"92":1422,"Ġangstroms":1423,"tal":1424,"Ġtotal":1425,"COHCOH":1426,"Ġcomm":1427,"Bond":1428,"Bonding":1429,"Dipole":1430,"Molecular":1431,"61":1432,"ties":1433,"Ġproper":1434,"Ġproperties":1435,"Ġcharges":1436,"lam":1437,"hest":1438,"Ġref":1439,"ngement":1440,"Ġarrangement":1441,"ethanediol":1442,"ped":1443,"sha":1444,"shaped":1445,"CHCH":1446,"acet":1447,"Ġhigher":1448,"cataly":1449,"catalyst":1450,"Ġany":1451,"90":1452,"ĠNNO":1453,"ons":1454,"87":1455,"sing":1456,"pendic":1457,"Ġperpendic":1458,"Ġperpendicular":1459,"Ġfun":1460,"ctional":1461,"Ġfunctional":1462,"Ġpartially":1463,"nitrogen":1464,"Ġforces":1465,"Ġcaus":1466,"32":1467,"ived":1468,"derived":1469,"ĠCOHCHO":1470,"Ġsta":1471,"Ġoccupied":1472,"Ġinflu":1473,"Ġsixth":1474,"Ġposses":1475,"Ġdiatomic":1476,"mcm":1477,"Ġbent":1478,"ilic":1479,"COHCH":1480,"Ġtheor":1481,"ions":1482,"ilicide":1483,"ĠAlTi":1484,"Ġend":1485,"dj":1486,"Ġadj":1487,"acent":1488,"Ġadjacent":1489,"Ġsystems":1490,"Ġformation":1491,"coplanar":1492,"ĠPnma":1493,"equal":1494,"Ġunequal":1495,"36":1496,"Ġdia":1497,"ause":1498,"Ġbecause":1499,"NN":1500,"91":1501,"Ġglycolaldehyde":1502,"Ġrepres":1503,"Ġca":1504,"Ġground":1505,"Ġstate":1506,"Ġreactive":1507,"xime":1508,"Ġacetate":1509,"Ġcyan":1510,"ĠCCO":1511,"Ġthan":1512,"Ġformate":1513,"ues":1514,"Ġvalues":1515,"Ġ107":1516,"Ġ16":1517,"face":1518,"Ġfaceface":1519,"Ġdepe":1520,"Ġmoments":1521,"ations":1522,"erv":1523,"Ġcatalysts":1524,"ĠAddit":1525,"ionally":1526,"ĠAdditionally":1527,"Ġglyoxal":1528,"Ġhydroxylam":1529,"ible":1530,"pons":1531,"Ġrespons":1532,"Ġresponsible":1533,"ĠCOHCHOH":1534,"Ġfollowing":1535,"ĠTiSe":1536,"ĠCCHO":1537,"Ġmake":1538,"Ġpyramid":1539,"Ġbeing":1540,"eus":1541,"eusler":1542,"Ġacetyl":1543,"ance":1544,"int":1545,"Ġdifferent":1546,"oint":1547,"Ġpoint":1548,"94":1549,"illed":1550,"hys":1551,"95":1552,"Ġethynol":1553,"26":1554,"37":1555,"Ġind":1556,"bond":1557,"Ġcre":1558,"99":1559,"ood":1560,"los":1561,"Ġclos":1562,"ngular":1563,"ctangular":1564,"Ġrectangular":1565,"Ġcarri":1566,"Ġsol":1567,"acetylene":1568,"01":1569,"Ġstable":1570,"Ġen":1571,"35":1572,"polar":1573,"Ġnonpolar":1574,"ĠHeusler":1575,"Ġinvolve":1576,"ran":1577,"ust":1578,"Ġrefers":1579,"Ġmeas":1580,"ĠEthanol":1581,"Ġsci":1582,"Ġfollows":1583,"Ġspecies":1584,"Ġspecific":1585,"27":1586,"Ġdoes":1587,"ne":1588,"Ġdiam":1589,"Ġ111":1590,"Ġshared":1591,"ĠUran":1592,"ĠUranium":1593,"Ġj":1594,"Ġ60":1595,"enot":1596,"Ġdenot":1597,"Ġdenotes":1598,"eter":1599,"Ġdiameter":1600,"ĠCN":1601,"ĠSilicide":1602,"Ġcontributes":1603,"Ġinfluence":1604,"Ġhydroxylamine":1605,"ever":1606,"ĠHow":1607,"ĠHowever":1608,"Ġshares":1609,"Ġmoderate":1610,"Ġ110":1611,"Ġequal":1612,"Ġcyano":1613,"2âĤģ":1614,"methyl":1615,"17":1616,"Ġ14":1617,"Ġtriatomic":1618,"CHOHCH":1619,"ew":1620,"dent":1621,"Ġident":1622,"Ġunderst":1623,"Ġidentical":1624,"Ġnear":1625,"corner":1626,"Ġcornercorner":1627,"Ġ44":1628,"Ġmagnetic":1629,"Ġsheets":1630,"av":1631,"ene":1632,"38":1633,"Ġtyp":1634,"zene":1635,"Ġdiazene":1636,"Ġ32":1637,"zine":1638,"razine":1639,"Ġhydrazine":1640,"ama":1641,"Ġparama":1642,"Ġparamagnetic":1643,"30":1644,"Ġide":1645,"Ġideal":1646,"to":1647,"Ġonto":1648,"Ġdepending":1649,"Ġbeta":1650,"Ġcommon":1651,"015":1652,"98":1653,"Ġvary":1654,"bor":1655,"ric":1656,"Ġdens":1657,"Ġdensity":1658,"Ġstre":1659,"Ġtheory":1660,"ll":1661,"alized":1662,"ocalized":1663,"Ġrepresent":1664,"ou":1665,"you":1666,"Ġyou":1667,"39":1668,"four":1669,"Ġpositively":1670,"Ġnegatively":1671,"ĠCuCu":1672,"ibit":1673,"Ġmethan":1674,"Ġmethane":1675,"hibit":1676,"Ġexhibit":1677,"Ġtilted":1678,"most":1679,"Ġattr":1680,"acted":1681,"Ġattracted":1682,"28":1683,"Ġlow":1684,"Ġman":1685,"Ġmany":1686,"Ġunoc":1687,"cupied":1688,"Ġunoccupied":1689,"Ġcomple":1690,"ĠOrbital":1691,"ĠDipole":1692,"ĠBond":1693,"ĠBonding":1694,"ĠMolecular":1695,"Ġthis":1696,"Ġelectr":1697,"est":1698,"ymmetr":1699,"Ġasymmetr":1700,"Ġasymmetric":1701,"Ġnit":1702,"Ġthey":1703,"Ġoverlaps":1704,"vi":1705,"Ġcarries":1706,"Ġpointing":1707,"âģ¶":1708,"Ġqu":1709,"ru":1710,"Ġcru":1711,"cial":1712,"Ġcrucial":1713,"31":1714,"Ġmeasure":1715,"Ġphys":1716,"ctively":1717,"pectively":1718,"Ġrespectively":1719,"ighbor":1720,"Ġneighbor":1721,"Ġneighboring":1722,"uted":1723,"Ġdistrib":1724,"Ġdistributed":1725,"ak":1726,"Ġweak":1727,"Ġhydroxyacetylene":1728,"leven":1729,"Ġeleven":1730,"Ġ116":1731,"pha":1732,"00":1733,"Ġmetal":1734,"ility":1735,"Ġability":1736,"Rb":1737,"ĠCHCOH":1738,"ĠCOCHO":1739,"120":1740,"Ġseventh":1741,"Ġcausing":1742,"elf":1743,"Ġitself":1744,"ĠEach":1745,"Ġpul":1746,"Ġ74":1747,"entific":1748,"Ġscientific":1749,"iel":1750,"Ġfiel":1751,"Ġfields":1752,"Ġpossesses":1753,"ride":1754,"These":1755,"ore":1756,"Ġtriplet":1757,"HO":1758,"Ġhighest":1759,"HOMO":1760,"COCH":1761,"ock":1762,"ĠCaN":1763,"Ġac":1764,"Ġuse":1765,"Ġsurrou":1766,"Ġsurrounding":1767,"dipole":1768,"Ġlea":1769,"ĠTiS":1770,"Ġtheir":1771,"Ġver":1772,"Ġthem":1773,"Ġsimp":1774,"Ġsimple":1775,"ĠZnZn":1776,"âī":1777,"âī¡":1778,"03":1779,"NNCH":1780,"cted":1781,"Ġconne":1782,"Ġconnected":1783,"ĠVS":1784,"CHOH":1785,"hydroxy":1786,"Ġcal":1787,"Ġdipoles":1788,"Ġalpha":1789,"vir":1790,"onment":1791,"Ġstu":1792,"Ġenvir":1793,"Ġenvironment":1794,"Ġpolarities":1795,"ically":1796,"Ġ58":1797,"110":1798,"oxime":1799,"dioxime":1800,"Ġdimethyl":1801,"Ġdimethyldioxime":1802,"ane":1803,"Ġbeen":1804,"Ġexperimentally":1805,"Ġplane":1806,"aur":1807,"icup":1808,"ĠTetra":1809,"auricup":1810,"ĠTetraauricup":1811,"ĠTetraauricupride":1812,"Ġintermo":1813,"Ġintermolecular":1814,"Ġacetaldehyde":1815,"Ġallows":1816,"Ġonly":1817,"its":1818,"Ġunits":1819,"ĠAcet":1820,"Ġcond":1821,"itions":1822,"Ġconditions":1823,"stly":1824,"ĠAlAl":1825,"arby":1826,"Ġnearby":1827,"Ġjust":1828,"Ġgive":1829,"bs":1830,"Ġobs":1831,"Ġobserv":1832,"anometers":1833,"Ġnanometers":1834,"*(":1835,"âģ°":1836,"Ġ106":1837,"Ġ121":1838,"Ġusing":1839,"CHOCH":1840,"Ġinvolving":1841,"ay":1842,"Ġro":1843,"Ġplay":1844,"Ġrole":1845,"ĠCHOCH":1846,"medi":1847,"Ġsub":1848,"Ġcovalently":1849,"Ġintermedi":1850,"Ġintermediate":1851,"Ġdebye":1852,"one":1853,"Ġconsid":1854,"Ġox":1855,"ĠHfHf":1856,"Ġmakes":1857,"Ġstrength":1858,"vent":1859,"ĠCmcm":1860,"rying":1861,"Ġcarrying":1862,"erg":1863,"Ġ119":1864,"nit":1865,"Ġdel":1866,"go":1867,"Ġundergo":1868,"uter":1869,"Ġouter":1870,"Ġshell":1871,"Ġoutermost":1872,"Ġcha":1873,"nal":1874,"Ġeigh":1875,"Ġeighth":1876,"ĠCHCHO":1877,"Ġmeasured":1878,"ndid":1879,"Ġgood":1880,"Ġcandid":1881,"Ġcandidate":1882,"Ġcent":1883,"Ġcenter":1884,"sion":1885,"ulsion":1886,"vide":1887,"Ġprovide":1888,"thest":1889,"arthest":1890,"Ġfarthest":1891,"uent":1892,"ituent":1893,"stituent":1894,"Ġconstituent":1895,"Ġba":1896,"ten":1897,"Ġoften":1898,"Ġtetrahedr":1899,"Ġtetrahedron":1900,"Ġexhibits":1901,"tro":1902,"atic":1903,"Ġfilled":1904,"static":1905,"Ġelectro":1906,"Ġelectrostatic":1907,"hanol":1908,"Ġmethanol":1909,"Ġdelocalized":1910,"ĠDeby":1911,"ĠDebyes":1912,"Ġ49":1913,"ĠNiNi":1914,"form":1915,"Ġperform":1916,"Ġperformance":1917,"mmary":1918,"Ġsummary":1919,"onance":1920,"Ġresonance":1921,"Ġclose":1922,"Ġclu":1923,"Ġclust":1924,"lock":1925,"ĠOHNNCH":1926,"cur":1927,"istry":1928,"Ġinteracts":1929,"ergy":1930,"Ġcreating":1931,"Ġbut":1932,"Ġx":1933,"ĠNiTa":1934,"Ġq":1935,"LU":1936,"Ġlowest":1937,"LUMO":1938,"Ġlar":1939,"Ġlarge":1940,"ls":1941,"olum":1942,"Ġvolum":1943,"Ġpulls":1944,"Ġvolume":1945,"Ġtric":1946,"Ġtriclinic":1947,"Ġhybridize":1948,"filled":1949,"sat":1950,"urated":1951,"Ġunsat":1952,"Ġunsaturated":1953,"other":1954,"Ġanother":1955,"121":1956,"Ġsoluble":1957,"Ġsolvent":1958,"Ġsolvents":1959,"Ġcapa":1960,"Ġwil":1961,"Ġphysical":1962,"Ġwill":1963,"Ġcreate":1964,"Ġelectric":1965,"hase":1966,"ĠAgAg":1967,"Ġmain":1968,"Ġ115":1969,"Ġnitro":1970,"ĠCuS":1971,"ĠOHCH":1972,"Ġfree":1973,"inyl":1974,"Ġvinyl":1975,"Ġsingly":1976,"Ġleads":1977,"ĠMoSe":1978,"Ġcloser":1979,"prop":1980,"the":1981,"then":1982,"Cs":1983,"ĠSbS":1984,"ĠZrZr":1985,"Ġcauses":1986,"ĠReRe":1987,"ponding":1988,"Ġcor":1989,"responding":1990,"Ġcorresponding":1991,"Ġbeha":1992,"vior":1993,"Ġbehavior":1994,"CN":1995,"Ġbipyramid":1996,"Eth":1997,"Ethylene":1998,"Ġshow":1999,"Ġdifferences":2000,"rite":2001,"Ġdef":2002,"Ġheav":2003,"Ġheavy":2004,"Â°).":2005,"Ġact":2006,"nds":2007,"Ġgen":2008,"erating":2009,"Ġgenerating":2010,"Ġgas":2011,"luor":2012,"Ġcombined":2013,"ĠOxime":2014,"Â°),":2015,"ĠAcetaldehyde":2016,"ament":2017,"cu":2018,"uil":2019,"Ġblock":2020,"Ġbuil":2021,"Ġserv":2022,"Ġfund":2023,"ivities":2024,"Ġelectronegativities":2025,"Ġdocu":2026,"mented":2027,"Ġunderstood":2028,"01588":2029,"amental":2030,"Ġbuilding":2031,"Ġserves":2032,"Ġfundamental":2033,"Ġdocumented":2034,"Ġcer":2035,"Ġcertain":2036,"ĠScSc":2037,"Ġtypes":2038,"Ġquite":2039,"tical":2040,"oretical":2041,"hydroxyethyl":2042,"taining":2043,"118":2044,"Ġopp":2045,"osite":2046,"Ġopposite":2047,"ĠCrS":2048,"pted":2049,"Ġwide":2050,"cepted":2051,"unity":2052,"Ġcommunity":2053,"Ġaccepted":2054,"Ġwidely":2055,"ĠSY":2056,"NNH":2057,"Ġthirteen":2058,"bd":2059,"lybd":2060,"ĠMolybd":2061,"ĠMolybden":2062,"Ġmoderately":2063,"anding":2064,"cul":2065,"luct":2066,"uate":2067,"Ġtheoretical":2068,"Ġfluct":2069,"Ġmostly":2070,"Ġdioxygen":2071,"Ġchemically":2072,"Ġhence":2073,"idated":2074,"Ġnote":2075,"Ġvalidated":2076,"Ġunderstanding":2077,"Ġcalcul":2078,"Ġstudy":2079,"Ġobservations":2080,"Ġfluctuate":2081,"Ġcalculations":2082,"Ġ117":2083,"get":2084,"Ġtoget":2085,"Ġtogether":2086,"CHO":2087,"ĠCHOCHO":2088,"ĠTiAl":2089,"109":2090,"122":2091,"Ġpolariz":2092,"Ġpolarization":2093,"ĠAlHf":2094,"Ġethan":2095,"ĠAlZr":2096,"uce":2097,"Ġparticular":2098,"Ġcontributing":2099,"Ġthereby":2100,"Ġinduce":2101,"Ġtypically":2102,"Ġvery":2103,"Ġ46":2104,"ĠPtPt":2105,"ĠLav":2106,"ĠNbSi":2107,"ĠLaves":2108,"ĠPdPd":2109,"ĠNiS":2110,"ĠNiSe":2111,"Ġnin":2112,"ĠNbS":2113,"ĠMoMo":2114,"ty":2115,"Ġrough":2116,"Ġemp":2117,"Ġroughly":2118,"Ġempty":2119,"ĠNiP":2120,"Ġ42":2121,"VB":2122,"able":2123,"crib":2124,"des":2125,"Ġaddit":2126,"itable":2127,"ĠMO":2128,"Ġsuitable":2129,"ĠUsing":2130,"Ġtheories":2131,"cribed":2132,"described":2133,"Ġaddition":2134,"ĠPP":2135,"Ġinclude":2136,"ĠNCa":2137,"Ġ55":2138,"alf":2139,"Ġhalf":2140,"ino":2141,"ĠFeS":2142,"Ġfifteen":2143,"ĠTiSi":2144,"955":2145,"Ġoccupies":2146,"Ġoxide":2147,"Acet":2148,"iqu":2149,"lel":2150,"allel":2151,"ĠCC":2152,"Ġcarbons":2153,"rial":2154,"Ġparallel":2155,"Ġuniqu":2156,"Ġindust":2157,"Acetylene":2158,"Ġunique":2159,"Ġindustrial":2160,"Ġninth":2161,"ĠYS":2162,"ĠNiAl":2163,"ĠPdCu":2164,"mu":2165,"ĠPdTl":2166,"nite":2167,"ĠPtIn":2168,"ĠTaNi":2169,"1085":2170,"ĠMnAs":2171,"Ġve":2172,"ctor":2173,"Ġ57":2174,"antity":2175,"Ġquantity":2176,"Ġvector":2177,"ork":2178,"Ġfram":2179,"ework":2180,"Ġframework":2181,"traction":2182,"reas":2183,"Ġwhereas":2184,"Ġrepresented":2185,"Ġenergy":2186,"Ġsubtraction":2187,"Ġconsidered":2188,"nitric":2189,"ĠAlNi":2190,"Ġhybrids":2191,"Ġloc":2192,"Ġ30":2193,"Ġpositions":2194,"Ġlocated":2195,"Ġ48":2196,"nm":2197,"hion":2198,"Ġfas":2199,"Ġalter":2200,"Ġethyn":2201,"114":2202,"Ġprocess":2203,"Ġchange":2204,"Ġfashion":2205,"Ġethyne":2206,"con":2207,"ĠIm":2208,"arbide":2209,"ĠNiAs":2210,"adi":2211,"026":2212,"Ġclusters":2213,"ĠHa":2214,"Ġ75":2215,"Ġpyramidal":2216,"Ġmin":2217,"ticip":2218,"imiz":2219,"Ġanticip":2220,"Ġrepulsion":2221,"Ġelectrical":2222,"Ġminimiz":2223,"Ġanticipation":2224,"Ġminimizing":2225,"ĠCrTe":2226,"duct":2227,"rocarbon":2228,"quent":2229,"Ġhydrocarbon":2230,"hylene":2231,"sequent":2232,"Ġmethylene":2233,"Ġproduct":2234,"Ġcomplex":2235,"Ġsubsequent":2236,"Ġhydrocarbons":2237,"Ġproducts":2238,"gram":2239,"Ġent":2240,"ĠNN":2241,"ĠNNH":2242,"Ġlocalized":2243,"Ġdiagram":2244,"Ġentire":2245,"ONH":2246,"picometers":2247,"also":2248,"Ġ142":2249,"pping":2250,"ĠONH":2251,"Ġoverlapping":2252,"RC":2253,"boo":2254,"eer":2255,"les":2256,"Ġsour":2257,"revi":2258,"ndboo":2259,"ĠChem":2260,"ĠCRC":2261,"Ġpeer":2262,"ĠPhys":2263,"ournal":2264,"ticles":2265,"ified":2266,"NHNH":2267,"ĠNHNH":2268,"Ġarticles":2269,"Ġjournal":2270,"ewed":2271,"Ġverified":2272,"ĠHandboo":2273,"Ġsources":2274,"reviewed":2275,"ĠChemistry":2276,"ĠPhysics":2277,"ĠHandbook":2278,"fluor":2279,"ĠCarbon":2280,"Ġformaldehyde":2281,"fluoride":2282,"muth":2283,"ĠInS":2284,"Ġparticipates":2285,"ĠTcTc":2286,"ences":2287,"Ġhow":2288,"Ġdetermine":2289,"Ġinfluences":2290,"Ġconsider":2291,"ĠAuAg":2292,"Ġlower":2293,"ĠTaS":2294,"Ġ123":2295,"Ġcharacterized":2296,"CHCHO":2297,"Ġ76":2298,"onating":2299,"Ġdonating":2300,"ĠLew":2301,"Ġbase":2302,"Ġcapable":2303,"ĠLewis":2304,"ĠCaAs":2305,"Ġ47":2306,"nged":2307,"Ġethyl":2308,"Ġ114":2309,"Ġwhen":2310,"Ġinteracting":2311,"Ġcancels":2312,"Ġarranged":2313,"Ġundergoes":2314,"Ġ150":2315,"ĠNaSe":2316,"smuth":2317,"Ġbismuth":2318,"Ġtrifluoride":2319,"âĤģâĤģ":2320,"Un":2321,"adsorbate":2322,"fort":2323,"not":2324,"ring":2325,"sist":2326,"Ġ\"":2327,"ested":2328,"erring":2329,"quested":2330,"ĠIf":2331,"Ġhapp":2332,"Ġname":2333,"Ġrequested":2334,"Ġassist":2335,"Ġcannot":2336,"ĠNONH":2337,"NONH":2338,"025":2339,"unately":2340,"Ġreferring":2341,"Ġaccur":2342,"Unfort":2343,"Ġhappy":2344,"Ġaccurate":2345,"Unfortunately":2346,"ĠMoS":2347,"196":2348,"fore":2349,"gg":2350,"mon":2351,"Ġamon":2352,"ĠMethan":2353,"ternal":2354,"Ġexternal":2355,"Ġsugg":2356,"Ġtherefore":2357,"ests":2358,"Ġamong":2359,"ĠMethane":2360,"Ġsuggests":2361,"te":2362,"452":2363,"agn":2364,"esium":2365,"ĠMagn":2366,"ĠMagnesium":2367,"aile":2368,"ĠÃħngstroms":2369,"ĠSin":2370,"ĠHere":2371,"Ġdetaile":2372,"ĠSince":2373,"Ġdetailed":2374,"CCHO":2375,"Ġstrongly":2376,"Ġcomplete":2377,"Ġcompletely":2378,"ĠAlTa":2379,"ĠMolybdenite":2380,"206":2381,"There":2382,"OHNH":2383,"Ġ96":2384,"Ġbased":2385,"Ġ71":2386,"ĠPdBi":2387,"ĠTlPd":2388,"kite":2389,"Ġ73":2390,"ĠRhSi":2391,"Ġmetals":2392,"ĠCCHOH":2393,"ides":2394,"ĠEthynol":2395,"CCHOH":2396,"Ġoxides":2397,"ĠDis":2398,"Debye":2399,"EP":2400,"Valence":2401,"ced":2402,"ind":2403,"pers":2404,"pically":2405,"pulsion":2406,"spers":2407,"uced":2408,"ypically":2409,"hell":2410,"ondon":2411,"orption":2412,"lectron":2413,"Ġdispers":2414,"ĠShell":2415,"ĠPair":2416,"ĠTypically":2417,"ĠOne":2418,"Ġdegree":2419,"isorption":2420,"ĠElectron":2421,"ĠRepulsion":2422,"ĠEthoxy":2423,"Ġdirected":2424,"ĠLondon":2425,"Ġdepends":2426,"Ġphysisorption":2427,"ĠVSEP":2428,"Ġcalled":2429,"induced":2430,"Ġdispersion":2431,"ĠVSEPR":2432,"233":2433,"yd":2434,"Ġisoc":2435,"yanate":2436,"Ġisocyanate":2437,"ĠDisilicide":2438,"4âĤĤ":2439,"ĠInTi":2440,"ĠZrSi":2441,"ĠScSb":2442,"Ġtenth":2443,"ĠHex":2444,"ĠHexagonal":2445,"1216":2446,"ĠZnS":2447,"ĠGaTi":2448,"Hyd":2449,"pynol":2450,"ĠĠĊ":2451,"roxyacetylene":2452,"Ġpropynol":2453,"Hydroxyacetylene":2454,"ĠCm":2455,"ĠCHCHOH":2456,"CHCHOH":2457,"sure":2458,"ĠHY":2459,"be":2460,"ual":2461,"Ġset":2462,"Ġsens":2463,"itivity":2464,"nges":2465,"ivid":2466,"dies":2467,"Ġprobe":2468,"Ġindivid":2469,"Ġscience":2470,"Ġnearly":2471,"Ġstudies":2472,"Ġchanges":2473,"Ġsets":2474,"Ġsensitivity":2475,"Ġindividual":2476,"Ġoccur":2477,"red":2478,"covalent":2479,"Ġcontribute":2480,"Ġpossess":2481,"Ġweaker":2482,"COCHO":2483,"ĠIrIr":2484,"116":2485,"Ġion":2486,"omal":2487,"Ġanion":2488,"Ġanomal":2489,"Ġanomalous":2490,"ased":2491,"based":2492,"rit":2493,"syl":2494,"omer":2495,"Ġisomer":2496,"ĠHence":2497,"Ġnitrite":2498,"nitrit":2499,"Ġnitrosyl":2500,"nitrito":2501,"Ġethen":2502,"Ġalmost":2503,"Ġsymmetric":2504,"Ġethenyl":2505,"464":2506,"ain":2507,"ĠMoNi":2508,"ĠCoGe":2509,"Ġom":2510,"ega":2511,"Ġomega":2512,"cy":2513,"ien":2514,"lic":2515,"ome":2516,"omain":2517,"Ġcm":2518,"icien":2519,"Ġmove":2520,"Ġ143":2521,"Ġ152":2522,"ĠIso":2523,"analdehyde":2524,"Ġdomain":2525,"Ġreadi":2526,"Ġvaries":2527,"Ġimplic":2528,"Ġbecome":2529,"COHCHO":2530,"Ġrepresents":2531,"hydroxyprop":2532,"propyl":2533,"Ġdeficien":2534,"Ġmovement":2535,"ĠIsopropyl":2536,"Ġdomains":2537,"Ġreadily":2538,"Ġimplications":2539,"hydroxypropanaldehyde":2540,"Ġdeficiency":2541,"Ġ59":2542,"281":2543,"420":2544,"*)":2545,"ctive":2546,"Ġdistin":2547,"ĠFeAs":2548,"Ġacetone":2549,"Ġplanarity":2550,"acetone":2551,"Ġdistinctive":2552,"ĠCoP":2553,"ĠNaNa":2554,"Ġ50":2555,"Ġphase":2556,"ĠCrP":2557,"-),":2558,"ean":2559,"hile":2560,"while":2561,"ngthen":2562,"Ġprom":2563,"Ġdiol":2564,"ĠMean":2565,"Orbitally":2566,"oting":2567,"Ġstrengthen":2568,"Ġactivity":2569,"Ġpromoting":2570,"ĠMeanwhile":2571,"Reg":2572,"arding":2573,"Ġchemistry":2574,"Regarding":2575,"472":2576,"ĠScAs":2577,"ial":2578,"Ġpot":2579,"ential":2580,"ĠDue":2581,"Ġwherein":2582,"mentary":2583,"Ġpossessing":2584,"Ġcommonly":2585,"Ġcomplementary":2586,"Ġpotential":2587,"Ġpressure":2588,"107":2589,"cyan":2590,"Ġdiffer":2591,"Ġcarriers":2592,"cyanide":2593,"ĠSbTi":2594,"098":2595,"ĠCarbide":2596,"ĠNbSe":2597,"ĠVSi":2598,"La":2599,"Ġcluster":2600,"erature":2601,"mperature":2602,"ĠSbPt":2603,"ĠPtSb":2604,"prises":2605,"uring":2606,"Ġcomprises":2607,"Ġmeasuring":2608,"emperature":2609,"Ġari":2610,"Ġtemperature":2611,"react":2612,"Ġunreact":2613,"Ġcompounds":2614,"containing":2615,"Ġpressures":2616,"Ġarise":2617,"Ġtemperatures":2618,"Ġunreactive":2619,"ĠPhase":2620,"pla":2621,"Ġali":2622,"OCHCH":2623,"COOCH":2624,"Ġexpla":2625,"ĠOCHCH":2626,"gning":2627,"Ġaligning":2628,"Ġexplained":2629,"CCO":2630,"HNO":2631,"dra":2632,"wing":2633,"with":2634,"Ġcyanide":2635,"Lastly":2636,"drawing":2637,"withdrawing":2638,"ONN":2639,"omin":2640,"Ġpred":2641,"ĠONN":2642,"Ġdistance":2643,"antly":2644,"Ġdefined":2645,"ominantly":2646,"Ġpredominantly":2647,"-).":2648,"bil":2649,"ithin":2650,"ĠWithin":2651,"Ġ90":2652,"COO":2653,"Ġcapabil":2654,"Ġcapabilities":2655,"Ġ13":2656,"itan":2657,"ĠTitan":2658,"ĠTitanium":2659,"Ġmul":2660,"tiple":2661,"Ġmultiple":2662,"ĠAlSc":2663,"Ġ45":2664,"1220":2665,"ĠVZr":2666,"ONNH":2667,"sary":2668,"Ġretaining":2669,"cessary":2670,"ĠONNH":2671,"Ġ105":2672,"Ġnecessary":2673,"Ġobserved":2674,"ĠCrSe":2675,"Ġcentralized":2676,"COHCHOH":2677,"ĠNHf":2678,"pper":2679,"angstroms":2680,"ked":2681,"Ġlinked":2682,"Ġrepresenting":2683,"Ġpulled":2684,"Ġcorrespondingly":2685,"ĠGaS":2686,"tun":2687,"ĠCotun":2688,"ĠCotunnite":2689,"gions":2690,"Ġregions":2691,"Ġcharacteristic":2692,"Ġcombine":2693,"ĠCopper":2694,"ĠFeP":2695,"yrite":2696,"âģ»,":2697,"ĠAgCd":2698,"ĠTaSi":2699,"gation":2700,"ju":2701,"lyoxal":2702,"ĠGlyoxal":2703,"Ġconju":2704,"Ġup":2705,"edial":2706,"Ġethanedial":2707,"Ġconjugation":2708,"ung":2709,"sten":2710,"ĠTung":2711,"ĠTungsten":2712,"ĠNiSi":2713,"nmm":2714,"ĠNiNb":2715,"Ġall":2716,"Ġethanediol":2717,"ĠRhRu":2718,"ĠNaS":2719,"ĠGaZr":2720,"ĠMoAl":2721,"zed":2722,"energy":2723,"Ġest":2724,"alyzed":2725,"imated":2726,"CHCO":2727,"ĠCHCO":2728,"Ġanalyzed":2729,"ĠFeZr":2730,"Ġstands":2731,"Ġmeasures":2732,"Ġleading":2733,"ĠAcetyl":2734,"Ġestimated":2735,"ĠCuAl":2736,"ĠSnZr":2737,"ĠCoCo":2738,"verite":2739,"ĠCrZr":2740,"ubic":2741,"ĠYY":2742,"102":2743,"ĠNbGe":2744,"Ġ51":2745,"ĠZnTi":2746,"1183":2747,"ĠNiTe":2748,"ĠGaNb":2749,"Ġeleventh":2750,"ĠPdMo":2751,"ĠHTi":2752,"alite":2753,"ia":2754,"Ġvia":2755,"ĠCHOHCHOH":2756,"CHOHCHOH":2757,"Each":2758,"Ġ134":2759,"Ġangstrom":2760,"alt":2761,"ĠSalt":2762,"ĠHalite":2763,"ĠRock":2764,"CHOCHOH":2765,"ĠCHOCHOH":2766,"ĠRuRu":2767,"ĠRhV":2768,"ĠSrN":2769,"ĠPnnm":2770,"ĠImmm":2771,"ĠPtNb":2772,"ĠInSe":2773,"Ġ52":2774,"ĠAsAs":2775,"ĠNiGa":2776,"ĠAlCu":2777,"ĠInSc":2778,"1079":2779,"ĠRuIr":2780,"ĠMnMn":2781,"569":2782,"ĠFeSe":2783,"ĠHfAl":2784,"ĠAgZn":2785,"ĠCmmm":2786,"ĠInPt":2787,"met":2788,"Ġdimet":2789,"OHNNCH":2790,"hylam":2791,"Ġrelative":2792,"Ġhydroxylamino":2793,"Ġdimethylam":2794,"Ġdimethylamino":2795,"ĠMoTe":2796,"ĠAmm":2797,"Ġ54":2798,"ĠSrP":2799,"ĠSeK":2800,"Ġrib":2801,"Ġribb":2802,"AX":2803,"ĠMAX":2804,"1186":2805,"ĠFluor":2806,"ĠFluorite":2807,"101":2808,"ĠFd":2809,"ĠPdHg":2810,"ĠPmm":2811,"ĠPdZn":2812,"ĠCuSe":2813,"ĠCoSi":2814,"ĠVRh":2815,"867":2816,"ĠVV":2817,"ĠAlS":2818,"119":2819,"ĠTiTe":2820,"ĠMolybdenum":2821,"ĠPdNb":2822,"ĠBiPd":2823,"fth":2824,"Ġtwelfth":2825,"ĠTaTe":2826,"ĠCrAs":2827,"ĠRhPt":2828,"ĠIrSi":2829,"ĠInZr":2830,"ĠScSi":2831,"ĠCaP":2832,"ĠCoZr":2833,"ĠPtTi":2834,"ĠNbPt":2835,"ĠMoSi":2836,"ĠNbTe":2837,"ĠAlY":2838,"ĠAlNb":2839,"ĠMnZr":2840,"ĠSCu":2841,"hat":2842,"rkite":2843,"yrkite":2844,"ĠKhat":2845,"ĠKhatyrkite":2846,"ĠGaNi":2847,"ĠMnP":2848,"ĠMnS":2849,"ĠTaGe":2850,"ĠSZn":2851,"Ġapproximate":2852,"ĠNiHf":2853,"1187":2854,"ĠGaPt":2855,"ĠHgPd":2856,"ĠPbc":2857,"ĠMnSi":2858,"567":2859,"1215":2860,"ĠPtGa":2861,"ĠFeSb":2862,"mb":2863,"ĠPtAl":2864,"ĠBiSe":2865,"ĠVSe":2866,"Ġ40":2867,"ĠWN":2868,"ĠSrAs":2869,"ĠTaN":2870,"1219":2871,"ĠWS":2872,"ĠCoSe":2873,"ĠSeTi":2874,"ĠHCa":2875,"ĠRhMo":2876,"ĠSSb":2877,"sw":2878,"sil":2879,"ĠCasw":2880,"ellsil":2881,"ĠCaswellsil":2882,"ĠCaswellsilverite":2883,"ĠGaHf":2884,"1224":2885,"ĠNTi":2886,"ĠHfGe":2887,"mbm":2888,"ĠTiPt":2889,"ĠAlPt":2890,"ĠLa":2891,"ĠTiN":2892,"ĠCdAg":2893,"ĠCubic":2894,"ĠOsTa":2895,"1217":2896,"ĠPCa":2897,"ĠPyrite":2898,"Ġ18":2899,"dder":2900,"ĠModder":2901,"ĠModderite":2902,"ĠNbN":2903,"ĠIrNb":2904,"ĠTlTl":2905,"ĠNSr":2906,"ĠSeNa":2907,"ĠFeFe":2908,"Ġribbons":2909,"ĠPSr":2910,"ĠNaTe":2911,"ĠZrSb":2912,"ĠZrAl":2913,"ĠNiTi":2914,"mnm":2915,"ĠCSi":2916,"ĠCuSc":2917,"ĠCdS":2918,"ĠCaSi":2919,"ĠPmma":2920,"ĠSiSi":2921,"ĠFeTa":2922,"ĠPbS":2923,"ĠVTe":2924,"ĠMoAs":2925,"ĠSNi":2926,"ĠTaTa":2927,"ĠNiGe":2928,"ĠWSi":2929,"Ġ63":2930,"ĠPtMo":2931,"1221":2932,"ĠCaSb":2933,"ĠHSr":2934,"ĠNNb":2935,"ĠPdV":2936,"ĠPbPd":2937,"4âĤģ":2938,"ĠMnGe":2939,"ĠIrRe":2940,"ĠBiS":2941,"ĠMnN":2942,"ĠNiZr":2943,"ĠSiC":2944,"ĠZrGa":2945,"ĠGeS":2946,"ĠCdCd":2947,"308":2948,"ĠPdAg":2949,"ĠNiSb":2950,"ĠSnHf":2951,"ĠZnPd":2952,"222":2953,"ĠHfN":2954,"ĠRhTe":2955,"ĠRhSn":2956,"ĠSnTi":2957,"ĠPdTa":2958,"ĠSnS":2959,"ĠWPd":2960,"ĠAgAl":2961,"ĠOsP":2962,"ĠWTe":2963,"ĠRhS":2964,"ĠCsCl":2965,"man":2966,"1018":2967,"ĠAsCa":2968,"1080":2969,"ĠNaAs":2970,"ĠAgAu":2971,"ĠPdSn":2972,"ero":2973,"skite":2974,"vskite":2975,"ĠPero":2976,"ĠNiCa":2977,"ĠPerovskite":2978,"ĠZnP":2979,"ĠCdTi":2980,"ĠScP":2981,"ĠPdTi":2982,"ĠAgS":2983,"ĠZrP":2984,"ĠCoV":2985,"ĠPdMn":2986,"ĠSNa":2987,"ĠPmmn":2988,"Ġ53":2989,"ĠPa":2990,"Ġ15":2991,"ĠNbP":2992,"Ġ43":2993,"ĠAgY":2994,"cas":2995,"arcas":2996,"ĠMarcas":2997,"ĠPdAs":2998,"ĠMarcasite":2999,"ĠTiGe":3000,"ĠGeCu":3001,"ĠRhNb":3002,"rd":3003,"ĠCoSb":3004,"Ġthirteenth":3005,"ĠTcP":3006,"ĠZnAs":3007,"ĠIndium":3008,"ĠCoS":3009,"Ġ56":3010,"ĠNbIr":3011,"ĠPtRh":3012,"1188":3013,"ĠRhZn":3014,"ĠPAg":3015,"ĠNiY":3016,"ĠNZr":3017,"ĠInY":3018,"ĠIrTe":3019,"ĠInAu":3020,"ĠSiN":3021,"ĠSiP":3022,"ĠNbNi":3023,"ĠCuTe":3024,"ĠImma":3025,"ĠNbPd":3026,"Ġfourteenth":3027,"ĠSnSe":3028,"ĠCdAs":3029,"112":3030,"ĠCmce":3031,"ĠKCl":3032,"ĠSnRh":3033,"ĠCc":3034,"ĠTiP":3035,"ĠScHf":3036,"anite":3037,"ĠGaV":3038,"ĠTaPd":3039,"ĠBiTe":3040,"ĠFeY":3041,"ĠIrTa":3042,"ĠCuZn":3043,"ĠZnZr":3044,"ĠCuHf":3045,"ĠMoZr":3046,"ĠYAg":3047,"ĠPtCd":3048,"ĠWAl":3049,"ĠPdZr":3050,"ĠMoZn":3051,"Ġ64":3052,"ĠPZn":3053,"ĠPTc":3054,"ĠSeIn":3055,"ĠRhSe":3056,"ĠCrTa":3057,"ĠCrAl":3058,"ĠRhAs":3059,"ĠZnSe":3060,"ĠNbGa":3061,"ĠMnTe":3062,"1078":3063,"ĠCmc":3064,"ĠTiPd":3065,"ĠPtAg":3066,"ĠRhP":3067,"ĠZnY":3068,"ĠAlMn":3069,"ĠCrNb":3070,"ĠHZr":3071,"ĠHfGa":3072,"Ġfifteenth":3073,"pin":3074,"ĠSpin":3075,"ĠYSi":3076,"ĠSpinel":3077,"ĠRuTa":3078,"ĠIrMo":3079,"100":3080,"ĠRhRh":3081,"Ġ20":3082,"ĠTiAs":3083,"ĠCuZr":3084,"Ġsevent":3085,"ĠPbam":3086,"Ġseventeen":3087,"ĠPFe":3088,"prim":3089,"prime":3090,"Ġ41":3091,"ĠNaSb":3092,"ĠZnN":3093,"ĠGeSe":3094,"ĠCoY":3095,"ĠFeSi":3096,"ĠFdd":3097,"ĠKSe":3098,"MoS":3099,"ĠRhGa":3100,"ĠCoAs":3101,"ĠInTe":3102,"ĠTaIr":3103,"ĠZrSe":3104,"ĠNTa":3105,"ĠCoHf":3106,"ĠAuIn":3107,"ĠAlAg":3108,"ĠCrTi":3109,"ĠGaSe":3110,"ĠAgSe":3111,"ĠTiCo":3112,"ĠPbTe":3113,"ĠYGa":3114,"1223":3115,"ĠNbRh":3116,"ĠNV":3117,"ircon":3118,"ĠZircon":3119,"ĠPtV":3120,"dm":3121,"Ġgol":3122,"Ġcadm":3123,"Ġgold":3124,"Ġcadmium":3125,"ĠZnTa":3126,"ĠRuRe":3127,"ĠRhSb":3128,"106":3129,"amd":3130,"ĠZnAg":3131,"ĠMnPd":3132,"ĠOsRe":3133,"ĠWSe":3134,"ĠSIn":3135,"ĠNbNb":3136,"ĠSnTe":3137,"ĠHgTi":3138,"ĠGeTe":3139,"ĠCoTi":3140,"ĠRuRh":3141,"ĠAsNi":3142,"ĠCh":3143,"ĠYIn":3144,"Ġtetrabor":3145,"Ġtetraboride":3146,"Heusler":3147,"âĤģâĤĥ":3148,"11869":3149,"ĠCdAu":3150,"ĠCoNb":3151,"ĠAgTi":3152,"ĠSCo":3153,"ĠScAl":3154,"ĠScGe":3155,"ĠSnSc":3156,"ĠZrIn":3157,"ĠVPd":3158,"ĠPtSn":3159,"Ġ68":3160,"ĠKK":3161,"ĠPNa":3162,"ĠScGa":3163,"ĠIb":3164,"PbS":3165,"ĠVN":3166,"ĠSeBi":3167,"ĠAuCu":3168,"ĠZirconium":3169,"SeS":3170,"ĠMnSe":3171,"ĠNaCl":3172,"Ġcarbide":3173,"TiS":3174,"âģ¸":3175,"ĠWP":3176,"ĠIbam":3177,"atlock":3178,"ĠMatlock":3179,"ĠMatlockite":3180,"ĠCaS":3181,"ĠWIr":3182,"ĠPCo":3183,"ĠHfSi":3184,"ĠIrP":3185,"ĠVCo":3186,"alco":3187,"ĠChalco":3188,"ĠAsTe":3189,"ĠKS":3190,"eta":3191,"ĠSV":3192,"ĠGaSc":3193,"ĠRhRe":3194,"ĠNiSc":3195,"ĠSrPb":3196,"PS":3197,"ĠVPt":3198,"ĠPdSi":3199,"113":3200,"ĠCV":3201,"ron":3202,"zeta":3203,"Ġzeta":3204,"Ġiron":3205,"ĠCdHf":3206,"ĠGaRh":3207,"ĠMoHf":3208,"ĠAsSr":3209,"cble":3210,"nde":3211,"ĠSpha":3212,"incble":3213,"ĠZincble":3214,"lerite":3215,"ĠNaP":3216,"ĠSphalerite":3217,"ĠZincblende":3218,"Ġcuboctahedral":3219,"ĠRuAs":3220,"ĠPbcn":3221,"ĠSTi":3222,"ĠGaY":3223,"108":3224,"ĠNY":3225,"ĠPS":3226,"âĤģâĤĨ":3227,"Ġsixteenth":3228,"12âĤģ":3229,"ĠRhGe":3230,"ĠGaTe":3231,"ĠSbSe":3232,"ĠTaAs":3233,"ĠCdPt":3234,"570":3235,"ĠZrS":3236,"ĠGaAs":3237,"ĠCoTe":3238,"ĠRbS":3239,"ĠMoP":3240,"ĠCNb":3241,"ĠZrN":3242,"422":3243,"ĠSbCu":3244,"ĠSnNb":3245,"ĠInP":3246,"ĠAlN":3247,"ĠHfSb":3248,"ĠSnPd":3249,"WS":3250,"ĠSSr":3251,"ĠVC":3252,"ĠSeCr":3253,"ĠMoPt":3254,"ĠTaAl":3255,"ĠAuAu":3256,"pyrite":3257,"ĠFeNb":3258,"ĠChalcopyrite":3259,"ĠCuPd":3260,"ĠFeTi":3261,"ĠSAg":3262,"ĠCoTa":3263,"ĠSrSb":3264,"Cubic":3265,"1184":3266,"ĠSnY":3267,"ĠMnSc":3268,"ĠNMn":3269,"ĠPSn":3270,"ĠSeCs":3271,"ĠSPb":3272,"ĠSiTi":3273,"ĠCaCa":3274,"ĠZrTe":3275,"ĠTaRu":3276,"ĠScBi":3277,"averite":3278,"alaverite":3279,"ĠCalaverite":3280,"ĠInSb":3281,"ĠHfPd":3282,"ĠHfPt":3283,"ĠCdY":3284,"ĠTiZn":3285,"ĠSnCu":3286,"dite":3287,"kut":3288,"udite":3289,"ĠSRu":3290,"ĠSkut":3291,"terudite":3292,"ĠRuSb":3293,"ĠSkutterudite":3294,"ĠZnHf":3295,"ĠFmmm":3296,"ĠAlSe":3297,"ĠSeY":3298,"MoSe":3299,"adium":3300,"ĠYAl":3301,"ĠSbTe":3302,"ĠRuCu":3303,"103":3304,"ĠPbca":3305,"1189":3306,"ĠAuCd":3307,"ĠPbSe":3308,"ĠSBi":3309,"ĠNiCr":3310,"ĠCuTi":3311,"ĠRbTe":3312,"127":3313,"132":3314,"Ġ17":3315,"ĠYSn":3316,"ĠSnV":3317,"ĠTeGe":3318,"ĠFeHf":3319,"ellur":3320,"ĠTiGa":3321,"ĠScAg":3322,"ĠWCo":3323,"ĠCdTe":3324,"ĠTeBi":3325,"ĠAuSn":3326,"ĠPtGe":3327,"ĠBerg":3328,"NiS":3329,"ĠFeSc":3330,"ĠBergman":3331,"ĠSFe":3332,"ĠPtNi":3333,"ĠYGe":3334,"115":3335,"SbPt":3336,"220":3337,"dium":3338,"ĠSiCu":3339,"ĠHfNi":3340,"1007":3341,"CaSi":3342,"Ġgam":3343,"ĠGaGa":3344,"Ġgamma":3345,"ĠTaOs":3346,"862":3347,"ĠHgSc":3348,"305":3349,"ĠBiHf":3350,"ĠSRh":3351,"ĠSiS":3352,"ĠZnSc":3353,"+,":3354,"âģ·":3355,"ĠNbAl":3356,"865":3357,"10180":3358,"ĠAgP":3359,"124":3360,"ĠPNaP":3361,"974":3362,"ĠAlAs":3363,"ĠGeN":3364,"ĠRuPt":3365,"ĠIrAs":3366,"ĠPPIr":3367,"ĠIrGe":3368,"vc":3369,"orund":3370,"ĠCorund":3371,"ĠYCd":3372,"ĠFddd":3373,"ĠCorundum":3374,"tz":3375,"urtz":3376,"ĠWurtz":3377,"ĠWurtzite":3378,"NiAs":3379,"ĠImm":3380,"NbS":3381,"ĠMoN":3382,"ĠMnTi":3383,"SnS":3384,"ĠCdSc":3385,"ĠZrAs":3386,"166":3387,"ĠAlGe":3388,"ĠSrSi":3389,"Ġ65":3390,"ĠNFe":3391,"ĠIrV":3392,"167":3393,"sanite":3394,"ĠHaus":3395,"ĠMois":3396,"ZnS":3397,"mannite":3398,"ĠHausmannite":3399,"ĠMoissanite":3400,"ĠCuTa":3401,"ĠAgSc":3402,"ĠClK":3403,"ĠPtZn":3404,"ĠMoCo":3405,"ĠTcAl":3406,"568":3407,"306":3408,"oride":3409,"ĠAsAsIr":3410,"ĠPN":3411,"ĠGeGe":3412,"ĠRuNi":3413,"ĠZnSr":3414,"ĠNaBi":3415,"ĠGeNi":3416,"ĠCW":3417,"ĠRhIn":3418,"mvc":3419,"ĠCuY":3420,"ĠPPRh":3421,"ĠAlP":3422,"1077":3423,"303":3424,"ĠYTe":3425,"ĠHfP":3426,"1207":3427,"NiSi":3428,"1025":3429,"ĠIrRu":3430,"ĠSnNi":3431,"12243":3432,"ĠHfSe":3433,"ement":3434,"ĠCement":3435,"ĠCuAu":3436,"ĠTeSn":3437,"ĠCementite":3438,"571":3439,"ĠTiNi":3440,"CuS":3441,"gite":3442,"nar":3443,"ĠZnRh":3444,"ĠWAs":3445,"ĠFeTe":3446,"ĠEnar":3447,"ĠEnargite":3448,"$\\":3449,"Kas":3450,"Ġ$\\":3451,"ĠHfCu":3452,"ĠHfAu":3453,"ĠGaN":3454,"ĠOsOs":3455,"ĠFran":3456,"Kasper":3457,"ĠFrank":3458,"bnite":3459,"ĠSti":3460,"ĠPdHf":3461,"ĠScN":3462,"ĠScTe":3463,"ĠRuTc":3464,"ĠStibnite":3465,"296":3466,"973":3467,"ĠRuSi":3468,"ĠZrCl":3469,"ĠNbC":3470,"ĠCuP":3471,"TeSe":3472,"ĠPmc":3473,"ĠHfAs":3474,"ĠCrN":3475,"ĠCrHf":3476,"105":3477,"ĠMnHf":3478,"ĠAgCu":3479,"ĠCaGe":3480,"side":3481,"Ġinside":3482,"ĠVP":3483,"ĠTeNa":3484,"ĠTiMo":3485,"ĠZrGe":3486,"ĠPtRu":3487,"ĠRhZr":3488,"ĠPbTl":3489,"ĠMoCl":3490,"1105":3491,"CaZn":3492,"12180":3493,"11860":3494,"ĠSiZr":3495,"ĠVAs":3496,"ĠIrTc":3497,"CoNi":3498,"RuSi":3499,"503":3500,"133":3501,"ĠStructure":3502,"136":3503,"ĠScSn":3504,"ĠSrGe":3505,"123":3506,"ĠRuSe":3507,"ĠPbSc":3508,"ĠAsAsRh":3509,"972":3510,"ĠVTa":3511,"11880":3512,"Ġ39":3513,"ĠPtTe":3514,"rthorhombic":3515,"ĠPmmm":3516,"ĠTiAu":3517,"ĠOrthorhombic":3518,"156":3519,"ĠScIn":3520,"ĠScCu":3521,"ĠAsZn":3522,"12154":3523,"ĠWNi":3524,"ĠSbRh":3525,"1229":3526,"ĠTcGa":3527,"979":3528,"ĠTiNb":3529,"ĠSiAs":3530,"ĠZnNb":3531,"ĠSbNi":3532,"SnSe":3533,"Ġribbon":3534,"ĠIrTi":3535,"lm":3536,"enite":3537,"ĠIlm":3538,"ĠTiCl":3539,"ĠIlmenite":3540,"117":3541,"ĠSNb":3542,"ĠAlCa":3543,"ĠPdGe":3544,"TiAl":3545,"ĠWPt":3546,"1069":3547,"Ġ77":3548,"Ġ19":3549,"ĠPHf":3550,"1072":3551,"ĠSrZn":3552,"ĠSiCo":3553,"ĠAsTi":3554,"GeTe":3555,"ĠReN":3556,"CrS":3557,"12203":3558,"280":3559,"ĠSK":3560,"212":3561,"ĠTiIr":3562,"1009":3563,"1246":3564,"ĠRbRb":3565,"866":3566,"204":3567,"11846":3568,"1103":3569,"12153":3570,"ĠPc":3571,"Ġ35":3572,"ĠHgTe":3573,"WTe":3574,"anadium":3575,"ĠVanadium":3576,"ĠAuTi":3577,"ĠIrZn":3578,"Ġnitride":3579,"304":3580,"ĠSeRb":3581,"ĠTaGa":3582,"1029":3583,"ĠSTl":3584,"ĠPTi":3585,"ĠAlSb":3586,"ĠVIr":3587,"ĠRhTc":3588,"ĠSSn":3589,"8655":3590,"ĠAuTe":3591,"ZrRh":3592,"573":3593,"GeS":3594,"1102":3595,"ĠTiRh":3596,"CoGe":3597,"Ġtellur":3598,"Ġtelluride":3599,"ĠPdIn":3600,"ĠZrZn":3601,"ĠTaP":3602,"ĠPSi":3603,"ĠTiH":3604,"âĤģâĤħ":3605,"ĠSrS":3606,"ĠCdSb":3607,"ĠPRe":3608,"ĠGaP":3609,"ĠSePb":3610,"ĠYSe":3611,"ĠCrNi":3612,"ĠRuP":3613,"999":3614,"ĠNAl":3615,"ĠSiV":3616,"104":3617,"ĠPFeP":3618,"ĠAgTe":3619,"ĠIrSb":3620,"TaS":3621,"12289":3622,"ĠTeTe":3623,"12155":3624,"ĠAlPd":3625,"ĠZrPd":3626,"CuAl":3627,"165":3628,"eteen":3629,"CoSi":3630,"Ġnineteen":3631,"210":3632,"ĠSiY":3633,"ĠTaCu":3634,"TiPd":3635,"ĠTlSe":3636,"186":3637,"ĠAlV":3638,"Ġ69":3639,"AlGe":3640,"ĠSiFe":3641,"ĠPtNa":3642,"SiC":3643,"Ġ66":3644,"ĠScCl":3645,"ĠGeV":3646,"ĠReZr":3647,"ĠPmn":3648,"ĠInRh":3649,"ĠSbFe":3650,"213":3651,"ĠRbCl":3652,"ĠCAl":3653,"ĠSeRh":3654,"ĠMnSb":3655,"ĠMnZn":3656,"ĠSnAu":3657,"ĠReSe":3658,"CrSi":3659,"274":3660,"ĠPtCo":3661,"209":3662,"WSe":3663,"ĠPtSi":3664,"NiP":3665,"ĠSrIn":3666,"307":3667,"ĠSeSb":3668,"ĠCuCl":3669,"1023":3670,"229":3671,"ĠZrHf":3672,"ĠHgHf":3673,"ĠNbSb":3674,"1225":3675,"MnAl":3676,"1206":3677,"ĠNRe":3678,"ĠInPd":3679,"208":3680,"ĠAgCa":3681,"ĠAuRb":3682,"Ġ78":3683,"10253":3684,"Ġseventeenth":3685,"ĠSMn":3686,"CoAs":3687,"179":3688,"ĠSCr":3689,"Ġ22":3690,"AlSi":3691,"ĠSnSr":3692,"ĠNbAs":3693,"ĠGeNb":3694,"1008":3695,"ĠOsMn":3696,"5708":3697,"ĠPtTc":3698,"ĠRuZn":3699,"1652":3700,"ĠTlCa":3701,"ĠPY":3702,"ĠInSr":3703,"ĠPo":3704,"ĠZrH":3705,"ĠRhAl":3706,"ĠAsZr":3707,"1247":3708,"ĠBiBi":3709,"ĠPbHf":3710,"ĠSiMn":3711,"ĠZrCu":3712,"ĠScNi":3713,"ĠRuTe":3714,"155":3715,"980":3716,"ĠAlRh":3717,"ĠNiMn":3718,"ĠCdCa":3719,"9743":3720,"544":3721,"ĠOsAs":3722,"lac":3723,"Ġblac":3724,"ĠSam":3725,"PtGe":3726,"arium":3727,"Ġblack":3728,"ĠSamarium":3729,"ĠCuSi":3730,"TiMo":3731,"ĠSiSc":3732,"1228":3733,"ĠRuS":3734,"ĠPtFe":3735,"ĠScS":3736,"HfIr":3737,"CoSe":3738,"227":3739,"159":3740,"800":3741,"675":3742,"AuAg":3743,"8653":3744,"1208":3745,"-,":3746,"inum":3747,"Ġ31":3748,"ĠGaTa":3749,"FeS":3750,"126":3751,"ĠKSb":3752,"969":3753,"1199":3754,"uminum":3755,"ĠTlS":3756,"8654":3757,"FeSb":3758,"ĠCdSe":3759,"ĠTlZr":3760,"12172":3761,"YRh":3762,"FeSi":3763,"ĠTeAs":3764,"RuRh":3765,"ĠTcAs":3766,"223":3767,"717":3768,"311":3769,"462":3770,"1193":3771,"164":3772,"Phase":3773,"ĠTiZr":3774,"202":3775,"555":3776,"861":3777,"ĠHgNa":3778,"vanite":3779,"Ġ37":3780,"ĠSiNb":3781,"ĠSiCa":3782,"ĠRhTi":3783,"ĠAsHf":3784,"ĠCrSc":3785,"Ġ67":3786,"ĠAgHf":3787,"ĠKAs":3788,"ĠOsRu":3789,"322":3790,"Ġ36":3791,"NiSe":3792,"ĠSnP":3793,"1226":3794,"SnP":3795,"CaCu":3796,"1104":3797,"YPd":3798,"tact":3799,"rotact":3800,"ĠProtact":3801,"inium":3802,"ĠCaAg":3803,"OsSi":3804,"ĠProtactinium":3805,"ĠCTi":3806,"TiSi":3807,"AsS":3808,"NiAl":3809,"670":3810,"ĠCdNa":3811,"CrFe":3812,"âĤĤâĤĢ":3813,"ĠPtMn":3814,"ĠNbTi":3815,"ĠZnMn":3816,"ĠSRb":3817,"Ġ33":3818,"ĠRuMo":3819,"541":3820,"8673":3821,"977":3822,"odium":3823,"sen":3824,"ĠSodium":3825,"SiP":3826,"ĠRhTa":3827,"SrIn":3828,"Ġarsen":3829,"Ġarsenide":3830,"279":3831,"ĠInIn":3832,"200":3833,"ĠAuNb":3834,"ScCu":3835,"ĠAlTe":3836,"InS":3837,"Pa":3838,"ĠPK":3839,"ĠSiNi":3840,"ĠBoride":3841,"ĠScCd":3842,"Ġeighteenth":3843,"Ġdelta":3844,"ĠSSc":3845,"CoP":3846,"1120":3847,"691":3848,"YAg":3849,"111":3850,"MnP":3851,"8649":3852,"ĠHgZr":3853,"10942":3854,"310":3855,"714":3856,"TcRu":3857,"12179":3858,"ĠVNb":3859,"NiSb":3860,"163":3861,"ĠRbAu":3862,"828":3863,"730":3864,"9989":3865,"607":3866,"ĠSCd":3867,"ĠInNa":3868,"Ġ38":3869,"ĠSiHf":3870,"ĠTcRu":3871,"CaNi":3872,"850":3873,"983":3874,"ĠSeSn":3875,"RhSi":3876,"6722":3877,"ĠPbY":3878,"459":3879,"755":3880,"092":3881,"CoS":3882,"MnSi":3883,"ĠCaHg":3884,"PdAu":3885,"ĠAuZn":3886,"12171":3887,"VS":3888,"SiS":3889,"ĠRuOs":3890,"169":3891,"YCu":3892,"ĠSAs":3893,"ĠYN":3894,"ĠAgNa":3895,"10786":3896,"onium":3897,"ĠSyl":3898,"129":3899,"ĠIrSe":3900,"ĠClRb":3901,"ĠSylvanite":3902,"ĠMg":3903,"Ġ34":3904,"ĠZrHg":3905,"ĠWZr":3906,"RuIr":3907,"ĠCdP":3908,"539":3909,"ĠFmm":3910,"ĠZnTe":3911,"AsSe":3912,"ĠTeIn":3913,"ĠWOs":3914,"Ġ72":3915,"Ġ79":3916,"894":3917,"ĠPna":3918,"188":3919,"ĠSAl":3920,"PdBi":3921,"NiGa":3922,"ĠTeAg":3923,"ĠTeCd":3924,"ĠSbTl":3925,"ĠNaIn":3926,"SnSb":3927,"AgZn":3928,"549":3929,"NbRh":3930,"192":3931,"139":3932,"Ġnineteenth":3933,"ĠAlMo":3934,"ĠHfS":3935,"ĠTaZn":3936,"803":3937,"ĠSbAg":3938,"ĠSnAg":3939,"501":3940,"981":3941,"WN":3942,"ĠAlSi":3943,"ĠPtRe":3944,"FeP":3945,"ĠCuRu":3946,"ĠYZn":3947,"ĠTaRh":3948,"SbS":3949,"RhSn":3950,"ZrSi":3951,"502":3952,"ĠTcZn":3953,"ĠOsSi":3954,"713":3955,"ĠNZn":3956,"ĠPZr":3957,"ĠSiSe":3958,"SbTe":3959,"697":3960,"895":3961,"11032":3962,"ĠAsAsRu":3963,"oron":3964,"AlN":3965,"ĠYP":3966,"ĠAsCd":3967,"GeSe":3968,"672":3969,"5710":3970,"131":3971,"ĠHTa":3972,"ĠHSc":3973,"ĠMoRu":3974,"CoAl":3975,"ĠAlSr":3976,"ĠAluminum":3977,"ĠCaTl":3978,"FeCo":3979,"ĠSeCu":3980,"ĠRhY":3981,"ĠTeMn":3982,"ĠTePb":3983,"ĠCrSi":3984,"SbSe":3985,"678":3986,"12067":3987,"ĠPAgP":3988,"ĠSZr":3989,"ĠHigh":3990,"ĠCaAu":3991,"ĠZnCa":3992,"ĠSnAs":3993,"HfPd":3994,"PbSe":3995,"10142":3996,"ĠCaCl":3997,"ĠRuY":3998,"ĠTcCo":3999,"ĠHgSe":4000,"ĠCaSe":4001,"Ġ21":4002,"ĠInAs":4003,"ĠVRu":4004,"ZrGa":4005,"CoTe":4006,"NbP":4007,"576":4008,"11847":4009,"Ġboron":4010,"FeSe":4011,"ĠMoIr":4012,"ĠZnV":4013,"ĠZnPt":4014,"ĠGeMo":4015,"1218":4016,"ĠRuFe":4017,"IrV":4018,"ĠTlSc":4019,"1209":4020,"216":4021,"693":4022,"CaPt":4023,"ĠTiSb":4024,"ĠCuSn":4025,"ĠYSb":4026,"ĠRhFe":4027,"ĠCrCr":4028,"TcAl":4029,"11879":4030,"ĠHfZn":4031,"460":4032,"10799":4033,"ĠGeGePt":4034,"288":4035,"Ġ29":4036,"ĠHNa":4037,"ĠPtPd":4038,"ĠSrH":4039,"ZnAl":4040,"ĠAuPd":4041,"TaRu":4042,"559":4043,"BiS":4044,"8627":4045,"SrZn":4046,"456":4047,"173":4048,"ĠCaSn":4049,"203":4050,"ĠVGe":4051,"ĠSeAs":4052,"ĠYIr":4053,"ĠZnSb":4054,"Ġ70":4055,"673":4056,"RuAl":4057,"ĠCMo":4058,"ĠPAl":4059,"ĠAlCo":4060,"ĠMoRh":4061,"12164":4062,"10255":4063,"ĠSCa":4064,"ĠNiV":4065,"ĠCaTe":4066,"PdH":4067,"ĠAsGa":4068,"GeAs":4069,"430":4070,"TaFe":4071,"500":4072,"SrSn":4073,"11023":4074,"ĠYAu":4075,"ScHf":4076,"ĠReS":4077,"12288":4078,"GPa":4079,"VN":4080,"ĠHfCo":4081,"205":4082,"ĠSeZn":4083,"ĠSrSr":4084,"125":4085,"695":4086,"ĠTcS":4087,"ĠHgK":4088,"TlP":4089,"12260":4090,"ĠAsFe":4091,"ĠGeSr":4092,"232":4093,"SrCd":4094,"634":4095,"Er":4096,"cor":4097,"eving":4098,"ror":4099,"tri":4100,"Ġrecor":4101,"Ġretri":4102,"ĠWCl":4103,"ĠFeCl":4104,"CuGa":4105,"505":4106,"Ġoccurred":4107,"Error":4108,"Ġrecord":4109,"Ġretrieving":4110,"247":4111,"ĠNCr":4112,"ĠPdTc":4113,"ĠCaPb":4114,"ĠSeCo":4115,"GaN":4116,"GaAl":4117,"HfPt":4118,"889":4119,"152":4120,"12053":4121,"10954":4122,"tor":4123,"ittor":4124,"ĠHittor":4125,"ĠPdAl":4126,"ĠZrRh":4127,"ĠGaCa":4128,"TiH":4129,"ĠGeMn":4130,"809":4131,"9720":4132,"ĠSFeCu":4133,"ĠHittorf":4134,"ĠTiFe":4135,"804":4136,"ĠSbSb":4137,"ĠSbRu":4138,"MoAs":4139,"12073":4140,"10252":4141,"ĠZrHN":4142,"Ġ23":4143,"ĠNSc":4144,"ĠPtCa":4145,"TiCr":4146,"ĠHgS":4147,"198":4148,"ZnP":4149,"ĠRuSc":4150,"434":4151,"219":4152,"OsP":4153,"700":4154,"498":4155,"175":4156,"522":4157,"iet":4158,"ĠPtBi":4159,"InSe":4160,"ĠSbCo":4161,"ĠSnPt":4162,"ĠAuSr":4163,"CrP":4164,"825":4165,"Ġtwentiet":4166,"12166":4167,"Ġtwentieth":4168,"ĠSP":4169,"ĠSeGe":4170,"ĠSeRu":4171,"ĠSeMn":4172,"PdSn":4173,"ĠCoTc":4174,"1067":4175,"ĠAuCa":4176,"ZrIn":4177,"ĠBiTl":4178,"ĠOsZr":4179,"273":4180,"849":4181,"976":4182,"ĠInNi":4183,"ĠNiFe":4184,"ĠCrRh":4185,"GaAs":4186,"CuSn":4187,"961":4188,"CaHg":4189,"fide":4190,"Ġsul":4191,"ĠGaSb":4192,"ĠCuNi":4193,"ĠScAu":4194,"TiGa":4195,"ĠMnV":4196,"ĠSrBi":4197,"1214":4198,"ĠTcIr":4199,"024":4200,"5686":4201,"Ġindium":4202,"10181":4203,"5677":4204,"Ġsulfide":4205,"TiRh":4206,"ĠSbCl":4207,"ĠMnAl":4208,"MoTe":4209,"938":4210,"SrP":4211,"TcRh":4212,"5683":4213,"12163":4214,"nc":4215,"ĠNiPt":4216,"ĠNbZn":4217,"ĠYPt":4218,"335":4219,"336":4220,"1185":4221,"ĠPbPb":4222,"052":4223,"SiAs":4224,"PdAg":4225,"PtSi":4226,"GaGe":4227,"GaSb":4228,"1227":4229,"ĠKHg":4230,"SnPt":4231,"IrTe":4232,"MnN":4233,"BiSe":4234,"5706":4235,"282":4236,"WP":4237,"Ġ80":4238,"ĠNNa":4239,"ĠSiTa":4240,"ĠPdP":4241,"ĠCaH":4242,"NiTe":4243,"ĠWRu":4244,"ĠCrSb":4245,"ĠSbRb":4246,"ĠAgPd":4247,"ĠClCs":4248,"857":4249,"ĠOsTc":4250,"CaAu":4251,"289":4252,"YZn":4253,"ĠPtSr":4254,"ĠRuN":4255,"HfSi":4256,"1133":4257,"557":4258,"8650":4259,"191":4260,"151":4261,"10788":4262,"283":4263,"ĠPdNa":4264,"ĠTeTi":4265,"ĠSnSb":4266,"ZrTe":4267,"546":4268,"IrP":4269,"ĠTcRh":4270,"CrAl":4271,"5716":4272,"514":4273,"171":4274,"871":4275,"WSi":4276,"ĠSbBi":4277,"ĠMnTa":4278,"ĠSrSn":4279,"437":4280,"ĠClNa":4281,"853":4282,"214":4283,"939":4284,"199":4285,"680":4286,"YAu":4287,"ĠPRb":4288,"ĠMoPd":4289,"HfSb":4290,"AuCu":4291,"082":4292,"ĠTcHf":4293,"ĠReOs":4294,"SrAu":4295,"989":4296,"KHg":4297,"Ġmp":4298,"ĠMnOs":4299,"ĠAgPt":4300,"ĠRuZr":4301,"337":4302,"IrSb":4303,"1147":4304,"SrGe":4305,"9722":4306,"12159":4307,"ĠAlC":4308,"ĠPtSe":4309,"FeV":4310,"FeTe":4311,"1070":4312,"RhAs":4313,"ScRh":4314,"852":4315,"628":4316,"11030":4317,"12267":4318,"11836":4319,"242":4320,"616":4321,"Ġ24":4322,"ĠTiCu":4323,"ĠSiPt":4324,"ĠPdNi":4325,"ĠVHf":4326,"ĠSeCd":4327,"TiAs":4328,"GaSi":4329,"HfNi":4330,"ĠReTe":4331,"221":4332,"8656":4333,"SrPt":4334,"487":4335,"11020":4336,"174":4337,"128":4338,"CuSi":4339,"418":4340,"12242":4341,"211":4342,"ĠPIn":4343,"ĠVW":4344,"PtMo":4345,"ĠReP":4346,"856":4347,"8660":4348,"935":4349,"197":4350,"ReN":4351,"137":4352,"12189":4353,"ĠSHf":4354,"ĠGaFe":4355,"ĠZnCu":4356,"InP":4357,"ĠFeGe":4358,"096":4359,"ĠKP":4360,"ZrH":4361,"504":4362,"ScGa":4363,"MnAs":4364,"484":4365,"ĠSeZr":4366,"ĠYBi":4367,"TiSe":4368,"PtGa":4369,"676":4370,"677":4371,"531":4372,"758":4373,"11840":4374,"ĠSeKBi":4375,"ĠPdAsPd":4376,"780":4377,"975":4378,"978":4379,"loride":4380,"ĠPNi":4381,"ĠInAg":4382,"ĠPdSr":4383,"ĠHfZr":4384,"FeTi":4385,"FeAs":4386,"ĠTaCl":4387,"ĠScPd":4388,"ĠScPt":4389,"RhSe":4390,"ZrSn":4391,"CaIn":4392,"MnSb":4393,"CdS":4394,"mcc":4395,"998":4396,"ĠInCo":4397,"âĤĤâĤģ":4398,"âĤģâĤī":4399,"PtZn":4400,"674":4401,"1190":4402,"699":4403,"ScZn":4404,"538":4405,"Ġlead":4406,"12195":4407,"ss":4408,"ĠCuSb":4409,"ĠCuNb":4410,"ĠMnCa":4411,"ĠRuV":4412,"ĠRuMn":4413,"228":4414,"ĠTlCl":4415,"441":4416,"11872":4417,"10780":4418,"ĠSePt":4419,"ĠRhCr":4420,"ĠSbSbPt":4421,"ĠIrY":4422,"MoP":4423,"ZrCl":4424,"IrSn":4425,"429":4426,"MnSe":4427,"451":4428,"249":4429,"11040":4430,"12216":4431,"5679":4432,"rich":4433,"Ġtrich":4434,"acd":4435,"ĠSeSr":4436,"PdP":4437,"GaSe":4438,"ĠAgIn":4439,"CoGa":4440,"ĠPbCa":4441,"CaCd":4442,"Ġtrichloride":4443,"985":4444,"YIn":4445,"YTe":4446,"ĠVZn":4447,"ĠSeCa":4448,"TiNi":4449,"ĠCoSc":4450,"ĠSbSnPt":4451,"ĠSnSbPt":4452,"GaSn":4453,"HfCo":4454,"IrSi":4455,"421":4456,"MnGa":4457,"9785":4458,"11878":4459,"10955":4460,"ĠPbcm":4461,"ĠPKP":4462,"142":4463,"ĠCaBi":4464,"SiNi":4465,"AsP":4466,"ĠTeNb":4467,"RhP":4468,"RhTe":4469,"ĠIrSn":4470,"HfZr":4471,"826":4472,"TcIr":4473,"'{":4474,"754":4475,"769":4476,"\\'{":4477,"Ġiri":4478,"arevi":4479,"ĠPtS":4480,"ĠAsRh":4481,"ĠMnGa":4482,"ĠNaN":4483,"MoSi":4484,"1191":4485,"698":4486,"506":4487,"Ġvanadium":4488,"ĠClSr":4489,"776":4490,"11043":4491,"ĠLavarevi":4492,"Ġiridium":4493,"154":4494,"793":4495,"RhZn":4496,"SnTe":4497,"1178":4498,"226":4499,"466":4500,"230":4501,"SrAl":4502,"11845":4503,"140":4504,"443":4505,"ĠPdCa":4506,"ĠTeY":4507,"1245":4508,"ĠRuSeS":4509,"542":4510,"RuGa":4511,"CrN":4512,"CrAs":4513,"9896":4514,"12173":4515,"VSi":4516,"ĠPGa":4517,"ĠPres":4518,"ĠTellur":4519,"ĠRut":4520,"ĠScZn":4521,"PdZn":4522,"ĠAsIn":4523,"ĠKTe":4524,"RuSb":4525,"IrGe":4526,"426":4527,"744":4528,"834":4529,"297":4530,"ĠPressure":4531,"ĠTellurium":4532,"ĠRutile":4533,"278":4534,"Ġsup":4535,"ercond":4536,"ĠPTlP":4537,"uctor":4538,"PdS":4539,"ĠAsCo":4540,"1056":4541,"ZnN":4542,"MoCl":4543,"331":4544,"1179":4545,"ĠCdPd":4546,"ĠCdCl":4547,"42âĤģ":4548,"055":4549,"851":4550,"5702":4551,"Ġdiamond":4552,"12152":4553,"ĠAsSrAs":4554,"Ġsupercond":4555,"Ġsuperconductor":4556,"180":4557,"YNi":4558,"ĠTheoretical":4559,"ĠSPt":4560,"ĠAlCl":4561,"ĠNiZn":4562,"ĠCaCd":4563,"ĠGeCa":4564,"HfAl":4565,"964":4566,"ScNi":4567,"8616":4568,"8623":4569,"OsRu":4570,"777":4571,"177":4572,"Ġ25":4573,"ĠTaSe":4574,"RhS":4575,"CuP":4576,"224":4577,"627":4578,"648":4579,"9773":4580,"12193":4581,"12247":4582,"5673":4583,"153":4584,"183":4585,"VSe":4586,"âĤģâĤĩ":4587,"ĠCaZn":4588,"PdSi":4589,"ĠCoPt":4590,"ĠFeN":4591,"ZnGa":4592,"094":4593,"MoGe":4594,"435":4595,"692":4596,"864":4597,"737":4598,"792":4599,"900":4600,"VGa":4601,"ĠInNb":4602,"âĤĤâĤĦ":4603,"AlP":4604,"PtCd":4605,"10969":4606,"HfN":4607,"HfCu":4608,"5424":4609,"965":4610,"IrAl":4611,"CaCl":4612,"12174":4613,"8678":4614,"170":4615,"YSn":4616,"cm":4617,"first":4618,"Ġpyrite":4619,"ĠHNb":4620,"ĠNiBi":4621,"AlNi":4622,"ĠTeSb":4623,"1095":4624,"GaP":4625,"second":4626,"CuTe":4627,"ZrAs":4628,"AuSn":4629,"ĠReIr":4630,"6847":4631,"ĠAlH":4632,"AlCr":4633,"ĠCuCa":4634,"ĠScPb":4635,"TiCl":4636,"ĠGeRh":4637,"ĠWRh":4638,"ĠMnRu":4639,"GaS":4640,"AuTe":4641,"428":4642,"ĠReAs":4643,"158":4644,"8657":4645,"HgTi":4646,"11007":4647,"ĠPTcP":4648,"AlCl":4649,"ĠCaIn":4650,"ĠVFe":4651,"ĠVNi":4652,"TiW":4653,"ĠIrBi":4654,"ZrGe":4655,"CoSb":4656,"438":4657,"ĠBiGa":4658,"ĠPbCl":4659,"TaN":4660,"MnGe":4661,"529":4662,"928":4663,"10179":4664,"276":4665,"olonium":4666,"ĠPolonium":4667,"ĠSeAg":4668,"TiAu":4669,"ĠAsY":4670,"ĠAsSc":4671,"ĠGeAs":4672,"ĠCoAl":4673,"ĠSnN":4674,"IrAs":4675,"5055":4676,"231":4677,"SrAs":4678,"665":4679,"11017":4680,"12157":4681,"971":4682,"YPt":4683,"ĠHfIr":4684,"ĠNbCl":4685,"TiN":4686,"ĠAsSe":4687,"ĠFeGa":4688,"ĠSbNb":4689,"5426":4690,"RuAs":4691,"NbTc":4692,"ĠTcSc":4693,"832":4694,"258":4695,"RbSb":4696,"12273":4697,"215":4698,"PSe":4699,"ĠPMo":4700,"ĠPSc":4701,"ĠPtAs":4702,"ĠGeCo":4703,"ĠTeFe":4704,"CuZn":4705,"ĠBiSbPt":4706,"8646":4707,"TcOs":4708,"12183":4709,"ĠCmm":4710,"âĤģâĤĦ":4711,"TiP":4712,"802":4713,"RuTe":4714,"427":4715,"690":4716,"081":4717,"162":4718,"8661":4719,"NaHg":4720,"TlTe":4721,"300":4722,"12290":4723,"10239":4724,"YGa":4725,"ĠSOs":4726,"ĠSilic":4727,"ĠHRb":4728,"ĠNbCo":4729,"ĠVMn":4730,"SiTe":4731,"ĠZnAu":4732,"ĠZnCl":4733,"ZnSe":4734,"ZrAl":4735,"339":4736,"436":4737,"ĠOsS":4738,"NaIn":4739,"517":4740,"494":4741,"12170":4742,"ĠPtSnSb":4743,"ĠSbBiPt":4744,"ĠSilicon":4745,"VOs":4746,"ĠPdH":4747,"HfP":4748,"545":4749,"077":4750,"731":4751,"12070":4752,"11031":4753,"11834":4754,"11907":4755,"VNi":4756,"YAl":4757,"ĠNp":4758,"ĠGaMn":4759,"ĠNbTc":4760,"ĠAsSb":4761,"ĠTeSc":4762,"ĠSbAs":4763,"ĠSrCd":4764,"ZrP":4765,"ScSn":4766,"CdTe":4767,"718":4768,"406":4769,"837":4770,"327":4771,"328":4772,"11871":4773,"VW":4774,"VGe":4775,"bra":4776,"nt":4777,"ĠPare":4778,"ĠAsS":4779,"1057":4780,"ĠNaHg":4781,"1259":4782,"MoAl":4783,"HfCr":4784,"6723":4785,"074":4786,"CrSe":4787,"473":4788,"525":4789,"756":4790,"739":4791,"835":4792,"12244":4793,"Ġsuperconductors":4794,"brass":4795,"ĠParent":4796,"ĠSeFe":4797,"ĠMnPt":4798,"MoRh":4799,"HfRh":4800,"IrTi":4801,"NbW":4802,"ScRu":4803,"8659":4804,"8651":4805,"8658":4806,"899":4807,"10796":4808,"ĠSAgBi":4809,"149":4810,"706":4811,"ĠHPd":4812,"ĠGaCl":4813,"12206":4814,"ĠAuCl":4815,"ĠIrZr":4816,"HfSn":4817,"AgAl":4818,"MnTe":4819,"444":4820,"413":4821,"TlPb":4822,"11874":4823,"11877":4824,"ĠCcce":4825,"178":4826,"134":4827,"ĠSHg":4828,"ĠHCo":4829,"ĠTiW":4830,"201":4831,"FeN":4832,"ĠZnCs":4833,"PtS":4834,"ĠSrAl":4835,"ZnIn":4836,"AgHf":4837,"CoSn":4838,"NbAl":4839,"PbTe":4840,"023":4841,"SrPd":4842,"1867":4843,"193":4844,"309":4845,"YCd":4846,"AlCu":4847,"ZrNi":4848,"083":4849,"558":4850,"CaH":4851,"526":4852,"5712":4853,"5705":4854,"291":4855,"1106":4856,"10779":4857,"10800":4858,"669":4859,"hide":4860,"ĠSCs":4861,"ĠPdSb":4862,"ĠGaCr":4863,"Ġ61":4864,"CuSe":4865,"MoW":4866,"HfTc":4867,"540":4868,"TaTe":4869,"MnRh":4870,"8626":4871,"829":4872,"818":4873,"NaP":4874,"6846":4875,"10797":4876,"10032":4877,"VMn":4878,"2030":4879,"ĠTaSb":4880,"ĠScRh":4881,"ĠAsRu":4882,"ĠAsNb":4883,"ĠAsOs":4884,"1019":4885,"1013":4886,"ĠAuHf":4887,"ĠAuTa":4888,"AgCd":4889,"IrSe":4890,"AuTa":4891,"ScPd":4892,"CrTe":4893,"218":4894,"635":4895,"9723":4896,"11867":4897,"ĠSeSbRu":4898,"ĠSTa":4899,"ĠPRh":4900,"ĠPIr":4901,"AlFe":4902,"ĠPdTe":4903,"NiY":4904,"MoPd":4905,"ZrSe":4906,"TaZn":4907,"5552":4908,"CrGa":4909,"CdAs":4910,"8647":4911,"474":4912,"893":4913,"130":4914,"1364":4915,"926":4916,"1205":4917,"11789":4918,"lenium":4919,"thir":4920,"ĠPNb":4921,"ĠSeHf":4922,"PdAl":4923,"PdCu":4924,"1017":4925,"ĠRuHf":4926,"ZrHg":4927,"423":4928,"537":4929,"PbCl":4930,"ĠCsCs":4931,"NaAu":4932,"292":4933,"fourth":4934,"10956":4935,"2339":4936,"12249":4937,"third":4938,"313":4939,"tan":4940,"itride":4941,"ĠStan":4942,"Ġcarbonitride":4943,"ĠNiCu":4944,"ĠSiMo":4945,"ĠPdCd":4946,"ĠCaPt":4947,"FeGa":4948,"PtCl":4949,"ĠSbIr":4950,"ĠSbSr":4951,"ĠSrPd":4952,"960":4953,"1157":4954,"NbPd":4955,"NbAs":4956,"ScGe":4957,"160":4958,"ĠReRu":4959,"463":4960,"932":4961,"ReIr":4962,"259":4963,"12082":4964,"12066":4965,"ĠTeTeIr":4966,"ĠStannite":4967,"lut":4968,"ĠPlut":4969,"AlPt":4970,"FeNi":4971,"ĠFeMn":4972,"RhIn":4973,"MoRu":4974,"ZrS":4975,"338":4976,"1196":4977,"TaSi":4978,"157":4979,"MnOs":4980,"ĠTlTe":4981,"BiAs":4982,"ĠPlutonium":4983,"240":4984,"md":4985,"ĠPOs":4986,"ĠYRh":4987,"ĠSbIn":4988,"1087":4989,"ĠBiSr":4990,"ĠCdGe":4991,"079":4992,"ĠReCo":4993,"860":4994,"475":4995,"5704":4996,"824":4997,"704":4998,"448":4999,"636":5000,"12215":5001,"ĠPPRu":5002,"10793":5003,"10773":5004,"5698":5005,"12199":5006,"ĠPCaSi":5007,"9813":5008,"ĠTiTc":5009,"ĠZrAu":5010,"TiTe":5011,"ĠAgCl":5012,"1222":5013,"CuSb":5014,"HfS":5015,"NbSe":5016,"898":5017,"656":5018,"659":5019,"831":5020,"12063":5021,"ĠAsCaAs":5022,"10727":5023,"ĠPRbP":5024,"554":5025,"723":5026,"ĠPCd":5027,"ĠCaNi":5028,"ĠAsPt":5029,"ZnAs":5030,"HfZn":5031,"HfMo":5032,"431":5033,"ĠBiCa":5034,"RuGe":5035,"424":5036,"5707":5037,"666":5038,"195":5039,"9775":5040,"12071":5041,"12167":5042,"12248":5043,"645":5044,"NCl":5045,"ĠNiPd":5046,"ĠSeNb":5047,"ĠScIr":5048,"TiFe":5049,"ĠCrC":5050,"1028":5051,"GaTe":5052,"HfAu":5053,"NbTe":5054,"TaOs":5055,"PbBi":5056,"236":5057,"745":5058,"813":5059,"11026":5060,"146":5061,"342":5062,"760":5063,"869":5064,"949":5065,"SS":5066,"ĠNiRe":5067,"ĠSiRh":5068,"ĠSiIr":5069,"ĠPdGa":5070,"ĠPtP":5071,"ĠGaGe":5072,"ĠTeZr":5073,"PtAl":5074,"PtAg":5075,"PtAu":5076,"ĠSbCa":5077,"1002":5078,"ĠSrCl":5079,"ZnZr":5080,"ĠAuNa":5081,"090":5082,"1156":5083,"NbN":5084,"NbRu":5085,"ĠTcRe":5086,"ScS":5087,"8637":5088,"SrS":5089,"OsGe":5090,"790":5091,"ReSi":5092,"12077":5093,"10794":5094,"785":5095,"AlSc":5096,"ĠCuGe":5097,"TiMn":5098,"ĠZnNi":5099,"ĠTeCr":5100,"ĠSbY":5101,"ĠSnCl":5102,"HfAs":5103,"AuCl":5104,"073":5105,"CaP":5106,"934":5107,"5687":5108,"326":5109,"9991":5110,"11842":5111,"12263":5112,"442":5113,"ob":5114,"Ġtetrafluoride":5115,"AlAs":5116,"ĠNbRe":5117,"ĠSeS":5118,"PdNi":5119,"ĠGeY":5120,"ĠFePt":5121,"ĠAgK":5122,"5429":5123,"NbGe":5124,"ĠPbRh":5125,"AuCd":5126,"086":5127,"168":5128,"MnZn":5129,"663":5130,"701":5131,"799":5132,"ReTc":5133,"561":5134,"NaPd":5135,"631":5136,"290":5137,"901":5138,"12257":5139,"301":5140,"782":5141,"988":5142,"WPd":5143,"TiSb":5144,"ĠFeRh":5145,"ĠNaPb":5146,"SbCl":5147,"CoTi":5148,"IrNb":5149,"NbSi":5150,"6971":5151,"ScIn":5152,"CaPd":5153,"CdGa":5154,"401":5155,"6322":5156,"11028":5157,"10952":5158,"510":5159,"WIr":5160,"tw":5161,"ĠIma":5162,"ĠInCa":5163,"ĠCaCu":5164,"FeCl":5165,"ĠNbMo":5166,"TiZn":5167,"ĠIrAl":5168,"1118":5169,"NbH":5170,"ĠRbSe":5171,"CaSn":5172,"CdPb":5173,"8622":5174,"SrCl":5175,"TcPd":5176,"735":5177,"814":5178,"348":5179,"12033":5180,"ĠPCaP":5181,"two":5182,"786":5183,"ĠSCl":5184,"ĠSeNi":5185,"AsPt":5186,"1068":5187,"ĠNaCd":5188,"GeN":5189,"SbAs":5190,"RhV":5191,"5425":5192,"RuS":5193,"ScSi":5194,"225":5195,"536":5196,"649":5197,"189":5198,"181":5199,"9717":5200,"VTc":5201,"ĠAem":5202,"ĠTiMn":5203,"ĠNiCo":5204,"ĠGaPd":5205,"ĠGaCo":5206,"ĠTaAu":5207,"ĠCoRe":5208,"805":5209,"ĠSbAl":5210,"ĠSnSn":5211,"SnRh":5212,"ScAg":5213,"058":5214,"863":5215,"TcP":5216,"TcGa":5217,"791":5218,"5680":5219,"NaCl":5220,"728":5221,"10913":5222,"ĠSTlIn":5223,"182":5224,"876":5225,"fif":5226,"Ġ28":5227,"AlH":5228,"ĠZrBi":5229,"TiOs":5230,"ĠMnAu":5231,"ĠNaH":5232,"CuGe":5233,"099":5234,"5418":5235,"694":5236,"CrMn":5237,"476":5238,"524":5239,"11038":5240,"10789":5241,"11831":5242,"11902":5243,"10806":5244,"10874":5245,"ncc":5246,"fifth":5247,"145":5248,"ĠSGe":5249,"ĠPtCr":5250,"ĠAsAl":5251,"ĠCrCl":5252,"ZnIr":5253,"MoV":5254,"679":5255,"CoPt":5256,"NbMo":5257,"855":5258,"CrRu":5259,"CdIn":5260,"478":5261,"5703":5262,"7291":5263,"491":5264,"637":5265,"11029":5266,"864984":5267,"canite":5268,"na":5269,"ĠNNi":5270,"ĠNbH":5271,"ĠVul":5272,"PtY":5273,"PtNi":5274,"GeSi":5275,"CuIn":5276,"AgP":5277,"334":5278,"ĠBiSc":5279,"RuSe":5280,"968":5281,"ScTc":5282,"MnFe":5283,"8619":5284,"661":5285,"9762":5286,"ĠPSrP":5287,"ĠVulcanite":5288,"662":5289,"KSb":5290,"VTe":5291,"WCl":5292,"hos":5293,"phide":5294,"Ġphos":5295,"Ġ27":5296,"ĠAma":5297,"ĠInCl":5298,"ĠNiob":5299,"ĠYAs":5300,"ĠZnIr":5301,"1084":5302,"330":5303,"ĠTcPt":5304,"ScIr":5305,"161":5306,"222âĤģ":5307,"886":5308,"2147":5309,"029":5310,"235":5311,"891":5312,"897":5313,"1953":5314,"5696":5315,"11036":5316,"12188":5317,"11849":5318,"ĠSZnIn":5319,"ĠSSbIr":5320,"11796":5321,"Ġphosphide":5322,"ĠNiobium":5323,"185":5324,"293":5325,"PIr":5326,"ale":5327,"dale":5328,"ĠTiCr":5329,"ĠMillerite":5330,"TiGe":5331,"AsTe":5332,"ĠGeP":5333,"ĠCoGa":5334,"1066":5335,"GaY":5336,"ĠNaPd":5337,"RuTa":5338,"ĠPbNa":5339,"5050":5340,"5048":5341,"089":5342,"CrRh":5343,"884":5344,"060":5345,"ĠCsS":5346,"465":5347,"OsAl":5348,"OsGa":5349,"560":5350,"449":5351,"729":5352,"ĠLons":5353,"1823":5354,"632":5355,"6363":5356,"12062":5357,"11057":5358,"10774":5359,"11830":5360,"ĠAsAsOs":5361,"ĠSSbRu":5362,"ĠSFeCo":5363,"9749":5364,"daleite":5365,"ĠLonsdaleite":5366,"329":5367,"643":5368,"685":5369,"ĠHHf":5370,"ĠNiIn":5371,"ĠPdFe":5372,"ĠHfSn":5373,"ĠPtY":5374,"2006":5375,"ĠSelenium":5376,"TiCo":5377,"807":5378,"ĠFePd":5379,"ĠFeIr":5380,"1027":5381,"ĠSrTl":5382,"CuZr":5383,"CuCl":5384,"ĠIrFe":5385,"SnCl":5386,"ĠPbN":5387,"ScCd":5388,"827":5389,"751":5390,"241":5391,"2583":5392,"495":5393,"12069":5394,"12169":5395,"11896":5396,"11875":5397,"10804":5398,"YH":5399,"odi":5400,"Ġtriodi":5401,"ĠBis":5402,"PdTe":5403,"ZnGe":5404,"AgS":5405,"5416":5406,"TaMn":5407,"ĠClPb":5408,"CdSb":5409,"8696":5410,"ĠHgHg":5411,"ĠCsSe":5412,"10951":5413,"1058696":5414,"Ġtriodide":5415,"ĠBismuth":5416,"774":5417,"ĠAlGa":5418,"ĠSiOs":5419,"207":5420,"ĠAsTa":5421,"ĠTeZn":5422,"1062":5423,"ĠSrPt":5424,"GaCl":5425,"ĠNaPt":5426,"AgSe":5427,"ĠBiIr":5428,"IrIn":5429,"1198":5430,"425":5431,"ĠOsSc":5432,"CaAg":5433,"ĠTlTi":5434,"8652":5435,"470":5436,"400":5437,"TcPt":5438,"651":5439,"798":5440,"5689":5441,"TlCl":5442,"9993":5443,"12262":5444,"10257":5445,"5690":5446,"21359":5447,"ĠPYP":5448,"267":5449,"284":5450,"612":5451,"FeRh":5452,"TiTc":5453,"PdSe":5454,"ĠTeHg":5455,"ĠSbK":5456,"1006":5457,"10227":5458,"ĠSrCa":5459,"ĠKIn":5460,"ZrRu":5461,"RuIn":5462,"1194":5463,"6907":5464,"TaAs":5465,"ScPt":5466,"CaRh":5467,"719":5468,"626":5469,"759":5470,"601":5471,"11063":5472,"12388":5473,"867351":5474,"314":5475,"hr":5476,"ĠClat":5477,"ĠCCr":5478,"ĠCMn":5479,"ĠPCu":5480,"SiN":5481,"TiIn":5482,"PdCl":5483,"ĠFeV":5484,"ĠAuV":5485,"ĠAuSi":5486,"SnN":5487,"AgCu":5488,"548":5489,"AuPb":5490,"5302":5491,"ĠOsTe":5492,"479":5493,"7565":5494,"OsRh":5495,"TcNi":5496,"ReOs":5497,"HgS":5498,"295":5499,"13164":5500,"ĠSPOs":5501,"hrate":5502,"ĠClathrate":5503,"393":5504,"VPd":5505,"WAl":5506,"ĠVGa":5507,"TiRu":5508,"ĠAsPd":5509,"ĠTeSe":5510,"806":5511,"PtV":5512,"ĠSrSe":5513,"ĠNaAu":5514,"1232":5515,"RuV":5516,"IrRu":5517,"1192":5518,"NbPt":5519,"078":5520,"530":5521,"838":5522,"187":5523,"TlS":5524,"1483":5525,"12057":5526,"12090":5527,"11021":5528,"867780":5529,"1187474":5530,"1188061":5531,"12463":5532,"17190":5533,"1017983":5534,"141":5535,"1487":5536,"312":5537,"9939":5538,"KAg":5539,"VCo":5540,"VRu":5541,"Ġ26":5542,"ĠAlFe":5543,"AlSb":5544,"ĠGaCu":5545,"2070":5546,"ĠVAl":5547,"SiH":5548,"ĠTaMo":5549,"ĠTaCo":5550,"ĠSbOs":5551,"1061":5552,"1235":5553,"HfRu":5554,"NbCl":5555,"AuZn":5556,"ĠNHS":5557,"534":5558,"535":5559,"CaAs":5560,"CaCo":5561,"CaTl":5562,"15965":5563,"2354":5564,"5688":5565,"NaAg":5566,"1786":5567,"9854":5568,"12074":5569,"12250":5570,"11454":5571,"ĠAsAsPd":5572,"1187541":5573,"12190":5574,"ĠHCaNi":5575,"ĠSSbRh":5576,"ĠSSbOs":5577,"ĠCccm":5578,"ĠSBiIr":5579,"1217255":5580,"672232":5581,"1078867":5582,"11787":5583,"1217407":5584,"684602":5585,"316":5586,"5105":5587,"YSe":5588,"ĠNCo":5589,"ĠSiCr":5590,"ĠZrSn":5591,"20418":5592,"ĠVMo":5593,"ĠCuAs":5594,"InN":5595,"NiBi":5596,"PtP":5597,"1042":5598,"1014":5599,"TeS":5600,"MoN":5601,"SnAs":5602,"5407":5603,"IrZn":5604,"6985":5605,"MnIr":5606,"7192":5607,"2302":5608,"795":5609,"6849":5610,"184":5611,"9953":5612,"RbAu":5613,"12009":5614,"12274":5615,"12261":5616,"12160":5617,"11946":5618,"1187665":5619,"1061133":5620,"1189573":5621,"9744":5622,"1077503":5623,"8462":5624,"SV":5625,"prite":5626,"ĠPdCr":5627,"ĠPtH":5628,"ĠVCl":5629,"ĠCuprite":5630,"ĠAsP":5631,"InPt":5632,"ĠTeCl":5633,"PtRh":5634,"ĠMnNi":5635,"ĠSnTa":5636,"ĠAgSr":5637,"ZrCu":5638,"AgZr":5639,"CoIn":5640,"NbRe":5641,"532":5642,"8886":5643,"2319":5644,"736":5645,"ReRh":5646,"6043":5647,"9789":5648,"917":5649,"003":5650,"1101":5651,"11019":5652,"10798":5653,"1186427":5654,"30871":5655,"30876":5656,"10642":5657,"568792":5658,"9799":5659,"1208852":5660,"708":5661,"KPb":5662,"SZr":5663,"WOs":5664,"YFe":5665,"ĠHNi":5666,"ĠRhN":5667,"TiCd":5668,"ĠAsRe":5669,"ĠTePIr":5670,"ĠCrSn":5671,"PtH":5672,"ĠAgGe":5673,"RhSb":5674,"1180":5675,"ĠOsN":5676,"ĠOsV":5677,"1563":5678,"CdZn":5679,"8939":5680,"930":5681,"2510":5682,"NaPt":5683,"9716":5684,"30500":5685,"000":5686,"11041":5687,"11049":5688,"12286":5689,"11420":5690,"ĠCoPS":5691,"10705":5692,"10250":5693,"569249":5694,"1217422":5695,"MoSSe":5696,"570691":5697,"1007786":5698,"30366":5699,"1207024":5700,"1079796":5701,"1072724":5702,"WRu":5703,"nmc":5704,"ĠHK":5705,"ĠNbAu":5706,"SiPt":5707,"ĠMoV":5708,"ĠMoW":5709,"ĠYPb":5710,"PdHg":5711,"ĠCoCr":5712,"10015":5713,"ĠNaK":5714,"12110":5715,"12137":5716,"ZrW":5717,"CoN":5718,"NbGa":5719,"TaRh":5720,"ĠTcCl":5721,"ScTe":5722,"1620":5723,"CaFe":5724,"MnS":5725,"578":5726,"SrRu":5727,"5685":5728,"5681":5729,"7846":5730,"592":5731,"TlSe":5732,"630":5733,"1186437":5734,"1018124":5735,"15681":5736,"16521":5737,"974376":5738,"2732":5739,"1216323":5740,"616559":5741,"1187816":5742,"1095669":5743,"11563":5744,"176":5745,"766":5746,"846":5747,"875":5748,"991":5749,"YRu":5750,"ĠAlCr":5751,"ĠAlOs":5752,"AlMo":5753,"ĠPdCl":5754,"ĠGaMo":5755,"20928":5756,"FeAl":5757,"ĠSeAl":5758,"ĠMoTa":5759,"ĠCrGa":5760,"PtRu":5761,"1239":5762,"MoTa":5763,"HfGa":5764,"671":5765,"332":5766,"072":5767,"1642":5768,"22337":5769,"881":5770,"ĠTlPb":5771,"8624":5772,"8638":5773,"068":5774,"624":5775,"748":5776,"892":5777,"SrCu":5778,"NaPb":5779,"2733":5780,"9833":5781,"11052":5782,"CsHg":5783,"11411":5784,"1216530":5785,"12204":5786,"10293":5787,"569785":5788,"10155":5789,"1217895":5790,"570428":5791,"1184650":5792,"1120769":5793,"1094255":5794,"1103211":5795,"1229012":5796,"1080001":5797,"542915":5798,"172":5799,"2560":5800,"562":5801,"773":5802,"nb":5803,"ĠTiRe":5804,"ĠPdRe":5805,"2034":5806,"ĠVCr":5807,"PdTl":5808,"ĠCrPd":5809,"ĠSbV":5810,"ĠSbSc":5811,"10559":5812,"ĠSnCr":5813,"GeSb":5814,"MoIr":5815,"966":5816,"IrRh":5817,"ScOs":5818,"858":5819,"ĠHgP":5820,"600":5821,"NaCd":5822,"1359":5823,"2705":5824,"11010":5825,"10910":5826,"10941":5827,"12272":5828,"1963":5829,"1220023":5830,"5693":5831,"10698":5832,"ĠPcc":5833,"16526":5834,"1014231":5835,"ĠAsFeNi":5836,"972071":5837,"976128":5838,"1224298":5839,"978531":5840,"1184265":5841,"6âĤģ":5842,"733":5843,"SCs":5844,"VPt":5845,"mnc":5846,"ĠSPd":5847,"ĠHV":5848,"2059":5849,"ĠSePd":5850,"ĠSeHg":5851,"ĠZnIn":5852,"ĠFeCu":5853,"ĠSbMn":5854,"1071":5855,"1030":5856,"10025":5857,"12108":5858,"ZrCr":5859,"HfFe":5860,"HfSe":5861,"11192":5862,"NbCo":5863,"AuTl":5864,"ĠCdN":5865,"ScN":5866,"059":5867,"2271":5868,"15649":5869,"CdSn":5870,"CdCl":5871,"402":5872,"062":5873,"579":5874,"SrHg":5875,"NaAs":5876,"6372":5877,"10782":5878,"30811":5879,"1018113":5880,"12238":5881,"974335":5882,"1337":5883,"979115":5884,"1072645":5885,"12614":5886,"1104047":5887,"17706":5888,"1064227":5889,"287":5890,"2108":5891,"2670":5892,"KNa":5893,"SCl":5894,"VRe":5895,"xSn":5896,"ĠHfTe":5897,"ĠPtCl":5898,"SiSe":5899,"ĠMoGe":5900,"ĠCuFe":5901,"ĠYCo":5902,"ĠRhCo":5903,"PdTa":5904,"ĠAsRb":5905,"ĠGeFe":5906,"ĠGeHf":5907,"ĠTeCa":5908,"ĠWW":5909,"ĠCrGe":5910,"PtSe":5911,"ĠSbHf":5912,"ĠNaAg":5913,"097":5914,"ĠKPb":5915,"MoTeSe":5916,"CoRu":5917,"ĠBiK":5918,"11809":5919,"TaNi":5920,"TaGe":5921,"ĠTcY":5922,"ĠOsY":5923,"1515":5924,"2187":5925,"574":5926,"8937":5927,"937":5928,"SrCa":5929,"OsAs":5930,"1922":5931,"248":5932,"2455":5933,"727":5934,"513":5935,"499":5936,"ĠPnna":5937,"13156":5938,"2767":5939,"1216195":5940,"569776":5941,"10692":5942,"1184633":5943,"ĠSSnPt":5944,"16529":5945,"974358":5946,"15953":5947,"1094267":5948,"ĠSAsOs":5949,"ĠSeAsRu":5950,"11334":5951,"19724":5952,"864647":5953,"ĠAsSbIr":5954,"ĠSbAsIr":5955,"12595":5956,"976273":5957,"1014111":5958,"979911":5959,"246":5960,"265":5961,"2105":5962,"586":5963,"7092":5964,"9938":5965,"lw":5966,"ĠAlRu":5967,"ĠTiRu":5968,"zelw":5969,"20576":5970,"ĠSeCl":5971,"ĠYCl":5972,"ĠTeCu":5973,"ĠCrCo":5974,"10000":5975,"ĠAuZr":5976,"ZrAu":5977,"SnSi":5978,"CoIr":5979,"432":5980,"RuTi":5981,"11506":5982,"076":5983,"ĠRbH":5984,"22568":5985,"ĠOsSb":5986,"ĠTlP":5987,"5711":5988,"7598":5989,"SrH":5990,"734":5991,"6049":5992,"6398":5993,"oodite":5994,"17123":5995,"RbGa":5996,"11011":5997,"ĠHazelw":5998,"8677":5999,"mbc":6000,"1221420":6001,"1188800":6002,"12467":6003,"1339":6004,"865527":6005,"20847":6006,"1025397":6007,"ĠSMnCd":6008,"17974":6009,"1193055":6010,"1025513":6011,"972069":6012,"1216621":6013,"2824":6014,"680576":6015,"866186":6016,"1207013":6017,"542569":6018,"ĠHazelwoodite":6019,"381":6020,"7790":6021,"925":6022,"PCl":6023,"VAl":6024,"ĠSC":6025,"20695":6026,"ĠVOs":6027,"ĠAsNa":6028,"NiPd":6029,"ĠCoN":6030,"1096":6031,"ĠSrTe":6032,"GeC":6033,"1260":6034,"095":6035,"3342":6036,"5412":6037,"IrMo":6038,"11573":6039,"11328":6040,"TaV":6041,"16074":6042,"883":6043,"1523":6044,"MnPd":6045,"238":6046,"2377":6047,"575":6048,"571247":6049,"571199":6050,"7045":6051,"836":6052,"ReRu":6053,"687":6054,"639":6055,"298":6056,"1357":6057,"13155":6058,"12068":6059,"11042":6060,"12181":6061,"11481":6062,"1216825":6063,"1216231":6064,"ĠMoTeSe":6065,"30836":6066,"1078697":6067,"12778":6068,"22033":6069,"30483":6070,"999502":6071,"1199529":6072,"1887":6073,"1216655":6074,"ĠCrSbAs":6075,"567929":6076,"29767":6077,"ZrPP":6078,"1206659":6079,"450":6080,"51069":6081,"909":6082,"9969":6083,"KBi":6084,"WMo":6085,"alla":6086,"Ġpalla":6087,"ĠNGa":6088,"ĠPSe":6089,"Ġaluminum":6090,"ĠCaAl":6091,"20800":6092,"FeIr":6093,"ĠCoNi":6094,"ĠTeV":6095,"808":6096,"PtTe":6097,"10052":6098,"10201":6099,"ĠNaTl":6100,"SbRu":6101,"RhPb":6102,"ZnCl":6103,"1278":6104,"12107":6105,"CuIr":6106,"ĠIrCl":6107,"MoCo":6108,"RuN":6109,"11549":6110,"11456":6111,"11690":6112,"NbZn":6113,"AuSb":6114,"2180":6115,"21328":6116,"8640":6117,"239":6118,"1989":6119,"1900":6120,"NaBi":6121,"30673":6122,"30674":6123,"11033":6124,"11035":6125,"1079127":6126,"1079438":6127,"1217092":6128,"1217804":6129,"30852":6130,"1188926":6131,"1186916":6132,"11322":6133,"10847":6134,"10388":6135,"1018056":6136,"974421":6137,"1077723":6138,"10695":6139,"1220323":6140,"1215518":6141,"ĠPmna":6142,"27413":6143,"20263":6144,"20033":6145,"607111":6146,"9835":6147,"1882":6148,"1103212":6149,"1214889":6150,"972228":6151,"1103038":6152,"1219509":6153,"542640":6154,"977585":6155,"30180":6156,"978974":6157,"1070580":6158,"639874":6159,"510691":6160,"Ġpalladium":6161,"363":6162,"486":6163,"5803":6164,"819":6165,"PN":6166,"VP":6167,"YSb":6168,"five":6169,"ithium":6170,"stibit":6171,"ĠPTe":6172,"ĠPMn":6173,"ĠPAsPt":6174,"ĠHRh":6175,"ĠTiOs":6176,"Ġlithium":6177,"ĠGPa":6178,"2086":6179,"20672":6180,"ĠSeGa":6181,"ĠSeSiPt":6182,"ĠTaNbW":6183,"ĠScSe":6184,"PdPt":6185,"InSn":6186,"ĠTeK":6187,"ĠCrPt":6188,"1024":6189,"10744":6190,"RhRu":6191,"ZnTe":6192,"1212":6193,"12524":6194,"ĠIrHf":6195,"AgTe":6196,"AgCl":6197,"6755":6198,"6726":6199,"547":6200,"RuNi":6201,"IrPd":6202,"11191":6203,"ĠPbK":6204,"6938":6205,"ĠTcZr":6206,"1638":6207,"ĠClCa":6208,"ĠClCd":6209,"2243":6210,"BiP":6211,"2322":6212,"890":6213,"8282":6214,"TcS":6215,"24082":6216,"590":6217,"138":6218,"1412":6219,"9481":6220,"30675":6221,"30501":6222,"12015":6223,"1105302":6224,"11870":6225,"10285":6226,"1183222":6227,"1219503":6228,"1217081":6229,"30846":6230,"1018121":6231,"1018105":6232,"ĠNZrZn":6233,"1186901":6234,"ĠChalcostibit":6235,"11329":6236,"1184558":6237,"ĠSBiPb":6238,"12772":6239,"22040":6240,"16609":6241,"1077116":6242,"13688":6243,"1009834":6244,"20405":6245,"ĠSeRbSb":6246,"570895":6247,"15954":6248,"867347":6249,"998981":6250,"1739":6251,"1216480":6252,"972088":6253,"1207380":6254,"568607":6255,"1018153":6256,"ĠNNaTa":6257,"11477":6258,"1102018":6259,"542634":6260,"669917":6261,"1178983":6262,"568789":6263,"1084800":6264,"504812":6265,"32994":6266,"1205786":6267,"974455":6268,"ĠAsPPt":6269,"580357":6270,"ĠPTeIr":6271,"ĠPMnNbP":6272,"ĠChalcostibite":6273,"2677":6274,"605":6275,"915":6276,"WC":6277,"ĠPRu":6278,"ĠPHg":6279,"20191":6280,"FeRu":6281,"ĠTaRe":6282,"PdY":6283,"ĠFeAl":6284,"1094":6285,"10229":6286,"10125":6287,"ĠMnCl":6288,"ĠNaGe":6289,"1251":6290,"12802":6291,"543":6292,"5409":6293,"RuPt":6294,"ĠReTa":6295,"ĠRbP":6296,"ĠOsSe":6297,"ĠOsCl":6298,"MnNi":6299,"MnCo":6300,"CdN":6301,"21104":6302,"23279":6303,"OsSe":6304,"2480":6305,"ReTa":6306,"5682":6307,"787":6308,"597":6309,"TlIn":6310,"1326":6311,"2614":6312,"2783":6313,"30337":6314,"30338":6315,"11056":6316,"11061":6317,"11471":6318,"1220003":6319,"569426":6320,"11910":6321,"ĠFeSbTe":6322,"1217894":6323,"1221484":6324,"1018103":6325,"11290":6326,"11227":6327,"12239":6328,"ĠSnTePd":6329,"1186967":6330,"ĠSCoCu":6331,"22050":6332,"1018055":6333,"1335":6334,"1072429":6335,"1072744":6336,"18622":6337,"30744":6338,"16528":6339,"31172":6340,"7558":6341,"1699":6342,"ĠSAsRu":6343,"571030":6344,"ĠSeAsOs":6345,"ĠSPRu":6346,"866046":6347,"1217048":6348,"1190774":6349,"32654":6350,"1103842":6351,"1066136":6352,"1080493":6353,"1459":6354,"1476":6355,"2540":6356,"351":6357,"550":6358,"952":6359,"ĠSGa":6360,"AlSe":6361,"ĠCaTi":6362,"ĠVTc":6363,"ĠRhHf":6364,"ĠZnGa":6365,"ĠTeSr":6366,"ĠWV":6367,"ĠSbGa":6368,"1089":6369,"10136":6370,"1213":6371,"AgHg":6372,"9616":6373,"11803":6374,"NbNi":6375,"NbSb":6376,"5046":6377,"ScFe":6378,"1601":6379,"1627":6380,"ĠReAl":6381,"056":6382,"22209":6383,"22192":6384,"CrCl":6385,"1582":6386,"MnRu":6387,"404":6388,"2395":6389,"6254":6390,"1941":6391,"2420":6392,"ReAl":6393,"ReSe":6394,"251":6395,"414":6396,"294":6397,"299":6398,"1345":6399,"27166":6400,"1725":6401,"11453":6402,"1077045":6403,"10260":6404,"1183214":6405,"10795":6406,"8672":6407,"12194":6408,"1018156":6409,"ĠSiNCl":6410,"11229":6411,"1078123":6412,"1223977":6413,"1066254":6414,"11550":6415,"30594":6416,"1018029":6417,"16719":6418,"568718":6419,"1184632":6420,"ĠPca":6421,"16523":6422,"865342":6423,"865357":6424,"865362":6425,"983459":6426,"1228815":6427,"1018148":6428,"1070103":6429,"1183647":6430,"978498":6431,"985825":6432,"1836":6433,"1096994":6434,"1217409":6435,"27606":6436,"1187196":6437,"1220645":6438,"1187702":6439,"1017545":6440,"554462":6441,"690760":6442,"1180309":6443,"504659":6444,"1826":6445,"510032":6446,"644":6447,"622209":6448,"984":6449,"990":6450,"987":6451,"9895":6452,"âĤĥâĤĤ":6453,"AlY":6454,"ĠSiRu":6455,"ĠCaFe":6456,"FeCu":6457,"ĠVSb":6458,"ĠRhMn":6459,"PdSb":6460,"NiSn":6461,"ĠGeZr":6462,"ĠWHf":6463,"PtSb":6464,"1052":6465,"10901":6466,"12102":6467,"CuHf":6468,"HfGe":6469,"AgIn":6470,"AgCa":6471,"5461":6472,"439":6473,"11441":6474,"1578":6475,"8639":6476,"2361":6477,"23206":6478,"936":6479,"SrN":6480,"SrPb":6481,"732":6482,"655461":6483,"1973":6484,"794":6485,"797":6486,"2582":6487,"587":6488,"13503":6489,"9765":6490,"973342":6491,"9970":6492,"30671":6493,"1109":6494,"11025":6495,"12178":6496,"12280":6497,"1216851":6498,"10254":6499,"10792":6500,"1079296":6501,"1079460":6502,"1079182":6503,"1186024":6504,"1186055":6505,"867281":6506,"11909":6507,"1187241":6508,"ĠSeNaV":6509,"1080448":6510,"1188336":6511,"11230":6512,"11397":6513,"22095":6514,"1007692":6515,"30581":6516,"16723":6517,"30685":6518,"1077466":6519,"1207100":6520,"1224383":6521,"5713":6522,"571557":6523,"13364":6524,"13683":6525,"9792":6526,"866121":6527,"1184658":6528,"27410":6529,"20849":6530,"1008634":6531,"570870":6532,"31144":6533,"16488":6534,"1187913":6535,"1095495":6536,"2731":6537,"989782":6538,"17413":6539,"1104341":6540,"1217363":6541,"1100773":6542,"1103177":6543,"706531":6544,"569833":6545,"863750":6546,"999133":6547,"632286":6548,"510209":6549,"1184905":6550,"1179605":6551,"1189696":6552,"1061861":6553,"11220":6554,"1825":6555,"2121":6556,"2758":6557,"5104":6558,"696":6559,"710":6560,"767":6561,"822":6562,"9827":6563,"YCl":6564,"ĠNS":6565,"ĠAlTc":6566,"AlTe":6567,"AlSn":6568,"ĠSiCl":6569,"SiCl":6570,"ĠRhHg":6571,"NiCoGe":6572,"ĠGePt":6573,"ĠCoSn":6574,"ĠCrFe":6575,"PtTi":6576,"PtHf":6577,"ĠSnBi":6578,"seven":6579,"RhGa":6580,"RhHg":6581,"CuBi":6582,"ZrAg":6583,"AgPd":6584,"333":6585,"CoBi":6586,"ĠBiSb":6587,"IrTa":6588,"11714":6589,"ĠPbPt":6590,"ĠCdSr":6591,"556":6592,"CaTe":6593,"CaPb":6594,"1522":6595,"BiTe":6596,"8635":6597,"027":6598,"4647":6599,"7509":6600,"7554":6601,"RePt":6602,"2593":6603,"HgSe":6604,"604647":6605,"NaTl":6606,"7263":6607,"048":6608,"13853":6609,"017":6610,"17695":6611,"31348":6612,"12270":6613,"11412":6614,"20669":6615,"1220635":6616,"1183209":6617,"1186964":6618,"11957":6619,"1187884":6620,"567822":6621,"1217113":6622,"1018166":6623,"1188462":6624,"1188292":6625,"1188869":6626,"11231":6627,"1223755":6628,"1223860":6629,"1186970":6630,"ĠKKAs":6631,"1087509":6632,"11565":6633,"1007691":6634,"1007730":6635,"16608":6636,"568232":6637,"30682":6638,"571499":6639,"1218017":6640,"1220322":6641,"1103536":6642,"ĠTiHN":6643,"999549":6644,"21012":6645,"21342":6646,"27411":6647,"12657":6648,"1217210":6649,"1094272":6650,"1217971":6651,"998949":6652,"607138":6653,"672222":6654,"ĠSAsRh":6655,"1078666":6656,"1103252":6657,"1209024":6658,"ĠSPIr":6659,"ĠSeGePt":6660,"19905":6661,"1184011":6662,"1219533":6663,"978553":6664,"1191538":6665,"989695":6666,"1215257":6667,"542454":6668,"1190736":6669,"12594":6670,"2403":6671,"570491":6672,"999143":6673,"1226170":6674,"1228607":6675,"979261":6676,"1894":6677,"275":6678,"2693":6679,"2430":6680,"321":6681,"5546":6682,"642":6683,"7818":6684,"9122":6685,"YIr":6686,"ĠPCl":6687,"âĤģâĤĪ":6688,"ĠSiH":6689,"ĠZrAg":6690,"2027":6691,"20539":6692,"ĠCoMn":6693,"ĠWC":6694,"ĠSbNa":6695,"1021":6696,"12561":6697,"12735":6698,"CuH":6699,"67220":6700,"TaGa":6701,"085":6702,"1682":6703,"2294":6704,"888":6705,"0220":6706,"TcSi":6707,"830":6708,"817":6709,"6419":6710,"492":6711,"638":6712,"135":6713,"9755":6714,"9746":6715,"9954":6716,"27165":6717,"RbCl":6718,"12085":6719,"1200220":6720,"12177":6721,"CsGa":6722,"12269":6723,"12285":6724,"11416":6725,"1216675":6726,"1216242":6727,"12200":6728,"1220327":6729,"10296":6730,"10240":6731,"1183227":6732,"1079297":6733,"569535":6734,"569727":6735,"10188":6736,"1215274":6737,"1217163":6738,"1018151":6739,"570197":6740,"1184119":6741,"1184693":6742,"16718":6743,"568115":6744,"30683":6745,"1025223":6746,"1009460":6747,"999204":6748,"1215509":6749,"1008601":6750,"1552":6751,"1199503":6752,"998972":6753,"1078602":6754,"1014229":6755,"1079910":6756,"1205346":6757,"568646":6758,"24286":6759,"1207004":6760,"1187486":6761,"1102657":6762,"1002122":6763,"1190267":6764,"1103643":6765,"1206927":6766,"784630":6767,"554609":6768,"672204":6769,"2503":6770,"823":6771,"YCo":6772,"YPtGe":6773,"six":6774,"ĠPma":6775,"ĠPNbP":6776,"ĠPCuP":6777,"ĠInV":6778,"ĠZrOs":6779,"ĠGaTc":6780,"ĠSeV":6781,"PdMo":6782,"AsN":6783,"NiRu":6784,"ĠGeCr":6785,"PtPd":6786,"ĠSbPd":6787,"1022":6788,"1064":6789,"10487":6790,"1279":6791,"1281":6792,"12700":6793,"ĠRuNb":6794,"SnRu":6795,"AgGa":6796,"5417":6797,"5428":6798,"ĠBiPtCl":6799,"RuZn":6800,"1152":6801,"1159":6802,"1135":6803,"11541":6804,"TaCo":6805,"ScAu":6806,"16514":6807,"5328":6808,"8860":6809,"PbP":6810,"064":6811,"2369":6812,"2379":6813,"5709":6814,"5737":6815,"755328":6816,"OsZr":6817,"2449":6818,"5613":6819,"2517":6820,"518":6821,"1341":6822,"12185":6823,"12147":6824,"Ġbipyramidal":6825,"10950":6826,"ĠNCaMo":6827,"20685":6828,"1183216":6829,"8679":6830,"1187258":6831,"1224475":6832,"1217961":6833,"1018672":6834,"10054":6835,"ĠAsTeOs":6836,"11393":6837,"862798":6838,"30686":6839,"571342":6840,"972889":6841,"28056":6842,"28029":6843,"28026":6844,"10096":6845,"20483":6846,"16522":6847,"1008555":6848,"1208406":6849,"ĠTeAsOs":6850,"1078638":6851,"571059":6852,"1206704":6853,"1187974":6854,"849059":6855,"567705":6856,"557096":6857,"571664":6858,"680570":6859,"1215997":6860,"1749":6861,"985806":6862,"7931":6863,"570287":6864,"567345":6865,"1536":6866,"867841":6867,"17045":6868,"ĠAsSbRh":6869,"ĠSbAsRh":6870,"1205858":6871,"569815":6872,"1079467":6873,"632219":6874,"569624":6875,"1206268":6876,"1022721":6877,"510522":6878,"1079810":6879,"17615":6880,"1038828":6881,"1106169":6882,"1064981":6883,"561320":6884,"037":6885,"21187":6886,"2698":6887,"374":6888,"31214":6889,"655":6890,"7526":6891,"NS":6892,"VFe":6893,"ĠAlRe":6894,"ĠHCs":6895,"AlCo":6896,"ĠSiTe":6897,"ĠGaBi":6898,"20327":6899,"ĠSeP":6900,"ĠMoC":6901,"TiIr":6902,"AsK":6903,"ĠFeNi":6904,"PtN":6905,"1020":6906,"10886":6907,"RhH":6908,"RhN":6909,"RhY":6910,"RhPd":6911,"1264":6912,"1299":6913,"CuRh":6914,"CuPb":6915,"NHS":6916,"ĠAuK":6917,"MoC":6918,"ZrOs":6919,"SnGe":6920,"AgAs":6921,"AgPt":6922,"5422":6923,"4306":6924,"RuP":6925,"RuZr":6926,"071":6927,"TaCl":6928,"ScH":6929,"1628":6930,"16960":6931,"ĠClAg":6932,"ĠRbAs":6933,"2258":6934,"1585":6935,"15624":6936,"BiZr":6937,"2305":6938,"2349":6939,"2348":6940,"7444":6941,"OsN":6942,"703":6943,"8372":6944,"HgCd":6945,"7667":6946,"13871":6947,"1415":6948,"32697":6949,"2612":6950,"11004":6951,"1214306":6952,"1220401":6953,"10212":6954,"1079082":6955,"1018123":6956,"1018128":6957,"1080586":6958,"11256":6959,"570451":6960,"11507":6961,"22075":6962,"30572":6963,"1018027":6964,"1025159":6965,"1105935":6966,"1105835":6967,"1105666":6968,"13365":6969,"1188008":6970,"1102895":6971,"999192":6972,"1008632":6973,"570832":6974,"865430":6975,"22318":6976,"1104165":6977,"1094254":6978,"31010":6979,"1102364":6980,"1207393":6981,"570651":6982,"557719":6983,"972220":6984,"1183643":6985,"866022":6986,"1056037":6987,"542484":6988,"1220657":6989,"30933":6990,"1087219":6991,"697179":6992,"1183144":6993,"1080608":6994,"991544":6995,"1201560":6996,"1502":6997,"362":6998,"317":6999,"520":7000,"KP":7001,"ĠNMo":7002,"ĠTiIn":7003,"ĠHfIn":7004,"2082":7005,"20862":7006,"20900":7007,"ĠCuH":7008,"ĠScMn":7009,"TiSn":7010,"TiHg":7011,"PdAs":7012,"InTe":7013,"ĠCoNiTe":7014,"ĠTeRh":7015,"ĠFeCo":7016,"1073":7017,"1010136":7018,"ĠSnMn":7019,"GaC":7020,"GeP":7021,"1211":7022,"12104":7023,"12777":7024,"ĠRuGe":7025,"091":7026,"HfMn":7027,"3306":7028,"IrZrSn":7029,"1115":7030,"1195":7031,"11108":7032,"NbAu":7033,"AuSc":7034,"TaSe":7035,"Ġ81":7036,"859":7037,"22555":7038,"22704":7039,"1526":7040,"MnSn":7041,"CdCa":7042,"ĠCsH":7043,"2363":7044,"931":7045,"SrCaSi":7046,"OsTe":7047,"7343":7048,"2450":7049,"HgTe":7050,"6080":7051,"6498":7052,"63980":7053,"636498":7054,"2685":7055,"9998":7056,"1755":7057,"17728":7058,"30336":7059,"1201836":7060,"11022":7061,"11024":7062,"110186":7063,"1183306":7064,"10711":7065,"1220678":7066,"1183137":7067,"1183777":7068,"1183627":7069,"1183517":7070,"569289":7071,"1186853":7072,"11908":7073,"11972":7074,"1187525":7075,"1219539":7076,"ĠCSiH":7077,"12213":7078,"30882":7079,"1018717":7080,"1018129":7081,"ĠCdAsCl":7082,"11288":7083,"11228":7084,"1078213":7085,"10004":7086,"ĠAsTeIr":7087,"1184713":7088,"30527":7089,"865166":7090,"1018054":7091,"1018028":7092,"16756":7093,"30367":7094,"ĠTeSnPd":7095,"29646":7096,"29619":7097,"1186016":7098,"2126":7099,"30471":7100,"20905":7101,"ĠSeSbOs":7102,"ĠSCrCu":7103,"570896":7104,"ĠTeAsIr":7105,"977129":7106,"850131":7107,"1078665":7108,"1079914":7109,"1025551":7110,"17173":7111,"1103044":7112,"21162":7113,"567920":7114,"1056438":7115,"18032":7116,"1023924":7117,"972326":7118,"2404":7119,"570483":7120,"1079399":7121,"SSOs":7122,"1079496":7123,"1203324":7124,"1198692":7125,"999318":7126,"1102131":7127,"1219006":7128,"1101121":7129,"1101145":7130,"1206819":7131,"1103512":7132,"990090":7133,"639805":7134,"1101860":7135,"2500":7136,"2637":7137,"446":7138,"445":7139,"762":7140,"Ba":7141,"SY":7142,"YWN":7143,"three":7144,"ĠAlCrFe":7145,"vell":7146,"ĠSiAl":7147,"ĠHfRh":7148,"ĠGaRu":7149,"2053":7150,"20555":7151,"ĠCuN":7152,"ĠZnCd":7153,"ĠCovell":7154,"10106":7155,"ĠSnCa":7156,"ZnH":7157,"ZnTi":7158,"ZnSr":7159,"CuO":7160,"ZrMoAl":7161,"541582":7162,"11460":7163,"AuZr":7164,"TaTc":7165,"ĠTcN":7166,"1683":7167,"051":7168,"057":7169,"0532":7170,"2245":7171,"5585":7172,"5555":7173,"5565":7174,"8880":7175,"CdY":7176,"BiSb":7177,"PbSnS":7178,"6287":7179,"TcZn":7180,"1984":7181,"19814":7182,"2490":7183,"2512":7184,"726":7185,"1822":7186,"18192":7187,"976971":7188,"990532":7189,"2715":7190,"1743":7191,"1793":7192,"RbHg":7193,"12175":7194,"CsSb":7195,"11885":7196,"1969":7197,"1183205":7198,"1183998":7199,"569867":7200,"1186444":7201,"1187697":7202,"567832":7203,"1219734":7204,"1080443":7205,"1188283":7206,"1188413":7207,"11263":7208,"1078699":7209,"ĠPFeSi":7210,"ĠNTaMo":7211,"1223714":7212,"ĠSeCsBi":7213,"1189099":7214,"12724":7215,"12469":7216,"974430":7217,"30619":7218,"30684":7219,"1077083":7220,"10259":7221,"973100":7222,"973149":7223,"1105852":7224,"972876":7225,"1215497":7226,"573691":7227,"1228947":7228,"21048":7229,"22320":7230,"1206780":7231,"1206743":7232,"1014230":7233,"17593":7234,"1018154":7235,"28266":7236,"571640":7237,"17449":7238,"7806":7239,"1095592":7240,"1543":7241,"17757":7242,"1534":7243,"HfCuGe":7244,"867816":7245,"17013":7246,"1196961":7247,"636334":7248,"1002106":7249,"1203353":7250,"1095177":7251,"637255":7252,"1104275":7253,"510412":7254,"ĠCovellite":7255,"271":7256,"2678":7257,"2451":7258,"376":7259,"409":7260,"481":7261,"5837":7262,"7539":7263,"848":7264,"9828":7265,"VIr":7266,"YP":7267,"YS":7268,"romium":7269,"ĠScH":7270,"801":7271,"ĠFeH":7272,"GaPt":7273,"SbN":7274,"SbP":7275,"1297":7276,"ĠKFe":7277,"ZrTc":7278,"11546":7279,"TaPd":7280,"ĠTcTa":7281,"1648":7282,"1630":7283,"2223":7284,"2282":7285,"CaBi":7286,"PbAs":7287,"ĠCsTe":7288,"2318":7289,"23159":7290,"SrBi":7291,"TcTa":7292,"738":7293,"7302":7294,"7390":7295,"458":7296,"1925":7297,"7260":7298,"049":7299,"32616":7300,"9920":7301,"9925":7302,"3509":7303,"2786":7304,"982070":7305,"12059":7306,"11050":7307,"10905":7308,"12275":7309,"12245":7310,"12287":7311,"1220085":7312,"569979":7313,"1186374":7314,"8675":7315,"11943":7316,"11922":7317,"1187717":7318,"1187077":7319,"567082":7320,"567612":7321,"1217166":7322,"1217429":7323,"30835":7324,"30828":7325,"1018100":7326,"1018125":7327,"1188890":7328,"10047":7329,"1003509":7330,"1062030":7331,"ĠChromium":7332,"ĠSCoNi":7333,"11387":7334,"11571":7335,"865899":7336,"1672":7337,"30352":7338,"1105651":7339,"1105078":7340,"1218044":7341,"1186014":7342,"11765":7343,"1009756":7344,"1103139":7345,"30481":7346,"ĠNAlGa":7347,"21093":7348,"1023934":7349,"1225998":7350,"570844":7351,"980420":7352,"865385":7353,"865382":7354,"20050":7355,"1216446":7356,"17564":7357,"567747":7358,"989737":7359,"22872":7360,"1187243":7361,"977390":7362,"505527":7363,"21589":7364,"30045":7365,"1187197":7366,"672326":7367,"1224485":7368,"11572":7369,"1207781":7370,"568746":7371,"971779":7372,"1091387":7373,"1077482":7374,"1183040":7375,"1006132":7376,"1194653":7377,"568172":7378,"17216":7379,"1105633":7380,"1191083":7381,"984698":7382,"1025448":7383,"583740":7384,"753921":7385,"1501":7386,"1431":7387,"266":7388,"2857":7389,"511":7390,"581":7391,"956":7392,"WRe":7393,"ĠTiC":7394,"ĠZint":7395,"2039":7396,"FeGe":7397,"SiSb":7398,"ĠSeTl":7399,"ĠYPd":7400,"ĠTaMn":7401,"ĠScTc":7402,"TiRe":7403,"InCl":7404,"InPb":7405,"NiZn":7406,"ĠTeTl":7407,"1063":7408,"10569":7409,"10636":7410,"ĠNaSi":7411,"ZnHg":7412,"093":7413,"MoRe":7414,"SnH":7415,"HfCd":7416,"CoCu":7417,"ĠBiNa":7418,"IrCu":7419,"IrBi":7420,"11514":7421,"ĠCdNi":7422,"0894":7423,"ScBi":7424,"ĠClHg":7425,"22236":7426,"1589":7427,"1581":7428,"15670":7429,"CdP":7430,"2179":7431,"8642":7432,"8662":7433,"PbMo":7434,"23164":7435,"621581":7436,"7564":7437,"SrNi":7438,"SrSb":7439,"SrTl":7440,"19713":7441,"ReW":7442,"HgZn":7443,"7262":7444,"1373":7445,"1363":7446,"9769":7447,"32679":7448,"2686":7449,"3760":7450,"27258":7451,"17332":7452,"30464":7453,"31205":7454,"RbAs":7455,"1200894":7456,"1203760":7457,"110188":7458,"CsSn":7459,"CsAu":7460,"12264":7461,"1216498":7462,"1071078":7463,"1220634":7464,"1183224":7465,"569678":7466,"569522":7467,"569989":7468,"1186231":7469,"11906":7470,"567871":7471,"1217111":7472,"12214":7473,"1221429":7474,"10802":7475,"ĠSNaCr":7476,"11261":7477,"1223503":7478,"1186926":7479,"ĠSCoRh":7480,"11345":7481,"ĠNYSc":7482,"1184676":7483,"1184058":7484,"12723":7485,"1007758":7486,"1077232":7487,"30354":7488,"30383":7489,"1224390":7490,"9729":7491,"2808":7492,"1184681":7493,"30496":7494,"865565":7495,"573514":7496,"18609":7497,"30745":7498,"1791":7499,"1228491":7500,"865425":7501,"998979":7502,"607450":7503,"672241":7504,"571053":7505,"1184772":7506,"862770":7507,"1228882":7508,"20581":7509,"1207392":7510,"ĠNScTi":7511,"19880":7512,"19879":7513,"1214894":7514,"570632":7515,"1147714":7516,"1070544":7517,"975834":7518,"14285":7519,"570276":7520,"505510":7521,"1101783":7522,"ĠCmme":7523,"672313":7524,"972351":7525,"1077372":7526,"1206371":7527,"1458":7528,"685124":7529,"568865":7530,"1178742":7531,"541289":7532,"1218177":7533,"974620":7534,"ĠZintl":7535,"1056985":7536,"1101884":7537,"250":7538,"771":7539,"7541":7540,"910":7541,"921":7542,"945":7543,"KFe":7544,"KSe":7545,"KCu":7546,"YCoGa":7547,"ea":7548,"ĠCCa":7549,"ĠAea":7550,"ĠNiN":7551,"ĠZrMn":7552,"ĠCaMn":7553,"2052":7554,"2049":7555,"20745":7556,"FePt":7557,"ĠYH":7558,"ĠYAsSe":7559,"ĠTaMoS":7560,"TiAg":7561,"PdPb":7562,"NiCu":7563,"ĠFeRu":7564,"10157":7565,"ĠSrAg":7566,"ĠSnCo":7567,"GePt":7568,"ZnSn":7569,"ZnTc":7570,"1244":7571,"1258":7572,"CuN":7573,"CuPt":7574,"SnBi":7575,"AgSb":7576,"6753":7577,"ĠBiSbTe":7578,"RuCu":7579,"1175":7580,"11675":7581,"11462":7582,"ScAs":7583,"ĠClTl":7584,"ĠOsH":7585,"ĠOsGe":7586,"CrNi":7587,"CaS":7588,"8881":7589,"8625":7590,"8628":7591,"523":7592,"461":7593,"749":7594,"7498":7595,"TcCl":7596,"564":7597,"2516":7598,"HgGa":7599,"NaTiS":7600,"TlAg":7601,"5820":7602,"976847":7603,"9016":7604,"2752":7605,"9847":7606,"11051":7607,"12182":7608,"11850":7609,"11407":7610,"11482":7611,"1072086":7612,"10263":7613,"1079131":7614,"1079938":7615,"569322":7616,"569250":7617,"1186175":7618,"1186230":7619,"1199016":7620,"1224803":7621,"30885":7622,"30856":7623,"1080522":7624,"1078443":7625,"1186974":7626,"ĠPSnP":7627,"1189230":7628,"ĠTeGePb":7629,"22079":7630,"16610":7631,"1224391":7632,"1186050":7633,"972828":7634,"1229092":7635,"1009730":7636,"12465":7637,"30485":7638,"573579":7639,"999544":7640,"21065":7641,"22924":7642,"ĠInSrAu":7643,"865355":7644,"1199934":7645,"YAgSe":7646,"1094248":7647,"672256":7648,"ĠSAsPd":7649,"ĠSAlZn":7650,"ĠSAlMo":7651,"1079945":7652,"ĠSeAsRh":7653,"24726":7654,"1205301":7655,"ĠSeMnZn":7656,"1067210":7657,"568328":7658,"1184021":7659,"978546":7660,"1187257":7661,"1184511":7662,"27821":7663,"567397":7664,"ĠTeSbRu":7665,"1017985":7666,"1101754":7667,"17880":7668,"17848":7669,"571264":7670,"1186760":7671,"555283":7672,"1077365":7673,"981383":7674,"1072712":7675,"863720":7676,"CaPdIn":7677,"1078989":7678,"570362":7679,"636368":7680,"974920":7681,"1187591":7682,"1062804":7683,"999376":7684,"684903":7685,"1180659":7686,"nbc":7687,"1055994":7688,"1101099":7689,"540912":7690,"1210215":7691,"976589":7692,"1195735":7693,"1700":7694,"2700":7695,"2648":7696,"2663":7697,"350":7698,"596":7699,"647":7700,"6200":7701,"6851":7702,"7674":7703,"873":7704,"8200":7705,"924":7706,"995":7707,"KCl":7708,"SN":7709,"ĠCS":7710,"AlRe":7711,"ĠPdSe":7712,"ĠZrRu":7713,"ĠCaCo":7714,"20549":7715,"20131":7716,"20526":7717,"20027":7718,"SiSn":7719,"ĠYRu":7720,"ĠScHg":7721,"TiCu":7722,"PdNiSi":7723,"AsZn":7724,"AsCl":7725,"1049":7726,"ĠAgZr":7727,"12628":7728,"MoZn":7729,"ZrCo":7730,"AgAu":7731,"RuCoAl":7732,"ScP":7733,"ScHg":7734,"1637":7735,"053":7736,"ĠClCu":7737,"2221":7738,"22693":7739,"868":7740,"SrTe":7741,"7372":7742,"660":7743,"8312":7744,"190":7745,"1914":7746,"1848":7747,"761":7748,"1371":7749,"976419":7750,"611219":7751,"RbP":7752,"RbTe":7753,"12032":7754,"CsP":7755,"1220052":7756,"10276":7757,"1186017":7758,"10172":7759,"1187881":7760,"567540":7761,"1217168":7762,"12217":7763,"30875":7764,"1018115":7765,"1188393":7766,"11239":7767,"ĠPZnP":7768,"1184670":7769,"1184502":7770,"ĠInSbTe":7771,"1007656":7772,"30571":7773,"29661":7774,"9731":7775,"2802":7776,"2807":7777,"2809":7778,"21294":7779,"30412":7780,"30787":7781,"1023926":7782,"570875":7783,"980094":7784,"974326":7785,"555935":7786,"1104898":7787,"1698":7788,"1184704":7789,"1209498":7790,"12593":7791,"568619":7792,"21182":7793,"22812":7794,"1095578":7795,"1547":7796,"1179520":7797,"862620":7798,"1017531":7799,"1095269":7800,"14587":7801,"1184994":7802,"636328":7803,"971661":7804,"1025044":7805,"983388":7806,"20599":7807,"sixth":7808,"608072":7809,"558552":7810,"620032":7811,"767469":7812,"1434":7813,"255":7814,"277":7815,"2828":7816,"2856":7817,"2701":7818,"2578":7819,"31219":7820,"516":7821,"583":7822,"788":7823,"9227":7824,"PTe":7825,"nner":7826,"renner":7827,"AlNb":7828,"AlTa":7829,"2076":7830,"20648":7831,"20291":7832,"ĠSeSc":7833,"PdSc":7834,"8046":7835,"8073":7836,"8091":7837,"ĠSbZr":7838,"1005":7839,"10026":7840,"10861":7841,"ĠSrCaSi":7842,"GaNb":7843,"ĠNaTiS":7844,"1210":7845,"12459":7846,"CuInS":7847,"ĠIrCa":7848,"ĠKrenner":7849,"MoOs":7850,"HfH":7851,"AgSn":7852,"5411":7853,"962":7854,"IrCo":7855,"IrCl":7856,"NbSn":7857,"NbOs":7858,"NbMoSe":7859,"AuGa":7860,"ĠTcOs":7861,"1606":7862,"ĠReCl":7863,"22856":7864,"5588":7865,"CrIr":7866,"CrTc":7867,"CaSb":7868,"1550":7869,"7140":7870,"BiRb":7871,"2172":7872,"7493":7873,"1919":7874,"ReP":7875,"HgBi":7876,"NaSe":7877,"594":7878,"7273":7879,"1876":7880,"1380":7881,"32861":7882,"2775":7883,"2781":7884,"27731":7885,"30463":7886,"28116":7887,"31105":7888,"12065":7889,"12078":7890,"12064":7891,"11062":7892,"11018":7893,"11843":7894,"ĠMoSSe":7895,"1216505":7896,"10783":7897,"1077263":7898,"1220631":7899,"1183501":7900,"1183484":7901,"1183710":7902,"1079832":7903,"569095":7904,"867212":7905,"11921":7906,"11940":7907,"1191079":7908,"1198091":7909,"1187073":7910,"567860":7911,"567597":7912,"1080831":7913,"1188155":7914,"1188645":7915,"11286":7916,"10784":7917,"10014":7918,"1207251":7919,"1224388":7920,"1186047":7921,"1229048":7922,"979423":7923,"21289":7924,"1009733":7925,"1228901":7926,"16511":7927,"1225186":7928,"980949":7929,"974370":7930,"31138":7931,"1193756":7932,"20250":7933,"867356":7934,"20034":7935,"31086":7936,"571060":7937,"28879":7938,"1205321":7939,"1078875":7940,"571651":7941,"866006":7942,"776470":7943,"861610":7944,"1224796":7945,"864889":7946,"1096915":7947,"1100795":7948,"672372":7949,"865176":7950,"1079681":7951,"13450":7952,"684650":7953,"1208273":7954,"1196393":7955,"949029":7956,"863648":7957,"568067":7958,"861910":7959,"505002":7960,"1205955":7961,"1192251":7962,"ĠKrennerite":7963,"1451":7964,"1444":7965,"2103":7966,"489":7967,"51009":7968,"618":7969,"746":7970,"811":7971,"947":7972,"KTe":7973,"PK":7974,"SH":7975,"SK":7976,"VRh":7977,"ĠSul":7978,"âĤĦâĤĢ":7979,"ĠNiRu":7980,"ĠHfSc":7981,"20628":7982,"ĠSeCoNi":7983,"ĠCuAsS":7984,"PdGe":7985,"PdRu":7986,"NiGe":7987,"ĠGeAl":7988,"8041":7989,"PtSc":7990,"ĠSbN":7991,"1082":7992,"10759":7993,"ĠNaCu":7994,"ĠNaNb":7995,"RhCu":7996,"ZnSiAs":7997,"12109":7998,"12124":7999,"12857":8000,"ZrRe":8001,"HfBi":8002,"6759":8003,"6736":8004,"5410":8005,"IrSc":8006,"ĠPbHg":8007,"5053":8008,"5047":8009,"5057":8010,"5049":8011,"1664":8012,"22700":8013,"22735":8014,"ĠOsNb":8015,"887":8016,"CdAl":8017,"21673":8018,"8648":8019,"PbGe":8020,"066":8021,"7440":8022,"7446":8023,"7441":8024,"8973":8025,"8948":8026,"TcN":8027,"664":8028,"24154":8029,"NaCu":8030,"684":8031,"5193":8032,"497":8033,"1340":8034,"1393":8035,"1304":8036,"1392":8037,"927":8038,"9262":8039,"27164":8040,"17094":8041,"30672":8042,"30478":8043,"11060":8044,"1105552":8045,"CsIn":8046,"11819":8047,"10909":8048,"1095683":8049,"1216575":8050,"10790":8051,"1079776":8052,"569544":8053,"567276":8054,"1215543":8055,"1219522":8056,"121708":8057,"30840":8058,"30884":8059,"22211":8060,"ĠSNaIn":8061,"1129":8062,"1223773":8063,"1039262":8064,"1007760":8065,"1018059":8066,"1105127":8067,"15650":8068,"1215488":8069,"1215401":8070,"ĠSeRbBi":8071,"ĠSSnSb":8072,"865598":8073,"30797":8074,"30717":8075,"16481":8076,"1226086":8077,"1217915":8078,"998985":8079,"850083":8080,"1217192":8081,"1690":8082,"1206741":8083,"1184791":8084,"1187946":8085,"20382":8086,"1067627":8087,"568376":8088,"1216325":8089,"570684":8090,"28391":8091,"1184018":8092,"1187811":8093,"14288":8094,"1178745":8095,"865733":8096,"30021":8097,"1183455":8098,"865910":8099,"570553":8100,"1106023":8101,"862621":8102,"1019052":8103,"21873":8104,"1186781":8105,"1178952":8106,"1219922":8107,"570751":8108,"1068446":8109,"568077":8110,"1078996":8111,"1183143":8112,"569037":8113,"1022725":8114,"1209003":8115,"1200988":8116,"1105296":8117,"1094140":8118,"29841":8119,"568293":8120,"867262":8121,"1079269":8122,"628766":8123,"1063670":8124,"1192175":8125,"510099":8126,"ĠSulvanite":8127,"1212407":8128,"673633":8129,"014":8130,"147":8131,"144":8132,"285":8133,"2576":8134,"2534":8135,"5826":8136,"610":8137,"608":8138,"7631":8139,"994":8140,"HCs":8141,"KGe":8142,"KCr":8143,"PP":8144,"WMn":8145,"YOs":8146,"YTc":8147,"YTiGe":8148,"hil":8149,"nnc":8150,"ĠHCr":8151,"ĠHyd":8152,"ĠNiCl":8153,"AlZn":8154,"ĠCaMnSi":8155,"ĠPtSeS":8156,"20311":8157,"FeBi":8158,"ĠNbWS":8159,"ĠNbMoSe":8160,"SiRe":8161,"ĠCuPt":8162,"ĠScRu":8163,"ĠAsIr":8164,"ĠTePt":8165,"CuTc":8166,"ĠIron":8167,"ZrPtAl":8168,"uphide":8169,"HfV":8170,"HfW":8171,"HfRhSn":8172,"AgTl":8173,"33112":8174,"5406":8175,"IrAu":8176,"1111":8177,"1173":8178,"11693":8179,"NbC":8180,"AuHf":8181,"ĠCdIn":8182,"5022":8183,"ScPb":8184,"ĠClIn":8185,"2211":8186,"2291":8187,"CaGa":8188,"CaMn":8189,"CaMnSi":8190,"1591":8191,"ĠTlHg":8192,"7189":8193,"2398":8194,"8936":8195,"rophil":8196,"OsPt":8197,"TcCu":8198,"658":8199,"194":8200,"1967":8201,"19932":8202,"24161":8203,"RePd":8204,"5610":8205,"HgCl":8206,"1395":8207,"13876":8208,"977189":8209,"32630":8210,"9907":8211,"9945":8212,"2780":8213,"2815":8214,"11046":8215,"11039":8216,"12252":8217,"12284":8218,"11440":8219,"ĠDisuphide":8220,"569794":8221,"1186100":8222,"1186158":8223,"10193":8224,"867303":8225,"11977":8226,"1191483":8227,"12156":8228,"30867":8229,"1080797":8230,"1188662":8231,"1078755":8232,"1078500":8233,"ĠPbTePt":8234,"1186955":8235,"1186990":8236,"11342":8237,"ĠNYW":8238,"570670":8239,"1184478":8240,"1184808":8241,"11521":8242,"11566":8243,"1007755":8244,"30668":8245,"10258":8246,"571547":8247,"29642":8248,"CoNiTe":8249,"TiAlAu":8250,"866161":8251,"20433":8252,"1103570":8253,"ĠPTiP":8254,"1215598":8255,"21068":8256,"20916":8257,"1023937":8258,"1225656":8259,"CoAsSe":8260,"12474":8261,"974341":8262,"1199938":8263,"31150":8264,"1226096":8265,"1120774":8266,"850014":8267,"ĠSAsPt":8268,"13147":8269,"1014219":8270,"1184703":8271,"1079997":8272,"862779":8273,"ĠSeAsPd":8274,"ĠSeAsIr":8275,"1216486":8276,"1018149":8277,"1185202":8278,"1102030":8279,"567907":8280,"754064":8281,"1184591":8282,"1400":8283,"542570":8284,"1179336":8285,"567379":8286,"1215783":8287,"1936":8288,"1106195":8289,"862655":8290,"570786":8291,"570744":8292,"1102616":8293,"ReSiReSi":8294,"542587":8295,"18167":8296,"541844":8297,"1190274":8298,"570377":8299,"1106381":8300,"540791":8301,"684989":8302,"604321":8303,"ĠAsReNi":8304,"568595":8305,"1071777":8306,"604908":8307,"755453":8308,"1021498":8309,"542812":8310,"ĠSePOs":8311,"1190841":8312,"1105134":8313,"582681":8314,"PPMn":8315,"ĠHydrophil":8316,"ĠHydrophilite":8317,"1853":8318,"286":8319,"488":8320,"8426":8321,"953":8322,"913":8323,"WNiP":8324,"WFeSi":8325,"YIrGe":8326,"Ġmvc":8327,"ĠInCuS":8328,"Ġred":8329,"Ġselenium":8330,"ĠPdS":8331,"ĠZrCd":8332,"20123":8333,"SeN":8334,"TiTaFe":8335,"ĠAsCr":8336,"InAl":8337,"InAs":8338,"ĠFeMo":8339,"ĠSbCd":8340,"1060":8341,"GaNi":8342,"GePd":8343,"RhGe":8344,"RhZrSn":8345,"ZnSi":8346,"ĠAuSb":8347,"ĠAuPb":8348,"MoNi":8349,"AgBi":8350,"5430":8351,"CoOs":8352,"CoSbS":8353,"ĠBiRb":8354,"IrN":8355,"IrY":8356,"TaH":8357,"508":8358,"2296":8359,"2260":8360,"5576":8361,"CrGe":8362,"CrSb":8363,"CaSe":8364,"8632":8365,"2346":8366,"23179":8367,"OsW":8368,"8311":8369,"1958":8370,"ReZn":8371,"ReMo":8372,"8182":8373,"HgIn":8374,"NaSi":8375,"NaBiS":8376,"685022":8377,"7822":8378,"7819":8379,"5911":8380,"TlN":8381,"5850":8382,"1469":8383,"1780":8384,"1708":8385,"30421":8386,"9843":8387,"28704":8388,"RbFe":8389,"RbIn":8390,"1105911":8391,"12240":8392,"12265":8393,"ĠAlNiGe":8394,"1216300":8395,"10785":8396,"1220079":8397,"11832":8398,"ĠAlCuPd":8399,"1186081":8400,"1186060":8401,"1187790":8402,"567207":8403,"567596":8404,"1221442":8405,"1221425":8406,"30883":8407,"1188663":8408,"1188913":8409,"10621":8410,"570199":8411,"1189177":8412,"1007857":8413,"865077":8414,"12454":8415,"ĠGeGeIr":8416,"973198":8417,"1186018":8418,"1186034":8419,"1186031":8420,"972981":8421,"1188040":8422,"15622":8423,"866108":8424,"30494":8425,"1215579":8426,"21030":8427,"1863":8428,"ĠAlVCo":8429,"30746":8430,"1206573":8431,"17910":8432,"1008488":8433,"974395":8434,"1228803":8435,"1208221":8436,"22375":8437,"867317":8438,"2797":8439,"16317":8440,"850068":8441,"672289":8442,"28885":8443,"1102384":8444,"23253":8445,"505626":8446,"24723":8447,"849086":8448,"567750":8449,"10703":8450,"1226736":8451,"975204":8452,"1056308":8453,"861630":8454,"AlNiGe":8455,"1183489":8456,"1219940":8457,"SSSCs":8458,"7859":8459,"1225701":8460,"1091375":8461,"1187512":8462,"1209044":8463,"ĠGaCuPt":8464,"971662":8465,"1079582":8466,"975519":8467,"573763":8468,"1009641":8469,"555599":8470,"1194350":8471,"1190654":8472,"973143":8473,"505780":8474,"1060435":8475,"543001":8476,"1462":8477,"272":8478,"6204":8479,"6430":8480,"923":8481,"9339":8482,"YIrSi":8483,"hite":8484,"phite":8485,"raphite":8486,"ĠCRe":8487,"Ġgraphite":8488,"ĠNCl":8489,"âĤĤâĤĤ":8490,"âĤĤâĤĩ":8491,"2081":8492,"20717":8493,"20826":8494,"SeCl":8495,"ĠCuRh":8496,"ĠRhH":8497,"PdTiSi":8498,"8062":8499,"PtTl":8500,"10281":8501,"1012110":8502,"ĠMnY":8503,"ĠAgAsS":8504,"CuNi":8505,"ĠIrS":8506,"HfVGe":8507,"AgSc":8508,"6762":8509,"4379":8510,"ĠBiZr":8511,"IrGa":8512,"11730":8513,"075":8514,"TaNbW":8515,"ScSb":8516,"ĠClZn":8517,"551":8518,"8882":8519,"15964":8520,"2142":8521,"2194":8522,"8663":8523,"86233":8524,"ĠHgTl":8525,"ĠCsP":8526,"23713":8527,"23152":8528,"5741":8529,"574379":8530,"7373":8531,"1902":8532,"2507":8533,"2597":8534,"NaS":8535,"NaGa":8536,"685050":8537,"6323":8538,"29973":8539,"29551":8540,"1349":8541,"9752":8542,"1411":8543,"9147":8544,"ĠTiSeS":8545,"9996":8546,"9947":8547,"9902":8548,"9948":8549,"998860":8550,"2753":8551,"2760":8552,"1775":8553,"12087":8554,"120175":8555,"11037":8556,"1101258":8557,"10953":8558,"ĠNCaTc":8559,"11457":8560,"1216464":8561,"1220141":8562,"1183206":8563,"1183969":8564,"569196":8565,"867126":8566,"11916":8567,"ĠSCuBi":8568,"1187152":8569,"567409":8570,"ĠWSCl":8571,"1217097":8572,"1221422":8573,"30886":8574,"30851":8575,"22270":8576,"1080834":8577,"1080376":8578,"11287":8579,"11237":8580,"10685":8581,"1186923":8582,"1186976":8583,"WSCl":8584,"1039147":8585,"2201":8586,"22009":8587,"1007923":8588,"1018019":8589,"12471":8590,"974437":8591,"ĠNFeMo":8592,"30666":8593,"30681":8594,"30368":8595,"1207855":8596,"ĠScNCl":8597,"973111":8598,"973092":8599,"1331":8600,"1188051":8601,"1229015":8602,"1072655":8603,"21276":8604,"974381":8605,"1208223":8606,"1226456":8607,"1104334":8608,"YPdZn":8609,"1217901":8610,"16315":8611,"16319":8612,"2160":8613,"1734":8614,"20351":8615,"2478":8616,"24722":8617,"21945":8618,"1067236":8619,"568320":8620,"11473":8621,"21170":8622,"769096":8623,"1104327":8624,"1219396":8625,"1095545":8626,"971751":8627,"971909":8628,"1057015":8629,"1080022":8630,"31312":8631,"1206636":8632,"32682":8633,"9888":8634,"20061":8635,"1062758":8636,"985451":8637,"1200912":8638,"604318":8639,"1213762":8640,"568186":8641,"nbm":8642,"1055940":8643,"1227285":8644,"569388":8645,"24650":8646,"571160":8647,"642659":8648,"541788":8649,"570920":8650,"1102441":8651,"976930":8652,"582067":8653,"984744":8654,"558811":8655,"620471":8656,"1201758":8657,"150":8658,"148":8659,"1460":8660,"254":8661,"2626":8662,"302":8663,"366":8664,"5100":8665,"621":8666,"619":8667,"6699":8668,"7670":8669,"7576":8670,"7897":8671,"842":8672,"944":8673,"9587":8674,"KC":8675,"KS":8676,"KRh":8677,"VC":8678,"YMn":8679,"bar":8680,"mite":8681,"ĠCin":8682,"ridy":8683,"ĠPCs":8684,"ĠInK":8685,"ĠTridy":8686,"ĠAlZnIr":8687,"AlGa":8688,"ĠZrFe":8689,"ĠCaRh":8690,"ĠGaPS":8691,"ĠGaBiAs":8692,"2084":8693,"20901":8694,"FeCr":8695,"SiPd":8696,"ĠScFe":8697,"TiCoSi":8698,"TiMnSi":8699,"ĠZnSiNi":8700,"ĠCrH":8701,"PtSn":8702,"1093":8703,"1081":8704,"GaHg":8705,"RhCo":8706,"ZnSb":8707,"1282":8708,"12892":8709,"1211471":8710,"ĠKC":8711,"AgSi":8712,"AgBiS":8713,"6754":8714,"3314":8715,"CoMo":8716,"CoNiSi":8717,"ĠBiNi":8718,"ĠBiCl":8719,"9634":8720,"IrS":8721,"1197":8722,"1136":8723,"NbMn":8724,"ĠPbSr":8725,"AuN":8726,"070":8727,"6986":8728,"TaNiP":8729,"1608":8730,"1618":8731,"22466":8732,"22600":8733,"552":8734,"5583":8735,"559634":8736,"CrH":8737,"CaIrIn":8738,"8810":8739,"8883":8740,"1507":8741,"1519":8742,"CdPt":8743,"ĠHgCl":8744,"629":8745,"8991":8746,"SrSe":8747,"SrCo":8748,"OsH":8749,"839":8750,"24809":8751,"7927":8752,"56867":8753,"601823":8754,"ĠLow":8755,"29184":8756,"9984":8757,"995193":8758,"1747":8759,"RbGe":8760,"120179":8761,"1205422":8762,"1101178":8763,"1182070":8764,"12207":8765,"1220502":8766,"1220348":8767,"1183694":8768,"1183511":8769,"1079029":8770,"569167":8771,"1186109":8772,"1186968":8773,"1017565":8774,"867202":8775,"11933":8776,"1187739":8777,"1187248":8778,"567181":8779,"1219535":8780,"30853":8781,"1018809":8782,"10644":8783,"1063314":8784,"570122":8785,"570673":8786,"ĠTaAlRu":8787,"1184121":8788,"ĠTiZnNi":8789,"12455":8790,"30343":8791,"13682":8792,"12322":8793,"1178810":8794,"21237":8795,"1023939":8796,"1226072":8797,"ScCuZn":8798,"13146":8799,"1184764":8800,"862705":8801,"1025571":8802,"1226021":8803,"567772":8804,"28930":8805,"1226726":8806,"1224223":8807,"21165":8808,"975129":8809,"1104054":8810,"985831":8811,"754628":8812,"1096950":8813,"1187154":8814,"864794":8815,"13010":8816,"1178932":8817,"14652":8818,"29014":8819,"862259":8820,"nabar":8821,"1006118":8822,"1192532":8823,"510521":8824,"862446":8825,"1105285":8826,"1147712":8827,"1190908":8828,"556597":8829,"982871":8830,"862589":8831,"1062153":8832,"632311":8833,"669913":8834,"ĠCinnabar":8835,"ĠTridymite":8836,"1093999":8837,"558378":8838,"568671":8839,"1201790":8840,"245":8841,"454":8842,"471":8843,"593":8844,"640":8845,"6127":8846,"6235":8847,"7544":8848,"7506":8849,"VCr":8850,"YPb":8851,"YNiAl":8852,"ĠNTc":8853,"ĠPu":8854,"ĠPVS":8855,"ĠAlGaN":8856,"âĤĤâĤĥ":8857,"âĤĦâĤħ":8858,"ĠHfTeSe":8859,"ĠZrTi":8860,"ĠZrTiSe":8861,"ĠPtHg":8862,"ĠGaSr":8863,"ĠGaNa":8864,"ĠGaGeTe":8865,"2083":8866,"20465":8867,"20552":8868,"FeH":8869,"ĠVH":8870,"SiRu":8871,"ĠSeIr":8872,"ĠYCu":8873,"ĠTaWS":8874,"ĠAsAgAs":8875,"NiRh":8876,"ĠGeK":8877,"ĠGeCl":8878,"PtIn":8879,"PtMn":8880,"PtHg":8881,"1046":8882,"10675":8883,"ĠSnIr":8884,"GaFe":8885,"GaAg":8886,"GaAlN":8887,"ĠNaGa":8888,"ĠNaSn":8889,"ĠAgAsSe":8890,"1287":8891,"12635":8892,"12798":8893,"ĠIrCr":8894,"ĠKH":8895,"ZrRuSi":8896,"ZrTiCr":8897,"ZrCoGa":8898,"ZrVCo":8899,"HfZnAl":8900,"AgInS":8901,"5413":8902,"CoTc":8903,"RuPdAl":8904,"9692":8905,"11828":8906,"11537":8907,"11449":8908,"AuSi":8909,"AuIn":8910,"AuBi":8911,"ĠCdHg":8912,"5052":8913,"5056":8914,"Ġ82":8915,"ScMn":8916,"CaMoN":8917,"1509":8918,"MnAu":8919,"MnCd":8920,"CdHg":8921,"BiBi":8922,"ĠHgAs":8923,"237":8924,"8262":8925,"OsPd":8926,"OsCl":8927,"TcCo":8928,"6614":8929,"19795":8930,"2469":8931,"7916":8932,"ReNi":8933,"563":8934,"HgGe":8935,"NaTe":8936,"490":8937,"6308":8938,"636614":8939,"1397":8940,"1361":8941,"8781":8942,"9946":8943,"27800":8944,"28731":8945,"RbH":8946,"1203":8947,"110616":8948,"ĠAlAlAg":8949,"CsV":8950,"CsFe":8951,"CsPb":8952,"ĠTiAlCo":8953,"12233":8954,"1216439":8955,"10707":8956,"10775":8957,"1220423":8958,"10287":8959,"569837":8960,"569516":8961,"1186058":8962,"11905":8963,"1191118":8964,"ĠAlNbRu":8965,"1187424":8966,"567505":8967,"1219339":8968,"ĠSSbPd":8969,"1224494":8970,"1217114":8971,"ĠMoAsP":8972,"12218":8973,"1221697":8974,"1221495":8975,"1188977":8976,"ĠPAgSnP":8977,"10667":8978,"ĠNYAl":8979,"11899":8980,"13270":8981,"ĠTiGaFe":8982,"11515":8983,"ĠYCdPd":8984,"1670":8985,"571406":8986,"1105836":8987,"1186033":8988,"1186030":8989,"1188042":8990,"1215437":8991,"865520":8992,"1102436":8993,"ĠNAlTi":8994,"1228988":8995,"21321":8996,"ĠSeSbIr":8997,"31019":8998,"607139":8999,"2168":9000,"21613":9001,"862715":9002,"24721":9003,"1216329":9004,"1185931":9005,"28916":9006,"AuCuZn":9007,"865649":9008,"1184026":9009,"1104019":9010,"754434":9011,"1104388":9012,"1545":9013,"22682":9014,"27840":9015,"861626":9016,"1219328":9017,"542449":9018,"684710":9019,"1017987":9020,"971673":9021,"1227319":9022,"HfRhAl":9023,"13447":9024,"570562":9025,"1077959":9026,"669311":9027,"AlFeY":9028,"555280":9029,"864758":9030,"29266":9031,"1226371":9032,"542909":9033,"1225751":9034,"CaPdCd":9035,"862260":9036,"863744":9037,"569007":9038,"1178763":9039,"568516":9040,"562100":9041,"1094136":9042,"1227290":9043,"1069841":9044,"1096861":9045,"1084753":9046,"767208":9047,"seventh":9048,"1095024":9049,"1203253":9050,"1064497":9051,"1232213":9052,"612740":9053,"623511":9054,"1182885":9055,"1106162":9056,"0062":9057,"2123":9058,"2156":9059,"2674":9060,"340":9061,"399":9062,"646":9063,"7529":9064,"912":9065,"VH":9066,"VZn":9067,"YScS":9068,"ĠCub":9069,"ĠCFe":9070,"ĠInRb":9071,"âĤĦâĤģ":9072,"ĠTiSnRh":9073,"ĠNiMo":9074,"AlW":9075,"ĠPdY":9076,"20074":9077,"FeTc":9078,"FeCoSi":9079,"ĠYFe":9080,"ĠTaTiFe":9081,"ĠRhCa":9082,"TiTa":9083,"TiPtSi":9084,"ĠAsMn":9085,"NiIr":9086,"NiOs":9087,"1012":9088,"TeCl":9089,"ĠMnCr":9090,"ĠNaSr":9091,"ZnCu":9092,"121218":9093,"1212463":9094,"MoAlGe":9095,"ZrZn":9096,"ZrCrFe":9097,"HfRuSi":9098,"AgSbSe":9099,"6750":9100,"CoRh":9101,"RuSbSe":9102,"1182":9103,"1181":9104,"TaCoSb":9105,"ĠTcSb":9106,"1667":9107,"1634":9108,"16852":9109,"ĠRbIn":9110,"ĠRbCo":9111,"2285":9112,"ĠOsHf":9113,"5567":9114,"CrC":9115,"CrHfSi":9116,"15221":9117,"15698":9118,"MnIn":9119,"MnCl":9120,"MnZnN":9121,"21965":9122,"21400":9123,"4773":9124,"23167":9125,"572758":9126,"6273":9127,"TcFe":9128,"24155":9129,"ReS":9130,"5605":9131,"5684":9132,"NaSr":9133,"29465":9134,"4822":9135,"13456":9136,"9910":9137,"9921":9138,"2782":9139,"27666":9140,"31103":9141,"31459":9142,"31430":9143,"1200062":9144,"11055":9145,"11048":9146,"11027":9147,"12196":9148,"1181094":9149,"12246":9150,"12278":9151,"temperature":9152,"10269":9153,"569170":9154,"1186115":9155,"1194773":9156,"ĠTaTeCl":9157,"1187969":9158,"1219237":9159,"1217078":9160,"30866":9161,"10808":9162,"ĠTiGeRu":9163,"ĠCoSbTa":9164,"1188303":9165,"11238":9166,"1078331":9167,"10682":9168,"ĠSInCu":9169,"570459":9170,"1189340":9171,"12779":9172,"1018050":9173,"1077803":9174,"30373":9175,"ĠTeSnPb":9176,"29667":9177,"1186067":9178,"972204":9179,"979751":9180,"866213":9181,"1215307":9182,"1228900":9183,"TiPdGe":9184,"1868":9185,"18614":9186,"1023900":9187,"1008274":9188,"1008626":9189,"15556":9190,"TiMoTc":9191,"YRhIn":9192,"22309":9193,"555853":9194,"867345":9195,"16911":9196,"YCuSi":9197,"ĠTeInHg":9198,"1209828":9199,"CaPtP":9200,"ĠCuSnPd":9201,"28860":9202,"559676":9203,"1102342":9204,"1102395":9205,"1226015":9206,"1205390":9207,"1095440":9208,"1067974":9209,"568636":9210,"28246":9211,"865045":9212,"19954":9213,"9897":9214,"24237":9215,"865640":9216,"PtGaZr":9217,"1190110":9218,"1187812":9219,"14018":9220,"1219356":9221,"1096986":9222,"1100766":9223,"1215724":9224,"542615":9225,"TiPN":9226,"865144":9227,"AlCuSc":9228,"571262":9229,"570578":9230,"7234":9231,"1095294":9232,"971788":9233,"18254":9234,"21477":9235,"974990":9236,"1189633":9237,"ĠAlGaNi":9238,"ĠAlGaCo":9239,"1198803":9240,"690772":9241,"31493":9242,"1061769":9243,"1069815":9244,"983509":9245,"1223996":9246,"1079585":9247,"1185041":9248,"1206486":9249,"505363":9250,"540625":9251,"1197755":9252,"752947":9253,"ĠCubane":9254,"1212187":9255,"1182452":9256,"1181961":9257,"627397":9258,"2861":9259,"2434":9260,"389":9261,"3432":9262,"5103":9263,"712":9264,"933":9265,"904":9266,"CAs":9267,"PSi":9268,"PRh":9269,"WFe":9270,"YNiGa":9271,"ĠTiSn":9272,"AlC":9273,"ĠPdPtAu":9274,"ĠHfV":9275,"ĠZrTiN":9276,"2072":9277,"2095":9278,"20196":9279,"20792":9280,"20436":9281,"FeMn":9282,"FeNiSb":9283,"ĠBain":9284,"SiGe":9285,"ĠTaTiMn":9286,"TiTaMn":9287,"PdRh":9288,"PtPdAu":9289,"1032":9290,"TeP":9291,"ĠMnCdS":9292,"GaTa":9293,"ĠNaV":9294,"ĠNaCa":9295,"ZnRe":9296,"1231":9297,"12139":9298,"CuAs":9299,"CuOs":9300,"ĠRuH":9301,"ĠRuCl":9302,"ĠKCu":9303,"ZrSb":9304,"ZrTiN":9305,"SnC":9306,"SnPS":9307,"HfRuGe":9308,"AgMo":9309,"AgSbS":9310,"AgInSe":9311,"542339":9312,"ĠEss":9313,"4359":9314,"RuW":9315,"RuAsP":9316,"963":9317,"IrSbS":9318,"11800":9319,"ĠPbNi":9320,"ĠPbBi":9321,"AuS":9322,"TaCr":9323,"TaRhSi":9324,"ScNiSi":9325,"ScRuSi":9326,"ScNiSb":9327,"ScPdSi":9328,"16226":9329,"ĠReTi":9330,"0528":9331,"ĠRbZn":9332,"ĠRbMnAs":9333,"22692":9334,"22795":9335,"CaMo":9336,"CaRb":9337,"MnBi":9338,"MnCoSi":9339,"MnCdS":9340,"ĠTlV":9341,"8613":9342,"4628":9343,"23229":9344,"23162":9345,"23759":9346,"23295":9347,"577":9348,"57289":9349,"7443":9350,"7581":9351,"SrY":9352,"OsCu":9353,"OsAu":9354,"1943":9355,"1907":9356,"19717":9357,"HgP":9358,"HgTl":9359,"NaH":9360,"NaCa":9361,"685048":9362,"TlSr":9363,"TlHg":9364,"630528":9365,"2984":9366,"29055":9367,"ĠUpper":9368,"1407":9369,"2654":9370,"9916":9371,"991900":9372,"27628":9373,"eneite":9374,"9823":9375,"RbZn":9376,"RbMnAs":9377,"RbSrCl":9378,"12007":9379,"CsCu":9380,"ĠTiAlPd":9381,"10911":9382,"1095302":9383,"12220":9384,"1221007":9385,"ĠTiSiPd":9386,"ĠTiSiOs":9387,"1216501":9388,"1216430":9389,"10769":9390,"1071032":9391,"ĠVSiRu":9392,"122059":9393,"1220151":9394,"569857":9395,"1186152":9396,"1018948":9397,"1192984":9398,"ĠTaGeRu":9399,"567525":9400,"1219466":9401,"1219928":9402,"1219266":9403,"1224867":9404,"1224809":9405,"1221672":9406,"30893":9407,"10021":9408,"1064359":9409,"1186973":9410,"570690":9411,"ĠTiZnCu":9412,"1189791":9413,"1189774":9414,"974558":9415,"30371":9416,"1025167":9417,"1224342":9418,"973904":9419,"1218055":9420,"CoNiGa":9421,"9791":9422,"2128":9423,"1246068":9424,"866187":9425,"1215315":9426,"1215357":9427,"30482":9428,"10292":9429,"865507":9430,"ĠScNiSb":9431,"1551":9432,"1199056":9433,"CrFeAs":9434,"2798":9435,"27902":9436,"ScCuSi":9437,"ĠPKTeP":9438,"CaNiIn":9439,"ZrSiSe":9440,"FeCoGa":9441,"ĠTeMnCd":9442,"CaPtIn":9443,"1102324":9444,"1025248":9445,"1067758":9446,"1067933":9447,"8490":9448,"570641":9449,"865680":9450,"1102080":9451,"1224247":9452,"ĠHfZrN":9453,"1190136":9454,"1219515":9455,"1187233":9456,"HfZrN":9457,"1191413":9458,"2784":9459,"1224798":9460,"867821":9461,"684799":9462,"684731":9463,"27607":9464,"1215779":9465,"ZrAlCo":9466,"7068":9467,"570560":9468,"1013526":9469,"MnZnTe":9470,"1087497":9471,"1102900":9472,"ĠNbHS":9473,"1084805":9474,"1077440":9475,"6432":9476,"541656":9477,"1025039":9478,"568263":9479,"961659":9480,"696673":9481,"1105044":9482,"1228753":9483,"541155":9484,"1106288":9485,"1106022":9486,"610517":9487,"1025874":9488,"1012435":9489,"38970":9490,"ĠBainite":9491,"ĠEsseneite":9492,"572892":9493,"2634":9494,"385":9495,"4076":9496,"580":9497,"5538":9498,"667":9499,"633":9500,"6428":9501,"9964":9502,"9561":9503,"KIn":9504,"SC":9505,"VSb":9506,"WFeP":9507,"YCoGe":9508,"YPtSi":9509,"ĠNiH":9510,"ĠZrCo":9511,"ĠZrFeSb":9512,"2079":9513,"20139":9514,"20723":9515,"20661":9516,"20937":9517,"ĠNbMoW":9518,"ĠMoWSe":9519,"ĠMoNbW":9520,"ĠScTaFe":9521,"TiNbN":9522,"ĠAsCl":9523,"InC":9524,"InGaS":9525,"AsC":9526,"8071":9527,"ĠCrSnRh":9528,"PtC":9529,"ĠSbZn":9530,"ĠMnFe":9531,"ĠMnCo":9532,"GeCl":9533,"ZnAg":9534,"ZnSnAs":9535,"1238":9536,"12120":9537,"12972":9538,"121069":9539,"CuCrS":9540,"ĠKSi":9541,"ĠKNa":9542,"MoNbW":9543,"ZrPt":9544,"ZrMn":9545,"ZrFeSb":9546,"HfFeSb":9547,"HfCoAl":9548,"CoMoSi":9549,"CoVSb":9550,"RuPd":9551,"961652":9552,"1169":9553,"1170":9554,"1114":9555,"11687":9556,"NbNiAs":9557,"NbFeSi":9558,"AuGe":9559,"ScCl":9560,"ScNiAl":9561,"ScTaFe":9562,"22862":9563,"5557":9564,"5587":9565,"555410":9566,"558071":9567,"CaN":9568,"CaPtGe":9569,"1573":9570,"1572":9571,"15339":9572,"MnZnS":9573,"MnWN":9574,"ĠTlIn":9575,"CdSe":9576,"CdAu":9577,"CdSiN":9578,"217":9579,"2146":9580,"8629":9581,"4022":9582,"PbC":9583,"PbSi":9584,"065":9585,"ĠCsZn":9586,"23209":9587,"23299":9588,"5725":9589,"5701":9590,"1954":9591,"1918":9592,"19855":9593,"244":9594,"2565":9595,"HgAl":9596,"6442":9597,"18504":9598,"TlAs":9599,"4978":9600,"29026":9601,"7608":9602,"13852":9603,"9767":9604,"9721":9605,"9986":9606,"991114":9607,"27838":9608,"28229":9609,"31472":9610,"RbS":9611,"1207608":9612,"CsZn":9613,"1182146":9614,"12165":9615,"1216290":9616,"10712":9617,"10781":9618,"ĠVSiOs":9619,"1220335":9620,"1220475":9621,"1220099":9622,"10264":9623,"1079172":9624,"1079574":9625,"569436":9626,"569594":9627,"1186127":9628,"867141":9629,"11912":9630,"11944":9631,"1187694":9632,"567278":9633,"12158":9634,"1219292":9635,"1224502":9636,"1224484":9637,"1224886":9638,"1221793":9639,"22240":9640,"1018107":9641,"1018807":9642,"1080121":9643,"1080459":9644,"1188102":9645,"ĠFeSiW":9646,"ĠScAlRh":9647,"ĠVCoSb":9648,"862791":9649,"862694":9650,"30596":9651,"30555":9652,"30574":9653,"30536":9654,"865501":9655,"865506":9656,"568745":9657,"29639":9658,"973089":9659,"1215400":9660,"21273":9661,"21235":9662,"865554":9663,"10455":9664,"10445":9665,"1228983":9666,"1215524":9667,"1215561":9668,"21021":9669,"18654":9670,"27467":9671,"30792":9672,"12259":9673,"1206157":9674,"1025375":9675,"ĠSMnZn":9676,"1558":9677,"1208239":9678,"1217250":9679,"YRhZn":9680,"1226108":9681,"1104074":9682,"YPdGe":9683,"2790":9684,"11201":9685,"16358":9686,"CaNiGe":9687,"850049":9688,"755633":9689,"1883":9690,"1187952":9691,"862711":9692,"1025573":9693,"CaHgSn":9694,"567752":9695,"28353":9696,"1215971":9697,"1070151":9698,"1226718":9699,"1183654":9700,"865650":9701,"ĠHfZrW":9702,"1078012":9703,"ĠCaBiAu":9704,"HfZrW":9705,"ĠMnGaFe":9706,"1104372":9707,"22642":9708,"1404":9709,"18063":9710,"22481":9711,"684798":9712,"505528":9713,"1218327":9714,"1103176":9715,"1057273":9716,"HfRhGe":9717,"865840":9718,"865878":9719,"1079600":9720,"30952":9721,"ZrNiH":9722,"1106227":9723,"1077978":9724,"972373":9725,"864754":9726,"11578":9727,"1196514":9728,"1206374":9729,"1224823":9730,"ĠGaGePt":9731,"NbRuP":9732,"971754":9733,"1077453":9734,"32913":9735,"1194073":9736,"1102167":9737,"1225059":9738,"784631":9739,"966800":9740,"IrRhAl":9741,"574338":9742,"23870":9743,"1103310":9744,"1212435":9745,"1147746":9746,"961653":9747,"867264":9748,"27513":9749,"1208557":9750,"1220009":9751,"867922":9752,"ĠZnCdAu":9753,"956096":9754,"1226445":9755,"1210567":9756,"1078326":9757,"1079042":9758,"557643":9759,"1224067":9760,"1070391":9761,"990232":9762,"1190583":9763,"646824":9764,"38511":9765,"667294":9766,"1210697":9767,"555763":9768,"1473":9769,"2699":9770,"380":9771,"507":9772,"582":9773,"650":9774,"7524":9775,"879":9776,"8219":9777,"948":9778,"KNi":9779,"KZnAs":9780,"SCuS":9781,"VMnAs":9782,"ĠSAu":9783,"ĠNW":9784,"ĠPMoP":9785,"ĠInHg":9786,"ĠInBiSe":9787,"ĠHfScSi":9788,"ĠZrTiS":9789,"2089":9790,"2056":9791,"20132":9792,"20935":9793,"20536":9794,"FeOs":9795,"ĠSeSbPt":9796,"ĠYV":9797,"ĠTaCr":9798,"ĠTaNbMo":9799,"TiRuSi":9800,"TiIrSi":9801,"ĠZnSnP":9802,"InSb":9803,"AsSb":9804,"NiN":9805,"ĠGeGaGe":9806,"ĠCoBi":9807,"ĠFeCoSb":9808,"PtCu":9809,"10939":9810,"109785":9811,"ĠSrSnP":9812,"ĠAgMo":9813,"RhNi":9814,"RhSbS":9815,"ZnSnP":9816,"1266":9817,"1237":9818,"121223":9819,"12699":9820,"CuW":9821,"CuPd":9822,"ZrV":9823,"ZrFe":9824,"ZrIrAs":9825,"SnCu":9826,"SnHf":9827,"HfMnAl":9828,"HfOsSi":9829,"HfNiSb":9830,"HfWSi":9831,"HfMoGe":9832,"HfTiFe":9833,"5408":9834,"5421":9835,"ĠBiPt":9836,"IrBiS":9837,"IrCuZn":9838,"11466":9839,"11814":9840,"11513":9841,"NbFe":9842,"NbIn":9843,"NbNiSi":9844,"NbGeAs":9845,"6903":9846,"TaMoS":9847,"TaMnSi":9848,"TaPtSi":9849,"5054":9850,"ScCo":9851,"ScAlGe":9852,"ScPtGe":9853,"ScNiGa":9854,"ScCrMn":9855,"1602":9856,"2210":9857,"22204":9858,"22444":9859,"22817":9860,"5563":9861,"CrOs":9862,"CrRe":9863,"CrZrAl":9864,"CaAl":9865,"1521":9866,"15700":9867,"15656":9868,"15651":9869,"ĠTlNi":9870,"BiSbTe":9871,"8621":9872,"8630":9873,"4771":9874,"Ġmonox":9875,"ĠCsV":9876,"ĠCsAs":9877,"ĠCsAu":9878,"4667":9879,"234":9880,"23714":9881,"23214":9882,"SrHfN":9883,"SrAgAl":9884,"OsFe":9885,"OsSbS":9886,"6615":9887,"4560":9888,"656615":9889,"1950":9890,"HgPb":9891,"684560":9892,"7250":9893,"4131":9894,"1874":9895,"TlCu":9896,"TlBi":9897,"632319":9898,"639755":9899,"1321":9900,"617291":9901,"906903":9902,"8712":9903,"3245":9904,"ĠAlTiCu":9905,"2667":9906,"2642":9907,"9922":9908,"17813":9909,"30092":9910,"30479":9911,"28800":9912,"RbPbCl":9913,"120279":9914,"1105850":9915,"CsAg":9916,"1181237":9917,"ĠTiAlIr":9918,"10940":9919,"10977":9920,"11445":9921,"1216867":9922,"1216296":9923,"1216463":9924,"11609":9925,"1220089":9926,"10286":9927,"1183232":9928,"1183158":9929,"1186137":9930,"1186142":9931,"867156":9932,"867928":9933,"1198712":9934,"1187464":9935,"1187208":9936,"1187432":9937,"1187095":9938,"1215336":9939,"1215627":9940,"1219462":9941,"1224871":9942,"1224331":9943,"1224401":9944,"1224495":9945,"1217229":9946,"1217228":9947,"1217093":9948,"1221413":9949,"22275":9950,"1188159":9951,"ĠNZrSc":9952,"ĠSiPH":9953,"ĠCdAsPt":9954,"ĠBiTeIr":9955,"ĠCrTaN":9956,"1078544":9957,"10009":9958,"ĠNTaCr":9959,"1186933":9960,"1186902":9961,"ĠScGaRh":9962,"ĠScGaRu":9963,"ĠSeBiPt":9964,"1184804":9965,"1184548":9966,"10307":9967,"1189474":9968,"1189342":9969,"ĠTeBiIr":9970,"1007976":9971,"862691":9972,"862679":9973,"862630":9974,"30595":9975,"974435":9976,"ĠZrAsIr":9977,"ĠClKNa":9978,"568476":9979,"1207421":9980,"1207893":9981,"1224306":9982,"1224346":9983,"ĠTeSnBi":9984,"571555":9985,"571537":9986,"571424":9987,"1105851":9988,"1186040":9989,"972895":9990,"1215429":9991,"1220396":9992,"1220392":9993,"1220390":9994,"1009130":9995,"866218":9996,"1103248":9997,"1215346":9998,"10294":9999,"10297":10000,"1029921":10001,"ĠSSnPb":10002,"865586":10003,"1102836":10004,"1102732":10005,"1102658":10006,"ĠPSiP":10007,"1228908":10008,"1215586":10009,"CuAlS":10010,"1225811":10011,"1025311":10012,"1247450":10013,"15514":10014,"980109":10015,"980665":10016,"1228126":10017,"1228713":10018,"1228701":10019,"HfIrGe":10020,"865496":10021,"1217293":10022,"1217270":10023,"1104825":10024,"1104406":10025,"YPdGa":10026,"541837":10027,"867352":10028,"SiPN":10029,"YAgS":10030,"YAgSn":10031,"31002":10032,"983850":10033,"ĠSeSnPt":10034,"ĠCdPCl":10035,"ĠAlSiMo":10036,"FeCoSb":10037,"NbPSe":10038,"1184721":10039,"1079951":10040,"28878":10041,"ĠSCaTi":10042,"TaFeGe":10043,"1102307":10044,"1102348":10045,"ScHfSi":10046,"23269":10047,"HfPtAl":10048,"1205322":10049,"1095449":10050,"ĠSbSbPd":10051,"849060":10052,"567769":10053,"568380":10054,"PdAgHf":10055,"1227330":10056,"28256":10057,"28304":10058,"17146":10059,"1103031":10060,"24289":10061,"865654":10062,"504425":10063,"ĠHfZrS":10064,"ĠHfZrTc":10065,"HfZrTc":10066,"ĠMnGaIr":10067,"1401":10068,"1179802":10069,"1215268":10070,"18026":10071,"627601":10072,"977383":10073,"1219323":10074,"PtCdAsPt":10075,"27647":10076,"1101789":10077,"YPtSn":10078,"542613":10079,"1218362":10080,"1218359":10081,"1023940":10082,"1103196":10083,"1183471":10084,"1224488":10085,"865948":10086,"1079695":10087,"PbTePbS":10088,"669546":10089,"1019576":10090,"1013558":10091,"1095643":10092,"1224950":10093,"31383":10094,"16842":10095,"1225731":10096,"9882":10097,"1102833":10098,"1102841":10099,"1095253":10100,"568018":10101,"1087488":10102,"1087486":10103,"33018":10104,"1218893":10105,"1179656":10106,"1105778":10107,"974943":10108,"541609":10109,"ĠAlGaIr":10110,"568971":10111,"ĠPCuSnP":10112,"ĠVGaRu":10113,"1246392":10114,"ĠGaCuRh":10115,"1227418":10116,"1194643":10117,"ZrWCr":10118,"862485":10119,"1071127":10120,"1103317":10121,"20868":10122,"ĠSeGaMo":10123,"1219457":10124,"1228032":10125,"571383":10126,"1208554":10127,"1228562":10128,"1018812":10129,"542239":10130,"ĠTiInPd":10131,"1197242":10132,"1188512":10133,"1105040":10134,"972941":10135,"945077":10136,"685149":10137,"995122":10138,"1207843":10139,"684969":10140,"1217087":10141,"1247199":10142,"25469":10143,"619071":10144,"1070755":10145,"1077599":10146,"1066718":10147,"560588":10148,"1224642":10149,"510321":10150,"1076981":10151,"1093991":10152,"1097859":10153,"1212231":10154,"556395":10155,"Ġmonoxide":10156,"1202791":10157,"3539":10158,"3804":10159,"5862":10160,"5544":10161,"5541":10162,"5818":10163,"6856":10164,"6465":10165,"7549":10166,"7162":10167,"877":10168,"907":10169,"9889":10170,"9961":10171,"9857":10172,"KSbSe":10173,"KCaCl":10174,"STl":10175,"VMnP":10176,"YCoSi":10177,"YReN":10178,"ĠNSb":10179,"ĠPTa":10180,"ĠAlCN":10181,"ĠHfTc":10182,"ĠGaSiRu":10183,"20192":10184,"20473":10185,"FeNiAl":10186,"FeMoSi":10187,"ĠNbCoTe":10188,"ĠYMn":10189,"TiRhSi":10190,"TiMnN":10191,"PdZrAl":10192,"InGe":10193,"ĠGeTa":10194,"8053":10195,"8045":10196,"1047":10197,"105708":10198,"10159":10199,"10968":10200,"ĠMnNiSb":10201,"ĠSrPdSn":10202,"GaH":10203,"12464":10204,"12456":10205,"CuFe":10206,"SnPd":10207,"SnHg":10208,"HfRhSi":10209,"HfMnSi":10210,"HfMnGe":10211,"6743":10212,"6760":10213,"6763":10214,"3304":10215,"5486":10216,"5423":10217,"CoRe":10218,"4316":10219,"4364":10220,"RuSbS":10221,"11713":10222,"NbSeS":10223,"NbCoTe":10224,"NbMoSi":10225,"NbCoSb":10226,"4276":10227,"5045":10228,"2242":10229,"2231":10230,"22853":10231,"5581":10232,"CrCu":10233,"CaPdSn":10234,"15895":10235,"MnPt":10236,"MnFeSi":10237,"ĠTlCu":10238,"CdC":10239,"BiPd":10240,"21895":10241,"8666":10242,"8634":10243,"ĠCsTi":10244,"028":10245,"571079":10246,"753304":10247,"SrFe":10248,"SrNiSi":10249,"SrPdSn":10250,"SrZrS":10251,"OsNiAl":10252,"OsSbTe":10253,"OsAsP":10254,"669692":10255,"1912":10256,"2447":10257,"ReCo":10258,"4485":10259,"HgAs":10260,"HgSn":10261,"604":10262,"NaCrS":10263,"NaSbS":10264,"NaSbSe":10265,"NaFeAs":10266,"417":10267,"6490":10268,"TlV":10269,"4990":10270,"29174":10271,"29072":10272,"34202":10273,"4840":10274,"13472":10275,"9268":10276,"9942":10277,"9985":10278,"3896":10279,"30028":10280,"28424":10281,"31460":10282,"11045":10283,"1105716":10284,"CsCaCl":10285,"CsSrCl":10286,"10970":10287,"12277":10288,"1216173":10289,"1216148":10290,"ĠNbSeS":10291,"1220436":10292,"1220413":10293,"1220748":10294,"10288":10295,"10284":10296,"10261":10297,"1183503":10298,"1183155":10299,"1183187":10300,"569280":10301,"569247":10302,"569708":10303,"ĠHfAlRu":10304,"1187430":10305,"1187434":10306,"1187531":10307,"1187427":10308,"ĠFeSbRh":10309,"1219296":10310,"1219800":10311,"1219258":10312,"1224850":10313,"1224978":10314,"1217024":10315,"1221555":10316,"1221431":10317,"30834":10318,"30826":10319,"1080518":10320,"ĠZnPPd":10321,"11887":10322,"1188762":10323,"ĠTiPN":10324,"1078100":10325,"1078782":10326,"10033":10327,"1223802":10328,"10654":10329,"1068053":10330,"ĠCoNbSb":10331,"10877":10332,"10312":10333,"12780":10334,"ĠTiGaRu":10335,"ĠCdTeSe":10336,"ĠYGePt":10337,"862695":10338,"862604":10339,"30557":10340,"30592":10341,"865093":10342,"1224386":10343,"29618":10344,"973676":10345,"1105077":10346,"1218052":10347,"12383":10348,"1188079":10349,"15669":10350,"1215491":10351,"1229118":10352,"1229101":10353,"979259":10354,"1069139":10355,"1220377":10356,"1009152":10357,"866094":10358,"1103213":10359,"1103434":10360,"1215302":10361,"1215366":10362,"1029330":10363,"999052":10364,"1215529":10365,"21096":10366,"30708":10367,"1225835":10368,"1206152":10369,"1206853":10370,"1206898":10371,"TiMoRe":10372,"1228801":10373,"1208235":10374,"1208400":10375,"865448":10376,"865490":10377,"865494":10378,"865495":10379,"865499":10380,"FeSbSe":10381,"FeSbTe":10382,"1193848":10383,"20001":10384,"ScCuGa":10385,"CoPSe":10386,"11207":10387,"864980":10388,"864909":10389,"864916":10390,"864953":10391,"31040":10392,"983445":10393,"755169":10394,"PdAuZn":10395,"1217180":10396,"1217191":10397,"1078696":10398,"RuIrAl":10399,"ĠCdPPd":10400,"1103256":10401,"571038":10402,"1184755":10403,"21681":10404,"ĠHfZnCu":10405,"1079946":10406,"1102373":10407,"CuGaSe":10408,"1025258":10409,"5221":10410,"ĠMnAlRu":10411,"ĠNbZnRh":10412,"1185935":10413,"570689":10414,"28910":10415,"865026":10416,"1078813":10417,"11474":10418,"972236":10419,"1215949":10420,"1103012":10421,"1226716":10422,"1226728":10423,"1183641":10424,"616026":10425,"ĠTiCuNi":10426,"865615":10427,"SrPtSn":10428,"19740":10429,"504825":10430,"975079":10431,"FeAsTe":10432,"1190478":10433,"ĠCuSbRh":10434,"1104010":10435,"567996":10436,"985829":10437,"1191713":10438,"14017":10439,"1245699":10440,"1245848":10441,"989613":10442,"1217357":10443,"1179094":10444,"861656":10445,"861641":10446,"1224765":10447,"567313":10448,"864831":10449,"YPtIn":10450,"MoRhPd":10451,"HfRhGa":10452,"865989":10453,"865842":10454,"1187444":10455,"17875":10456,"571266":10457,"1077942":10458,"555293":10459,"16044":10460,"1207193":10461,"1224840":10462,"1028441":10463,"1226323":10464,"1102926":10465,"861983":10466,"569683":10467,"1103618":10468,"1179693":10469,"18561":10470,"1066445":10471,"1187511":10472,"865232":10473,"568936":10474,"1226290":10475,"612701":10476,"ZrRuP":10477,"31277":10478,"ĠZrSnPd":10479,"974411":10480,"1079842":10481,"1104956":10482,"1213747":10483,"1069811":10484,"1078242":10485,"1223820":10486,"867753":10487,"867779":10488,"672645":10489,"1226933":10490,"1228524":10491,"1218558":10492,"1009657":10493,"1102288":10494,"1197287":10495,"27195":10496,"862871":10497,"685146":10498,"1181926":10499,"1245445":10500,"866375":10501,"1189957":10502,"991656":10503,"570112":10504,"554405":10505,"554134":10506,"685605":10507,"646507":10508,"754954":10509,"985782":10510,"1057086":10511,"676038":10512,"558110":10513,"866659":10514,"649033":10515,"1714":10516,"2164":10517,"3498":10518,"4500":10519,"5090":10520,"5168":10521,"620":10522,"623":10523,"6444":10524,"616481":10525,"720":10526,"722":10527,"7422":10528,"810":10529,"996":10530,"922":10531,"970":10532,"918":10533,"HN":10534,"KN":10535,"KV":10536,"KTiS":10537,"PCa":10538,"YAlGe":10539,"YCoAl":10540,"hl":10541,"ÃĮ":10542,"Ġchl":10543,"orate":10544,"âĢ¦":10545,"ĠNPCa":10546,"ĠInGaAs":10547,"ĠAlPS":10548,"ĠRÃĮ":10549,"ĠTiFeSb":10550,"ĠTiVSe":10551,"AlTi":10552,"AlAg":10553,"AlCd":10554,"ĠHfSeS":10555,"ĠHfScGe":10556,"ĠHfTiRu":10557,"ĠCaGaN":10558,"ĠPtTl":10559,"ĠGaH":10560,"FeSn":10561,"ĠNbW":10562,"ĠNbFeTe":10563,"ĠVCrFe":10564,"SeTa":10565,"ĠCuMn":10566,"ĠTaWSe":10567,"ĠTaTiTe":10568,"ĠTaTiRu":10569,"TiMoS":10570,"TiFeSi":10571,"TiTaRu":10572,"ĠZnGe":10573,"ĠZnRu":10574,"ĠZnHgTe":10575,"ĠAsHg":10576,"InGaAs":10577,"NiCr":10578,"NiMn":10579,"ĠTeHf":10580,"PtSeS":10581,"PtSnS":10582,"PtYAl":10583,"ĠSbSrSn":10584,"1016":10585,"10678":10586,"10887":10587,"ĠMnRh":10588,"ĠMnCd":10589,"ĠSrCuSi":10590,"GaHf":10591,"ĠNaCaTl":10592,"ĠNaSrHg":10593,"GeZn":10594,"SbBiSbTe":10595,"ĠAgSbSe":10596,"RhPdZn":10597,"12106":10598,"12697":10599,"12678":10600,"12826":10601,"12627":10602,"CuInSe":10603,"CuZrGe":10604,"tass":10605,"ĠKN":10606,"ĠKV":10607,"ĠKTi":10608,"ĠKTiS":10609,"ZrTi":10610,"ZrMnSi":10611,"ZrNbP":10612,"ZrFeAs":10613,"ZrMnFe":10614,"HfSiS":10615,"HfMoAl":10616,"HfTiRu":10617,"AgPb":10618,"6727":10619,"541062":10620,"CoCr":10621,"RuAu":10622,"RuNiGa":10623,"9617":10624,"1139":10625,"11567":10626,"11824":10627,"NbWS":10628,"NbInS":10629,"NbFeTe":10630,"TaNiAs":10631,"TaInS":10632,"TaMoNi":10633,"ScPtZn":10634,"16501":10635,"16491":10636,"ĠRbGe":10637,"ĠRbNa":10638,"2295":10639,"22691":10640,"22258":10641,"22631":10642,"5592":10643,"CrCo":10644,"CrMnSi":10645,"CaGaN":10646,"MnNiP":10647,"ĠTlPt":10648,"7187":10649,"BiN":10650,"BiCl":10651,"21710":10652,"861672":10653,"527":10654,"2371":10655,"23157":10656,"572":10657,"7582":10658,"SrZr":10659,"SrVN":10660,"SrCuSi":10661,"OsCo":10662,"8308":10663,"8300":10664,"1982":10665,"19728":10666,"2418":10667,"24208":10668,"7908":10669,"7945":10670,"7918":10671,"ReCl":10672,"5603":10673,"8170":10674,"HgZnTe":10675,"603":10676,"NaCaTl":10677,"NaSrHg":10678,"7770":10679,"18670":10680,"TlSb":10681,"5841":10682,"29828":10683,"29487":10684,"29736":10685,"1379":10686,"14500":10687,"9040":10688,"3274":10689,"3276":10690,"32669":10691,"32868":10692,"ĠAlTiNi":10693,"2650":10694,"3740":10695,"17964":10696,"17639":10697,"30418":10698,"30086":10699,"28128":10700,"RbPb":10701,"1201":10702,"12088":10703,"12061":10704,"1209791":10705,"1208308":10706,"1205841":10707,"1102705":10708,"1101109":10709,"CsAuCl":10710,"ĠTiAlFe":10711,"ĠTiAlRu":10712,"1091415":10713,"12266":10714,"ĠTiSiPt":10715,"1216222":10716,"1216166":10717,"1216327":10718,"1216513":10719,"1216563":10720,"10755":10721,"ĠVSiTc":10722,"1220418":10723,"1220441":10724,"1220081":10725,"1220525":10726,"1220663":10727,"1183542":10728,"1079110":10729,"1079112":10730,"1079155":10731,"1079278":10732,"569175":10733,"ĠHfAlCu":10734,"ĠSrPPt":10735,"1187461":10736,"567484":10737,"567927":10738,"1215208":10739,"1215634":10740,"1215338":10741,"1215295":10742,"1215639":10743,"1219003":10744,"1219748":10745,"1219720":10746,"1224464":10747,"1224169":10748,"1224337":10749,"1224451":10750,"1224435":10751,"1224805":10752,"1224425":10753,"1224402":10754,"1217205":10755,"1217791":10756,"1217968":10757,"1221675":10758,"1221402":10759,"ĠZrGaCo":10760,"1080760":10761,"1080073":10762,"1188693":10763,"ĠCdAsPd":10764,"ĠRhAsP":10765,"1078464":10766,"1078107":10767,"1078729":10768,"1078402":10769,"1078767":10770,"1223834":10771,"1068300":10772,"ĠYInPd":10773,"ĠZrInPt":10774,"PSOs":10775,"ĠSTiCr":10776,"570801":10777,"ĠCoTeSe":10778,"ĠInPPd":10779,"11890":10780,"ĠYSnRh":10781,"862548":10782,"ĠNbAlOs":10783,"865960":10784,"865807":10785,"1245417":10786,"568402":10787,"1077939":10788,"1077470":10789,"1207828":10790,"1207805":10791,"1025161":10792,"1224377":10793,"29602":10794,"973983":10795,"1218034":10796,"1218026":10797,"CoNiAl":10798,"1188052":10799,"1188000":10800,"15657":10801,"1215412":10802,"1215462":10803,"1229100":10804,"1229090":10805,"979288":10806,"1069956":10807,"1220344":10808,"ĠSKBi":10809,"1246856":10810,"1246556":10811,"866219":10812,"1103123":10813,"1103826":10814,"1103235":10815,"1215371":10816,"1215382":10817,"ĠTaGaFe":10818,"1029531":10819,"865569":10820,"865518":10821,"1102534":10822,"1102603":10823,"1228909":10824,"1228913":10825,"27488":10826,"22904":10827,"1225676":10828,"MnAlTi":10829,"1206674":10830,"1206964":10831,"1206239":10832,"AlSiP":10833,"ĠPotass":10834,"TiMoSb":10835,"1228758":10836,"865486":10837,"865472":10838,"1217254":10839,"YRhSi":10840,"11938":10841,"1193918":10842,"861935":10843,"1226441":10844,"SnPSe":10845,"CaCuGa":10846,"YPdIn":10847,"NiAlHf":10848,"977115":10849,"864988":10850,"31011":10851,"31055":10852,"1217967":10853,"1217923":10854,"16356":10855,"CaNiN":10856,"755988":10857,"1217145":10858,"YCuTe":10859,"ĠTeCdHg":10860,"13911":10861,"ĠTaZnRu":10862,"1014252":10863,"ĠInAsP":10864,"1187920":10865,"1187921":10866,"ĠHfZnPd":10867,"28832":10868,"ĠCaSnRh":10869,"1216457":10870,"1025550":10871,"ScHfGe":10872,"12585":10873,"1226011":10874,"505531":10875,"1095478":10876,"972042":10877,"1025294":10878,"1216612":10879,"1216683":10880,"849082":10881,"976236":10882,"1216347":10883,"1185099":10884,"1227335":10885,"1227096":10886,"1227463":10887,"CaAuIn":10888,"CaAuGe":10889,"865027":10890,"680339":10891,"YAuCd":10892,"972241":10893,"22154":10894,"SrPtP":10895,"1218931":10896,"ĠInAgSe":10897,"FeTiSb":10898,"674456":10899,"ĠVZnRu":10900,"TiNiGe":10901,"ĠMnGaRh":10902,"MoSiHf":10903,"7930":10904,"1184560":10905,"542730":10906,"10564":10907,"1056486":10908,"1215275":10909,"862364":10910,"977347":10911,"18388":10912,"864839":10913,"1217418":10914,"684744":10915,"1100786":10916,"TiWTc":10917,"23193":10918,"542614":10919,"21525":10920,"866155":10921,"1023942":10922,"1217020":10923,"865810":10924,"865877":10925,"20145":10926,"ScPdGe":10927,"21875":10928,"31381":10929,"2402":10930,"570452":10931,"1221529":10932,"1077354":10933,"1216784":10934,"1184299":10935,"PdNiGe":10936,"29035":10937,"1102844":10938,"1095240":10939,"541885":10940,"1087485":10941,"1087487":10942,"637052":10943,"861908":10944,"1218865":10945,"29381":10946,"1206296":10947,"685155":10948,"ĠHfSnRu":10949,"1216913":10950,"865278":10951,"865234":10952,"ScPtSn":10953,"1238845":10954,"1238878":10955,"1192706":10956,"1246302":10957,"31294":10958,"568880":10959,"1207419":10960,"1207418":10961,"1227450":10962,"ĠAsPRh":10963,"1180961":10964,"1104167":10965,"1104974":10966,"8468":10967,"1220455":10968,"1101092":10969,"571143":10970,"604914":10971,"1096832":10972,"1069533":10973,"675590":10974,"540922":10975,"644500":10976,"1217815":10977,"1217821":10978,"1228043":10979,"1018891":10980,"542816":10981,"11598":10982,"1218586":10983,"1195198":10984,"1221395":10985,"556516":10986,"1188531":10987,"867507":10988,"866296":10989,"1218268":10990,"1246521":10991,"1245988":10992,"1194040":10993,"1103984":10994,"1225290":10995,"1247457":10996,"863261":10997,"676241":10998,"1208721":10999,"1068587":11000,"24517":11001,"568483":11002,"1219661":11003,"582549":11004,"540884":11005,"1097716":11006,"Ġchlorate":11007,"ĠZnGeRh":11008,"1067880":11009,"1210618":11010,"672706":11011,"961706":11012,"559278":11013,"ĠPotassium":11014,")(":11015,"262":11016,"263":11017,"2730":11018,"2152":11019,"369":11020,"358":11021,"3999":11022,"4889":11023,"4852":11024,"4824":11025,"509":11026,"553":11027,"5157":11028,"510285":11029,"6113":11030,"6969":11031,"6426":11032,"6400":11033,"6404":11034,"709":11035,"820":11036,"9124":11037,"9198":11038,"9538":11039,"9463":11040,"9225":11041,"KAuS":11042,"YPS":11043,"YAsSe":11044,"YCoIn":11045,"ca":11046,"Ġber":11047,"Ġboride":11048,"ĠNCu":11049,"ĠNCd":11050,"ĠPCuSi":11051,"lia":11052,"ĠAlGaP":11053,"ĠSiAgPt":11054,"ĠHfNbTc":11055,"ĠHfInPt":11056,"ĠZrNbAl":11057,"ĠZrNiSn":11058,"20083":11059,"20479":11060,"20838":11061,"FeNiS":11062,"FeNiAs":11063,"FeCoAs":11064,"ĠNbRuSb":11065,"ĠNbSnRu":11066,"SiMo":11067,"ĠTaFe":11068,"ĠTaTc":11069,"ĠTaTiNi":11070,"ĠScVRu":11071,"ĠScTaTc":11072,"TiZr":11073,"TiSeS":11074,"TiTaNi":11075,"ĠZnSnRh":11076,"ĠZnSnAs":11077,"AsTiZr":11078,"NiMo":11079,"NiMoP":11080,"ĠCoNiSe":11081,"yllia":11082,"PtAsP":11083,"10098":11084,"10866":11085,"10456":11086,"10441":11087,"ĠMnHg":11088,"ĠSrGa":11089,"ĠSrCu":11090,"ĠSrCaHg":11091,"SbAu":11092,"ĠAgSbS":11093,"RhPS":11094,"ZnNi":11095,"12221":11096,"1212189":11097,"121259":11098,"12537":11099,"12759":11100,"12962":11101,"CuAg":11102,"CuZrAl":11103,"ĠKZr":11104,"ĠKCr":11105,"ĠKNbCl":11106,"MoFe":11107,"MoCoP":11108,"ZrGeS":11109,"ZrCuGa":11110,"ZrMnGa":11111,"ZrZnN":11112,"ZrPdSi":11113,"ZrIrAl":11114,"ZrTiAu":11115,"ZrVNi":11116,"ZrVW":11117,"ZrNbAl":11118,"ZrOsGe":11119,"HfCuAl":11120,"HfMnP":11121,"HfRuSb":11122,"HfNbTc":11123,"AgGaS":11124,"67233":11125,"CoFe":11126,"RuPtGa":11127,"RuCoGa":11128,"IrPt":11129,"IrCoAl":11130,"11928":11131,"11639":11132,"NbRuSb":11133,"NbIrGe":11134,"NbVP":11135,"4253":11136,"6987":11137,"TaCuS":11138,"TaCoGe":11139,"5065":11140,"0869":11141,"ScCoSi":11142,"ScPtSi":11143,"ScTlTe":11144,"ScVRu":11145,"ScTaTc":11146,"16495":11147,"16497":11148,"ĠReY":11149,"2261":11150,"22717":11151,"22871":11152,"22295":11153,"CrBi":11154,"CrMnAl":11155,"CrMnP":11156,"CaRu":11157,"CaPS":11158,"CaRhSn":11159,"CaIrSi":11160,"CaCrN":11161,"CaHfN":11162,"CaGeN":11163,"15120":11164,"MnHg":11165,"MnCoAl":11166,"MnGaGe":11167,"CdGeP":11168,"8645":11169,"861507":11170,"4061":11171,"061":11172,"ĠCsK":11173,"ĠCsCo":11174,"ĠCsSrCl":11175,"7499":11176,"8276":11177,"9305":11178,"9391":11179,"SrMn":11180,"SrPdH":11181,"SrCaHg":11182,"OsCoAl":11183,"TcMnAl":11184,"1944":11185,"ReMn":11186,"8147":11187,"601326":11188,"NaTa":11189,"NaNbS":11190,"NaZnP":11191,"NaBiSe":11192,"18127":11193,"18104":11194,"4997":11195,"639910":11196,"2949":11197,"29156":11198,"29866":11199,"29804":11200,"29153":11201,"29073":11202,"3419":11203,"1374":11204,"13962":11205,"975065":11206,"8446":11207,"9254":11208,"32884":11209,"ĠAlTiCo":11210,"3602":11211,"9906":11212,"27630":11213,"982261":11214,"28339":11215,"31456":11216,"1204061":11217,"1203419":11218,"11008":11219,"11047":11220,"1101887":11221,"CsMo":11222,"ĠTiAlOs":11223,"10991":11224,"2337":11225,"23304":11226,"1216112":11227,"1216179":11228,"1216678":11229,"1216247":11230,"1216128":11231,"1216081":11232,"1216193":11233,"1216017":11234,"1216057":11235,"10716":11236,"1070869":11237,"ĠAlScCu":11238,"1220426":11239,"1220795":11240,"1220597":11241,"1220944":11242,"10274":11243,"1183456":11244,"1183837":11245,"1183246":11246,"1079863":11247,"1079508":11248,"569310":11249,"569267":11250,"ĠHfAlFe":11251,"ĠHfAlIr":11252,"1186233":11253,"1186117":11254,"1186162":11255,"867137":11256,"867331":11257,"867901":11258,"11959":11259,"1191953":11260,"1192507":11261,"1187939":11262,"1187096":11263,"1187429":11264,"1187225":11265,"1187238":11266,"1215279":11267,"1215169":11268,"1215216":11269,"1215203":11270,"1215221":11271,"1215751":11272,"1215194":11273,"1219799":11274,"1219262":11275,"1224116":11276,"1224456":11277,"1224893":11278,"1217096":11279,"1217832":11280,"1217076":11281,"1217251":11282,"ĠZrAlRu":11283,"1221714":11284,"1221673":11285,"1221487":11286,"1221731":11287,"22267":11288,"22216":11289,"22287":11290,"1018802":11291,"1080495":11292,"1080509":11293,"ĠZnPPt":11294,"1188208":11295,"ĠSeInAg":11296,"1078231":11297,"1078756":11298,"1078708":11299,"ĠNTaZn":11300,"1223807":11301,"10688":11302,"1068653":11303,"1186988":11304,"ĠScAlIr":11305,"ĠScGeRh":11306,"ĠIbca":11307,"ĠHfSiSe":11308,"ĠHfSiRu":11309,"ĠAsTeRh":11310,"11350":11311,"10843":11312,"ĠTiZnCo":11313,"ĠTiZnIr":11314,"ĠRuSbHf":11315,"12783":11316,"13240":11317,"CaSiN":11318,"30570":11319,"865094":11320,"865898":11321,"ĠAgPPd":11322,"ĠAlAsPt":11323,"568121":11324,"30312":11325,"1207463":11326,"1207079":11327,"1025224":11328,"1025187":11329,"ĠTiNiSn":11330,"2960":11331,"29623":11332,"973053":11333,"973066":11334,"10596":11335,"ĠTiMoP":11336,"1105830":11337,"1218008":11338,"1218049":11339,"1218061":11340,"1218037":11341,"1218028":11342,"CoNiSe":11343,"CoNiSb":11344,"13314":11345,"15652":11346,"ĠScInPd":11347,"1215478":11348,"1215448":11349,"1215490":11350,"1229023":11351,"1229062":11352,"TiAlCr":11353,"ĠSiCoSi":11354,"1220347":11355,"1220382":11356,"1220364":11357,"1220318":11358,"28024":11359,"1009222":11360,"12466":11361,"1246504":11362,"866062":11363,"1103166":11364,"1103414":11365,"1215318":11366,"1215327":11367,"30493":11368,"1029799":11369,"1029246":11370,"865585":11371,"865591":11372,"ZrRhGa":11373,"1102531":11374,"1102525":11375,"1102537":11376,"1102524":11377,"ĠZrZnN":11378,"1228912":11379,"1215533":11380,"1215575":11381,"ĠMnZnTe":11382,"1225183":11383,"1206424":11384,"1025306":11385,"12470":11386,"12473":11387,"1247294":11388,"980947":11389,"TiMoP":11390,"1228856":11391,"1228792":11392,"1199930":11393,"865442":11394,"YRhGe":11395,"20268":11396,"1104960":11397,"867319":11398,"977436":11399,"977578":11400,"YAgAl":11401,"11176":11402,"864990":11403,"31053":11404,"31081":11405,"1217959":11406,"1217987":11407,"850249":11408,"755263":11409,"1217112":11410,"1217185":11411,"1217178":11412,"YCuAs":11413,"ĠCdPPt":11414,"NbRhP":11415,"13993":11416,"ĠAlSiRu":11417,"ĠYZnPd":11418,"697076":11419,"1103261":11420,"571035":11421,"ĠSeCuPd":11422,"ĠTeMnHg":11423,"1014244":11424,"1218335":11425,"1218331":11426,"1218330":11427,"1218414":11428,"1209130":11429,"1187911":11430,"ĠHNaPd":11431,"862721":11432,"862778":11433,"SrZnBi":11434,"20389":11435,"ĠVGeRu":11436,"1216450":11437,"1216453":11438,"1216440":11439,"1025557":11440,"1228888":11441,"1228894":11442,"1226006":11443,"1226013":11444,"SrCdGa":11445,"HfPtSi":11446,"1095443":11447,"1095465":11448,"1207394":11449,"1025220":11450,"1025269":11451,"1025279":11452,"1025272":11453,"TiCrAs":11454,"ĠSPRh":11455,"849083":11456,"976184":11457,"1214851":11458,"1214838":11459,"ĠNbZnRu":11460,"1185976":11461,"PtSiSe":11462,"570687":11463,"ĠNNaSi":11464,"HfSiSe":11465,"11338":11466,"865048":11467,"1078884":11468,"IrPTe":11469,"19941":11470,"680731":11471,"YAuGe":11472,"SrAuIn":11473,"1215933":11474,"FeTeFe":11475,"1070152":11476,"RhAsTe":11477,"1103034":11478,"1183608":11479,"22150":11480,"SrPtIn":11481,"1102011":11482,"7801":11483,"FeTiP":11484,"PtZnPt":11485,"1190672":11486,"1219516":11487,"1187252":11488,"1078010":11489,"1078086":11490,"1078093":11491,"1078079":11492,"1078058":11493,"1078026":11494,"1221642":11495,"1221629":11496,"YInCu":11497,"TiNiSn":11498,"1187874":11499,"1187876":11500,"1425":11501,"RhPSe":11502,"1178678":11503,"23012":11504,"1245537":11505,"1217322":11506,"1217325":11507,"29752":11508,"1179173":11509,"570293":11510,"1215270":11511,"18021":11512,"ScNiGe":11513,"PtCdPt":11514,"867878":11515,"1095502":11516,"1095505":11517,"15819":11518,"865712":11519,"865707":11520,"865779":11521,"865768":11522,"ZrGeSb":11523,"1215715":11524,"1227346":11525,"1218380":11526,"1218329":11527,"1217040":11528,"1183450":11529,"1224496":11530,"1224408":11531,"1224481":11532,"865193":11533,"865876":11534,"1079623":11535,"1079641":11536,"7066":11537,"30931":11538,"ZrNiSn":11539,"1080033":11540,"TaTeCl":11541,"1019077":11542,"1013554":11543,"13020":11544,"1205965":11545,"1095603":11546,"1208257":11547,"1221515":11548,"1221513":11549,"1221591":11550,"1077351":11551,"1219943":11552,"1219924":11553,"1216724":11554,"1224841":11555,"34232":11556,"11560":11557,"1226375":11558,"NbGeSb":11559,"30147":11560,"30183":11561,"1068157":11562,"649479":11563,"1091395":11564,"541875":11565,"1183148":11566,"NbMoNi":11567,"CuInTe":11568,"861940":11569,"1218889":11570,"18567":11571,"1105752":11572,"1105799":11573,"643273":11574,"1206920":11575,"541622":11576,"1226258":11577,"1025728":11578,"ĠSrCaS":11579,"1106367":11580,"1106301":11581,"1225013":11582,"1226120":11583,"1216045":11584,"1194660":11585,"1101948":11586,"1104155":11587,"1104926":11588,"983358":11589,"1029359":11590,"1029387":11591,"SrCaS":11592,"604910":11593,"GeCCr":11594,"1212900":11595,"675510":11596,"1191026":11597,"1223908":11598,"ĠZnGaCo":11599,"1213756":11600,"976584":11601,"1079260":11602,"556225":11603,"1018811":11604,"ĠSePRh":11605,"ĠZnCdPt":11606,"1246957":11607,"1246975":11608,"982870":11609,"1227562":11610,"1224560":11611,"581733":11612,"SrNiIn":11613,"1185042":11614,"924129":11615,"924130":11616,"995201":11617,"1184318":11618,"1194003":11619,"1078483":11620,"504772":11621,"864840":11622,"1217088":11623,"1019319":11624,"1215689":11625,"863250":11626,"984352":11627,"862336":11628,"574138":11629,"1103757":11630,"1103724":11631,"1191625":11632,"1191644":11633,"3668":11634,"621960":11635,"1220742":11636,"1193397":11637,"1245524":11638,"505297":11639,"556742":11640,"1102743":11641,"982370":11642,"642845":11643,"1216519":11644,"1225993":11645,"ZrVCu":11646,"1246496":11647,"36988":11648,"553973":11649,"611341":11650,"642644":11651,"640416":11652,"912440":11653,"Ġberyllia":11654,"1086669":11655,"1212597":11656,"672335":11657,"1498":11658,"21069":11659,"2932":11660,"386":11661,"3791":11662,"3241":11663,"3479":11664,"3732":11665,"3587":11666,"31507":11667,"4828":11668,"4404":11669,"5122":11670,"5539":11671,"5659":11672,"614":11673,"6693":11674,"7505":11675,"7792":11676,"843":11677,"8126":11678,"9894":11679,"9248":11680,"CS":11681,"HV":11682,"HPd":11683,"KCdSb":11684,"KAlTe":11685,"PVS":11686,"VMoAs":11687,"VFeAs":11688,"VMoSi":11689,"YRuSi":11690,"YCoSn":11691,"YFeNi":11692,"YScN":11693,"YZrSb":11694,"ad":11695,"beta":11696,"yite":11697,"leyite":11698,"ĠCri":11699,"ĠCNi":11700,"stob":11701,"ĠInSnSe":11702,"ĠInCuSe":11703,"ĠAlZnCu":11704,"ĠTiSnPt":11705,"ĠTiReTc":11706,"ĠTiVTc":11707,"ĠTiVRe":11708,"ĠNiSrSn":11709,"AlS":11710,"AlHf":11711,"AlRu":11712,"AlPb":11713,"AlPS":11714,"ĠSiSnPt":11715,"ĠSiSnPd":11716,"ĠHfFe":11717,"ĠHfScRu":11718,"ĠHfScOs":11719,"ĠZrSnRh":11720,"ĠZrScTc":11721,"ĠZrScOs":11722,"ĠCaMo":11723,"ĠCaGaSi":11724,"ĠGaFeCo":11725,"20506":11726,"20817":11727,"deleyite":11728,"FeZr":11729,"FeTiH":11730,"FeGaGe":11731,"FeTaTe":11732,"ĠNbCrSe":11733,"ĠBad":11734,"SiPb":11735,"SiOs":11736,"ĠYNi":11737,"ĠYScN":11738,"ĠTaInS":11739,"ĠTaPbSe":11740,"ĠScCo":11741,"ĠScTaOs":11742,"TiPtGe":11743,"TiMnP":11744,"TiCoGa":11745,"TiRuTe":11746,"TiReSi":11747,"TiReTc":11748,"TiVTc":11749,"TiVRe":11750,"TiVP":11751,"TiPtSn":11752,"ĠZnSiAs":11753,"ĠZnCdS":11754,"ĠZnFeRh":11755,"ĠAsK":11756,"ĠAsGeAs":11757,"ĠAsCuTe":11758,"InAu":11759,"InHg":11760,"NiCa":11761,"NiWP":11762,"NiMnSb":11763,"ĠGeH":11764,"PtPdBi":11765,"1034":11766,"10648":11767,"10899":11768,"10207":11769,"ĠSrCo":11770,"ĠSnPS":11771,"ĠSnGeTe":11772,"GaIr":11773,"GaSr":11774,"ĠNaCrS":11775,"GeH":11776,"GeCa":11777,"ĠAgHg":11778,"ĠAgSnS":11779,"RhAu":11780,"RhAsS":11781,"ZnRu":11782,"ZnCr":11783,"ZnSiP":11784,"ZnSiN":11785,"1212193":11786,"12659":11787,"CuRu":11788,"ĠAuSc":11789,"ĠKCo":11790,"ĠKBi":11791,"MoTc":11792,"MoMnAs":11793,"MoRhP":11794,"ZrCoSi":11795,"ZrPtSi":11796,"ZrCuSi":11797,"ZrTiSe":11798,"ZrMoGe":11799,"ZrPdSb":11800,"SnZn":11801,"HfTeSe":11802,"HfGeS":11803,"HfCoAs":11804,"AgIr":11805,"AgSnS":11806,"AgAsS":11807,"AgBiSe":11808,"6799":11809,"5419":11810,"CoSbSe":11811,"CoMnSb":11812,"RuFe":11813,"RuOsSi":11814,"RuAsSe":11815,"RuPtAl":11816,"9690":11817,"IrNi":11818,"IrAg":11819,"IrPS":11820,"IrCoGa":11821,"1113":11822,"11202":11823,"11504":11824,"NbIr":11825,"NbCr":11826,"NbNiTe":11827,"ĠPbSb":11828,"AuP":11829,"AuAs":11830,"AuGeAs":11831,"ĠCdGa":11832,"6959":11833,"6931":11834,"TaWS":11835,"TaCoSi":11836,"TaRhTe":11837,"TaMoCo":11838,"TaCrNi":11839,"ScCoSn":11840,"ScTaOs":11841,"ScZrOs":11842,"ScZrTc":11843,"1649":11844,"16421":11845,"16259":11846,"16448":11847,"16439":11848,"8580":11849,"8507":11850,"ĠRbPbCl":11851,"ĠRbSrCl":11852,"22179":11853,"22889":11854,"22332":11855,"5327":11856,"CrAlGe":11857,"CaPdH":11858,"CaGaSi":11859,"CaPdZn":11860,"CaAlH":11861,"8848":11862,"1566":11863,"1518":11864,"1592":11865,"15695":11866,"MnPS":11867,"MnNiSi":11868,"MnNiAl":11869,"ĠTlHPd":11870,"CdZnS":11871,"CdSiAs":11872,"21491":11873,"4763":11874,"5244":11875,"PbN":11876,"PbIn":11877,"PbSb":11878,"PbAu":11879,"PbTaSe":11880,"ĠHgPS":11881,"ĠCsCr":11882,"ĠCsCd":11883,"ĠCsCaCl":11884,"468":11885,"4656":11886,"23186":11887,"23706":11888,"23290":11889,"5748":11890,"574485":11891,"571518":11892,"9306":11893,"SrMnSb":11894,"SrRhIn":11895,"SrNiSn":11896,"OsAsS":11897,"TcAg":11898,"7365":11899,"19983":11900,"19804":11901,"19835":11902,"19824":11903,"7906":11904,"ReAlGe":11905,"5600":11906,"568673":11907,"HgPS":11908,"NaGe":11909,"NaSn":11910,"NaSrAs":11911,"NaYCl":11912,"7877":11913,"TlH":11914,"4955":11915,"29570":11916,"29179":11917,"29849":11918,"29154":11919,"29476":11920,"3469":11921,"13464":11922,"13555":11923,"972187":11924,"14086":11925,"618991":11926,"903":11927,"9008":11928,"8786":11929,"3657":11930,"9912":11931,"17856":11932,"38494":11933,"30460":11934,"30676":11935,"30805":11936,"3909":11937,"28107":11938,"31125":11939,"31438":11940,"31473":11941,"RbAg":11942,"RbBi":11943,"RbAuTe":11944,"12098":11945,"1208991":11946,"1208170":11947,"1201034":11948,"1105702":11949,"1105327":11950,"CsTi":11951,"CsCr":11952,"CsCd":11953,"CsPbCl":11954,"CsAgCl":11955,"12268":11956,"ĠNbSiTc":11957,"ĠTiSiRu":11958,"11489":11959,"1216310":11960,"1216169":11961,"1216677":11962,"1216451":11963,"1216278":11964,"1216427":11965,"1216601":11966,"1216056":11967,"1216135":11968,"1216843":11969,"11621":11970,"1220675":11971,"1220670":11972,"1220587":11973,"1220761":11974,"1183607":11975,"1183173":11976,"1183151":11977,"1183490":11978,"1079224":11979,"569886":11980,"1186209":11981,"1186232":11982,"1186187":11983,"10175":11984,"1018652":11985,"8670":11986,"867233":11987,"867163":11988,"867125":11989,"1191078":11990,"ĠTiTeS":11991,"ĠTiTeRu":11992,"ĠSCuNi":11993,"ĠMnPS":11994,"1187209":11995,"1187431":11996,"1187068":11997,"1187097":11998,"567114":11999,"567279":12000,"567736":12001,"1215188":12002,"1215242":12003,"1215676":12004,"1215898":12005,"1215536":12006,"1219226":12007,"1219431":12008,"1219145":12009,"ĠSSbPt":12010,"1224983":12011,"1224559":12012,"1224413":12013,"1224448":12014,"ĠHfGeRu":12015,"ĠTiNCl":12016,"1217079":12017,"1217089":12018,"ĠSeNaPt":12019,"ĠZrSbRh":12020,"ĠFeTaTe":12021,"1221559":12022,"1221342":12023,"ĠZrGaRh":12024,"ĠZrGaRu":12025,"30847":12026,"ĠHfNCl":12027,"1080466":12028,"1080561":12029,"1080049":12030,"ĠTiGePt":12031,"ĠTiGeRh":12032,"1188987":12033,"ĠNiYBi":12034,"ĠNbNiTe":12035,"11252":12036,"ĠCcc":12037,"ĠBiTePd":12038,"1078200":12039,"1078466":12040,"ĠHfGaRu":12041,"1001022":12042,"ĠYGaRh":12043,"1223664":12044,"ĠNbRhSb":12045,"ĠYInRh":12046,"1186952":12047,"1186977":12048,"1186932":12049,"ĠSVCr":12050,"10846":12051,"10844":12052,"ĠGaTeS":12053,"570062":12054,"ĠTaAlOs":12055,"1184055":12056,"1184057":12057,"ĠSiTiCo":12058,"ĠSbTeRh":12059,"10379":12060,"10368":12061,"ĠTiGaIr":12062,"ĠTeBiPd":12063,"22056":12064,"22036":12065,"862546":12066,"862699":12067,"30580":12068,"865124":12069,"865717":12070,"865895":12071,"865665":12072,"865656":12073,"865930":12074,"NiAsSe":12075,"ĠAlGeRu":12076,"30662":12077,"30644":12078,"30658":12079,"1077814":12080,"1077746":12081,"30347":12082,"1207627":12083,"1207736":12084,"1025229":12085,"1025191":12086,"1025218":12087,"1025988":12088,"1025819":12089,"1025629":12090,"1224371":12091,"1224321":12092,"1224393":12093,"1224324":12094,"1224358":12095,"1224329":12096,"1224303":12097,"571103":12098,"571505":12099,"973166":12100,"973769":12101,"CaZnSi":12102,"1218002":12103,"1218062":12104,"1218041":12105,"1218063":12106,"972866":12107,"972777":12108,"972899":12109,"1188021":12110,"1188059":12111,"1188095":12112,"1188017":12113,"1188003":12114,"ĠAsZnSi":12115,"1215453":12116,"1215455":12117,"1215477":12118,"11754":12119,"ĠSNbCu":12120,"1069824":12121,"1072944":12122,"1220366":12123,"1220358":12124,"1220391":12125,"1009581":12126,"1246229":12127,"1246514":12128,"1246517":12129,"1246089":12130,"866156":12131,"866163":12132,"866160":12133,"866051":12134,"20419":12135,"1184684":12136,"1103545":12137,"1215353":12138,"1029337":12139,"1029915":12140,"865588":12141,"865592":12142,"ZrRhGe":12143,"ZrRhSb":12144,"1102101":12145,"1102115":12146,"1102693":12147,"ĠZrZnCo":12148,"ĠGaPPd":12149,"1228945":12150,"1228987":12151,"ĠAlVNi":12152,"3078":12153,"ĠSeSbPd":12154,"22977":12155,"1225119":12156,"1225200":12157,"1206699":12158,"1206893":12159,"1206135":12160,"20846":12161,"1025371":12162,"1025324":12163,"1025301":12164,"1008680":12165,"1247376":12166,"9801":12167,"980200":12168,"PtGeSe":12169,"ĠCuSiRh":12170,"1228745":12171,"12662":12172,"ĠKSbCl":12173,"865487":12174,"1217242":12175,"1217253":12176,"1217260":12177,"22315":12178,"20257":12179,"861501":12180,"1104194":12181,"YPdSn":12182,"TiSiY":12183,"977541":12184,"977426":12185,"977162":12186,"864947":12187,"31084":12188,"998970":12189,"607409":12190,"CaNiGa":12191,"672216":12192,"1217171":12193,"1217175":12194,"1217130":12195,"12910":12196,"12951":12197,"RuIrGa":12198,"NbRhSb":12199,"ĠYZnSi":12200,"ĠTaRhTe":12201,"697575":12202,"1103243":12203,"FeCoZr":12204,"FeCoSn":12205,"1206790":12206,"HfPdSb":12207,"1184766":12208,"1218856":12209,"1209960":12210,"1209061":12211,"CaPtCd":12212,"1079908":12213,"28877":12214,"1025586":12215,"1025587":12216,"ScHfRu":12217,"ScHfOs":12218,"1228829":12219,"1228817":12220,"1226067":12221,"1226008":12222,"1226035":12223,"23289":12224,"23275":12225,"SrCdGe":12226,"ĠNCrNi":12227,"15272":12228,"1095497":12229,"1095491":12230,"19871":12231,"CuSnTi":12232,"568656":12233,"568345":12234,"568394":12235,"ĠNNaGe":12236,"YZnSi":12237,"865010":12238,"865051":12239,"865001":12240,"865030":12241,"1078895":12242,"2832":12243,"28324":12244,"571642":12245,"571636":12246,"21405":12247,"19953":12248,"19906":12249,"680850":12250,"YAuAl":12251,"YAuSn":12252,"IrSbAs":12253,"972238":12254,"1215948":12255,"1103046":12256,"1103036":12257,"865681":12258,"1224244":12259,"866012":12260,"866041":12261,"1218976":12262,"ĠGaFeRu":12263,"1184005":12264,"975140":12265,"1190141":12266,"1219521":12267,"1187211":12268,"1221643":12269,"1221662":12270,"1221656":12271,"GaSeGaS":12272,"ĠVZnRh":12273,"ĠSeCaPb":12274,"HfCoSn":12275,"978532":12276,"14244":12277,"769218":12278,"1191862":12279,"1104366":12280,"22619":12281,"542537":12282,"1217371":12283,"29711":12284,"27850":12285,"1215271":12286,"18093":12287,"YNiIn":12288,"YNiBi":12289,"ĠNiZnSb":12290,"ĠCaCdPd":12291,"862366":12292,"977367":12293,"977353":12294,"977361":12295,"18361":12296,"864672":12297,"HfNCl":12298,"ĠTeSbRh":12299,"1095628":12300,"1095536":12301,"865728":12302,"TiWMn":12303,"505511":12304,"971737":12305,"YPtAs":12306,"TiNCl":12307,"1227322":12308,"1227313":12309,"866142":12310,"866141":12311,"30039":12312,"1229005":12313,"1229032":12314,"1023925":12315,"1207015":12316,"1103150":12317,"1183454":12318,"1190788":12319,"VNiGe":12320,"1057286":12321,"672389":12322,"1224455":12323,"865916":12324,"865914":12325,"865928":12326,"AgAlS":12327,"1187497":12328,"1106121":12329,"1106219":12330,"1077915":12331,"1077994":12332,"1079721":12333,"1079768":12334,"1013525":12335,"1013548":12336,"864715":12337,"864782":12338,"1205800":12339,"1205335":12340,"1205337":12341,"1095607":12342,"1224908":12343,"1224913":12344,"31347":12345,"1208243":12346,"FeNiGe":12347,"1221596":12348,"1079393":12349,"1079313":12350,"1206369":12351,"1206365":12352,"HfMoSb":12353,"977550":12354,"1216700":12355,"1224822":12356,"TiFeAl":12357,"1102650":12358,"ĠGaGeRu":12359,"1002114":12360,"1207776":12361,"1079407":12362,"1184229":12363,"1225771":12364,"1102840":12365,"862288":12366,"1068746":12367,"RhVAs":12368,"22596":12369,"1080667":12370,"1080611":12371,"1080657":12372,"569662":12373,"1218875":12374,"18562":12375,"560025":12376,"636320":12377,"1206267":12378,"1105749":12379,"1183005":12380,"1183041":12381,"643651":12382,"643907":12383,"1027335":12384,"1206926":12385,"1216977":12386,"1080469":12387,"541686":12388,"1095145":12389,"568940":12390,"28419":12391,"31453":12392,"31481":12393,"ĠGaCuNi":12394,"1207448":12395,"540773":12396,"1216047":12397,"604325":12398,"1101809":12399,"1101995":12400,"CdZnTe":12401,"1104183":12402,"1228605":12403,"1070557":12404,"1213754":12405,"568565":12406,"991428":12407,"862445":12408,"983365":12409,"1029349":12410,"600124":12411,"637292":12412,"1078280":12413,"1078247":12414,"574339":12415,"ZrAuGa":12416,"1101173":12417,"1206854":12418,"1024974":12419,"672696":12420,"1028576":12421,"1223986":12422,"ĠSGaNi":12423,"1213092":12424,"NbNiGe":12425,"1102565":12426,"1190915":12427,"1227042":12428,"641924":12429,"1217775":12430,"1217768":12431,"1226957":12432,"1228522":12433,"1220004":12434,"1029659":12435,"570971":12436,"1218560":12437,"1214793":12438,"1214794":12439,"867904":12440,"ĠAlReGe":12441,"ĠFeNiPt":12442,"1100412":12443,"1100415":12444,"36216":12445,"ĠTiInAu":12446,"ĠHfInCo":12447,"1102268":12448,"555569":12449,"1246970":12450,"1025905":12451,"27178":12452,"SbNCa":12453,"1224516":12454,"1224598":12455,"2668":12456,"NiZnSb":12457,"866279":12458,"1226453":12459,"1221407":12460,"1221485":12461,"945184":12462,"1027647":12463,"1206550":12464,"1106245":12465,"1078362":12466,"541047":12467,"504741":12468,"1181940":12469,"1079080":12470,"14433":12471,"ĠCdInRh":12472,"1228467":12473,"28645":12474,"27255":12475,"1173043":12476,"1068510":12477,"30293":12478,"36641":12479,"621348":12480,"1220743":12481,"640159":12482,"ĠHgAsPd":12483,"630883":12484,"CsVCl":12485,"912418":12486,"675060":12487,"1227810":12488,"1026980":12489,"1068250":12490,"1213948":12491,"1220598":12492,"849067":12493,"580930":12494,"572596":12495,"1215885":12496,"1094021":12497,"1028604":12498,"1245633":12499,"620571":12500,"35869":12501,"1222181":12502,"38605":12503,"553994":12504,"614572":12505,"989407":12506,"ĠCristob":12507,"ĠBaddeleyite":12508,"ĠAsGeAsAu":12509,"ĠAsCuTeAs":12510,"1064854":12511,"1020712":12512,"ĠAgHgPd":12513,"541911":12514,"15668":12515,"560046":12516,"ĠCristobalite":12517,"021":12518,"243":12519,"31080":12520,"31072":12521,"3129":12522,"3648":12523,"3797":12524,"3830":12525,"408":12526,"4573":12527,"4813":12528,"4578":12529,"5101":12530,"5213":12531,"602":12532,"6105":12533,"6695":12534,"622375":12535,"764":12536,"7126":12537,"7437":12538,"7939":12539,"7221":12540,"7421":12541,"7400":12542,"7883":12543,"7684":12544,"8714":12545,"8418":12546,"8435":12547,"8799":12548,"9576":12549,"9437":12550,"9027":12551,"KCuS":12552,"KZnP":12553,"KBiSe":12554,"KMnSe":12555,"KCdAs":12556,"KAuCl":12557,"KAlH":12558,"KNbCl":12559,"PSn":12560,"VTi":12561,"VCoSi":12562,"VCoAs":12563,"VCrP":12564,"YHg":12565,"YCuS":12566,"YZnAl":12567,"Ã¢":12568,"ÆĴ":12569,"âĢļ":12570,"ĠInGaP":12571,"ĠAlInSb":12572,"ĠTiMnRh":12573,"ĠNiAgSe":12574,"AlIr":12575,"ĠHfCd":12576,"ĠHfScIr":12577,"ĠZrTiMo":12578,"ĠZrTiCr":12579,"ĠCaGa":12580,"20108":12581,"20697":12582,"FeNbSb":12583,"ĠNbCu":12584,"ĠNbCrS":12585,"ĠBoron":12586,"ĠCuAgTe":12587,"ĠYCr":12588,"ĠYCuSi":12589,"ĠYScS":12590,"ĠTaSn":12591,"ĠTaTiAl":12592,"ĠTaNbTe":12593,"ĠTaSnRh":12594,"ĠTaFeRu":12595,"ĠRhSr":12596,"ĠScV":12597,"ĠScMnRh":12598,"TiNiAs":12599,"TiCoGe":12600,"TiOsSi":12601,"TiSnSb":12602,"TiZnAl":12603,"TiOsP":12604,"TiMnAs":12605,"TiPtGa":12606,"TiFeAs":12607,"TiMnRh":12608,"PdHfSn":12609,"InSbS":12610,"InGaP":12611,"InAlSb":12612,"NiH":12613,"NiIn":12614,"NiPt":12615,"NiTiSb":12616,"NiAgSe":12617,"ĠCoCl":12618,"ĠTeCs":12619,"ĠFeNiAs":12620,"ĠFeCoAs":12621,"PtPt":12622,"10670":12623,"10891":12624,"ĠMnFeSi":12625,"ĠMnRbTe":12626,"ĠSrPbS":12627,"ĠSnPb":12628,"ĠSnPbS":12629,"ĠSnGeS":12630,"GaRh":12631,"GaCu":12632,"ĠNaFeAs":12633,"ĠNaMnSe":12634,"GeW":12635,"GeOs":12636,"ĠAgSnTe":12637,"ĠAgBiPd":12638,"RhPt":12639,"RhSr":12640,"RhPtZn":12641,"RhNiZn":12642,"12116":12643,"12472":12644,"12136":12645,"12675":12646,"12126":12647,"12674":12648,"CuAsS":12649,"ĠAuTl":12650,"ĠAuPS":12651,"ĠIrSc":12652,"ĠKMnSe":12653,"MoGa":12654,"ZrPd":12655,"ZrNiAs":12656,"ZrTiPd":12657,"ZrMnAl":12658,"ZrTiMo":12659,"ZrOsSi":12660,"ZrNiSb":12661,"ZrCuSn":12662,"ZrRuGe":12663,"ZrTiMn":12664,"ZrVP":12665,"SnMo":12666,"SnGeS":12667,"SnHfS":12668,"HfCuGa":12669,"HfOsP":12670,"HfVP":12671,"AgSnTe":12672,"AgCuTe":12673,"6744":12674,"6751":12675,"6795":12676,"3340":12677,"5493":12678,"541180":12679,"CoZn":12680,"CoCuS":12681,"CoCrSi":12682,"4370":12683,"RuH":12684,"RuCl":12685,"RuSeS":12686,"RuAsS":12687,"9622":12688,"IrOs":12689,"IrNiZn":12690,"11113":12691,"11829":12692,"11400":12693,"11660":12694,"NbPbS":12695,"NbCrS":12696,"NbSnSb":12697,"NbCoAl":12698,"NbCuGa":12699,"NbInSe":12700,"NbPtSi":12701,"NbVSi":12702,"NbCrSe":12703,"AuPS":12704,"ĠCdBi":12705,"4281":12706,"4259":12707,"6973":12708,"6926":12709,"695850":12710,"TaRhSn":12711,"TaCrP":12712,"TaIrSi":12713,"TaVNi":12714,"TaNbTe":12715,"TaReSi":12716,"TaGeSi":12717,"5042":12718,"5044":12719,"5028":12720,"ScHfIr":12721,"ScIrSi":12722,"ScMnRh":12723,"1662":12724,"16225":12725,"16029":12726,"ĠRbMnP":12727,"2263":12728,"22167":12729,"22426":12730,"22731":12731,"22881":12732,"5367":12733,"5305":12734,"5573":12735,"5528":12736,"CrPd":12737,"CrCuS":12738,"CrZnN":12739,"CaGaAl":12740,"CaGaGe":12741,"CaAgAl":12742,"CaZrS":12743,"882":12744,"8843":12745,"1554":12746,"MnRe":12747,"ĠTlAsPt":12748,"CdPd":12749,"CdSnP":12750,"CdGeAs":12751,"BiAu":12752,"BiInS":12753,"21306":12754,"21756":12755,"21413":12756,"21893":12757,"8620":12758,"8607":12759,"4755":12760,"528":12761,"4025":12762,"4030":12763,"PbGeTe":12764,"0613":12765,"ĠHgPb":12766,"ĠCsMnSe":12767,"4612":12768,"571147":12769,"574025":12770,"SrSi":12771,"SrPbS":12772,"SrCaZn":12773,"SrIrP":12774,"SrPdSi":12775,"SrIrIn":12776,"OsAsSe":12777,"OsSbSe":12778,"7366":12779,"7392":12780,"8388":12781,"19968":12782,"2454":12783,"24719":12784,"5654":12785,"5614":12786,"8167":12787,"60186":12788,"605028":12789,"NaAlGe":12790,"NaVN":12791,"NaMnSe":12792,"NaCrN":12793,"NaNbSe":12794,"NaCdSb":12795,"784":12796,"591":12797,"5918":12798,"7240":12799,"4120":12800,"7771":12801,"7781":12802,"5149":12803,"TlFeS":12804,"TlInS":12805,"TlSbTe":12806,"TlCaCl":12807,"TlAlCl":12808,"0447":12809,"4953":12810,"4979":12811,"632686":12812,"2977":12813,"29568":12814,"29163":12815,"29175":12816,"7642":12817,"4842":12818,"13573":12819,"13202":12820,"13459":12821,"13203":12822,"13094":12823,"9710":12824,"14434":12825,"8769":12826,"8765":12827,"8725":12828,"32780":12829,"36539":12830,"36053":12831,"9571":12832,"9952":12833,"9981":12834,"9987":12835,"35152":12836,"17835":12837,"17558":12838,"3849":12839,"30459":12840,"30424":12841,"9845":12842,"28126":12843,"28968":12844,"28759":12845,"31502":12846,"RbInS":12847,"RbMnP":12848,"RbMnTe":12849,"RbNaS":12850,"12056":12851,"1209946":12852,"1205493":12853,"1204281":12854,"1100":12855,"1101867":12856,"1101118":12857,"CsK":12858,"CsBiS":12859,"CsMnSe":12860,"CsSnCl":12861,"CsAlTe":12862,"CsTaSe":12863,"CsNaS":12864,"1096795":12865,"1225654":12866,"ĠZrSiRu":12867,"1216108":12868,"1216136":12869,"1216052":12870,"1216437":12871,"1216698":12872,"1070613":12873,"1077240":12874,"ĠAlScAu":12875,"1220110":12876,"1220472":12877,"1220559":12878,"1220470":12879,"1220492":12880,"1220057":12881,"1220458":12882,"1220879":12883,"10275":12884,"1027273":12885,"1183166":12886,"1183462":12887,"1183938":12888,"1183591":12889,"ĠNiTeSe":12890,"ĠAlCuNi":12891,"1079158":12892,"569298":12893,"569408":12894,"1186074":12895,"867120":12896,"867179":12897,"867850":12898,"867216":12899,"867792":12900,"867327":12901,"867292":12902,"867799":12903,"867917":12904,"1191223":12905,"1198948":12906,"1198388":12907,"ĠSZnCd":12908,"1187124":12909,"1187200":12910,"1187718":12911,"1187473":12912,"1187704":12913,"1187701":12914,"1187470":12915,"1187703":12916,"ĠMnSiTc":12917,"567981":12918,"567228":12919,"1215179":12920,"1215714":12921,"1215804":12922,"1215230":12923,"1215177":12924,"1215170":12925,"1215806":12926,"1215600":12927,"1219501":12928,"1219203":12929,"1219437":12930,"1219193":12931,"1219423":12932,"1219732":12933,"1224108":12934,"1224972":12935,"1224544":12936,"1224691":12937,"1224092":12938,"1224418":12939,"1224473":12940,"1224831":12941,"1224859":12942,"1217126":12943,"1217864":12944,"1217891":12945,"1217065":12946,"1221935":12947,"1221780":12948,"1221824":12949,"1221876":12950,"1221734":12951,"ĠNNbZn":12952,"30877":12953,"30864":12954,"ĠSnHfS":12955,"1018714":12956,"1018806":12957,"1018736":12958,"1018726":12959,"1080835":12960,"1080463":12961,"1080056":12962,"ĠPdSnHf":12963,"1188158":12964,"1188829":12965,"1123":12966,"ĠYAgS":12967,"ĠYAgSn":12968,"1078677":12969,"1078776":12970,"1078162":12971,"1078739":12972,"1078547":12973,"1078963":12974,"ĠAlMnFe":12975,"ĠAlMnPd":12976,"10046":12977,"ĠNaSbSe":12978,"1223529":12979,"1223824":12980,"1223642":12981,"1223859":12982,"1068167":12983,"ĠYInAg":12984,"1186942":12985,"1186985":12986,"1186956":12987,"10873":12988,"ĠGaAsPd":12989,"ĠFeNbSb":12990,"1030447":12991,"1189265":12992,"1189066":12993,"1189272":12994,"1189075":12995,"1189764":12996,"ĠTiGaTc":12997,"22007":12998,"22084":12999,"10076":13000,"862423":13001,"30523":13002,"ĠNbAlFe":13003,"865503":13004,"865165":13005,"865128":13006,"865931":13007,"1018020":13008,"1018046":13009,"1018066":13010,"1018076":13011,"ĠYCdAg":13012,"ĠYCdHg":13013,"NiAsS":13014,"16790":13015,"568208":13016,"568501":13017,"ĠAlPPt":13018,"1077883":13019,"1077722":13020,"30311":13021,"1207101":13022,"1207127":13023,"1207428":13024,"1207090":13025,"1207799":13026,"1207727":13027,"1025173":13028,"1025925":13029,"1224372":13030,"1224318":13031,"1224395":13032,"571310":13033,"571534":13034,"571471":13035,"ĠTiNiSb":13036,"29658":13037,"ĠAgCuTe":13038,"1218022":13039,"1218053":13040,"1218019":13041,"1218064":13042,"1218039":13043,"1218003":13044,"1186006":13045,"13686":13046,"972877":13047,"1188019":13048,"ĠScInPt":13049,"ĠSrZnIn":13050,"1220362":13051,"1220345":13052,"21260":13053,"1246058":13054,"1246243":13055,"1184615":13056,"1184601":13057,"1215340":13058,"1215324":13059,"1215379":13060,"1215368":13061,"1215326":13062,"30492":13063,"1029422":13064,"1029334":13065,"865523":13066,"865525":13067,"ZrRhAl":13068,"1102541":13069,"1102631":13070,"1102532":13071,"1102660":13072,"ĠZrZnNi":13073,"ĠZrZnRh":13074,"10454":13075,"10469":13076,"1228910":13077,"1228905":13078,"1228973":13079,"1228918":13080,"1228938":13081,"1215510":13082,"1215583":13083,"TiPdGa":13084,"18645":13085,"18648":13086,"21316":13087,"21371":13088,"21365":13089,"ĠMnSbRh":13090,"27455":13091,"20952":13092,"10232":13093,"22909":13094,"22922":13095,"1225810":13096,"1206529":13097,"1206058":13098,"1025353":13099,"1025302":13100,"1025346":13101,"1025365":13102,"1025318":13103,"1025348":13104,"1797":13105,"17985":13106,"AlSiY":13107,"1008556":13108,"1247422":13109,"1247449":13110,"1247333":13111,"ĠScNiBi":13112,"TiMoAs":13113,"1228117":13114,"1228473":13115,"1228807":13116,"22769":13117,"1208205":13118,"1208335":13119,"1208228":13120,"1217283":13121,"1217272":13122,"RuRhGa":13123,"22396":13124,"22302":13125,"31185":13126,"31153":13127,"1193208":13128,"1193227":13129,"1193832":13130,"1193899":13131,"1193708":13132,"20255":13133,"861889":13134,"NiSeTe":13135,"ĠSnPPt":13136,"1226104":13137,"1226089":13138,"1226070":13139,"CaCuIn":13140,"CaCuAs":13141,"1104965":13142,"CrFeP":13143,"977427":13144,"27907":13145,"ScCuSn":13146,"1120733":13147,"YAgGe":13148,"YAgSb":13149,"864970":13150,"1217942":13151,"1217990":13152,"1217917":13153,"1217900":13154,"998912":13155,"983602":13156,"755523":13157,"16930":13158,"YCuSn":13159,"1078645":13160,"12923":13161,"NbRhGe":13162,"9814":13163,"ĠAlSiPd":13164,"ZrSiAs":13165,"1103293":13166,"672661":13167,"ĠInAsPd":13168,"1218103":13169,"1218336":13170,"1209887":13171,"21662":13172,"CaPtAl":13173,"1079952":13174,"28884":13175,"862747":13176,"SrZnIn":13177,"20320":13178,"1216496":13179,"1216481":13180,"TaFeAl":13181,"ScHfCo":13182,"1228832":13183,"20521":13184,"1226054":13185,"SrCdBi":13186,"505804":13187,"505333":13188,"1095442":13189,"1095419":13190,"1207382":13191,"1207359":13192,"1025271":13193,"1025293":13194,"TiCrTc":13195,"19877":13196,"1216602":13197,"PdSnTe":13198,"27361":13199,"849073":13200,"849071":13201,"1214809":13202,"1018150":13203,"567716":13204,"TiRhGe":13205,"568398":13206,"1216354":13207,"1227422":13208,"1227717":13209,"1227421":13210,"28270":13211,"CaAuBi":13212,"865066":13213,"865000":13214,"28355":13215,"21409":13216,"21467":13217,"972275":13218,"972224":13219,"1215915":13220,"1215914":13221,"1070099":13222,"ScRhGe":13223,"1226787":13224,"1183640":13225,"TiAsTe":13226,"1102086":13227,"CuSiTi":13228,"ĠPInGa":13229,"19746":13230,"1218954":13231,"1218952":13232,"1218977":13233,"1218951":13234,"ĠInAgS":13235,"ĠHfZrRu":13236,"1190092":13237,"1190451":13238,"1078008":13239,"1078064":13240,"1221606":13241,"567945":13242,"1095522":13243,"1095563":13244,"1095584":13245,"HfZrRu":13246,"754850":13247,"MoSiZr":13248,"1191202":13249,"22640":13250,"22662":13251,"23037":13252,"1184567":13253,"1245698":13254,"1217381":13255,"1215240":13256,"1215277":13257,"ScNiBi":13258,"862369":13259,"862340":13260,"862368":13261,"862376":13262,"1219369":13263,"1224768":13264,"1224732":13265,"1224703":13266,"15320":13267,"18344":13268,"864939":13269,"1095673":13270,"1095128":13271,"865780":13272,"865786":13273,"1100781":13274,"ĠCaInCu":13275,"27669":13276,"IrAsTe":13277,"505554":13278,"1101771":13279,"971836":13280,"1227320":13281,"1227354":13282,"21577":13283,"864654":13284,"864607":13285,"1218328":13286,"16260":13287,"1229006":13288,"1023943":13289,"1217009":13290,"1217039":13291,"1103172":13292,"ĠSrCdHg":13293,"32811":13294,"865167":13295,"865174":13296,"1079635":13297,"14983":13298,"1220667":13299,"1187708":13300,"1187706":13301,"13416":13302,"SrPdAs":13303,"AlCuY":13304,"571281":13305,"570598":13306,"1077979":13307,"1080043":13308,"ĠSCsIn":13309,"1079716":13310,"1019104":13311,"1013555":13312,"1186759":13313,"1186761":13314,"AlFeZr":13315,"864761":13316,"1205828":13317,"1017632":13318,"1224916":13319,"1224951":13320,"1208220":13321,"1208248":13322,"1206600":13323,"1196650":13324,"1221517":13325,"1079323":13326,"1079324":13327,"1079361":13328,"569823":13329,"1219970":13330,"981377":13331,"1222126":13332,"554212":13333,"570769":13334,"977582":13335,"1216734":13336,"1216713":13337,"1224885":13338,"1028459":13339,"ĠCuGeRh":13340,"1226309":13341,"30175":13342,"NbHS":13343,"862264":13344,"1203338":13345,"1068464":13346,"ĠNaCdHg":13347,"18279":13348,"541879":13349,"1078938":13350,"637736":13351,"1102945":13352,"976220":13353,"18594":13354,"ĠTiCrTc":13355,"1066232":13356,"632693":13357,"1206242":13358,"1183042":13359,"643912":13360,"1027687":13361,"1216906":13362,"1080489":13363,"1095148":13364,"ĠTeZnHg":13365,"865280":13366,"1226245":13367,"28489":13368,"1106352":13369,"SnNNi":13370,"29596":13371,"1205741":13372,"1246370":13373,"1207408":13374,"1178762":13375,"540703":13376,"1227419":13377,"1216033":13378,"1216005":13379,"1104120":13380,"1025045":13381,"TaRhGe":13382,"ĠCrGaCo":13383,"1220409":13384,"1220488":13385,"1029396":13386,"ĠHgPPd":13387,"1071862":13388,"1030106":13389,"ZrCrV":13390,"1078257":13391,"1223845":13392,"28769":13393,"ĠTlPPd":13394,"571163":13395,"541291":13396,"1218140":13397,"23954":13398,"1103567":13399,"1069520":13400,"675576":13401,"672689":13402,"1201566":13403,"605735":13404,"1105654":13405,"1213703":13406,"1102520":13407,"1025457":13408,"755435":13409,"27512":13410,"27533":13411,"1021494":13412,"1217777":13413,"1220035":13414,"AsNSr":13415,"1214786":13416,"1214784":13417,"1100408":13418,"ĠHfInRh":13419,"ĠHfInAu":13420,"1221396":13421,"1227567":13422,"1194390":13423,"976920":13424,"675326":13425,"862586":13426,"1246509":13427,"35015":13428,"1203283":13429,"27769":13430,"1184364":13431,"ĠHfScCo":13432,"504951":13433,"1106020":13434,"1173475":13435,"561033":13436,"1225210":13437,"1228454":13438,"ĠZrCdPd":13439,"1226512":13440,"1226586":13441,"866376":13442,"975275":13443,"510041":13444,"675462":13445,"541310":13446,"541378":13447,"ĠCdHgPd":13448,"505278":13449,"505634":13450,"1203422":13451,"1203241":13452,"1221872":13453,"TiTaAl":13454,"1105559":13455,"1227871":13456,"1026916":13457,"1080815":13458,"1068286":13459,"1212052":13460,"558760":13461,"862911":13462,"644229":13463,"976765":13464,"972120":13465,"1078155":13466,"1194467":13467,"1030721":13468,"1029407":13469,"1029711":13470,"676329":13471,"1028823":13472,"623814":13473,"1016106":13474,"CoCrTa":13475,"1226652":13476,"1100873":13477,"1068891":13478,"669387":13479,"1226821":13480,"510133":13481,"610522":13482,"669566":13483,"ĠHfCdRh":13484,"1213642":13485,"1212682":13486,"674493":13487,"504498":13488,"557308":13489,"561419":13490,"601861":13491,"17291":13492,"28660":13493,"28658":13494,"315":13495,"3464":13496,"3102":13497,"3504":13498,"3927":13499,"4124":13500,"4861":13501,"4805":13502,"588":13503,"566":13504,"5102":13505,"5106":13506,"6961":13507,"6437":13508,"7077":13509,"7439":13510,"8159":13511,"8456":13512,"8203":13513,"8487":13514,"954":13515,"9856":13516,"9900":13517,"KSi":13518,"KTi":13519,"KCo":13520,"KSnS":13521,"KMnP":13522,"KMnAs":13523,"KYTe":13524,"KCuCl":13525,"KMnCl":13526,"NIn":13527,"SPS":13528,"VSn":13529,"VCl":13530,"VNiAs":13531,"VCrSi":13532,"VCrAs":13533,"VRuSb":13534,"WZn":13535,"YV":13536,"YGe":13537,"YBi":13538,"YCrFe":13539,"YIrSn":13540,"bm":13541,"ĠInGaS":13542,"ĠInCuPd":13543,"ĠAlGaAs":13544,"ĠTiSnRu":13545,"AlOs":13546,"ĠSiSbPt":13547,"ĠPdPb":13548,"ĠPdPS":13549,"ĠHfMn":13550,"ĠHfCl":13551,"ĠHfTaRu":13552,"ĠHfTiSe":13553,"ĠHfTaV":13554,"ĠZrTc":13555,"ĠZrTiW":13556,"ĠZrScRu":13557,"ĠZrTiCu":13558,"ĠCaY":13559,"ĠCaCoSi":13560,"ĠCaCuSi":13561,"2002":13562,"20422":13563,"20731":13564,"20235":13565,"FeNiSe":13566,"FeMnGe":13567,"ĠNbWSe":13568,"ĠNbVRe":13569,"ĠVFeSb":13570,"ĠVSnRu":13571,"ĠVCuRh":13572,"SiAl":13573,"SiRh":13574,"ĠCuCd":13575,"ĠYCrFe":13576,"ĠTaSeS":13577,"ĠTaNbTc":13578,"ĠTaMoW":13579,"ĠTaWMo":13580,"ĠTaSnRu":13581,"ĠScTaRu":13582,"TiCoNi":13583,"TiGeS":13584,"TiCrSi":13585,"TiReN":13586,"TiZnGa":13587,"TiNbRe":13588,"TiVAl":13589,"ĠZnSiRh":13590,"PdIn":13591,"PdPS":13592,"PdCuAl":13593,"PdAsS":13594,"PdZrSn":13595,"InRu":13596,"InBiSe":13597,"AsBi":13598,"NiPS":13599,"ĠFeCa":13600,"ĠFeAlSi":13601,"ĠFeNiSb":13602,"ĠCrCoPt":13603,"PtAs":13604,"PtBiSb":13605,"ĠSbCr":13606,"10435":13607,"10898":13608,"10404":13609,"ĠMnBi":13610,"ĠMnCoGe":13611,"ĠMnRhSb":13612,"ĠSrFe":13613,"ĠSrGaSi":13614,"ĠSrCaIn":13615,"GaW":13616,"GaOs":13617,"GaPS":13618,"ĠNaVSe":13619,"GeMo":13620,"ĠAgBiS":13621,"RhAsSe":13622,"RhBiS":13623,"RhSbAs":13624,"RhAuZn":13625,"RhTiSn":13626,"ZnPb":13627,"1253":13628,"1230":13629,"121216":13630,"CuTaS":13631,"CuNbTe":13632,"CuScS":13633,"ĠAuCs":13634,"0995":13635,"ĠKNb":13636,"ĠKMnP":13637,"ĠKYTe":13638,"MoPt":13639,"MoSb":13640,"MoCr":13641,"MoCrAs":13642,"ZrIr":13643,"ZrGeTe":13644,"ZrNiP":13645,"ZrTiW":13646,"ZrCuGe":13647,"ZrOsAl":13648,"ZrPdGe":13649,"HfCoGe":13650,"HfCoP":13651,"HfNiGa":13652,"HfTaRu":13653,"HfTaFe":13654,"HfReSi":13655,"HfTaV":13656,"AgGe":13657,"AgOs":13658,"AgBiTe":13659,"6717":13660,"67569":13661,"672194":13662,"3312":13663,"5498":13664,"541558":13665,"CoMoP":13666,"4343":13667,"4384":13668,"ĠBiMo":13669,"RuNiAl":13670,"RuSbTe":13671,"9680":13672,"96169":13673,"11438":13674,"11926":13675,"11658":13676,"NbCoSi":13677,"NbPtGe":13678,"NbIrSi":13679,"NbVNi":13680,"NbMoAl":13681,"NbVRe":13682,"NbCrGe":13683,"NbVCr":13684,"ĠPbCN":13685,"AuH":13686,"AuSe":13687,"AuCuSn":13688,"ĠCdSn":13689,"ĠCdTl":13690,"ĠCdSnTe":13691,"ĠCdAlCl":13692,"6980":13693,"TaCu":13694,"TaRuSi":13695,"TaCoP":13696,"TaZnAl":13697,"TaMnGe":13698,"TaNbTc":13699,"TaNbMo":13700,"TaWMo":13701,"TaWFe":13702,"5066":13703,"505820":13704,"088":13705,"ScAl":13706,"ScNiP":13707,"ScCoP":13708,"ScTaRu":13709,"ScPdSn":13710,"ScZrRu":13711,"1624":13712,"16258":13713,"16886":13714,"ĠReSi":13715,"ĠRbYS":13716,"22227":13717,"22529":13718,"22130":13719,"5359":13720,"5560":13721,"558973":13722,"555066":13723,"CrW":13724,"CrCoSi":13725,"CrWN":13726,"CrTaN":13727,"CrCoPt":13728,"CaCN":13729,"CaCoSi":13730,"CaMnSb":13731,"CaPdSi":13732,"CaMnGe":13733,"CaTcN":13734,"8842":13735,"8818":13736,"15226":13737,"15679":13738,"MnTc":13739,"MnGeTe":13740,"MnCoGe":13741,"CdH":13742,"CdTl":13743,"CdSnTe":13744,"CdAlCl":13745,"BiMo":13746,"2188":13747,"21508":13748,"4756":13749,"4790":13750,"5257":13751,"PbSn":13752,"PbCN":13753,"PbSnTe":13754,"PbPSe":13755,"ĠCsPb":13756,"ĠCsMnAs":13757,"4653":13758,"2382":13759,"23174":13760,"23291":13761,"5749":13762,"571085":13763,"571216":13764,"621624":13765,"741":13766,"8932":13767,"8249":13768,"SrRh":13769,"SrCuSn":13770,"SrCaIn":13771,"SrCrN":13772,"OsAg":13773,"OsAsTe":13774,"TcMn":13775,"TcPdAl":13776,"7363":13777,"7376":13778,"7361":13779,"7049":13780,"4516":13781,"19955":13782,"19787":13783,"19936":13784,"7997":13785,"5606":13786,"561258":13787,"2589":13788,"HgCr":13789,"601253":13790,"604516":13791,"NaInS":13792,"NaVSe":13793,"NaAlSe":13794,"686717":13795,"7280":13796,"7285":13797,"7289":13798,"18474":13799,"18217":13800,"TlCo":13801,"TlCd":13802,"TlPS":13803,"TlBiSe":13804,"TlGaSe":13805,"6376":13806,"29110":13807,"29136":13808,"29678":13809,"29428":13810,"29932":13811,"29091":13812,"768613":13813,"4846":13814,"1368":13815,"13160":13816,"9782":13817,"977443":13818,"974790":13819,"977049":13820,"14557":13821,"9270":13822,"9265":13823,"3210":13824,"3618":13825,"9177":13826,"3772":13827,"9957":13828,"999265":13829,"3567":13830,"2750":13831,"17092":13832,"17638":13833,"17577":13834,"30151":13835,"30326":13836,"982188":13837,"RbYS":13838,"120307":13839,"120981":13840,"1208973":13841,"1205610":13842,"1208629":13843,"1204805":13844,"1201230":13845,"11073":13846,"110296":13847,"1101606":13848,"1100995":13849,"CsSbS":13850,"CsMnAs":13851,"CsGaSe":13852,"11822":13853,"1097916":13854,"1227997":13855,"ĠPPPd":13856,"20621":13857,"1216167":13858,"1216156":13859,"1216210":13860,"1216850":13861,"1216672":13862,"1216170":13863,"1216079":13864,"1216661":13865,"1216029":13866,"1216078":13867,"1216072":13868,"1216091":13869,"1216468":13870,"28143":13871,"1072382":13872,"1072589":13873,"ĠNbSeCl":13874,"ĠAlScNi":13875,"1220569":13876,"1220541":13877,"1220758":13878,"1220429":13879,"1220443":13880,"1220427":13881,"1220636":13882,"1220442":13883,"1220786":13884,"1220579":13885,"1220586":13886,"1220732":13887,"1183165":13888,"1183191":13889,"1183728":13890,"1183708":13891,"1183135":13892,"ĠAlCuRh":13893,"1079167":13894,"1079831":13895,"1079513":13896,"1079726":13897,"1079075":13898,"569152":13899,"569423":13900,"569954":13901,"1186222":13902,"1186124":13903,"1018658":13904,"867308":13905,"867127":13906,"867117":13907,"867335":13908,"867851":13909,"867475":13910,"867897":13911,"867909":13912,"867794":13913,"11958":13914,"1191589":13915,"1195257":13916,"ĠTiTeSe":13917,"ĠCaPPt":13918,"1187713":13919,"1187809":13920,"1187698":13921,"1187738":13922,"567545":13923,"567636":13924,"1215503":13925,"1215175":13926,"1215180":13927,"1215663":13928,"1215181":13929,"1215817":13930,"1215726":13931,"1215234":13932,"1219132":13933,"1219430":13934,"1219939":13935,"1219259":13936,"1219478":13937,"1224121":13938,"1224173":13939,"1224498":13940,"1224137":13941,"1224426":13942,"1224900":13943,"1224427":13944,"1224540":13945,"1224863":13946,"1217118":13947,"1217124":13948,"1217202":13949,"1217935":13950,"1217897":13951,"1217064":13952,"1217070":13953,"ĠZrSbRu":13954,"1221505":13955,"1221434":13956,"1221335":13957,"1221404":13958,"1221948":13959,"ĠMnGeTe":13960,"ĠZrGaPd":13961,"3084":13962,"22262":13963,"22268":13964,"ĠRhTeCl":13965,"1018709":13966,"1080204":13967,"1080677":13968,"1080624":13969,"1080771":13970,"ĠTiGeS":13971,"ĠZnAsPt":13972,"1188542":13973,"11241":13974,"ĠNbGaOs":13975,"1078751":13976,"1001017":13977,"ĠGeSeN":13978,"ĠTiCoSn":13979,"1223828":13980,"1223754":13981,"1223832":13982,"1223837":13983,"1223791":13984,"ĠZnAgPd":13985,"1186953":13986,"1186958":13987,"ĠScAlCo":13988,"ĠScGeAu":13989,"ĠAuCuSe":13990,"ĠWPCl":13991,"ĠSTiCu":13992,"10848":13993,"570130":13994,"1184118":13995,"1184573":13996,"1184104":13997,"ĠSeCsSb":13998,"ĠTiZnPd":13999,"ĠTiZnGa":14000,"ĠSRuRh":14001,"ĠYAlAu":14002,"10381":14003,"1189212":14004,"1189171":14005,"1189871":14006,"1189978":14007,"1189235":14008,"ĠSBiRh":14009,"12781":14010,"ĠTiGaPd":14011,"22018":14012,"1007974":14013,"862431":14014,"862703":14015,"30598":14016,"865809":14017,"865531":14018,"865538":14019,"865079":14020,"865651":14021,"865548":14022,"865888":14023,"865664":14024,"1018060":14025,"974973":14026,"16740":14027,"16763":14028,"ĠClKPb":14029,"30652":14030,"1077935":14031,"1207717":14032,"1025678":14033,"1025180":14034,"1025690":14035,"1224366":14036,"571333":14037,"ĠScTeRh":14038,"29662":14039,"10554":14040,"ĠZrGeTe":14041,"ĠZrGeRu":14042,"1105163":14043,"1105802":14044,"1218060":14045,"1186004":14046,"972961":14047,"972884":14048,"1188015":14049,"1188004":14050,"1188014":14051,"1188036":14052,"1188001":14053,"15685":14054,"ĠAsZnSn":14055,"1215416":14056,"1229235":14057,"1229060":14058,"1229000":14059,"979980":14060,"ĠTiNbRe":14061,"ĠSrZnGe":14062,"ĠSiCoP":14063,"1220367":14064,"1220342":14065,"1220369":14066,"1220374":14067,"1220329":14068,"28080":14069,"28019":14070,"21248":14071,"1246110":14072,"1246123":14073,"1246648":14074,"866088":14075,"1184647":14076,"1184602":14077,"1184604":14078,"1103098":14079,"1103160":14080,"1103728":14081,"1215305":14082,"1215365":14083,"1215378":14084,"1215392":14085,"1215317":14086,"1029418":14087,"1029975":14088,"1029506":14089,"1029719":14090,"1029838":14091,"1029811":14092,"ZrRhP":14093,"1102857":14094,"1102687":14095,"1102458":14096,"ĠZrZnIr":14097,"ĠGaPPt":14098,"999540":14099,"10457":14100,"1228943":14101,"1228991":14102,"21040":14103,"ĠSiFeRu":14104,"21352":14105,"20987":14106,"22945":14107,"22956":14108,"22914":14109,"1225871":14110,"1225141":14111,"1225839":14112,"1206544":14113,"1206129":14114,"1206525":14115,"1206829":14116,"1206431":14117,"1206679":14118,"1025347":14119,"1025366":14120,"1025356":14121,"1025304":14122,"17984":14123,"1008624":14124,"570863":14125,"1247566":14126,"980193":14127,"980936":14128,"980948":14129,"1228691":14130,"1228192":14131,"1228158":14132,"1228436":14133,"HfIrAl":14134,"22712":14135,"22706":14136,"15985":14137,"675531":14138,"ĠTlSCl":14139,"865484":14140,"YRhGa":14141,"RuRhS":14142,"22312":14143,"1193541":14144,"1193423":14145,"1193748":14146,"ĠTiZrTe":14147,"20289":14148,"20279":14149,"1226111":14150,"1226421":14151,"1226090":14152,"CaCuSi":14153,"1104462":14154,"1104502":14155,"1104337":14156,"YPdSi":14157,"YPdBi":14158,"ĠCaAgHg":14159,"CrFeGe":14160,"541487":14161,"977545":14162,"977537":14163,"977425":14164,"27910":14165,"27997":14166,"ĠScCdRh":14167,"ĠScCdAg":14168,"1120730":14169,"1120767":14170,"YAgGa":14171,"11144":14172,"1217902":14173,"1217989":14174,"1217995":14175,"16324":14176,"607230":14177,"607475":14178,"7557":14179,"PdAuSn":14180,"PdAuPb":14181,"1217143":14182,"1217193":14183,"1217144":14184,"1217172":14185,"1217132":14186,"13923":14187,"13918":14188,"ĠAlSiPt":14189,"ĠTeMnZn":14190,"ĠCrSiRu":14191,"HfPdSi":14192,"1014226":14193,"ĠVRuSb":14194,"1218111":14195,"1218804":14196,"1218699":14197,"CaPtSb":14198,"1187922":14199,"1187926":14200,"28875":14201,"ĠHNaCa":14202,"TaRuP":14203,"862702":14204,"SrZnGe":14205,"20316":14206,"1025575":14207,"1102310":14208,"1228893":14209,"1228891":14210,"24728":14211,"GaAlAs":14212,"1095427":14213,"1207365":14214,"1025270":14215,"1025291":14216,"1216640":14217,"1216641":14218,"10671":14219,"1067925":14220,"27319":14221,"849081":14222,"976082":14223,"1214857":14224,"ĠMnAlIr":14225,"1216378":14226,"1216397":14227,"1227503":14228,"1227698":14229,"1227574":14230,"28242":14231,"CaAuAs":14232,"YZnGe":14233,"YZnSn":14234,"865088":14235,"1078825":14236,"1078860":14237,"28303":14238,"21440":14239,"19971":14240,"AuCuSe":14241,"SrAuSi":14242,"SrAuAs":14243,"989576":14244,"1215988":14245,"FeVSb":14246,"ScRhTe":14247,"1226740":14248,"1226783":14249,"616204":14250,"HfNiGe":14251,"865653":14252,"SrPtAs":14253,"SrPtCd":14254,"SrPtTl":14255,"1102073":14256,"1102041":14257,"1224275":14258,"19747":14259,"1218955":14260,"1218970":14261,"504838":14262,"ĠYBiPd":14263,"ĠYBiPt":14264,"676828":14265,"677105":14266,"1184030":14267,"975144":14268,"ĠHfZrZn":14269,"ĠHfZrCo":14270,"PtZnAsPt":14271,"1219512":14272,"1187245":14273,"1104000":14274,"1221610":14275,"1221696":14276,"1221669":14277,"1221632":14278,"CaCdGe":14279,"ĠVZnCo":14280,"TiNiCu":14281,"1095553":14282,"1095575":14283,"1095573":14284,"RhTeCl":14285,"HfZrS":14286,"HfZrZn":14287,"HfZrCo":14288,"754556":14289,"ĠMnGaPd":14290,"1191100":14291,"1191422":14292,"1191401":14293,"7937":14294,"22602":14295,"1184589":14296,"1184587":14297,"1245538":14298,"1245636":14299,"989611":14300,"989649":14301,"ĠScZnPt":14302,"ĠAsInGa":14303,"1179970":14304,"570270":14305,"1215286":14306,"1802":14307,"861604":14308,"861639":14309,"862371":14310,"862300":14311,"977371":14312,"977384":14313,"1219380":14314,"1224784":14315,"15308":14316,"15358":14317,"864835":14318,"542486":14319,"1095504":14320,"1095201":14321,"865791":14322,"TiWMo":14323,"TiWRe":14324,"1101785":14325,"1101753":14326,"1101774":14327,"1227380":14328,"1227364":14329,"1227351":14330,"CuZnAs":14331,"864650":14332,"864651":14333,"1218349":14334,"866140":14335,"866173":14336,"866183":14337,"1023948":14338,"1217015":14339,"1103180":14340,"1183453":14341,"HfCrGa":14342,"865145":14343,"865131":14344,"1079643":14345,"1187420":14346,"1187433":14347,"1187418":14348,"1187711":14349,"1187771":14350,"17867":14351,"17871":14352,"SrPdCd":14353,"30979":14354,"ZrNiGe":14355,"1077944":14356,"MnRhSb":14357,"862602":14358,"684638":14359,"1019578":14360,"1013588":14361,"21885":14362,"21847":14363,"972323":14364,"1186766":14365,"1186763":14366,"NaAuIn":14367,"1224954":14368,"16037":14369,"1208265":14370,"1208287":14371,"15724":14372,"981379":14373,"1222206":14374,"1222167":14375,"NbSeCl":14376,"HfMoTc":14377,"1224810":14378,"1224875":14379,"TiFeH":14380,"1102640":14381,"1207707":14382,"1207723":14383,"1226385":14384,"1226340":14385,"29069":14386,"CoTiSn":14387,"971712":14388,"1091390":14389,"1103879":14390,"1190262":14391,"1080646":14392,"ĠAsAlGa":14393,"570355":14394,"1102925":14395,"MnFePd":14396,"976257":14397,"662563":14398,"1084838":14399,"1103608":14400,"1218812":14401,"1218850":14402,"18556":14403,"29371":14404,"505034":14405,"1105715":14406,"1105701":14407,"1183038":14408,"1206941":14409,"1216949":14410,"1216927":14411,"1189689":14412,"541689":14413,"1095185":14414,"20708":14415,"1198114":14416,"CaAgHg":14417,"865235":14418,"568903":14419,"1226254":14420,"1226249":14421,"1025799":14422,"569044":14423,"ĠSrCaPb":14424,"1106356":14425,"1238823":14426,"31455":14427,"29585":14428,"ĠVGaOs":14429,"1205784":14430,"31234":14431,"KAgCl":14432,"ĠGaCuPd":14433,"1225023":14434,"1219034":14435,"18440":14436,"1227441":14437,"1226179":14438,"ZrCuTi":14439,"1101976":14440,"979910":14441,"7084":14442,"1104139":14443,"1104951":14444,"ZrWTc":14445,"862486":14446,"1220453":14447,"1220482":14448,"600125":14449,"1101075":14450,"1227246":14451,"569391":14452,"ĠZnInRh":14453,"ZrCrCo":14454,"637263":14455,"1223842":14456,"1223823":14457,"28742":14458,"SrCaPb":14459,"867775":14460,"867768":14461,"541236":14462,"13572":14463,"1104290":14464,"1218110":14465,"996940":14466,"1103346":14467,"1103359":14468,"1084767":14469,"1084770":14470,"1024052":14471,"1024051":14472,"1028586":14473,"1147709":14474,"1013643":14475,"1213974":14476,"961687":14477,"1026034":14478,"1219496":14479,"984714":14480,"10527":14481,"1228017":14482,"571343":14483,"571370":14484,"571377":14485,"696216":14486,"982725":14487,"1227014":14488,"1227038":14489,"1217763":14490,"1029686":14491,"1029681":14492,"1024048":14493,"ScAuGe":14494,"573721":14495,"1095057":14496,"1100405":14497,"ĠTiInCo":14498,"ĠHfInCu":14499,"1195837":14500,"1195855":14501,"1190880":14502,"1221319":14503,"16839":14504,"628773":14505,"1227571":14506,"1228752":14507,"1228724":14508,"1190661":14509,"1221454":14510,"972914":14511,"984704":14512,"1218262":14513,"1026356":14514,"1027608":14515,"1221789":14516,"27776":14517,"AlNbCr":14518,"1210826":14519,"1245967":14520,"541149":14521,"1101885":14522,"1101870":14523,"1101849":14524,"1184368":14525,"675920":14526,"675977":14527,"864844":14528,"14791":14529,"1103956":14530,"1019322":14531,"1215609":14532,"1025815":14533,"1247419":14534,"ĠZrCdRh":14535,"557640":14536,"TlNCa":14537,"1078574":14538,"1078514":14539,"1173050":14540,"975272":14541,"1095396":14542,"1095372":14543,"510040":14544,"1197539":14545,"1197660":14546,"1223376":14547,"1028755":14548,"556712":14549,"1102702":14550,"1200750":14551,"1220599":14552,"849054":14553,"553875":14554,"ĠMnFePd":14555,"644280":14556,"976724":14557,"972183":14558,"1078183":14559,"1191280":14560,"1194481":14561,"542138":14562,"1096810":14563,"674355":14564,"542387":14565,"1104554":14566,"1227788":14567,"1188725":14568,"1120716":14569,"644483":14570,"ĠGaHCl":14571,"560370":14572,"1208837":14573,"1206177":14574,"1189054":14575,"1193821":14576,"640041":14577,"1071623":14578,"1247004":14579,"679983":14580,"31510":14581,"510283":14582,"510696":14583,"SPSSCs":14584,"YGeSn":14585,"YBiPt":14586,"1040453":14587,"1212161":14588,"675691":14589,"961697":14590,"1192618":14591,"556005":14592,"637614":14593,"1203073":14594,"1209818":14595,"1102961":14596,"1435":14597,"31187":14598,"3862":14599,"3159":14600,"3529":14601,"3829":14602,"3704":14603,"3532":14604,"4549":14605,"4897":14606,"5129":14607,"5829":14608,"606":14609,"619905":14610,"715":14611,"7632":14612,"7881":14613,"7639":14614,"896":14615,"8422":14616,"8966":14617,"8543":14618,"9025":14619,"9223":14620,"9023":14621,"9868":14622,"KK":14623,"KPt":14624,"KCd":14625,"KAsSe":14626,"KBiS":14627,"KFeN":14628,"KPbBi":14629,"KSbCl":14630,"KCoN":14631,"NV":14632,"VMo":14633,"VNiSi":14634,"VCoGe":14635,"VCrFe":14636,"VCoP":14637,"YSc":14638,"YCr":14639,"ĠInMo":14640,"ĠInGeTe":14641,"ĠInSiPt":14642,"ĠAlCrRu":14643,"ĠTiV":14644,"ĠTiCrAs":14645,"ĠTiInPt":14646,"ĠNiSn":14647,"AlPd":14648,"AlIn":14649,"AlMoSi":14650,"ĠPdCs":14651,"ĠHfTiZn":14652,"ĠZrNb":14653,"ĠZrTaCo":14654,"ĠCaYRh":14655,"ĠCaYPt":14656,"ĠCaMnS":14657,"20152":14658,"20199":14659,"20793":14660,"20331":14661,"20244":14662,"FeNb":14663,"FeAsS":14664,"FeCoS":14665,"FeMoP":14666,"ĠMoWS":14667,"ĠYSc":14668,"ĠTaInSe":14669,"ĠTaVH":14670,"ĠScOs":14671,"TiPt":14672,"TiRb":14673,"TiNiSi":14674,"TiVSe":14675,"TiRuAs":14676,"ĠZnHgS":14677,"ĠZnHgSe":14678,"PdAsSe":14679,"InV":14680,"InSi":14681,"InNi":14682,"InAg":14683,"InGeTe":14684,"NiV":14685,"NiTi":14686,"NiAuSn":14687,"ĠGeZn":14688,"ĠCoMo":14689,"ĠTeW":14690,"ĠTeMo":14691,"ĠFeTc":14692,"ĠCrFeAs":14693,"ĠCrMoV":14694,"PtBi":14695,"PtAsS":14696,"PtPdZn":14697,"PtPbTe":14698,"10223":14699,"10895":14700,"10137":14701,"1021328":14702,"ĠMnCrN":14703,"ĠMnCoSn":14704,"ĠSrNi":14705,"ĠSrNb":14706,"ĠSnCd":14707,"ĠSnPbSe":14708,"GaZr":14709,"ĠNaSnP":14710,"ĠNaFeN":14711,"ĠAgSnSe":14712,"ĠAgPdAu":14713,"ĠAgSbTe":14714,"ĠAgBiSe":14715,"RhCoS":14716,"RhPtCd":14717,"ZnC":14718,"ZnRh":14719,"ZnAu":14720,"ZnTl":14721,"ZnPS":14722,"ZnCdSb":14723,"ZnSnN":14724,"1252":14725,"12119":14726,"12115":14727,"12731":14728,"CuSbS":14729,"CuZrSi":14730,"CuSbSe":14731,"ĠKPt":14732,"ĠKCd":14733,"ĠKBiS":14734,"ĠKZnAs":14735,"ZrNb":14736,"ZrPbS":14737,"ZrFeSi":14738,"ZrTiRh":14739,"ZrTiFe":14740,"ZrCrMn":14741,"ZrTaCo":14742,"ZrMoFe":14743,"HfSeS":14744,"HfPtGe":14745,"HfCrAl":14746,"HfMnGa":14747,"HfTiZn":14748,"AgN":14749,"AgSnSe":14750,"AgSbTe":14751,"AgCrSe":14752,"6757":14753,"6756":14754,"6749":14755,"3345":14756,"5405":14757,"5485":14758,"5414":14759,"54282":14760,"CoNb":14761,"CoSeS":14762,"CoPS":14763,"CoTeSe":14764,"4366":14765,"4392":14766,"RuNiSb":14767,"9693":14768,"9687":14769,"IrAsSe":14770,"11167":14771,"11123":14772,"11739":14773,"11719":14774,"NbPdSi":14775,"NbCrGa":14776,"NbReSi":14777,"ĠPbSnS":14778,"AuHg":14779,"ĠCdZr":14780,"4267":14781,"4247":14782,"4252":14783,"6933":14784,"6916":14785,"6979":14786,"TaPbS":14787,"TaInSe":14788,"ScV":14789,"ScTi":14790,"ScRe":14791,"ScAgZn":14792,"ScCoAl":14793,"ScIrGe":14794,"ScTaN":14795,"ScMnGe":14796,"ScTlS":14797,"1684":14798,"1639":14799,"16304":14800,"16961":14801,"16335":14802,"16090":14803,"16687":14804,"ĠReSc":14805,"0565":14806,"ĠRbNH":14807,"ĠRbCaCl":14808,"2286":14809,"22522":14810,"22857":14811,"22418":14812,"22506":14813,"22855":14814,"22936":14815,"5350":14816,"556916":14817,"CrCoP":14818,"CrNiSb":14819,"CrMnN":14820,"CrMoV":14821,"CaGe":14822,"CaYRh":14823,"CaGaSn":14824,"CaYPt":14825,"CaAgP":14826,"CaMnS":14827,"CaSrPb":14828,"1511":14829,"1527":14830,"15687":14831,"15868":14832,"MnTi":14833,"MnCr":14834,"MnAlGe":14835,"MnIrSi":14836,"MnCoSn":14837,"CdGe":14838,"CdAsP":14839,"CdSnAs":14840,"7173":14841,"7191":14842,"7198":14843,"2199":14844,"21459":14845,"21851":14846,
[...]
