{"<s>":0,"<pad>":1,"</s>":2,"<unk>":3,"<mask>":4,"!":5,"\"":6,"#":7,"$":8,"%":9,"&":10,"'":11,"(":12,")":13,"*":14,"+":15,",":16,"-":17,".":18,"/":19,"0":20,"1":21,"2":22,"3":23,"4":24,"5":25,"6":26,"7":27,"8":28,"9":29,":":30,";":31,"<":32,"=":33,">":34,"?":35,"@":36,"A":37,"B":38,"C":39,"D":40,"E":41,"F":42,"G":43,"H":44,"I":45,"J":46,"K":47,"L":48,"M":49,"N":50,"O":51,"P":52,"Q":53,"R":54,"S":55,"T":56,"U":57,"V":58,"W":59,"X":60,"Y":61,"Z":62,"[":63,"\\":64,"]":65,"^":66,"_":67,"`":68,"a":69,"b":70,"c":71,"d":72,"e":73,"f":74,"g":75,"h":76,"i":77,"j":78,"k":79,"l":80,"m":81,"n":82,"o":83,"p":84,"q":85,"r":86,"s":87,"t":88,"u":89,"v":90,"w":91,"x":92,"y":93,"z":94,"{":95,"|":96,"}":97,"~":98,"¡":99,"¢":100,"£":101,"¤":102,"¥":103,"¦":104,"§":105,"¨":106,"©":107,"ª":108,"«":109,"¬":110,"®":111,"¯":112,"°":113,"±":114,"²":115,"³":116,"´":117,"µ":118,"¶":119,"·":120,"¸":121,"¹":122,"º":123,"»":124,"¼":125,"½":126,"¾":127,"¿":128,"À":129,"Á":130,"Â":131,"Ã":132,"Ä":133,"Å":134,"Æ":135,"Ç":136,"È":137,"É":138,"Ê":139,"Ë":140,"Ì":141,"Í":142,"Î":143,"Ï":144,"Ð":145,"Ñ":146,"Ò":147,"Ó":148,"Ô":149,"Õ":150,"Ö":151,"×":152,"Ø":153,"Ù":154,"Ú":155,"Û":156,"Ü":157,"Ý":158,"Þ":159,"ß":160,"à":161,"á":162,"â":163,"ã":164,"ä":165,"å":166,"æ":167,"ç":168,"è":169,"é":170,"ê":171,"ë":172,"ì":173,"í":174,"î":175,"ï":176,"ð":177,"ñ":178,"ò":179,"ó":180,"ô":181,"õ":182,"ö":183,"÷":184,"ø":185,"ù":186,"ú":187,"û":188,"ü":189,"ý":190,"þ":191,"ÿ":192,"Ā":193,"ā":194,"Ă":195,"ă":196,"Ą":197,"ą":198,"Ć":199,"ć":200,"Ĉ":201,"ĉ":202,"Ċ":203,"ċ":204,"Č":205,"č":206,"Ď":207,"ď":208,"Đ":209,"đ":210,"Ē":211,"ē":212,"Ĕ":213,"ĕ":214,"Ė":215,"ė":216,"Ę":217,"ę":218,"Ě":219,"ě":220,"Ĝ":221,"ĝ":222,"Ğ":223,"ğ":224,"Ġ":225,"ġ":226,"Ģ":227,"ģ":228,"Ĥ":229,"ĥ":230,"Ħ":231,"ħ":232,"Ĩ":233,"ĩ":234,"Ī":235,"ī":236,"Ĭ":237,"ĭ":238,"Į":239,"į":240,"İ":241,"ı":242,"Ĳ":243,"ĳ":244,"Ĵ":245,"ĵ":246,"Ķ":247,"ķ":248,"ĸ":249,"Ĺ":250,"ĺ":251,"Ļ":252,"ļ":253,"Ľ":254,"ľ":255,"Ŀ":256,"ŀ":257,"Ł":258,"ł":259,"Ń":260,"Ġa":261,"Ġt":262,"he":263,"on":264,"le":265,"Ġi":266,"Ġthe":267,"Ġb":268,"om":269,"Ġs":270,"Ġo":271,"Ġc":272,"it":273,"re":274,"nd":275,"ond":276,"at":277,"ng":278,"or":279,"Ġbond":280,"Ġis":281,"Ġat":282,"en":283,"al":284,"Ġatom":285,"Ġand":286,"ar":287,"Ġe":288,"The":289,"Ġf":290,"Ġof":291,"Ġm":292,"ed":293,"Ġw":294,"ro":295,"ct":296,"Ġto":297,"Ġatoms":298,"âĤ":299,"Ġin":300,"et":301,"iv":302,"ole":303,"ic":304,"ra":305,"ĠThe":306,"ate":307,"nt":308,"ing":309,"ĠC":310,"ce":311,"di":312,"ale":313,"alent":314,"er":315,"Ġh":316,"cu":317,"Ġp":318,"ith":319,"Ġwith":320,"olecu":321,"Ġmolecu":322,"qu":323,"gen":324,"âģ":325,"st":326,"ur":327,"th":328,"ivalent":329,"quivalent":330,"Ġg":331,"Ãħ":332,"ĠÃħ":333,"ds":334,"Ġ1":335,"Ġon":336,"es":337,"ace":338,"Ġequivalent":339,"Ġare":340,"ĠI":341,"dsor":342,"Ġmolecule":343,"hed":344,"dsorb":345,"Ġtw":346,"arb":347,"arbon":348,"Ġdi":349,"Ġ(":350,"Ġcarbon":351,"âĢ":352,"âĢĵ":353,"Ġsit":354,"Ġbonded":355,"Ġfor":356,"ĠS":357,"hedra":358,"Ġle":359,"ngth":360,"ry":361,"Ġlength":362,"ly":363,"Ġtwo":364,"ri":365,"Ġth":366,"cta":367,"Ġadsorb":368,"Ġor":369,"Ġsite":370,"Ġhy":371,"an":372,"ĠA":373,"ent":374,"xy":375,"Ġsi":376,"Ġsp":377,"ctahedra":378,"Ġ2":379,"bit":380,"bital":381,"rogen":382,"ub":383,"aly":384,"ataly":385,"Ġha":386,"Ġform":387,"een":388,"face":389,"Ġcataly":390,"Ġsur":391,"ĠN":392,"Ġsurface":393,"Ġorbital":394,"ol":395,"omet":396,"xygen":397,"ĠIn":398,"Ġn":399,"Ġcub":400,"eomet":401,"Ġgeomet":402,"Ġgeometry":403,"ĠP":404,"âģº":405,"our":406,"Ġoxygen":407,"âģ»":408,"Ġbet":409,"Ġfour":410,"Ġd":411,"tic":412,"ween":413,"Ġbetween":414,"Ġhas":415,"ĠThere":416,"rou":417,"ĠT":418,"har":419,"Ġadsorbate":420,"ron":421,"CH":422,"Ġcatalytic":423,"im":424,"Ġele":425,"Â²":426,"ion":427,"Ġelect":428,"Ġcubo":429,"Ġcuboctahedra":430,"pp":431,"Ġelectron":432,"xim":433,"ner":434,"orner":435,"ately":436,"Ġcorner":437,"Ġapp":438,"roxim":439,"Ġapproxim":440,"Ġapproximately":441,"ac":442,"li":443,"Ġgrou":444,"Ġhyd":445,"Ġang":446,"lar":447,"eg":448,"Ġdist":449,"Ġlengths":450,"gh":451,"Ġangle":452,"Ġgroup":453,"dg":454,"Ġsh":455,"Ġone":456,"Ġwh":457,"ĠM":458,"pole":459,"ĠAl":460,"âĤĦ":461,"âĤĤ":462,"rom":463,"ive":464,"Ġsix":465,"co":466,"oment":467,"Ġmoment":468,"Ġdipole":469,"Ġhydrogen":470,"il":471,"Ġorbitals":472,"ort":473,"Ġra":474,"âĤĨ":475,"Ġthat":476,"Ġmolecular":477,"igh":478,"OH":479,"bri":480,"Ġedg":481,"Ġpl":482,"nate":483,"ordi":484,"coordi":485,"coordinate":486,"ir":487,"ree":488,"ure":489,"ĠH":490,"Ġre":491,"Ġthree":492,"Ġfrom":493,"Ġbi":494,"Ġit":495,"ight":496,"ne":497,"Ġhybri":498,"ical":499,"itrogen":500,"Ġchar":501,"Ġco":502,"valent":503,"nding":504,"Â¹":505,"Ġcovalent":506,"Ġnitrogen":507,"Â³":508,"Ġelectrons":509,"Ġcorners":510,"mp":511,"Ġst":512,"Ġse":513,"ces":514,"are":515,"Ġbonding":516,").":517,"aced":518,"Ġplaced":519,"haring":520,"Ġbonds":521,"Ġrang":522,"ĠR":523,"etra":524,"Ġbinding":525,"Ġas":526,"Ġl":527,"Ġtetra":528,"Ġeight":529,"ĠO":530,"gon":531,"gonal":532,"ve":533,"Ġface":534,"sharing":535,"ille":536,"Ġlon":537,"ich":538,"Ġwhich":539,"ĠZ":540,"ĠCH":541,"Ġ*":542,"Ġ0":543,"Ġtri":544,"ow":545,"Ġadsorbed":546,"act":547,"ity":548,"dsorbate":549,"âĤģ":550,"pe":551,"ex":552,"ĠG":553,"ĠInd":554,"ĠMille":555,"ĠMiller":556,"Adsorbate":557,"ĠIndex":558,"zes":559,"Ġcry":560,"alli":561,"stalli":562,"Ġspace":563,"Ġcrystalli":564,"Ġcrystallizes":565,"Ġal":566,"ĠTi":567,"Ġedges":568,"ĠĊ":569,"diz":570,"Ġdistan":571,"egat":572,"olar":573,"ad":574,"Ġoctahedra":575,"Ġdistances":576,"Ġ3":577,"ist":578,"Ġshare":579,"read":580,"Ġspread":581,"Ġranging":582,"ver":583,"Ġcon":584,"ze":585,"Ġdeg":586,"uct":587,"in":588,"rees":589,"Ġdegrees":590,"Ġpolar":591,"âĤĪ":592,"ruct":593,"ructure":594,"hy":595,"Ġstructure":596,"Ġu":597,"ĠAll":598,"ation":599,"hem":600,"ĠD":601,"la":602,"âĤĥ":603,"Ġangles":604,"Ġchem":605,"el":606,"âĤģâĤĤ":607,"Ġchemical":608,"Â°":609,"Ġdistort":610,"Ġdistorted":611,"ile":612,"Ġpar":613,"Ġhybridiz":614,"so":615,"Ġfaces":616,"Ġwhile":617,"ach":618,"Ġcharg":619,"Ġv":620,"Ġalso":621,"ut":622,"ue":623,"Ġits":624,"Ġeach":625,"cond":626,"irst":627,"equivalent":628,"Ġfirst":629,"Ġinequivalent":630,"Ġsites":631,"Ġsecond":632,"Ġan":633,"Ġdue":634,"all":635,"Ġsize":636,"Ġsig":637,"ere":638,"ĠPd":639,"ĠCa":640,"mi":641,"ger":642,"Ġshort":643,"Ġlonger":644,"Ġshorter":645,"ral":646,"op":647,"Ġatop":648,"Ġtetrahedra":649,"Al":650,"ivity":651,"Ġty":652,"ĠHf":653,"ma":654,"yra":655,"yrami":656,"ction":657,"ĠNi":658,"os":659,"20":660,"Ġ10":661,"nce":662,"Ġtwel":663,"Ġtwelve":664,"ĠB":665,"Ġtype":666,"ti":667,"Ġcatalyst":668,"Ġcan":669,"Ġelectronegat":670,"Ġsing":671,"ĠGa":672,"Ġint":673,"ĠSi":674,"yl":675,"ĠZr":676,"mm":677,"ĠPt":678,"Se":679,"Ġcharge":680,"yramids":681,"Ġedge":682,"ĠNa":683,"de":684,"Ġsingle":685,"Ġhybrid":686,"Ġcharact":687,"Ġcharacter":688,"ĠSe":689,"kn":690,"Ġkn":691,"own":692,"Ġknown":693,"hedral":694,"ĠIt":695,"âģ´":696,"Ġparti":697,"Ġpartial":698,"In":699,"era":700,"Ġintera":701,"ĠY":702,"if":703,"Â°.":704,"Ġeth":705,"Ġstructured":706,"by":707,"ple":708,"Ġcubic":709,"Ġli":710,"Ġtrigonal":711,"ics":712,"Ġfive":713,"eby":714,"Ġcharacterist":715,"ĠTe":716,"near":717,"Ġlinear":718,"Ġun":719,"ĠCu":720,"Ġcharacteristics":721,"Fe":722,"Ġelectronegativity":723,"Pd":724,"Si":725,"xt":726,"ebye":727,"ixt":728,"Ġmixt":729,"Ġmixture":730,"ĠAs":731,"ĠNb":732,"Ġby":733,"As":734,"ĠV":735,"âĤħ":736,"her":737,"lene":738,"ĠSr":739,"Te":740,"Ġover":741,"ĠSc":742,"Ġpos":743,"Ġtriple":744,"ant":745,"80":746,"Ġcom":747,"us":748,"ĠZn":749,"ylene":750,"onding":751,"Ġcons":752,"Ġreact":753,"ula":754,"Ġformula":755,"Ġ4":756,"air":757,"cet":758,"Ġhybridized":759,"Ġma":760,"ĠRh":761,"od":762,"Ġbe":763,"ĠDebye":764,"ndic":765,"Ġpair":766,"Ġinteraction":767,"Ġres":768,"ĠSn":769,"Ġpi":770,"ĠSb":771,"ific":772,"ĠTa":773,"anar":774,"Ti":775,"OCH":776,"ff":777,"Ġdiff":778,"Ġconsist":779,"ĠW":780,"Ġsigma":781,"agonal":782,"ĠMo":783,"ses":784,"mol":785,"Pt":786,"10":787,"Ġcarbonyl":788,"ĠK":789,"Ġdiffere":790,"Ġarou":791,"Ġaround":792,"ĠGe":793,"Ġno":794,"Ġtil":795,"Ġtilt":796,"ĠCo":797,"Ġlone":798,"Ġposit":799,"Ġab":800,"ĠAg":801,"Ga":802,"ther":803,"Ni":804,"ĠÏ":805,"ul":806,"erm":807,"oth":808,"ively":809,"OHCH":810,"Ġhave":811,"low":812,"Ġacet":813,"Ġnegat":814,"Ġ6":815,"se":816,"Sb":817,"mall":818,"Ġsmall":819,"Ġoverla":820,"Ġ180":821,"Ġother":822,"ĠCCH":823,"anol":824,"Ġindic":825,"Ġpyramids":826,"Ġhybridization":827,"Ġwe":828,"res":829,"ctahedral":830,"Ġoverlap":831,"ĠFe":832,"Ìħ":833,"Ġgly":834,"Ġ5":835,"Ġoctahedral":836,"ĠAu":837,"out":838,"Ġabout":839,"ĠCr":840,"Ġdo":841,"Ġmet":842,"Ġthir":843,"vol":844,"Ġinvol":845,"Ġbri":846,"dge":847,"Ġbridge":848,"Ge":849,"nific":850,"Ġsignific":851,"Ġsignificant":852,"Sn":853,"teen":854,"Ġcont":855,"ating":856,"Ġpositive":857,"Ġnegative":858,"ke":859,"ered":860,"Ġdifference":861,"12":862,"is":863,"Zn":864,"ĠMn":865,"uble":866,"Ġthird":867,"Over":868,"Overall":869,"bonding":870,"dical":871,"Ġradical":872,"ccu":873,"ven":874,"cent":875,"Ġbod":876,"centered":877,"Ġbody":878,"Ġplanar":879,"Ġ120":880,"CO":881,"Ġformed":882,"Ġresul":883,"Ġresult":884,"Ġ109":885,"Cu":886,"Ġwhe":887,"09":888,"Ġ11":889,"Ġweight":890,"Ġnon":891,"Rh":892,"ollow":893,"roxy":894,"ĠRb":895,"strom":896,"ain":897,"stroms":898,"Ġdouble":899,"Ag":900,"rib":901,"Ġinvolv":902,"Ġbip":903,"NH":904,"ĠBi":905,"Ġwhere":906,"Ġpro":907,"lu":908,"ccup":909,"ĠBoth":910,"Ġsqu":911,"Ġsquare":912,"col":913,"Ġglycol":914,"Ġgroups":915,"Ġseven":916,"ions":917,"ĠRu":918,"Ġbipyramids":919,"ers":920,"Ġ7":921,"Ġ9":922,"ĠNO":923,"hyl":924,"oc":925,"ĠIr":926,"ĠPb":927,"Ġindicating":928,"lat":929,"Ġrelat":930,"Hf":931,"Ġrelatively":932,"ĠÏĥ":933,"ĠE":934,"ribut":935,"Ġpres":936,"like":937,"ngstroms":938,"Zr":939,"54":940,"Ġtetrahedral":941,"Ġrange":942,"Ġhydroxy":943,"Ġsy":944,"ide":945,"Ġhe":946,"Ġme":947,"ĠOH":948,"pt":949,"ains":950,"Au":951,"pa":952,"ari":953,"bic":954,"hom":955,"orhom":956,"thorhom":957,"thorhombic":958,"hyd":959,"als":960,"oxygen":961,"ĠCd":962,"Ġorthorhombic":963,"67":964,"ence":965,"alence":966,"11":967,"43":968,"ha":969,"zero":970,"ire":971,"Ġcomp":972,"ine":973,"33":974,"Ġoccup":975,"Ġten":976,"am":977,"his":978,"id":979,"ĠThis":980,"ite":981,"Ġcontains":982,"Ġmethyl":983,"Ġvan":984,"96":985,"ĠCOCH":986,"ape":987,"Ġshape":988,"Ġconsists":989,"aals":990,"Ġder":991,"ĠWaals":992,"ĠAngstroms":993,"carbon":994,"Ġpent":995,"Ġpentagonal":996,"ption":997,"ĠNH":998,"bridiz":999,"hybridiz":1000,"hybridized":1001,"Ġconsisting":1002,"08":1003,"Ġany":1004,"NO":1005,"Ġelectronic":1006,"Ġvalence":1007,"Ġunpa":1008,"ired":1009,"Ġunpaired":1010,"),":1011,"07":1012,"42":1013,"Ġzero":1014,"ig":1015,"hydrogen":1016,"xagonal":1017,"Ġhexagonal":1018,"ĠCl":1019,"ĠTl":1020,"ional":1021,"ined":1022,"Ġpairs":1023,"Ġreactions":1024,"Co":1025,"Ġmo":1026,"Ġadsor":1027,"Ġadsorption":1028,"ĠEth":1029,"etr":1030,"mmetr":1031,"Ġtetragonal":1032,"16":1033,"ment":1034,"Ġant":1035,"Ġresulting":1036,"Ġ8":1037,"Mo":1038,"Ġpolarity":1039,"ies":1040,"rises":1041,"53":1042,"69":1043,"per":1044,"Ir":1045,"war":1046,"Ġtowar":1047,"Ġtowards":1048,"85":1049,"Ġpartic":1050,"Ru":1051,"05":1052,"ĠOCH":1053,"Bi":1054,"ĠHg":1055,"Ġreactivity":1056,"ens":1057,"Ġinf":1058,"rough":1059,"Ġdire":1060,"Ġanti":1061,"Nb":1062,"ble":1063,"Ġdet":1064,"Ca":1065,"50":1066,"ĠCs":1067,"Cl":1068,"Ġinteractions":1069,"ip":1070,"um":1071,"Ġarises":1072,"Ġforms":1073,"Na":1074,"Cd":1075,"as":1076,"Ġhollow":1077,"ĠRe":1078,"Ġethanol":1079,"Ġhydroxyl":1080,"Pb":1081,"Ġfourth":1082,"Ġunhybridized":1083,"15":1084,"ented":1085,"Ta":1086,"uc":1087,"Ġsli":1088,"ght":1089,"Ġslight":1090,"21":1091,"Ġinvolves":1092,"ular":1093,"Ġparticip":1094,"Ġparticipate":1095,"nic":1096,"linic":1097,"Ġdirection":1098,"ou":1099,"55":1100,"Ġout":1101,"22":1102,"ding":1103,"Ġne":1104,"Ġnine":1105,"edi":1106,"Ġcent":1107,"olecular":1108,"CCH":1109,"Ġforming":1110,"Ġthrough":1111,"Sc":1112,"Ġmak":1113,"dius":1114,"Ġradius":1115,"47":1116,"Ġus":1117,"Ġmore":1118,"Ġmean":1119,"Ġacetylene":1120,"88":1121,"Ġpm":1122,"Ġmay":1123,"ĠCOHCH":1124,"Ġsixteen":1125,"rbital":1126,"ĠTc":1127,"71":1128,"Ġori":1129,"Ġoriented":1130,"Ġfourteen":1131,"Ġsymmetr":1132,"ied":1133,"ĠÏĢ":1134,"ermined":1135,"Ġdetermined":1136,"qual":1137,"Ġex":1138,"Ġimp":1139,"Ġterm":1140,"Ġterms":1141,"Ġvari":1142,"oxy":1143,"yan":1144,"Ġpresence":1145,"orbital":1146,"Ġcentral":1147,"Ġnot":1148,"Ġshe":1149,"ĠF":1150,"Ġantibonding":1151,"Â°,":1152,"Hg":1153,"aus":1154,"06":1155,"Ġdistribut":1156,"rop":1157,"Ġthese":1158,"86":1159,"ous":1160,"Ġrema":1161,"ining":1162,"Ġremaining":1163,"ĠCHCH":1164,"clu":1165,"Ġinclu":1166,"orm":1167,"52":1168,"40":1169,"mmm":1170,"ometers":1171,"ental":1172,"Ġmon":1173,"Sr":1174,"lanar":1175,"planar":1176,"oclinic":1177,"Ġmonoclinic":1178,"Ġhigh":1179,"02":1180,"alde":1181,"hyde":1182,"aldehyde":1183,"Cr":1184,"Ġinteract":1185,"un":1186,"ĠOs":1187,"Ġar":1188,"ortant":1189,"Ġimportant":1190,"ec":1191,"Ġspec":1192,"Ġvarious":1193,"Ġatomic":1194,"Ġsymmetrical":1195,"Ġsharing":1196,"Ġwate":1197,"Ġwater":1198,"Ġcomb":1199,"Ġmolecules":1200,"23":1201,"Ġfollow":1202,"ipole":1203,"Ġnet":1204,"Ġboth":1205,"COH":1206,"Ġethoxy":1207,"Ġethylene":1208,"Ġoccupy":1209,"Ġmaking":1210,"cted":1211,"93":1212,"omic":1213,"atomic":1214,"rong":1215,"Ġstrong":1216,"Ġincluding":1217,"ame":1218,"Ġelectronegative":1219,"62":1220,"70":1221,"anedi":1222,"gn":1223,"Mn":1224,"âģº,":1225,"Ġslightly":1226,"25":1227,"66":1228,"89":1229,"dd":1230,"Ġper":1231,"6âĤĥ":1232,"Ġhig":1233,"65":1234,"gan":1235,"Ġorgan":1236,"Ġorganic":1237,"74":1238,"nol":1239,"ynol":1240,"Ġcompou":1241,"Ġcompound":1242,"mens":1243,"dimens":1244,"dimensional":1245,"Ġcontribut":1246,"Tl":1247,"cel":1248,"Ġcancel":1249,"âĤĩ":1250,"Ġproces":1251,"ge":1252,"Ġsheet":1253,"Ġused":1254,"'s":1255,"75":1256,"83":1257,"ddit":1258,"Ġatt":1259,"ĠCHOH":1260,"19":1261,"iz":1262,"ium":1263,"ary":1264,"Ġfif":1265,"ates":1266,"Ġindicates":1267,"nge":1268,"82":1269,"46":1270,"Ġarra":1271,"45":1272,"79":1273,"imental":1274,"perimental":1275,"Ġexperimental":1276,"ated":1277,"Ġinform":1278,"Ġinformation":1279,"Ġcyan":1280,"ĠCCO":1281,"Ġsurfaces":1282,"ives":1283,"Ġgives":1284,"73":1285,"Prop":1286,"Propanol":1287,"Ïĥ":1288,"Ġsame":1289,"âĤĢ":1290,"ox":1291,"oxal":1292,"anediol":1293,"Ġdistribution":1294,"âĤģâĤĢ":1295,"81":1296,"Ġcharged":1297,"em":1298,"ving":1299,"Ġsince":1300,"stem":1301,"Ġsystem":1302,"osed":1303,"Ġcomposed":1304,"vi":1305,"Ġhaving":1306,"57":1307,"Ġwid":1308,"Ġwidth":1309,"Ġ104":1310,"68":1311,"Ġval":1312,"ature":1313,"Ġsuc":1314,"Ġsuch":1315,"Ġinvolved":1316,"rim":1317,"ĠEthylene":1318,"Ġpresent":1319,"Orbital":1320,"Ġbec":1321,"18":1322,"ĠFm":1323,"ot":1324,"Ġallow":1325,"Ġde":1326,"Ġacetyl":1327,"ĠPm":1328,"ĠIts":1329,"97":1330,"nder":1331,"Ġunder":1332,"Ġresults":1333,"60":1334,"Ġ-":1335,"Ġwithin":1336,"Ġfifth":1337,"Ġpartially":1338,"Ġprim":1339,"arily":1340,"Ġprimarily":1341,"ĠL":1342,"Ġhighly":1343,"icometers":1344,"Os":1345,"mmc":1346,"ell":1347,"Ġprocesses":1348,"Ġposses":1349,"fig":1350,"uration":1351,"Ġconfig":1352,"Ġconfiguration":1353,"24":1354,"Ġsever":1355,"Ġseveral":1356,"04":1357,"MO":1358,"ons":1359,"78":1360,"eth":1361,"59":1362,"51":1363,"Re":1364,"ĠTiTi":1365,"64":1366,"ngement":1367,"Ġarrangement":1368,"mc":1369,"Ġoverall":1370,"pendic":1371,"Ġperpendic":1372,"Ġperpendicular":1373,"nequal":1374,"Ġunequal":1375,"34":1376,"Ġrep":1377,"Ġtheor":1378,"ĠAddit":1379,"ionally":1380,"ĠAdditionally":1381,"ethanediol":1382,"77":1383,"int":1384,"ÏĢ":1385,"Ġglyoxal":1386,"Ġforces":1387,"Ġcyano":1388,"Ġref":1389,"Ġnature":1390,"84":1391,"etic":1392,"gnetic":1393,"par":1394,"Ġsepar":1395,"Ġseparation":1396,"ination":1397,"Ġcombination":1398,"29":1399,"56":1400,"Ġoccupied":1401,"acet":1402,"76":1403,"Ġcar":1404,"Ġcomm":1405,"Tc":1406,"Ġmod":1407,"Ġmoder":1408,"Ġmeans":1409,"Ġ(-":1410,"nitrogen":1411,"ĠU":1412,"Ġend":1413,"Ġmake":1414,"ĠPn":1415,"14":1416,"ĠCOHCHO":1417,"ĠCN":1418,"Ġcatalysts":1419,"72":1420,"Ġacetate":1421,"Ġreactive":1422,"ible":1423,"pons":1424,"Ġrespons":1425,"Ġresponsible":1426,"ties":1427,"Ġproper":1428,"Ġproperties":1429,"ĠCCHO":1430,"13":1431,"58":1432,"Ġtwent":1433,"Ġethynol":1434,"âĤī":1435,"ause":1436,"Ġbecause":1437,"Ġ107":1438,"able":1439,"ities":1440,"Ġ62":1441,"CHCH":1442,"Ġwell":1443,"Ġtwenty":1444,"Rb":1445,"41":1446,"Ġmoments":1447,"hys":1448,"illed":1449,"Ġcharges":1450,"Ġpicometers":1451,"Ġinterm":1452,"yramid":1453,"ized":1454,"cataly":1455,"catalyst":1456,"Ġinflu":1457,"48":1458,"der":1459,"tal":1460,"Ġtotal":1461,"Ġfun":1462,"ctional":1463,"Ġfunctional":1464,"Ġsystems":1465,"Ġbeing":1466,"49":1467,"edge":1468,"Ġedgeedge":1469,"Ġrepres":1470,"Ġmeas":1471,"90":1472,"ilic":1473,"Ġthan":1474,"Ġground":1475,"Ġstate":1476,"Ġmeaning":1477,"Ġhigher":1478,"ues":1479,"Ġvalues":1480,"63":1481,"los":1482,"Ġclos":1483,"Ġthere":1484,"ĠThese":1485,"Ġeighteen":1486,"Ġ12":1487,"mcm":1488,"Ġdepe":1489,"ilicide":1490,"61":1491,"ped":1492,"sha":1493,"shaped":1494,"Ġdiatomic":1495,"ĠCHOHCH":1496,"Ġind":1497,"coplanar":1498,"hest":1499,"Ġdia":1500,"92":1501,"ĠOHNH":1502,"hol":1503,"cohol":1504,"Ġalcohol":1505,"Ġrefers":1506,"87":1507,"aw":1508,"saw":1509,"Ġsee":1510,"Ġcontributes":1511,"âģµ":1512,"ĠPnma":1513,"COHCH":1514,"polar":1515,"Ġnonpolar":1516,"oint":1517,"Ġpoint":1518,"ived":1519,"derived":1520,"44":1521,"ust":1522,"ations":1523,"Bond":1524,"Bonding":1525,"Dipole":1526,"Molecular":1527,"ĠAlTi":1528,"ric":1529,"Ġdifferent":1530,"Ġspecies":1531,"Ġen":1532,"Ġnear":1533,"and":1534,"ci":1535,"Ġsci":1536,"Ġshared":1537,"Ġsu":1538,"ial":1539,"91":1540,"Ġtilted":1541,"Ġj":1542,"Ġtheory":1543,"dj":1544,"Ġadj":1545,"acent":1546,"Ġadjacent":1547,"owe":1548,"Ġsol":1549,"acetylene":1550,"Ġdiam":1551,"Ġspecific":1552,"Ġsixth":1553,"Ġformation":1554,"32":1555,"COHCOH":1556,"Ġmoderate":1557,"ached":1558,"Ġattached":1559,"99":1560,"01":1561,"eter":1562,"ĠEthanol":1563,"Ġdiameter":1564,"ran":1565,"Ġinfluence":1566,"Ġ44":1567,"ak":1568,"Ġweak":1569,"Ġide":1570,"Ġideal":1571,"ility":1572,"Ġability":1573,"Ġequal":1574,"95":1575,"ĠCOCHO":1576,"âī":1577,"âī¡":1578,"Ġcaus":1579,"ama":1580,"Ġphys":1581,"Ġparama":1582,"Ġparamagnetic":1583,"35":1584,"bond":1585,"Ġcomple":1586,"ĠUran":1587,"ĠUranium":1588,"Ġcommon":1589,"COCH":1590,"erv":1591,"36":1592,"ĠSilicide":1593,"ĠMolecular":1594,"ĠOrbital":1595,"ĠDipole":1596,"ĠBond":1597,"ĠBonding":1598,"Ġinvolve":1599,"Ġmeasure":1600,"Ġsheets":1601,"Ġcarri":1602,"Ġshares":1603,"Ġpossesses":1604,"Ġbent":1605,"2âĤģ":1606,"94":1607,"Ġqu":1608,"eus":1609,"ler":1610,"eusler":1611,"Ġstable":1612,"zine":1613,"razine":1614,"Ġhydrazine":1615,"Ġfollows":1616,"Ġrepresent":1617,"37":1618,"Ġpyramid":1619,"Ġfollowing":1620,"Ġ111":1621,"Ġ16":1622,"ood":1623,"ĠAcet":1624,"ane":1625,"Ġthey":1626,"ance":1627,"Ġpointing":1628,"ew":1629,"ene":1630,"zene":1631,"Ġdiazene":1632,"Ġformate":1633,"Ġcre":1634,"xime":1635,"17":1636,"98":1637,"tain":1638,"enot":1639,"Ġdenot":1640,"ĠCOHCHOH":1641,"Ġdenotes":1642,"Ġ32":1643,"27":1644,"Ġfaceface":1645,"dent":1646,"Ġident":1647,"Ġunderst":1648,"Ġidentical":1649,"nected":1650,"Ġconnected":1651,"ngular":1652,"ctangular":1653,"ĠNNO":1654,"Ġrectangular":1655,"ll":1656,"ĠHeusler":1657,"Ġ116":1658,"Ġdepending":1659,"ost":1660,"Ġpositively":1661,"Ġnegatively":1662,"015":1663,"Ġtriatomic":1664,"Ġvary":1665,"ymmetr":1666,"Ġasymmetr":1667,"Ġasymmetric":1668,"pha":1669,"Ġalpha":1670,"racted":1671,"Ġattracted":1672,"Ġpul":1673,"38":1674,"Ġbeta":1675,"Ġtyp":1676,"Ġman":1677,"Ġmany":1678,"ruc":1679,"Ġcruc":1680,"Ġcrucial":1681,"one":1682,"26":1683,"Ġdens":1684,"Ġdensity":1685,"00":1686,"Ġtriplet":1687,"you":1688,"Ġyou":1689,"bor":1690,"ĠTiSe":1691,"Ġstre":1692,"Ġmetal":1693,"Ġsimp":1694,"Ġsimple":1695,"ronment":1696,"Ġstu":1697,"vironment":1698,"Ġenvironment":1699,"stly":1700,"Ġhydroxyacetylene":1701,"CHOH":1702,"120":1703,"30":1704,"31":1705,"Ġcal":1706,"28":1707,"ock":1708,"Ġthis":1709,"Ġplane":1710,"to":1711,"Ġonto":1712,"ically":1713,"Ġ121":1714,"Ġusing":1715,"arby":1716,"Ġnearby":1717,"Ġjust":1718,"occup":1719,"Ġunoccup":1720,"Ġunoccupied":1721,"alized":1722,"ocalized":1723,"Ġ74":1724,"ten":1725,"Ġoften":1726,"CHOHCH":1727,"entific":1728,"Ġscientific":1729,"four":1730,"ighbor":1731,"ĠVS":1732,"Ġneighbor":1733,"Ġneighboring":1734,"39":1735,"Ġver":1736,"Ġangstroms":1737,"corner":1738,"Ġcornercorner":1739,"mine":1740,"HO":1741,"Ġhighest":1742,"HOMO":1743,"Ġeleven":1744,"Cs":1745,"ay":1746,"Ġro":1747,"Ġplay":1748,"Ġrole":1749,"ĠCHCHO":1750,"go":1751,"Ġundergo":1752,"Ġ58":1753,"anometers":1754,"Ġnanometers":1755,"Ġcha":1756,"Ġ14":1757,"Ġpolarities":1758,"Ġsub":1759,"ediate":1760,"Ġintermediate":1761,"erg":1762,"Ġdipoles":1763,"Ġmain":1764,"Ġ60":1765,"elf":1766,"Ġitself":1767,"ethyl":1768,"Ġ110":1769,"CN":1770,"Ġbeen":1771,"These":1772,"Ġexperimentally":1773,"Ġsurrou":1774,"Ġsurrounding":1775,"Ġfree":1776,"inyl":1777,"Ġvinyl":1778,"Ġsingly":1779,"Ġtheir":1780,"ĠCHOCH":1781,"sat":1782,"urated":1783,"Ġunsat":1784,"Ġunsaturated":1785,"Ġ119":1786,"Ġfilled":1787,"Ġox":1788,"Ġdebye":1789,"Ġx":1790,"ĠHowe":1791,"ĠHowever":1792,"ctively":1793,"pectively":1794,"Ġrespectively":1795,"ĠCmcm":1796,"03":1797,"ccur":1798,"sing":1799,"ergy":1800,"Ġgive":1801,"que":1802,"Ġseventh":1803,"Ġclose":1804,"Ġcovalently":1805,"uent":1806,"ituent":1807,"stituent":1808,"Ġconstituent":1809,"ride":1810,"*(":1811,"âģ°":1812,"Ġoverlaps":1813,"Ġcond":1814,"itions":1815,"Ġconditions":1816,"Ġphysical":1817,"mmary":1818,"Ġsummary":1819,"Ġacetaldehyde":1820,"hase":1821,"110":1822,"filled":1823,"Ġcausing":1824,"Ġdistributed":1825,"Ġmeasured":1826,"ĠHfHf":1827,"Ġmakes":1828,"up":1829,"av":1830,"Ġcarries":1831,"Ġlar":1832,"Ġlarge":1833,"aur":1834,"icup":1835,"ĠTetra":1836,"auricup":1837,"ĠTetraauricup":1838,"ĠTetraauricupride":1839,"vent":1840,"âģ¶":1841,"Ġmeth":1842,"hedron":1843,"Ġtetrahedron":1844,"Ġbut":1845,"Ġstrength":1846,"ls":1847,"olum":1848,"Ġvolum":1849,"Ġpulls":1850,"Ġvolume":1851,"Ġclu":1852,"Ġonly":1853,"Ġclust":1854,"Ġuse":1855,"Ġthem":1856,"istry":1857,"CHOCH":1858,"Ġconsid":1859,"Ġintermolecular":1860,"ram":1861,"ĠNaNa":1862,"ĠAlAl":1863,"iel":1864,"Ġfiel":1865,"Ġfields":1866,"ĠZnZn":1867,"ĠCuCu":1868,"led":1869,"its":1870,"Ġunits":1871,"other":1872,"ĠOxime":1873,"Â°),":1874,"Ġanother":1875,"Ġquite":1876,"ĠAcetaldehyde":1877,"sion":1878,"ulsion":1879,"Ġ106":1880,"Ġcer":1881,"Ġcertain":1882,"Ġcloser":1883,"prop":1884,"ponding":1885,"Ġcor":1886,"responding":1887,"Ġcorresponding":1888,"hydroxy":1889,"ĠEach":1890,"Ġact":1891,"luor":1892,"CHO":1893,"ĠCHOCHO":1894,"Ġnit":1895,"dipole":1896,"Ġgas":1897,"Ġallows":1898,"Ġwil":1899,"Ġwill":1900,"the":1901,"then":1902,"vide":1903,"Ġprovide":1904,"get":1905,"Ġtoget":1906,"Ġtogether":1907,"Ġbeha":1908,"Ġinteracts":1909,"vior":1910,"Ġbehavior":1911,"bs":1912,"Ġobs":1913,"Ġobserv":1914,"Ġsoluble":1915,"Ġsolvent":1916,"Ġcreating":1917,"Ġsolvents":1918,"Ġ115":1919,"Ġgen":1920,"erating":1921,"Ġgenerating":1922,"Ġcombined":1923,"lock":1924,"ermost":1925,"Ġoutermost":1926,"Ġshell":1927,"ĠTiS":1928,"ĠCaN":1929,"Ġtric":1930,"Ġtriclinic":1931,"Ġmethanol":1932,"Ġeigh":1933,"Ġeighth":1934,"ĠAgAg":1935,"nit":1936,"Ġq":1937,"Ġ55":1938,"Ġdoes":1939,"rite":1940,"ore":1941,"Â°).":1942,"Ġdel":1943,"form":1944,"Ġperform":1945,"Ġperformance":1946,"ĠOHCH":1947,"Ġhydroxyla":1948,"und":1949,"apa":1950,"Ġcapa":1951,"Ġhydroxylamine":1952,"Ġcand":1953,"Ġgood":1954,"idate":1955,"Ġcandidate":1956,"Eth":1957,"Ethylene":1958,"ĠSbS":1959,"118":1960,"ĠTiAl":1961,"122":1962,"thest":1963,"arthest":1964,"Ġfarthest":1965,"Ġdelocalized":1966,"rying":1967,"Ġcarrying":1968,"Ġ117":1969,"Ġ49":1970,"ĠNiNi":1971,"tical":1972,"oretical":1973,"Ġmagnetic":1974,"Ġopp":1975,"osite":1976,"Ġopposite":1977,"Ġinvolving":1978,"cce":1979,"ĠDeby":1980,"ĠDebyes":1981,"dy":1982,"955":1983,"uil":1984,"Ġblock":1985,"Ġbuil":1986,"Ġserv":1987,"Ġfund":1988,"ivities":1989,"cument":1990,"Ġelectronegativities":1991,"Ġdocument":1992,"amental":1993,"Ġunderstood":1994,"01588":1995,"Ġbuilding":1996,"Ġserves":1997,"Ġfundamental":1998,"Ġdocumented":1999,"anding":2000,"luct":2001,"lations":2002,"uate":2003,"Ġtheoretical":2004,"Ġfluct":2005,"culations":2006,"Ġdioxygen":2007,"Ġchemically":2008,"Ġhence":2009,"idated":2010,"Ġmostly":2011,"Ġnote":2012,"Ġvalidated":2013,"Ġunderstanding":2014,"Ġstudy":2015,"Ġcalculations":2016,"Ġobservations":2017,"Ġfluctuate":2018,"121":2019,"Ġglycolaldehyde":2020,"Ġacce":2021,"Ġwide":2022,"pted":2023,"unity":2024,"Ġcommunity":2025,"Ġaccepted":2026,"Ġwidely":2027,"uce":2028,"Ġparticular":2029,"Ġcontributing":2030,"Ġthereby":2031,"Ġinduce":2032,"Ġtypically":2033,"Ġvery":2034,"onance":2035,"Ġresonance":2036,"ads":2037,"Ġleads":2038,"ĠAlHf":2039,"Ġ42":2040,"methyl":2041,"Ġoccupies":2042,"ty":2043,"Ġrough":2044,"Ġemp":2045,"Ġroughly":2046,"Ġempty":2047,"ter":2048,"Ġtypes":2049,"bd":2050,"lybd":2051,"ĠMolybd":2052,"ĠMolybden":2053,"LU":2054,"Ġlowe":2055,"LUMO":2056,"Ġlowest":2057,"ĠReRe":2058,"Ġdef":2059,"VB":2060,"crib":2061,"des":2062,"Ġaddit":2063,"itable":2064,"ĠMO":2065,"Ġtheories":2066,"ĠUsing":2067,"Ġsuitable":2068,"cribed":2069,"described":2070,"Ġaddition":2071,"nces":2072,"Ġdifferences":2073,"ĠNiSe":2074,"ibit":2075,"ĠNiTa":2076,"ĠCrS":2077,"Ġoccur":2078,"atic":2079,"rost":2080,"Ġelectrost":2081,"Ġelectrostatic":2082,"hibit":2083,"Ġexhibit":2084,"Ġ46":2085,"Acet":2086,"ique":2087,"lel":2088,"allel":2089,"ĠCC":2090,"Ġcarbons":2091,"rial":2092,"Ġparallel":2093,"Ġunique":2094,"Ġindust":2095,"Acetylene":2096,"Ġindustrial":2097,"Ġshow":2098,"duct":2099,"rocarbon":2100,"quent":2101,"Ġhydrocarbon":2102,"hylene":2103,"sequent":2104,"Ġmethylene":2105,"Ġproduct":2106,"Ġcomplex":2107,"Ġsubsequent":2108,"Ġhydrocarbons":2109,"Ġproducts":2110,"ĠScSc":2111,"ĠCaAs":2112,"Ġhybrids":2113,"Ġloc":2114,"Ġpositions":2115,"Ġlocated":2116,"ĠZrZr":2117,"Ġthirteen":2118,"ĠPdPd":2119,"Ġbipyramid":2120,"ĠCuS":2121,"La":2122,"114":2123,"ĠPtPt":2124,"Ġcauses":2125,"ĠNaSe":2126,"Ġmoderately":2127,"109":2128,"be":2129,"mu":2130,"ual":2131,"Ġset":2132,"Ġsens":2133,"itivity":2134,"nges":2135,"ivid":2136,"dies":2137,"Ġprobe":2138,"Ġindivid":2139,"Ġnearly":2140,"Ġscience":2141,"Ġstudies":2142,"Ġchanges":2143,"Ġsets":2144,"Ġsensitivity":2145,"Ġindividual":2146,"CCO":2147,"HNO":2148,"dra":2149,"wing":2150,"with":2151,"Ġcyanide":2152,"Lastly":2153,"drawing":2154,"withdrawing":2155,"Ġ123":2156,"Ġcharacterized":2157,"CHCHO":2158,"Ġphase":2159,"1085":2160,"Ġve":2161,"ctor":2162,"antity":2163,"Ġquantity":2164,"Ġvector":2165,"Ġcreate":2166,"*)":2167,"ctive":2168,"Ġdistin":2169,"Ġacetone":2170,"Ġplanarity":2171,"acetone":2172,"Ġexhibits":2173,"Ġdistinctive":2174,"nal":2175,"Ġlead":2176,"hion":2177,"yne":2178,"Ġfas":2179,"Ġalter":2180,"Ġethyne":2181,"Ġprocess":2182,"Ġchange":2183,"Ġfashion":2184,"Debye":2185,"EP":2186,"Valence":2187,"ind":2188,"pers":2189,"pically":2190,"pulsion":2191,"spers":2192,"ypically":2193,"hell":2194,"lect":2195,"nds":2196,"ondon":2197,"orption":2198,"Ġdispers":2199,"ĠShell":2200,"ĠPair":2201,"ĠTypically":2202,"ĠOne":2203,"Ġdegree":2204,"isorption":2205,"ĠElect":2206,"ĠEthoxy":2207,"Ġdirected":2208,"ĠRepulsion":2209,"uced":2210,"ĠLondon":2211,"Ġdepends":2212,"Ġphysisorption":2213,"Ġcalled":2214,"ĠVSEP":2215,"Ġnitro":2216,"induced":2217,"Ġdispersion":2218,"ĠElectron":2219,"ĠVSEPR":2220,"fluor":2221,"Ġ57":2222,"fluoride":2223,"most":2224,"Ġethen":2225,"Ġalmost":2226,"Ġsymmetric":2227,"Ġethenyl":2228,"te":2229,"cyan":2230,"Ġdiffer":2231,"ased":2232,"Ġcarriers":2233,"cyanide":2234,"ĠFeS":2235,"nged":2236,"Ġethyl":2237,"Ġwhen":2238,"Ġ114":2239,"Ġinteracting":2240,"Ġcancels":2241,"Ġarranged":2242,"Ġundergoes":2243,"Ġoxide":2244,"Ġclusters":2245,"nite":2246,"ĠMoSe":2247,"Ġpolariz":2248,"CCHO":2249,"Ġstrongly":2250,"Ġcomplete":2251,"Ġpolarization":2252,"Ġcompletely":2253,"alf":2254,"Ġhalf":2255,"covalent":2256,"ĠCCHOH":2257,"Ġmetals":2258,"ides":2259,"ĠEthynol":2260,"CCHOH":2261,"Ġcontribute":2262,"Ġpossess":2263,"Ġweaker":2264,"COCHO":2265,"Ġoxides":2266,"ĠIm":2267,"zed":2268,"energy":2269,"Ġest":2270,"alyzed":2271,"CHCO":2272,"imated":2273,"Ġstand":2274,"ĠCHCO":2275,"Ġanalyzed":2276,"Ġmeasures":2277,"ĠAcetyl":2278,"Ġleading":2279,"Ġestimated":2280,"Ġstands":2281,"ĠLav":2282,"ĠAlZr":2283,"adi":2284,"Ġhybridize":2285,"ĠNiS":2286,"ĠMoMo":2287,"arbide":2288,"tra":2289,"Ġwhereas":2290,"Ġrepresented":2291,"Ġenergy":2292,"Ġsubtra":2293,"Ġconsidered":2294,"nitric":2295,"Ġsubtraction":2296,"Ġ76":2297,"ĠCarbon":2298,"muth":2299,"Ġ30":2300,"smuth":2301,"Ġbismuth":2302,"Ġtrifluoride":2303,"Ġ71":2304,"233":2305,"RC":2306,"bo":2307,"eer":2308,"ok":2309,"les":2310,"Ġsour":2311,"revi":2312,"ĠChem":2313,"ĠCRC":2314,"Ġpeer":2315,"ĠPhys":2316,"ournal":2317,"ticles":2318,"ĠHand":2319,"ified":2320,"NHNH":2321,"ĠNHNH":2322,"Ġarticles":2323,"Ġjournal":2324,"ewed":2325,"Ġverified":2326,"book":2327,"Ġsources":2328,"reviewed":2329,"ĠChemistry":2330,"ĠPhysics":2331,"ĠHandbook":2332,"ĠInS":2333,"Ġelectric":2334,"taining":2335,"Ġ75":2336,"oxime":2337,"dioxime":2338,"Ġdimethyl":2339,"Ġpyramidal":2340,"Ġdimethyldioxime":2341,"ĠInSe":2342,"aile":2343,"ĠÃħngstroms":2344,"ĠSin":2345,"ĠHere":2346,"Ġdetaile":2347,"ĠSince":2348,"Ġdetailed":2349,"Ġ73":2350,"nm":2351,"116":2352,"026":2353,"ĠLaves":2354,"ĠNbSi":2355,"ĠPdCu":2356,"420":2357,"Ġcenter":2358,"con":2359,"ĠNbS":2360,"gram":2361,"Ġent":2362,"ĠNN":2363,"ĠNNH":2364,"Ġlocalized":2365,"Ġdiagram":2366,"Ġentire":2367,"281":2368,"472":2369,"cy":2370,"ien":2371,"ome":2372,"omains":2373,"Ġcm":2374,"icien":2375,"Ġ143":2376,"Ġ152":2377,"ĠIso":2378,"Ġformaldehyde":2379,"Ġdomains":2380,"Ġbecome":2381,"Ġrepresents":2382,"propyl":2383,"Ġdeficien":2384,"ĠIsopropyl":2385,"Ġdeficiency":2386,"agn":2387,"esium":2388,"ĠMagn":2389,"ĠMagnesium":2390,"ase":2391,"onating":2392,"Ġbase":2393,"Ġdonating":2394,"ĠLew":2395,"Ġcapable":2396,"ĠLewis":2397,"ork":2398,"Ġfram":2399,"ework":2400,"Ġframework":2401,"Ġnint":2402,"hydroxyethyl":2403,"Ġninth":2404,"uring":2405,"Ġcomprises":2406,"Ġmeasuring":2407,"ĠAuAg":2408,"Ġheav":2409,"Ġheavy":2410,"ĠCuSe":2411,"gation":2412,"ju":2413,"lyoxal":2414,"ĠGlyoxal":2415,"Ġconju":2416,"Ġup":2417,"Ġethanedi":2418,"Ġinclude":2419,"Ġconjugation":2420,"Ġethanedial":2421,"Ġfifteen":2422,"Reg":2423,"arding":2424,"Ġchemistry":2425,"Regarding":2426,"lic":2427,"analdehyde":2428,"Ġreadi":2429,"vement":2430,"Ġmovement":2431,"Ġimplic":2432,"Ġvaries":2433,"COHCHO":2434,"propanaldehyde":2435,"hydroxypropanaldehyde":2436,"Ġreadily":2437,"Ġimplications":2438,"ĠCm":2439,"pla":2440,"Ġali":2441,"OCHCH":2442,"COOCH":2443,"ĠOCHCH":2444,"Ġexpla":2445,"gning":2446,"Ġaligning":2447,"Ġexplained":2448,"ĠNiAs":2449,"yd":2450,"Un":2451,"adsorbate":2452,"fort":2453,"not":2454,"ring":2455,"sist":2456,"Ġ\"":2457,"Ġaccur":2458,"erring":2459,"sted":2460,"ĠIf":2461,"Ġhapp":2462,"Ġname":2463,"Ġreque":2464,"Ġassist":2465,"Ġcannot":2466,"ĠNONH":2467,"NONH":2468,"unately":2469,"Ġreferring":2470,"Unfort":2471,"Ġaccurate":2472,"Ġhappy":2473,"Ġrequested":2474,"Unfortunately":2475,"kite":2476,"ĠPP":2477,"Ġisoc":2478,"yanate":2479,"Ġisocyanate":2480,"Hyd":2481,"pynol":2482,"ĠĠĊ":2483,"roxyacetylene":2484,"Ġpropynol":2485,"Hydroxyacetylene":2486,"ences":2487,"ermine":2488,"Ġhow":2489,"Ġpot":2490,"ential":2491,"ĠDue":2492,"Ġwherein":2493,"mentary":2494,"Ġdetermine":2495,"Ġpossessing":2496,"Ġinfluences":2497,"Ġcomplementary":2498,"Ġcommonly":2499,"Ġconsider":2500,"Ġpotential":2501,"ONH":2502,"picometers":2503,"also":2504,"Ġ142":2505,"pping":2506,"ĠONH":2507,"Ġoverlapping":2508,"Ġall":2509,"Ġethanediol":2510,"alite":2511,"Ġparticipates":2512,"alt":2513,"ĠSalt":2514,"ĠHalite":2515,"ĠRock":2516,"ĠZnS":2517,"Ġ150":2518,"verite":2519,"Ġom":2520,"ega":2521,"Ġomega":2522,"Ġcluster":2523,"ĠTiSi":2524,"ĠPdBi":2525,"Ġlow":2526,"Ġlower":2527,"ĠNaS":2528,"ĠCarbide":2529,"ĠPhase":2530,"ĠPtIn":2531,"pper":2532,"ĠCopper":2533,"ĠNCa":2534,"sure":2535,"Ġ47":2536,"ĠDis":2537,"1186":2538,"ĠNiAl":2539,"ĠAgCd":2540,"107":2541,"ĠScSb":2542,"ĠPdTl":2543,"ung":2544,"sten":2545,"ĠTung":2546,"ĠTungsten":2547,"4âĤĤ":2548,"1216":2549,"ĠAlNi":2550,"ĠDisilicide":2551,"ĠTaNi":2552,"tun":2553,"ĠCotun":2554,"ĠCotunnite":2555,"angstroms":2556,"ked":2557,"nked":2558,"Ġlinked":2559,"Ġrepresenting":2560,"Ġpulled":2561,"Ġcorrespondingly":2562,"ĠAlTa":2563,"NN":2564,"1183":2565,"rical":2566,"Ġmin":2567,"icip":2568,"imiz":2569,"Ġelectrical":2570,"Ġanticip":2571,"Ġrepulsion":2572,"Ġminimiz":2573,"Ġanticipation":2574,"Ġminimizing":2575,"ĠMnAs":2576,"ĠNaTe":2577,"Ġ13":2578,"Ġ48":2579,"Ġtenth":2580,"ĠNiP":2581,"Ġpressure":2582,"ĠMolybdenite":2583,"ĠGaTi":2584,"098":2585,"ĠHY":2586,"ĠAgZn":2587,"ĠMoNi":2588,"Ġrib":2589,"Ġribb":2590,"ĠCHCHOH":2591,"CHCHOH":2592,"ĠIrIr":2593,"âĤģâĤģ":2594,"ĠFluor":2595,"ĠFluorite":2596,"ĠTcTc":2597,"erature":2598,"mperature":2599,"ĠRhSi":2600,"ĠHCa":2601,"ĠPdNb":2602,"ĠTaS":2603,"ĠSbPt":2604,"yrite":2605,"ĠPtSb":2606,"emperature":2607,"Ġari":2608,"Ġtemperature":2609,"react":2610,"Ġunreact":2611,"Ġcompounds":2612,"containing":2613,"Ġpressures":2614,"Ġarise":2615,"Ġtemperatures":2616,"Ġunreactive":2617,"ĠMoS":2618,"Ġ50":2619,"ĠCoCo":2620,"ĠYY":2621,"AX":2622,"ĠMAX":2623,"ĠKK":2624,"ĠFeZr":2625,"ĠGaHf":2626,"NNH":2627,"ĠSY":2628,"ĠSrAs":2629,"nmm":2630,"-),":2631,"ean":2632,"hile":2633,"while":2634,"ngthen":2635,"Ġprom":2636,"Ġdiol":2637,"ĠMean":2638,"Orbitally":2639,"oting":2640,"Ġstrengthen":2641,"Ġactivity":2642,"Ġpromoting":2643,"ĠMeanwhile":2644,"ĠGaNb":2645,"ĠCuAl":2646,"1079":2647,"ĠVSi":2648,"ubic":2649,"ĠTlPd":2650,"ĠBiS":2651,"ĠNiTe":2652,"ĠHex":2653,"ĠHexagonal":2654,"1220":2655,"ĠCrZr":2656,"ĠTlTl":2657,"ĠImmm":2658,"ĠCoP":2659,"1215":2660,"ĠNiNb":2661,"ĠGaZr":2662,"ĠAsCa":2663,"Ġ51":2664,"ĠGaS":2665,"ĠPtTi":2666,"itan":2667,"ĠTitan":2668,"ĠPdHg":2669,"ĠZrSi":2670,"ĠRhV":2671,"ĠTitanium":2672,"ĠPbS":2673,"ĠNHf":2674,"101":2675,"ĠCoGe":2676,"196":2677,"ĠCdCd":2678,"ĠNbGe":2679,"Ġ45":2680,"569":2681,"ĠBiSe":2682,"ĠZnTi":2683,"ĠPdMo":2684,"ĠSnS":2685,"ĠPdZn":2686,"ĠNaAs":2687,"ĠMoAl":2688,"-).":2689,"bil":2690,"ithin":2691,"ĠWithin":2692,"COO":2693,"Ġ90":2694,"Ġcapabil":2695,"Ġcapabilities":2696,"sw":2697,"sil":2698,"ĠCasw":2699,"ĠHfAl":2700,"025":2701,"ellsil":2702,"ĠMolybdenum":2703,"ĠCaswellsil":2704,"ĠCaswellsilverite":2705,"452":2706,"ĠHSr":2707,"ĠFeP":2708,"Ġcentralized":2709,"COHCHOH":2710,"ĠInTe":2711,"102":2712,"ĠPnnm":2713,"based":2714,"gions":2715,"rit":2716,"syl":2717,"omer":2718,"Ġisomer":2719,"ĠHence":2720,"Ġregions":2721,"Ġcharacteristic":2722,"Ġcombine":2723,"Ġnitrite":2724,"nitrit":2725,"Ġnitrosyl":2726,"nitrito":2727,"ĠSp":2728,"ĠAlCu":2729,"ĠCdAs":2730,"âģ»,":2731,"ĠHTi":2732,"ĠFeAs":2733,"ĠInSc":2734,"ĠSeNa":2735,"ĠLa":2736,"Ġbased":2737,"There":2738,"OHNH":2739,"Ġ96":2740,"ĠBiPd":2741,"ĠAlSc":2742,"ĠYS":2743,"ĠSeIn":2744,"ĠWSi":2745,"ĠScAs":2746,"ĠCsCl":2747,"Ġeleventh":2748,"ĠCmmm":2749,"ĠVRh":2750,"ĠZrAl":2751,"ĠSnZr":2752,"ĠTiPt":2753,"ĠCrP":2754,"ĠFd":2755,"Ġion":2756,"omal":2757,"Ġanion":2758,"Ġanomal":2759,"Ġanomalous":2760,"ĠCuTe":2761,"ĠPmm":2762,"ĠHgPd":2763,"ĠKCl":2764,"ĠInZr":2765,"Ġ52":2766,"ĠCrTe":2767,"ĠPtNb":2768,"ĠNiGa":2769,"ĠInTi":2770,"ĠCaP":2771,"ĠAlY":2772,"Ġ54":2773,"ĠAsAs":2774,"ĠNiSi":2775,"ĠRhRu":2776,"ĠHfGa":2777,"ĠSnTe":2778,"ĠSCu":2779,"ĠRuRu":2780,"Ġribbons":2781,"ĠAlS":2782,"ĠSNa":2783,"ĠTiTe":2784,"ĠSnSe":2785,"867":2786,"ĠTaSi":2787,"567":2788,"4âĤģ":2789,"mb":2790,"ĠAmm":2791,"ĠPtAl":2792,"ĠSbTi":2793,"ĠZnAs":2794,"ĠBiTe":2795,"ĠPdSn":2796,"ĠNaCl":2797,"ĠCrSe":2798,"fth":2799,"Ġtwelfth":2800,"1080":2801,"ĠPbc":2802,"ĠCdAg":2803,"ĠInPt":2804,"ĠAgS":2805,"1187":2806,"ĠPtSn":2807,"ĠSrP":2808,"ĠAgSe":2809,"ĠFeSe":2810,"1219":2811,"ĠMnMn":2812,"ĠMoTe":2813,"hat":2814,"rkite":2815,"yrkite":2816,"ĠKhat":2817,"ĠFeFe":2818,"ĠKhatyrkite":2819,"ĠRbTe":2820,"ĠSZn":2821,"ĠAlNb":2822,"ĠRuIr":2823,"ĠCoSi":2824,"ĠPbSe":2825,"ĠGaPt":2826,"mbm":2827,"ero":2828,"skite":2829,"vskite":2830,"ĠPero":2831,"ĠNbPt":2832,"ĠPerovskite":2833,"ĠSiSi":2834,"ĠAlPt":2835,"ĠCaSi":2836,"ĠGaNi":2837,"ĠNbSe":2838,"ĠPtGa":2839,"119":2840,"ĠInSb":2841,"ĠZnPd":2842,"Ġ59":2843,"red":2844,"mnm":2845,"206":2846,"ĠTiGe":2847,"ĠPtAg":2848,"ĠCoZr":2849,"ĠCrAs":2850,"ĠSAg":2851,"ĠNbPd":2852,"ĠOsTa":2853,"ĠCHOCHOH":2854,"CHOCHOH":2855,"ĠSSb":2856,"PbS":2857,"ĠTiN":2858,"1018":2859,"ĠNiSb":2860,"ĠInAu":2861,"ĠRhPt":2862,"ĠGeTe":2863,"ĠMnZr":2864,"ĠCmce":2865,"308":2866,"ĠPyrite":2867,"ĠMoSi":2868,"1224":2869,"ĠPmma":2870,"ĠPSr":2871,"ĠMod":2872,"ĠMoAs":2873,"ĠCdS":2874,"derite":2875,"ĠModderite":2876,"ĠTaGe":2877,"464":2878,"ĠGeSe":2879,"ĠSnHf":2880,"ĠPdTa":2881,"ĠVSe":2882,"ĠCoSb":2883,"Ġ40":2884,"ĠWPd":2885,"1217":2886,"ĠSrN":2887,"ĠNaSb":2888,"1223":2889,"Ġmul":2890,"Ġ15":2891,"tiple":2892,"ĠRhSn":2893,"Ġmultiple":2894,"Ġ18":2895,"ĠCmc":2896,"ĠKS":2897,"ĠFeY":2898,"ĠScSi":2899,"ĠInY":2900,"ĠSeTi":2901,"ĠSnSc":2902,"ĠYGa":2903,"ĠCubic":2904,"ĠIndium":2905,"ĠImma":2906,"ĠSnTi":2907,"ĠWS":2908,"ĠSeCs":2909,"ĠNiCa":2910,"ĠVZr":2911,"ĠZrGa":2912,"ĠAgTe":2913,"ĠPdTi":2914,"ĠCaCa":2915,"ĠPtMo":2916,"ĠAgY":2917,"ĠHfGe":2918,"ĠZnAg":2919,"SbPt":2920,"amd":2921,"ĠMnSi":2922,"112":2923,"ĠZrP":2924,"ONN":2925,"omin":2926,"Ġpred":2927,"ĠONN":2928,"Ġdistance":2929,"antly":2930,"Ġmethane":2931,"Ġdefined":2932,"ominantly":2933,"Ġpredominantly":2934,"ĠVV":2935,"ĠKSe":2936,"ĠPbTe":2937,"ĠSIn":2938,"ĠGaSe":2939,"Ġ63":2940,"ĠFeTa":2941,"ĠNbGa":2942,"ĠSrSi":2943,"ĠSPb":2944,"ĠPtTe":2945,"ĠCuZn":2946,"ĠAgAu":2947,"ONNH":2948,"sary":2949,"Ġretaining":2950,"cessary":2951,"ĠONNH":2952,"Ġ105":2953,"ĠScGa":2954,"222":2955,"Ġnecessary":2956,"Ġobserved":2957,"ĠCaSb":2958,"ĠYAg":2959,"ĠTaPd":2960,"ĠPdAs":2961,"ĠAsSr":2962,"ĠWTe":2963,"ĠCoS":2964,"ĠNbN":2965,"1184":2966,"ĠNSr":2967,"ĠRhMo":2968,"ĠWIr":2969,"ĠZnP":2970,"ĠPCa":2971,"ĠSnRh":2972,"ĠTaTa":2973,"ĠPmmn":2974,"ĠPdAg":2975,"ĠAgAl":2976,"ĠCdTi":2977,"1188":2978,"570":2979,"cble":2980,"hale":2981,"nde":2982,"ĠZin":2983,"ĠZrIn":2984,"ĠYIn":2985,"ĠYSi":2986,"12âĤģ":2987,"ĠSphale":2988,"cblende":2989,"ĠZincblende":2990,"ĠSphalerite":2991,"cas":2992,"arcas":2993,"ĠMarcas":2994,"ĠMnN":2995,"ĠMarcasite":2996,"ĠNiGe":2997,"ĠNiHf":2998,"ĠCuHf":2999,"Ġthirteenth":3000,"ĠGaY":3001,"ĠMnGe":3002,"ĠCh":3003,"ĠRhGe":3004,"ĠAsTe":3005,"1221":3006,"ĠMnP":3007,"ĠSiP":3008,"ĠZnSe":3009,"ĠIrNb":3010,"ĠOsP":3011,"tz":3012,"urtz":3013,"ĠTiPd":3014,"ĠSbTe":3015,"ĠWurtz":3016,"ĠCdHf":3017,"ĠWurtzite":3018,"ĠScGe":3019,"ĠAuSn":3020,"ĠNaBi":3021,"SnS":3022,"ĠGaTe":3023,"ĠPa":3024,"ircon":3025,"ĠZircon":3026,"ĠNiTi":3027,"ĠNbNi":3028,"ĠScSn":3029,"100":3030,"1078":3031,"ĠHgK":3032,"ĠPtZn":3033,"ĠTeGe":3034,"ĠSnY":3035,"ĠCoSe":3036,"ĠCoAs":3037,"Ġfourteenth":3038,"ĠRhTe":3039,"Cubic":3040,"man":3041,"ĠGaSc":3042,"ĠCSi":3043,"Ġ43":3044,"alco":3045,"ĠCc":3046,"ĠRhRh":3047,"ĠCoV":3048,"ĠChalco":3049,"ĠSiC":3050,"ĠRhGa":3051,"ĠRhS":3052,"ĠCoNb":3053,"ĠCrTa":3054,"ĠIrTe":3055,"ĠMnS":3056,"ĠCoY":3057,"ĠInNa":3058,"ĠSeBi":3059,"ĠYSn":3060,"ĠRhZn":3061,"ĠAuIn":3062,"ĠPbam":3063,"ĠZirconium":3064,"ĠRhAs":3065,"ĠBiBi":3066,"averite":3067,"alaverite":3068,"ĠCalaverite":3069,"ĠWCo":3070,"ĠRhNb":3071,"ĠSbSe":3072,"ĠZrSb":3073,"ĠIrRe":3074,"ĠTeIn":3075,"ĠGeS":3076,"ĠZnZr":3077,"ĠRbS":3078,"pyrite":3079,"atlock":3080,"dium":3081,"ĠMatlock":3082,"ĠSeY":3083,"ĠRuTa":3084,"ĠChalcopyrite":3085,"ĠMatlockite":3086,"ĠNZr":3087,"ĠSnPd":3088,"Ġ64":3089,"Ġfifteenth":3090,"ĠSSr":3091,"ĠTaN":3092,"ĠClK":3093,"ĠPZn":3094,"1007":3095,"ĠRbRb":3096,"ĠCdTe":3097,"ĠCoTa":3098,"ĠSNi":3099,"ĠSBi":3100,"ĠSeK":3101,"ĠScHf":3102,"inel":3103,"ĠSpinel":3104,"ĠNNb":3105,"ĠWN":3106,"Ġcuboctahedral":3107,"ĠMoZr":3108,"anite":3109,"ĠZnY":3110,"PS":3111,"ĠNTi":3112,"ĠPtRh":3113,"ĠOsRe":3114,"ĠTaTe":3115,"Ġ20":3116,"ĠNaP":3117,"ĠCuTi":3118,"ĠNbAl":3119,"ĠVN":3120,"ĠSnCu":3121,"ĠGeNi":3122,"ĠFeSi":3123,"ĠAuAu":3124,"ĠRuCu":3125,"ĠPbY":3126,"ĠAlSe":3127,"Ġsevent":3128,"Ġ53":3129,"Ġseventeen":3130,"prim":3131,"ĠPdV":3132,"ĠTeBi":3133,"ĠCuSc":3134,"prime":3135,"ĠHfN":3136,"ĠPtNa":3137,"ĠTiP":3138,"106":3139,"SnSe":3140,"Heusler":3141,"ĠFeSb":3142,"ia":3143,"Ġvia":3144,"ĠFdd":3145,"ĠCHOHCHOH":3146,"CHOHCHOH":3147,"Ġtetrabor":3148,"ĠSePb":3149,"11869":3150,"Ġtetraboride":3151,"ĠSCo":3152,"ĠScP":3153,"Ġ41":3154,"ĠTiGa":3155,"ĠNbIr":3156,"132":3157,"ĠAlGe":3158,"ĠGaRh":3159,"ĠTaOs":3160,"ĠGeCu":3161,"11860":3162,"ĠSTl":3163,"204":3164,"ĠSiTi":3165,"ĠAsNi":3166,"ĠRuAs":3167,"Ġcarbide":3168,"ĠMoHf":3169,"ĠTiAs":3170,"108":3171,"GeTe":3172,"ĠCaCl":3173,"ĠSiS":3174,"ĠRhSb":3175,"ĠRhRe":3176,"Ġribbon":3177,"ĠInIn":3178,"ĠIrMo":3179,"ĠPAg":3180,"ĠGaAs":3181,"ĠSrGe":3182,"568":3183,"ĠAgNa":3184,"eta":3185,"ĠImm":3186,"ĠNbRh":3187,"ĠBiHf":3188,"ĠPbTl":3189,"Ġcad":3190,"Ġgol":3191,"mium":3192,"ĠRhIn":3193,"ĠCrNb":3194,"MoS":3195,"ĠHgNa":3196,"Ġcadmium":3197,"Ġgold":3198,"SeS":3199,"ĠYSe":3200,"ĠTeTe":3201,"ĠRhP":3202,"Ġ56":3203,"ĠTlCa":3204,"zeta":3205,"Ġzeta":3206,"Ġiron":3207,"ĠNY":3208,"ĠPtCd":3209,"ĠSnNi":3210,"1025":3211,"ĠRbCl":3212,"ĠPSn":3213,"ĠAlP":3214,"ĠCaS":3215,"ĠZrS":3216,"ĠClRb":3217,"ĠPNa":3218,"ĠAlN":3219,"ĠYTe":3220,"ĠCuPd":3221,"ĠZnTa":3222,"ĠIb":3223,"ĠPS":3224,"ĠPdMn":3225,"ĠNMn":3226,"ĠHfSb":3227,"TeSe":3228,"ĠAlAs":3229,"ĠPdHf":3230,"ĠHfPd":3231,"ĠIrSi":3232,"ĠPbcn":3233,"ĠIbam":3234,"ĠNiY":3235,"ĠTeSn":3236,"ĠSnAu":3237,"CaSi":3238,"ĠSV":3239,"ĠSRu":3240,"ĠInAs":3241,"ĠPdNa":3242,"TiS":3243,"ĠTcAl":3244,"ĠPtGe":3245,"ĠSrPb":3246,"ĠWSe":3247,"113":3248,"Ġsixteenth":3249,"ĠTeAg":3250,"ĠNbNb":3251,"ĠSrIn":3252,"ĠScAl":3253,"ĠZnHf":3254,"ĠPbPd":3255,"303":3256,"lac":3257,"Ġblac":3258,"ĠSK":3259,"ĠSTi":3260,"ĠGaV":3261,"ĠGaGa":3262,"ĠPtV":3263,"ZnS":3264,"ĠCdSb":3265,"10180":3266,"Ġblack":3267,"ĠCaTl":3268,"ĠNaIn":3269,"ĠRuPt":3270,"ĠCaAg":3271,"ĠCoHf":3272,"ĠIrTa":3273,"ĠPdZr":3274,"ĠGaN":3275,"ĠYAl":3276,"220":3277,"974":3278,"ĠTeCd":3279,"ĠScAg":3280,"ĠHgHf":3281,"ĠAlAg":3282,"ĠCaSe":3283,"ĠMoPt":3284,"ĠCdNa":3285,"ĠWAl":3286,"11847":3287,"ĠSiZr":3288,"ĠMoCo":3289,"PbSe":3290,"212":3291,"ĠSSn":3292,"ĠNiZn":3293,"ĠSbRb":3294,"ĠAgCa":3295,"ĠCdAu":3296,"ĠHgTi":3297,"304":3298,"ĠRhSe":3299,"124":3300,"115":3301,"ĠHfAu":3302,"ĠTaRu":3303,"ĠAgTi":3304,"ĠAuCu":3305,"SrSn":3306,"12243":3307,"ĠInP":3308,"ĠAsZn":3309,"ĠVCo":3310,"1225":3311,"adium":3312,"ĠVPd":3313,"ĠVTe":3314,"ĠGeGe":3315,"ĠCrAl":3316,"ĠCdSe":3317,"ellur":3318,"âģ¸":3319,"ĠSam":3320,"ĠCuRu":3321,"ĠZnNb":3322,"ĠMnSe":3323,"arium":3324,"ĠSamarium":3325,"ĠSt":3326,"ĠPFe":3327,"ĠCuZr":3328,"ĠSbNi":3329,"ĠCrTi":3330,"1229":3331,"ĠRuSb":3332,"ĠClNa":3333,"ĠPbca":3334,"973":3335,"âĤģâĤĥ":3336,"ĠNiZr":3337,"InSe":3338,"ĠTaAl":3339,"tact":3340,"rotact":3341,"ĠProtact":3342,"ĠTiZn":3343,"inium":3344,"ĠHfCu":3345,"ĠScIn":3346,"ĠKHg":3347,"ĠHgTe":3348,"ĠProtactinium":3349,"Ġ17":3350,"ĠZrSe":3351,"dite":3352,"kut":3353,"udite":3354,"ĠSkut":3355,"ĠNTa":3356,"ĠPo":3357,"ĠAlTe":3358,"ĠAgSc":3359,"NiAs":3360,"Ġ68":3361,"ĠAuTe":3362,"GeSe":3363,"865":3364,"terudite":3365,"ĠSkutterudite":3366,"ĠPCo":3367,"ĠCdCa":3368,"MoSe":3369,"ĠNbTe":3370,"127":3371,"SrIn":3372,"ĠPc":3373,"ĠHfP":3374,"ĠAuRb":3375,"+,":3376,"305":3377,"WS":3378,"gite":3379,"nar":3380,"âĤģâĤĨ":3381,"ĠZrGe":3382,"ĠPtRu":3383,"ĠTaIr":3384,"ĠEnar":3385,"ĠEnargite":3386,"ĠSrSb":3387,"105":3388,"166":3389,"133":3390,"ĠTiIr":3391,"ĠHfAs":3392,"ĠSiCu":3393,"ĠSeRb":3394,"422":3395,"306":3396,"odium":3397,"sen":3398,"ĠSodium":3399,"ĠInRh":3400,"ĠHNa":3401,"ĠHfSi":3402,"ĠZrTe":3403,"Ġarsen":3404,"Ġarsenide":3405,"Pa":3406,"ĠWP":3407,"ĠIrP":3408,"ĠIrAs":3409,"ĠIrTi":3410,"117":3411,"Ġgam":3412,"ĠNV":3413,"ĠCaGe":3414,"ĠCuP":3415,"ĠAuCd":3416,"ĠTlCl":3417,"862":3418,"Ġgamma":3419,"ĠPbCl":3420,"CaZn":3421,"ĠPtNi":3422,"ĠZnN":3423,"ĠMnPd":3424,"ĠMnTe":3425,"296":3426,"bnite":3427,"oride":3428,"ĠCNb":3429,"ĠSti":3430,"ĠInSr":3431,"ĠAlCa":3432,"ĠHigh":3433,"ĠHfPt":3434,"ĠYGe":3435,"ĠScCu":3436,"ĠPNaP":3437,"ĠStibnite":3438,"onium":3439,"âģ·":3440,"ĠRuSi":3441,"ĠIrV":3442,"ĠTcP":3443,"136":3444,"side":3445,"Ġinside":3446,"Ġ19":3447,"ĠPSi":3448,"ĠSiN":3449,"1077":3450,"ĠMnTa":3451,"ĠPmc":3452,"12154":3453,"ĠPY":3454,"ĠScBi":3455,"ĠSbSbPt":3456,"ĠTaAs":3457,"Ġ65":3458,"ĠRbAu":3459,"1189":3460,"ĠFmmm":3461,"866":3462,"167":3463,"vc":3464,"ĠNiCr":3465,"ĠBerg":3466,"ĠNbAs":3467,"103":3468,"1105":3469,"ĠBergman":3470,"Ġ31":3471,"ĠZnRh":3472,"ĠTlS":3473,"CaCl":3474,"ĠFddd":3475,"rthorhombic":3476,"ĠCW":3477,"ĠAlSi":3478,"ĠOrthorhombic":3479,"ĠCuNi":3480,"ĠNbP":3481,"ĠScN":3482,"ĠTaP":3483,"ĠMoP":3484,"NiS":3485,"ĠCdP":3486,"ĠCaPb":3487,"AlSi":3488,"ĠCuTa":3489,"ĠVPt":3490,"ĠSrS":3491,"ĠRuRe":3492,"ĠHgSe":3493,"ĠPRe":3494,"ĠCoTe":3495,"CuAl":3496,"ĠHZr":3497,"Ġ39":3498,"ĠPdSi":3499,"ĠPdGe":3500,"ĠTeNa":3501,"ĠIrRu":3502,"ĠReSe":3503,"307":3504,"ement":3505,"ĠCement":3506,"ĠAlH":3507,"ĠTeAs":3508,"ĠSAgBi":3509,"ĠCementite":3510,"sanite":3511,"ĠCAl":3512,"ĠSRb":3513,"ĠAlMn":3514,"ĠHfS":3515,"ĠMois":3516,"SbTe":3517,"503":3518,"ĠMoissanite":3519,"mvc":3520,"ĠSiAs":3521,"ĠSnNb":3522,"ĠFeTi":3523,"505":3524,"979":3525,"ĠCaSn":3526,"ĠZrN":3527,"SiS":3528,"ĠAsGa":3529,"ĠRhAl":3530,"156":3531,"ĠOsMn":3532,"ĠAsAsIr":3533,"ĠPIn":3534,"ĠSeCd":3535,"ĠFeHf":3536,"ĠTcGa":3537,"983":3538,"ĠZrAs":3539,"ĠZnSr":3540,"1067":3541,"12180":3542,"KHg":3543,"ĠPK":3544,"ĠSiFe":3545,"ĠSeCa":3546,"ĠCuAu":3547,"$\\":3548,"Kas":3549,"Ġ$\\":3550,"ĠPmmm":3551,"ĠTePb":3552,"ĠSrBi":3553,"ĠSnAs":3554,"ĠCdY":3555,"1120":3556,"ĠFran":3557,"Kasper":3558,"ĠFrank":3559,"ĠNRe":3560,"ĠInCl":3561,"ĠPN":3562,"ĠHaus":3563,"ĠSbSr":3564,"1009":3565,"ĠRuRh":3566,"NbS":3567,"mannite":3568,"ĠStructure":3569,"ĠHausmannite":3570,"ĠAlRh":3571,"Ġ35":3572,"SnPt":3573,"123":3574,"1185":3575,"229":3576,"755":3577,"Ġ22":3578,"ĠPtMn":3579,"ĠSeCr":3580,"ĠSbIn":3581,"ĠIrGe":3582,"CoAs":3583,"ĠAsAsRh":3584,"573":3585,"971":3586,"YAg":3587,"orund":3588,"ĠCorund":3589,"ĠPdNi":3590,"ĠSrSn":3591,"ĠScTe":3592,"ĠZnSb":3593,"SnSb":3594,"ĠCorundum":3595,"ĠRhZr":3596,"ĠWPt":3597,"691":3598,"tor":3599,"ittor":3600,"ĠPTc":3601,"ĠHittor":3602,"ĠNiFe":3603,"202":3604,"ĠZrCl":3605,"InS":3606,"ĠYCd":3607,"PbCl":3608,"1207":3609,"10786":3610,"ĠHittorf":3611,"186":3612,"ĠTiCl":3613,"1023":3614,"ĠRuTc":3615,"152":3616,"10253":3617,"ĠAlPd":3618,"ĠTiCo":3619,"1218":3620,"Ġ78":3621,"544":3622,"ĠHgSc":3623,"1206":3624,"1102":3625,"ĠNFe":3626,"ĠPHf":3627,"ĠHRb":3628,"âĤģâĤħ":3629,"Ġ37":3630,"ĠPdIn":3631,"ĠSiY":3632,"ĠCuCl":3633,"ĠTaCu":3634,"ĠKAs":3635,"ĠGeV":3636,"ĠFeSc":3637,"SnTe":3638,"ZrRh":3639,"ĠCdCl":3640,"CoGe":3641,"ĠTiRh":3642,"ĠNaH":3643,"ĠNaHg":3644,"ĠVP":3645,"GeS":3646,"Ġ77":3647,"ĠIrSb":3648,"ĠPmn":3649,"11880":3650,"280":3651,"221":3652,"WTe":3653,"ĠSCr":3654,"olonium":3655,"ĠPolonium":3656,"ĠSeAg":3657,"ĠCuY":3658,"ĠBiTl":3659,"ĠPbSc":3660,"1180":3661,"ĠReN":3662,"ĠCaHg":3663,"ĠHfZn":3664,"ĠScCd":3665,"NiSi":3666,"SbS":3667,"1209":3668,"310":3669,"ĠNAl":3670,"ĠTiCu":3671,"ĠSeSn":3672,"104":3673,"NiGa":3674,"ĠRuN":3675,"ĠPbHf":3676,"ĠCdSc":3677,"NaIn":3678,"730":3679,"11846":3680,"ĠSRh":3681,"ĠSilic":3682,"ĠInPd":3683,"ĠTiMo":3684,"ĠCaH":3685,"ĠCrHf":3686,"ĠCdPt":3687,"ĠClCs":3688,"CaAu":3689,"227":3690,"861":3691,"ĠSilicon":3692,"210":3693,"ĠPTi":3694,"RhSi":3695,"502":3696,"213":3697,"8655":3698,"12267":3699,"ĠSeGe":3700,"ĠSrZn":3701,"ĠSnSbPt":3702,"ĠSbSnPt":3703,"TiPd":3704,"RuSi":3705,"CrS":3706,"GPa":3707,"ĠSNb":3708,"anadium":3709,"ĠAlSb":3710,"209":3711,"ĠVanadium":3712,"ĠSrSr":3713,"ĠZnNi":3714,"ĠSbRh":3715,"ĠTaGa":3716,"223":3717,"1103":3718,"Ġnitride":3719,"685":3720,"fore":3721,"gge":3722,"mon":3723,"Ġamon":3724,"Ġext":3725,"ernal":3726,"sts":3727,"ĠMeth":3728,"203":3729,"ĠGaSb":3730,"ĠYBi":3731,"ĠAsIn":3732,"ĠVIr":3733,"SbSe":3734,"AgZn":3735,"675":3736,"5708":3737,"972":3738,"Ġtherefore":3739,"Ġsugge":3740,"Ġamong":3741,"Ġexternal":3742,"ĠMethane":3743,"Ġsuggests":3744,"ĠSFe":3745,"ĠAlSr":3746,"ĠPtSi":3747,"ĠSeAs":3748,"ĠCuSn":3749,"PtGe":3750,"1096":3751,"111":3752,"BiSe":3753,"TaS":3754,"459":3755,"977":3756,"291":3757,"ĠPZr":3758,"AlGe":3759,"ĠGaP":3760,"ĠZrZn":3761,"ĠSnP":3762,"TiAl":3763,"1008":3764,"1072":3765,"GaGe":3766,"ĠRuZn":3767,"ĠFmm":3768,"Ġseventeenth":3769,"ĠSiCa":3770,"ĠAsZr":3771,"ĠScCl":3772,"CuS":3773,"NaHg":3774,"526":3775,"SrAu":3776,"813":3777,"10799":3778,"989":3779,"ĠTiAu":3780,"ĠAsHf":3781,"ĠAgIn":3782,"NiSe":3783,"NiSb":3784,"ĠTlSe":3785,"159":3786,"473":3787,"Ġdiamond":3788,"rd":3789,"ĠSCd":3790,"ĠInAg":3791,"Ġ33":3792,"ĠPdTe":3793,"ĠZrHf":3794,"ĠRhTi":3795,"ĠGeSr":3796,"ĠAgP":3797,"CuTe":3798,"RhSn":3799,"ĠRuY":3800,"CoSi":3801,"12289":3802,"ĠPAl":3803,"ĠZrPd":3804,"ĠYSb":3805,"ĠKTe":3806,"125":3807,"ĠRuS":3808,"165":3809,"8653":3810,"999":3811,"-,":3812,"ĠSSc":3813,"ĠCaAu":3814,"ĠSiNb":3815,"ĠAsTi":3816,"ĠNbSb":3817,"ĠSnCl":3818,"ĠSbSb":3819,"ĠCoTi":3820,"NiP":3821,"ĠCrN":3822,"938":3823,"700":3824,"11845":3825,"'{":3826,"216":3827,"\\'{":3828,"ĠAlV":3829,"arevi":3830,"ĠCaTe":3831,"ĠHfSe":3832,"ĠSiV":3833,"AsSe":3834,"ĠWAs":3835,"1227":3836,"ĠRuSe":3837,"AuAg":3838,"163":3839,"8654":3840,"ĠOsRu":3841,"ĠLavarevi":3842,"188":3843,"274":3844,"571":3845,"YPd":3846,"nium":3847,"lenium":3848,"eteen":3849,"Ġnin":3850,"Ġ36":3851,"ĠIrTc":3852,"HfIr":3853,"672":3854,"6722":3855,"699":3856,"ĠCsCs":3857,"214":3858,"Ġnineteen":3859,"279":3860,"311":3861,"lm":3862,"Ġtellur":3863,"enite":3864,"ĠIlm":3865,"ĠCuSi":3866,"AsP":3867,"ĠSnSr":3868,"ĠMoCl":3869,"GaAs":3870,"12153":3871,"Ġtelluride":3872,"ĠIlmenite":3873,"ĠPdTc":3874,"ĠNiMn":3875,"ĠZnPt":3876,"NiAl":3877,"Ġ66":3878,"092":3879,"RhS":3880,"ĠPbPb":3881,"889":3882,"CrSi":3883,"828":3884,"11879":3885,"ĠAsAsRu":3886,"ĠTiNb":3887,"ĠPtCo":3888,"ĠGeN":3889,"Ġ69":3890,"SnCl":3891,"129":3892,"CaPd":3893,"151":3894,"8647":3895,"YSn":3896,"oron":3897,"inum":3898,"ĠNiCu":3899,"ĠTeY":3900,"ĠVNb":3901,"ĠSnSn":3902,"ĠSnAg":3903,"ĠSbAg":3904,"1247":3905,"CuGa":3906,"ĠTlZr":3907,"CoP":3908,"692":3909,"uminum":3910,"555":3911,"224":3912,"ScRh":3913,"SrZn":3914,"ĠPPRh":3915,"ĠPtSnSb":3916,"247":3917,"ta":3918,"ĠBoride":3919,"ĠScS":3920,"800":3921,"ĠIrZn":3922,"549":3923,"932":3924,"758":3925,"460":3926,"976":3927,"139":3928,"Ġdelta":3929,"118605":3930,"484":3931,"509":3932,"975":3933,"ĠNiSc":3934,"ĠSeMn":3935,"ĠMnSb":3936,"678":3937,"169":3938,"BiS":3939,"CdAs":3940,"MnAl":3941,"739":3942,"10942":3943,"140":3944,"211":3945,"893":3946,"Ġboron":3947,"ĠSeZn":3948,"ĠSelenium":3949,"ĠSbCo":3950,"ĠAgHf":3951,"ĠAuZn":3952,"ĠCrNi":3953,"ĠMnSc":3954,"670":3955,"676":3956,"Ġeighteenth":3957,"179":3958,"283":3959,"VS":3960,"Ġ38":3961,"ĠGaTa":3962,"ĠZnCu":3963,"ĠWNi":3964,"ĠKSb":3965,"GaSi":3966,"126":3967,"CuSe":3968,"ĠRuP":3969,"ĠRuFe":3970,"541":3971,"434":3972,"NaCl":3973,"ĠReZr":3974,"198":3975,"11032":3976,"Ġ34":3977,"ĠZrH":3978,"FeSi":3979,"PdBi":3980,"SiC":3981,"ĠSbCu":3982,"GaAl":3983,"ĠAuCa":3984,"SnP":3985,"ĠMnZn":3986,"ĠClSr":3987,"CaCu":3988,"714":3989,"8627":3990,"9989":3991,"Er":3992,"cor":3993,"eving":3994,"ror":3995,"tri":3996,"âĤĤâĤĢ":3997,"Ġrecor":3998,"Ġretri":3999,"Ġtetrafluoride":4000,"ĠSeSb":4001,"PdSn":4002,"ĠAsSb":4003,"ĠVRu":4004,"ĠRhY":4005,"ĠSbAs":4006,"ĠKP":4007,"GaSe":4008,"GaSb":4009,"695":4010,"CdTe":4011,"155":4012,"TaRu":4013,"ĠTcAs":4014,"SrCd":4015,"ĠOsOs":4016,"9743":4017,"994":4018,"12216":4019,"12288":4020,"Ġoccurred":4021,"NNCH":4022,"Error":4023,"Ġrecord":4024,"Ġretrieving":4025,"142":4026,"322":4027,"WSe":4028,"ĠPres":4029,"ĠTellur":4030,"AlH":4031,"ĠHfNi":4032,"ĠSiHf":4033,"ĠNbC":4034,"TiSe":4035,"ĠMoN":4036,"1029":4037,"1228":4038,"ĠMnV":4039,"ĠRuMo":4040,"ĠRuOs":4041,"HfPd":4042,"ZrGa":4043,"AuTe":4044,"074":4045,"850":4046,"BiAs":4047,"199":4048,"5716":4049,"6043":4050,"ĠPna":4051,"8673":4052,"ĠPressure":4053,"ĠTellurium":4054,"313":4055,"ĠSHf":4056,"acd":4057,"ĠHTa":4058,"ĠNaAu":4059,"ĠSeRu":4060,"AsS":4061,"ĠSrCl":4062,"ĠZnTe":4063,"10955":4064,"1246":4065,"ĠMnHf":4066,"AgCd":4067,"AuSn":4068,"1179":4069,"CoS":4070,"539":4071,"698":4072,"CaHg":4073,"ĠReOs":4074,"TcAl":4075,"12053":4076,"12189":4077,"980":4078,"YRh":4079,"Ġ80":4080,"ĠSiSe":4081,"ĠVAs":4082,"ĠSrTl":4083,"ĠAgCl":4084,"SbAs":4085,"ĠIrY":4086,"ĠIrSe":4087,"ĠPbCa":4088,"1178":4089,"961":4090,"ĠReS":4091,"8649":4092,"024":4093,"ĠOsSi":4094,"OsSi":4095,"849":4096,"12067":4097,"Phase":4098,"YTe":4099,"ĠSeCo":4100,"ĠYZn":4101,"ĠYAu":4102,"PdH":4103,"ĠVTa":4104,"ĠSnV":4105,"ĠSbTl":4106,"TiMo":4107,"ĠCrRh":4108,"Ġ79":4109,"ĠTlSc":4110,"162":4111,"PbTe":4112,"228":4113,"717":4114,"ĠOsTc":4115,"657":4116,"5706":4117,"12260":4118,"ĠAsCaAs":4119,"ĠAsSrAs":4120,"985":4121,"YGa":4122,"ĠTiNi":4123,"uctor":4124,"conductor":4125,"ĠZrCu":4126,"InP":4127,"ĠYN":4128,"TiSi":4129,"PtZn":4130,"Ġ67":4131,"546":4132,"673":4133,"CoSe":4134,"CoTe":4135,"164":4136,"perconductor":4137,"RuIr":4138,"CaNi":4139,"SrP":4140,"5705":4141,"Ġsuperconductor":4142,"1104":4143,"10142":4144,"11207":4145,"643":4146,"Ġ29":4147,"AlP":4148,"ĠSeCu":4149,"ZnAl":4150,"ZrIn":4151,"CaPt":4152,"478":4153,"894":4154,"895":4155,"RbSb":4156,"11867":4157,"12179":4158,"10252":4159,"ĠPFeP":4160,"273":4161,"YCu":4162,"ĠSAl":4163,"ĠMg":4164,"FeS":4165,"802":4166,"ĠZnMn":4167,"ĠFeNb":4168,"ĠAuNa":4169,"ZnIn":4170,"336":4171,"421":4172,"ĠCsS":4173,"ScSn":4174,"CrFe":4175,"628":4176,"328":4177,"10804":4178,"ĠGeGePt":4179,"Ġnineteenth":4180,"Ġmp":4181,"ĠSHg":4182,"ĠSiNi":4183,"SiAs":4184,"ĠAsFe":4185,"ĠTaZn":4186,"ĠAuTi":4187,"128":4188,"ZnP":4189,"ĠBiCa":4190,"ĠRuV":4191,"HfPt":4192,"1193":4193,"531":4194,"857":4195,"ĠHgS":4196,"5710":4197,"11040":4198,"12172":4199,"ĠPPIr":4200,"12203":4201,"ĠPdAsPd":4202,"ĠCaZn":4203,"ĠSnSb":4204,"GaS":4205,"NiTe":4206,"ĠBiGa":4207,"1190":4208,"IrV":4209,"504":4210,"NaAu":4211,"ĠReP":4212,"559":4213,"ScHf":4214,"471":4215,"713":4216,"SrCl":4217,"514":4218,"137":4219,"998":4220,"1205":4221,"12157":4222,"PSe":4223,"ĠCV":4224,"ĠInNi":4225,"ĠPdAl":4226,"ĠPtRe":4227,"PdAu":4228,"ĠSnPt":4229,"ĠMoPd":4230,"ĠMoRu":4231,"1214":4232,"ĠMnAl":4233,"ĠMnOs":4234,"Ġ70":4235,"HfS":4236,"HfSb":4237,"CoGa":4238,"697":4239,"CaTl":4240,"158":4241,"TlP":4242,"10181":4243,"ĠPbcm":4244,"ĠPKP":4245,"134":4246,"289":4247,"xSn":4248,"Ġiri":4249,"ĠCMo":4250,"ĠAlC":4251,"ĠCaCd":4252,"205":4253,"ĠSrH":4254,"ĠRhTc":4255,"ĠSbBi":4256,"1070":4257,"ĠGeMo":4258,"ĠGeMn":4259,"ZnGa":4260,"1199":4261,"435":4262,"Ġvanadium":4263,"423":4264,"MoAs":4265,"RuRh":4266,"CaIn":4267,"404":4268,"837":4269,"829":4270,"10779":4271,"10795":4272,"Ġiridium":4273,"215":4274,"ĠSCa":4275,"Ġ21":4276,"208":4277,"ĠPtFe":4278,"ĠSeRh":4279,"ĠTeSb":4280,"803":4281,"804":4282,"ĠSbCa":4283,"TiH":4284,"ĠMoZn":4285,"ĠAgPt":4286,"ĠRuNi":4287,"CoSn":4288,"CaCd":4289,"525":4290,"SrGe":4291,"ĠOsAs":4292,"TlPb":4293,"834":4294,"978":4295,"131":4296,"12171":4297,"12163":4298,"170":4299,"288":4300,"825":4301,"9813":4302,"YIn":4303,"fide":4304,"Ġsul":4305,"ĠPNi":4306,"200":4307,"ĠYPt":4308,"ĠTeSe":4309,"ĠRhCr":4310,"1057":4311,"GaTe":4312,"GaSn":4313,"094":4314,"ĠBiSr":4315,"ZrSi":4316,"545":4317,"331":4318,"501":4319,"TaFe":4320,"ĠTcZn":4321,"745":4322,"749":4323,"644":4324,"Ġindium":4325,"12159":4326,"Ġsulfide":4327,"171":4328,"607":4329,"KSb":4330,"vanite":4331,"ĠSZr":4332,"ĠSMn":4333,"ĠPGa":4334,"ĠAlMo":4335,"ĠAlCl":4336,"ĠAluminum":4337,"ĠNiPd":4338,"ĠZrHg":4339,"ĠPtPd":4340,"ĠYP":4341,"FeSe":4342,"ĠZnV":4343,"ĠAuPd":4344,"ZnSe":4345,"ĠMnCa":4346,"CuSn":4347,"ZrTe":4348,"AuCd":4349,"ĠCdPd":4350,"1652":4351,"ĠHgHg":4352,"8646":4353,"130":4354,"12066":4355,"12073":4356,"11043":4357,"10954":4358,"153":4359,"YZn":4360,"ieth":4361,"nc":4362,"ĠNZn":4363,"âĤģâĤī":4364,"PdTe":4365,"PdCu":4366,"ĠZnAu":4367,"ĠGeNb":4368,"ĠAuNb":4369,"ĠCrSi":4370,"1245":4371,"1226":4372,"CoSb":4373,"693":4374,"IrSn":4375,"CaH":4376,"CaSn":4377,"ĠReCo":4378,"474":4379,"659":4380,"Ġtwentieth":4381,"900":4382,"12077":4383,"1106":4384,"10255":4385,"ĠPAgP":4386,"173":4387,"297":4388,"ĠNSc":4389,"ĠRut":4390,"ĠGaCl":4391,"ĠSiPt":4392,"ĠSiMn":4393,"ĠCuSb":4394,"ĠNbTi":4395,"ĠNbZn":4396,"ĠAuSr":4397,"ĠMnPt":4398,"ĠOHNNCH":4399,"42âĤģ":4400,"IrTe":4401,"IrGe":4402,"RuSb":4403,"CaAs":4404,"157":4405,"ĠTcHf":4406,"SrAs":4407,"SrPt":4408,"627":4409,"MnP":4410,"TlCl":4411,"9723":4412,"ĠRutile":4413,"180":4414,"282":4415,"ĠSCs":4416,"FeSb":4417,"SiP":4418,"ĠZnCa":4419,"ĠKIn":4420,"ĠCrCr":4421,"Ġ72":4422,"RuAl":4423,"CdS":4424,"ScGa":4425,"ScCu":4426,"935":4427,"MnGe":4428,"735":4429,"138":4430,"11020":4431,"12247":4432,"12244":4433,"5703":4434,"ss":4435,"ĠHK":4436,"ĠSbAl":4437,"PtGa":4438,"1063":4439,"GaN":4440,"SnAs":4441,"437":4442,"CoAl":4443,"CoNi":4444,"MoP":4445,"ĠHgZr":4446,"SrCu":4447,"11878":4448,"12242":4449,"12164":4450,"12166":4451,"522":4452,"WN":4453,"na":4454,"ĠCaBi":4455,"AlN":4456,"ĠPtBi":4457,"ĠCuNb":4458,"ĠAsRh":4459,"ĠSbCl":4460,"ĠCrSc":4461,"ĠPbNa":4462,"538":4463,"RuAs":4464,"219":4465,"2147":4466,"SrAl":4467,"MnSi":4468,"192":4469,"RbAu":4470,"1208":4471,"11023":4472,"12173":4473,"10179":4474,"5673":4475,"loride":4476,"Ġ28":4477,"ĠPCd":4478,"ĠAlCo":4479,"âĤģâĤĩ":4480,"ĠTiFe":4481,"ĠTiSb":4482,"ĠPdSr":4483,"ĠCaIn":4484,"InCl":4485,"FeAs":4486,"ĠAsS":4487,"1013":4488,"ĠGeY":4489,"ĠMnTi":4490,"ĠRbH":4491,"ĠRuSc":4492,"HfSi":4493,"HfSn":4494,"ZrP":4495,"543":4496,"426":4497,"RuGa":4498,"CdIn":4499,"SrPd":4500,"197":4501,"457":4502,"OsP":4503,"776":4504,"777":4505,"5696":4506,"5683":4507,"9749":4508,"175":4509,"276":4510,"WP":4511,"WIr":4512,"bra":4513,"ĠTheoretical":4514,"ĠPdP":4515,"ĠZrRh":4516,"ĠPtSe":4517,"InTe":4518,"FeP":4519,"ĠSbY":4520,"ĠFeTe":4521,"ĠAuCl":4522,"AuCu":4523,"081":4524,"ĠClCa":4525,"694":4526,"IrSi":4527,"NbPd":4528,"NbRh":4529,"558":4530,"8616":4531,"231":4532,"701":4533,"772":4534,"brass":4535,"VN":4536,"WSi":4537,"YAu":4538,"cm":4539,"ĠNp":4540,"ĠPare":4541,"ĠNaPb":4542,"ĠVZn":4543,"ĠScPt":4544,"ĠScAu":4545,"ĠScIr":4546,"TiRh":4547,"ĠWRh":4548,"ĠMoRh":4549,"ĠCoRe":4550,"ĠAgPd":4551,"ĠRuSeS":4552,"430":4553,"MoTe":4554,"532":4555,"IrAl":4556,"IrSb":4557,"8659":4558,"230":4559,"232":4560,"MnAs":4561,"326":4562,"Ġsuperconductors":4563,"ĠParent":4564,"510":4565,"782":4566,"ĠCcce":4567,"Ġ23":4568,"ĠSiSc":4569,"FeV":4570,"ĠNbCl":4571,"TiAs":4572,"1095":4573,"ĠRbSe":4574,"429":4575,"856":4576,"HgS":4577,"HgTe":4578,"023":4579,"663":4580,"191":4581,"9729":4582,"149":4583,"9896":4584,"12290":4585,"183":4586,"793":4587,"Ġ24":4588,"ĠPCu":4589,"ĠPdCd":4590,"AlCl":4591,"ĠTeCu":4592,"ĠTeHg":4593,"ĠVMn":4594,"ĠSrPd":4595,"ĠScZn":4596,"ĠScPb":4597,"ĠZnCl":4598,"ĠZnSc":4599,"TiP":4600,"ĠAgCu":4601,"RhTe":4602,"AgAl":4603,"1133":4604,"IrIn":4605,"CdSb":4606,"CdCl":4607,"8660":4608,"SrTl":4609,"826":4610,"9720":4611,"OsRu":4612,"249":4613,"12273":4614,"12183":4615,"ĠPPRu":4616,"11796":4617,"146":4618,"278":4619,"634":4620,"780":4621,"KNa":4622,"VSe":4623,"hide":4624,"âĤĤâĤģ":4625,"ĠMillerite":4626,"ĠPtCa":4627,"PdZn":4628,"TiCr":4629,"PtSi":4630,"ĠAuHf":4631,"RhSe":4632,"RhAs":4633,"851":4634,"852":4635,"CaPb":4636,"ĠTcRh":4637,"SrS":4638,"744":4639,"456":4640,"ReN":4641,"5680":4642,"498":4643,"11017":4644,"11874":4645,"10788":4646,"11834":4647,"12155":4648,"10800":4649,"12248":4650,"10239":4651,"ĠZrHN":4652,"511":4653,"645":4654,"ĠCTi":4655,"ithium":4656,"ĠSP":4657,"Ġlithium":4658,"ĠGPa":4659,"ĠPdGa":4660,"ĠHfIr":4661,"ĠNiPt":4662,"ĠSeZr":4663,"ĠSeHg":4664,"PdAg":4665,"ĠVC":4666,"ĠScNi":4667,"NiGe":4668,"RhZn":4669,"AgTe":4670,"HfAs":4671,"HfCu":4672,"ZrH":4673,"5426":4674,"337":4675,"259":4676,"831":4677,"791":4678,"TcRh":4679,"TcOs":4680,"10780":4681,"10773":4682,"10077":4683,"662":4684,"933":4685,"first":4686,"rich":4687,"Ġtrich":4688,"ĠSyl":4689,"ĠHSc":4690,"ĠPdSb":4691,"AlAs":4692,"ĠNiBi":4693,"ĠPtAs":4694,"PdCl":4695,"809":4696,"1012":4697,"ĠAgSr":4698,"CuIn":4699,"ĠIrBi":4700,"ZrSn":4701,"MoSi":4702,"NaAs":4703,"PbBi":4704,"258":4705,"TlTe":4706,"792":4707,"648":4708,"649":4709,"290":4710,"TcRu":4711,"RbGa":4712,"635":4713,"12070":4714,"11029":4715,"Ġtrichloride":4716,"ĠSylvanite":4717,"293":4718,"YAl":4719,"ĠSCl":4720,"ĠSOs":4721,"Ġ25":4722,"ĠPIr":4723,"ĠPTlP":4724,"AlSb":4725,"ĠNiRe":4726,"ĠGaCa":4727,"ĠSeSc":4728,"ĠTeTi":4729,"SiNi":4730,"ĠAsAl":4731,"ĠSrAl":4732,"ĠRhTa":4733,"TiMn":4734,"PtMo":4735,"ĠGeP":4736,"ZnAs":4737,"RhIn":4738,"HfP":4739,"547":4740,"335":4741,"969":4742,"CoTi":4743,"21328":4744,"557":4745,"ĠTcRe":4746,"864":4747,"CrP":4748,"CrAl":4749,"CrAs":4750,"ĠOsS":4751,"835":4752,"731":4753,"737":4754,"818":4755,"9755":4756,"12193":4757,"12174":4758,"10774":4759,"240":4760,"309":4761,"680":4762,"706":4763,"915":4764,"ĠAem":4765,"ĠNCr":4766,"ĠPSc":4767,"ĠHfCo":4768,"2070":4769,"ĠPtSr":4770,"ĠNaSi":4771,"ĠNaCd":4772,"PdP":4773,"PdAl":4774,"SiTe":4775,"ĠSnN":4776,"TiGa":4777,"ĠWZr":4778,"second":4779,"CuZn":4780,"AgCl":4781,"HfN":4782,"ZrS":4783,"AuCl":4784,"677":4785,"690":4786,"IrAs":4787,"ScZn":4788,"479":4789,"881":4790,"ĠTcCo":4791,"ĠTcRu":4792,"060":4793,"MnGa":4794,"827":4795,"9722":4796,"517":4797,"11877":4798,"12204":4799,"620":4800,"754":4801,"ĠCmm":4802,"annite":4803,"âĤģâĤĦ":4804,"AlPt":4805,"ĠPtH":4806,"AsPt":4807,"TiCl":4808,"1087":4809,"ĠKH":4810,"ĠCoAl":4811,"GaP":4812,"ĠMnNi":4813,"096":4814,"ĠBiSb":4815,"ĠRuZr":4816,"077":4817,"MoAl":4818,"IrP":4819,"055":4820,"TaN":4821,"8623":4822,"656":4823,"751":4824,"799":4825,"5702":4826,"6847":4827,"6846":4828,"928":4829,"12063":4830,"11007":4831,"11021":4832,"11872":4833,"10953":4834,"12190":4835,"12199":4836,"ĠStannite":4837,"dale":4838,"Ã¢":4839,"ÆĴ":4840,"âĢļ":4841,"ĠSiH":4842,"ĠSeSr":4843,"ĠTeNb":4844,"ĠTeCa":4845,"ĠAsPd":4846,"TeS":4847,"ĠRhFe":4848,"ĠRhMn":4849,"TiAu":4850,"TiRu":4851,"PtAu":4852,"PtCl":4853,"1084":4854,"ĠCoCr":4855,"Ġ61":4856,"1222":4857,"ĠRuTe":4858,"HfAl":4859,"ZrAs":4860,"540":4861,"082":4862,"079":4863,"427":4864,"CaAg":4865,"ĠCsH":4866,"NaBi":4867,"ĠReIr":4868,"ScGe":4869,"ĠTcS":4870,"ĠTcIr":4871,"MnSb":4872,"257":4873,"892":4874,"TlS":4875,"756":4876,"5707":4877,"5715":4878,"ĠLons":4879,"TcIr":4880,"9833":4881,"12082":4882,"11871":4883,"12170":4884,"10952":4885,"10796":4886,"ĠSeNaV":4887,"5677":4888,"daleite":4889,"ĠLonsdaleite":4890,"145":4891,"176":4892,"642":4893,"669":4894,"VGa":4895,"YH":4896,"min":4897,"Ġ27":4898,"ĠInNb":4899,"ĠPNb":4900,"ĠPdH":4901,"ĠGaPd":4902,"ĠYPb":4903,"PdSe":4904,"SiPt":4905,"ĠVHf":4906,"ĠRhCo":4907,"ĠSbNb":4908,"TiNi":4909,"PtAg":4910,"ĠMnAu":4911,"HfGa":4912,"HfNi":4913,"ZrCl":4914,"MoCl":4915,"052":4916,"NbAl":4917,"NaP":4918,"NaPb":4919,"CdPb":4920,"718":4921,"CrN":4922,"795":4923,"5712":4924,"5711":4925,"9773":4926,"RbIn":4927,"9854":4928,"12165":4929,"10791":4930,"mino":4931,"443":4932,"608":4933,"990":4934,"ĠInCa":4935,"ĠZrBi":4936,"ĠNaTl":4937,"ĠTeSc":4938,"ĠCuCa":4939,"PtAl":4940,"PtTe":4941,"1094":4942,"NiBi":4943,"ĠCrCo":4944,"GeAs":4945,"ZnGe":4946,"ĠMnGa":4947,"AgAs":4948,"HfAu":4949,"HfRu":4950,"HfTc":4951,"ĠTlTe":4952,"MoPd":4953,"IrSe":4954,"TaOs":4955,"886":4956,"8880":4957,"8650":4958,"936":4959,"MnSe":4960,"mcc":4961,"494":4962,"6323":4963,"9991":4964,"9823":4965,"12167":4966,"ĠSFeCu":4967,"242":4968,"909":4969,"VOs":4970,"ĠPRb":4971,"ĠHNb":4972,"ĠHCl":4973,"ĠPdRe":4974,"ĠCaPt":4975,"207":4976,"2030":4977,"ĠGaFe":4978,"ĠPtP":4979,"ĠPtS":4980,"ĠNaK":4981,"ĠNaGe":4982,"ĠSePt":4983,"ĠYIr":4984,"ĠTeMn":4985,"PdSi":4986,"ĠNbCo":4987,"ĠVFe":4988,"ĠScSe":4989,"ĠScPd":4990,"ĠZnCs":4991,"ĠSbRu":4992,"ĠTaRh":4993,"ĠWRu":4994,"ĠWOs":4995,"ĠMoIr":4996,"PtH":4997,"PtP":4998,"10227":4999,"ĠKPb":5000,"ĠCoTc":5001,"ĠAgK":5002,"ĠCrSb":5003,"ZnN":5004,"ĠBiSbPt":5005,"ZrSe":5006,"ZrHg":5007,"AuPb":5008,"674":5009,"1198":5010,"339":5011,"083":5012,"MoGe":5013,"536":5014,"NbMo":5015,"226":5016,"ScIn":5017,"8622":5018,"8656":5019,"8661":5020,"529":5021,"SrH":5022,"939":5023,"6273":5024,"195":5025,"041":5026,"ReSi":5027,"348":5028,"901":5029,"926":5030,"10913":5031,"10789":5032,"ĠHCaNi":5033,"ĠPYP":5034,"9827":5035,"Each":5036,"canite":5037,"Ġpyrite":5038,"Ġ134":5039,"Ġangstrom":5040,"ĠHPd":5041,"AlCu":5042,"ĠHfTe":5043,"ĠGaMn":5044,"ĠSiTe":5045,"ĠSiCo":5046,"ĠPtCl":5047,"ĠSeNi":5048,"InPb":5049,"ĠTeK":5050,"FeTi":5051,"PdS":5052,"ĠAsPt":5053,"ĠAsCd":5054,"ĠAsSc":5055,"ĠVW":5056,"ĠVul":5057,"ĠScRh":5058,"ĠSbGa":5059,"TiFe":5060,"PtS":5061,"PtCd":5062,"ĠGeCa":5063,"GaCl":5064,"CuSi":5065,"HfRh":5066,"HfCo":5067,"1191":5068,"330":5069,"073":5070,"ĠClTl":5071,"NbW":5072,"NbTe":5073,"NbRu":5074,"CaTe":5075,"NaCd":5076,"ScNi":5077,"ScCd":5078,"8651":5079,"8626":5080,"CrGa":5081,"23152":5082,"930":5083,"MnN":5084,"897":5085,"757":5086,"759":5087,"838":5088,"RbHg":5089,"CsPb":5090,"CsHg":5091,"11840":5092,"12284":5093,"ĠInSbTe":5094,"1186781":5095,"982370":5096,"ĠVulcanite":5097,"454":5098,"KPb":5099,"SS":5100,"WPd":5101,"ĠSAs":5102,"Ġ26":5103,"ĠInCo":5104,"ĠPMo":5105,"ĠPdCl":5106,"201":5107,"SiH":5108,"ĠSrTe":5109,"ĠSrCd":5110,"ĠTaSe":5111,"TiN":5112,"TiTe":5113,"ĠCrC":5114,"ĠCrCl":5115,"CuSb":5116,"HfZn":5117,"542":5118,"964":5119,"ĠClPb":5120,"168":5121,"MoRh":5122,"530":5123,"NbN":5124,"NaAg":5125,"ĠReTe":5126,"5552":5127,"863":5128,"8619":5129,"MnTe":5130,"665":5131,"898":5132,"797":5133,"1867":5134,"9716":5135,"OsGe":5136,"144":5137,"RbCl":5138,"327":5139,"11063":5140,"11036":5141,"11030":5142,"12274":5143,"10956":5144,"ĠSNaIn":5145,"12238":5146,"ĠSbBiPt":5147,"1079574":5148,"972373":5149,"185":5150,"177":5151,"314":5152,"PPt":5153,"VSi":5154,"YNi":5155,"YSb":5156,"lut":5157,"nmc":5158,"thir":5159,"ĠPlut":5160,"ĠAlCr":5161,"âĤĤâĤĦ":5162,"ĠTiH":5163,"AlCr":5164,"ĠHfZr":5165,"ĠNaPt":5166,"ĠSeAl":5167,"PdNi":5168,"808":5169,"ĠSbFe":5170,"PtV":5171,"ĠFeN":5172,"HfZr":5173,"ZrGe":5174,"5424":5175,"AuTl":5176,"960":5177,"ĠTlPb":5178,"NbP":5179,"NbSe":5180,"CaS":5181,"ScPt":5182,"ScAg":5183,"HgSe":5184,"524":5185,"238":5186,"899":5187,"463":5188,"814":5189,"576":5190,"5743":5191,"OsGa":5192,"6486":5193,"292":5194,"295":5195,"561":5196,"5685":5197,"fourth":5198,"11842":5199,"12188":5200,"1216530":5201,"5693":5202,"ĠAsAsPd":5203,"mbc":5204,"12195":5205,"ĠPSrP":5206,"1102131":5207,"third":5208,"ĠPlutonium":5209,"263":5210,"647":5211,"949":5212,"VRu":5213,"VTc":5214,"YCd":5215,"hr":5216,"ĠClat":5217,"ĠHV":5218,"ĠTiRe":5219,"ĠPdCa":5220,"AlFe":5221,"AlCo":5222,"ĠZrAu":5223,"ĠSeHf":5224,"FeTe":5225,"FeNi":5226,"ĠAsCo":5227,"ĠNbMo":5228,"805":5229,"ĠZnIn":5230,"ĠTaMo":5231,"ĠWCl":5232,"ĠGeAs":5233,"ĠFeRh":5234,"ĠAuTa":5235,"CuGe":5236,"090":5237,"AuTa":5238,"1195":5239,"431":5240,"433":5241,"438":5242,"966":5243,"6971":5244,"506":5245,"ĠCsSe":5246,"NaGa":5247,"218":5248,"5565":5249,"884":5250,"888":5251,"7192":5252,"2576":5253,"187":5254,"241":5255,"ReIr":5256,"TcPd":5257,"1415":5258,"1186109":5259,"10172":5260,"5697":5261,"5698":5262,"11290":5263,"10032":5264,"1186055":5265,"981383":5266,"hrate":5267,"ĠClathrate":5268,"300":5269,"prite":5270,"ĠSPt":5271,"ĠAma":5272,"AlTe":5273,"AlSc":5274,"ĠSiTa":5275,"ĠNaN":5276,"ĠTeZn":5277,"ĠCuprite":5278,"ĠAsOs":5279,"ĠRhN":5280,"ĠSbSrSn":5281,"TiIn":5282,"ĠMoTa":5283,"1055":5284,"1019":5285,"1068":5286,"ĠCoN":5287,"ZnCl":5288,"CuCl":5289,"099":5290,"ĠBiNa":5291,"5418":5292,"1147":5293,"436":5294,"965":5295,"ĠTlHg":5296,"CoN":5297,"MoRu":5298,"MoTa":5299,"RuTe":5300,"RuTa":5301,"BiTe":5302,"NbSi":5303,"500":5304,"NaTl":5305,"TaRh":5306,"ScS":5307,"860":5308,"868":5309,"8657":5310,"8628":5311,"400":5312,"029":5313,"ĠOsN":5314,"236":5315,"934":5316,"251":5317,"832":5318,"1900":5319,"9775":5320,"12270":5321,"10797":5322,"5674":5323,"5679":5324,"1217895":5325,"12214":5326,"22009":5327,"864754":5328,"975204":5329,"ĠAsSbIr":5330,"ĠSbAsIr":5331,"985825":5332,"174":5333,"633":5334,"SV":5335,"STl":5336,"YSe":5337,"YPt":5338,"bar":5339,"nb":5340,"ĠCin":5341,"ĠInRb":5342,"ĠPAsPt":5343,"ĠHCs":5344,"ĠCaNi":5345,"ĠGaCu":5346,"ĠGaNa":5347,"ĠGaGeTe":5348,"ĠNaGa":5349,"ĠSeSiPt":5350,"InSn":5351,"ĠTeFe":5352,"ĠCuH":5353,"ĠAsPPt":5354,"ĠVAl":5355,"ĠVGe":5356,"ĠSbHf":5357,"ĠSbIr":5358,"ĠTaCo":5359,"TiZn":5360,"PtSe":5361,"ĠGePt":5362,"ĠCoPt":5363,"ĠFeIr":5364,"ĠFeCl":5365,"12102":5366,"ĠRbIn":5367,"AgHf":5368,"ĠBiIr":5369,"ĠIrFe":5370,"ĠIrSn":5371,"ĠClIn":5372,"ĠClAg":5373,"MoV":5374,"8500":5375,"TaTe":5376,"TaGe":5377,"ScSi":5378,"ScRu":5379,"8860":5380,"HgTi":5381,"8658":5382,"SrPb":5383,"239":5384,"6287":5385,"651":5386,"824":5387,"641":5388,"763":5389,"1483":5390,"12009":5391,"12068":5392,"CsSb":5393,"11042":5394,"11028":5395,"1182070":5396,"1215509":5397,"ĠSSbRh":5398,"1018113":5399,"30876":5400,"12237":5401,"1223866":5402,"ĠSeCsBi":5403,"1184478":5404,"ĠPCaP":5405,"1186067":5406,"10847":5407,"10874":5408,"973111":5409,"11789":5410,"983509":5411,"755169":5412,"1184632":5413,"ĠSeGePt":5414,"865355":5415,"1206636":5416,"ncc":5417,"nabar":5418,"21477":5419,"ĠCinnabar":5420,"445":5421,"VGe":5422,"md":5423,"ĠSTa":5424,"ĠNGa":5425,"ĠInHg":5426,"ĠAlGa":5427,"ĠCaCu":5428,"20132":5429,"ĠSiRh":5430,"ĠSiMo":5431,"ĠZrSn":5432,"SiSe":5433,"ĠZnCd":5434,"PtRh":5435,"1069":5436,"1071":5437,"1017":5438,"ĠGeHf":5439,"ĠFeNi":5440,"1232":5441,"5407":5442,"5425":5443,"6723":5444,"1157":5445,"IrTi":5446,"IrRu":5447,"NaH":5448,"NaPd":5449,"1563":5450,"TaZn":5451,"225":5452,"470":5453,"8607":5454,"SrSb":5455,"2302":5456,"MnOs":5457,"666":5458,"748":5459,"451":5460,"817":5461,"9765":5462,"248":5463,"787":5464,"841":5465,"TcGa":5466,"12065":5467,"12057":5468,"CsGa":5469,"11019":5470,"11035":5471,"uphide":5472,"12275":5473,"ĠDisuphide":5474,"11832":5475,"10250":5476,"5675":5477,"567772":5478,"ĠSZnIn":5479,"30501":5480,"11809":5481,"10727":5482,"1079952":5483,"1186058":5484,"31312":5485,"1179802":5486,"10636":5487,"1055994":5488,"042":5489,"147":5490,"462":5491,"483":5492,"612":5493,"769":5494,"810":5495,"871":5496,"KSe":5497,"KCl":5498,"SCl":5499,"SCs":5500,"tw":5501,"itride":5502,"Ġcarbonitride":5503,"ĠNNa":5504,"ĠPSe":5505,"ĠZint":5506,"ĠHfSn":5507,"FeN":5508,"FeGa":5509,"PdMo":5510,"PdTl":5511,"ĠAsSe":5512,"ĠTaAu":5513,"1027":5514,"ĠGeCo":5515,"NiY":5516,"1211":5517,"1259":5518,"RhP":5519,"ĠIrZr":5520,"HfMo":5521,"ZrCu":5522,"AuSb":5523,"6750":5524,"1196":5525,"1192":5526,"428":5527,"16526":5528,"534":5529,"IrRh":5530,"858":5531,"859":5532,"RuN":5533,"RuSe":5534,"BiSb":5535,"NbAs":5536,"NaPt":5537,"TaAs":5538,"556":5539,"ScIr":5540,"ĠTcCl":5541,"401":5542,"ĠOsCl":5543,"MnFe":5544,"MnIr":5545,"891":5546,"658":5547,"746":5548,"7565":5549,"ReOs":5550,"1364":5551,"487":5552,"30478":5553,"11031":5554,"12269":5555,"12263":5556,"10951":5557,"1183501":5558,"1183694":5559,"569170":5560,"1018100":5561,"1078123":5562,"ĠSeKBi":5563,"13270":5564,"10259":5565,"1018059":5566,"22095":5567,"1184764":5568,"1077098":5569,"1067933":5570,"1180659":5571,"1184591":5572,"1887":5573,"21405":5574,"864758":5575,"1103212":5576,"604325":5577,"1120767":5578,"1012435":5579,"567409":5580,"1104275":5581,"two":5582,"ĠZintl":5583,"2678":5584,"312":5585,"362":5586,"5544":5587,"6699":5588,"HCs":5589,"KAg":5590,"PIr":5591,"ÃĮ":5592,"ĠIma":5593,"âĢ¦":5594,"ĠSC":5595,"ĠNCo":5596,"ĠPRh":5597,"ĠAlTc":5598,"ĠRÃĮ":5599,"2006":5600,"ĠSeGa":5601,"ĠTeSr":5602,"ĠVGa":5603,"ĠSbK":5604,"PtY":5605,"PtNi":5606,"PtRu":5607,"1014":5608,"ĠCoSn":5609,"SbN":5610,"GeSb":5611,"CuZr":5612,"091":5613,"RhV":5614,"AgP":5615,"ĠRuMn":5616,"ĠPbSr":5617,"ZrNi":5618,"5429":5619,"1194":5620,"424":5621,"RuP":5622,"050":5623,"NbGa":5624,"2271":5625,"222âĤģ":5626,"22691":5627,"8638":5628,"ĠOsV":5629,"TlSe":5630,"601":5631,"ĠPnna":5632,"639755":5633,"12062":5634,"12074":5635,"31473":5636,"CsAu":5637,"11038":5638,"1186427":5639,"10712":5640,"12160":5641,"1220023":5642,"5690":5643,"11902":5644,"1018166":5645,"11229":5646,"1184502":5647,"1186034":5648,"1025223":5649,"30373":5650,"974421":5651,"1337":5652,"30745":5653,"30717":5654,"979423":5655,"1185041":5656,"9717":5657,"1180961":5658,"672241":5659,"8936":5660,"570562":5661,"1120769":5662,"1018153":5663,"974920":5664,"1217409":5665,"1095302":5666,"976589":5667,"669913":5668,"286":5669,"489":5670,"550":5671,"5105":5672,"7526":5673,"880":5674,"869":5675,"VW":5676,"aze":5677,"fif":5678,"lw":5679,"alla":5680,"Ġpalla":5681,"ĠSGa":5682,"ĠNK":5683,"ĠNMo":5684,"ĠPOs":5685,"ĠHaze":5686,"Ġaluminum":5687,"AlNi":5688,"ĠNaAg":5689,"ĠSeNb":5690,"ĠYH":5691,"ĠAsAgAs":5692,"ĠSbNa":5693,"ĠTaSb":5694,"TiW":5695,"1062":5696,"1066":5697,"10136":5698,"10559":5699,"10404":5700,"ĠKN":5701,"ĠGeH":5702,"ĠAgGe":5703,"ĠAgAsSe":5704,"GaY":5705,"ĠFeGe":5706,"ĠFeMn":5707,"GeH":5708,"SnN":5709,"ZnSnAs":5710,"095":5711,"ĠBiSc":5712,"ĠIrAl":5713,"ĠPbK":5714,"HfCr":5715,"ZrAg":5716,"ĠCdGe":5717,"1173":5718,"1156":5719,"432":5720,"9616":5721,"425":5722,"CoIn":5723,"RuS":5724,"051":5725,"NbPt":5726,"CdSn":5727,"CdZn":5728,"ScTe":5729,"475":5730,"523":5731,"SrBi":5732,"CrMn":5733,"2369":5734,"23159":5735,"2597":5736,"TlIn":5737,"7554":5738,"836":5739,"19932":5740,"2450":5741,"7846":5742,"ReTc":5743,"29055":5744,"RbTe":5745,"491":5746,"8781":5747,"444":5748,"9970":5749,"oodite":5750,"000":5751,"1206486":5752,"31348":5753,"1109":5754,"11056":5755,"110304":5756,"12215":5757,"12287":5758,"1220635":5759,"569289":5760,"ĠSNaCr":5761,"1080834":5762,"1187474":5763,"1187881":5764,"11907":5765,"1018156":5766,"1184558":5767,"1184808":5768,"1188662":5769,"ĠAsTeIr":5770,"1007692":5771,"ĠSBiIr":5772,"10685":5773,"ĠSCoRh":5774,"1186033":5775,"ĠSTlIn":5776,"ĠTeTeIr":5777,"1225701":5778,"973198":5779,"ĠTeAsIr":5780,"12388":5781,"YAgSe":5782,"1184633":5783,"21093":5784,"685146":5785,"ĠSeAsPd":5786,"1186050":5787,"ĠSeSbRu":5788,"ĠAsSbRh":5789,"ĠSbAsRh":5790,"12463":5791,"864984":5792,"13010":5793,"1102018":5794,"570377":5795,"567379":5796,"972981":5797,"1179605":5798,"628773":5799,"fifth":5800,"lwoodite":5801,"Ġpalladium":5802,"ĠHazelwoodite":5803,"1055940":5804,"1040453":5805,"1103044":5806,"143":5807,"181":5808,"1543":5809,"287":5810,"2700":5811,"393":5812,"586":5813,"605":5814,"822":5815,"823":5816,"HCl":5817,"KCr":5818,"WAl":5819,"YIr":5820,"YCl":5821,"ob":5822,"ĠInK":5823,"ĠNiV":5824,"2059":5825,"20555":5826,"ĠSiIr":5827,"ĠCuAs":5828,"FeCo":5829,"FeRu":5830,"PdPt":5831,"ĠAsNb":5832,"AsTe":5833,"AsSb":5834,"ĠZnGa":5835,"ĠSnBi":5836,"TiRe":5837,"TiTc":5838,"ĠMoW":5839,"PtTl":5840,"1089":5841,"1056":5842,"10644":5843,"1021328":5844,"SbP":5845,"ĠCrSbAs":5846,"1213":5847,"RhSb":5848,"ĠRuHf":5849,"5416":5850,"5461":5851,"AuZn":5852,"11972":5853,"CoIr":5854,"1699":5855,"1601":5856,"855":5857,"RuIn":5858,"RuGe":5859,"059":5860,"NaTe":5861,"TaSi":5862,"2179":5863,"2294":5864,"8662":5865,"SrTe":5866,"CrRh":5867,"624":5868,"6254":5869,"704":5870,"MnPd":5871,"6615":5872,"655461":5873,"656615":5874,"830":5875,"190":5876,"1907":5877,"1922":5878,"600":5879,"592":5880,"598":5881,"299":5882,"5688":5883,"5689":5884,"1363":5885,"9985":5886,"9993":5887,"1747":5888,"11004":5889,"11049":5890,"11026":5891,"11870":5892,"11819":5893,"12264":5894,"11420":5895,"1186437":5896,"10793":5897,"1216825":5898,"1183517":5899,"1183144":5900,"8678":5901,"1219457":5902,"570459":5903,"10021":5904,"1018029":5905,"974620":5906,"1184755":5907,"1184703":5908,"21276":5909,"11571":5910,"1067627":5911,"1009756":5912,"22924":5913,"7558":5914,"1096994":5915,"865430":5916,"5713":5917,"31144":5918,"22466":5919,"975129":5920,"541837":5921,"867347":5922,"867351":5923,"1095578":5924,"1206743":5925,"1014231":5926,"1080443":5927,"1536":5928,"1187816":5929,"1836":5930,"1007786":5931,"1007760":5932,"1207013":5933,"983365":5934,"571160":5935,"23870":5936,"1184265":5937,"1205786":5938,"2540":5939,"562":5940,"623":5941,"742":5942,"766":5943,"8426":5944,"984":5945,"9828":5946,"Ba":5947,"KTe":5948,"VTe":5949,"hil":5950,"ĠHCo":5951,"ĠHyd":5952,"ĠTiRu":5953,"ĠTiCr":5954,"ĠPdSe":5955,"AlSe":5956,"AlMo":5957,"ĠHfTeSe":5958,"2082":5959,"20526":5960,"20628":5961,"20745":5962,"ĠGaRu":5963,"ĠPtTc":5964,"ĠTeCr":5965,"ĠCuN":5966,"FeGe":5967,"PdPb":5968,"ĠAsY":5969,"AsN":5970,"ĠVMo":5971,"ĠVTc":5972,"ĠZnIr":5973,"ĠRhHg":5974,"ĠSnCo":5975,"ĠSnCa":5976,"ĠSnMn":5977,"ĠTaCl":5978,"TiGe":5979,"TiOs":5980,"PtHf":5981,"1006":5982,"1002":5983,"10000":5984,"ĠGeGaGe":5985,"ĠCoSc":5986,"SbCl":5987,"ĠCrGa":5988,"GeSi":5989,"ZnIr":5990,"ĠMnRu":5991,"CuO":5992,"CuP":5993,"RhHg":5994,"AgCa":5995,"1197":5996,"332":5997,"338":5998,"086":5999,"078":6000,"ĠTlP":6001,"161":6002,"1698":6003,"535":6004,"537":6005,"6907":6006,"RuTi":6007,"NbH":6008,"NbGe":6009,"NbSn":6010,"NbCl":6011,"ĠCsTe":6012,"ĠCsPb":6013,"CdGa":6014,"ĠReAs":6015,"ĠReRu":6016,"1523":6017,"551":6018,"2286":6019,"22337":6020,"rophil":6021,"ĠOsSc":6022,"23157":6023,"937":6024,"661":6025,"8948":6026,"7444":6027,"1973":6028,"790":6029,"798":6030,"7373":6031,"9771":6032,"976273":6033,"OsAl":6034,"048":6035,"6419":6036,"29551":6037,"TcNi":6038,"141":6039,"917":6040,"9954":6041,"12033":6042,"12069":6043,"12071":6044,"CsSn":6045,"11885":6046,"2339":6047,"1186152":6048,"1186024":6049,"1186158":6050,"1216195":6051,"10792":6052,"1079810":6053,"8679":6054,"1080831":6055,"1080797":6056,"11909":6057,"11908":6058,"1018717":6059,"30836":6060,"12249":6061,"1184658":6062,"10784":6063,"1007691":6064,"1007730":6065,"1186901":6066,"1186047":6067,"1186018":6068,"20418":6069,"11387":6070,"1018019":6071,"1018028":6072,"2128":6073,"1335":6074,"13365":6075,"ĠSeRbSb":6076,"1105835":6077,"1067880":6078,"1009730":6079,"ĠPTcP":6080,"1078665":6081,"ĠPmna":6082,"31002":6083,"865565":6084,"22320":6085,"20351":6086,"10969":6087,"1094248":6088,"8939":6089,"1178932":6090,"16488":6091,"ĠAsFeNi":6092,"570362":6093,"1063670":6094,"ZrPP":6095,"1023924":6096,"1077466":6097,"ĠPRbP":6098,"1095669":6099,"1210215":6100,"1223773":6101,"1197242":6102,"ĠHydrophil":6103,"ĠHydrophilite":6104,"1749":6105,"255":6106,"2693":6107,"399":6108,"KIn":6109,"PRh":6110,"ĠTiIn":6111,"ĠTiTc":6112,"2095":6113,"20549":6114,"20539":6115,"ĠGaCr":6116,"ĠSiCr":6117,"ĠZrAg":6118,"ĠYCo":6119,"FeAl":6120,"PdTa":6121,"ĠAsTa":6122,"807":6123,"8041":6124,"ĠZnSnAs":6125,"TiSb":6126,"TiCu":6127,"ĠWW":6128,"ĠMoV":6129,"1010136":6130,"ĠAuK":6131,"1266":6132,"12104":6133,"12137":6134,"ZnSn":6135,"097":6136,"679":6137,"6765":6138,"968":6139,"089":6140,"072":6141,"160":6142,"MoRe":6143,"IrMo":6144,"CaP":6145,"CaSb":6146,"5048":6147,"CdP":6148,"TaPd":6149,"2172":6150,"ScPd":6151,"8652":6152,"8637":6153,"SrRu":6154,"ĠOsTe":6155,"7493":6156,"7533":6157,"7598":6158,"734":6159,"1487":6160,"6398":6161,"632286":6162,"9847":6163,"2612":6164,"2614":6165,"003":6166,"CsIn":6167,"CsPbCl":6168,"11022":6169,"12233":6170,"12285":6171,"11481":6172,"10950":6173,"temperature":6174,"1186074":6175,"1183511":6176,"10794":6177,"1079938":6178,"12152":6179,"1963":6180,"10240":6181,"10260":6182,"1187258":6183,"1018151":6184,"30835":6185,"11231":6186,"1188283":6187,"1188663":6188,"570199":6189,"1007976":6190,"ĠSCoNi":6191,"20485":6192,"568745":6193,"30366":6194,"22040":6195,"1184709":6196,"12467":6197,"12465":6198,"12723":6199,"30683":6200,"1077503":6201,"50552":6202,"9835":6203,"983445":6204,"573514":6205,"1207100":6206,"1078602":6207,"1188061":6208,"972889":6209,"1008601":6210,"12593":6211,"1184511":6212,"1227290":6213,"22481":6214,"1221697":6215,"571636":6216,"604321":6217,"604318":6218,"570651":6219,"2731":6220,"1214889":6221,"1216323":6222,"1057273":6223,"1206659":6224,"1025513":6225,"28246":6226,"1224298":6227,"1216655":6228,"11334":6229,"2784":6230,"2403":6231,"1219006":6232,"669917":6233,"999143":6234,"1178952":6235,"022":6236,"178":6237,"2108":6238,"380":6239,"385":6240,"301":6241,"406":6242,"5546":6243,"5803":6244,"696":6245,"616":6246,"622":6247,"789":6248,"760":6249,"7291":6250,"875":6251,"846":6252,"KP":6253,"VH":6254,"VAl":6255,"YPb":6256,"hos":6257,"met":6258,"phide":6259,"Ġphos":6260,"stibit":6261,"Ġdimet":6262,"ĠAlFe":6263,"ĠAlOs":6264,"ĠAlPS":6265,"OHNNCH":6266,"ĠHHf":6267,"hyla":6268,"ĠNiob":6269,"20291":6270,"ĠSiOs":6271,"ĠNaPd":6272,"ĠSeS":6273,"ĠSeSbPt":6274,"ĠTeZr":6275,"ĠAsIr":6276,"ĠAsCuTe":6277,"ĠNbH":6278,"ĠNbAu":6279,"ĠVSb":6280,"ĠSrAg":6281,"8073":6282,"ĠSnTa":6283,"ĠSbPd":6284,"PtPd":6285,"1042":6286,"1030":6287,"10861":6288,"10487":6289,"ĠCoMn":6290,"NiZn":6291,"seven":6292,"ĠFeGa":6293,"ĠAuPb":6294,"ĠCrGe":6295,"ZnH":6296,"AgGa":6297,"AgSn":6298,"ĠPbPt":6299,"Ġrelative":6300,"11108":6301,"1620":6302,"16074":6303,"057":6304,"BiP":6305,"ĠCsAu":6306,"NaSbSe":6307,"1552":6308,"15339":6309,"2180":6310,"5558":6311,"22555":6312,"22735":6313,"ScFe":6314,"883":6315,"8886":6316,"ĠTcPt":6317,"ĠTcSc":6318,"719":6319,"HgCd":6320,"062":6321,"SrNi":6322,"SrCaSi":6323,"SrIrIn":6324,"CrSe":6325,"CrTe":6326,"ĠOsZr":6327,"2361":6328,"23206":6329,"7045":6330,"2510":6331,"2517":6332,"6614":6333,"8361":6334,"687":6335,"1822":6336,"ReRh":6337,"6498":6338,"TcPt":6339,"638":6340,"636614":6341,"636498":6342,"32868":6343,"9953":6344,"2667":6345,"ĠTiSeS":6346,"30675":6347,"CsTe":6348,"1101":6349,"Ġhydroxylamino":6350,"12250":6351,"12261":6352,"11407":6353,"11453":6354,"1186137":6355,"1186081":6356,"1077045":6357,"11830":6358,"1183484":6359,"1220645":6360,"569152":6361,"10293":6362,"8677":6363,"1080121":6364,"1080608":6365,"11910":6366,"ĠSSbIr":6367,"1018121":6368,"1018124":6369,"1018128":6370,"30871":6371,"30877":6372,"ĠMoAsP":6373,"1217111":6374,"1217092":6375,"1217081":6376,"11288":6377,"11286":6378,"1221420":6379,"1221484":6380,"10787":6381,"1078331":6382,"ĠCccm":6383,"ĠChalcostibit":6384,"20483":6385,"568792":6386,"10257":6387,"11345":6388,"30352":6389,"1018054":6390,"2201":6391,"ĠSSnPt":6392,"1229092":6393,"12779":6394,"ĠPca":6395,"30682":6396,"30681":6397,"1189573":6398,"30744":6399,"20263":6400,"1207024":6401,"18622":6402,"1188008":6403,"22318":6404,"ĠSeAsRh":6405,"ĠSeAsIr":6406,"1096861":6407,"1096915":6408,"1184554":6409,"31172":6410,"1187974":6411,"21162":6412,"28353":6413,"12614":6414,"19905":6415,"1104047":6416,"20034":6417,"1106023":6418,"27607":6419,"989695":6420,"1179656":6421,"990532":6422,"1022725":6423,"1198692":6424,"1091375":6425,"1228491":6426,"569360":6427,"nbm":6428,"1072724":6429,"542915":6430,"1064497":6431,"982871":6432,"1095024":6433,"38511":6434,"580357":6435,"Ġphosphide":6436,"Ġdimethyla":6437,"ĠNiobium":6438,"ĠAsCuTeAs":6439,"ĠChalcostibite":6440,"Ġdimethylamino":6441,"193":6442,"267":6443,"381":6444,"317":6445,"441":6446,"554":6447,"516":6448,"560":6449,"564":6450,"811":6451,"905":6452,"9969":6453,"PK":6454,"VMn":6455,"YP":6456,"ĠCS":6457,"ĠNNi":6458,"ĠAlRe":6459,"ĠNiCo":6460,"2083":6461,"20800":6462,"20928":6463,"ĠGaBi":6464,"ĠNaSn":6465,"ĠSeFe":6466,"ĠSePd":6467,"ĠYRh":6468,"ĠTePIr":6469,"ĠCuPt":6470,"ĠAsRu":6471,"ĠSrSe":6472,"ĠSrPt":6473,"8071":6474,"ĠSnIr":6475,"TiCo":6476,"PtTi":6477,"1052":6478,"10157":6479,"10649":6480,"ĠAuSi":6481,"SnRu":6482,"SnHg":6483,"1278":6484,"12561":6485,"ZnZr":6486,"RhN":6487,"RhGe":6488,"AgIn":6489,"AgZr":6490,"ĠPbRh":6491,"ĠPbBi":6492,"ĠPbHg":6493,"HfGe":6494,"HfCd":6495,"671":6496,"11456":6497,"3306":6498,"9692":6499,"085":6500,"4227":6501,"ĠClHg":6502,"0528":6503,"NbZn":6504,"PbMo":6505,"1550":6506,"15649":6507,"TaMn":6508,"21104":6509,"558071":6510,"8891":6511,"SrHg":6512,"CrCl":6513,"234":6514,"MnZn":6515,"MnRh":6516,"7441":6517,"8372":6518,"4653":6519,"7390":6520,"571247":6521,"1876":6522,"9789":6523,"2449":6524,"24082":6525,"5955":6526,"1444":6527,"13155":6528,"RbS":6529,"RbPbCl":6530,"630528":6531,"9907":6532,"1708":6533,"1755":6534,"1786":6535,"1793":6536,"17332":6537,"2783":6538,"1205955":6539,"CsSrCl":6540,"11025":6541,"11875":6542,"1183306":6543,"Ġbipyramidal":6544,"11462":6545,"10705":6546,"1183989":6547,"1183627":6548,"1183777":6549,"1220003":6550,"569423":6551,"569249":6552,"569095":6553,"867202":6554,"567822":6555,"1080459":6556,"1187525":6557,"20669":6558,"1018129":6559,"ĠGeTeRh":6560,"30846":6561,"30828":6562,"1223977":6563,"11261":6564,"1184121":6565,"1184905":6566,"1007758":6567,"1007857":6568,"1064227":6569,"1186030":6570,"568936":6571,"MoSSe":6572,"ĠNYSc":6573,"11342":6574,"11329":6575,"22050":6576,"9744":6577,"30412":6578,"30485":6579,"1224383":6580,"1225186":6581,"ĠPcc":6582,"30685":6583,"29646":6584,"13683":6585,"16719":6586,"1105078":6587,"9799":6588,"15681":6589,"1067758":6590,"1120739":6591,"1185202":6592,"573691":6593,"971909":6594,"1078638":6595,"18614":6596,"2809":6597,"1184650":6598,"21342":6599,"21359":6600,"1226716":6601,"570896":6602,"ĠSeAsRu":6603,"ĠSeAsOs":6604,"1072744":6605,"1079945":6606,"1228901":6607,"16521":6608,"999502":6609,"CaPdIn":6610,"976128":6611,"1094255":6612,"1103252":6613,"998949":6614,"570560":6615,"1186760":6616,"1205858":6617,"1215783":6618,"20581":6619,"978531":6620,"ĠNScTi":6621,"13853":6622,"569639":6623,"7931":6624,"1183455":6625,"1080043":6626,"ĠSPOs":6627,"1077365":6628,"1012110":6629,"975519":6630,"1187154":6631,"571264":6632,"1216575":6633,"1079182":6634,"866186":6635,"1106381":6636,"966800":6637,"556516":6638,"1014111":6639,"20599":6640,"977189":6641,"1206927":6642,"1064981":6643,"1459":6644,"2121":6645,"2105":6646,"2861":6647,"2758":6648,"2856":6649,"5104":6650,"640":6651,"6404":6652,"820":6653,"952":6654,"991":6655,"KBi":6656,"KCaCl":6657,"SY":6658,"VPt":6659,"VRe":6660,"Ġber":6661,"ĠCMn":6662,"three":6663,"ĠPCl":6664,"lia":6665,"ĠHNi":6666,"ĠTiW":6667,"âĤĥâĤĤ":6668,"2034":6669,"20576":6670,"yllia":6671,"ĠPtY":6672,"ĠYCl":6673,"FeCl":6674,"PdGe":6675,"PdHg":6676,"ĠSbZr":6677,"ĠSbSc":6678,"ĠTaNbW":6679,"1046":6680,"1061":6681,"10692":6682,"10901":6683,"10201":6684,"ĠKNa":6685,"GaH":6686,"NiPd":6687,"ĠCrH":6688,"GeP":6689,"SnSi":6690,"SnBi":6691,"1212":6692,"12108":6693,"12124":6694,"12735":6695,"12892":6696,"CuPt":6697,"ĠRbNa":6698,"AgBiS":6699,"ĠBiK":6700,"ĠBiRb":6701,"ĠBiSbTe":6702,"ZrAu":6703,"ZrRu":6704,"548":6705,"AuIn":6706,"ĠCdIn":6707,"CoRu":6708,"MoIr":6709,"6938":6710,"RuV":6711,"RuZr":6712,"NbSb":6713,"NbCo":6714,"CaFe":6715,"NaSe":6716,"CdY":6717,"ĠReCl":6718,"1515":6719,"1522":6720,"TaV":6721,"2194":6722,"22692":6723,"8883":6724,"ĠTcOs":6725,"HgZn":6726,"068":6727,"8629":6728,"Ġmonox":6729,"CrH":6730,"CrRu":6731,"235":6732,"MnS":6733,"2512":6734,"2593":6735,"2560":6736,"668":6737,"7498":6738,"1958":6739,"8262":6740,"794":6741,"6849":6742,"184":6743,"18192":6744,"9752":6745,"9784":6746,"976765":6747,"6049":6748,"6037":6749,"044":6750,"ReNi":6751,"5682":6752,"5681":6753,"TcCl":6754,"7289":6755,"135":6756,"1321":6757,"RbH":6758,"492":6759,"631":6760,"6363":6761,"927":6762,"9922":6763,"017":6764,"17123":6765,"17757":6766,"27838":6767,"30336":6768,"11033":6769,"11053":6770,"11057":6771,"11896":6772,"12272":6773,"11440":6774,"11466":6775,"1186444":6776,"1216851":6777,"1183209":6778,"1183224":6779,"1079460":6780,"1220678":6781,"1220085":6782,"569867":6783,"569535":6784,"867212":6785,"567313":6786,"1187077":6787,"1219509":6788,"1219539":6789,"1219734":6790,"ĠSZnCd":6791,"1018115":6792,"1018125":6793,"30852":6794,"1217804":6795,"1223503":6796,"1184994":6797,"1188303":6798,"1188800":6799,"570691":6800,"570130":6801,"570197":6802,"1078697":6803,"1062030":6804,"1066254":6805,"1186031":6806,"20405":6807,"568718":6808,"568789":6809,"22075":6810,"1184713":6811,"865166":6812,"1056037":6813,"1339":6814,"ĠSeRbBi":6815,"30668":6816,"29619":6817,"1189230":6818,"5735":6819,"1207251":6820,"1078696":6821,"1206431":6822,"2802":6823,"21068":6824,"570844":6825,"9897":6826,"989782":6827,"15954":6828,"2168":6829,"27410":6830,"672256":6831,"24721":6832,"17974":6833,"998979":6834,"1205301":6835,"1178742":6836,"1014229":6837,"559676":6838,"1215997":6839,"17190":6840,"607111":6841,"16523":6842,"16528":6843,"864647":6844,"1207393":6845,"1104341":6846,"1534":6847,"18032":6848,"1102384":6849,"1017983":6850,"23253":6851,"972088":6852,"568018":6853,"1217407":6854,"972228":6855,"684799":6856,"684602":6857,"1084800":6858,"1095269":6859,"1216519":6860,"999133":6861,"1022721":6862,"971662":6863,"31493":6864,"574338":6865,"949029":6866,"569785":6867,"862871":6868,"977585":6869,"1221413":6870,"554462":6871,"1103842":6872,"510522":6873,"784630":6874,"690760":6875,"639874":6876,"622209":6877,"978974":6878,"640416":6879,"Ġberyllia":6880,"Ġmonoxide":6881,"978498":6882,"172":6883,"11220":6884,"1502":6885,"285":6886,"262":6887,"261":6888,"2434":6889,"2404":6890,"2500":6891,"2534":6892,"350":6893,"321":6894,"376":6895,"358":6896,"363":6897,"442":6898,"518":6899,"6âĤģ":6900,"655":6901,"733":6902,"853":6903,"9938":6904,"9939":6905,"NCl":6906,"SK":6907,"SZr":6908,"nner":6909,"renner":6910,"ĠCCr":6911,"ĠSul":6912,"ĠAlRu":6913,"ĠTiSn":6914,"ĠPdFe":6915,"ĠHfRh":6916,"2086":6917,"2002":6918,"20672":6919,"20695":6920,"20849":6921,"20327":6922,"ĠGaBiAs":6923,"ĠSeTl":6924,"InAs":6925,"FeRh":6926,"ĠAsNa":6927,"TeCl":6928,"801":6929,"806":6930,"PtSb":6931,"PtSc":6932,"1049":6933,"10015":6934,"10026":6935,"10106":6936,"10159":6937,"10886":6938,"10759":6939,"ĠKrenner":6940,"ĠCoNi":6941,"ĠCoNiTe":6942,"GaC":6943,"GaPt":6944,"ĠFeCu":6945,"1235":6946,"12700":6947,"12524":6948,"CuAs":6949,"RhH":6950,"RhPd":6951,"ĠRbP":6952,"ĠRbPbCl":6953,"AgSe":6954,"AgHg":6955,"AgInS":6956,"HfSe":6957,"HfBi":6958,"HfMn":6959,"ZrAl":6960,"ZrCr":6961,"ZrCoGa":6962,"5406":6963,"6753":6964,"6762":6965,"1115":6966,"1152":6967,"1136":6968,"11675":6969,"11328":6970,"11514":6971,"333":6972,"3342":6973,"CoPt":6974,"1683":6975,"1648":6976,"RuPt":6977,"056":6978,"CaSe":6979,"CaBi":6980,"NaS":6981,"CdN":6982,"ĠReAl":6983,"PbP":6984,"15965":6985,"21400":6986,"2223":6987,"22862":6988,"ScCl":6989,"ScOs":6990,"8881":6991,"8625":6992,"SrN":6993,"CrGe":6994,"ĠOsGe":6995,"23179":6996,"23713":6997,"931":6998,"2583":6999,"2582":7000,"664":7001,"TlBi":7002,"TlSr":7003,"1989":7004,"458":7005,"571079":7006,"1823":7007,"976419":7008,"OsAs":7009,"2420":7010,"2469":7011,"2455":7012,"ReAl":7013,"ReRu":7014,"294":7015,"5613":7016,"TcSi":7017,"TcZn":7018,"726":7019,"1357":7020,"1397":7021,"995":7022,"9986":7023,"2767":7024,"2715":7025,"2775":7026,"2685":7027,"12015":7028,"12078":7029,"12090":7030,"30673":7031,"30463":7032,"11010":7033,"12280":7034,"12262":7035,"11411":7036,"10910":7037,"10905":7038,"1091415":7039,"1186175":7040,"1186853":7041,"1078500":7042,"1072086":7043,"1183222":7044,"1183214":7045,"1079127":7046,"1079296":7047,"1017565":7048,"1018948":7049,"867126":7050,"567207":7051,"1080522":7052,"1080376":7053,"1187697":7054,"11912":7055,"11922":7056,"30875":7057,"1123":7058,"1184657":7059,"1188393":7060,"570483":7061,"1221429":7062,"ĠCdTeSe":7063,"30343":7064,"1184791":7065,"2126":7066,"30483":7067,"11507":7068,"11550":7069,"1224390":7070,"CaZnSi":7071,"29661":7072,"13688":7073,"1215401":7074,"16756":7075,"979261":7076,"983459":7077,"1009834":7078,"1009733":7079,"573763":7080,"1023900":7081,"1023926":7082,"1023934":7083,"1209024":7084,"865598":7085,"865527":7086,"1103536":7087,"685124":7088,"685149":7089,"1008555":7090,"1079910":7091,"865385":7092,"865357":7093,"999544":7094,"16315":7095,"1883":7096,"672204":7097,"672232":7098,"1187952":7099,"1094267":7100,"21182":7101,"8937":7102,"974376":7103,"1228815":7104,"571651":7105,"1179094":7106,"1206704":7107,"CaPtIn":7108,"2732":7109,"1080448":7110,"571053":7111,"1217255":7112,"1070103":7113,"17013":7114,"ĠSMnCd":7115,"1095495":7116,"29767":7117,"13871":7118,"567397":7119,"19724":7120,"974951":7121,"23193":7122,"1215518":7123,"1080001":7124,"1102900":7125,"557719":7126,"1100773":7127,"570786":7128,"1187196":7129,"990090":7130,"1078989":7131,"2637":7132,"569815":7133,"1017545":7134,"542569":7135,"1476":7136,"1226933":7137,"1206268":7138,"11563":7139,"1105633":7140,"1068510":7141,"1102616":7142,"984698":7143,"554609":7144,"1212407":7145,"ĠSulvanite":7146,"ĠKrennerite":7147,"561320":7148,"189":7149,"1501":7150,"1547":7151,"284":7152,"272":7153,"2730":7154,"2670":7155,"316":7156,"389":7157,"329":7158,"488":7159,"486":7160,"593":7161,"6074":7162,"762":7163,"7092":7164,"7818":7165,"7674":7166,"7897":7167,"988":7168,"987":7169,"9122":7170,"VP":7171,"VPd":7172,"WRu":7173,"WCl":7174,"WOs":7175,"YS":7176,"YRu":7177,"YIrSi":7178,"ĠNTc":7179,"ĠPma":7180,"ĠPTe":7181,"vell":7182,"ĠTiMn":7183,"ĠTiOs":7184,"ĠCaFe":7185,"AlSn":7186,"AlPS":7187,"AlNiGe":7188,"ĠNiN":7189,"20826":7190,"ĠZrTiSe":7191,"InN":7192,"InSb":7193,"ĠTeCl":7194,"ĠTeTl":7195,"PdAs":7196,"ĠNbMoSe":7197,"ĠSrCaSi":7198,"TeP":7199,"ĠRhHf":7200,"ĠSbV":7201,"ĠSbCd":7202,"ĠSbOs":7203,"ĠTaRe":7204,"TiAg":7205,"TiCd":7206,"1073":7207,"1024":7208,"10570":7209,"10698":7210,"10744":7211,"ĠCoGa":7212,"ĠCoBi":7213,"ĠCovell":7214,"GeN":7215,"SnH":7216,"1279":7217,"1260":7218,"1264":7219,"12139":7220,"12802":7221,"12772":7222,"ZnCu":7223,"ZnTc":7224,"093":7225,"RhGa":7226,"RhRu":7227,"HfFe":7228,"ZrW":7229,"ĠCdSr":7230,"1135":7231,"11460":7232,"11191":7233,"4306":7234,"33024":7235,"076":7236,"ĠClCd":7237,"1682":7238,"1638":7239,"16514":7240,"16960":7241,"MoW":7242,"MoCo":7243,"6985":7244,"058":7245,"0588":7246,"NaSbS":7247,"NaBiSe":7248,"CdCa":7249,"ĠReTa":7250,"1578":7251,"1558":7252,"1591":7253,"5567":7254,"5588":7255,"5587":7256,"2242":7257,"2261":7258,"2231":7259,"ScN":7260,"ScPb":7261,"ĠTcZr":7262,"HgSn":7263,"HgBi":7264,"HgCl":7265,"8640":7266,"402":7267,"SrRh":7268,"SrCa":7269,"CrNi":7270,"CrIr":7271,"ĠOsSb":7272,"2395":7273,"2398":7274,"23295":7275,"23299":7276,"703":7277,"7583":7278,"7582":7279,"1953":7280,"1950":7281,"1941":7282,"19713":7283,"19795":7284,"7916":7285,"736":7286,"1825":7287,"1874":7288,"2418":7289,"594":7290,"5193":7291,"ReMo":7292,"ReTa":7293,"568646":7294,"560588":7295,"TcN":7296,"1412":7297,"728":7298,"7262":7299,"1393":7300,"RbAs":7301,"903":7302,"63221":7303,"63633":7304,"9984":7305,"9998":7306,"982261":7307,"2733":7308,"12088":7309,"12084":7310,"12087":7311,"30672":7312,"30479":7313,"11050":7314,"11046":7315,"12278":7316,"1228607":7317,"12175":7318,"12181":7319,"1214306":7320,"11412":7321,"11454":7322,"1186017":7323,"1071078":7324,"1216498":7325,"ĠAlNiGe":7326,"1183227":7327,"1183998":7328,"1183542":7329,"ĠKKAs":7330,"1079131":7331,"1079094":7332,"569426":7333,"569776":7334,"10254":7335,"10285":7336,"ĠSCuBi":7337,"867780":7338,"567525":7339,"567832":7340,"10802":7341,"1219503":7342,"ĠMoTeSe":7343,"1191079":7344,"ĠSSbPd":7345,"ĠSSbOs":7346,"1018123":7347,"30856":7348,"1224809":7349,"1217166":7350,"1217163":7351,"1217894":7352,"1184119":7353,"1184670":7354,"1188926":7355,"570491":7356,"12213":7357,"10054":7358,"10047":7359,"1078780":7360,"ĠTeGeRh":7361,"ĠNZrZn":7362,"ĠPZnP":7363,"1007656":7364,"ĠSBiPb":7365,"1061133":7366,"1186990":7367,"11322":7368,"11397":7369,"30367":7370,"1018055":7371,"1225676":7372,"30571":7373,"30500":7374,"16609":7375,"862798":7376,"ĠInSrAu":7377,"1077083":7378,"1215497":7379,"16718":7380,"CuAlS":7381,"ĠPKTeP":7382,"1185099":7383,"1185042":7384,"971673":7385,"ĠSrSnP":7386,"1025397":7387,"22154":7388,"22192":7389,"ĠSCrCu":7390,"20905":7391,"1103139":7392,"685022":7393,"20320":7394,"977129":7395,"1008634":7396,"989737":7397,"865425":7398,"1882":7399,"27411":7400,"31150":7401,"1187913":7402,"ScRhGe":7403,"24726":7404,"1103211":7405,"1228803":7406,"571640":7407,"1205322":7408,"1205346":7409,"1178745":7410,"849059":7411,"1018149":7412,"1070544":7413,"1199503":7414,"17045":7415,"1057286":7416,"29711":7417,"18063":7418,"1187811":7419,"1017985":7420,"1017987":7421,"776470":7422,"17564":7423,"861610":7424,"32682":7425,"1187486":7426,"ĠSPIr":7427,"1077372":7428,"680731":7429,"706531":7430,"1087219":7431,"1187243":7432,"571505":7433,"1079681":7434,"14587":7435,"985451":7436,"1079172":7437,"627397":7438,"1191538":7439,"SSOs":7440,"17706":7441,"29266":7442,"568516":7443,"30045":7444,"17449":7445,"1084753":7446,"1087486":7447,"567596":7448,"12595":7449,"36216":7450,"569007":7451,"1056308":7452,"999318":7453,"1002122":7454,"1190841":7455,"1096992":7456,"753304":7457,"1070580":7458,"979911":7459,"1105302":7460,"573579":7461,"38970":7462,"767469":7463,"ĠPTeIr":7464,"1057015":7465,"ĠCovellite":7466,"632219":7467,"636334":7468,"1460":7469,"1739":7470,"1894":7471,"277":7472,"21187":7473,"2503":7474,"2648":7475,"351":7476,"31214":7477,"520":7478,"510032":7479,"7549":7480,"7162":7481,"879":7482,"947":7483,"9227":7484,"PN":7485,"VNi":7486,"WC":7487,"five":7488,"mnc":7489,"ĠSPd":7490,"ĠInSnCl":7491,"ĠHfIn":7492,"2053":7493,"20131":7494,"20433":7495,"ĠGaCo":7496,"ĠGaMo":7497,"ĠSiRu":7498,"ĠZrFe":7499,"ĠPtCr":7500,"ĠSeV":7501,"InSnCl":7502,"FePt":7503,"FeNiSb":7504,"PdY":7505,"PdSb":7506,"SiRe":7507,"ĠVNi":7508,"ĠVOs":7509,"ĠWC":7510,"ĠWV":7511,"1021":7512,"1022":7513,"1028":7514,"10229":7515,"10125":7516,"10052":7517,"NiIr":7518,"ĠFeV":7519,"ĠFePt":7520,"ĠFeRu":7521,"ĠAuZr":7522,"ĠAuSc":7523,"ĠAuTl":7524,"1281":7525,"12107":7526,"12699":7527,"12628":7528,"AgCu":7529,"AgBi":7530,"ĠIrCl":7531,"HfRhSn":7532,"5409":7533,"542339":7534,"AuHf":7535,"6726":7536,"11473":7537,"11474":7538,"11192":7539,"11457":7540,"11690":7541,"CoCu":7542,"1602":7543,"1618":7544,"MoN":7545,"MoTeSe":7546,"IrZn":7547,"ĠHgCl":7548,"ĠHgTl":7549,"NbAu":7550,"NbTc":7551,"5053":7552,"CdAl":7553,"PbAs":7554,"PbSnS":7555,"1592":7556,"TaGa":7557,"2187":7558,"5555":7559,"5557":7560,"2260":7561,"22568":7562,"22795":7563,"ScBi":7564,"ScTc":7565,"HgP":7566,"HgPb":7567,"8624":7568,"SrSe":7569,"2318":7570,"23167":7571,"23291":7572,"23279":7573,"MnCo":7574,"2507":7575,"669692":7576,"TlSb":7577,"7509":7578,"7553":7579,"1984":7580,"19717":7581,"4647":7582,"732":7583,"738":7584,"7343":7585,"5709":7586,"9785":7587,"6080":7588,"604647":7589,"OsCl":7590,"2490":7591,"5911":7592,"513":7593,"ReP":7594,"8462":7595,"568607":7596,"TcP":7597,"1411":7598,"1340":7599,"1379":7600,"1326":7601,"13164":7602,"RbSrCl":7603,"495":7604,"611219":7605,"9254":7606,"9262":7607,"32697":7608,"2753":7609,"2786":7610,"27166":7611,"2686":7612,"1201":7613,"30338":7614,"31472":7615,"31430":7616,"11052":7617,"11024":7618,"11039":7619,"1105911":7620,"1181222":7621,"12178":7622,"12177":7623,"11416":7624,"10783":7625,"1183643":7626,"1183205":7627,"1183647":7628,"12200":7629,"1220657":7630,"1220327":7631,"1220879":7632,"1215503":7633,"1215274":7634,"1215543":7635,"10193":7636,"1969":7637,"569979":7638,"569544":7639,"569989":7640,"569322":7641,"569837":7642,"567484":7643,"567540":7644,"1187739":7645,"1187248":7646,"11943":7647,"1194653":7648,"30811":7649,"30884":7650,"1224803":7651,"1217961":7652,"1217168":7653,"ĠNaSbSe":7654,"11287":7655,"11227":7656,"1184804":7657,"1188155":7658,"1188462":7659,"1221793":7660,"1007755":7661,"1186977":7662,"1186976":7663,"1087509":7664,"1025159":7665,"30354":7666,"1018027":7667,"974558":7668,"1184704":7669,"21294":7670,"30496":7671,"11573":7672,"1224388":7673,"ĠAsZnSn":7674,"973676":7675,"12778":7676,"13364":7677,"30686":7678,"10777":7679,"1077116":7680,"1077263":7681,"866121":7682,"10388":7683,"1039262":7684,"505510":7685,"15650":7686,"1218044":7687,"1218017":7688,"1009460":7689,"1868":7690,"1102657":7691,"1102895":7692,"1188042":7693,"31053":7694,"ĠTiCuNi":7695,"1226728":7696,"570895":7697,"1072645":7698,"16511":7699,"571547":7700,"ĠSeMnZn":7701,"1094254":7702,"1094272":7703,"14288":7704,"850083":7705,"570632":7706,"985829":7707,"570578":7708,"1080493":7709,"504659":7710,"1341":7711,"13447":7712,"1077978":7713,"17173":7714,"607138":7715,"1207781":7716,"972351":7717,"28266":7718,"1187812":7719,"1216486":7720,"1208852":7721,"1102364":7722,"1217363":7723,"568320":7724,"861630":7725,"865910":7726,"972941":7727,"1229012":7728,"866006":7729,"972069":7730,"542640":7731,"1187702":7732,"684609":7733,"983388":7734,"17615":7735,"632311":7736,"ReSiReSi":7737,"971661":7738,"17728":7739,"574379":7740,"568595":7741,"1219533":7742,"1195735":7743,"556597":7744,"17413":7745,"1071777":7746,"1103570":7747,"1190267":7748,"971779":7749,"1066136":7750,"755435":7751,"568971":7752,"623511":7753,"984744":7754,"1228524":7755,"1226170":7756,"1227285":7757,"17216":7758,"558811":7759,"754954":7760,"555763":7761,"271":7762,"246":7763,"2103":7764,"2156":7765,"2857":7766,"583":7767,"5541":7768,"5837":7769,"689":7770,"61907":7771,"7051":7772,"842":7773,"872":7774,"8200":7775,"924":7776,"913":7777,"PTe":7778,"PCl":7779,"YFe":7780,"ea":7781,"ix":7782,"nnc":7783,"six":7784,"ĠIron":7785,"ĠAea":7786,"ĠAlCrFe":7787,"ĠHRh":7788,"ĠCaAl":7789,"ĠCaTi":7790,"ĠCaRh":7791,"AlTa":7792,"2081":7793,"2063":7794,"20862":7795,"20900":7796,"ĠSiCl":7797,"ĠZrCd":7798,"ĠSeCl":7799,"ĠYPd":7800,"PdSc":7801,"SiCl":7802,"ĠVCr":7803,"ĠSrCu":7804,"ĠSrCa":7805,"ĠTaMn":7806,"TiHg":7807,"ĠMoC":7808,"ĠMoGe":7809,"PtC":7810,"10695":7811,"ĠKSi":7812,"ĠGeRh":7813,"ĠGeZr":7814,"ĠGeTa":7815,"SnGe":7816,"12120":7817,"ZnSi":7818,"ZnSr":7819,"ZnSiAs":7820,"CuN":7821,"CuIr":7822,"RhPb":7823,"ĠRbAs":7824,"AgS":7825,"AgPt":7826,"AgSbS":7827,"ZrMoAl":7828,"5410":7829,"5428":7830,"AuBi":7831,"AuSc":7832,"ĠCdCo":7833,"1175":7834,"11546":7835,"11814":7836,"3314":7837,"ĠNHS":7838,"0894":7839,"1627":7840,"1628":7841,"MoC":7842,"MoOs":7843,"IrY":7844,"IrCo":7845,"IrNb":7846,"IrZrSn":7847,"RuZn":7848,"CaCo":7849,"NaSi":7850,"PbSnTe":7851,"1585":7852,"1582":7853,"1526":7854,"15964":7855,"TaSe":7856,"TaNi":7857,"TaNiP":7858,"2285":7859,"22704":7860,"ScCoSi":7861,"HgGa":7862,"HgTl":7863,"8696":7864,"8642":7865,"0220":7866,"CrOs":7867,"ĠOsY":7868,"ĠOsSe":7869,"ĠOsHf":7870,"2354":7871,"2305":7872,"2322":7873,"2371":7874,"23759":7875,"890":7876,"7440":7877,"TlHg":7878,"8360":7879,"1943":7880,"8282":7881,"571199":7882,"973342":7883,"OsSe":7884,"OsPd":7885,"2480":7886,"5134":7887,"34202":7888,"5686":7889,"761":7890,"7667":7891,"1371":7892,"RbAuTe":7893,"9008":7894,"630":7895,"632":7896,"32791":7897,"9947":7898,"9902":7899,"9925":7900,"9945":7901,"1775":7902,"2781":7903,"27258":7904,"2634":7905,"12054":7906,"1201836":7907,"1200894":7908,"1200220":7909,"30337":7910,"CsCaCl":7911,"11011":7912,"11062":7913,"110188":7914,"1105134":7915,"12221":7916,"12240":7917,"12196":7918,"1186100":7919,"1186115":7920,"10782":7921,"11837":7922,"1183137":7923,"ĠCdAsCl":7924,"ĠAsAsOs":7925,"ĠSnTePd":7926,"867303":7927,"1187073":7928,"1187884":7929,"1187241":7930,"1219522":7931,"ĠSSbRu":7932,"1018672":7933,"30885":7934,"1217429":7935,"1223714":7936,"11256":7937,"1188336":7938,"1188645":7939,"ĠAsTeOs":7940,"12217":7941,"10009":7942,"1002063":7943,"1063314":7944,"ĠFeSbTe":7945,"1186974":7946,"ĠSCoCu":7947,"1186040":7948,"568115":7949,"568746":7950,"ĠNYW":7951,"ĠScAlRh":7952,"30383":7953,"ĠSKBi":7954,"22033":7955,"1184772":7956,"21237":7957,"30482":7958,"30494":7959,"12466":7960,"1225656":7961,"1225751":7962,"1229015":7963,"1229101":7964,"973092":7965,"865077":7966,"865899":7967,"12724":7968,"30572":7969,"1058696":7970,"1331":7971,"1215488":7972,"11899":7973,"16723":7974,"1105651":7975,"30746":7976,"30792":7977,"ĠTeAsOs":7978,"ĠSeCaPb":7979,"22904":7980,"1863":7981,"ĠNAlGa":7982,"CaAuIn":7983,"21030":7984,"1226726":7985,"570870":7986,"570875":7987,"972828":7988,"ĠSFeCo":7989,"1008488":7990,"1072429":7991,"SrAuCd":7992,"1079997":7993,"1079914":7994,"15953":7995,"865342":7996,"865362":7997,"999192":7998,"21657":7999,"16319":8000,"27413":8001,"672222":8002,"1187946":8003,"555935":8004,"1404":8005,"14018":8006,"21170":8007,"862770":8008,"862779":8009,"998981":8010,"998972":8011,"974335":8012,"1228882":8013,"571642":8014,"1095513":8015,"22812":8016,"1014219":8017,"1217971":8018,"571059":8019,"1104019":8020,"1215779":8021,"13450":8022,"1079597":8023,"1217192":8024,"1216325":8025,"28878":8026,"20033":8027,"17146":8028,"1207380":8029,"1734":8030,"1216480":8031,"568380":8032,"510691":8033,"1095694":8034,"568067":8035,"1101754":8036,"1224840":8037,"HfCuGe":8038,"1207004":8039,"1219396":8040,"ĠCmme":8041,"1206371":8042,"570751":8043,"1217048":8044,"669546":8045,"ĠSAsOs":8046,"863648":8047,"1103034":8048,"1227486":8049,"542454":8050,"569708":8051,"541885":8052,"567929":8053,"1200988":8054,"1206573":8055,"1025044":8056,"769096":8057,"12594":8058,"675060":8059,"1196961":8060,"1062758":8061,"568865":8062,"1181940":8063,"1188512":8064,"867922":8065,"1190908":8066,"504812":8067,"505528":8068,"616559":8069,"1191083":8070,"510412":8071,"1061861":8072,"20027":8073,"1201560":8074,"607450":8075,"1025448":8076,"540912":8077,"554134":8078,"583740":8079,"619071":8080,"1101884":8081,"182":8082,"1700":8083,"1434":8084,"250":8085,"265":8086,"2698":8087,"31205":8088,"414":8089,"682":8090,"646":8091,"774":8092,"993":8093,"SH":8094,"VCo":8095,"odi":8096,"ĠSGe":8097,"ĠSAu":8098,"ĠInSn":8099,"âĤĤâĤĩ":8100,"romium":8101,"ĠHCr":8102,"Ġtriodi":8103,"âĤģâĤĪ":8104,"AlRe":8105,"2072":8106,"2049":8107,"20074":8108,"20191":8109,"ĠBis":8110,"ĠSiCoP":8111,"ĠYAs":8112,"SiSb":8113,"ĠNbTc":8114,"AsK":8115,"ĠZnSiNi":8116,"ĠSbN":8117,"ĠSbZn":8118,"ĠTaTiFe":8119,"TiTaFe":8120,"PtIn":8121,"PtSnSb":8122,"10569":8123,"ĠAgZr":8124,"GaAg":8125,"NiN":8126,"NiSn":8127,"NiRu":8128,"SbRu":8129,"ĠFeH":8130,"ĠFePd":8131,"ĠAuSb":8132,"ĠCrPt":8133,"GePt":8134,"1297":8135,"CuRh":8136,"AgAu":8137,"AgInSe":8138,"AgSbSe":8139,"AgBiTe":8140,"ĠBiMo":8141,"ĠRuNb":8142,"HfH":8143,"HfTeSe":8144,"HfNiGa":8145,"5412":8146,"541180":8147,"ĠCdHg":8148,"6755":8149,"6751":8150,"1111":8151,"1170":8152,"1181":8153,"1139":8154,"11828":8155,"11506":8156,"962":8157,"ĠClCu":8158,"CoBi":8159,"CoSbSe":8160,"CoNiTe":8161,"1690":8162,"Ġ81":8163,"MoNi":8164,"6986":8165,"IrBi":8166,"RuNi":8167,"BiMo":8168,"NbRe":8169,"NbMoSe":8170,"CaRh":8171,"CaIrIn":8172,"ĠCsSrCl":8173,"CdHg":8174,"PbGe":8175,"1554":8176,"1521":8177,"15700":8178,"15698":8179,"15624":8180,"TaH":8181,"TaCl":8182,"21895":8183,"5583":8184,"2243":8185,"2221":8186,"2291":8187,"22889":8188,"22856":8189,"22236":8190,"ScAu":8191,"ScRuSi":8192,"8810":8193,"7140":8194,"8663":8195,"8632":8196,"8635":8197,"8639":8198,"237":8199,"2377":8200,"626":8201,"629":8202,"660":8203,"TlCaCl":8204,"7564":8205,"1954":8206,"1902":8207,"1914":8208,"19814":8209,"1853":8210,"24155":8211,"7819":8212,"ReAlGe":8213,"848":8214,"5610":8215,"7631":8216,"148":8217,"7273":8218,"1380":8219,"13156":8220,"RbNa":8221,"499":8222,"4979":8223,"9016":8224,"637":8225,"6308":8226,"6372":8227,"63980":8228,"995193":8229,"3509":8230,"1743":8231,"982070":8232,"27731":8233,"12085":8234,"30421":8235,"30674":8236,"11041":8237,"11027":8238,"12182":8239,"1186127":8240,"1186060":8241,"1186964":8242,"1186187":8243,"1186968":8244,"10711":8245,"1216675":8246,"1216231":8247,"1183206":8248,"1183143":8249,"1079297":8250,"1079082":8251,"1215971":8252,"1215257":8253,"1018891":8254,"569250":8255,"10296":8256,"10263":8257,"567279":8258,"567612":8259,"1080657":8260,"1187541":8261,"1187969":8262,"1187257":8263,"1187665":8264,"1219462":8265,"11905":8266,"11906":8267,"1199016":8268,"ĠTiGeRu":8269,"10187":8270,"1018103":8271,"30853":8272,"1217422":8273,"11241":8274,"11228":8275,"1184693":8276,"570673":8277,"570428":8278,"ĠChromium":8279,"ĠSiPH":8280,"10004":8281,"10014":8282,"1003509":8283,"1078443":8284,"1186967":8285,"1186970":8286,"1186973":8287,"20465":8288,"20497":8289,"10258":8290,"ĠInAsP":8291,"ĠInAsSe":8292,"11393":8293,"30368":8294,"1018056":8295,"22079":8296,"ĠSSnSb":8297,"30481":8298,"30418":8299,"1229100":8300,"ĠTiZnCu":8301,"ĠNTaMo":8302,"30594":8303,"16610":8304,"30619":8305,"1178810":8306,"29642":8307,"ĠPSiP":8308,"1215437":8309,"1672":8310,"1105852":8311,"979115":8312,"979751":8313,"15622":8314,"1078666":8315,"12187":8316,"1206239":8317,"ĠHfZnIr":8318,"1209828":8319,"31010":8320,"31086":8321,"1184681":8322,"21065":8323,"16522":8324,"999204":8325,"YPdSi":8326,"YPdGe":8327,"672216":8328,"27902":8329,"12910":8330,"864794":8331,"864798":8332,"12474":8333,"24723":8334,"975834":8335,"14017":8336,"1791":8337,"974370":8338,"974326":8339,"1228817":8340,"31313":8341,"1179336":8342,"1179520":8343,"CaHgSn":8344,"1218928":8345,"YRhIn":8346,"849060":8347,"1206780":8348,"1206741":8349,"570689":8350,"570687":8351,"1226035":8352,"985806":8353,"1104502":8354,"1104165":8355,"1120774":8356,"571060":8357,"1104010":8358,"1190136":8359,"10703":8360,"1077942":8361,"21589":8362,"1216300":8363,"644494":8364,"1207392":8365,"1104372":8366,"1106169":8367,"1106195":8368,"1025551":8369,"SrPtIn":8370,"1217322":8371,"567345":8372,"1013545":8373,"569683":8374,"569624":8375,"17593":8376,"27606":8377,"32654":8378,"32669":8379,"510209":8380,"ĠPCuSi":8381,"866022":8382,"972071":8383,"1101783":8384,"1078875":8385,"1183489":8386,"542634":8387,"RbGaH":8388,"1077482":8389,"972220":8390,"684650":8391,"1219940":8392,"1084805":8393,"1208221":8394,"567705":8395,"642644":8396,"571143":8397,"977390":8398,"1094136":8399,"632319":8400,"22682":8401,"862259":8402,"865640":8403,"1091387":8404,"33018":8405,"862620":8406,"1103643":8407,"1223845":8408,"AlFeY":8409,"697179":8410,"30021":8411,"1200912":8412,"1206819":8413,"1232213":8414,"672326":8415,"567597":8416,"1211471":8417,"1192532":8418,"1103177":8419,"1071269":8420,"1071288":8421,"755453":8422,"1006132":8423,"1079467":8424,"1183040":8425,"560025":8426,"ĠAlReGe":8427,"974455":8428,"684989":8429,"1105778":8430,"1192251":8431,"1069815":8432,"1208406":8433,"505363":8434,"755328":8435,"978553":8436,"608072":8437,"1019319":8438,"1038828":8439,"24650":8440,"sixth":8441,"542812":8442,"Ġtriodide":8443,"ĠBismuth":8444,"1056985":8445,"1181961":8446,"1182885":8447,"558378":8448,"639805":8449,"245":8450,"2828":8451,"2663":8452,"2677":8453,"302":8454,"415":8455,"446":8456,"481":8457,"413":8458,"580":8459,"582":8460,"5826":8461,"667":8462,"618":8463,"619905":8464,"712":8465,"767":8466,"788":8467,"729":8468,"7126":8469,"7539":8470,"925":8471,"9889":8472,"9888":8473,"SN":8474,"YCo":8475,"YHg":8476,"YPtGe":8477,"YIrSn":8478,"YWN":8479,"YCoIn":8480,"Ġmvc":8481,"ĠNS":8482,"ĠInGaAs":8483,"ĠAlZnIr":8484,"âĤĦâĤħ":8485,"âĤĤâĤĤ":8486,"AlY":8487,"AlNb":8488,"2052":8489,"2084":8490,"20901":8491,"20050":8492,"ĠGaTc":8493,"ĠGaPS":8494,"ĠZrMn":8495,"SeCl":8496,"ĠNaV":8497,"InGaAs":8498,"ĠTeRh":8499,"ĠTeCs":8500,"ĠCuFe":8501,"FeCu":8502,"SiGe":8503,"ĠAsCr":8504,"ĠAsRb":8505,"ĠNbRe":8506,"ĠScFe":8507,"ĠScRu":8508,"ĠScHg":8509,"ĠScMn":8510,"ĠScTc":8511,"ĠTaNbMo":8512,"TiSeS":8513,"TiSnSb":8514,"TiRuSi":8515,"TiNbN":8516,"ĠWHf":8517,"1093":8518,"10155":8519,"ĠKV":8520,"ĠKBi":8521,"ĠGeFe":8522,"ĠFeCo":8523,"ĠCrSn":8524,"GePd":8525,"GeRh":8526,"GeCl":8527,"SnC":8528,"SnPd":8529,"SnPS":8530,"1252":8531,"1251":8532,"1299":8533,"12777":8534,"1212463":8535,"ZnSb":8536,"ZnBi":8537,"ZnPb":8538,"ZnHg":8539,"ĠMnCl":8540,"CuInSe":8541,"RhY":8542,"ĠRbSrCl":8543,"AgMo":8544,"AgBiSe":8545,"ĠBiPt":8546,"ĠIrCa":8547,"ZrOs":8548,"ĠCdSn":8549,"4359":8550,"334":8551,"33112":8552,"ĠTlIn":8553,"CoRh":8554,"CoTc":8555,"CoNiSi":8556,"CoSbS":8557,"1642":8558,"1662":8559,"16421":8560,"16886":8561,"6931":8562,"IrPd":8563,"IrCu":8564,"IrAu":8565,"IrSc":8566,"RuAsP":8567,"RuPtAl":8568,"BiN":8569,"BiBi":8570,"ĠHgP":8571,"NbNi":8572,"CaAl":8573,"CaMn":8574,"NaBiS":8575,"NaCdSb":8576,"CdSe":8577,"CdAu":8578,"1573":8579,"5592":8580,"555410":8581,"2282":8582,"2258":8583,"22817":8584,"ScP":8585,"ScAs":8586,"ScHg":8587,"ScNiGa":8588,"887":8589,"8882":8590,"ĠTcY":8591,"ĠTcTa":8592,"2319":8593,"2379":8594,"2363":8595,"23214":8596,"MnPt":8597,"MnAu":8598,"MnRu":8599,"MnCoSi":8600,"8973":8601,"TlSn":8602,"194":8603,"1967":8604,"1925":8605,"7945":8606,"1848":8607,"9769":8608,"976971":8609,"OsTe":8610,"OsRh":8611,"24161":8612,"049":8613,"591":8614,"ReSe":8615,"TcS":8616,"TcAg":8617,"TcCo":8618,"TcTa":8619,"TcMnAl":8620,"7250":8621,"1359":8622,"13503":8623,"13459":8624,"13852":8625,"RbCaCl":8626,"4840":8627,"636":8628,"8786":8629,"9920":8630,"9481":8631,"17695":8632,"9845":8633,"27165":8634,"30471":8635,"30536":8636,"31103":8637,"CsP":8638,"11045":8639,"11044":8640,"1105552":8641,"11843":8642,"12185":8643,"12147":8644,"11449":8645,"2337":8646,"1186142":8647,"12169":8648,"121606":8649,"1183216":8650,"1183641":8651,"1183591":8652,"1220151":8653,"1220079":8654,"1220052":8655,"1220057":8656,"1220631":8657,"ĠCoPS":8658,"1215714":8659,"1215598":8660,"569794":8661,"10212":8662,"10264":8663,"10287":8664,"ĠSnTePt":8665,"ĠTiTeSe":8666,"867125":8667,"867841":8668,"867141":8669,"567276":8670,"1080586":8671,"1187717":8672,"12194":8673,"1219748":8674,"11940":8675,"1018107":8676,"1018105":8677,"30867":8678,"30840":8679,"30882":8680,"1224475":8681,"ĠTaGeRu":8682,"1217113":8683,"1223837":8684,"1129":8685,"11230":8686,"1188869":8687,"1188913":8688,"1188413":8689,"1221422":8690,"1221425":8691,"1078755":8692,"1078213":8693,"1078699":8694,"ĠSeBiPt":8695,"ĠNZrSc":8696,"10074":8697,"10654":8698,"10667":8699,"10621":8700,"1064359":8701,"1186916":8702,"1186955":8703,"1186932":8704,"ĠNYAl":8705,"ĠTeSnPd":8706,"ĠTeSnPt":8707,"ĠTeSnBi":8708,"ĠSTiCr":8709,"ĠTeCdHg":8710,"12469":8711,"11521":8712,"1229048":8713,"973166":8714,"1105666":8715,"1105836":8716,"5050":8717,"505634":8718,"979259":8719,"15669":8720,"15685":8721,"1185976":8722,"755523":8723,"20250":8724,"ĠYCdHg":8725,"1023937":8726,"1025355":8727,"1218335":8728,"ZrRhGe":8729,"2807":8730,"2808":8731,"28056":8732,"1209044":8733,"31019":8734,"31084":8735,"865525":8736,"TiPdGe":8737,"20916":8738,"685048":8739,"570832":8740,"1228947":8741,"999549":8742,"YPdZn":8743,"2797":8744,"CaPdH":8745,"24728":8746,"19871":8747,"19879":8748,"862705":8749,"862747":8750,"998912":8751,"ĠSeSbIr":8752,"ĠSeSbOs":8753,"974358":8754,"14241":8755,"1205379":8756,"980420":8757,"980094":8758,"570684":8759,"1104074":8760,"6432":8761,"32811":8762,"1193055":8763,"1190478":8764,"1205337":8765,"1214894":8766,"1018148":8767,"ĠCaCdPd":8768,"1070498":8769,"1199529":8770,"1079585":8771,"20847":8772,"978546":8773,"16529":8774,"1104327":8775,"15308":8776,"972326":8777,"2824":8778,"1224223":8779,"23037":8780,"1229032":8781,"ĠPCuSnP":8782,"TiPN":8783,"1227319":8784,"1101774":8785,"1080022":8786,"542615":8787,"1078010":8788,"864889":8789,"620471":8790,"684798":8791,"1187233":8792,"1219943":8793,"1095294":8794,"567752":8795,"571266":8796,"632326":8797,"24289":8798,"862260":8799,"SSSCs":8800,"ĠSAsPd":8801,"ĠSAsRh":8802,"555293":8803,"555283":8804,"861910":8805,"1103038":8806,"542484":8807,"21873":8808,"569833":8809,"1079716":8810,"nbc":8811,"ĠGaCuPt":8812,"850014":8813,"ĠAlGaNi":8814,"540703":8815,"672313":8816,"11572":8817,"1025039":8818,"971788":8819,"1062804":8820,"1228753":8821,"1228752":8822,"1190736":8823,"1246392":8824,"866279":8825,"998560":8826,"1226445":8827,"1207193":8828,"1188559":8829,"1079260":8830,"1078466":8831,"863720":8832,"1079496":8833,"30180":8834,"seventh":8835,"555853":8836,"1101121":8837,"862983":8838,"568263":8839,"568172":8840,"636328":8841,"1189633":8842,"35015":8843,"1209003":8844,"32994":8845,"556742":8846,"1105040":8847,"1227810":8848,"1078362":8849,"1194350":8850,"568636":8851,"1101145":8852,"582549":8853,"582681":8854,"767208":8855,"753921":8856,"1093999":8857,"559278":8858,"1936":8859,"2451":8860,"342":8861,"374":8862,"3698":8863,"4889":8864,"507":8865,"51009":8866,"610":8867,"6200":8868,"7670":8869,"873":8870,"8116":8871,"8219":8872,"8479":8873,"953":8874,"956":8875,"KN":8876,"KS":8877,"KNi":8878,"KCd":8879,"KAuCl":8880,"NS":8881,"PSi":8882,"YCoGa":8883,"hite":8884,"ogen":8885,"phite":8886,"raphite":8887,"ĠCyan":8888,"Ġgraphite":8889,"ĠInSnTe":8890,"ĠPCs":8891,"ĠAlInSb":8892,"ĠAlZnCu":8893,"âĤĦâĤĢ":8894,"Ġred":8895,"Ġselenium":8896,"ĠCaPbSe":8897,"AlS":8898,"ĠHfSc":8899,"2089":8900,"20123":8901,"20717":8902,"20937":8903,"ĠZrRu":8904,"ĠNaCaTl":8905,"InPt":8906,"InSnTe":8907,"InAlSb":8908,"ĠYCu":8909,"ĠYRu":8910,"ĠTeGa":8911,"FeNiAl":8912,"ĠNbRuSb":8913,"AsZn":8914,"ĠSrGa":8915,"ĠZnSnSb":8916,"ĠZnGeRh":8917,"TiPt":8918,"TiSn":8919,"TiIr":8920,"TiZnAl":8921,"TiCoGa":8922,"PtMn":8923,"1082":8924,"10281":8925,"10025":8926,"10214":8927,"106043":8928,"ĠKCd":8929,"ĠCoCl":8930,"ĠAgMo":8931,"ĠAgSbTe":8932,"ĠAgSbS":8933,"GaTa":8934,"NiCoGe":8935,"ĠFeMo":8936,"ĠFeNiSb":8937,"GeZn":8938,"SnZn":8939,"1210":8940,"1239":8941,"12826":8942,"12635":8943,"CuH":8944,"CuHf":8945,"CuPb":8946,"RhAu":8947,"RhCo":8948,"ĠRbGe":8949,"AgSb":8950,"AgSc":8951,"AgSbTe":8952,"ĠPbN":8953,"HfW":8954,"HfSiS":8955,"HfRuSi":8956,"ZrTc":8957,"5417":8958,"ĠCdHgTe":8959,"6736":8960,"1118":8961,"1159":8962,"1114":8963,"1113":8964,"11549":8965,"11713":8966,"11829":8967,"4316":8968,"963":8969,"084":8970,"087":8971,"088":8972,"ĠTlNi":8973,"CoMo":8974,"1606":8975,"1637":8976,"1630":8977,"BiRb":8978,"BiSbTe":8979,"NbRuSb":8980,"CaRb":8981,"CaPbSe":8982,"ĠCsCaCl":8983,"ĠCsPbCl":8984,"NaAlSi":8985,"NaCaTl":8986,"CdPt":8987,"1519":8988,"15670":8989,"TaNbW":8990,"2142":8991,"21901":8992,"552":8993,"2295":8994,"ScPtGe":8995,"476":8996,"8842":8997,"HgAs":8998,"HgCdTe":8999,"064":9000,"8620":9001,"SrAlSi":9002,"028":9003,"CrSb":9004,"CrAlGe":9005,"23933":9006,"MnTc":9007,"256":9008,"2578":9009,"8312":9010,"19968":9011,"7372":9012,"9721":9013,"OsN":9014,"OsW":9015,"24809":9016,"5921":9017,"ReCl":9018,"6442":9019,"844":9020,"29973":9021,"TcMn":9022,"727":9023,"7260":9024,"1361":9025,"1392":9026,"1395":9027,"RbBi":9028,"4140":9029,"490":9030,"9147":9031,"32758":9032,"32884":9033,"32630":9034,"9996":9035,"9946":9036,"3760":9037,"1780":9038,"2752":9039,"27164":9040,"27335":9041,"2654":9042,"2642":9043,"12032":9044,"120179":9045,"1203760":9046,"30464":9047,"31105":9048,"28229":9049,"CsAg":9050,"11073":9051,"11018":9052,"11060":9053,"1101178":9054,"12220":9055,"12245":9056,"12268":9057,"12277":9058,"11445":9059,"1094140":9060,"23304":9061,"1186231":9062,"10716":9063,"10775":9064,"1216505":9065,"1216977":9066,"1216128":9067,"1216173":9068,"1216242":9069,"1183151":9070,"1183969":9071,"ĠMoSSe":9072,"1079112":9073,"1079776":9074,"1079438":9075,"1079029":9076,"1079832":9077,"1220502":9078,"1220426":9079,"1220401":9080,"1215524":9081,"1215338":9082,"ĠNbGeRu":9083,"569857":9084,"569594":9085,"569727":9086,"10276":9087,"ĠCdAsPd":9088,"ĠTiTeRu":9089,"867169":9090,"867909":9091,"567505":9092,"10807":9093,"1187433":9094,"1187790":9095,"11921":9096,"1191483":9097,"1018807":9098,"30886":9099,"30866":9100,"1217093":9101,"1217076":9102,"1223755":9103,"1223695":9104,"1223860":9105,"1223664":9106,"ĠWSCl":9107,"11237":9108,"11238":9109,"1184676":9110,"1184058":9111,"570451":9112,"ĠChloride":9113,"ĠSbTePd":9114,"ĠZrSbRh":9115,"ĠTeInHg":9116,"ĠClKNa":9117,"ĠTiPN":9118,"10682":9119,"1186926":9120,"1186016":9121,"568232":9122,"1025229":9123,"1025176":9124,"ĠAlPPt":9125,"974435":9126,"974430":9127,"1184766":9128,"11566":9129,"1224342":9130,"1229090":9131,"973983":9132,"973143":9133,"865960":9134,"30581":9135,"WSCl":9136,"1056486":9137,"30684":9138,"CaZnSn":9139,"1077232":9140,"1215452":9141,"11890":9142,"1189474":9143,"866108":9144,"1039147":9145,"1105935":9146,"ĠAlSiSr":9147,"30787":9148,"505297":9149,"1067210":9150,"1009641":9151,"1185935":9152,"755633":9153,"971751":9154,"YAgTe":9155,"YAgSn":9156,"1207421":9157,"ZrRhSb":9158,"1188040":9159,"ĠScCdRh":9160,"1209191":9161,"10441":9162,"CaAuCd":9163,"1226718":9164,"1226741":9165,"20987":9166,"1103235":9167,"20382":9168,"675543":9169,"972204":9170,"1096802":9171,"29174":9172,"29179":9173,"9895":9174,"1228945":9175,"865382":9176,"2160":9177,"21681":9178,"ĠAlVCo":9179,"1227206":9180,"1227335":9181,"16321":9182,"2798":9183,"1187920":9184,"CaPdSi":9185,"976236":9186,"1400":9187,"21165":9188,"19880":9189,"CaCuIn":9190,"14285":9191,"867317":9192,"1095592":9193,"1218924":9194,"980109":9195,"1226021":9196,"CaNiGe":9197,"1104898":9198,"6430":9199,"1217901":9200,"1025271":9201,"1025294":9202,"571030":9203,"1217210":9204,"ĠCaZnSi":9205,"1190672":9206,"504425":9207,"1215724":9208,"PdAuZn":9209,"1214857":9210,"1018150":9211,"28910":9212,"1199934":9213,"28885":9214,"28879":9215,"8257":9216,"864669":9217,"YZnSn":9218,"1207724":9219,"1224485":9220,"SrCuP":9221,"1216621":9222,"1208239":9223,"1017981":9224,"SrPdAs":9225,"569628":9226,"568376":9227,"32616":9228,"989613":9229,"866046":9230,"KNaSe":9231,"1078867":9232,"1224810":9233,"1102919":9234,"557096":9235,"2402":9236,"680576":9237,"1220442":9238,"1220441":9239,"570287":9240,"1100766":9241,"TiRuTe":9242,"571555":9243,"571557":9244,"1217009":9245,"1095253":9246,"1079600":9247,"567750":9248,"642659":9249,"24286":9250,"1198803":9251,"NbMoNi":9252,"865176":9253,"862621":9254,"1228467":9255,"1218875":9256,"1195198":9257,"1227003":9258,"1079796":9259,"1206893":9260,"1178983":9261,"ĠZrSnPd":9262,"ĠZnCdAu":9263,"540791":9264,"542587":9265,"1072712":9266,"675022":9267,"1095177":9268,"554405":9269,"20061":9270,"1190274":9271,"1068587":9272,"1056438":9273,"999376":9274,"1100412":9275,"1100415":9276,"1104926":9277,"1181926":9278,"1226441":9279,"1203353":9280,"1203324":9281,"1213747":9282,"505527":9283,"991544":9284,"975272":9285,"28595":9286,"SKH":9287,"1218177":9288,"555599":9289,"1077723":9290,"1219661":9291,"1183710":9292,"18254":9293,"646824":9294,"637255":9295,"1190654":9296,"1216065":9297,"510099":9298,"620032":9299,"ĠCyanogen":9300,"1060435":9301,"673633":9302,"1201790":9303,"1473":9304,"2699":9305,"2932":9306,"2757":9307,"31080":9308,"3241":9309,"448":9310,"4861":9311,"4192":9312,"4852":9313,"553":9314,"574":9315,"654":9316,"621":9317,"743":9318,"7541":9319,"7506":9320,"7400":9321,"7790":9322,"923":9323,"9525":9324,"KFe":9325,"KSn":9326,"KCo":9327,"KSnS":9328,"KCdSb":9329,"KZnAs":9330,"VC":9331,"VZn":9332,"VRh":9333,"VIr":9334,"VCr":9335,"WMo":9336,"YPS":9337,"YNiAl":9338,"YCoSn":9339,"YIrGe":9340,"YScS":9341,"ĠCRe":9342,"ĠNCu":9343,"ĠInSnSe":9344,"ĠInBiSe":9345,"ĠInCuSe":9346,"ĠPTa":9347,"ĠPHg":9348,"ĠPMn":9349,"ĠPMoP":9350,"âĤĤâĤĥ":9351,"ĠPdCr":9352,"ĠCaCo":9353,"ĠCaMn":9354,"AlC":9355,"ĠHfTiSe":9356,"ĠNiIn":9357,"ĠNiRu":9358,"2076":9359,"2027":9360,"20473":9361,"20648":9362,"20838":9363,"20817":9364,"ĠGaH":9365,"ĠGaAgTe":9366,"ĠZrGeTe":9367,"ĠPtTl":9368,"ĠNaCu":9369,"ĠNaNb":9370,"ĠNaSr":9371,"InAl":9372,"InSbSe":9373,"ĠYMn":9374,"ĠYAsSe":9375,"ĠCuAsS":9376,"FeSn":9377,"FeIr":9378,"FeBi":9379,"FeTc":9380,"PdRh":9381,"PdTiSi":9382,"SiRu":9383,"SiPb":9384,"ĠNbWS":9385,"AsC":9386,"AsPd":9387,"ĠSrCaPb":9388,"ĠSrCaS":9389,"ĠScCr":9390,"8046":9391,"ĠZnHgTe":9392,"ĠSnCr":9393,"ĠSnPS":9394,"ĠTaMoS":9395,"ĠTaInSe":9396,"ĠTaTiRu":9397,"TiTaRu":9398,"PtCu":9399,"PtGeSe":9400,"PtAsP":9401,"1020":9402,"1005":9403,"105708":9404,"ĠKYCl":9405,"ĠGeK":9406,"ĠGeAl":9407,"ĠGeCl":9408,"ĠAgSbSe":9409,"GaNi":9410,"GaHg":9411,"GaGeTe":9412,"NiMn":9413,"SbSn":9414,"SbAu":9415,"SbBiSbTe":9416,"ĠAuPS":9417,"ĠCrPd":9418,"1282":9419,"1258":9420,"1287":9421,"12110":9422,"12109":9423,"12136":9424,"12657":9425,"12627":9426,"1212167":9427,"1212187":9428,"ZnTe":9429,"ZnNi":9430,"ZnAg":9431,"ZnMnSe":9432,"ĠMnY":9433,"ĠMnCoGe":9434,"CuTc":9435,"RhCu":9436,"RhPS":9437,"RhSbS":9438,"RhZrSn":9439,"ĠRbZn":9440,"ĠRbMnAs":9441,"AgPd":9442,"AgSi":9443,"AgPb":9444,"AgTl":9445,"AgGaS":9446,"AgGaTe":9447,"ĠBiPtCl":9448,"ĠIrS":9449,"ĠIrHf":9450,"HfCoP":9451,"HfMnGe":9452,"HfOsP":9453,"HfMoAl":9454,"ZrFe":9455,"ZrNb":9456,"ZrRe":9457,"ZrGeTe":9458,"ZrTiSe":9459,"ZrPtAl":9460,"5411":9461,"5430":9462,"AuSi":9463,"AuZr":9464,"AuPS":9465,"AuAgZn":9466,"1169":9467,"11714":9468,"11693":9469,"11598":9470,"4261":9471,"ĠClZn":9472,"ĠTlV":9473,"ĠTlPt":9474,"ĠTlCu":9475,"CoNiAs":9476,"1667":9477,"1624":9478,"16259":9479,"16044":9480,"MoZn":9481,"6973":9482,"IrW":9483,"IrNi":9484,"IrCl":9485,"IrTa":9486,"8502":9487,"8581":9488,"RuFe":9489,"0513":9490,"BiPd":9491,"BiZr":9492,"BiPb":9493,"NbOs":9494,"CaPtGe":9495,"CaRhSn":9496,"CaGaSn":9497,"5049":9498,"ĠCsP":9499,"ĠCsV":9500,"ĠCsAs":9501,"ĠCsRb":9502,"NaCu":9503,"NaSr":9504,"NaTiS":9505,"NaInSe":9506,"NaAlGe":9507,"NaGaTe":9508,"NaFeAs":9509,"NaSbSn":9510,"PbSi":9511,"PbSn":9512,"PbGeTe":9513,"1509":9514,"15556":9515,"15668":9516,"TaCu":9517,"TaInSe":9518,"217":9519,"2146":9520,"5585":9521,"22473":9522,"22700":9523,"22881":9524,"22600":9525,"ScSb":9526,"ScPtZn":9527,"HgIn":9528,"066":9529,"8621":9530,"8634":9531,"5221":9532,"SrCaZn":9533,"SrCaPb":9534,"SrZrS":9535,"SrCaS":9536,"CrC":9537,"2346":9538,"2348":9539,"2349":9540,"2301":9541,"23474":9542,"621624":9543,"7067":9544,"MnSn":9545,"MnCl":9546,"MnCd":9547,"MnNiAl":9548,"2516":9549,"650513":9550,"7446":9551,"TlAg":9552,"8311":9553,"1919":9554,"1918":9555,"1944":9556,"8211":9557,"461":9558,"7927":9559,"7366":9560,"7376":9561,"8183":9562,"9747":9563,"9774":9564,"9728":9565,"972337":9566,"604":9567,"601326":9568,"OsPt":9569,"7822":9570,"7877":9571,"5910":9572,"RePd":9573,"7752":9574,"29866":9575,"29749":9576,"TcFe":9577,"TcCu":9578,"1413":9579,"1498":9580,"1353":9581,"1304":9582,"RbP":9583,"RbGe":9584,"RbZn":9585,"RbMnAs":9586,"417":9587,"639":9588,"9268":9589,"32679":9590,"998860":9591,"27800":9592,"3896":9593,"12061":9594,"30086":9595,"31502":9596,"28108":9597,"28128":9598,"CsFe":9599,"CsCu":9600,"CsSnCl":9601,"CsAgCl":9602,"11048":9603,"11893":9604,"1182146":9605,"ĠTiAlCo":9606,"12252":9607,"12265":9608,"1221252":9609,"1214261":9610,"10909":9611,"ĠTiSiRu":9612,"ĠNCaTc":9613,"1186230":9614,"1078183":9615,"1216894":9616,"1216661":9617,"1183503":9618,"1183158":9619,"1183173":9620,"1183608":9621,"1079042":9622,"1220423":9623,"1220663":9624,"1220634":9625,"1220636":9626,"1215336":9627,"1215331":9628,"1215935":9629,"10167":9630,"1018652":9631,"569175":9632,"569886":9633,"ĠHfAlPt":9634,"ĠAlCuNi":9635,"ĠTiTeS":9636,"867262":9637,"1080463":9638,"1080518":9639,"1187124":9640,"1219203":9641,"1219799":9642,"11959":9643,"11949":9644,"1191413":9645,"1191353":9646,"ĠInSbSe":9647,"1018809":9648,"1224831":9649,"1224402":9650,"1217097":9651,"ĠNaSbSn":9652,"1223851":9653,"1223831":9654,"1223682":9655,"11263":9656,"11239":9657,"22253":9658,"22270":9659,"22284":9660,"ĠZnPPd":9661,"1188829":9662,"1188762":9663,"1188890":9664,"570690":9665,"570062":9666,"570801":9667,"1078100":9668,"ĠTeGePb":9669,"ĠClKPb":9670,"1007923":9671,"1068891":9672,"1186923":9673,"10846":9674,"10877":9675,"568671":9676,"1025690":9677,"1025185":9678,"ĠPSnP":9679,"1018050":9680,"22007":9681,"974437":9682,"21289":9683,"12418":9684,"1224318":9685,"ĠGeGeIr":9686,"1229165":9687,"1229158":9688,"973149":9689,"NiAsSe":9690,"865503":9691,"12783":9692,"ĠHNaCa":9693,"11765":9694,"862694":9695,"862604":9696,"1215434":9697,"866187":9698,"1670":9699,"1105799":9700,"ĠCdPPd":9701,"AlSiY":9702,"505780":9703,"22922":9704,"22956":9705,"CoAsSe":9706,"YAgGa":9707,"ĠYCdAg":9708,"1078643":9709,"1078628":9710,"1025348":9711,"1218699":9712,"1218336":9713,"1218330":9714,"1206072":9715,"1102525":9716,"28026":9717,"11800":9718,"1209498":9719,"1103749":9720,"20311":9721,"977162":9722,"1008274":9723,"1008632":9724,"1072802":9725,"ĠInAgS":9726,"1228953":9727,"1228991":9728,"12585":9729,"ĠSbSbPd":9730,"21613":9731,"16358":9732,"865499":9733,"571499":9734,"31158":9735,"31138":9736,"1215315":9737,"CaPdSb":9738,"CaPdZn":9739,"CoPSe":9740,"2478":9741,"24747":9742,"21134":9743,"21199":9744,"28324":9745,"ĠKSbCl":9746,"1103261":9747,"ĠMnZnSe":9748,"CaCuSb":9749,"862711":9750,"862721":9751,"998985":9752,"1221656":9753,"1425":9754,"1228938":9755,"1228792":9756,"850068":9757,"19954":9758,"571664":9759,"31347":9760,"1246068":9761,"16266":9762,"16261":9763,"22853":9764,"22871":9765,"22872":9766,"RuIrAl":9767,"RuIrGa":9768,"CaNiIn":9769,"570553":9770,"643257":9771,"CaPtSn":9772,"1025258":9773,"CrFeAs":9774,"1193541":9775,"1193856":9776,"571035":9777,"1104054":9778,"1217269":9779,"1217293":9780,"1220390":9781,"1220391":9782,"ĠMnAlIr":9783,"1018154":9784,"1199056":9785,"YInCu":9786,"ZrSiAl":9787,"1215988":9788,"1095491":9789,"1095427":9790,"1207753":9791,"1025571":9792,"ĠSCsIn":9793,"ScCuSi":9794,"1102040":9795,"1224790":9796,"1224488":9797,"PtGaZr":9798,"1216446":9799,"1013548":9800,"568345":9801,"974990":9802,"AuCuZn":9803,"861656":9804,"865989":9805,"865990":9806,"1095545":9807,"1229031":9808,"ĠPCuP":9809,"866041":9810,"14652":9811,"27821":9812,"27840":9813,"PtSiSe":9814,"1187461":9815,"1215533":9816,"ĠSPRh":9817,"1078049":9818,"29342":9819,"30933":9820,"680570":9821,"7068":9822,"1187711":9823,"620571":9824,"754556":9825,"570276":9826,"570258":9827,"1206362":9828,"1219001":9829,"1219922":9830,"1219924":9831,"1222586":9832,"570744":9833,"1458":9834,"HfRuGe":9835,"20723":9836,"22602":9837,"865681":9838,"1078908":9839,"1184021":9840,"1184018":9841,"861908":9842,"1106367":9843,"1227463":9844,"1095643":9845,"1223820":9846,"18561":9847,"1219515":9848,"21885":9849,"541844":9850,"567907":9851,"ĠAlGaIr":9852,"1017531":9853,"11578":9854,"1103520":9855,"1227567":9856,"1227571":9857,"1196393":9858,"IrRhAl":9859,"1025905":9860,"1025906":9861,"31277":9862,"SbNCa":9863,"SbNSr":9864,"1194073":9865,"1207419":9866,"510521":9867,"1173060":9868,"784631":9869,"18167":9870,"1079325":9871,"867816":9872,"562100":9873,"1197755":9874,"ĠTlPPd":9875,"1079269":9876,"ĠTiInPd":9877,"504825":9878,"17880":9879,"696805":9880,"555843":9881,"1101813":9882,"1029349":9883,"1191026":9884,"1078708":9885,"554212":9886,"1187591":9887,"974411":9888,"HgZnTe":9889,"568293":9890,"568186":9891,"1103317":9892,"540625":9893,"862589":9894,"995122":9895,"998605":9896,"1101099":9897,"1213959":9898,"1213948":9899,"1208837":9900,"1208839":9901,"1021498":9902,"1105296":9903,"1102441":9904,"1212011":9905,"1205493":9906,"1106288":9907,"1224005":9908,"1189957":9909,"866375":9910,"863261":9911,"1102743":9912,"1190500":9913,"610517":9914,"956096":9915,"541788":9916,"1192175":9917,"553973":9918,"952566":9919,"ĠPMnNbP":9920,"1057086":9921,"543001":9922,"850249":9923,"1435":9924,"1545":9925,"1826":9926,"275":9927,"264":9928,"2152":9929,"2430":9930,"27533":9931,"359":9932,"31187":9933,"31219":9934,"3668":9935,"581":9936,"5101":9937,"5213":9938,"5744":9939,"5817":9940,"702":9941,"7829":9942,"7433":9943,"7859":9944,"896":9945,"910":9946,"945":9947,"941":9948,"948":9949,"9463":9950,"9251":9951,"CS":9952,"CAs":9953,"KK":9954,"KGe":9955,"KRh":9956,"KSnSb":9957,"KCdAs":9958,"KAlTe":9959,"NIn":9960,"POs":9961,"VTi":9962,"VCrSi":9963,"VMnAs":9964,"WFe":9965,"WMn":9966,"WRe":9967,"YOs":9968,"YZnAl":9969,"YCoAl":9970,"YFeNi":9971,"Ġboride":9972,"ĠInCu":9973,"ĠInGeTe":9974,"ĠPRu":9975,"ĠHSe":9976,"ĠTiSnPt":9977,"ĠTiCrS":9978,"ĠPdS":9979,"ĠPdPtAu":9980,"AlW":9981,"AlZn":9982,"AlCd":9983,"AlMoSi":9984,"ĠHfScRh":9985,"ĠHfTiRu":9986,"ĠHfScGe":9987,"2067":9988,"2056":9989,"2039":9990,"20196":9991,"20108":9992,"20935":9993,"20479":9994,"20436":9995,"ĠGaGePt":9996,"ĠSiSbPt":9997,"ĠSiSnPd":9998,"ĠZrNbAl":9999,"SeN":10000,"ĠNaCa":10001,"ĠNaTiS":10002,"ĠNaCaAs":10003,"ĠSePOs":10004,"InGe":10005,"InGeTe":10006,"InGaS":10007,"InGaTe":10008,"ĠTeV":10009,"ĠCuRh":10010,"FeH":10011,"FeCr":10012,"FeOs":10013,"FeCoAs":10014,"FeCoS":10015,"PdIn":10016,"PdNiSi":10017,"PdAsSe":10018,"PdAuSn":10019,"PdZrSn":10020,"SiSn":10021,"ĠAsK":10022,"ĠAsRe":10023,"ĠAsGeAs":10024,"AsCl":10025,"ĠSrRu":10026,"ĠSrPbS":10027,"ĠSrCaTl":10028,"8045":10029,"ĠRhH":10030,"ĠSnCd":10031,"ĠSnGeSe":10032,"TiTa":10033,"TiMoS":10034,"TiNiAs":10035,"TiGeS":10036,"TiRhSi":10037,"TiCrS":10038,"TiIrSi":10039,"PtPdAu":10040,"1097":10041,"10849":10042,"10457":10043,"ĠKFe":10044,"ĠKTi":10045,"ĠKCo":10046,"ĠKCaCl":10047,"ĠKSnSb":10048,"ĠGeCr":10049,"ĠGeBiPd":10050,"ĠAgSnTe":10051,"ĠAgBiTe":10052,"GaRh":10053,"NiRh":10054,"NiOs":10055,"ĠFeCoAs":10056,"ĠCrFe":10057,"ĠCrSnRu":10058,"GeBi":10059,"SnGeSe":10060,"1244":10061,"121223":10062,"12972":10063,"12473":10064,"12557":10065,"12903":10066,"ZnCdSb":10067,"ĠMnRh":10068,"ĠMnCo":10069,"ĠMnCdS":10070,"CuInTe":10071,"RhCoAs":10072,"RhNiZn":10073,"ĠRbCaCl":10074,"AgSnTe":10075,"AgGaSe":10076,"NHS":10077,"ĠRuGe":10078,"HfV":10079,"HfNiSb":10080,"HfFeSb":10081,"HfCoAl":10082,"HfTiRu":10083,"HfReSi":10084,"ZrPt":10085,"ZrSb":10086,"ZrCo":10087,"ZrSnTe":10088,"ZrSiAs":10089,"ZrCuSn":10090,"ZrMnSi":10091,"ZrNbAl":10092,"ZrPdSi":10093,"ZrRuP":10094,"ZrPdGe":10095,"541582":10096,"AuN":10097,"AuGa":10098,"AuGeAs":10099,"ĠCdTl":10100,"ĠCdPbS":10101,"6749":10102,"672194":10103,"11471":10104,"11401":10105,"3345":10106,"33333":10107,"9680":10108,"070":10109,"071":10110,"CoNiSb":10111,"1664":10112,"Ġ88":10113,"MoTc":10114,"MoCrAs":10115,"6980":10116,"IrS":10117,"IrGa":10118,"IrOs":10119,"IrBiS":10120,"IrSbAs":10121,"IrCoAl":10122,"IrNiZn":10123,"RuSeS":10124,"RuRhS":10125,"RuCoGa":10126,"ĠHgPb":10127,"ĠHgAsPd":10128,"NbC":10129,"NbMn":10130,"NbInSe":10131,"NbNiAs":10132,"NbMnSi":10133,"CaNiGa":10134,"CaGaAl":10135,"CaAlH":10136,"5066":10137,"ĠCsK":10138,"ĠCsZn":10139,"ĠCsCdCl":10140,"NaSn":10141,"NaMo":10142,"NaCa":10143,"NaInS":10144,"NaCuSe":10145,"NaCaAs":10146,"NaMnSb":10147,"NaScCl":10148,"CdPd":10149,"CdPbS":10150,"CdAsP":10151,"CdSnP":10152,"CdGeP":10153,"ĠReY":10154,"1589":10155,"1572":10156,"15895":10157,"15777":10158,"15656":10159,"15679":10160,"TaCo":10161,"TaTl":10162,"TaTc":10163,"TaInS":10164,"TaRhSi":10165,"TaMoCo":10166,"TaCrNi":10167,"TaMoNi":10168,"21673":10169,"21547":10170,"21863":10171,"5571":10172,"555066":10173,"2211":10174,"22546":10175,"22693":10176,"22258":10177,"ScAlGe":10178,"ScOsGe":10179,"ĠTcSb":10180,"7112":10181,"7173":10182,"86196":10183,"4021":10184,"SrY":10185,"SrSi":10186,"SrPbS":10187,"SrCaTl":10188,"SrVN":10189,"CrCo":10190,"CrMnAl":10191,"23209":10192,"23739":10193,"23714":10194,"23162":10195,"23164":10196,"23706":10197,"MnH":10198,"MnNi":10199,"MnZnS":10200,"MnCoGe":10201,"MnFeSi":10202,"MnCdS":10203,"8976":10204,"8991":10205,"6507":10206,"TlAs":10207,"TlCu":10208,"TlInCl":10209,"839":10210,"1912":10211,"19971":10212,"19855":10213,"8276":10214,"7302":10215,"7392":10216,"684":10217,"18163":10218,"9762":10219,"97221":10220,"976847":10221,"OsFe":10222,"OsIr":10223,"ReW":10224,"ReMn":10225,"6444":10226,"646507":10227,"344":10228,"3486":10229,"3414":10230,"7770":10231,"8411":10232,"8490":10233,"29850":10234,"29487":10235,"29432":10236,"29184":10237,"5617":10238,"568619":10239,"7686":10240,"7632":10241,"14983":10242,"14434":10243,"721582":10244,"1345":10245,"1373":10246,"13456":10247,"13542":10248,"587":10249,"582067":10250,"RbFe":10251,"RbPb":10252,"RbCoN":10253,"632693":10254,"9289":10255,"8753":10256,"ĠAlTiFe":10257,"ĠAlTiCo":10258,"9910":10259,"9912":10260,"9921":10261,"9906":10262,"9983":10263,"991900":10264,"991114":10265,"9571":10266,"1725":10267,"17813":10268,"2780":10269,"2705":10270,"27331":10271,"3006":10272,"30671":10273,"28107":10274,"28797":10275,"3944":10276,"CsN":10277,"CsZn":10278,"CsSnS":10279,"CsCdCl":10280,"11037":10281,"1105715":10282,"1101867":10283,"1101109":10284,"1103414":10285,"ĠTiAlPd":10286,"12246":10287,"1221007":10288,"1226254":10289,"1227112":10290,"11482":10291,"10911":10292,"1097916":10293,"23318":10294,"28174":10295,"ĠTiSiPd":10296,"1186117":10297,"1186374":10298,"10707":10299,"10785":10300,"ĠScSbPt":10301,"12162":10302,"1216166":10303,"1216296":10304,"1216460":10305,"1216850":10306,"1216501":10307,"1216081":10308,"1216290":10309,"1216091":10310,"1216056":10311,"1216903":10312,"11835":10313,"1183471":10314,"1183547":10315,"1183187":10316,"1183490":10317,"1079110":10318,"1079228":10319,"1079831":10320,"1220675":10321,"1220511":10322,"1220748":10323,"1215216":10324,"1215678":10325,"1215634":10326,"1215689":10327,"569196":10328,"569678":10329,"569516":10330,"867308":10331,"867928":10332,"867292":10333,"867264":10334,"567545":10335,"567871":10336,"1080509":10337,"1080677":10338,"1080073":10339,"1080561":10340,"1187473":10341,"1187531":10342,"1187231":10343,"1187701":10344,"1187079":10345,"1187427":10346,"1187432":10347,"1219132":10348,"1219501":10349,"1219928":10350,"1219795":10351,"1219926":10352,"11916":10353,"1191223":10354,"1191025":10355,"1198948":10356,"20685":10357,"20618":10358,"ĠTiGeS":10359,"1018736":10360,"30847":10361,"30893":10362,"30883":10363,"1224108":10364,"1224502":10365,"1224972":10366,"1224169":10367,"1224173":10368,"1224841":10369,"1217114":10370,"1217229":10371,"1217228":10372,"1217079":10373,"1217089":10374,"12239":10375,"1223828":10376,"1223976":10377,"1223834":10378,"1223749":10379,"1223791":10380,"1223647":10381,"ĠScGaRh":10382,"ĠCaSbPd":10383,"1188977":10384,"1188158":10385,"570670":10386,"1221503":10387,"1221714":10388,"1221872":10389,"ĠScGeRh":10390,"1078107":10391,"1078544":10392,"1078257":10393,"10076":10394,"1186902":10395,"ĠTiGaIr":10396,"ĠTiGaTc":10397,"1186011":10398,"1186014":10399,"20408":10400,"568544":10401,"1025629":10402,"ĠSRuRh":10403,"30312":10404,"30371":10405,"2123":10406,"21260":10407,"ĠSSnPb":10408,"30492":10409,"1224371":10410,"1224329":10411,"1224395":10412,"1224337":10413,"1225166":10414,"1225811":10415,"1225993":10416,"1229118":10417,"973066":10418,"ĠTiZnNi":10419,"ĠScInPt":10420,"865093":10421,"30574":10422,"10521":10423,"10564":10424,"16608":10425,"ĠHfSiRu":10426,"862423":10427,"2960":10428,"29656":10429,"1077935":10430,"1077470":10431,"1215448":10432,"1215490":10433,"1189202":10434,"1189516":10435,"1189774":10436,"866219":10437,"866805":10438,"866062":10439,"16770":10440,"10379":10441,"1105127":10442,"1105163":10443,"ĠAlSiMo":10444,"30708":10445,"30798":10446,"505626":10447,"10677":10448,"1067974":10449,"1218019":10450,"1218063":10451,"1218026":10452,"12383":10453,"755988":10454,"573891":10455,"971739":10456,"971737":10457,"971836":10458,"YAgAl":10459,"20289":10460,"1078635":10461,"1025366":10462,"1025301":10463,"1218856":10464,"1218414":10465,"1206699":10466,"1206525":10467,"1206157":10468,"1206898":10469,"1206884":10470,"1102115":10471,"1102436":10472,"1102836":10473,"1188003":10474,"28024":10475,"28029":10476,"22171":10477,"1180309":10478,"1209130":10479,"31081":10480,"1184647":10481,"CaAuP":10482,"CaAuBi":10483,"22712":10484,"22775":10485,"21012":10486,"21321":10487,"1226754":10488,"1226783":10489,"1226768":10490,"1226761":10491,"1226736":10492,"20970":10493,"ĠTaGaRu":10494,"22375":10495,"1103248":10496,"685941":10497,"ĠAsInGa":10498,"570858":10499,"972119":10500,"ĠGaPPd":10501,"1072655":10502,"SrAuIn":10503,"SrAuAs":10504,"1079946":10505,"1228983":10506,"12565":10507,"AsSeAg":10508,"1227698":10509,"1227504":10510,"1227558":10511,"865496":10512,"YPdAl":10513,"672289":10514,"1215353":10515,"CaPdSn":10516,"CaPdCd":10517,"1247199":10518,"24722":10519,"16911":10520,"BiSCl":10521,"1797":10522,"28383":10523,"28304":10524,"ĠZnCuPt":10525,"862720":10526,"SrCdGa":10527,"1221669":10528,"1228890":10529,"14242":10530,"ĠHfNiSn":10531,"10299":10532,"1029420":10533,"1228473":10534,"HfPdSi":10535,"850131":10536,"850049":10537,"867352":10538,"867319":10539,"1246504":10540,"1246556":10541,"1218970":10542,"1218977":10543,"1218976":10544,"1218994":10545,"980936":10546,"1178763":10547,"864916":10548,"849081":10549,"TiMoSb":10550,"570598":10551,"1014252":10552,"1014226":10553,"1186768":10554,"1217915":10555,"1217923":10556,"33618":10557,"1193848":10558,"571021":10559,"1104042":10560,"1217272":10561,"1190092":10562,"ScHfGe":10563,"ScHfRh":10564,"998197":10565,"998787":10566,"1205641":10567,"1215712":10568,"1215729":10569,"1214851":10570,"20554":10571,"20521":10572,"RuRhGa":10573,"1077915":10574,"1077959":10575,"1077944":10576,"1077994":10577,"21525":10578,"CaCdPb":10579,"1217191":10580,"1216378":10581,"20001":10582,"1215933":10583,"1215987":10584,"17148":10585,"607139":10586,"ĠSMnZn":10587,"864654":10588,"1207382":10589,"1104388":10590,"1095497":10591,"1095464":10592,"15322":10593,"1245699":10594,"1226096":10595,"1226086":10596,"1207782":10597,"1106227":10598,"1106162":10599,"SrPtSn":10600,"1102086":10601,"1224796":10602,"1224768":10603,"1224496":10604,"1224414":10605,"1063938":10606,"SrCuAs":10607,"1224271":10608,"1216453":10609,"1216440":10610,"1216612":10611,"1216683":10612,"21945":10613,"1208223":10614,"1102348":10615,"1013558":10616,"27647":10617,"YAuAl":10618,"23269":10619,"1229006":10620,"AgAlS":10621,"972042":10622,"1218362":10623,"1218329":10624,"KNaS":10625,"568020":10626,"568077":10627,"1078813":10628,"1215586":10629,"1215575":10630,"1224885":10631,"1224823":10632,"1023942":10633,"1023953":10634,"1023940":10635,"ĠSPRu":10636,"1077354":10637,"9339":10638,"MoSiHf":10639,"TiMnN":10640,"557737":10641,"24034":10642,"30999":10643,"IrAsTe":10644,"570293":10645,"1206374":10646,"1100786":10647,"1102167":10648,"1219034":10649,"1208220":10650,"1208241":10651,"1187197":10652,"1451":10653,"14588":10654,"17639":10655,"YHSe":10656,"ĠPNbP":10657,"TiNiCu":10658,"HfNiSn":10659,"985442":10660,"1079193":10661,"1094107":10662,"865041":10663,"1216784":10664,"866142":10665,"1078996":10666,"HfRhGe":10667,"1191713":10668,"862655":10669,"1184011":10670,"1184005":10671,"1106356":10672,"1103608":10673,"1223870":10674,"ĠHfZrCo":10675,"HfZrCo":10676,"ZrGeSb":10677,"ScPtSb":10678,"1218835":10679,"569388":10680,"1219512":10681,"1219521":10682,"697135":10683,"24154":10684,"ĠTeZnHg":10685,"1068446":10686,"11477":10687,"1147714":10688,"865733":10689,"865779":10690,"865728":10691,"1221442":10692,"ĠGaCuNi":10693,"1210246":10694,"865842":10695,"23954":10696,"1102840":10697,"1084767":10698,"ĠAlGaCo":10699,"1071862":10700,"672372":10701,"1206591":10702,"1227562":10703,"14791":10704,"612701":10705,"ĠHfSnRu":10706,"556225":10707,"1226371":10708,"1095185":10709,"31263":10710,"1014204":10711,"542909":10712,"1173830":10713,"961685":10714,"961659":10715,"961687":10716,"1190773":10717,"1238878":10718,"541656":10719,"568866":10720,"998561":10721,"1104956":10722,"1079399":10723,"571342":10724,"571370":10725,"623089":10726,"1197660":10727,"641924":10728,"863750":10729,"1102285":10730,"1102268":10731,"1223382":10732,"1215268":10733,"1024069":10734,"1246509":10735,"30175":10736,"616204":10737,"SrNiIn":10738,"1225004":10739,"1226120":10740,"867781":10741,"1078709":10742,"10527":10743,"1187512":10744,"1212435":10745,"684903":10746,"975275":10747,"604908":10748,"604914":10749,"13512":10750,"1189696":10751,"35869":10752,"ĠTiSnRh":10753,"676284":10754,"862586":10755,"13572":10756,"998601":10757,"1207843":10758,"1228015":10759,"1228032":10760,"1191285":10761,"1191256":10762,"ZrWCr":10763,"1208721":10764,"1218110":10765,"27769":10766,"672645":10767,"1201758":10768,"1103984":10769,"1220009":10770,"924128":10771,"990232":10772,"1221720":10773,"541236":10774,"675120":10775,"23705":10776,"630875":10777,"1026356":10778,"1018722":10779,"1025874":10780,"1070356":10781,"24517":10782,"976930":10783,"1028762":10784,"1066718":10785,"1062153":10786,"1246957":10787,"505002":10788,"34292":10789,"TiPtSn":10790,"1113233":10791,"972120":10792,"1226821":10793,"1077599":10794,"1068286":10795,"1189054":10796,"1213642":10797,"558552":10798,"974790":10799,"1194987":10800,"3595":10801,"510133":10802,"574485":10803,"581716":10804,"ĠInCuPd":10805,"ĠHSeY":10806,"ĠAsGeAsAu":10807,"1097859":10808,"1212231":10809,"557179":10810,"972217":10811,"849067":10812,"561710":10813,"080":10814,"008":10815,"1431":10816,"2977":10817,"2701":10818,"343":10819,"315":10820,"318":10821,"3464":10822,"3504":10823,"3648":10824,"3479":10825,"3432":10826,"3927":10827,"4678":10828,"4628":10829,"4404":10830,"4500":10831,"588":10832,"5103":10833,"5168":10834,"6628":10835,"6693":10836,"785":10837,"764":10838,"7544":10839,"7421":10840,"7429":10841,"7792":10842,"7524":10843,"7234":10844,"7084":10845,"819":10846,"954":10847,"970":10848,"9673":10849,"9538":10850,"9225":10851,"9248":10852,"KV":10853,"KTi":10854,"KCu":10855,"KSbSe":10856,"KAlCl":10857,"KNbCl":10858,"PP":10859,"PCa":10860,"VSn":10861,"VMo":10862,"VMoAs":10863,"WFeP":10864,"YTc":10865,"YCuS":10866,"YAuSn":10867,"YReN":10868,"YPtP":10869,"hl":10870,"mite":10871,"sium":10872,"Ġchl":10873,"orate":10874,"ĠCNi":10875,"ĠSAsPt":10876,"ridy":10877,"ĠNW":10878,"ĠNCl":10879,"ĠNPCa":10880,"ĠInCuTe":10881,"ĠInSiPt":10882,"ĠInCuPt":10883,"ĠPu":10884,"ĠPot":10885,"ĠPVS":10886,"ĠTridy":10887,"ĠTiVSe":10888,"ĠTiVRe":10889,"ĠPdK":10890,"ĠPdY":10891,"ĠCaZrRh":10892,"ĠCaMnSi":10893,"ĠHfSeS":10894,"ĠHfZrS":10895,"ĠHfScSi":10896,"ĠHfScOs":10897,"ĠNiH":10898,"ĠNiCl":10899,"2079":10900,"20133":10901,"20938":10902,"20139":10903,"20545":10904,"20791":10905,"20792":10906,"20257":10907,"20536":10908,"20868":10909,"20552":10910,"ĠGaSiRu":10911,"ĠSiSnPt":10912,"ĠZrCo":10913,"ĠZrOs":10914,"ĠZrRuSb":10915,"ĠZrTiN":10916,"ĠNaFeN":10917,"ĠSeIr":10918,"ĠSeSnPt":10919,"ĠSePRh":10920,"InSi":10921,"InNi":10922,"InRu":10923,"InHg":10924,"ĠYCr":10925,"ĠCuGe":10926,"ĠCuAgTe":10927,"FeMnGe":10928,"FeMoSi":10929,"PdHfSn":10930,"PdNiGe":10931,"ĠAsMn":10932,"ĠAsReNi":10933,"ĠNbWSe":10934,"ĠNbCrN":10935,"AsBi":10936,"ĠVH":10937,"ĠVCrFe":10938,"ĠVSnRu":10939,"ĠSrNi":10940,"ĠSrCo":10941,"ĠSrGaSi":10942,"ĠSrCuGe":10943,"ĠScNiSb":10944,"ĠScTaRu":10945,"ĠScVRu":10946,"8091":10947,"ĠZnSnP":10948,"ĠZnCdS":10949,"ĠRhSr":10950,"ĠSnGeTe":10951,"ĠSbMn":10952,"ĠTaWS":10953,"TiTeSe":10954,"TiPtGe":10955,"TiZnGa":10956,"TiMnSi":10957,"TiVRe":10958,"ĠMoNbW":10959,"PtSnS":10960,"PtSbSe":10961,"PtCdAs":10962,"PtPdBi":10963,"PtPdZn":10964,"1081":10965,"10305":10966,"10977":10967,"10165":10968,"10163":10969,"10164":10970,"10456":10971,"10939":10972,"ĠKRb":10973,"ĠKSnS":10974,"ĠKRbCl":10975,"ĠKNbCl":10976,"ĠCoH":10977,"ĠCoNiAs":10978,"ĠAgCuTe":10979,"ĠAgBiS":10980,"GaNb":10981,"GaPS":10982,"NiMo":10983,"NiCa":10984,"SbRuZr":10985,"GeOs":10986,"SnMo":10987,"1253":10988,"1238":10989,"12464":10990,"12115":10991,"12675":10992,"12857":10993,"12659":10994,"12674":10995,"ZnTi":10996,"ZnCr":10997,"ZnTl":10998,"ZnRe":10999,"ZnSnP":11000,"ĠMnFe":11001,"ĠMnCd":11002,"CuOs":11003,"CuAsTe":11004,"RhAg":11005,"RhAsSe":11006,"RhBiS":11007,"RhCoS":11008,"RhSbAs":11009,"RhPSe":11010,"RhPtCd":11011,"RhAuZn":11012,"ĠRbNH":11013,"AgGe":11014,"AgRh":11015,"AgCuTe":11016,"AgTlS":11017,"ĠBiZr":11018,"ĠRuH":11019,"ĠRuCl":11020,"ĠPbNi":11021,"HfCuAl":11022,"HfCoAs":11023,"HfPtGe":11024,"HfZnAl":11025,"HfRuSb":11026,"HfWSi":11027,"HfVP":11028,"ZrZn":11029,"ZrRuSi":11030,"ZrOsSi":11031,"ZrCrFe":11032,"ZrTiCr":11033,"ZrIrAs":11034,"ZrTiAu":11035,"ZrCuSi":11036,"ZrTiN":11037,"ZrNbP":11038,"ZrAlCo":11039,"ZrVCo":11040,"5422":11041,"5486":11042,"5423":11043,"5414":11044,"5413":11045,"541558":11046,"AuS":11047,"6754":11048,"6760":11049,"6763":11050,"6744":11051,"6727":11052,"11730":11053,"11111":11054,"11541":11055,"11501":11056,"11928":11057,"11144":11058,"11438":11059,"11824":11060,"11537":11061,"11687":11062,"439":11063,"4370":11064,"9622":11065,"9659":11066,"075":11067,"4247":11068,"4276":11069,"ĠClH":11070,"ĠTlTi":11071,"ĠTlSiPt":11072,"CoFe":11073,"CoNb":11074,"CoCr":11075,"CoOs":11076,"CoNiGa":11077,"CoMnSb":11078,"1608":11079,"1684":11080,"1649":11081,"16304":11082,"16852":11083,"16930":11084,"MoPt":11085,"MoNbW":11086,"5350":11087,"6975":11088,"6959":11089,"6984":11090,"IrN":11091,"IrSbS":11092,"IrAsSe":11093,"IrCoGa":11094,"IrMnSb":11095,"RuW":11096,"RuAu":11097,"RuCo":11098,"RuSbSe":11099,"RuNiAl":11100,"RuCoAl":11101,"BiInS":11102,"ĠHgGaCl":11103,"NbIn":11104,"NbInS":11105,"NbFeSi":11106,"NbPSe":11107,"NbCoAl":11108,"NbCrN":11109,"NbVSi":11110,"CaN":11111,"CaGa":11112,"CaMo":11113,"CaZrRh":11114,"CaMnSi":11115,"CaMnSb":11116,"CaMoN":11117,"5054":11118,"5047":11119,"5065":11120,"ĠCsN":11121,"ĠCsTi":11122,"ĠCsCd":11123,"ĠCsCr":11124,"NaRb":11125,"NaAlH":11126,"NaAlTe":11127,"NaFeN":11128,"NaAlSe":11129,"NaZnSb":11130,"CdTl":11131,"CdZnS":11132,"CdGeAs":11133,"assium":11134,"1581":11135,"15514":11136,"15226":11137,"TaCoP":11138,"TaFeSi":11139,"TaCoSb":11140,"TaNbMo":11141,"2188":11142,"21459":11143,"5581":11144,"5563":11145,"2210":11146,"2245":11147,"22304":11148,"22717":11149,"22529":11150,"ScV":11151,"ScNiSb":11152,"ScCuGa":11153,"ScCuSe":11154,"ScTaRu":11155,"ScCoSn":11156,"ScMnGe":11157,"ScPtSi":11158,"ScNiGe":11159,"ScVRu":11160,"8813":11161,"ĠTcN":11162,"HgGe":11163,"HgGaCl":11164,"061":11165,"0613":11166,"8605":11167,"86233":11168,"86484":11169,"864840":11170,"528":11171,"4022":11172,"SrFe":11173,"SrCo":11174,"SrRhIn":11175,"CrW":11176,"CrWN":11177,"CrZrAl":11178,"ĠOsH":11179,"23229":11180,"23539":11181,"23289":11182,"23290":11183,"621581":11184,"MnIn":11185,"MnBi":11186,"MnRhSi":11187,"MnCuSe":11188,"MnZnN":11189,"TlV":11190,"TlSi":11191,"TlZn":11192,"TlCd":11193,"TlBiSe":11194,"7581":11195,"7576":11196,"8308":11197,"8288":11198,"8277":11199,"4667":11200,"7365":11201,"8147":11202,"5769":11203,"6876":11204,"975065":11205,"976876":11206,"601253":11207,"ĠLow":11208,"OsH":11209,"OsCu":11210,"OsZr":11211,"OsSbTe":11212,"OsNiAl":11213,"2454":11214,"2447":11215,"784":11216,"ReZn":11217,"29570":11218,"29828":11219,"29139":11220,"29678":11221,"29811":11222,"1462":11223,"13573":11224,"13140":11225,"13962":11226,"RbK":11227,"RbN":11228,"RbNH":11229,"RbSr":11230,"RbAlH":11231,"RbCaAs":11232,"RbKCl":11233,"4120":11234,"4822":11235,"4953":11236,"639910":11237,"639659":11238,"8769":11239,"9145":11240,"3274":11241,"3276":11242,"32861":11243,"9942":11244,"9916":11245,"3618":11246,"37091":11247,"17291":11248,"17094":11249,"17401":11250,"982188":11251,"2782":11252,"2760":11253,"27898":11254,"27814":11255,"27666":11256,"12007":11257,"1202105":11258,"1208973":11259,"1208308":11260,"3019":11261,"30326":11262,"30028":11263,"3167":11264,"31459":11265,"31457":11266,"31456":11267,"2815":11268,"28126":11269,"28759":11270,"28201":11271,"28424":11272,"28704":11273,"CsK":11274,"CsV":11275,"CsTi":11276,"CsBi":11277,"CsCd":11278,"CsCr":11279,"CsGaS":11280,"CsAuCl":11281,"CsNaSe":11282,"CsNaS":11283,"11047":11284,"110186":11285,"110484":11286,"110180":11287,"1101258":11288,"ĠTiAlFe":11289,"ĠTiAlRu":11290,"12266":11291,"1221198":11292,"1228288":11293,"1218262":11294,"1218620":11295,"10991":11296,"1094021":11297,"28112":11298,"1186162":11299,"1070613":11300,"1216167":11301,"1216310":11302,"1216699":11303,"1216698":11304,"1216437":11305,"1216457":11306,"1216430":11307,"1216648":11308,"1216072":11309,"1216178":11310,"1216193":11311,"1183938":11312,"1183155":11313,"1183042":11314,"1183516":11315,"1183640":11316,"1183654":11317,"1079862":11318,"1079155":11319,"1079546":11320,"1079278":11321,"1079718":11322,"1079080":11323,"1220541":11324,"1220322":11325,"1220335":11326,"1220099":11327,"1220492":11328,"1220458":11329,"1220587":11330,"1215979":11331,"1215676":11332,"1215804":11333,"1215776":11334,"1215663":11335,"1215600":11336,"1215811":11337,"1215234":11338,"1215726":11339,"1215639":11340,"ĠZrSiRu":11341,"10154":11342,"10175":11343,"1018657":11344,"569167":11345,"569881":11346,"569060":11347,"569523":11348,"569954":11349,"ĠHfAlRh":11350,"10288":11351,"ĠCdAsPt":11352,"ĠAlScCu":11353,"ĠAlScAu":11354,"ĠSeInCu":11355,"867137":11356,"867331":11357,"867173":11358,"867851":11359,"867335":11360,"867330":11361,"867897":11362,"867761":11363,"567860":11364,"567883":11365,"ĠZnAsPt":11366,"ĠBiTePd":11367,"ĠBiTeIr":11368,"ĠPdSnHf":11369,"1080233":11370,"1080452":11371,"1080760":11372,"1187098":11373,"1187152":11374,"1187434":11375,"1187713":11376,"1187429":11377,"1187238":11378,"1187470":11379,"1187703":11380,"1187738":11381,"ĠSrPPt":11382,"1219296":11383,"1219478":11384,"1219423":11385,"1219259":11386,"1219258":11387,"1219339":11388,"1219226":11389,"1219535":11390,"1219237":11391,"ĠAlNbRu":11392,"1198091":11393,"1195769":11394,"ĠTiGePt":11395,"ĠTiGeRh":11396,"30826":11397,"1224464":11398,"1224559":11399,"1224900":11400,"1224498":11401,"1224915":11402,"1224886":11403,"1224860":11404,"1224859":11405,"1224091":11406,"ĠCoSbRh":11407,"ĠCoSbTa":11408,"1217202":11409,"1217291":11410,"1217094":11411,"1217087":11412,"1223802":11413,"1223857":11414,"1223835":11415,"1223993":11416,"ĠYGaRh":11417,"ĠSInAg":11418,"ĠSrSiGe":11419,"22240":11420,"ĠYAgSn":11421,"1184180":11422,"1184055":11423,"ĠZnPPt":11424,"1188102":11425,"1188208":11426,"1188292":11427,"1188318":11428,"570008":11429,"ĠYInCu":11430,"ĠAsTeRh":11431,"1221101":11432,"1221780":11433,"ĠSbTeRh":11434,"ĠNaBiSe":11435,"ĠGaTeS":11436,"1078464":11437,"1078776":11438,"ĠSeBiPd":11439,"ĠSeBiIr":11440,"ĠYSnRh":11441,"ĠSBiRh":11442,"ĠTaTeCl":11443,"ĠTeBiPd":11444,"ĠTeBiIr":11445,"1068813":11446,"1186953":11447,"ĠTiGaFe":11448,"ĠTiGaRu":11449,"20419":11450,"10843":11451,"10873":11452,"10878":11453,"ĠGaAsP":11454,"568483":11455,"568402":11456,"1025218":11457,"CaSiN":11458,"ĠInAsPd":11459,"ĠSrInHg":11460,"ĠSKV":11461,"ĠCaTlCl":11462,"1184754":11463,"21273":11464,"21235":11465,"30493":11466,"12454":11467,"11515":11468,"11565":11469,"11560":11470,"1224385":11471,"1224306":11472,"1224393":11473,"1224324":11474,"1224377":11475,"1224391":11476,"1224336":11477,"1224331":11478,"12257":11479,"1225224":11480,"1225835":11481,"1225892":11482,"1229208":11483,"ĠRuSbHf":11484,"9731":11485,"973769":11486,"ĠTiZnGa":11487,"ĠTiZnRh":11488,"865717":11489,"865651":11490,"30555":11491,"30593":11492,"30592":11493,"ĠZrGeRu":11494,"10596":11495,"30666":11496,"ĠHfSiSe":11497,"862791":11498,"29662":11499,"29618":11500,"29639":11501,"ĠScCuSe":11502,"13682":11503,"1077814":11504,"1215412":11505,"1215429":11506,"1215476":11507,"1215487":11508,"1215400":11509,"ĠPYPt":11510,"1189978":11511,"1189791":11512,"1189871":11513,"1189764":11514,"866132":11515,"866156":11516,"866155":11517,"16740":11518,"10381":11519,"1105850":11520,"1105851":11521,"1105859":11522,"ĠAlSiRu":11523,"ĠCdPCl":11524,"AlSiP":11525,"CuAlSe":11526,"5055":11527,"505531":11528,"505822":11529,"9791":11530,"979414":11531,"ĠCaSnHg":11532,"15652":11533,"ĠZrAsIr":11534,"1218055":11535,"1218022":11536,"1218073":11537,"1218064":11538,"1218041":11539,"1218035":11540,"ĠSiFeRu":11541,"1120730":11542,"1009657":11543,"12360":11544,"22909":11545,"20268":11546,"1207169":11547,"18654":11548,"18648":11549,"1025311":11550,"1025347":11551,"1025370":11552,"1025324":11553,"1025359":11554,"1025329":11555,"1025356":11556,"1218960":11557,"1218931":11558,"1218415":11559,"1218334":11560,"1206544":11561,"1206829":11562,"1206529":11563,"1206058":11564,"1102101":11565,"1102531":11566,"1102732":11567,"1188004":11568,"1188051":11569,"28006":11570,"22167":11571,"ĠReNCl":11572,"ĠHfZnPd":11573,"1209818":11574,"1209161":11575,"1209061":11576,"1184611":11577,"CaAuAs":11578,"21021":11579,"21048":11580,"21027":11581,"ĠPTiP":11582,"21352":11583,"21340":11584,"21374":11585,"21301":11586,"865569":11587,"865585":11588,"865586":11589,"865518":11590,"865560":11591,"865591":11592,"1226731":11593,"ĠSrZnGe":11594,"ĠSNbCu":11595,"22309":11596,"22396":11597,"1103098":11598,"1103213":11599,"1103091":11600,"20389":11601,"20378":11602,"ĠYBiPd":11603,"675977":11604,"972866":11605,"ĠZrZnRh":11606,"1008680":11607,"1008624":11608,"1008626":11609,"NaHgNaSn":11610,"ĠInAgSe":11611,"1228906":11612,"1228973":11613,"1184560":11614,"21659":11615,"16317":11616,"865485":11617,"865448":11618,"27467":11619,"571103":11620,"571406":11621,"YPdSn":11622,"YPdBi":11623,"672661":11624,"21409":11625,"31171":11626,"ĠCuSiRh":11627,"1215307":11628,"1215382":11629,"1215346":11630,"1215357":11631,"1215378":11632,"1187916":11633,"CuGaSe":11634,"SrZnGe":11635,"13911":11636,"975079":11637,"ĠSeMnCu":11638,"ĠMnSbIr":11639,"16945":11640,"1401":11641,"21118":11642,"17985":11643,"2832":11644,"28347":11645,"19877":11646,"1103243":11647,"1103293":11648,"CaCuAs":11649,"862778":11650,"695850":11651,"SrCdGe":11652,"SrCdPb":11653,"1221624":11654,"1221692":11655,"1228810":11656,"1228845":11657,"1228829":11658,"1029330":11659,"1029860":11660,"1228807":11661,"HfPdAl":11662,"19953":11663,"19915":11664,"867356":11665,"31381":11666,"1095553":11667,"1095594":11668,"1246460":11669,"1246856":11670,"CaHgPb":11671,"1205342":11672,"1205321":11673,"1218955":11674,"1218951":11675,"9801":11676,"1178678":11677,"864953":11678,"849086":11679,"1206790":11680,"ĠSeCoNi":11681,"ĠYZnSi":11682,"TiMoRe":11683,"PbTePbS":11684,"1226009":11685,"1226011":11686,"1226014":11687,"1226036":11688,"9856":11689,"ĠTiNiSn":11690,"PtZnPt":11691,"PtZnAsPt":11692,"16497":11693,"1014230":11694,"1120780":11695,"6439":11696,"643651":11697,"643022":11698,"CaPtCd":11699,"1186766":11700,"1217967":11701,"1217902":11702,"1217989":11703,"1217979":11704,"1025293":11705,"1025279":11706,"1025272":11707,"1025248":11708,"YCuSi":11709,"YCuAs":11710,"ĠSAlZn":11711,"ĠSAlMo":11712,"1080469":11713,"1080489":11714,"HfPtSi":11715,"1193756":11716,"1193748":11717,"1193415":11718,"1104000":11719,"1220367":11720,"1220347":11721,"1220323":11722,"1190041":11723,"NaAuSe":11724,"NaAuIn":11725,"ScHfSi":11726,"ScHfOs":11727,"998151":11728,"998155":11729,"ĠMnAlV":11730,"28916":11731,"28945":11732,"28997":11733,"20565":11734,"1199938":11735,"1199930":11736,"1077979":11737,"1079582":11738,"20879":11739,"ĠTeSbPd":11740,"ĠTeSbRh":11741,"ĠTeSbRu":11742,"SrGeSi":11743,"978532":11744,"13147":11745,"1217180":11746,"1217140":11747,"1217195":11748,"981368":11749,"ZrSiSe":11750,"TaFeAl":11751,"607437":11752,"607475":11753,"864650":11754,"1206635":11755,"1207394":11756,"1104334":11757,"1095442":11758,"YZnSi":11759,"ncm":11760,"1245896":11761,"1226121":11762,"1226106":11763,"1226456":11764,"CaSnN":11765,"1207707":11766,"1207788":11767,"1207776":11768,"ĠNbZnRu":11769,"15724":11770,"SrPtP":11771,"SrPtTl":11772,"13876":11773,"1102041":11774,"1102030":11775,"1224789":11776,"1224765":11777,"1224784":11778,"1224798":11779,"1224480":11780,"1224481":11781,"570355":11782,"ĠHKS":11783,"SrCuGe":11784,"1216481":11785,"1216640":11786,"1216681":11787,"RbAuSe":11788,"1208730":11789,"1208335":11790,"1102395":11791,"1217325":11792,"1217357":11793,"1217360":11794,"1013526":11795,"1013525":11796,"1013550":11797,"1013588":11798,"HfSiSe":11799,"SrPdCd":11800,"SrPdTl":11801,"569662":11802,"974943":11803,"861662":11804,"861604":11805,"23174":11806,"YAuGa":11807,"865916":11808,"865929":11809,"865928":11810,"1095628":11811,"1095057":11812,"989651":11813,"1229008":11814,"1229019":11815,"18388":11816,"1227322":11817,"1227313":11818,"1218327":11819,"1218328":11820,"1179693":11821,"TiCrTc":11822,"RhAsTe":11823,"1187420":11824,"1187418":11825,"1187497":11826,"1078825":11827,"1078873":11828,"1078884":11829,"1078895":11830,"1183450":11831,"1215579":11832,"PdAgHf":11833,"1078012":11834,"1078086":11835,"MoSiZr":11836,"1207022":11837,"1102926":11838,"29309":11839,"29371":11840,"29379":11841,"864898":11842,"864671":11843,"1219312":11844,"1219322":11845,"1219328":11846,"1077453":11847,"30979":11848,"7066":11849,"ĠNCrNi":11850,"972241":11851,"1187705":11852,"1187725":11853,"754628":11854,"754064":11855,"862365":11856,"862379":11857,"684744":11858,"1206379":11859,"1095396":11860,"1219016":11861,"10844":11862,"1084838":11863,"CaAgP":11864,"1208273":11865,"1217020":11866,"1079695":11867,"1079635":11868,"567769":11869,"567747":11870,"TiNiSn":11871,"571263":11872,"977353":11873,"ĠMnGaRh":11874,"865001":11875,"24287":11876,"ĠGaFeRu":11877,"ĠTeMnCd":11878,"862264":11879,"865615":11880,"866170":11881,"1078973":11882,"1191862":11883,"865193":11884,"865145":11885,"865144":11886,"1184030":11887,"542537":11888,"MoRhP":11889,"863757":11890,"1103046":11891,"1227418":11892,"1095607":11893,"18562":11894,"ĠHfZrTc":11895,"HfZrTc":11896,"542486":11897,"ScPtSn":11898,"1184229":11899,"1218812":11900,"1218889":11901,"ĠNbMoW":11902,"ĠZnInPd":11903,"697144":11904,"1019077":11905,"1019052":11906,"1068464":11907,"541875":11908,"1147754":11909,"977582":11910,"1227033":11911,"1227045":11912,"1079729":11913,"567920":11914,"ĠGaCuPd":11915,"ĠGaCuRh":11916,"ĠVGeRu":11917,"865878":11918,"628766":11919,"1200972":11920,"1087497":11921,"1087487":11922,"ĠZnCdPt":11923,"1069824":11924,"1069841":11925,"1071955":11926,"22565":11927,"1205784":11928,"CsGaH":11929,"1101943":11930,"1101950":11931,"1103512":11932,"ĠNNaTa":11933,"1027687":11934,"1196514":11935,"1192151":11936,"1103150":11937,"1226939":11938,"1226375":11939,"1095176":11940,"1025925":11941,"ĠSeGaMo":11942,"ĠVGaRu":11943,"ĠVGaOs":11944,"1216033":11945,"1216005":11946,"569012":11947,"1066232":11948,"1066445":11949,"HfCrGe":11950,"1173513":11951,"1105647":11952,"1221509":11953,"1228724":11954,"1190774":11955,"1238847":11956,"1238825":11957,"18132":11958,"28768":11959,"1213092":11960,"1213703":11961,"541609":11962,"541689":11963,"541687":11964,"600125":11965,"1104974":11966,"867878":11967,"571383":11968,"562726":11969,"ĠTiCrTc":11970,"1006118":11971,"1002106":11972,"CuPN":11973,"1203338":11974,"1224908":11975,"1224913":11976,"1078469":11977,"1096950":11978,"ĠTiInRh":11979,"ĠTiInAu":11980,"1213762":11981,"865232":11982,"863707":11983,"984761":11984,"1228562":11985,"1215270":11986,"1215275":11987,"1024067":11988,"1246521":11989,"1246517":11990,"17848":11991,"38011":11992,"760381":11993,"8468":11994,"1225022":11995,"1225013":11996,"1183005":11997,"867775":11998,"1102520":11999,"1187511":12000,"640159":12001,"1061769":12002,"604910":12003,"636368":12004,"2626":12005,"ZrCrCo":12006,"675325":12007,"676250":12008,"676241":12009,"29419":12010,"995201":12011,"1207893":12012,"1209047":12013,"1101075":12014,"1192266":12015,"27255":12016,"32913":12017,"1024050":12018,"556712":12019,"558762":12020,"SrCaGe":12021,"1105044":12022,"1227871":12023,"27755":12024,"ĠHfInCu":12025,"1021494":12026,"555569":12027,"862485":12028,"570920":12029,"1103956":12030,"1217763":12031,"1077722":12032,"924130":12033,"1212052":12034,"1205422":12035,"1106245":12036,"1222167":12037,"1222181":12038,"1078242":12039,"ĠCdHgPd":12040,"1208590":12041,"1104120":12042,"1218273":12043,"1029633":12044,"1026362":12045,"1018709":12046,"1247450":12047,"580930":12048,"667294":12049,"BiNSr":12050,"984550":12051,"1104406":12052,"1218558":12053,"1216906":12054,"643260":12055,"1021465":12056,"1182952":12057,"644280":12058,"1203253":12059,"1106022":12060,"1071645":12061,"1080771":12062,"643005":12063,"621348":12064,"ZrNbFe":12065,"541149":12066,"977443":12067,"1226514":12068,"861961":12069,"684969":12070,"976257":12071,"644483":12072,"1224642":12073,"1070755":12074,"1183512":12075,"1147709":12076,"34337":12077,"510321":12078,"669387":12079,"PPMn":12080,"Ġchlorate":12081,"ĠPotassium":12082,"ĠTridymite":12083,"PtCdAsPt":12084,"1093991":12085,"1211589":12086,"542239":12087,"676038":12088,"676329":12089,"672706":12090,"CoCrTa":12091,"697575":12092,"558110":12093,"556395":12094,"864844":12095,"1101860":12096,"1104841":12097,"1101809":12098,"0062":12099,"150":12100,"1714":12101,"266":12102,"3862":12103,"31207":12104,"3999":12105,"3804":12106,"3772":12107,"3663":12108,"3529":12109,"3797":12110,"38605":12111,"408":12112,"449":12113,"4978":12114,"4656":12115,"4824":12116,"4076":12117,"597":12118,"584":12119,"5122":12120,"5100":12121,"5166":12122,"51008":12123,"5549":12124,"5749":12125,"5157":12126,"5818":12127,"5881":12128,"5339":12129,"5190":12130,"510285":12131,"611":12132,"602":12133,"6105":12134,"6695":12135,"778":12136,"7434":12137,"7437":12138,"7529":12139,"7295":12140,"843":12141,"815":12142,"870":12143,"8422":12144,"8539":12145,"8435":12146,"8543":12147,"8799":12148,"8190":12149,"922":12150,"982":12151,"904":12152,"944":12153,"9437":12154,"9295":12155,"HN":12156,"HPd":12157,"KCrS":12158,"KNaCl":12159,"KAuTe":12160,"KYTe":12161,"KZnP":12162,"KGaS":12163,"KMnP":12164,"KSnAs":12165,"KInTe":12166,"KPbBi":12167,"KYCl":12168,"KGaH":12169,"KYS":12170,"KAuS":12171,"PSn":12172,"SC":12173,"VFe":12174,"VSb":12175,"VCoP":12176,"VFeP":12177,"VCrP":12178,"WNiP":12179,"WFeSi":12180,"YGe":12181,"YSc":12182,"YCoGe":12183,"YNiGa":12184,"YRhSi":12185,"YCuTe":12186,"YCoSi":12187,"YCuGa":12188,"YPtSi":12189,"YNiBi":12190,"YScFe":12191,"YZrSb":12192,"beta":12193,"ĠCri":12194,"ĠCFe":12195,"ĠCCo":12196,"stob":12197,"ĠNSb":12198,"ĠInMo":12199,"ĠInGaS":12200,"ĠInGaP":12201,"ĠInFeRh":12202,"ĠAlGaAs":12203,"ĠAlGaSb":12204,"ĠTiC":12205,"ĠTiV":12206,"ĠTiZr":12207,"ĠTiNiSb":12208,"ĠTiVN":12209,"ĠTiVTc":12210,"ĠTiVH":12211,"ĠPdCs":12212,"ĠPdPS":12213,"ĠCaY":12214,"ĠCaGa":12215,"ĠCaGaSi":12216,"ĠCaYPt":12217,"AlIn":12218,"AlGa":12219,"AlAg":12220,"AlRu":12221,"ĠHfV":12222,"ĠHfFe":12223,"ĠHfScRu":12224,"ĠNiMo":12225,"20422":12226,"20744":12227,"20661":12228,"20235":12229,"ĠBoron":12230,"ĠSiCoSi":12231,"ĠZrTi":12232,"ĠZrNb":12233,"ĠZrTiS":12234,"ĠPtHg":12235,"ĠNaMo":12236,"ĠNaSrAu":12237,"ĠNaFeAs":12238,"ĠNaCaPb":12239,"ĠNaSnN":12240,"ĠSeTa":12241,"InSnSe":12242,"InPbCl":12243,"InSbS":12244,"InBiSe":12245,"InGaP":12246,"ĠYFe":12247,"ĠYNi":12248,"ĠYSc":12249,"ĠYCuSi":12250,"ĠYScFe":12251,"ĠTeW":12252,"ĠTeAl":12253,"ĠTeHfCu":12254,"ĠTeTaCu":12255,"FeIn":12256,"FeZr":12257,"FeNiAs":12258,"FeSbTe":12259,"FeGaGe":12260,"FeTiP":12261,"FeNiGe":12262,"FeNbSb":12263,"PdGa":12264,"PdRu":12265,"PdPS":12266,"PdSbS":12267,"PdNiTe":12268,"PdZrAl":12269,"SiN":12270,"SiPd":12271,"SiRh":12272,"SiOs":12273,"ĠNbW":12274,"ĠNbCu":12275,"ĠNbInS":12276,"ĠNbCoTe":12277,"AsTl":12278,"ĠVCuRh":12279,"ĠSrGaGe":12280,"ĠSrPdSn":12281,"ĠSrCaIn":12282,"TeBi":12283,"ĠScOs":12284,"ĠScCoTe":12285,"ĠScTiRu":12286,"ĠScTaOs":12287,"8016":12288,"8062":12289,"8017":12290,"ĠZnRu":12291,"ĠZnTeSe":12292,"ĠZnHgSe":12293,"ĠZnSiRh":12294,"ĠSnPbS":12295,"ĠSnPbSe":12296,"ĠTaTc":12297,"ĠTaInS":12298,"ĠTaTiAl":12299,"ĠTaTiMn":12300,"ĠTaFeRu":12301,"TiNb":12302,"TiNiSi":12303,"TiCrSi":12304,"TiOsSi":12305,"TiMnP":12306,"TiFeAs":12307,"TiVN":12308,"TiTeS":12309,"TiVTc":12310,"TiVH":12311,"TiVAl":12312,"TiTaMn":12313,"TiNbRe":12314,"PtPt":12315,"PtHg":12316,"PtMnGa":12317,"PtMnSb":12318,"1034":12319,"1032":12320,"10166":12321,"10699":12322,"10895":12323,"10137":12324,"10697":12325,"10435":12326,"10749":12327,"10207":12328,"10899":12329,"10763":12330,"10887":12331,"ĠKCu":12332,"ĠKNb":12333,"ĠKNaCl":12334,"ĠKYTe":12335,"ĠKMnP":12336,"ĠKSnAs":12337,"ĠKYS":12338,"ĠAgBiSe":12339,"GaV":12340,"GaZr":12341,"GaRu":12342,"GaOs":12343,"GaTc":12344,"NiIn":12345,"NiMoP":12346,"NiTiSb":12347,"ĠFeNiAs":12348,"ĠCrFeAs":12349,"GeC":12350,"GeCa":12351,"SnIn":12352,"SnCu":12353,"SnRh":12354,"SnHf":12355,"SnNbS":12356,"SnHfS":12357,"1237":12358,"1231":12359,"12116":12360,"12472":12361,"121216":12362,"12433":12363,"12537":12364,"12798":12365,"1211046":12366,"12962":12367,"ZnAu":12368,"ZnPS":12369,"ĠMnBi":12370,"ĠMnSbPt":12371,"ĠMnZnS":12372,"ĠMnNiSb":12373,"ĠMnCoSb":12374,"ĠMnRhSb":12375,"ĠMnCuPt":12376,"ĠMnSnPd":12377,"CuW":12378,"CuAg":12379,"CuSbS":12380,"CuCrS":12381,"CuScS":12382,"0995":12383,"RhPt":12384,"RhGeTe":12385,"RhBiSe":12386,"RhAuCd":12387,"RhPdZn":12388,"RhTiSn":12389,"ĠRbN":12390,"ĠRbCo":12391,"ĠRbSnCl":12392,"AgN":12393,"ĠBiNi":12394,"ĠBiCl":12395,"ĠPbSnS":12396,"HfTe":12397,"HfGeS":12398,"HfCoSi":12399,"HfTiSe":12400,"HfCoSn":12401,"HfCrGa":12402,"HfVGe":12403,"ĠEss":12404,"ZrPd":12405,"ZrMo":12406,"ZrIr":12407,"ZrMn":12408,"ZrNiAs":12409,"ZrTiPd":12410,"ZrCuGa":12411,"ZrFeSi":12412,"ZrMnP":12413,"ZrPtSi":12414,"ZrMnGa":12415,"ZrMnFe":12416,"ZrCrMn":12417,"ZrVNi":12418,"ZrCoBi":12419,"ZrVMo":12420,"5443":12421,"5496":12422,"5408":12423,"5475":12424,"54233":12425,"54247":12426,"541487":12427,"AuP":12428,"AuSe":12429,"AuGe":12430,"AuCuSn":12431,"ĠCdZr":12432,"ĠCdBi":12433,"6767":12434,"6743":12435,"6759":12436,"6795":12437,"676398":12438,"11567":12439,"11977":12440,"11504":12441,"1112173":12442,"11430":12443,"11966":12444,"11400":12445,"1113512":12446,"4364":12447,"3390":12448,"9693":12449,"9682":12450,"9634":12451,"9690":12452,"96167":12453,"0869":12454,"ĠTlInCl":12455,"ĠTlCuCl":12456,"ĠTlHPd":12457,"CoRe":12458,"CoPS":12459,"CoSeS":12460,"CoNiS":12461,"CoNiP":12462,"CoCrSi":12463,"CoVSb":12464,"1634":12465,"16889":12466,"16090":12467,"16225":12468,"16234":12469,"Ġ82":12470,"MoGa":12471,"MoSb":12472,"MoAlGe":12473,"5342":12474,"5318":12475,"6954":12476,"6933":12477,"6926":12478,"IrPt":12479,"IrPS":12480,"IrMnGe":12481,"8507":12482,"RuPd":12483,"RuCu":12484,"RuNiSb":12485,"RuAsSe":12486,"RuOsSi":12487,"RuPtGa":12488,"ĠHgPt":12489,"ĠHgPS":12490,"ĠHgPPt":12491,"NbPS":12492,"NbWS":12493,"NbPtGe":12494,"NbCoSi":12495,"NbCuGa":12496,"NbCoTe":12497,"NbCoSb":12498,"NbIrGe":12499,"NbMoSi":12500,"NbMoAl":12501,"NbVCr":12502,"CaGe":12503,"CaRu":12504,"CaCuGa":12505,"CaGaSi":12506,"CaMnGe":12507,"CaYPt":12508,"CaGaH":12509,"5045":12510,"ĠCsSnCl":12511,"NaSbTe":12512,"NaCrS":12513,"NaSrAu":12514,"NaCuTe":12515,"NaCdAs":12516,"NaAuTe":12517,"NaSrP":12518,"NaZnP":12519,"NaCaH":12520,"NaSrAs":12521,"NaCaPb":12522,"NaTaN":12523,"NaSnN":12524,"ĠReTi":12525,"ĠReSc":12526,"PbC":12527,"PbIn":12528,"PbSnSe":12529,"PbHfS":12530,"1551":12531,"15868":12532,"15651":12533,"TaMoS":12534,"TaNiAs":12535,"TaCoGe":12536,"TaRuSi":12537,"TaCoSi":12538,"TaMnSi":12539,"TaPtSi":12540,"21336":12541,"21491":12542,"5518":12543,"5528":12544,"559634":12545,"2296":12546,"22233":12547,"22204":12548,"22152":12549,"22731":12550,"22444":12551,"22332":12552,"22631":12553,"ScH":12554,"ScAl":12555,"ScTi":12556,"ScRe":12557,"ScAgZn":12558,"ScNiAl":12559,"ScCoTe":12560,"ScCuSn":12561,"ScTiRu":12562,"ScTaOs":12563,"ScCrMn":12564,"4755":12565,"4771":12566,"4762":12567,"4773":12568,"4744":12569,"4728":12570,"8854":12571,"7191":12572,"7194":12573,"HgAl":12574,"HgCr":12575,"HgPS":12576,"HgZnSe":12577,"8611":12578,"8645":12579,"865680":12580,"5244":12581,"5238":12582,"4042":12583,"4025":12584,"4026":12585,"SrSc":12586,"SrNiSi":12587,"SrPtGe":12588,"SrPdSn":12589,"SrPdH":12590,"SrCaIn":12591,"SrAgAl":12592,"SrCrN":12593,"SrAgAs":12594,"SrAgP":12595,"CrCuS":12596,"CrCoSi":12597,"CrCoP":12598,"CrMnP":12599,"CrHfSi":12600,"ĠOsNb":12601,"23186":12602,"9305":12603,"9391":12604,"625":12605,"MnCoAl":12606,"MnRhSb":12607,"2565":12608,"741":12609,"TlH":12610,"TlN":12611,"TlFe":12612,"TlInS":12613,"TlGaSe":12614,"TlCuCl":12615,"TlAlSe":12616,"8389":12617,"8300":12618,"19955":12619,"19850":12620,"19804":12621,"19851":12622,"19791":12623,"19787":12624,"19728":12625,"468":12626,"7909":12627,"7908":12628,"7918":12629,"7929":12630,"7378":12631,"7361":12632,"8167":12633,"8182":12634,"5782":12635,"5729":12636,"571216":12637,"57289":12638,"572758":12639,"574025":12640,"18670":12641,"9733":12642,"972187":12643,"978854":12644,"603":12645,"601823":12646,"OsCo":12647,"OsSbS":12648,"OsAsSe":12649,"OsIrAl":12650,"244":12651,"590":12652,"ReS":12653,"ReCo":12654,"6490":12655,"6494":12656,"349":12657,"3469":12658,"3481":12659,"3441":12660,"7785":12661,"7771":12662,"298":12663,"2984":12664,"2944":12665,"29136":12666,"29861":12667,"29889":12668,"29198":12669,"29187":12670,"29091":12671,"563":12672,"5621":12673,"568661":12674,"7643":12675,"7642":12676,"TcMo":12677,"1469":12678,"14557":12679,"14500":12680,"14086":12681,"7280":12682,"7221":12683,"13464":12684,"13203":12685,"13555":12686,"13094":12687,"RbCr":12688,"RbSbS":12689,"RbSnCl":12690,"RbFeS":12691,"RbInTe":12692,"RbCuCl":12693,"RbNaS":12694,"RbKS":12695,"4172":12696,"4846":12697,"4955":12698,"9040":12699,"632403":12700,"632686":12701,"637194":12702,"617291":12703,"618991":12704,"9264":12705,"8725":12706,"8765":12707,"ĠAlTiCu":12708,"9173":12709,"3245":12710,"9948":12711,"998147":12712,"9580":12713,"9569":12714,"9586":12715,"9579":12716,"3553":12717,"3650":12718,"3602":12719,"3708":12720,"37808":12721,"eneite":12722,"1774":12723,"17538":12724,"17701":12725,"17835":12726,"17964":12727,"17801":12728,"9843":12729,"27628":12730,"27471":12731,"27532":12732,"27241":12733,"12098":12734,"120307":12735,"1208629":12736,"1200062":12737,"1201034":12738,"1201774":12739,"30108":12740,"30092":12741,"30460":12742,"30676":12743,"30437":12744,"30424":12745,"30461":12746,"31125":12747,"31460":12748,"31438":12749,"31451":12750,"28717":12751,"28859":12752,"CsCuS":12753,"CsAlTe":12754,"CsNaTe":12755,"11008":12756,"1105702":12757,"1101887":12758,"1101173":12759,"1100995":12760,"ĠAlAlAg":12761,"1181237":12762,"ĠTiAlOs":12763,"1226323":12764,"1228611":12765,"1214042":12766,"11441":12767,"1096795":12768,"11609":12769,"ĠPPPd":12770,"ĠTiSiOs":12771,"1186222":12772,"1186140":12773,"1186185":12774,"1186887":12775,"1071032":12776,"1070869":12777,"1072944":12778,"1216867":12779,"1216567":12780,"1216571":12781,"1216678":12782,"1216169":12783,"1216677":12784,"1216427":12785,"1216641":12786,"1216687":12787,"1216135":12788,"1216927":12789,"1216495":12790,"1216245":12791,"1216439":12792,"1216563":12793,"1183571":12794,"1183460":12795,"1183541":12796,"1183232":12797,"1183634":12798,"1183218":12799,"1183586":12800,"1183148":12801,"1079999":12802,"1079224":12803,"1079679":12804,"1079726":12805,"1079842":12806,"ĠVSiRu":12807,"ĠVSiOs":12808,"1220472":12809,"1220700":12810,"1220670":12811,"1220676":12812,"1220695":12813,"1220795":12814,"1220348":12815,"1220436":12816,"1220475":12817,"1220598":12818,"1220883":12819,"1220148":12820,"1220476":12821,"1220743":12822,"1220597":12823,"1220944":12824,"1215568":12825,"1215296":12826,"1215221":12827,"1215279":12828,"1215659":12829,"1215290":12830,"1215240":12831,"1215751":12832,"1215928":12833,"1215339":12834,"1215529":12835,"1215757":12836,"1215168":12837,"1215286":12838,"1215513":12839,"1215552":12840,"10188":12841,"569983":12842,"569310":12843,"569151":12844,"569247":12845,"569978":12846,"569511":12847,"569408":12848,"ĠSnSSe":12849,"ĠHfAlCu":12850,"10286":12851,"1029771":12852,"1027273":12853,"1029733":12854,"ĠAlCuPd":12855,"ĠHTiV":12856,"ĠHfGaRu":12857,"ĠSnSeS":12858,"867109":12859,"867281":12860,"867117":12861,"867216":12862,"867179":12863,"867249":12864,"867792":12865,"867168":12866,"5676":12867,"567114":12868,"567749":12869,"567197":12870,"567082":12871,"567330":12872,"1080204":12873,"1080693":12874,"1080667":12875,"ĠCdAgAu":12876,"1187694":12877,"1187430":12878,"1187731":12879,"1187431":12880,"1187095":12881,"1187097":12882,"1219015":12883,"1219249":12884,"1219262":12885,"1219442":12886,"ĠSiSiNi":12887,"11933":12888,"11944":12889,"1192507":12890,"1191954":12891,"1191589":12892,"1194773":12893,"1192984":12894,"ĠInSbAs":12895,"ĠCoZrBi":12896,"30851":12897,"30864":12898,"30834":12899,"1224544":12900,"1224092":12901,"1224850":12902,"1224985":12903,"1224430":12904,"1224897":12905,"1224451":12906,"1224425":12907,"1224528":12908,"ĠGeSeN":12909,"ĠSnHfS":12910,"1217109":12911,"1217214":12912,"1217151":12913,"1217205":12914,"1217791":12915,"1217251":12916,"1217891":12917,"1217088":12918,"ĠNaSbTe":12919,"1223813":12920,"1223673":12921,"1223510":12922,"1223818":12923,"1223754":12924,"1223642":12925,"1223561":12926,"1223844":12927,"1223581":12928,"ĠZrGaRu":12929,"ĠHfGeRu":12930,"11285":12931,"11252":12932,"ĠNbGaOs":12933,"ĠScGaIr":12934,"22211":12935,"22216":12936,"22255":12937,"22289":12938,"22275":12939,"22287":12940,"ĠYAgS":12941,"ĠYAgSe":12942,"1184829":12943,"1184870":12944,"ĠZnPS":12945,"1188693":12946,"570452":12947,"ĠZrInRh":12948,"ĠYInRh":12949,"ĠYInAg":12950,"1221102":12951,"1221502":12952,"1221125":12953,"1221549":12954,"1221673":12955,"1221454":12956,"1221436":12957,"ĠNaBiS":12958,"ĠNaBiTe":12959,"SnSSe":12960,"ĠGaTeCl":12961,"ĠScSnRh":12962,"10033":12963,"10046":12964,"1001017":12965,"1078938":12966,"1078739":12967,"1078155":12968,"1078782":12969,"1078547":12970,"1078751":12971,"1078756":12972,"1078963":12973,"ĠCoNbSb":12974,"ĠSeBiRh":12975,"PSOs":12976,"ĠNbAlOs":12977,"ĠFeSiW":12978,"ĠFeSiTc":12979,"1068300":12980,"1068167":12981,"1186951":12982,"1186956":12983,"1186992":12984,"1186944":12985,"1186938":12986,"13275":12987,"1186069":12988,"10876":12989,"ĠGaAsPd":12990,"568121":12991,"1025222":12992,"1025167":12993,"1025203":12994,"1025191":12995,"1025799":12996,"1025161":12997,"1025689":12998,"ĠNiYBi":12999,"ĠTeSnPb":13000,"ĠScAlCo":13001,"ĠSTiCu":13002,"1018085":13003,"1018022":13004,"1018076":13005,"ĠNaInPd":13006,"ĠNaInHg":13007,"ĠYAlAg":13008,"974682":13009,"1184721":13010,"1184757":13011,"30410":13012,"12455":13013,"SrSnP":13014,"1224386":13015,"1224366":13016,"1224346":13017,"1224376":13018,"1224372":13019,"1224358":13020,"1224317":13021,"1224326":13022,"ĠInPPd":13023,"ĠVCoSb":13024,"1225119":13025,"1225125":13026,"1225998":13027,"1225897":13028,"1225810":13029,"1229167":13030,"1229060":13031,"973434":13032,"973904":13033,"ĠTaAlFe":13034,"ĠTaAlRu":13035,"ĠTiZnCo":13036,"ĠScInPd":13037,"ĠScInRh":13038,"ĠNTaZn":13039,"865121":13040,"865100":13041,"865124":13042,"865128":13043,"865504":13044,"865791":13045,"865809":13046,"865649":13047,"865656":13048,"865930":13049,"865898":13050,"865506":13051,"865051":13052,"865931":13053,"865664":13054,"30523":13055,"30595":13056,"30662":13057,"ĠHNaPd":13058,"1178620":13059,"862699":13060,"862546":13061,"862790":13062,"862630":13063,"CaZnGe":13064,"29607":13065,"29623":13066,"29692":13067,"ĠYGePt":13068,"13654":13069,"1077240":13070,"1077939":13071,"1215423":13072,"1215462":13073,"1215466":13074,"1215491":13075,"1189212":13076,"1189177":13077,"1189099":13078,"1189272":13079,"1189265":13080,"866163":13081,"866094":13082,"866051":13083,"866161":13084,"866088":13085,"16765":13086,"16763":13087,"1105802":13088,"1105749":13089,"ĠTlSCl":13090,"CuAlTe":13091,"30722":13092,"30797":13093,"505804":13094,"505333":13095,"ĠPInGa":13096,"983602":13097,"10676":13098,"1067236":13099,"1218042":13100,"1218052":13101,"1218002":13102,"1218034":13103,"1218049":13104,"1218087":13105,"1218037":13106,"1218031":13107,"1218028":13108,"KHgSb":13109,"11201":13110,"11202":13111,"1120803":13112,"12359":13113,"1239173":13114,"1185931":13115,"1185995":13116,"22914":13117,"22941":13118,"971754":13119,"YAgS":13120,"YAgSb":13121,"20255":13122,"20279":13123,"1207627":13124,"1207079":13125,"1207428":13126,"1207784":13127,"18660":13128,"1023939":13129,"1025385":13130,"1025371":13131,"1025386":13132,"1025302":13133,"1025375":13134,"1025346":13135,"1218103":13136,"1218938":13137,"1218961":13138,"1218804":13139,"1218858":13140,"1206129":13141,"1206863":13142,"1206858":13143,"1206424":13144,"1102834":13145,"1102545":13146,"1102524":13147,"1102534":13148,"1102631":13149,"1102458":13150,"1102844":13151,"ĠNFeMo":13152,"ZrRhP":13153,"ZrRhGa":13154,"1188009":13155,"1188019":13156,"1188059":13157,"1188077":13158,"28080":13159,"28022":13160,"28090":13161,"22147":13162,"22130":13163,"ĠHfZnCu":13164,"31011":13165,"31072":13166,"1184684":13167,"ĠTiMoP":13168,"22722":13169,"21365":13170,"865507":13171,"TiPdGa":13172,"TiPdZn":13173,"20952":13174,"22315":13175,"1103227":13176,"1103826":13177,"1103787":13178,"685050":13179,"675124":13180,"675531":13181,"675930":13182,"675830":13183,"972895":13184,"972777":13185,"ĠCuSnPd":13186,"11176":13187,"977204":13188,"977543":13189,"ĠZrZnPt":13190,"ĠZrZnNi":13191,"ĠZrZnIr":13192,"ĠSnPPt":13193,"TiAlAu":13194,"TiAlCr":13195,"SrAuP":13196,"1079951":13197,"989401":13198,"15985":13199,"ĠInAgAu":13200,"ĠAgPPd":13201,"ĠAgPPt":13202,"1228910":13203,"1228988":13204,"1228900":13205,"999052":13206,"1184567":13207,"1184594":13208,"21622":13209,"ĠAlVNi":13210,"ĠAlVMn":13211,"1227422":13212,"1227503":13213,"1227695":13214,"1227717":13215,"1227421":13216,"1227096":13217,"1227330":13218,"865442":13219,"865441":13220,"865490":13221,"865487":13222,"865494":13223,"27488":13224,"27462":13225,"27449":13226,"571534":13227,"YPdIn":13228,"YPdGa":13229,"2790":13230,"27916":13231,"27947":13232,"31153":13233,"1215305":13234,"1215302":13235,"1215366":13236,"1215384":13237,"1215398":13238,"NiAlHf":13239,"1187921":13240,"1187922":13241,"ĠTiNbN":13242,"ĠTiNbRe":13243,"12951":13244,"1247422":13245,"CuGaS":13246,"CuGaCl":13247,"555805":13248,"SrZnSn":13249,"SrZnBi":13250,"976190":13251,"976184":13252,"975140":13253,"975144":13254,"ĠSeZnHg":13255,"676437":13256,"17984":13257,"28391":13258,"19833":13259,"19885":13260,"1103280":13261,"GaAlAs":13262,"GaAlSb":13263,"SnPSe":13264,"CaCuBi":13265,"GaSeGaS":13266,"SrCdSn":13267,"SrCdBi":13268,"974381":13269,"974341":13270,"1221643":13271,"1221642":13272,"1221619":13273,"1221641":13274,"1228891":13275,"1228895":13276,"WSeTe":13277,"1029531":13278,"1029532":13279,"1029799":13280,"1029838":13281,"1029506":13282,"1029491":13283,"1029334":13284,"1228691":13285,"1228126":13286,"1228701":13287,"1228438":13288,"1228194":13289,"571609":13290,"1095522":13291,"1095575":13292,"1095573":13293,"1246430":13294,"1246060":13295,"1246073":13296,"1179173":13297,"1205392":13298,"1218912":13299,"1218909":13300,"1218915":13301,"1218952":13302,"980949":13303,"980948":13304,"YRhGa":13305,"YRhGe":13306,"864980":13307,"864947":13308,"864988":13309,"864989":13310,"864991":13311,"849082":13312,"849073":13313,"849084":13314,"TiMoP":13315,"TiMoAs":13316,"16260":13317,"16263":13318,"570666":13319,"1226054":13320,"1226067":13321,"1226006":13322,"1226017":13323,"1226030":13324,"985782":13325,"16493":13326,"16481":13327,"1104139":13328,"1104663":13329,"1104097":13330,"643273":13331,"643697":13332,"643702":13333,"CaPtAl":13334,"1186759":13335,"1217910":13336,"1217990":13337,"1217900":13338,"1025282":13339,"1025291":13340,"27394":13341,"ĠFeNbSb":13342,"33683":13343,"1080467":13344,"HfPtAl":13345,"HfPtGa":13346,"1193899":13347,"1193594":13348,"1104024":13349,"1217242":13350,"1217270":13351,"1220396":13352,"1220366":13353,"1220374":13354,"1220318":13355,"1220377":13356,"1220329":13357,"1220358":13358,"504498":13359,"ScHfRu":13360,"998156":13361,"998421":13362,"998732":13363,"1205800":13364,"1205965":13365,"1205841":13366,"1215733":13367,"1215721":13368,"1214099":13369,"ĠMnAlRu":13370,"15896":13371,"1349":13372,"13446":13373,"ĠCaCdAu":13374,"20533":13375,"1070152":13376,"1070099":13377,"1070483":13378,"1077950":13379,"1079508":13380,"2157":13381,"21508":13382,"21577":13383,"20846":13384,"13146":13385,"1217185":13386,"1217171":13387,"1217193":13388,"1216354":13389,"1216347":13390,"28843":13391,"28842":13392,"28884":13393,"28832":13394,"981312":13395,"981365":13396,"981379":13397,"981377":13398,"981356":13399,"GaTeCl":13400,"TaFeP":13401,"1215942":13402,"1215945":13403,"1215918":13404,"1215914":13405,"1215949":13406,"17174":13407,"607230":13408,"607818":13409,"KSbCl":13410,"864607":13411,"13020":13412,"1206600":13413,"1104366":13414,"1104378":13415,"1104377":13416,"1095465":13417,"ĠCrSiRu":13418,"1245808":13419,"1245633":13420,"1245927":13421,"1245848":13422,"1226104":13423,"1226236":13424,"1226089":13425,"1226072":13426,"1226064":13427,"1207727":13428,"1025550":13429,"1025586":13430,"1025575":13431,"1025573":13432,"1025587":13433,"29770":13434,"ĠCuSbRh":13435,"ĠNbZnCo":13436,"18093":13437,"18003":13438,"28242":13439,"1102011":13440,"1224770":13441,"1224408":13442,"1224446":13443,"570351":13444,"ĠSbAlGa":13445,"SrCuSb":13446,"1187876":13447,"1224250":13448,"1224247":13449,"1224218":13450,"1216450":13451,"1216680":13452,"ĠCaBiAu":13453,"1208228":13454,"1208235":13455,"1102342":13456,"1102324":13457,"1217319":13458,"ĠCaInPd":13459,"FeAsTe":13460,"1013555":13461,"1013554":13462,"19747":13463,"19740":13464,"568394":13465,"568328":13466,"27630":13467,"NbPdSi":13468,"NbRhP":13469,"861641":13470,"23176":13471,"ĠVZnRh":13472,"865914":13473,"865948":13474,"1095502":13475,"1095673":13476,"972907":13477,"972957":13478,"972914":13479,"18305":13480,"18361":13481,"ĠScZnPt":13482,"ĠScZnAu":13483,"866010":13484,"1227320":13485,"1227380":13486,"1227354":13487,"1227346":13488,"1227356":13489,"1227300":13490,"1218380":13491,"1218367":13492,"1218342":13493,"1218379":13494,"1218359":13495,"1218384":13496,"634676":13497,"1101753":13498,"1101789":13499,"1101765":13500,"1187419":13501,"1187491":13502,"1183453":13503,"1183462":13504,"1215564":13505,"1080033":13506,"1224822":13507,"1224871":13508,"1224819":13509,"542642":13510,"542614":13511,"1078008":13512,"1078079":13513,"1077383":13514,"1077351":13515,"29035":13516,"1207015":13517,"1102925":13518,"1102945":13519,"1102924":13520,"29362":13521,"29376":13522,"29387":13523,"ĠAsAlGa":13524,"864857":13525,"864939":13526,"864651":13527,"864839":13528,"1219380":13529,"1219323":13530,"1219356":13531,"1077448":13532,"30908":13533,"30952":13534,"30938":13535,"30931":13536,"680850":13537,"677105":13538,"972224":13539,"972238":13540,"1187716":13541,"1187771":13542,"1220453":13543,"1220469":13544,"1220455":13545,"1220483":13546,"1220418":13547,"754434":13548,"1087479":13549,"IrPTe":13550,"862311":13551,"862366":13552,"862374":13553,"862364":13554,"862300":13555,"684731":13556,"1206365":13557,"1100779":13558,"1100781":13559,"1100795":13560,"1187211":13561,"1187252":13562,"1187245":13563,"1095369":13564,"1095372":13565,"1219954":13566,"ĠSiHS":13567,"NaBiTe":13568,"1217016":13569,"1217015":13570,"1217039":13571,"17650":13572,"6428":13573,"642735":13574,"642190":13575,"669311":13576,"977347":13577,"977382":13578,"977384":13579,"977363":13580,"4431":13581,"1094106":13582,"1094108":13583,"1094105":13584,"1094079":13585,"ĠMnGaFe":13586,"ĠMnGaIr":13587,"865010":13588,"865045":13589,"865026":13590,"865030":13591,"1216767":13592,"1216734":13593,"1216799":13594,"20708":13595,"20740":13596,"674456":13597,"1198114":13598,"862288":13599,"862257":13600,"865654":13601,"865653":13602,"865650":13603,"1091390":13604,"AlCuTi":13605,"AlCuSc":13606,"TiFeAl":13607,"CuSiTi":13608,"HfRhGa":13609,"1191100":13610,"1191422":13611,"NbRuP":13612,"865167":13613,"865178":13614,"862602":13615,"862623":13616,"1228454":13617,"1228443":13618,"20147":13619,"ĠSrCdHg":13620,"555280":13621,"863744":13622,"861950":13623,"861940":13624,"861983":13625,"971669":13626,"1103642":13627,"1103605":13628,"1103618":13629,"1103031":13630,"1223842":13631,"31406":13632,"31481":13633,"ĠHfZrN":13634,"HfZrN":13635,"542449":13636,"568501":13637,"1218865":13638,"569391":13639,"ĠZnInRh":13640,"569823":13641,"1019279":13642,"1019087":13643,"1068157":13644,"1068239":13645,"1068746":13646,"1147666":13647,"CoNCs":13648,"TaRhGe":13649,"865768":13650,"1227042":13651,"1227014":13652,"1079752":13653,"1079768":13654,"567485":13655,"1221485":13656,"YPtIn":13657,"YPtSn":13658,"TaTeCl":13659,"TaGeSi":13660,"865876":13661,"1206854":13662,"1206849":13663,"1102833":13664,"1223733":13665,"1223781":13666,"1084770":13667,"1084775":13668,"1087485":13669,"ĠAlGaRu":13670,"ĠZrSnRh":13671,"1069139":13672,"1071127":13673,"540773":13674,"22580":13675,"24822":13676,"1206510":13677,"1206550":13678,"1101983":13679,"1101982":13680,"1101948":13681,"1227512":13682,"1227574":13683,"1183246":13684,"1025045":13685,"ĠNNaSi":13686,"ĠHfSnRh":13687,"HfMoSb":13688,"675009":13689,"1192706":13690,"1103176":13691,"1103172":13692,"1226309":13693,"1226302":13694,"1095148":13695,"1025988":13696,"31234":13697,"ĠCoSnRh":13698,"RhVAs":13699,"RhVSb":13700,"1194113":13701,"1194660":13702,"1206267":13703,"1206242":13704,"1207414":13705,"1207417":13706,"CsAuS":13707,"1216021":13708,"1216045":13709,"1216001":13710,"569037":13711,"1190262":13712,"28610":13713,"ĠSGaNi":13714,"TiWMo":13715,"TiWMn":13716,"TiWRe":13717,"1013643":13718,"961653":13719,"1105654":13720,"1221510":13721,"18148":13722,"18139":13723,"28766":13724,"28773":13725,"28760":13726,"605735":13727,"605028":13728,"YIrGa":13729,"1213692":13730,"1213976":13731,"1213756":13732,"866296":13733,"866221":13734,"866284":13735,"568832":13736,"568940":13737,"998512":13738,"998567":13739,"1100417":13740,"1102650":13741,"867842":13742,"867821":13743,"571377":13744,"984872":13745,"AsNSr":13746,"1006888":13747,"ĠCrGaFe":13748,"1197212":13749,"690772":13750,"867916":13751,"1190950":13752,"1190915":13753,"1190880":13754,"1190866":13755,"1224951":13756,"1224944":13757,"1078411":13758,"1078419":13759,"1213754":13760,"676586":13761,"865278":13762,"1102288":13763,"1102284":13764,"1223311":13765,"1223378":13766,"1223313":13767,"1024048":13768,"696983":13769,"ĠVSbRh":13770,"1183038":13771,"1029387":13772,"867753":13773,"867768":13774,"1078767":13775,"554304":13776,"560538":13777,"1070557":13778,"979910":13779,"510409":13780,"640041":13781,"991434":13782,"1212110":13783,"ZrAuGa":13784,"ĠCdInPd":13785,"862911":13786,"13583":13787,"1103310":13788,"1103346":13789,"1105775":13790,"540687":13791,"675310":13792,"675374":13793,"29465":13794,"1201566":13795,"1101092":13796,"1228043":13797,"1226248":13798,"1226249":13799,"1191280":13800,"1069811":13801,"558706":13802,"558760":13803,"1208409":13804,"1104686":13805,"1104604":13806,"1221396":13807,"1221319":13808,"ĠHfInAu":13809,"1028749":13810,"672689":13811,"862446":13812,"1105294":13813,"1102452":13814,"1220004":13815,"1194390":13816,"27181":13817,"27178":13818,"ĠZrCdPd":13819,"ĠZrCdAg":13820,"ZnSiN":13821,"632502":13822,"1224020":13823,"1219645":13824,"1078274":13825,"1189916":13826,"541289":13827,"675576":13828,"675132":13829,"1111151":13830,"866376":13831,"863250":13832,"637052":13833,"637251":13834,"630851":13835,"1208554":13836,"1104133":13837,"1218272":13838,"1218708":13839,"1247419":13840,"1070375":13841,"30253":13842,"4468":13843,"580234":13844,"ĠHgPPd":13845,"976920":13846,"1104554":13847,"1184368":13848,"1184318":13849,"1214784":13850,"1214794":13851,"1028755":13852,"1194030":13853,"1194003":13854,"1182950":13855,"644229":13856,"1203283":13857,"1101885":13858,"1106020":13859,"1222092":13860,"1224598":13861,"1227788":13862,"1071623":13863,"1027645":13864,"1080715":13865,"574169":13866,"574138":13867,"972876":13868,"1206110":13869,"1206177":13870,"1189342":13871,"1225290":13872,"TiTaAl":13873,"674984":13874,"768680":13875,"991296":13876,"998324":13877,"1103724":13878,"1216252":13879,"1191625":13880,"1223986":13881,"1029959":13882,"1097709":13883,"1246496":13884,"542387":13885,"674493":13886,"1192816":13887,"695998":13888,"505467":13889,"504772":13890,"991656":13891,"1226687":13892,"1028823":13893,"1245445":13894,"1225786":13895,"505515":13896,"643912":13897,"510086":13898,"554993":13899,"581833":13900,"610522":13901,"669566":13902,"752947":13903,"982443":13904,"YGeSn":13905,"ĠCristob":13906,"1069956":13907,"1013760":13908,"1069706":13909,"1020712":13910,"1212161":13911,"ĠEsseneite":13912,"ZrMoFe":13913,"540884":13914,"542333":13915,"542475":13916,"676799":13917,"1196650":13918,"961678":13919,"504564":13920,"ScReGe":13921,"572892":13922,"649033":13923,"649419":13924,"1203073":13925,"ĠCristobalite":13926,"053":13927,"021":13928,"004":13929,"254":13930,"2473":13931,"28660":13932,"28658":13933,"396":13934,"352":13935,"365":13936,"384":13937,"372":13938,"3015":13939,"31220":13940,"31018":13941,"3422":13942,"3103":13943,"3159":13944,"3657":13945,"3791":13946,"3934":13947,"3830":13948,"3299":13949,"3732":13950,"450":13951,"4152":13952,"4131":13953,"4474":13954,"4160":13955,"4668":13956,"4962":13957,"585":13958,"575":13959,"5106":13960,"5862":13961,"5129":13962,"5151":13963,"5545":13964,"5745":13965,"5756":13966,"5748":13967,"609":13968,"619":13969,"6127":13970,"6166":13971,"6549":13972,"616481":13973,"711":13974,"707":13975,"721":13976,"773":13977,"7116":13978,"7657":13979,"7430":13980,"7881":13981,"7077":13982,"7436":13983,"7432":13984,"7883":13985,"7794":13986,"7070":13987,"878":13988,"877":13989,"8117":13990,"8966":13991,"8965":13992,"8432":13993,"967":13994,"996":13995,"921":13996,"914":13997,"9124":13998,"9961":13999,"9900":14000,"9868":14001,"912418":14002,"HV":14003,"KNH":14004,"KSnSe":14005,"KCuTe":14006,"KGaSb":14007,"KAlH":14008,"KSiH":14009,"KMnTe":14010,"KNbSe":14011,"KCuCl":14012,"KTcCl":14013,"KCaBi":14014,"NV":14015,"PVS":14016,"SPS":14017,"SCuS":14018,"VCl":14019,"VCoAs":14020,"VCoGe":14021,"VCoSi":14022,"VCrFe":14023,"VRuSb":14024,"VNiGe":14025,"VCrAs":14026,"WCo":14027,"YBi":14028,"YCr":14029,"YMn":14030,"YRuSi":14031,"YAlGe":14032,"YCrFe":14033,"YMnGe":14034,"YZrS":14035,"YZrFe":14036,"ca":14037,"eight":14038,"ĠCub":14039,"ĠSMnAl":14040,"ĠNCuGe":14041,"ĠInSiTe":14042,"ĠAlCN":14043,"ĠAlGaN":14044,"âĤĦâĤģ":14045,"ĠTiFeSb":14046,"ĠTiCrAs":14047,"ĠTiMnRh":14048,"ĠPdPb":14049,"ĠCaMo":14050,"ĠCaCoSi":14051,"ĠCaGaN":14052,"ĠCaMnS":14053,"AlK":14054,"AlTi":14055,"AlHf":14056,"AlOs":14057,"ĠHfCl":14058,"ĠHfMn":14059,"ĠHfTc":14060,"ĠHfTaRu":14061,"ĠHfTaV":14062,"ĠHfNbTc":14063,"ĠNiSn":14064,"20152":14065,"20730":14066,"20227":14067,"20199":14068,"20331":14069,"20793":14070,"20146":14071,"20145":14072,"20144":14073,"20832":14074,"20790":14075,"20244":14076,"ĠBain":14077,"ĠGaGe":14078,"ĠGaSr":14079,"ĠGaSiNi":14080,"ĠGaAgSe":14081,"ĠSiAgPt":14082,"ĠZrTc":14083,"ĠZrFeSb":14084,"ĠPtSeS":14085,"SeRb":14086,"ĠNaFe":14087,"ĠNaCrS":14088,"ĠNaSnP":14089,"ĠNaMnSe":14090,"ĠNaSrHg":14091,"ĠNaYS":14092,"InV":14093,"InPS":14094,"InSiTe":14095,"InAlSe":14096,"ĠYCuSe":14097,"ĠYCrFe":14098,"ĠYZrS":14099,"ĠYScS":14100,"ĠYZrFe":14101,"ĠTeHf":14102,"ĠTeMo":14103,"ĠCuCd":14104,"FeMn":14105,"FeNiS":14106,"FeSbS":14107,"FeNiSe":14108,"FeCoSi":14109,"FeNiP":14110,"FeAsS":14111,"FeCoGa":14112,"FeTiH":14113,"FeMoP":14114,"PdSnTe":14115,"PdAsS":14116,"PdTlPb":14117,"PdMnTe":14118,"SiMo":14119,"ĠNbInSe":14120,"ĠNbCrS":14121,"ĠNbFeTe":14122,"ĠNbCrSe":14123,"ĠNbSnRu":14124,"ĠNbVRe":14125,"ĠNbInRu":14126,"ĠVCu":14127,"ĠVCl":14128,"ĠSrFe":14129,"ĠSrCuSi":14130,"ĠScH":14131,"ĠScTi":14132,"ĠScCo":14133,"ĠScReTc":14134,"ĠScMnRh":14135,"8053":14136,"ĠZnHgS":14137,"ĠZnSnRh":14138,"ĠRhCa":14139,"ĠSnMo":14140,"ĠSnPb":14141,"ĠSbCr":14142,"ĠTaFe":14143,"ĠTaCr":14144,"ĠTaSeS":14145,"ĠTaRhTe":14146,"ĠTaTiTe":14147,"ĠTaSnRu":14148,"ĠTaInRu":14149,"TiCuS":14150,"TiCoSi":14151,"TiFeSi":14152,"TiPtGa":14153,"TiRuAs":14154,"TiOsP":14155,"TiMnAs":14156,"TiVSe":14157,"TiPtSi":14158,"TiNiGe":14159,"TiOsGe":14160,"TiGeSb":14161,"TiVP":14162,"PtN":14163,"PtSnTe":14164,"PtBiSe":14165,"PtBiSb":14166,"1047":14167,"10098":14168,"10304":14169,"10866":14170,"10223":14171,"10226":14172,"10898":14173,"10748":14174,"10428":14175,"ĠKZnAs":14176,"ĠKMnTe":14177,"ĠGeZn":14178,"ĠCoFe":14179,"ĠCoNiSe":14180,"ĠAgSnSe":14181,"ĠAgPdAu":14182,"GaFe":14183,"GaHf":14184,"NiTi":14185,"NiCu":14186,"NiFeSi":14187,"NiAuSn":14188,"NiHfSi":14189,"NiMnSb":14190,"ĠFeCa":14191,"ĠFeTc":14192,"ĠAuCs":14193,"ĠCrMoV":14194,"GeW":14195,"SnGeTe":14196,"1230":14197,"12119":14198,"12106":14199,"12125":14200,"12460":14201,"12678":14202,"12731":14203,"1212193":14204,"12759":14205,"1210229":14206,"ZnC":14207,"ZnSiP":14208,"ĠMnCr":14209,"ĠMnFeSi":14210,"ĠMnCoSn":14211,"CuFe":14212,"CuNi":14213,"CuBi":14214,"CuSbSe":14215,"CuAsS":14216,"CuNbTe":14217,"CuYSe":14218,"RhNi":14219,"RhSr":14220,"RhAsS":14221,"RhPtZn":14222,"RhBiTe":14223,"ĠRbTl":14224,"ĠRbMnP":14225,"AgIr":14226,"AgRu":14227,"AgSnSe":14228,"AgAsS":14229,"ĠPbSb":14230,"ĠPbGe":14231,"HfCl":14232,"HfGeTe":14233,"HfSeS":14234,"HfMnAl":14235,"HfTaRu":14236,"HfOsSi":14237,"HfCrAl":14238,"HfZrS":14239,"HfZnN":14240,"HfTiFe":14241,"HfTaV":14242,"HfNbTc":14243,"ZrTi":14244,"ZrPbS":14245,"ZrGeS":14246,"ZrCoSi":14247,"ZrTaFe":14248,"ZrFeSb":14249,"ZrRuAs":14250,"ZrTiRh":14251,"ZrIrAl":14252,"ZrNiGe":14253,"ZrTiMn":14254,"ZrNiBi":14255,"ZrMoGe":14256,"ZrOsGe":14257,"ZrCuGe":14258,"ZrVP":14259,"5405":14260,"5421":14261,"5481":14262,"541062":14263,"AuAs":14264,"AuCuSe":14265,"AuSiP":14266,"ĠCdPS":14267,"ĠCdSnTe":14268,"ĠCdAlCl":14269,"ĠCdHgSe":14270,"6757":14271,"6724":14272,"6756":14273,"6717":14274,"67569":14275,"1137":14276,"11113":14277,"11938":14278,"11164":14279,"11639":14280,"4366":14281,"3312":14282,"9635":14283,"961652":14284,"4253":14285,"4252":14286,"4281":14287,"4259":14288,"ĠTlAsPt":14289,"CoH":14290,"CoCuS":14291,"CoNiSe":14292,"CoNiAl":14293,"CoMoP":14294,"CoFeGe":14295,"1621":14296,"16961":14297,"16226":14298,"16029":14299,"16236":14300,"MoMn":14301,"MoTl":14302,"MoCoP":14303,"MoFeAs":14304,"MoMnAs":14305,"5305":14306,"5304":14307,"5376":14308,"5372":14309,"6916":14310,"6979":14311,"6981":14312,"6903":14313,"IrH":14314,"IrAg":14315,"IrSbSe":14316,"IrCuZn":14317,"RuH":14318,"RuAg":14319,"RuCl":14320,"RuSbS":14321,"RuNiGa":14322,"RuPdAl":14323,"BiAu":14324,"BiCl":14325,"ĠHgTeSe":14326,"NbIr":14327,"NbPbS":14328,"NbSeS":14329,"NbNiSi":14330,"NbCrS":14331,"NbIrSi":14332,"NbPtSi":14333,"NbNiGe":14334,"NbCrP":14335,"NbGeAs":14336,"NbCrGa":14337,"NbFeTe":14338,"NbCrSe":14339,"NbVRe":14340,"NbCrGe":14341,"NbVP":14342,"NbVNi":14343,"NbVCo":14344,"CaY":14345,"CaCoSi":14346,"CaHfS":14347,"CaGaN":14348,"CaAgAl":14349,"CaZrS":14350,"CaCrN":14351,"CaMnS":14352,"ĠCsCo":14353,"ĠCsMnAs":14354,"ĠCsMnSe":14355,"ĠCsMnTe":14356,"NaFe":14357,"NaPS":14358,"NaNbS":14359,"NaSnP":14360,"NaAgCd":14361,"NaMnP":14362,"NaZnAs":14363,"NaMnSe":14364,"NaZnN":14365,"NaSrHg":14366,"NaYS":14367,"CdC":14368,"CdH":14369,"CdGe":14370,"CdOs":14371,"CdPS":14372,"CdSnSb":14373,"CdSnTe":14374,"CdSiAs":14375,"CdPSe":14376,"CdAlCl":14377,"ĠReSi":14378,"ĠReHf":14379,"PbGa":14380,"PbSb":14381,"PbAu":14382,"PbPS":14383,"PbGeS":14384,"1511":14385,"1527":14386,"15120":14387,"15121":14388,"15687":14389,"15071":14390,"TaPS":14391,"TaWS":14392,"TaCuS":14393,"TaNiTe":14394,"TaMnGe":14395,"TaIrSi":14396,"TaRhTe":14397,"TaCrP":14398,"TaWFe":14399,"21893":14400,"21851":14401,"21965":14402,"21883":14403,"5589":14404,"5573":14405,"557643":14406,"556916":14407,"22227":14408,"22209":14409,"22426":14410,"22662":14411,"22792":14412,"22897":14413,"22295":14414,"22855":14415,"ScCo":14416,"ScNiSi":14417,"ScNiP":14418,"ScCoP":14419,"ScPdSn":14420,"ScIrGe":14421,"ScCoAl":14422,"ScIrSi":14423,"ScTlTe":14424,"ScTaN":14425,"ScTlS":14426,"ScTlSe":14427,"ScReTc":14428,"ScMnRh":14429,"ScMoTc":14430,"4721":14431,"4763":14432,"4730":14433,"8843":14434,"8829":14435,"7187":14436,"HgPd":14437,"HgZnS":14438,"0663":14439,"8618":14440,"8648":14441,"8630":14442,"865707":14443,"527":14444,"5257":14445,"5251":14446,"4013":14447,"SrAg":14448,"SrZr":14449,"SrMn":14450,"SrAlGe":14451,"SrAlH":14452,"SrCuSn":14453,"SrReN":14454,"SrHfN":14455,"SrMnN":14456,"SrGaH":14457,"SrAgBi":14458,"CrCu":14459,"CrBi":14460,"CrRe":14461,"CrCoAs":14462,"CrGaSe":14463,"CrMnSi":14464,"CrZnN":14465,"CrMoV":14466,"CrCoPt":14467,"2382":14468,"2397":14469,"2327":14470,"23026":14471,"23697":14472,"23827":14473,"23949":14474,"23860":14475,"23059":14476,"23499":14477,"6243":14478,"6253":14479,"7038":14480,"MnRe":14481,"MnNiP":14482,"MnCoSn":14483,"MnIrSi":14484,"2596":14485,"2589":14486,"8952":14487,"8929":14488,"656253":14489,"7420":14490,"7494":14491,"TlCo":14492,"TlPS":14493,"TlSbTe":14494,"TlGaTe":14495,"7562":14496,"19797":14497,"19824":14498,"19746":14499,"8221":14500,"8249":14501,"4612":14502,"4516":14503,"4573":14504,"4560":14505,"4578":14506,"4572":14507,"7906":14508,"7940":14509,"7997":14510,"7364":14511,"7363":14512,"8170":14513,"571215":14514,"572596":14515,"686717":14516,"684560":14517,"1849":14518,"18127":14519,"18474":14520,"9763":14521,"976724":14522,"60186":14523,"604516":14524,"OsAu":14525,"OsCd":14526,"OsSbSe":14527,"OsAsP":14528,"OsAsS":14529,"OsAsTe":14530,"24428":14531,"7823":14532,"599":14533,"5918":14534,"5929":14535,"RePt":14536,"341":14537,"3498":14538,"34127":14539,"34169":14540,"34126":14541,"7773":14542,"7781":14543,"8446":14544,"8441":14545,"2949":14546,"29568":14547,"29111":14548,"29163":14549,"29484":14550,"29809":14551,"29529":14552,"29073":14553,"29841":14554,"29462":14555,"29072":14556,"29736":14557,"29476":14558,"568880":14559,"561258":14560,"561511":14561,"560663":14562,"7608":14563,"7639":14564,"TcPdAl":14565,"ĠUpper":14566,"14435":14567,"14444":14568,"14624":14569,"7263":14570,"1311":14571,"1374":14572,"1368":14573,"13133":14574,"13202":14575,"13097":14576,"13160":14577,"13963":14578,"RbTl":14579,"RbInS":14580,"RbCuSe":14581,"RbCaH":14582,"RbMnP":14583,"RbTlCl":14584,"RbGeCl":14585,"4922":14586,"4997":14587,"9010":14588,"9007":14589,"906903":14590,"617":14591,"6177":14592,"618929":14593,"614572":14594,"9252":14595,"9270":14596,"9266":14597,"8712":14598,"4452":14599,"ĠAlTiNi":14600,"9153":14601,"917343":14602,"3247":14603,"32780":14604,"9952":14605,"9987":14606,"35152":14607,"35746":14608,"3623":14609,"3785":14610,"3740":14611,"17092":14612,"17228":14613,"17892":14614,"17625":14615,"985304":14616,"2762":14617,"27124":14618,"27549":14619,"27829":14620,"27826":14621,"27664":14622,"0155":14623,"2662":14624,"12064":14625,"120279":14626,"1209823":14627,"1207598":14628,"1209946":14629,"1208257":14630,"1203241":14631,"1203422":14632,"1201230":14633,"1204281":14634,"1208952":14635,"1208170":14636,"1207608":14637,"1209153":14638,"1202662":14639,"30208":14640,"30094":14641,"31471":14642,"31339":14643,"28800":14644,"28695":14645,"28731":14646,"28256":14647,"CsRb":14648,"CsInSe":14649,"CsBiS":14650,"CsPSe":14651,"CsMnAs":14652,"CsAlCl":14653,"CsTiCl":14654,"CsMnSe":14655,"CsMnTe":14656,"CsCrCl":14657,"CsTaSe":14658,"11055":14659,"110452":14660,"110570":14661,"110296":14662,"1105693":14663,"1101055":14664,"1105558":14665,"1101606":14666,"1101621":14667,"1106177":14668,"ĠTiSCl":14669,"11811":14670,"11822":14671,"11873":14672,"1181094":14673,"1221139":14674,"1221137":14675,"1227997":14676,"1095683":14677,"11621":14678,"ĠNCaSi":14679,"1186233":14680,"1186124":14681,"1186123":14682,"10755":14683,"1076973":14684,"1076981":14685,"1072382":14686,"1072589":14687,"ĠScSbRu":14688,"1216464":14689,"1216222":14690,"1216503":14691,"1216210":14692,"1216247":14693,"1216179":14694,"1216079":14695,"1216176":14696,"1216348":14697,"1216463":14698,"1216029":14699,"1216666":14700,"1216451":14701,"1216601":14702,"1216078":14703,"1216883":14704,"1216267":14705,"1216184":14706,"1216017":14707,"1216913":14708,"1216963":14709,"1216349":14710,"ĠTaNiTe":14711,"1183464":14712,"1183167":14713,"1183837":14714,"1183607":14715,"1183191":14716,"1183135":14717,"1183458":14718,"1183728":14719,"1183468":14720,"1183617":14721,"1079167":14722,"1079559":14723,"1079772":14724,"1079542":14725,"1079860":14726,"1079048":14727,"1079075":14728,"ĠVSiTc":14729,"ĠNiTeSe":14730,"1220110":14731,"1220525":14732,"1220522":14733,"1220669":14734,"1220083":14735,"1220523":14736,"1220586":14737,"1220742":14738,"1220696":14739,"1220594":14740,"1220689":14741,"1220599":14742,"1215955":14743,"1215573":14744,"1215700":14745,"1215188":14746,"1215208":14747,"1215627":14748,"1215180":14749,"1215230":14750,"1215662":14751,"1215517":14752,"1215295":14753,"1215506":14754,"1215817":14755,"1215937":14756,"1215872":14757,"1215194":14758,"1215298":14759,"1215609":14760,"1018658":14761,"1017553":14762,"1017632":14763,"569204":14764,"569532":14765,"569436":14766,"569344":14767,"ĠHfAlIr":14768,"ĠHfAlRu":14769,"10261":14770,"1026980":14771,"1028441":14772,"ĠAlCuRh":14773,"ĠSeNaPt":14774,"ĠAlScNi":14775,"ĠAlScAg":14776,"ĠSeInAg":14777,"ĠZrAlRh":14778,"ĠCaPPt":14779,"ĠSCuPt":14780,"ĠSCuNi":14781,"8670":14782,"867110":14783,"867156":14784,"867203":14785,"867850":14786,"867149":14787,"867751":14788,"867799":14789,"867242":14790,"867327":14791,"867787":14792,"867475":14793,"867507":14794,"ĠTaSiSe":14795,"5671":14796,"567817":14797,"567927":14798,"567931":14799,"1080835":14800,"1080424":14801,"1080624":14802,"1080056":14803,"1080495":14804,"1080646":14805,"1080049":14806,"1080815":14807,"1187209":14808,"1187208":14809,"1187718":14810,"1187939":14811,"1187225":14812,"1187424":14813,"1187704":14814,"1187068":14815,"1219472":14816,"1219145":14817,"1219939":14818,"1219787":14819,"1219050":14820,"1219003":14821,"1219488":14822,"1219266":14823,"1219527":14824,"ĠSZnHg":14825,"ĠNbSeS":14826,"11958":14827,"1191078":14828,"1191953":14829,"1191118":14830,"1191527":14831,"1195257":14832,"1192397":14833,"1198712":14834,"1018116":14835,"1018806":14836,"1018726":14837,"1224121":14838,"1224867":14839,"1224865":14840,"1224862":14841,"1224983":14842,"1224691":14843,"1224473":14844,"1224484":14845,"1224893":14846,"1224980":14847,"1224834":14848,"1224978":14849,"1224540":14850,"1224536":14851,"1224863":14852,"1224401":14853,"1224495":14854,"1217224":14855,"1217126":14856,"1217024":14857,"1217162":14858,"1217935":14859,"1217096":14860,"1217794":14861,"1223955":14862,"1223971":14863,"1223932":14864,"1223400":14865,"1223807":14866,"1223584":14867,"ĠSeCsSb":14868,"ĠZrGaPd":14869,"ĠHfGeTe":14870,"ĠZnAgPd":14871,"ĠMnSiRu":14872,
[...]
