{"!":0,"\"":1,"#":2,"$":3,"%":4,"&":5,"'":6,"(":7,")":8,"*":9,"+":10,",":11,"-":12,".":13,"/":14,"0":15,"1":16,"2":17,"3":18,"4":19,"5":20,"6":21,"7":22,"8":23,"9":24,":":25,";":26,"<":27,"=":28,">":29,"?":30,"@":31,"A":32,"B":33,"C":34,"D":35,"E":36,"F":37,"G":38,"H":39,"I":40,"J":41,"K":42,"L":43,"M":44,"N":45,"O":46,"P":47,"Q":48,"R":49,"S":50,"T":51,"U":52,"V":53,"W":54,"X":55,"Y":56,"Z":57,"[":58,"\\":59,"]":60,"^":61,"_":62,"`":63,"a":64,"b":65,"c":66,"d":67,"e":68,"f":69,"g":70,"h":71,"i":72,"j":73,"k":74,"l":75,"m":76,"n":77,"o":78,"p":79,"q":80,"r":81,"s":82,"t":83,"u":84,"v":85,"w":86,"x":87,"y":88,"z":89,"{":90,"|":91,"}":92,"~":93,"¡":94,"¢":95,"£":96,"¤":97,"¥":98,"¦":99,"§":100,"¨":101,"©":102,"ª":103,"«":104,"¬":105,"®":106,"¯":107,"°":108,"±":109,"²":110,"³":111,"´":112,"µ":113,"¶":114,"·":115,"¸":116,"¹":117,"º":118,"»":119,"¼":120,"½":121,"¾":122,"¿":123,"À":124,"Á":125,"Â":126,"Ã":127,"Ä":128,"Å":129,"Æ":130,"Ç":131,"È":132,"É":133,"Ê":134,"Ë":135,"Ì":136,"Í":137,"Î":138,"Ï":139,"Ð":140,"Ñ":141,"Ò":142,"Ó":143,"Ô":144,"Õ":145,"Ö":146,"×":147,"Ø":148,"Ù":149,"Ú":150,"Û":151,"Ü":152,"Ý":153,"Þ":154,"ß":155,"à":156,"á":157,"â":158,"ã":159,"ä":160,"å":161,"æ":162,"ç":163,"è":164,"é":165,"ê":166,"ë":167,"ì":168,"í":169,"î":170,"ï":171,"ð":172,"ñ":173,"ò":174,"ó":175,"ô":176,"õ":177,"ö":178,"÷":179,"ø":180,"ù":181,"ú":182,"û":183,"ü":184,"ý":185,"þ":186,"ÿ":187,"Ā":188,"ā":189,"Ă":190,"ă":191,"Ą":192,"ą":193,"Ć":194,"ć":195,"Ĉ":196,"ĉ":197,"Ċ":198,"ċ":199,"Č":200,"č":201,"Ď":202,"ď":203,"Đ":204,"đ":205,"Ē":206,"ē":207,"Ĕ":208,"ĕ":209,"Ė":210,"ė":211,"Ę":212,"ę":213,"Ě":214,"ě":215,"Ĝ":216,"ĝ":217,"Ğ":218,"ğ":219,"Ġ":220,"ġ":221,"Ģ":222,"ģ":223,"Ĥ":224,"ĥ":225,"Ħ":226,"ħ":227,"Ĩ":228,"ĩ":229,"Ī":230,"ī":231,"Ĭ":232,"ĭ":233,"Į":234,"į":235,"İ":236,"ı":237,"Ĳ":238,"ĳ":239,"Ĵ":240,"ĵ":241,"Ķ":242,"ķ":243,"ĸ":244,"Ĺ":245,"ĺ":246,"Ļ":247,"ļ":248,"Ľ":249,"ľ":250,"Ŀ":251,"ŀ":252,"Ł":253,"ł":254,"Ń":255,"Ġa":256,"Ġt":257,"he":258,"on":259,"le":260,"Ġi":261,"Ġthe":262,"Ġb":263,"om":264,"Ġs":265,"Ġo":266,"Ġc":267,"it":268,"re":269,"nd":270,"ond":271,"at":272,"ng":273,"or":274,"Ġbond":275,"Ġis":276,"Ġat":277,"en":278,"Ġatom":279,"al":280,"Ġand":281,"ar":282,"Ġe":283,"The":284,"Ġf":285,"Ġof":286,"Ġm":287,"ed":288,"Ġw":289,"ro":290,"ac":291,"Ġto":292,"Ġatoms":293,"âĤ":294,"lec":295,"Ġin":296,"et":297,"iv":298,"ic":299,"ĠThe":300,"ate":301,"nt":302,"ra":303,"ing":304,"er":305,"ĠC":306,"di":307,"ale":308,"es":309,"alent":310,"Ġh":311,"Ġp":312,"ith":313,"Ġwith":314,"Ġmo":315,"lecu":316,"Ġmolecu":317,"qu":318,"gen":319,"âģ":320,"st":321,"ur":322,"ivalent":323,"quivalent":324,"th":325,"Ãħ":326,"Ġg":327,"ds":328,"ĠÃħ":329,"Ġ1":330,"Ġon":331,"Ġequivalent":332,"ct":333,"Ġare":334,"ĠI":335,"dsor":336,"Ġmolecule":337,"hed":338,"dsorb":339,"Ġtw":340,"arb":341,"Ġdi":342,"Ġ(":343,"arbon":344,"ace":345,"Ġsit":346,"Ġcarbon":347,"âĢ":348,"âĢĵ":349,"Ġbonded":350,"hedra":351,"ĠS":352,"Ġfor":353,"Ġle":354,"ngth":355,"ry":356,"Ġlength":357,"Ġtwo":358,"ly":359,"ri":360,"cta":361,"Ġth":362,"Ġadsorb":363,"Ġor":364,"tr":365,"Ġsite":366,"Ġhy":367,"xy":368,"ĠA":369,"Ġsi":370,"Ġ2":371,"an":372,"ctahedra":373,"Ġsp":374,"bit":375,"rogen":376,"bital":377,"ub":378,"ent":379,"aly":380,"ataly":381,"Ġha":382,"Ġform":383,"ĠN":384,"een":385,"Ġcataly":386,"Ġsur":387,"Ġsurf":388,"ol":389,"Ġorbital":390,"xygen":391,"omet":392,"Ġn":393,"Ġsurface":394,"ĠIn":395,"Ġcub":396,"eomet":397,"Ġgeomet":398,"Ġgeometry":399,"âģº":400,"ĠP":401,"our":402,"Ġoxygen":403,"âģ»":404,"ĠT":405,"Ġfour":406,"Ġbet":407,"tic":408,"Ġd":409,"ween":410,"Ġbetween":411,"Ġhas":412,"ĠThere":413,"Ġadsorbate":414,"rou":415,"har":416,"Ġcatalytic":417,"im":418,"Â²":419,"CH":420,"tron":421,"Ġcubo":422,"Ġcuboctahedra":423,"Ġelec":424,"ion":425,"ner":426,"orner":427,"pp":428,"xim":429,"Ġelectron":430,"ately":431,"Ġcorner":432,"Ġapp":433,"roxim":434,"Ġapproxim":435,"Ġapproximately":436,"li":437,"po":438,"Ġhyd":439,"Ġang":440,"Ġdist":441,"dg":442,"Ġgrou":443,"Ġlengths":444,"eg":445,"lar":446,"ter":447,"gh":448,"Ġangle":449,"ĠM":450,"Ġsh":451,"Ġone":452,"ĠAl":453,"Ġgroup":454,"âĤĦ":455,"pole":456,"âĤĤ":457,"Ġwh":458,"rom":459,"Ġsix":460,"ive":461,"co":462,"oment":463,"Ġmoment":464,"Ġhydrogen":465,"Ġdipole":466,"âĤĨ":467,"Ġorbitals":468,"OH":469,"il":470,"Ġra":471,"Ġthat":472,"Ġpl":473,"Ġedg":474,"ir":475,"Ġmolecular":476,"igh":477,"nate":478,"ordi":479,"coordi":480,"coordinate":481,"bri":482,"ree":483,"Ġbi":484,"ure":485,"Ġfrom":486,"ĠH":487,"Ġthree":488,"Ġre":489,"ight":490,"Ġit":491,"Ġhybri":492,"itrogen":493,"ne":494,"nding":495,"Ġchar":496,"Ġco":497,"ical":498,"Ġnitrogen":499,"Â³":500,"valent":501,"Ġcovalent":502,"aced":503,"Ġplaced":504,"Ġcorners":505,"Â¹":506,"Ġse":507,"are":508,"Ġelectrons":509,"ces":510,"Ġbinding":511,"Ġbonds":512,"mp":513,"Ġbonding":514,"Ġrang":515,"haring":516,").":517,"ĠR":518,"etra":519,"Ġl":520,"Ġas":521,"ĠO":522,"Ġtetra":523,"Ġeight":524,"ĠZ":525,"gon":526,"gonal":527,"ce":528,"Ġlon":529,"ve":530,"sharing":531,"ĠTi":532,"ow":533,"ĠCH":534,"ille":535,"ich":536,"Ġwhich":537,"Ġ*":538,"Ġ0":539,"Ġadsorbed":540,"âĤģ":541,"Ġtri":542,"act":543,"ĠG":544,"dsorbate":545,"ex":546,"Ġedges":547,"ity":548,"ĠInd":549,"Ġal":550,"ĠMille":551,"ĠMiller":552,"Adsorbate":553,"ĠIndex":554,"zes":555,"Ġcry":556,"alli":557,"stalli":558,"Ġspace":559,"Ġcrystalli":560,"Ġcrystallizes":561,"Ġdistan":562,"pe":563,"ad":564,"Ġoctahedra":565,"Ġdistances":566,"olar":567,"diz":568,"egat":569,"Ġshare":570,"read":571,"Ġspread":572,"Ġranging":573,"ort":574,"Ġ3":575,"ist":576,"ver":577,"Ġdeg":578,"ze":579,"Ġcon":580,"uct":581,"Ġpolar":582,"ĠĊ":583,"rees":584,"Ġdegrees":585,"in":586,"âĤĪ":587,"aces":588,"hy":589,"truct":590,"tructure":591,"Ġstructure":592,"ation":593,"ĠAll":594,"Ġu":595,"ĠD":596,"Ġangles":597,"el":598,"âĤĥ":599,"la":600,"Ġdistort":601,"Ġdistorted":602,"âĤģâĤĤ":603,"hem":604,"Ġchem":605,"Â°":606,"ile":607,"Ġfaces":608,"Ġchemical":609,"Ġpar":610,"Ġhybridiz":611,"so":612,"Ġwhile":613,"Ġcharg":614,"ach":615,"Ġalso":616,"cond":617,"irst":618,"equivalent":619,"Ġfirst":620,"Ġinequivalent":621,"Ġsites":622,"Ġsecond":623,"ue":624,"mi":625,"Ġan":626,"Ġv":627,"ere":628,"Al":629,"Ġdue":630,"Ġsig":631,"Ġits":632,"Ġsize":633,"Ġeach":634,"all":635,"ĠCa":636,"ĠPd":637,"ĠHf":638,"ut":639,"op":640,"Ġatop":641,"ger":642,"orter":643,"Ġshorter":644,"Ġlonger":645,"Ġtetrahedra":646,"yra":647,"yrami":648,"ĠNi":649,"ivity":650,"ma":651,"Ġty":652,"ĠZr":653,"nce":654,"Ġ10":655,"Ġtwel":656,"20":657,"Ġtwelve":658,"ti":659,"ĠSi":660,"Ġtype":661,"Ġelectronegat":662,"ĠGa":663,"ĠB":664,"yramids":665,"Ġsing":666,"action":667,"Ġcatalyst":668,"Ġinter":669,"hedr":670,"Se":671,"Ġcan":672,"Ġcharge":673,"Ġedge":674,"de":675,"ĠPt":676,"mm":677,"ĠSe":678,"âģ´":679,"Ġhybrid":680,"Ġsingle":681,"hedral":682,"kn":683,"Ġkn":684,"own":685,"Ġknown":686,"acter":687,"Ġcharacter":688,"yl":689,"ĠY":690,"os":691,"ĠIt":692,"Ġparti":693,"Ġpartial":694,"if":695,"Â°.":696,"Ġcubic":697,"by":698,"In":699,"ĠNa":700,"Ġtrigonal":701,"Ġstructured":702,"Ġeth":703,"Ġfive":704,"Fe":705,"ĠV":706,"eby":707,"ple":708,"ics":709,"ĠCu":710,"ĠNb":711,"Ġun":712,"Ġcharacterist":713,"âĤħ":714,"Si":715,"Ġli":716,"ĠTe":717,"ĠSc":718,"ĠMo":719,"Ġcharacteristics":720,"Ġelectronegativity":721,"Pd":722,"ebye":723,"near":724,"Ġlinear":725,"ĠAs":726,"As":727,"ix":728,"ture":729,"Ġmix":730,"Ġmixture":731,"ĠTa":732,"lene":733,"Ġover":734,"Ġcom":735,"her":736,"Ġby":737,"ant":738,"Te":739,"Ġpos":740,"ĠSr":741,"ĠZn":742,"80":743,"us":744,"ĠRh":745,"ylene":746,"air":747,"Ġtriple":748,"Ġ4":749,"Ġcons":750,"Ti":751,"onding":752,"Ġpair":753,"ula":754,"Ġformula":755,"ĠDebye":756,"Ġhybridized":757,"Ġma":758,"ndic":759,"ĠSb":760,"Ġres":761,"ff":762,"Ġdiff":763,"ĠW":764,"Ġinteraction":765,"Ġpi":766,"Ġbo":767,"ific":768,"Ġsigma":769,"cet":770,"agonal":771,"anar":772,"Ġbe":773,"Ġconsist":774,"10":775,"Ġdiffere":776,"ĠCo":777,"Pt":778,"mol":779,"ĠGe":780,"ul":781,"ĠSn":782,"CHO":783,"Ġlone":784,"low":785,"ses":786,"Ni":787,"Ġtil":788,"Ġtilt":789,"Ġno":790,"Ga":791,"Ġposit":792,"Ġarou":793,"Ġaround":794,"Ġab":795,"ĠÏ":796,"ĠK":797,"Ġcarbonyl":798,"ther":799,"Ġ6":800,"ively":801,"ĠAg":802,"ĠCr":803,"Ġhave":804,"Ġnegat":805,"Ġpyramids":806,"ĠFe":807,"Ġoverla":808,"se":809,"Sb":810,"Ġacet":811,"Ġindic":812,"mall":813,"Ġsmall":814,"Ġbri":815,"dge":816,"Ġbridge":817,"Ġgly":818,"anol":819,"ctahedral":820,"Ġhybridization":821,"Ġ180":822,"Ġother":823,"Ġdo":824,"Ġ5":825,"Ġoctahedral":826,"Ġoverlap":827,"Ìħ":828,"vol":829,"Ġinvol":830,"ĠMn":831,"Ġthir":832,"Ġwe":833,"res":834,"ta":835,"teen":836,"Ge":837,"CO":838,"Ġmet":839,"dy":840,"out":841,"Ġabout":842,"ating":843,"nific":844,"Ġsignific":845,"Ġsignificant":846,"Ġdifference":847,"ered":848,"Ġpositive":849,"Ġnegative":850,"Ġface":851,"ke":852,"12":853,"uble":854,"Ġthird":855,"is":856,"Zn":857,"ĠAu":858,"Sn":859,"cent":860,"Ġbody":861,"centered":862,"roxy":863,"Over":864,"Overall":865,"ven":866,"ollow":867,"OHCH":868,"Ġformed":869,"Rh":870,"09":871,"Cu":872,"Ġ120":873,"Ġplanar":874,"bonding":875,"strom":876,"cc":877,"Ġ109":878,"up":879,"stroms":880,"Ġresul":881,"Ġresult":882,"dical":883,"Ġradical":884,"Ġdouble":885,"NH":886,"Ġbip":887,"Ġ11":888,"Ġinvolv":889,"Ġwhe":890,"Ġweight":891,"Ġnon":892,"ĠNO":893,"col":894,"Ġglycol":895,"erm":896,"ĠRu":897,"Ġsqu":898,"Ġsquare":899,"rib":900,"Ag":901,"oth":902,"ĠBoth":903,"lu":904,"Ġwhere":905,"Ġpro":906,"Ġbipyramids":907,"Mo":908,"Ġseven":909,"tain":910,"Zr":911,"ĠCCH":912,"Ġgroups":913,"ĠIr":914,"ccup":915,"ĠRb":916,"ional":917,"Ġhydroxy":918,"Ġ9":919,"hyl":920,"Ġreact":921,"ĠBi":922,"Ġindicating":923,"oc":924,"Ġ7":925,"like":926,"ĠOH":927,"Hf":928,"lat":929,"Ġrelat":930,"Ġrange":931,"ers":932,"ngstroms":933,"Ġrelatively":934,"ĠÏĥ":935,"ĠE":936,"54":937,"Ġtetrahedral":938,"pa":939,"Ġhe":940,"Ġpres":941,"ribut":942,"oxygen":943,"OCH":944,"ĠPb":945,"Ġme":946,"ide":947,"hyd":948,"Ġsy":949,"bic":950,"hom":951,"orhom":952,"thorhom":953,"thorhombic":954,"ire":955,"43":956,"ari":957,"pt":958,"alence":959,"sed":960,"Ġorthorhombic":961,"Ġten":962,"67":963,"ĠCd":964,"ine":965,"33":966,"11":967,"als":968,"his":969,"ĠThis":970,"id":971,"ence":972,"Au":973,"zero":974,"Ġpent":975,"Ġpentagonal":976,"NO":977,"ha":978,"Ġoccup":979,"96":980,"ĠAngstroms":981,"Ġcontain":982,"Ġcontains":983,"ite":984,"Ġconsists":985,"am":986,"Ġunpa":987,"ired":988,"Ġunpaired":989,"Ġvalence":990,"carbon":991,"Ġcompo":992,"08":993,"07":994,"Ġvan":995,"ĠNH":996,"aals":997,"Ġder":998,"ĠWaals":999,"Ġmethyl":1000,"bridiz":1001,"hybridiz":1002,"hybridized":1003,"ape":1004,"Ġshape":1005,"Ġconsisting":1006,"Ġany":1007,"ption":1008,"42":1009,"ig":1010,"Ġelectronic":1011,"Co":1012,"),":1013,"hydrogen":1014,"Ġpairs":1015,"xagonal":1016,"Ġhexagonal":1017,"Ġzero":1018,"um":1019,"Ru":1020,"69":1021,"ĠCl":1022,"Ġtetragonal":1023,"Ġ8":1024,"Ir":1025,"50":1026,"Ġresulting":1027,"Ġpolarity":1028,"ined":1029,"ĠTl":1030,"Ġadsor":1031,"Ġadsorption":1032,"rises":1033,"16":1034,"ented":1035,"ĠEth":1036,"Ġreaction":1037,"Ġreactions":1038,"etr":1039,"mmetr":1040,"Ġhollow":1041,"53":1042,"per":1043,"Ġant":1044,"ies":1045,"war":1046,"Ġtowar":1047,"Ġtowards":1048,"Nb":1049,"rough":1050,"em":1051,"Ġpartic":1052,"Ġinf":1053,"Ta":1054,"05":1055,"85":1056,"Ġhydroxyl":1057,"ens":1058,"Ġinteractions":1059,"rect":1060,"Ġdirect":1061,"ĠOCH":1062,"ble":1063,"Ġfourth":1064,"Ġethanol":1065,"Ġarises":1066,"Ca":1067,"ip":1068,"Ġdet":1069,"Ġreactivity":1070,"ĠCs":1071,"Ġanti":1072,"Bi":1073,"Cd":1074,"Ġforms":1075,"Sc":1076,"55":1077,"Cl":1078,"ĠTc":1079,"ĠRe":1080,"22":1081,"Ġinvolves":1082,"ĠHg":1083,"Ġunhybridized":1084,"Ġst":1085,"Ġnine":1086,"nic":1087,"linic":1088,"Ġsli":1089,"ght":1090,"Ġslight":1091,"COH":1092,"Pb":1093,"Ġthrough":1094,"ular":1095,"15":1096,"uc":1097,"lecular":1098,"ding":1099,"Ġparticip":1100,"Ġparticipate":1101,"Ġdirection":1102,"der":1103,"21":1104,"Ġex":1105,"Ġforming":1106,"Ġne":1107,"Ġsixteen":1108,"88":1109,"Ġmean":1110,"Ġmak":1111,"edi":1112,"Na":1113,"dius":1114,"Ġradius":1115,"rbital":1116,"Ġfourteen":1117,"47":1118,"Ġpm":1119,"Ġmore":1120,"Ġacetylene":1121,"71":1122,"Ġmay":1123,"ĠCOCH":1124,"Ġcen":1125,"tral":1126,"Ġcentral":1127,"as":1128,"ĠÏĢ":1129,"Ġori":1130,"Ġoriented":1131,"ied":1132,"Ġterm":1133,"Ġterms":1134,"Ġshe":1135,"ĠF":1136,"Ġimp":1137,"ĠOs":1138,"Ġsymmetr":1139,"86":1140,"Ġvari":1141,"Ġnot":1142,"ermined":1143,"Ġdetermined":1144,"qual":1145,"aus":1146,"alde":1147,"hyde":1148,"aldehyde":1149,"und":1150,"Ġpresence":1151,"Cr":1152,"orm":1153,"06":1154,"orbital":1155,"clu":1156,"Ġinclu":1157,"Ġdistribut":1158,"Ġthese":1159,"Ġwate":1160,"Ġwater":1161,"52":1162,"ous":1163,"Â°,":1164,"Ġcomb":1165,"mmm":1166,"Ġmon":1167,"40":1168,"rop":1169,"Ġrema":1170,"ining":1171,"Ġremaining":1172,"oclinic":1173,"Ġmonoclinic":1174,"ental":1175,"Ġantibonding":1176,"ometers":1177,"CCH":1178,"oxy":1179,"lanar":1180,"planar":1181,"Ġsharing":1182,"yan":1183,"Ġhigh":1184,"02":1185,"un":1186,"Ġinteract":1187,"Hg":1188,"Ġfollow":1189,"Ġethylene":1190,"Ġatomic":1191,"Mn":1192,"Ġmolecules":1193,"Ġout":1194,"Sr":1195,"23":1196,"ortant":1197,"Ġimportant":1198,"Ġvarious":1199,"ipole":1200,"ec":1201,"Ġspec":1202,"gn":1203,"Ġar":1204,"Ġnet":1205,"Ġsymmetrical":1206,"Ġboth":1207,"omic":1208,"atomic":1209,"âģº,":1210,"62":1211,"57":1212,"89":1213,"Ġincluding":1214,"Ġoccupy":1215,"Ġmaking":1216,"46":1217,"Ġhig":1218,"Ġelectronegative":1219,"6âĤĥ":1220,"Ġslightly":1221,"93":1222,"anedi":1223,"âĤĩ":1224,"66":1225,"74":1226,"Ġfif":1227,"gan":1228,"Ġorgan":1229,"Ġorganic":1230,"82":1231,"Ġethoxy":1232,"ame":1233,"Ġsheet":1234,"ge":1235,"Ġstron":1236,"Ġstrong":1237,"iz":1238,"mens":1239,"dimens":1240,"dimensional":1241,"Ġper":1242,"Ġcompound":1243,"dd":1244,"âĤĢ":1245,"83":1246,"Tl":1247,"70":1248,"ĠCHOH":1249,"65":1250,"Ġinform":1251,"Ġinformation":1252,"75":1253,"19":1254,"ving":1255,"tribut":1256,"Ġcontribut":1257,"âĤģâĤĢ":1258,"Ġproces":1259,"ium":1260,"25":1261,"ary":1262,"ates":1263,"Ġindicates":1264,"Ġhaving":1265,"cel":1266,"Ġcancel":1267,"Ġused":1268,"imental":1269,"perimental":1270,"Ġexperimental":1271,"nol":1272,"ynol":1273,"'s":1274,"45":1275,"79":1276,"Ïĥ":1277,"Ġsurfaces":1278,"Ġcomposed":1279,"73":1280,"ives":1281,"Ġgives":1282,"ddit":1283,"Ġinvolved":1284,"rang":1285,"Ġarrang":1286,"Ġwid":1287,"Ġwidth":1288,"ated":1289,"Ġ104":1290,"81":1291,"Prop":1292,"Propanol":1293,"ature":1294,"Ġallow":1295,"68":1296,"Ġsince":1297,"anediol":1298,"Ġcharged":1299,"Orbital":1300,"Ġdistribution":1301,"stem":1302,"Ġsystem":1303,"ox":1304,"oxal":1305,"Ġsame":1306,"Ġcyan":1307,"ĠCCO":1308,"Ġfifth":1309,"ot":1310,"ĠFm":1311,"Os":1312,"Ġval":1313,"rim":1314,"ĠPm":1315,"Ġ-":1316,"Ġsuc":1317,"Ġsuch":1318,"18":1319,"24":1320,"ination":1321,"Ġcombination":1322,"Ġde":1323,"ĠTiTi":1324,"ĠEthylene":1325,"ell":1326,"60":1327,"Ġpresent":1328,"97":1329,"Ġresults":1330,"fig":1331,"uration":1332,"Ġconfig":1333,"Ġconfiguration":1334,"ĠIts":1335,"Ġbec":1336,"MO":1337,"eth":1338,"etic":1339,"gnetic":1340,"icometers":1341,"Ġprim":1342,"arily":1343,"Ġprimarily":1344,"64":1345,"nder":1346,"Ġunder":1347,"ĠL":1348,"par":1349,"Ġsepar":1350,"Ġseparation":1351,"Ġwithin":1352,"mmc":1353,"Tc":1354,"ĠCHCH":1355,"Re":1356,"04":1357,"Ġhighly":1358,"59":1359,"51":1360,"77":1361,"Ġprocesses":1362,"Ġsever":1363,"Ġseveral":1364,"34":1365,"Ġacetyl":1366,"78":1367,"Ġnature":1368,"Ġpartially":1369,"56":1370,"OCHO":1371,"Ġrep":1372,"mo":1373,"ÏĢ":1374,"ement":1375,"mc":1376,"Ġ(-":1377,"Ġcar":1378,"Ġposses":1379,"Ġoverall":1380,"ons":1381,"72":1382,"int":1383,"84":1384,"ethanediol":1385,"14":1386,"Ġarrangement":1387,"Ġtheor":1388,"pendic":1389,"Ġperpendic":1390,"Ġperpendicular":1391,"76":1392,"Ġtwent":1393,"yramid":1394,"nequal":1395,"Ġunequal":1396,"29":1397,"58":1398,"sing":1399,"Ġref":1400,"Ġmoder":1401,"Ġoccupied":1402,"Ġglyoxal":1403,"Ġforces":1404,"ĠPn":1405,"ĠU":1406,"âĤī":1407,"Ġtwenty":1408,"41":1409,"ĠOHNH":1410,"acet":1411,"ĠAddit":1412,"ionally":1413,"Ġmeans":1414,"ĠAdditionally":1415,"Ġcomm":1416,"Ġwell":1417,"ĠCHOHCH":1418,"Ġend":1419,"Ġ62":1420,"ĠCOHCH":1421,"edge":1422,"Ġedgeedge":1423,"nitrogen":1424,"ĠCOH":1425,"ĠCOHCHO":1426,"13":1427,"ties":1428,"Ġproper":1429,"Ġproperties":1430,"44":1431,"ities":1432,"Ġcyano":1433,"âģµ":1434,"Ġreactive":1435,"Ġmake":1436,"ized":1437,"Ġcatalysts":1438,"Ġcharges":1439,"tal":1440,"Ġtotal":1441,"ment":1442,"Ġthere":1443,"49":1444,"48":1445,"ible":1446,"pons":1447,"Ġrespons":1448,"Ġresponsible":1449,"Ġpicometers":1450,"Ġacetate":1451,"Ġ107":1452,"ause":1453,"Ġbecause":1454,"Ġfun":1455,"ctional":1456,"Ġfunctional":1457,"cataly":1458,"catalyst":1459,"Ġinflu":1460,"63":1461,"Ġmeaning":1462,"hol":1463,"cohol":1464,"Ġalcohol":1465,"ĠThese":1466,"Ġmoments":1467,"Ġsta":1468,"ĠCCHO":1469,"90":1470,"Ġethynol":1471,"oo":1472,"Ġsystems":1473,"ilic":1474,"aw":1475,"saw":1476,"Ġsee":1477,"ĠCN":1478,"Ġhigher":1479,"Ġeighteen":1480,"hys":1481,"hest":1482,"illed":1483,"Ġrepres":1484,"Ġ12":1485,"Ġthan":1486,"61":1487,"92":1488,"mcm":1489,"Ġbeing":1490,"Ġground":1491,"Ġstate":1492,"ilicide":1493,"ped":1494,"sha":1495,"shaped":1496,"ions":1497,"Rb":1498,"ues":1499,"Ġvalues":1500,"ived":1501,"derived":1502,"Ġdiatomic":1503,"87":1504,"Bond":1505,"Bonding":1506,"Dipole":1507,"Molecular":1508,"Ġmeas":1509,"coplanar":1510,"Ġdepe":1511,"Ġdia":1512,"ĠAlTi":1513,"los":1514,"Ġclos":1515,"ĠPnma":1516,"ane":1517,"Ġind":1518,"CHOH":1519,"ations":1520,"tac":1521,"Ġattac":1522,"Ġattached":1523,"oint":1524,"Ġpoint":1525,"polar":1526,"Ġnonpolar":1527,"Ġrefers":1528,"Ġcontributes":1529,"COHCOH":1530,"91":1531,"Ġdifferent":1532,"Ġsu":1533,"dj":1534,"Ġadj":1535,"acent":1536,"Ġadjacent":1537,"ust":1538,"Ġsixth":1539,"Ġen":1540,"32":1541,"Ġformation":1542,"Ġspecies":1543,"Ġnear":1544,"ial":1545,"ci":1546,"Ġsci":1547,"Ġshared":1548,"ĠTiSe":1549,"Ġsol":1550,"acetylene":1551,"Ġcaus":1552,"36":1553,"99":1554,"01":1555,"Ġj":1556,"ĠEthanol":1557,"Ġspecific":1558,"ran":1559,"Ġdiam":1560,"Ġtilted":1561,"Ġtheory":1562,"Ġbent":1563,"95":1564,"bond":1565,"erv":1566,"Ġinfluence":1567,"35":1568,"Ġ44":1569,"Ġmoderate":1570,"eter":1571,"Ġdiameter":1572,"Ġequal":1573,"Ġpyramid":1574,"Ġformate":1575,"eus":1576,"ler":1577,"eusler":1578,"Ġca":1579,"ĠUran":1580,"ĠUranium":1581,"Ġinvolve":1582,"Ġfollowing":1583,"Ġide":1584,"Ġideal":1585,"37":1586,"ama":1587,"Ġparama":1588,"Ġparamagnetic":1589,"ĠSilicide":1590,"94":1591,"face":1592,"Ġfaceface":1593,"Ġ16":1594,"Ġcarri":1595,"xime":1596,"ĠCOHCHOH":1597,"ĠNNO":1598,"ance":1599,"Ġsheets":1600,"Ġcommon":1601,"ak":1602,"Ġweak":1603,"Ġstable":1604,"ility":1605,"Ġability":1606,"ĠCOCHO":1607,"Ġfollows":1608,"2âĤģ":1609,"ood":1610,"Ġ111":1611,"ĠOrbital":1612,"Ġshares":1613,"ĠDipole":1614,"ĠBond":1615,"ĠBonding":1616,"ĠMolecular":1617,"Ġcre":1618,"ngular":1619,"ctangular":1620,"Ġrectangular":1621,"Ġcomple":1622,"COHCH":1623,"Ġphys":1624,"âī":1625,"âī¡":1626,"Ġmeasure":1627,"ĠHeusler":1628,"zine":1629,"razine":1630,"Ġhydrazine":1631,"Ġrepresent":1632,"ew":1633,"ethyl":1634,"enot":1635,"Ġdenot":1636,"Ġdenotes":1637,"Ġangstroms":1638,"27":1639,"26":1640,"Ġpossesses":1641,"Ġqu":1642,"ene":1643,"zene":1644,"Ġdiazene":1645,"17":1646,"Ġthey":1647,"dent":1648,"Ġident":1649,"Ġunderst":1650,"Ġidentical":1651,"98":1652,"mine":1653,"Ġ32":1654,"Ġpointing":1655,"Ġtriatomic":1656,"vi":1657,"Ġdepending":1658,"ll":1659,"most":1660,"ĠAcet":1661,"015":1662,"Ġ116":1663,"Ġpositively":1664,"Ġnegatively":1665,"ric":1666,"Ġvary":1667,"cted":1668,"nected":1669,"Ġconnected":1670,"30":1671,"38":1672,"Ġtyp":1673,"Ġdens":1674,"Ġdensity":1675,"Ġbeta":1676,"Ġmeth":1677,"Ġattr":1678,"acted":1679,"Ġattracted":1680,"ymmetr":1681,"Ġasymmetr":1682,"Ġasymmetric":1683,"bor":1684,"Ġstre":1685,"Ġpul":1686,"Ġman":1687,"Ġmany":1688,"ou":1689,"you":1690,"Ġyou":1691,"ruc":1692,"Ġcruc":1693,"Ġcrucial":1694,"est":1695,"pha":1696,"Ġalpha":1697,"corner":1698,"Ġcornercorner":1699,"Ġhydroxyacetylene":1700,"Ġtriplet":1701,"to":1702,"Ġonto":1703,"CHOHCH":1704,"31":1705,"28":1706,"Ġthis":1707,"Ġmetal":1708,"00":1709,"occup":1710,"Ġunoccup":1711,"Ġunoccupied":1712,"Ġ14":1713,"120":1714,"Ġsimp":1715,"Ġsimple":1716,"vir":1717,"onment":1718,"Ġstu":1719,"Ġenvir":1720,"Ġenvironment":1721,"Ġ60":1722,"alized":1723,"ocalized":1724,"39":1725,"stly":1726,"four":1727,"ock":1728,"Ġ110":1729,"Ġcal":1730,"one":1731,"CHCH":1732,"Ġ121":1733,"ighbor":1734,"Ġusing":1735,"Ġneighbor":1736,"Ġneighboring":1737,"ever":1738,"ĠHow":1739,"ĠHowever":1740,"leven":1741,"Ġeleven":1742,"HO":1743,"Ġhighest":1744,"HOMO":1745,"Ġ74":1746,"ically":1747,"Ġplane":1748,"entific":1749,"Ġscientific":1750,"arby":1751,"Ġnearby":1752,"Ġjust":1753,"ĠVS":1754,"Ġver":1755,"elf":1756,"Ġitself":1757,"Ġ58":1758,"Ġtheir":1759,"ay":1760,"Ġro":1761,"Ġplay":1762,"Ġrole":1763,"anometers":1764,"Ġnanometers":1765,"Ġsurrou":1766,"Ġsurrounding":1767,"ten":1768,"Ġoften":1769,"Ġlow":1770,"ĠCHCHO":1771,"Ġdipoles":1772,"ctively":1773,"pectively":1774,"Ġpolarities":1775,"Ġrespectively":1776,"03":1777,"These":1778,"Ġoverlaps":1779,"Ġseventh":1780,"Ġbeen":1781,"erg":1782,"Ġexperimentally":1783,"go":1784,"Ġundergo":1785,"medi":1786,"Ġsub":1787,"Ġintermedi":1788,"Ġintermediate":1789,"Ġdistributed":1790,"Ġcha":1791,"Ġchang":1792,"ride":1793,"Cs":1794,"Ġacetaldehyde":1795,"av":1796,"Ġgive":1797,"Ġhydroxyla":1798,"Ġcond":1799,"itions":1800,"Ġconditions":1801,"Ġcarries":1802,"Ġox":1803,"Ġdebye":1804,"Ġ119":1805,"*(":1806,"âģ°":1807,"110":1808,"Ġcausing":1809,"Ġfree":1810,"inyl":1811,"Ġvinyl":1812,"Ġsingly":1813,"âģ¶":1814,"Ġmain":1815,"ĠCmcm":1816,"Ġthem":1817,"Ġcovalently":1818,"sat":1819,"urated":1820,"Ġunsat":1821,"Ġunsaturated":1822,"Ġuse":1823,"ergy":1824,"Ġdoes":1825,"nds":1826,"Ġfilled":1827,"CN":1828,"uent":1829,"ituent":1830,"stituent":1831,"Ġconstituent":1832,"ccur":1833,"Ġglycolaldehyde":1834,"Ġclose":1835,"aur":1836,"icup":1837,"ĠTetra":1838,"ĠEach":1839,"auricup":1840,"ĠTetraauricup":1841,"ĠTetraauricupride":1842,"Ġintermo":1843,"Ġintermolecular":1844,"Ġx":1845,"iel":1846,"Ġfiel":1847,"Ġfields":1848,"Ġelectr":1849,"Ġmakes":1850,"ĠAlAl":1851,"ĠCuCu":1852,"hydroxy":1853,"Ġonly":1854,"mmary":1855,"Ġsummary":1856,"Ġmeasured":1857,"Ġstrength":1858,"vent":1859,"Ġnit":1860,"Ġphysical":1861,"Ġhydroxylamine":1862,"filled":1863,"ram":1864,"its":1865,"Ġunits":1866,"dipole":1867,"hase":1868,"Ġconsid":1869,"Ġallows":1870,"Ġclu":1871,"Ġclust":1872,"Ġ106":1873,"ls":1874,"olum":1875,"Ġvolum":1876,"COCH":1877,"Ġpulls":1878,"Ġvolume":1879,"Ġmagnetic":1880,"Ġtetrahedr":1881,"Ġtetrahedron":1882,"ĠHfHf":1883,"istry":1884,"Ġbut":1885,"ĠZnZn":1886,"Ġlar":1887,"Ġlarge":1888,"sion":1889,"ulsion":1890,"bs":1891,"Ġobs":1892,"Ġobserv":1893,"methyl":1894,"ore":1895,"ĠTiS":1896,"other":1897,"Ġanother":1898,"prop":1899,"led":1900,"Ġcer":1901,"Ġcertain":1902,"luor":1903,"ĠCaN":1904,"Ġcloser":1905,"Ġact":1906,"vide":1907,"Ġprovide":1908,"ponding":1909,"Ġcor":1910,"ĠOxime":1911,"Â°),":1912,"responding":1913,"ĠAcetaldehyde":1914,"Ġcorresponding":1915,"Ġquite":1916,"ĠCHOCHO":1917,"Ġinteracts":1918,"the":1919,"then":1920,"Ġcreating":1921,"Ġsoluble":1922,"Ġsolvent":1923,"Ġsolvents":1924,"Ġwil":1925,"Ġbeha":1926,"vior":1927,"Ġwill":1928,"Ġbehavior":1929,"uter":1930,"Ġouter":1931,"Ġshell":1932,"Ġoutermost":1933,"Ġgas":1934,"get":1935,"Ġtoget":1936,"Ġtogether":1937,"Ġeigh":1938,"Ġeighth":1939,"Ġ115":1940,"ibit":1941,"lock":1942,"Ġtric":1943,"Ġtriclinic":1944,"nit":1945,"Ġgen":1946,"erating":1947,"Ġgenerating":1948,"Ġmethanol":1949,"hibit":1950,"Ġexhibit":1951,"Ġcombined":1952,"Ġdel":1953,"rite":1954,"rying":1955,"Ġcarrying":1956,"ĠAgAg":1957,"Ġinvolving":1958,"form":1959,"Ġperform":1960,"Ġperformance":1961,"ndid":1962,"Ġgood":1963,"Ġcandid":1964,"Ġcandidate":1965,"NN":1966,"thest":1967,"arthest":1968,"Ġfarthest":1969,"ĠNaNa":1970,"ĠSbS":1971,"121":1972,"Ġq":1973,"Ġcapa":1974,"Ġba":1975,"ĠOHCH":1976,"Â°).":1977,"Ġ49":1978,"118":1979,"Ġdelocalized":1980,"Eth":1981,"Ethylene":1982,"ĠTiAl":1983,"122":1984,"Ġ117":1985,"Ġ55":1986,"CHOCH":1987,"ĠDeby":1988,"ĠDebyes":1989,"onance":1990,"Ġresonance":1991,"tical":1992,"oretical":1993,"ĠNiNi":1994,"Ġopp":1995,"osite":1996,"Ġopposite":1997,"ads":1998,"Ġleads":1999,"cce":2000,"cum":2001,"uil":2002,"Ġblock":2003,"Ġbuil":2004,"Ġserv":2005,"Ġfund":2006,"ivities":2007,"Ġelectronegativities":2008,"Ġdocum":2009,"amental":2010,"Ġunderstood":2011,"01588":2012,"Ġbuilding":2013,"Ġserves":2014,"Ġfundamental":2015,"Ġdocumented":2016,"anding":2017,"cul":2018,"luct":2019,"uate":2020,"Ġtheoretical":2021,"Ġfluct":2022,"Ġmostly":2023,"Ġdioxygen":2024,"Ġchemically":2025,"Ġhence":2026,"idated":2027,"Ġnote":2028,"Ġvalidated":2029,"Ġunderstanding":2030,"Ġstudy":2031,"Ġcalcul":2032,"Ġobservations":2033,"Ġfluctuate":2034,"Ġcalculations":2035,"tro":2036,"atic":2037,"static":2038,"Ġelectro":2039,"Ġelectrostatic":2040,"LU":2041,"Ġlowest":2042,"LUMO":2043,"ĠCrS":2044,"Ġacce":2045,"Ġwide":2046,"pted":2047,"unity":2048,"Ġcommunity":2049,"Ġaccepted":2050,"Ġwidely":2051,"Ġdef":2052,"nces":2053,"Ġdifferences":2054,"oxime":2055,"dioxime":2056,"Ġdimethyl":2057,"Ġdimethyldioxime":2058,"uce":2059,"Ġparticular":2060,"Ġcontributing":2061,"Ġthereby":2062,"Ġinduce":2063,"Ġtypically":2064,"Ġvery":2065,"ĠZrZr":2066,"ĠNiTa":2067,"bd":2068,"lybd":2069,"ĠMolybd":2070,"ĠMolybden":2071,"Ġbipyramid":2072,"955":2073,"Ġtypes":2074,"nal":2075,"Ġshow":2076,"ĠAlHf":2077,"ĠScSc":2078,"ĠNiSe":2079,"Ġcauses":2080,"Ġexhibits":2081,"Ġ46":2082,"ĠReRe":2083,"Ġcreate":2084,"Ġ42":2085,"Ġmoderately":2086,"ĠCuS":2087,"ty":2088,"Ġrough":2089,"Ġemp":2090,"Ġroughly":2091,"Ġempty":2092,"VB":2093,"able":2094,"crib":2095,"des":2096,"Ġaddit":2097,"itable":2098,"ĠMO":2099,"Ġtheories":2100,"ĠUsing":2101,"Ġsuitable":2102,"cribed":2103,"described":2104,"Ġaddition":2105,"Ġthirteen":2106,"Ġoccupies":2107,"Ġhybridize":2108,"109":2109,"Ġnitro":2110,"ĠPtPt":2111,"Acet":2112,"iqu":2113,"lel":2114,"allel":2115,"ĠCC":2116,"Ġcarbons":2117,"rial":2118,"Ġparallel":2119,"Ġuniqu":2120,"Ġindust":2121,"Acetylene":2122,"Ġunique":2123,"Ġindustrial":2124,"Ġcent":2125,"Ġcenter":2126,"ĠNiS":2127,"ĠNaSe":2128,"Ġhybrids":2129,"Ġloc":2130,"Ġpositions":2131,"Ġlocated":2132,"ĠAlZr":2133,"Ġelectric":2134,"ĠPdPd":2135,"ĠFeS":2136,"ĠMoSe":2137,"ĠLav":2138,"mu":2139,"duct":2140,"rocarbon":2141,"quent":2142,"Ġhydrocarbon":2143,"hylene":2144,"sequent":2145,"Ġmethylene":2146,"Ġproduct":2147,"Ġcomplex":2148,"Ġsubsequent":2149,"Ġhydrocarbons":2150,"Ġproducts":2151,"Ġpolariz":2152,"Ġpolarization":2153,"Ġoccur":2154,"taining":2155,"1085":2156,"Ġve":2157,"ctor":2158,"antity":2159,"Ġquantity":2160,"Ġvector":2161,"114":2162,"Ġ123":2163,"CHCHO":2164,"Ġcharacterized":2165,"Ġ57":2166,"alf":2167,"Ġhalf":2168,"hydroxyethyl":2169,"ĠMoMo":2170,"Ġoxide":2171,"be":2172,"ual":2173,"Ġset":2174,"Ġsens":2175,"itivity":2176,"ivid":2177,"dies":2178,"Ġprobe":2179,"Ġindivid":2180,"Ġnearly":2181,"Ġscience":2182,"Ġstudies":2183,"Ġchanges":2184,"Ġsets":2185,"Ġsensitivity":2186,"Ġindividual":2187,"nite":2188,"La":2189,"hion":2190,"yne":2191,"Ġfas":2192,"Ġalter":2193,"Ġethyne":2194,"Ġprocess":2195,"Ġchange":2196,"Ġfashion":2197,"ĠCaAs":2198,"ĠLaves":2199,"CCO":2200,"HNO":2201,"dra":2202,"fluor":2203,"wing":2204,"with":2205,"Ġcyanide":2206,"Lastly":2207,"drawing":2208,"fluoride":2209,"withdrawing":2210,"Ġclusters":2211,"Ġethyl":2212,"Ġ114":2213,"Ġwhen":2214,"Ġinteracting":2215,"Ġcancels":2216,"Ġarranged":2217,"Ġundergoes":2218,"adi":2219,"Ġlead":2220,"traction":2221,"Ġwhereas":2222,"Ġrepresented":2223,"Ġenergy":2224,"Ġsubtraction":2225,"Ġconsidered":2226,"nitric":2227,"Ġethen":2228,"Ġalmost":2229,"Ġsymmetric":2230,"Ġethenyl":2231,"Ġphase":2232,"ĠIm":2233,"ĠCarbon":2234,"Debye":2235,"EP":2236,"Valence":2237,"ind":2238,"pers":2239,"pically":2240,"pulsion":2241,"spers":2242,"ypically":2243,"hell":2244,"ondon":2245,"orption":2246,"lectron":2247,"Ġdispers":2248,"ĠShell":2249,"ĠPair":2250,"ĠTypically":2251,"ĠOne":2252,"Ġdegree":2253,"isorption":2254,"ĠElectron":2255,"ĠEthoxy":2256,"Ġdirected":2257,"ĠRepulsion":2258,"uced":2259,"ĠLondon":2260,"Ġdepends":2261,"Ġphysisorption":2262,"Ġcalled":2263,"ĠVSEP":2264,"induced":2265,"Ġdispersion":2266,"ĠVSEPR":2267,"te":2268,"arbide":2269,"*)":2270,"ctive":2271,"Ġdistin":2272,"Ġacetone":2273,"Ġplanarity":2274,"acetone":2275,"Ġdistinctive":2276,"Ġ76":2277,"Ġmethane":2278,"covalent":2279,"COCHO":2280,"Ġcontribute":2281,"Ġpossess":2282,"Ġweaker":2283,"CCHO":2284,"Ġstrongly":2285,"Ġcomplete":2286,"Ġcompletely":2287,"muth":2288,"ĠHa":2289,"ĠNbS":2290,"Ġinclude":2291,"Ġmetals":2292,"ĠCCHOH":2293,"ides":2294,"ĠEthynol":2295,"CCHOH":2296,"Ġoxides":2297,"Ġ30":2298,"cyan":2299,"Ġdiffer":2300,"Ġcarriers":2301,"cyanide":2302,"zed":2303,"energy":2304,"Ġest":2305,"alyzed":2306,"imated":2307,"CHCO":2308,"ĠCHCO":2309,"Ġanalyzed":2310,"Ġstands":2311,"Ġmeasures":2312,"ĠAcetyl":2313,"Ġleading":2314,"Ġestimated":2315,"smuth":2316,"Ġbismuth":2317,"Ġtrifluoride":2318,"con":2319,"Ġheav":2320,"Ġheavy":2321,"Ġnint":2322,"Ġninth":2323,"RC":2324,"boo":2325,"eer":2326,"les":2327,"Ġsour":2328,"revi":2329,"ndboo":2330,"ĠChem":2331,"ĠCRC":2332,"Ġpeer":2333,"ĠPhys":2334,"ournal":2335,"ticles":2336,"ified":2337,"NHNH":2338,"ĠNHNH":2339,"Ġarticles":2340,"Ġjournal":2341,"ewed":2342,"Ġverified":2343,"ĠHandboo":2344,"Ġsources":2345,"reviewed":2346,"ĠChemistry":2347,"ĠPhysics":2348,"ĠHandbook":2349,"nm":2350,"ĠNbSi":2351,"ork":2352,"Ġfram":2353,"ework":2354,"Ġframework":2355,"Ġ75":2356,"Ġpyramidal":2357,"aile":2358,"ĠÃħngstroms":2359,"ĠSin":2360,"ĠHere":2361,"Ġdetaile":2362,"ĠSince":2363,"Ġdetailed":2364,"ĠPdCu":2365,"Ġ71":2366,"233":2367,"ĠTiSi":2368,"026":2369,"gram":2370,"Ġent":2371,"ĠNN":2372,"ĠNNH":2373,"Ġlocalized":2374,"Ġfifteen":2375,"Ġdiagram":2376,"Ġentire":2377,"ĠInS":2378,"ĠAlTa":2379,"agn":2380,"esium":2381,"ĠMagn":2382,"ĠMagnesium":2383,"ĠNCa":2384,"onating":2385,"Ġdonating":2386,"ĠLew":2387,"Ġcapable":2388,"Ġbase":2389,"ĠLewis":2390,"Ġ73":2391,"ĠPP":2392,"116":2393,"Ġformaldehyde":2394,"ain":2395,"cy":2396,"ien":2397,"ome":2398,"omain":2399,"Ġcm":2400,"icien":2401,"Ġ143":2402,"Ġ152":2403,"ĠIso":2404,"Ġdomain":2405,"Ġbecome":2406,"Ġrepresents":2407,"propyl":2408,"Ġdeficien":2409,"ĠIsopropyl":2410,"Ġdomains":2411,"Ġdeficiency":2412,"420":2413,"ĠAuAg":2414,"281":2415,"ĠAlNi":2416,"472":2417,"ĠSY":2418,"ĠNiAl":2419,"Reg":2420,"arding":2421,"Ġchemistry":2422,"Regarding":2423,"ĠInSe":2424,"kite":2425,"Ġparticipates":2426,"NNH":2427,"yd":2428,"Un":2429,"adsorbate":2430,"fort":2431,"not":2432,"ring":2433,"sist":2434,"Ġ\"":2435,"Ġaccur":2436,"erring":2437,"quest":2438,"ĠIf":2439,"Ġhapp":2440,"Ġname":2441,"Ġrequest":2442,"Ġassist":2443,"Ġcannot":2444,"ĠNONH":2445,"NONH":2446,"unately":2447,"Ġreferring":2448,"Unfort":2449,"Ġaccurate":2450,"Ġhappy":2451,"Ġrequested":2452,"Unfortunately":2453,"prises":2454,"uring":2455,"Ġcomprises":2456,"Ġmeasuring":2457,"lic":2458,"Ġisoc":2459,"Ġmove":2460,"analdehyde":2461,"Ġreadi":2462,"COHCHO":2463,"Ġimplic":2464,"Ġvaries":2465,"yanate":2466,"hydroxyprop":2467,"Ġisocyanate":2468,"Ġmovement":2469,"Ġreadily":2470,"Ġimplications":2471,"hydroxypropanaldehyde":2472,"gation":2473,"ju":2474,"lyoxal":2475,"ĠGlyoxal":2476,"Ġconju":2477,"Ġup":2478,"Ġethanedi":2479,"Ġconjugation":2480,"Ġethanedial":2481,"ĠNiAs":2482,"ences":2483,"ermine":2484,"Ġhow":2485,"Ġdetermine":2486,"Ġinfluences":2487,"Ġconsider":2488,"ĠPtIn":2489,"ĠTaNi":2490,"ONH":2491,"picometers":2492,"also":2493,"ĠCm":2494,"Ġ142":2495,"pping":2496,"ĠONH":2497,"Ġoverlapping":2498,"Hyd":2499,"pynol":2500,"ĠĠĊ":2501,"ĠPdTl":2502,"roxyacetylene":2503,"Ġpropynol":2504,"Hydroxyacetylene":2505,"ĠMnAs":2506,"Ġlower":2507,"Ġ150":2508,"ĠNaS":2509,"Ġ48":2510,"Ġcluster":2511,"Ġpot":2512,"ential":2513,"ĠDue":2514,"Ġwherein":2515,"Ġpossessing":2516,"mentary":2517,"Ġcommonly":2518,"Ġcomplementary":2519,"Ġpotential":2520,"pla":2521,"Ġali":2522,"Ġ47":2523,"COOCH":2524,"OCHCH":2525,"ĠOCHCH":2526,"Ġexpla":2527,"gning":2528,"Ġaligning":2529,"Ġexplained":2530,"ĠZnS":2531,"ĠAgCd":2532,"ĠZrSi":2533,"sure":2534,"Ġall":2535,"Ġethanediol":2536,"Ġom":2537,"ega":2538,"Ġomega":2539,"ĠNiP":2540,"Ġmin":2541,"icip":2542,"imiz":2543,"Ġanticip":2544,"Ġrepulsion":2545,"Ġelectrical":2546,"Ġminimiz":2547,"Ġanticipation":2548,"Ġminimizing":2549,"ĠCrTe":2550,"ĠDis":2551,"ĠPhase":2552,"ĠTaS":2553,"ĠCarbide":2554,"ĠPdBi":2555,"âĤģâĤģ":2556,"alite":2557,"pper":2558,"ĠScSb":2559,"alt":2560,"ĠSalt":2561,"ĠHalite":2562,"ĠRock":2563,"ĠCopper":2564,"ĠMolybdenite":2565,"verite":2566,"ĠDisilicide":2567,"4âĤĤ":2568,"ĠCuSe":2569,"1216":2570,"Ġtenth":2571,"Ġpressure":2572,"098":2573,"CHCHOH":2574,"ĠCHCHOH":2575,"tun":2576,"ĠCotun":2577,"ĠCotunnite":2578,"angstroms":2579,"ked":2580,"nked":2581,"Ġlinked":2582,"107":2583,"1183":2584,"Ġrepresenting":2585,"Ġpulled":2586,"Ġcorrespondingly":2587,"ung":2588,"sten":2589,"ĠTung":2590,"ĠTungsten":2591,"ĠSbPt":2592,"ĠPtSb":2593,"erature":2594,"mperature":2595,"ĠTcTc":2596,"ĠMoNi":2597,"1186":2598,"ĠGaNb":2599,"emperature":2600,"Ġari":2601,"Ġtemperature":2602,"react":2603,"Ġunreact":2604,"Ġcompounds":2605,"containing":2606,"Ġpressures":2607,"Ġarise":2608,"Ġtemperatures":2609,"Ġunreactive":2610,"ĠGaTi":2611,"ĠYS":2612,"Ġ50":2613,"ĠMoS":2614,"ĠCHCOH":2615,"ĠHex":2616,"ĠHexagonal":2617,"Ġ13":2618,"ĠTlPd":2619,"ĠFluor":2620,"ĠFluorite":2621,"Ġrib":2622,"Ġribb":2623,"NNCH":2624,"-),":2625,"ean":2626,"hile":2627,"while":2628,"ngthen":2629,"Ġprom":2630,"Ġdiol":2631,"ĠMean":2632,"ĠVSi":2633,"Orbitally":2634,"oting":2635,"Ġstrengthen":2636,"Ġactivity":2637,"Ġpromoting":2638,"ĠMeanwhile":2639,"yrite":2640,"ĠCoP":2641,"ĠAgZn":2642,"ĠIrIr":2643,"ĠCoCo":2644,"nmm":2645,"ĠHY":2646,"ĠRhV":2647,"196":2648,"025":2649,"452":2650,"ĠCuAl":2651,"ĠInSc":2652,"1220":2653,"ubic":2654,"ĠSrAs":2655,"ĠNaTe":2656,"ĠYY":2657,"ĠGaZr":2658,"1079":2659,"-).":2660,"bil":2661,"ithin":2662,"ĠWithin":2663,"COO":2664,"Ġ90":2665,"Ġcapabil":2666,"Ġcapabilities":2667,"There":2668,"OHNH":2669,"Ġ96":2670,"Ġbased":2671,"ĠNbGe":2672,"AX":2673,"ĠMAX":2674,"ĠGaS":2675,"ĠFeZr":2676,"itan":2677,"ĠTitan":2678,"ĠTitanium":2679,"ĠCoGe":2680,"ĠGaHf":2681,"ĠNHf":2682,"ĠCrZr":2683,"Ġcentralized":2684,"COHCHOH":2685,"ĠRhSi":2686,"Ġ51":2687,"ased":2688,"based":2689,"rit":2690,"syl":2691,"omer":2692,"Ġisomer":2693,"ĠHence":2694,"Ġnitrite":2695,"nitrit":2696,"Ġnitrosyl":2697,"nitrito":2698,"ĠImmm":2699,"ĠCrSe":2700,"ĠFeAs":2701,"102":2702,"ĠPtTi":2703,"ĠAlSc":2704,"gions":2705,"Ġregions":2706,"Ġcharacteristic":2707,"Ġcombine":2708,"ĠVRh":2709,"ĠTlTl":2710,"ĠNiTe":2711,"Ġion":2712,"omal":2713,"Ġanion":2714,"Ġanomal":2715,"Ġanomalous":2716,"ĠMoAl":2717,"Ġ45":2718,"ĠScAs":2719,"ĠPnnm":2720,"ĠPdHg":2721,"ĠNaAs":2722,"569":2723,"ĠHCa":2724,"ĠAlCu":2725,"101":2726,"ĠKK":2727,"ĠPdMo":2728,"ĠCrP":2729,"ĠSrN":2730,"âģ»,":2731,"ĠHTi":2732,"ĠSnZr":2733,"ĠNiNb":2734,"Ġeleventh":2735,"ĠInTi":2736,"ĠMolybdenum":2737,"ĠSp":2738,"ĠPdNb":2739,"ĠHfAl":2740,"ĠFeP":2741,"ĠBiSe":2742,"ĠCdCd":2743,"ĠPdZn":2744,"ĠAsAs":2745,"ĠCmmm":2746,"ĠInZr":2747,"ĠBiS":2748,"ĠNiGa":2749,"206":2750,"ĠPbS":2751,"ĠTiPt":2752,"ĠRuRu":2753,"ĠFd":2754,"red":2755,"ĠCdAs":2756,"sw":2757,"sil":2758,"ĠCasw":2759,"ellsil":2760,"ĠCaswellsil":2761,"ĠCaswellsilverite":2762,"Ġ52":2763,"ĠZnTi":2764,"ĠNiSi":2765,"Ġ59":2766,"ĠRhRu":2767,"ĠSbTi":2768,"ĠRuIr":2769,"ĠWSi":2770,"ĠOHNNCH":2771,"ĠPtNb":2772,"ĠSnS":2773,"ĠPmm":2774,"ĠLa":2775,"ĠBiPd":2776,"ĠSeNa":2777,"464":2778,"ĠHgPd":2779,"ĠAlY":2780,"ĠSCu":2781,"ĠCuTe":2782,"867":2783,"mb":2784,"ĠHSr":2785,"Ġ54":2786,"ĠVZr":2787,"ĠAsCa":2788,"ĠAmm":2789,"ĠAlNb":2790,"ĠCsCl":2791,"ĠTiTe":2792,"ĠSrP":2793,"567":2794,"fth":2795,"Ġtwelfth":2796,"ĠSZn":2797,"1215":2798,"Ġribbons":2799,"ĠCdAg":2800,"ĠPdSn":2801,"ĠCdS":2802,"ĠZrAl":2803,"ĠMnMn":2804,"ĠKCl":2805,"119":2806,"ĠInPt":2807,"ĠMoTe":2808,"ĠCHOCH":2809,"CHOCHOH":2810,"ĠCHOCHOH":2811,"ĠAlS":2812,"ĠNbSe":2813,"ĠSeIn":2814,"ĠHfGa":2815,"Ġmul":2816,"ĠInTe":2817,"tiple":2818,"Ġmultiple":2819,"hat":2820,"rkite":2821,"yrkite":2822,"ĠKhat":2823,"ĠKhatyrkite":2824,"mbm":2825,"ĠCaP":2826,"ĠSNa":2827,"ĠPbc":2828,"1187":2829,"ĠGaNi":2830,"ĠFeSe":2831,"ONN":2832,"omin":2833,"Ġpred":2834,"ĠONN":2835,"Ġdistance":2836,"antly":2837,"Ġdefined":2838,"ominantly":2839,"Ġpredominantly":2840,"ĠTaSi":2841,"4âĤģ":2842,"ĠCoSi":2843,"ĠFeFe":2844,"1219":2845,"ĠZnAs":2846,"ĠMnZr":2847,"ĠCrAs":2848,"ONNH":2849,"sary":2850,"Ġretaining":2851,"cessary":2852,"ĠONNH":2853,"Ġ105":2854,"Ġnecessary":2855,"Ġobserved":2856,"ĠCoZr":2857,"ĠSiSi":2858,"ĠNbPt":2859,"ĠGaPt":2860,"Ġ40":2861,"ĠPtAl":2862,"ĠPtSn":2863,"ĠRhPt":2864,"ĠPtGa":2865,"ero":2866,"skite":2867,"vskite":2868,"ĠPero":2869,"ĠPerovskite":2870,"ĠCaSi":2871,"1080":2872,"ĠTiGe":2873,"ĠSnSe":2874,"ĠSSb":2875,"ĠNSr":2876,"ĠOsTa":2877,"ĠPSr":2878,"ĠZnPd":2879,"ĠAgS":2880,"mnm":2881,"308":2882,"ĠWS":2883,"ĠAlPt":2884,"ĠVV":2885,"ĠTiN":2886,"ĠPdTa":2887,"ĠScSi":2888,"ĠSnHf":2889,"ĠSeTi":2890,"ĠSnTe":2891,"ĠAgSe":2892,"Ġ18":2893,"ĠTaTa":2894,"1018":2895,"ĠFeTa":2896,"dder":2897,"ĠModder":2898,"ĠBiTe":2899,"ĠModderite":2900,"1224":2901,"1217":2902,"ĠNaCl":2903,"ĠRhMo":2904,"ĠWN":2905,"ĠCubic":2906,"ĠInY":2907,"ĠMnSi":2908,"ĠNiHf":2909,"ĠCoSb":2910,"ĠPyrite":2911,"ĠSnTi":2912,"ĠHfGe":2913,"ĠInAu":2914,"ĠPtAg":2915,"ĠVSe":2916,"ĠNiSb":2917,"ĠSeK":2918,"ĠMoSi":2919,"ĠMoAs":2920,"ĠPbSe":2921,"ĠPmma":2922,"ĠRhS":2923,"Ġ15":2924,"ĠCmc":2925,"ĠAgAu":2926,"ĠNbN":2927,"ĠMnP":2928,"ĠPCa":2929,"ĠNiGe":2930,"ĠRhSn":2931,"ĠInSb":2932,"ĠPdAg":2933,"1221":2934,"ĠTaTe":2935,"ĠTaGe":2936,"ĠCmce":2937,"ĠIndium":2938,"ĠNiTi":2939,"ĠRbTe":2940,"ĠPdTi":2941,"ĠPtMo":2942,"ĠZrGa":2943,"ĠTaPd":2944,"ĠZnP":2945,"ĠFeY":2946,"min":2947,"ĠCaSb":2948,"ĠYGa":2949,"ĠImma":2950,"mino":2951,"fore":2952,"gg":2953,"mon":2954,"Ġamon":2955,"ternal":2956,"ĠMeth":2957,"ĠCoSe":2958,"ĠGeTe":2959,"ĠMnN":2960,"Ġexternal":2961,"Ġtherefore":2962,"Ġsugg":2963,"ests":2964,"Ġamong":2965,"ĠMethane":2966,"Ġsuggests":2967,"Ġ63":2968,"1223":2969,"ĠWTe":2970,"ia":2971,"Ġvia":2972,"ĠCHOHCHOH":2973,"CHOHCHOH":2974,"ĠGeSe":2975,"222":2976,"ĠWPd":2977,"PbS":2978,"ĠZrP":2979,"ĠCoS":2980,"112":2981,"ĠNbGa":2982,"ĠKS":2983,"ĠOsP":2984,"ĠNbPd":2985,"ĠScGa":2986,"ĠCSi":2987,"ĠMnS":2988,"ĠNaSb":2989,"ĠZnAg":2990,"ĠYIn":2991,"ĠSNi":2992,"ĠCdTi":2993,"Ġthirteenth":2994,"ĠPdAs":2995,"ĠSAg":2996,"ĠSiC":2997,"cas":2998,"arcas":2999,"ĠMarcas":3000,"ĠYSi":3001,"1188":3002,"ĠMarcasite":3003,"man":3004,"ĠZrIn":3005,"ĠTaN":3006,"ĠZnSe":3007,"ĠRhGa":3008,"ĠPbTe":3009,"ĠAgAl":3010,"Ġ43":3011,"ĠKSe":3012,"amd":3013,"ĠSnSc":3014,"ĠPmmn":3015,"SbPt":3016,"ĠAsTe":3017,"ĠIrNb":3018,"ĠPa":3019,"ĠGaSe":3020,"ĠAgY":3021,"ĠNbTe":3022,"ĠCuZn":3023,"ĠIrRe":3024,"ĠGaSc":3025,"ĠSnRh":3026,"Ġfourteenth":3027,"ĠCh":3028,"ĠHfN":3029,"ĠNiCa":3030,"ĠRhTe":3031,"ĠSIn":3032,"ĠTiPd":3033,"cble":3034,"hale":3035,"nde":3036,"ĠZin":3037,"ĠScGe":3038,"ĠMoZr":3039,"ĠSphale":3040,"cblende":3041,"ĠZincblende":3042,"ĠSphalerite":3043,"ĠMnGe":3044,"ĠGaY":3045,"100":3046,"ĠGeS":3047,"12âĤģ":3048,"ĠSiP":3049,"1078":3050,"ĠNZr":3051,"ĠCaCa":3052,"ĠGaTe":3053,"ĠTeGe":3054,"ĠPdV":3055,"ĠRhZn":3056,"ircon":3057,"ĠZircon":3058,"ĠIrTe":3059,"ĠYAg":3060,"ĠSbTe":3061,"ĠZnY":3062,"alco":3063,"ĠSbSe":3064,"ĠChalco":3065,"ĠAsSr":3066,"ĠPbPd":3067,"ĠSPb":3068,"ĠRhNb":3069,"ĠPtRh":3070,"ĠCoV":3071,"ĠZnZr":3072,"ĠRhAs":3073,"ĠPZn":3074,"ĠCuHf":3075,"ĠCrNb":3076,"ĠSnPd":3077,"Ġfifteenth":3078,"ĠSeBi":3079,"Ġ53":3080,"ĠScP":3081,"ĠNaBi":3082,"ĠPtCd":3083,"Cubic":3084,"ĠCuSc":3085,"ĠSnY":3086,"ĠPtTe":3087,"ĠPdMn":3088,"ĠNbNi":3089,"ĠCoAs":3090,"ĠRuTa":3091,"ĠZirconium":3092,"ĠSeCs":3093,"ĠSrSi":3094,"ĠPbam":3095,"ĠAuIn":3096,"ĠNTi":3097,"ĠRhGe":3098,"ĠCc":3099,"anite":3100,"1184":3101,"tz":3102,"atlock":3103,"urtz":3104,"ĠMatlock":3105,"ĠWurtz":3106,"ĠMatlockite":3107,"ĠWurtzite":3108,"pyrite":3109,"inel":3110,"ĠClK":3111,"ĠFdd":3112,"ĠSpinel":3113,"ĠChalcopyrite":3114,"ĠAgTe":3115,"ĠWCo":3116,"ĠGaRh":3117,"Ġ41":3118,"ĠIrTa":3119,"averite":3120,"alaverite":3121,"ĠCalaverite":3122,"SnS":3123,"Ġsevent":3124,"ĠPtZn":3125,"ĠRhRh":3126,"Ġseventeen":3127,"Ġtetrabor":3128,"ĠVTe":3129,"Ġtetraboride":3130,"ĠCuTi":3131,"ĠYSn":3132,"ĠCoY":3133,"Ġ64":3134,"Ġcuboctahedral":3135,"Ġ56":3136,"ĠSeY":3137,"ĠAuAu":3138,"Ġ20":3139,"ĠNNb":3140,"dium":3141,"prim":3142,"ĠTiAs":3143,"prime":3144,"ĠHgK":3145,"ĠAlSe":3146,"ĠZrSb":3147,"ĠNbAl":3148,"ĠNbIr":3149,"ĠScSn":3150,"ĠCoTa":3151,"ĠFeSi":3152,"ĠScHf":3153,"ĠZnTa":3154,"ĠWIr":3155,"Heusler":3156,"ĠPAg":3157,"ĠNaP":3158,"ĠIrSi":3159,"ĠVN":3160,"ĠWAl":3161,"ĠCoHf":3162,"ĠGaGa":3163,"ĠPbY":3164,"ĠOsRe":3165,"ĠCrTa":3166,"ĠCdHf":3167,"ĠAlAs":3168,"ĠAlGe":3169,"ĠScAl":3170,"ĠCdTe":3171,"ĠInNa":3172,"ĠRhP":3173,"Ġcarbide":3174,"ĠSCo":3175,"11869":3176,"ĠNY":3177,"ĠRhSe":3178,"ĠSnCu":3179,"ĠFeSb":3180,"rd":3181,"ĠTeIn":3182,"ĠRbS":3183,"ĠPdZr":3184,"ĠNbRh":3185,"ĠTcP":3186,"ĠWSe":3187,"106":3188,"ĠMnSe":3189,"ĠSSr":3190,"ĠRhSb":3191,"ĠCdAu":3192,"ĠTiGa":3193,"ĠNiZr":3194,"ĠAuSn":3195,"ĠNiY":3196,"ĠPtV":3197,"108":3198,"ĠRbRb":3199,"ĠRhIn":3200,"1007":3201,"eta":3202,"ĠIrMo":3203,"ĠBiBi":3204,"ĠIb":3205,"ĠRuAs":3206,"ĠTaIr":3207,"11860":3208,"ĠYTe":3209,"ĠCrAl":3210,"MoS":3211,"ron":3212,"zeta":3213,"Ġzeta":3214,"Ġiron":3215,"Ġcad":3216,"Ġgol":3217,"ĠPNa":3218,"mium":3219,"ĠGeCu":3220,"ĠPbcn":3221,"Ġcadmium":3222,"Ġgold":3223,"ĠCuZr":3224,"ĠIbam":3225,"ĠAlP":3226,"ĠZrSe":3227,"ĠGaAs":3228,"ĠZrTe":3229,"SeS":3230,"ĠAsNi":3231,"ĠCoNb":3232,"ĠSBi":3233,"Ġsixteenth":3234,"ĠMnTe":3235,"ĠGaV":3236,"ĠPbTl":3237,"ĠHfPd":3238,"ĠRbCl":3239,"113":3240,"570":3241,"ĠPSn":3242,"GeTe":3243,"ĠTlCa":3244,"ĠNTa":3245,"TeSe":3246,"Ġribbon":3247,"220":3248,"ĠSTl":3249,"ĠCaS":3250,"ĠYSe":3251,"ĠAuCu":3252,"132":3253,"ĠSiS":3254,"ĠSrPb":3255,"ĠScIn":3256,"ĠPS":3257,"ĠTaOs":3258,"TiS":3259,"ĠImm":3260,"ĠAlN":3261,"ĠSePb":3262,"ĠNbP":3263,"ĠHgTi":3264,"Each":3265,"Ġ134":3266,"Ġangstrom":3267,"ĠTiCo":3268,"ĠTeBi":3269,"ĠVPd":3270,"ĠCuPd":3271,"ĠScAg":3272,"ĠTaAs":3273,"ĠRuCu":3274,"ĠTaAl":3275,"ĠZnHf":3276,"ĠSTi":3277,"ĠMoHf":3278,"SnSe":3279,"âĤģâĤĥ":3280,"ĠPtNa":3281,"ĠSrGe":3282,"ĠTiP":3283,"ĠPdSi":3284,"ĠSiTi":3285,"ĠAsZn":3286,"PS":3287,"ĠAlAg":3288,"ĠYAl":3289,"ĠMoPt":3290,"ĠTaRu":3291,"ĠAgTi":3292,"ĠMnPd":3293,"ĠBiHf":3294,"ĠAlMn":3295,"ĠZnN":3296,"ĠNbNb":3297,"ĠSRu":3298,"ĠCaGe":3299,"CaSi":3300,"303":3301,"WS":3302,"ĠSV":3303,"ĠHfSi":3304,"ĠHfSb":3305,"568":3306,"ĠAgSc":3307,"ZnS":3308,"MoSe":3309,"1077":3310,"ĠCdY":3311,"ĠRhRe":3312,"ĠPtGe":3313,"ĠTeSn":3314,"Ġ68":3315,"ĠTcAl":3316,"ellur":3317,"ĠHfP":3318,"ĠHfAu":3319,"422":3320,"ĠHgNa":3321,"ĠPTc":3322,"1025":3323,"ĠCdPt":3324,"115":3325,"166":3326,"10180":3327,"ĠNV":3328,"ĠNMn":3329,"ĠGaN":3330,"ĠCoTi":3331,"ĠSSn":3332,"ĠSeRb":3333,"ĠCaTl":3334,"ĠGeGe":3335,"adium":3336,"ĠZrGe":3337,"204":3338,"ĠSiCu":3339,"ĠNbAs":3340,"ĠAgNa":3341,"ĠSK":3342,"âĤģâĤĨ":3343,"ĠCaCl":3344,"ĠZrS":3345,"ĠVCo":3346,"Ġ17":3347,"ĠIrP":3348,"12243":3349,"ĠSiZr":3350,"ĠTeTe":3351,"dite":3352,"kut":3353,"udite":3354,"ĠSRh":3355,"ĠSkut":3356,"ĠInIn":3357,"terudite":3358,"ĠPdHf":3359,"ĠSkutterudite":3360,"lac":3361,"Ġblac":3362,"ĠPdGe":3363,"ĠSeCr":3364,"ĠRuRe":3365,"ĠIrRu":3366,"Ġblack":3367,"ĠInAs":3368,"105":3369,"212":3370,"103":3371,"ĠYCd":3372,"ĠVPt":3373,"ĠAuCd":3374,"117":3375,"ĠHZr":3376,"306":3377,"ĠPFe":3378,"ĠWP":3379,"ĠSnNi":3380,"865":3381,"met":3382,"Ġdimet":3383,"ĠInRh":3384,"OHNNCH":3385,"hyla":3386,"Ġrelative":3387,"ĠCdSb":3388,"ĠClRb":3389,"ĠTcGa":3390,"ĠHgHf":3391,"Ġhydroxylamino":3392,"Ġdimethyla":3393,"Ġdimethylamino":3394,"ĠHfCu":3395,"ĠPbca":3396,"ĠSRb":3397,"ĠSrIn":3398,"ĠRuPt":3399,"NiAs":3400,"ĠAuTe":3401,"973":3402,"ĠInP":3403,"ĠCdSe":3404,"vc":3405,"ĠIrAs":3406,"1189":3407,"ĠFmmm":3408,"ĠFddd":3409,"ĠSam":3410,"ĠPo":3411,"ĠBerg":3412,"ĠGeNi":3413,"arium":3414,"ĠSamarium":3415,"ĠBergman":3416,"ĠTeCd":3417,"ĠSbRb":3418,"124":3419,"ĠCNb":3420,"ĠMoCo":3421,"NiS":3422,"ĠPNaP":3423,"Ġgam":3424,"ĠNaIn":3425,"PbSe":3426,"Ġgamma":3427,"+,":3428,"296":3429,"ĠZnNb":3430,"Ġ65":3431,"ĠCrTi":3432,"11847":3433,"ĠAlCa":3434,"ĠCaSe":3435,"ĠMoP":3436,"ĠCoTe":3437,"SrSn":3438,"133":3439,"974":3440,"ĠNiCr":3441,"ĠRuSi":3442,"ĠRuSb":3443,"bnite":3444,"gite":3445,"nar":3446,"ĠSti":3447,"ĠHfPt":3448,"ĠTeNa":3449,"ĠEnar":3450,"ĠStibnite":3451,"ĠEnargite":3452,"304":3453,"oride":3454,"Ġ19":3455,"ĠPCo":3456,"ĠSiN":3457,"side":3458,"Ġinside":3459,"ĠAlTe":3460,"ĠCdNa":3461,"ĠPmc":3462,"sanite":3463,"ĠHNa":3464,"ĠCaAg":3465,"ĠMois":3466,"ĠMoissanite":3467,"ĠTiZn":3468,"Ġ39":3469,"ĠYGe":3470,"ĠCrHf":3471,"1229":3472,"167":3473,"mvc":3474,"tact":3475,"rotact":3476,"ĠProtact":3477,"inium":3478,"ĠZrN":3479,"ĠScBi":3480,"ĠIrGe":3481,"ĠProtactinium":3482,"âģ¸":3483,"ĠPdNa":3484,"ĠHfAs":3485,"862":3486,"ĠHgTe":3487,"11846":3488,"ĠVP":3489,"NbS":3490,"ĠTiIr":3491,"ĠSnNb":3492,"ĠAsAsIr":3493,"odium":3494,"sen":3495,"ĠCement":3496,"ĠSodium":3497,"ĠSbNi":3498,"CuAl":3499,"866":3500,"SrIn":3501,"Ġarsen":3502,"ĠCementite":3503,"Ġarsenide":3504,"ĠCuAu":3505,"ĠScN":3506,"127":3507,"ĠAuRb":3508,"ĠIrTi":3509,"ĠTlS":3510,"CaZn":3511,"ĠHaus":3512,"ĠSnAu":3513,"mannite":3514,"ĠHausmannite":3515,"orund":3516,"ĠCAl":3517,"ĠCorund":3518,"ĠHfNi":3519,"ĠTeAs":3520,"ĠAgCa":3521,"GeSe":3522,"ĠTlCl":3523,"573":3524,"ĠCorundum":3525,"InSe":3526,"12154":3527,"$\\":3528,"Kas":3529,"Ġ$\\":3530,"ĠCW":3531,"ĠPtRu":3532,"ĠCuNi":3533,"ĠFran":3534,"136":3535,"Kasper":3536,"ĠFrank":3537,"305":3538,"rthorhombic":3539,"onium":3540,"âģ·":3541,"ĠOrthorhombic":3542,"ĠCdCa":3543,"503":3544,"ĠCuP":3545,"ĠIrV":3546,"1207":3547,"ĠPK":3548,"ĠZrAs":3549,"ĠZnRh":3550,"ĠKHg":3551,"123":3552,"ĠInSr":3553,"ĠNiZn":3554,"ĠHgSc":3555,"12180":3556,"979":3557,"ĠTeAg":3558,"571":3559,"Pa":3560,"ĠStructure":3561,"ĠCuRu":3562,"ĠRhZr":3563,"ĠFeSc":3564,"Ġapproximate":3565,"ĠTiRh":3566,"ĠPdIn":3567,"ĠScCu":3568,"ĠRhAl":3569,"ĠHgSe":3570,"1206":3571,"ĠPN":3572,"ĠPHf":3573,"ĠRuTc":3574,"ĠTiMo":3575,"Ġ35":3576,"ĠSiAs":3577,"1067":3578,"ĠPbCl":3579,"1105":3580,"ĠPSi":3581,"ĠMoN":3582,"NiSi":3583,"169":3584,"ĠCV":3585,"ĠHigh":3586,"ĠMoZn":3587,"CuS":3588,"ĠClNa":3589,"ĠHfSe":3590,"ĠRuRh":3591,"11880":3592,"1023":3593,"ĠNiSc":3594,"202":3595,"ĠCuY":3596,"ĠCuTa":3597,"ĠSrS":3598,"ĠSbSbPt":3599,"ĠAlRh":3600,"âĤģâĤħ":3601,"AlSi":3602,"ĠSiY":3603,"SnSb":3604,"156":3605,"ĠPc":3606,"ĠPmmm":3607,"Ġ31":3608,"ĠZnSr":3609,"Ġ22":3610,"ĠPRe":3611,"ĠAlSi":3612,"ĠScTe":3613,"1225":3614,"ĠRbAu":3615,"CoGe":3616,"ĠNRe":3617,"ĠTaP":3618,"ĠFeHf":3619,"ĠFeNb":3620,"1246":3621,"ĠSeCd":3622,"ĠSbCu":3623,"1069":3624,"ĠReN":3625,"ĠPtCo":3626,"ĠSrSb":3627,"ĠMnHf":3628,"eteen":3629,"Ġnin":3630,"SiS":3631,"TiAl":3632,"104":3633,"GeS":3634,"ĠCdSc":3635,"CoAs":3636,"ĠTlSe":3637,"Ġnineteen":3638,"307":3639,"WTe":3640,"ĠInPd":3641,"ĠPtNi":3642,"1009":3643,"ĠCrN":3644,"SbTe":3645,"ĠCdP":3646,"977":3647,"ĠTiCl":3648,"861":3649,"12155":3650,"ĠPY":3651,"AlGe":3652,"544":3653,"280":3654,"ĠSCr":3655,"ĠZrZn":3656,"ĠTaGa":3657,"1072":3658,"ĠAgP":3659,"ĠMnSc":3660,"ĠCaPb":3661,"ĠHfS":3662,"229":3663,"CrS":3664,"ĠPmn":3665,"1102":3666,"186":3667,"ĠNAl":3668,"CoNi":3669,"1103":3670,"10253":3671,"ĠAsAsRh":3672,"983":3673,"ĠSbIn":3674,"ĠSnAs":3675,"Ġ77":3676,"ĠReZr":3677,"971":3678,"ĠSFe":3679,"Ġ37":3680,"ĠCaSn":3681,"ĠRhTi":3682,"TiPd":3683,"SnPt":3684,"CaCl":3685,"ĠReSe":3686,"227":3687,"ĠOsMn":3688,"12289":3689,"Ġseventeenth":3690,"YAg":3691,"ĠSeSb":3692,"ĠGeN":3693,"ĠFeTe":3694,"ĠFeTi":3695,"ZrRh":3696,"Ġ78":3697,"210":3698,"ĠSCd":3699,"ĠPIn":3700,"ĠPTi":3701,"InS":3702,"ĠSrSn":3703,"ĠGeV":3704,"ĠKSb":3705,"ĠIrSb":3706,"675":3707,"ĠTiNb":3708,"ĠPdNi":3709,"ĠAsIn":3710,"ĠSrBi":3711,"ĠKAs":3712,"ĠOsRu":3713,"ĠVC":3714,"ĠAsGa":3715,"1008":3716,"ĠMnTa":3717,"ĠIrZn":3718,"111":3719,"TaS":3720,"311":3721,"ĠNFe":3722,"ĠHfZn":3723,"5708":3724,"730":3725,"ĠPPRh":3726,"989":3727,"ĠCaHg":3728,"ĠSiCa":3729,"ĠZnSb":3730,"ĠSbRh":3731,"ĠWNi":3732,"SbS":3733,"ĠBiTl":3734,"PbCl":3735,"ĠAlPd":3736,"207":3737,"209":3738,"ĠAsTi":3739,"NiSe":3740,"ĠRuP":3741,"165":3742,"12267":3743,"155":3744,"755":3745,"lm":3746,"tor":3747,"ittor":3748,"enite":3749,"ĠIlm":3750,"ĠSNb":3751,"anadium":3752,"ĠInCl":3753,"ĠHittor":3754,"ĠSiFe":3755,"ĠVanadium":3756,"ĠScCl":3757,"ĠPbHf":3758,"159":3759,"8655":3760,"Ġnitride":3761,"ĠIlmenite":3762,"ĠHittorf":3763,"274":3764,"ĠCuCl":3765,"223":3766,"999":3767,"12153":3768,"Ġtellur":3769,"ĠAlH":3770,"Ġ33":3771,"ĠZrPd":3772,"ĠSeCa":3773,"ĠMoCl":3774,"ĠWPt":3775,"1180":3776,"RuSi":3777,"152":3778,"10786":3779,"Ġtelluride":3780,"KHg":3781,"ĠGaP":3782,"ĠGaSb":3783,"PtGe":3784,"SbSe":3785,"ĠCdCl":3786,"ĠZnSc":3787,"ĠSbAg":3788,"ĠSnAg":3789,"RhSi":3790,"ĠClCs":3791,"ĠCuSn":3792,"ĠAsZr":3793,"ĠSbSb":3794,"Ġ69":3795,"ĠTlZr":3796,"Ġ36":3797,"ĠZrCl":3798,"ĠNbC":3799,"ĠTaCu":3800,"ĠAuZn":3801,"CoSi":3802,"310":3803,"ĠHRb":3804,"ĠTePb":3805,"ĠGeSr":3806,"NiGa":3807,"ĠMnZn":3808,"AgZn":3809,"691":3810,"502":3811,"221":3812,"Ġ66":3813,"ĠRuS":3814,"ĠAlSb":3815,"ĠTiCu":3816,"126":3817,"CuGa":3818,"CrSi":3819,"ĠCaH":3820,"ĠYSb":3821,"PdBi":3822,"ĠSnV":3823,"1218":3824,"555":3825,"1209":3826,"olonium":3827,"ĠPAl":3828,"ĠPolonium":3829,"Ġ38":3830,"inum":3831,"ĠNaHg":3832,"ĠScCd":3833,"ĠSbSr":3834,"ĠSbSnPt":3835,"ĠSnP":3836,"ĠSnSbPt":3837,"NiSb":3838,"ĠRuOs":3839,"uminum":3840,"CaAu":3841,"459":3842,"-,":3843,"ĠAlSr":3844,"ĠTiAu":3845,"ĠNaH":3846,"ĠVAs":3847,"1029":3848,"SnTe":3849,"163":3850,"ĠOsSi":3851,"972":3852,"Ġeighteenth":3853,"ĠSAgBi":3854,"279":3855,"WSe":3856,"ĠSeZn":3857,"ĠSeRh":3858,"ĠVIr":3859,"SiC":3860,"ĠAsHf":3861,"AsS":3862,"NiP":3863,"125":3864,"CuTe":3865,"6722":3866,"969":3867,"8654":3868,"8653":3869,"179":3870,"ĠSilic":3871,"ĠPZr":3872,"ĠCaAu":3873,"ĠSeSn":3874,"NiAl":3875,"ĠRuNi":3876,"501":3877,"BiSe":3878,"12203":3879,"10799":3880,"ĠAsAsRu":3881,"ĠSilicon":3882,"ĠCaTe":3883,"ĠPtSi":3884,"ĠSbTl":3885,"GaAs":3886,"RhSn":3887,"HfIr":3888,"ĠOsOs":3889,"188":3890,"216":3891,"ĠAlV":3892,"ĠSiV":3893,"ĠGaTa":3894,"ĠScS":3895,"ĠZnPt":3896,"213":3897,"ĠFmm":3898,"11879":3899,"GPa":3900,"203":3901,"ĠSrZn":3902,"800":3903,"GaGe":3904,"1247":3905,"AuAg":3906,"1652":3907,"850":3908,"ĠSeAs":3909,"TiMo":3910,"ĠCrNi":3911,"ĠRuN":3912,"ĠRuMo":3913,"ĠPPIr":3914,"ĠNiCu":3915,"ĠPtMn":3916,"ĠYN":3917,"129":3918,"Ġ79":3919,"670":3920,"NaIn":3921,"828":3922,"813":3923,"oron":3924,"ĠSSc":3925,"ĠBoride":3926,"ĠNbSb":3927,"ĠOsAs":3928,"MnAl":3929,"Ġdelta":3930,"607":3931,"YPd":3932,"ĠSiSe":3933,"ĠSrSr":3934,"ĠKTe":3935,"ĠPbPb":3936,"CaCu":3937,"NaHg":3938,"ĠInNi":3939,"âĤĤâĤĢ":3940,"ĠSeGe":3941,"ĠSeAg":3942,"AsP":3943,"1228":3944,"ĠRuFe":3945,"ĠRuZn":3946,"ĠPbSc":3947,"ĠCuSi":3948,"AsSe":3949,"ĠZnTe":3950,"CrFe":3951,"9743":3952,"PdH":3953,"ĠZnMn":3954,"GaAl":3955,"549":3956,"Ġnineteenth":3957,"ĠSeMn":3958,"ĠIrSe":3959,"539":3960,"10942":3961,"8673":3962,"PSe":3963,"Ġboron":3964,"ĠPdTe":3965,"ĠSiNb":3966,"FeSi":3967,"PdSn":3968,"PdAu":3969,"TiSi":3970,"697":3971,"SrAu":3972,"700":3973,"139":3974,"Ġ34":3975,"ĠZrHg":3976,"ĠPtFe":3977,"ĠVRu":3978,"ĠAgHf":3979,"ĠMnSb":3980,"ĠAuCa":3981,"ĠRuSe":3982,"541":3983,"1199":3984,"CoSe":3985,"889":3986,"714":3987,"9989":3988,"Ġdiamond":3989,"'{":3990,"140":3991,"975":3992,"VS":3993,"\\'{":3994,"ĠInAg":3995,"ĠHTa":3996,"arevi":3997,"ĠZrHf":3998,"200":3999,"ĠSbCo":4000,"ĠWAs":4001,"672":4002,"1193":4003,"SrZn":4004,"SrCd":4005,"11845":4006,"ĠLavarevi":4007,"247":4008,"484":4009,"ĠVNb":4010,"ĠIrTc":4011,"ĠPbCa":4012,"RuRh":4013,"CaPt":4014,"980":4015,"ĠSiHf":4016,"ĠSiSc":4017,"ĠAsFe":4018,"434":4019,"BiS":4020,"ĠHgZr":4021,"ĠPna":4022,"12053":4023,"12288":4024,"669":4025,"YRh":4026,"ĠSCa":4027,"ĠTiNi":4028,"ĠPtRe":4029,"ĠTaZn":4030,"ĠZnCu":4031,"ĠRhTc":4032,"678":4033,"CoS":4034,"11032":4035,"ĠZrH":4036,"ĠYBi":4037,"ZrGa":4038,"TaRu":4039,"473":4040,"8647":4041,"849":4042,"ĠPtSnSb":4043,"322":4044,"ĠSHf":4045,"ĠZrCu":4046,"Ġ67":4047,"ĠAgIn":4048,"Ġ70":4049,"961":4050,"CaHg":4051,"ĠCsCs":4052,"5716":4053,"460":4054,"289":4055,"YSn":4056,"nium":4057,"lenium":4058,"ĠMg":4059,"ĠPdTc":4060,"205":4061,"ĠNbTi":4062,"ĠMoRu":4063,"GaSb":4064,"092":4065,"CuSn":4066,"1185":4067,"CaNi":4068,"CdAs":4069,"ĠTcAs":4070,"713":4071,"466":4072,"758":4073,"685":4074,"Ġ80":4075,"ĠSMn":4076,"ĠNiFe":4077,"ĠYAu":4078,"ĠSnSb":4079,"1226":4080,"RuIr":4081,"TcAl":4082,"12189":4083,"Ġ21":4084,"ĠTiZr":4085,"SiP":4086,"ZrSi":4087,"SrP":4088,"198":4089,"Phase":4090,"acd":4091,"ĠYZn":4092,"ĠAsSb":4093,"ĠSbAs":4094,"ĠSnSn":4095,"ĠSnSr":4096,"ĠKP":4097,"ĠAuTi":4098,"ZrIn":4099,"676":4100,"717":4101,"8649":4102,"894":4103,"825":4104,"976":4105,"RbSb":4106,"1208":4107,"FeS":4108,"ĠVTa":4109,"ĠTeY":4110,"CuSi":4111,"ĠRuY":4112,"ĠIrY":4113,"214":4114,"SrGe":4115,"OsSi":4116,"142":4117,"273":4118,"Ġ29":4119,"ĠSeCu":4120,"ĠSrCl":4121,"GaSi":4122,"ĠCrRh":4123,"ĠRuV":4124,"CoP":4125,"500":4126,"MnP":4127,"MnSi":4128,"938":4129,"1104":4130,"10142":4131,"173":4132,"Er":4133,"cor":4134,"eving":4135,"ror":4136,"tri":4137,"Ġrecor":4138,"Ġretri":4139,"ĠRhTa":4140,"1057":4141,"ĠGeMo":4142,"ĠCrSc":4143,"MoAs":4144,"ZrTe":4145,"ĠTlSc":4146,"857":4147,"ĠOsTc":4148,"024":4149,"192":4150,"Ġoccurred":4151,"ĠPKP":4152,"Error":4153,"Ġrecord":4154,"Ġretrieving":4155,"283":4156,"ĠAluminum":4157,"ĠZnV":4158,"ĠZnNi":4159,"ĠSnCl":4160,"ĠAuNb":4161,"SnCl":4162,"HfPd":4163,"ĠCdPd":4164,"ScRh":4165,"ScHf":4166,"12179":4167,"12172":4168,"134":4169,"313":4170,"ĠSHg":4171,"ĠNZn":4172,"ĠPres":4173,"ĠTellur":4174,"208":4175,"ĠYP":4176,"1227":4177,"1190":4178,"CaIn":4179,"ĠReOs":4180,"8627":4181,"576":4182,"TlP":4183,"199":4184,"6043":4185,"131":4186,"998":4187,"ĠPressure":4188,"ĠTellurium":4189,"ieth":4190,"ĠSZr":4191,"Ġtetrafluoride":4192,"AlP":4193,"TiH":4194,"PtZn":4195,"ĠAgCl":4196,"AgCd":4197,"AuTe":4198,"ĠTcS":4199,"151":4200,"NaCl":4201,"Ġtwentieth":4202,"12171":4203,"10252":4204,"ĠGeGePt":4205,"ĠPFeP":4206,"288":4207,"ĠTiFe":4208,"ĠPtSr":4209,"ĠSeCo":4210,"804":4211,"ĠGeNb":4212,"RhS":4213,"CuSe":4214,"336":4215,"1179":4216,"421":4217,"164":4218,"TaFe":4219,"ĠReS":4220,"228":4221,"fide":4222,"Ġsul":4223,"TiSe":4224,"ĠSbBi":4225,"GaSe":4226,"ZnAl":4227,"162":4228,"CdTe":4229,"5710":4230,"5706":4231,"895":4232,"Ġindium":4233,"994":4234,"12067":4235,"12073":4236,"10181":4237,"Ġsulfide":4238,"211":4239,"ĠSeRu":4240,"ĠSelenium":4241,"ĠSbCl":4242,"ĠAgPt":4243,"ZnGa":4244,"695":4245,"IrV":4246,"224":4247,"ĠHgS":4248,"471":4249,"10954":4250,"ĠPdAsPd":4251,"171":4252,"643":4253,"YTe":4254,"ĠCMo":4255,"ĠNiMn":4256,"ĠZnAu":4257,"ĠZnCa":4258,"10955":4259,"GaS":4260,"ĠCrCr":4261,"ZnP":4262,"055":4263,"12260":4264,"174":4265,"YGa":4266,"Ġsup":4267,"ercond":4268,"ĠSP":4269,"ĠAlC":4270,"uctor":4271,"ĠPtCa":4272,"ĠNbZn":4273,"ĠSrH":4274,"ĠRhY":4275,"ĠCrSi":4276,"ĠMnAl":4277,"HfPt":4278,"673":4279,"531":4280,"137":4281,"11023":4282,"Ġsupercond":4283,"Ġsuperconductor":4284,"985":4285,"vanite":4286,"ĠCTi":4287,"ĠNSc":4288,"ĠSiNi":4289,"ĠTeSb":4290,"ĠScNi":4291,"803":4292,"MoTe":4293,"HfSb":4294,"AuSn":4295,"692":4296,"CdS":4297,"158":4298,"628":4299,"11040":4300,"11867":4301,"YCu":4302,"Ġiri":4303,"ĠMoPd":4304,"ĠAgPd":4305,"ĠAgCu":4306,"ĠMnV":4307,"SnP":4308,"HfSi":4309,"546":4310,"Ġvanadium":4311,"CoGa":4312,"IrTe":4313,"ĠTcRu":4314,"MnAs":4315,"TcRu":4316,"5683":4317,"12159":4318,"ĠPbcm":4319,"Ġiridium":4320,"180":4321,"215":4322,"YIn":4323,"ĠAlCl":4324,"ĠCaZn":4325,"ĠCaCd":4326,"ĠSrTl":4327,"ĠRhCr":4328,"1070":4329,"074":4330,"CoAl":4331,"CoTe":4332,"693":4333,"5705":4334,"834":4335,"11043":4336,"282":4337,"ĠSAl":4338,"ĠTiSb":4339,"InP":4340,"FeSb":4341,"ĠCuSb":4342,"ĠMoRh":4343,"1214":4344,"423":4345,"RuAl":4346,"ĠClSr":4347,"IrSn":4348,"526":4349,"SrPt":4350,"837":4351,"11020":4352,"ĠAsCaAs":4353,"ĠPAgP":4354,"240":4355,"WN":4356,"Ġ23":4357,"AlH":4358,"ĠYPt":4359,"FeAs":4360,"ĠCuCa":4361,"SiAs":4362,"ĠTaRh":4363,"ZnIn":4364,"11207":4365,"ĠTcCo":4366,"514":4367,"12164":4368,"Ġmp":4369,"ĠSCs":4370,"âĤģâĤī":4371,"FeSe":4372,"CoSn":4373,"CaCd":4374,"ScSn":4375,"SrCl":4376,"328":4377,"10255":4378,"ĠAsSrAs":4379,"276":4380,"ĠPtBi":4381,"ĠNaAu":4382,"ĠCuNb":4383,"PtGa":4384,"331":4385,"AuCd":4386,"559":4387,"ĠTcRh":4388,"ĠReP":4389,"PbTe":4390,"8646":4391,"SrAs":4392,"TlPb":4393,"191":4394,"777":4395,"12173":4396,"177":4397,"ĠPGa":4398,"TiAs":4399,"ĠSnPt":4400,"NiTe":4401,"SbAs":4402,"1245":4403,"504":4404,"NbRh":4405,"CaPd":4406,"12157":4407,"12195":4408,"443":4409,"YZn":4410,"ĠCaIn":4411,"ĠPdAl":4412,"ĠSiPt":4413,"ĠGaCl":4414,"ZnSe":4415,"Ġ72":4416,"CaH":4417,"ĠHgHg":4418,"SrAl":4419,"627":4420,"TlCl":4421,"291":4422,"170":4423,"ĠPNi":4424,"ĠAlMo":4425,"ĠPdCd":4426,"ĠPtTc":4427,"PdCu":4428,"ĠGeMn":4429,"GaN":4430,"ĠMnOs":4431,"RhAs":4432,"ĠBiCa":4433,"698":4434,"CaTl":4435,"BiAs":4436,"932":4437,"935":4438,"OsP":4439,"130":4440,"11872":4441,"12242":4442,"12166":4443,"ĠNCr":4444,"ĠPtSe":4445,"ĠAsS":4446,"ĠSbCa":4447,"GaSn":4448,"ĠAuNa":4449,"094":4450,"ĠRuSc":4451,"1133":4452,"RuGa":4453,"536":4454,"ScGa":4455,"ĠTcHf":4456,"219":4457,"NaAu":4458,"478":4459,"197":4460,"978":4461,"9720":4462,"10779":4463,"10239":4464,"VN":4465,"ĠNp":4466,"AlN":4467,"ĠSiCo":4468,"1063":4469,"GaTe":4470,"128":4471,"ĠAuSr":4472,"HfS":4473,"ScCu":4474,"829":4475,"TcRh":4476,"138":4477,"12163":4478,"11834":4479,"WP":4480,"xSn":4481,"ĠCaBi":4482,"ĠPdSb":4483,"ĠVZn":4484,"ĠTeSe":4485,"ĠTeTi":4486,"PdTe":4487,"802":4488,"TiRh":4489,"ĠRuTe":4490,"MoP":4491,"ZrH":4492,"545":4493,"AuCu":4494,"42âĤģ":4495,"RuSb":4496,"525":4497,"230":4498,"5707":4499,"12247":4500,"9813":4501,"ss":4502,"AlCl":4503,"ĠZrRh":4504,"ĠYIr":4505,"ĠScAu":4506,"PdAg":4507,"ĠAsCd":4508,"ĠRuZr":4509,"081":4510,"699":4511,"IrGe":4512,"505":4513,"NbP":4514,"557":4515,"558":4516,"2147":4517,"8659":4518,"MnGe":4519,"739":4520,"OsRu":4521,"9723":4522,"12066":4523,"175":4524,"ĠAlCo":4525,"ĠRut":4526,"ĠPdSr":4527,"ĠWZr":4528,"NiGe":4529,"CuGe":4530,"HfP":4531,"1178":4532,"RuAs":4533,"ĠCsS":4534,"8660":4535,"776":4536,"12216":4537,"10179":4538,"ĠRutile":4539,"KSb":4540,"loride":4541,"ĠTheoretical":4542,"ĠNiPd":4543,"ĠNiBi":4544,"FeV":4545,"TiCr":4546,"ĠCoTc":4547,"5426":4548,"437":4549,"337":4550,"CoSb":4551,"CaAs":4552,"649":4553,"12077":4554,"11878":4555,"12273":4556,"10780":4557,"146":4558,"183":4559,"278":4560,"ĠPCd":4561,"ĠHSc":4562,"FeP":4563,"ĠScPt":4564,"ĠWCl":4565,"1013":4566,"ĠBiGa":4567,"429":4568,"856":4569,"CdIn":4570,"157":4571,"232":4572,"826":4573,"249":4574,"5696":4575,"297":4576,"ĠSiMn":4577,"ĠSeZr":4578,"1096":4579,"ĠIrBi":4580,"ĠBiSr":4581,"430":4582,"435":4583,"082":4584,"694":4585,"IrSi":4586,"538":4587,"MnN":4588,"456":4589,"737":4590,"149":4591,"1205":4592,"12244":4593,"309":4594,"680":4595,"754":4596,"ĠInCo":4597,"ĠPare":4598,"ĠPIr":4599,"ĠPdH":4600,"ĠPtP":4601,"ĠTeNb":4602,"ĠScZn":4603,"ĠKIn":4604,"ĠMnTi":4605,"ĠMnPt":4606,"1222":4607,"ZnAs":4608,"ĠAuHf":4609,"IrAl":4610,"8650":4611,"CrAl":4612,"SrPd":4613,"231":4614,"5703":4615,"900":4616,"1106":4617,"11017":4618,"Ġsuperconductors":4619,"ĠParent":4620,"WSi":4621,"first":4622,"ĠSyl":4623,"ĠSAs":4624,"ĠPdP":4625,"ĠHfCo":4626,"FeTi":4627,"ĠVW":4628,"ĠTeHg":4629,"ĠSbY":4630,"PtSi":4631,"GaP":4632,"ĠMnGa":4633,"SnAs":4634,"ZrSn":4635,"ĠRbSe":4636,"HfSn":4637,"426":4638,"IrSb":4639,"852":4640,"CaSn":4641,"474":4642,"TlTe":4643,"9722":4644,"TcOs":4645,"9896":4646,"ĠSylvanite":4647,"242":4648,"793":4649,"KNa":4650,"YAu":4651,"hide":4652,"Ġ24":4653,"ĠGaFe":4654,"ĠTeSc":4655,"ĠSnN":4656,"ĠMnCa":4657,"ĠAuCl":4658,"MnSe":4659,"SrS":4660,"745":4661,"648":4662,"5680":4663,"12194":4664,"Ġ28":4665,"ĠPTlP":4666,"ĠHK":4667,"âĤģâĤĩ":4668,"ĠPdGa":4669,"ĠPtPd":4670,"ĠNbCl":4671,"second":4672,"ĠAuPd":4673,"ĠPbNa":4674,"677":4675,"023":4676,"744":4677,"9773":4678,"TcPd":4679,"517":4680,"772":4681,"12193":4682,"11877":4683,"ĠSeKBi":4684,"12290":4685,"rich":4686,"Ġtrich":4687,"Ġ25":4688,"ĠSrPd":4689,"RhSe":4690,"RhZn":4691,"ZrS":4692,"HfAs":4693,"052":4694,"ĠTcIr":4695,"8623":4696,"6846":4697,"ReN":4698,"12183":4699,"12170":4700,"5673":4701,"Ġtrichloride":4702,"662":4703,"706":4704,"VSe":4705,"na":4706,"ĠPtAs":4707,"InCl":4708,"PdP":4709,"TiN":4710,"ĠSbAl":4711,"RhTe":4712,"ZrP":4713,"ĠRbH":4714,"HfN":4715,"335":4716,"CrP":4717,"MnSb":4718,"939":4719,"928":4720,"10788":4721,"10800":4722,"11796":4723,"11789":4724,"VGa":4725,"bra":4726,"ĠHPd":4727,"ĠHfIr":4728,"ĠNaK":4729,"PdZn":4730,"ĠAsRh":4731,"AgAl":4732,"540":4733,"077":4734,"NbMo":4735,"ScZn":4736,"CrN":4737,"300":4738,"12257":4739,"12206":4740,"5677":4741,"12248":4742,"9749":4743,"brass":4744,"ĠCcce":4745,"ĠInNb":4746,"âĤĤâĤģ":4747,"ĠMillerite":4748,"ĠSeSr":4749,"ĠVMn":4750,"ĠScIr":4751,"ĠScPb":4752,"ĠFeCl":4753,"CuIn":4754,"ĠRuSeS":4755,"MoCl":4756,"ZrAs":4757,"TaN":4758,"ĠReCo":4759,"8616":4760,"8661":4761,"HgS":4762,"MnGa":4763,"mcc":4764,"Ġpyrite":4765,"ĠPRb":4766,"AlAs":4767,"ĠNiPt":4768,"ĠZrBi":4769,"SiTe":4770,"ĠTeMn":4771,"ĠSrAl":4772,"TiGa":4773,"ĠCoCr":4774,"PtMo":4775,"543":4776,"674":4777,"IrAs":4778,"534":4779,"NbPd":4780,"CrAs":4781,"731":4782,"348":4783,"ĠPPRu":4784,"10789":4785,"780":4786,"ĠZrAu":4787,"ĠGaCa":4788,"ĠNaN":4789,"ĠNaPb":4790,"ĠMoIr":4791,"TiP":4792,"ĠWRh":4793,"ĠWRu":4794,"ĠWOs":4795,"ĠCoSc":4796,"PtAu":4797,"ĠGeCa":4798,"GeAs":4799,"MoGe":4800,"HfAl":4801,"HfNi":4802,"IrP":4803,"CdCl":4804,"8619":4805,"404":4806,"5702":4807,"663":4808,"832":4809,"9729":4810,"841":4811,"12070":4812,"12174":4813,"11874":4814,"10796":4815,"12199":4816,"608":4817,"782":4818,"ĠCmm":4819,"201":4820,"ĠNaCd":4821,"ĠTeCu":4822,"TiAu":4823,"PtAg":4824,"Ġ61":4825,"ZrHg":4826,"339":4827,"532":4828,"PbBi":4829,"CrGa":4830,"835":4831,"792":4832,"6847":4833,"644":4834,"12204":4835,"522":4836,"ĠPCu":4837,"ĠPSc":4838,"ĠHNb":4839,"ĠSePt":4840,"TiCl":4841,"1087":4842,"1095":4843,"ĠIrSn":4844,"ĠBiSbPt":4845,"427":4846,"CoTi":4847,"IrSe":4848,"IrIn":4849,"851":4850,"CdSb":4851,"ScIn":4852,"NaP":4853,"8651":4854,"659":4855,"635":4856,"11840":4857,"12190":4858,"10077":4859,"ĠZrHN":4860,"AlPt":4861,"2030":4862,"ĠSeHg":4863,"ĠVFe":4864,"ĠVHf":4865,"PdS":4866,"809":4867,"TiMn":4868,"ĠCoPt":4869,"ĠGeY":4870,"ZnN":4871,"096":4872,"CuZn":4873,"1191":4874,"AuCl":4875,"079":4876,"690":4877,"NbAl":4878,"058":4879,"ĠTcZn":4880,"NaAs":4881,"718":4882,"8626":4883,"665":4884,"791":4885,"5689":4886,"RbAu":4887,"326":4888,"12063":4889,"11029":4890,"ĠSFeCu":4891,"314":4892,"WIr":4893,"YAl":4894,"YNi":4895,"YCd":4896,"tan":4897,"ĠStan":4898,"ĠAem":4899,"âĤģâĤĦ":4900,"ĠNaSi":4901,"ĠVGe":4902,"ĠScPd":4903,"ĠAsSe":4904,"ĠAsOs":4905,"ĠTaSe":4906,"ĠZnCl":4907,"TiTe":4908,"ĠSbFe":4909,"ĠCrCo":4910,"AgCl":4911,"547":4912,"964":4913,"428":4914,"ĠClPb":4915,"506":4916,"5302":4917,"NbRu":4918,"ĠOsN":4919,"864":4920,"827":4921,"TlS":4922,"258":4923,"451":4924,"TcIr":4925,"6322":4926,"327":4927,"11871":4928,"ĠSbBiPt":4929,"ĠStannite":4930,"293":4931,"VOs":4932,"ithium":4933,"Ġlithium":4934,"ĠTiH":4935,"ĠGPa":4936,"AlCu":4937,"ĠNbMo":4938,"ĠTeZn":4939,"10227":4940,"10969":4941,"PtS":4942,"ĠGeP":4943,"MoRh":4944,"HfRh":4945,"HfCo":4946,"073":4947,"CaPb":4948,"5552":4949,"ĠReIr":4950,"8657":4951,"HgTe":4952,"831":4953,"259":4954,"818":4955,"498":4956,"11007":4957,"11842":4958,"10773":4959,"9835":4960,"176":4961,"lut":4962,"ĠPlut":4963,"ĠPdCa":4964,"ĠHfZr":4965,"2070":4966,"ĠGaPd":4967,"ĠSeHf":4968,"ĠVAl":4969,"ĠAsAl":4970,"ĠZnCs":4971,"ĠRhCo":4972,"ĠCoRe":4973,"PtAl":4974,"ĠAgSr":4975,"RhIn":4976,"ZrCl":4977,"HfZr":4978,"HfTc":4979,"5424":4980,"1157":4981,"083":4982,"NbN":4983,"479":4984,"060":4985,"SrTl":4986,"5704":4987,"756":4988,"735":4989,"241":4990,"2783":4991,"12082":4992,"11907":4993,"ĠPlutonium":4994,"990":4995,"YPt":4996,"ĠNNa":4997,"ĠPtS":4998,"PdCl":4999,"TiNi":5000,"1012":5001,"090":5002,"MoSi":5003,"ZrSe":5004,"ZrGe":5005,"1196":5006,"ScNi":5007,"ScGe":5008,"226":5009,"SrCu":5010,"2329":5011,"5743":5012,"898":5013,"RbGa":5014,"RbCl":5015,"11021":5016,"5679":5017,"VW":5018,"VSi":5019,"VTc":5020,"ĠSTa":5021,"ĠCaPt":5022,"ĠYPb":5023,"ĠTeCr":5024,"ĠSbNb":5025,"ĠKPb":5026,"ĠMnAu":5027,"HfAu":5028,"431":5029,"1120":5030,"RuTe":5031,"5055":5032,"168":5033,"CaAg":5034,"881":5035,"NaBi":5036,"8656":5037,"463":5038,"9755":5039,"901":5040,"9833":5041,"11030":5042,"12167":5043,"913":5044,"cm":5045,"dale":5046,"hr":5047,"ĠClat":5048,"ĠSPt":5049,"ĠSOs":5050,"AlFe":5051,"AlSb":5052,"ĠGaMn":5053,"FeTe":5054,"ĠNbCo":5055,"PdAl":5056,"ĠAsPd":5057,"ĠAsSc":5058,"AsPt":5059,"ĠSrCd":5060,"ĠSbRu":5061,"ĠCoAl":5062,"ĠAgK":5063,"ĠMnNi":5064,"ZnGe":5065,"MoPd":5066,"HfCu":5067,"HfRu":5068,"542":5069,"965":5070,"6971":5071,"TaOs":5072,"ĠCsH":5073,"ĠOsS":5074,"529":5075,"MnTe":5076,"236":5077,"666":5078,"701":5079,"656":5080,"799":5081,"ĠLons":5082,"9991":5083,"CsHg":5084,"11019":5085,"11036":5086,"daleite":5087,"hrate":5088,"ĠClathrate":5089,"ĠLonsdaleite":5090,"193":5091,"172":5092,"YH":5093,"itride":5094,"thir":5095,"Ġcarbonitride":5096,"ĠPNb":5097,"âĤĤâĤĦ":5098,"ĠTeCa":5099,"ĠRhMn":5100,"ĠSbIr":5101,"PtCd":5102,"ĠCrC":5103,"AgTe":5104,"MoAl":5105,"ĠBiSb":5106,"6723":5107,"1198":5108,"NbTe":5109,"225":5110,"888":5111,"8880":5112,"ĠOsZr":5113,"239":5114,"5711":5115,"6323":5116,"RbIn":5117,"fourth":5118,"10797":5119,"ĠSeNaV":5120,"12152":5121,"third":5122,"511":5123,"KPb":5124,"VTe":5125,"ĠSCl":5126,"Ġ26":5127,"Ġ27":5128,"ĠNiV":5129,"InPb":5130,"ĠNaPt":5131,"SiNi":5132,"ĠScRh":5133,"TeS":5134,"ĠGeAs":5135,"433":5136,"436":5137,"438":5138,"ĠClCa":5139,"530":5140,"ScS":5141,"ScSi":5142,"860":5143,"892":5144,"897":5145,"934":5146,"9775":5147,"561":5148,"292":5149,"494":5150,"11850":5151,"10951":5152,"5697":5153,"12238":5154,"ĠPMo":5155,"ĠHCo":5156,"AlCr":5157,"ĠPdRe":5158,"ĠNiRe":5159,"ĠGaCu":5160,"ĠPtH":5161,"FeN":5162,"PdSe":5163,"PdNi":5164,"1068":5165,"1084":5166,"ĠFeN":5167,"ĠAuTa":5168,"SnRh":5169,"MoRu":5170,"HfZn":5171,"330":5172,"AuTa":5173,"960":5174,"ĠTlTe":5175,"TaZn":5176,"CdPb":5177,"ScPt":5178,"ĠTcRe":5179,"21328":5180,"884":5181,"NaAg":5182,"NaCd":5183,"8658":5184,"HgTi":5185,"795":5186,"1867":5187,"9854":5188,"ĠSeRbSb":5189,"634":5190,"815":5191,"SS":5192,"VGe":5193,"md":5194,"tw":5195,"ĠAlCr":5196,"ĠTeZr":5197,"ĠRhFe":5198,"TiW":5199,"TiFe":5200,"ĠSbK":5201,"ĠSbGa":5202,"PtCl":5203,"RhP":5204,"099":5205,"AgAs":5206,"AuPb":5207,"IrTi":5208,"ĠTlPb":5209,"TaTe":5210,"ĠCsSe":5211,"8607":5212,"8622":5213,"893":5214,"824":5215,"759":5216,"814":5217,"OsGa":5218,"ReIr":5219,"413":5220,"926":5221,"11057":5222,"1216530":5223,"two":5224,"9827":5225,"PPt":5226,"canite":5227,"ĠIma":5228,"ĠPOs":5229,"ĠSeNi":5230,"InTe":5231,"ĠNaTl":5232,"ĠVul":5233,"ĠScSe":5234,"ĠAsCo":5235,"1071":5236,"GaCl":5237,"ĠCrCl":5238,"ĠAuSi":5239,"RhV":5240,"AgHf":5241,"ZrAl":5242,"HfGa":5243,"5416":5244,"NbW":5245,"NbAs":5246,"TaAs":5247,"ScRu":5248,"ĠTcCl":5249,"218":5250,"886":5251,"7192":5252,"MnFe":5253,"MnOs":5254,"6273":5255,"5712":5256,"465":5257,"195":5258,"187":5259,"TcGa":5260,"12188":5261,"12272":5262,"10952":5263,"10956":5264,"30876":5265,"ĠPCaP":5266,"ĠInSbTe":5267,"10032":5268,"5687":5269,"10727":5270,"ĠVulcanite":5271,"633":5272,"779":5273,"949":5274,"YSe":5275,"nmc":5276,"ĠPRh":5277,"AlSc":5278,"ĠPtCl":5279,"SiH":5280,"SiPt":5281,"PdSi":5282,"ĠTaCl":5283,"808":5284,"TiOs":5285,"1019":5286,"PtH":5287,"NiY":5288,"NiBi":5289,"ĠCrSb":5290,"CuCl":5291,"CoN":5292,"NbCl":5293,"ScAg":5294,"NaPb":5295,"863":5296,"SrH":5297,"751":5298,"251":5299,"9716":5300,"ReSi":5301,"594":5302,"144":5303,"763":5304,"1364":5305,"11063":5306,"12169":5307,"12215":5308,"12284":5309,"10913":5310,"10257":5311,"ĠAsAsPd":5312,"ĠSTlIn":5313,"ĠPTcP":5314,"185":5315,"263":5316,"612":5317,"WPd":5318,"ĠAma":5319,"ĠCuGe":5320,"ĠAsNb":5321,"ĠTaAu":5322,"805":5323,"TiIn":5324,"PtP":5325,"PtTe":5326,"ĠKH":5327,"ĠFeGa":5328,"ĠFeMn":5329,"MoV":5330,"ĠIrAl":5331,"5418":5332,"1147":5333,"AuTl":5334,"424":5335,"RuIn":5336,"8860":5337,"SrSb":5338,"575":5339,"899":5340,"ReTc":5341,"RbHg":5342,"11026":5343,"12270":5344,"mbc":5345,"10636":5346,"145":5347,"178":5348,"312":5349,"810":5350,"KAg":5351,"VRu":5352,"VMn":5353,"YSb":5354,"nb":5355,"ob":5356,"Ã¢":5357,"ÆĴ":5358,"âĢļ":5359,"ĠInCa":5360,"ĠAlGa":5361,"ĠPdCl":5362,"2006":5363,"ĠSeAl":5364,"ĠSeSc":5365,"FeCo":5366,"SiSe":5367,"ĠZnGa":5368,"ĠSbHf":5369,"ĠCoN":5370,"PtV":5371,"SbCl":5372,"ZnCl":5373,"CuSb":5374,"HfCr":5375,"ĠClTl":5376,"537":5377,"NbSi":5378,"TaSi":5379,"CaS":5380,"ScTe":5381,"475":5382,"238":5383,"1900":5384,"797":5385,"CsPb":5386,"11031":5387,"10874":5388,"11809":5389,"182":5390,"409":5391,"ncc":5392,"ĠPAsPt":5393,"AlNi":5394,"ĠSiH":5395,"ĠSiTe":5396,"ĠSeS":5397,"ĠTeK":5398,"ĠTeFe":5399,"ĠAsTa":5400,"ĠAsPPt":5401,"ĠTaCo":5402,"ĠSrTe":5403,"ĠSbNa":5404,"1066":5405,"PtSe":5406,"ĠBiIr":5407,"ĠBiNa":5408,"ĠClAg":5409,"NbSe":5410,"CaTe":5411,"ScPd":5412,"ScIr":5413,"ScCd":5414,"ĠReRu":5415,"1563":5416,"NaPd":5417,"470":5418,"8638":5419,"524":5420,"400":5421,"029":5422,"OsGe":5423,"5685":5424,"448":5425,"487":5426,"12071":5427,"11038":5428,"11830":5429,"1183694":5430,"ĠSSbRh":5431,"ĠPSrP":5432,"22095":5433,"ĠPYP":5434,"1887":5435,"301":5436,"647":5437,"869":5438,"871":5439,"909":5440,"ĠSGa":5441,"ĠCaCu":5442,"FeRh":5443,"ĠNbH":5444,"PdTl":5445,"ĠTaSb":5446,"ĠZnIn":5447,"TiRu":5448,"ĠFeGe":5449,"ZrNi":5450,"HfMo":5451,"1156":5452,"966":5453,"086":5454,"RuS":5455,"RuTa":5456,"NbGa":5457,"ĠTcSc":5458,"ĠOsTe":5459,"CrSe":5460,"MnZn":5461,"23152":5462,"891":5463,"704":5464,"641":5465,"444":5466,"9823":5467,"000":5468,"12160":5469,"5713":5470,"ĠSeSbRu":5471,"985825":5472,"1186781":5473,"1102018":5474,"SCs":5475,"fif":5476,"ĠAlTc":5477,"ĠNaAg":5478,"1027":5479,"PtNi":5480,"PtRh":5481,"ĠSnTa":5482,"ĠCrGa":5483,"ĠFeRh":5484,"ZnZr":5485,"RhSb":5486,"CuZr":5487,"ĠIrZr":5488,"5407":5489,"5425":5490,"5048":5491,"160":5492,"161":5493,"859":5494,"NaTl":5495,"574":5496,"749":5497,"6486":5498,"787":5499,"1415":5500,"12009":5501,"11042":5502,"12269":5503,"10794":5504,"30871":5505,"1018166":5506,"12249":5507,"10847":5508,"1102131":5509,"fifth":5510,"147":5511,"454":5512,"642":5513,"SV":5514,"ĠHCs":5515,"AlTe":5516,"ĠHfSn":5517,"ĠSiRh":5518,"ĠSiMo":5519,"ĠGaCr":5520,"ĠAsPt":5521,"AsTe":5522,"ĠTaMo":5523,"1006":5524,"1094":5525,"1017":5526,"GeSi":5527,"GeSb":5528,"12102":5529,"ZnSn":5530,"AuSb":5531,"425":5532,"NbH":5533,"858":5534,"CdGa":5535,"22337":5536,"868":5537,"8628":5538,"401":5539,"ReOs":5540,"6398":5541,"12062":5542,"12057":5543,"12074":5544,"CsGa":5545,"12274":5546,"10793":5547,"1220023":5548,"10795":5549,"8678":5550,"5675":5551,"10804":5552,"1018113":5553,"1184558":5554,"1184632":5555,"1184591":5556,"31312":5557,"ĠPRbP":5558,"1184265":5559,"982370":5560,"2540":5561,"445":5562,"510":5563,"645":5564,"769":5565,"773":5566,"823":5567,"STl":5568,"VAl":5569,"hos":5570,"nc":5571,"phide":5572,"Ġphos":5573,"ĠNGa":5574,"ĠHV":5575,"AlCo":5576,"ĠCaNi":5577,"ĠHfTe":5578,"ĠNiob":5579,"20539":5580,"ĠNaPd":5581,"ĠVTc":5582,"ĠTeCl":5583,"ĠMoTa":5584,"TiSb":5585,"1056":5586,"10000":5587,"SbN":5588,"095":5589,"ĠRuHf":5590,"MoTa":5591,"5429":5592,"089":5593,"RuP":5594,"ĠClIn":5595,"NbGe":5596,"TaRh":5597,"NaPt":5598,"ĠOsSc":5599,"8637":5600,"SrPb":5601,"2302":5602,"661":5603,"592":5604,"1483":5605,"1487":5606,"917":5607,"9953":5608,"31348":5609,"CsAu":5610,"2339":5611,"1186427":5612,"10250":5613,"5693":5614,"10172":5615,"ĠSSbIr":5616,"1217895":5617,"11290":5618,"ĠSBiIr":5619,"1337":5620,"755169":5621,"864984":5622,"981383":5623,"Ġphosphide":5624,"ĠNiobium":5625,"143":5626,"181":5627,"605":5628,"HCs":5629,"ĠInRb":5630,"ĠHCl":5631,"ĠTiMn":5632,"ĠSiIr":5633,"InSn":5634,"ĠNaGe":5635,"FeNi":5636,"ĠVNi":5637,"ĠVGa":5638,"ĠCuAs":5639,"ĠSrPt":5640,"1055":5641,"1211":5642,"AgP":5643,"ZrCu":5644,"ĠRbIn":5645,"AuZn":5646,"968":5647,"RuSe":5648,"6907":5649,"IrRu":5650,"855":5651,"BiSb":5652,"5565":5653,"NaGa":5654,"CrRh":5655,"HgSe":5656,"6287":5657,"TlSe":5658,"7565":5659,"9765":5660,"TcPt":5661,"141":5662,"9847":5663,"12033":5664,"1101":5665,"10705":5666,"10774":5667,"1186055":5668,"5690":5669,"567409":5670,"11902":5671,"30836":5672,"1078123":5673,"20418":5674,"12467":5675,"974421":5676,"867351":5677,"1014231":5678,"21477":5679,"972373":5680,"442":5681,"554":5682,"5105":5683,"5544":5684,"742":5685,"766":5686,"KCr":5687,"WAl":5688,"prite":5689,"alla":5690,"ĠCcc":5691,"ĠCMn":5692,"Ġpalla":5693,"ĠPSe":5694,"ĠTiIn":5695,"ĠTiCr":5696,"ĠTiRe":5697,"Ġaluminum":5698,"AlSe":5699,"ĠNiCo":5700,"2083":5701,"ĠSiOs":5702,"ĠSeFe":5703,"ĠSeGa":5704,"ĠVMo":5705,"ĠCuH":5706,"ĠCuprite":5707,"ĠTeSr":5708,"PdMo":5709,"807":5710,"ĠRhN":5711,"ĠSbSrSn":5712,"ĠWW":5713,"1014":5714,"ĠCoMn":5715,"ĠGeH":5716,"ĠGeRh":5717,"GaY":5718,"ĠFeIr":5719,"GeH":5720,"ĠIrFe":5721,"ĠPbRh":5722,"ĠCdGe":5723,"078":5724,"RuN":5725,"535":5726,"CaP":5727,"ĠTcPt":5728,"222âĤģ":5729,"ĠOsCl":5730,"CrTe":5731,"CrRu":5732,"CrMn":5733,"068":5734,"SrBi":5735,"23159":5736,"624":5737,"626":5738,"579":5739,"TlIn":5740,"651":5741,"7598":5742,"817":5743,"1823":5744,"TcNi":5745,"ReRh":5746,"778":5747,"ĠPnna":5748,"449":5749,"9993":5750,"30501":5751,"11028":5752,"12263":5753,"11832":5754,"ĠHCaNi":5755,"ĠAsAsOs":5756,"ĠSZnIn":5757,"11909":5758,"1184502":5759,"ĠSCoCu":5760,"1025223":5761,"973111":5762,"12388":5763,"10679":5764,"1699":5765,"1188061":5766,"1215509":5767,"865355":5768,"16526":5769,"975204":5770,"ĠAsFeNi":5771,"864758":5772,"ĠAsSbRh":5773,"ĠAsSbIr":5774,"ĠSbAsRh":5775,"ĠSbAsIr":5776,"11334":5777,"1836":5778,"684602":5779,"1179605":5780,"1007786":5781,"632286":5782,"Ġpalladium":5783,"2576":5784,"362":5785,"450":5786,"550":5787,"905":5788,"KSe":5789,"VNi":5790,"ĠPCl":5791,"ĠTiTc":5792,"20928":5793,"ĠGaNa":5794,"ĠNaGa":5795,"FeRu":5796,"PdPt":5797,"AsN":5798,"TiZn":5799,"1062":5800,"uphide":5801,"MoW":5802,"1192":5803,"1194":5804,"CoIn":5805,"5050":5806,"5022":5807,"ĠTlHg":5808,"BiTe":5809,"CdSn":5810,"2271":5811,"MnS":5812,"6254":5813,"8936":5814,"930":5815,"7444":5816,"836":5817,"1973":5818,"OsAl":5819,"729":5820,"495":5821,"RbTe":5822,"CsSb":5823,"11061":5824,"11819":5825,"1182070":5826,"12261":5827,"10950":5828,"11420":5829,"11453":5830,"ĠDisuphide":5831,"1186109":5832,"1079574":5833,"1018717":5834,"11229":5835,"30366":5836,"11571":5837,"1018059":5838,"1018029":5839,"13365":5840,"1207100":5841,"1079952":5842,"1103211":5843,"1216655":5844,"1206636":5845,"1225701":5846,"1217409":5847,"983509":5848,"1072724":5849,"1104275":5850,"ĠCccm":5851,"287":5852,"2108":5853,"2678":5854,"393":5855,"788":5856,"984":5857,"KCl":5858,"PN":5859,"PIr":5860,"SCl":5861,"bar":5862,"lw":5863,"ĠCin":5864,"stibit":5865,"ĠNCo":5866,"ĠHHf":5867,"ĠTiRu":5868,"zelw":5869,"ĠZrSn":5870,"ĠGaGeTe":5871,"ĠSeSiPt":5872,"FeGa":5873,"FeCl":5874,"ĠMoV":5875,"ĠMoW":5876,"ĠZnIr":5877,"ĠZnCd":5878,"1030":5879,"PtRu":5880,"ĠGePt":5881,"ĠGeCo":5882,"1279":5883,"SnN":5884,"ĠRuMn":5885,"ĠBiSc":5886,"ĠPbK":5887,"ĠPbPt":5888,"ĠPbSr":5889,"679":5890,"332":5891,"11108":5892,"ĠNHS":5893,"RuTi":5894,"ĠClCd":5895,"IrRh":5896,"ĠTlP":5897,"16074":5898,"NbPt":5899,"TaGe":5900,"CaCo":5901,"CdZn":5902,"ĠReTe":5903,"MnPd":5904,"MnIr":5905,"184":5906,"248":5907,"600":5908,"601":5909,"5955":5910,"7846":5911,"7291":5912,"9985":5913,"oodite":5914,"30478":5915,"1205955":5916,"11056":5917,"ĠHazelw":5918,"1186058":5919,"567772":5920,"ĠSNaIn":5921,"1187881":5922,"1217804":5923,"ĠMoAsP":5924,"1221484":5925,"1188800":5926,"1188662":5927,"ĠAsTeIr":5928,"ĠChalcostibit":5929,"1186901":5930,"10642":5931,"2204":5932,"22009":5933,"10777":5934,"1077098":5935,"1077466":5936,"29646":5937,"1184633":5938,"1184658":5939,"ĠTeAsIr":5940,"9799":5941,"20263":5942,"12463":5943,"22924":5944,"YAgSe":5945,"31172":5946,"1180659":5947,"672241":5948,"21359":5949,"ĠSeAsPd":5950,"607111":5951,"ĠSeGePt":5952,"669913":5953,"1103212":5954,"864754":5955,"1018153":5956,"570562":5957,"2403":5958,"1120769":5959,"13010":5960,"1216323":5961,"nabar":5962,"1207013":5963,"1055994":5964,"976589":5965,"ĠCinnabar":5966,"ĠHazelwoodite":5967,"ĠChalcostibite":5968,"2105":5969,"329":5970,"7526":5971,"811":5972,"846":5973,"9969":5974,"HCl":5975,"NCl":5976,"WCl":5977,"ĠNNi":5978,"ĠInHg":5979,"ĠPcc":5980,"ĠAlFe":5981,"ĠHNi":5982,"2082":5983,"20132":5984,"ĠSeNb":5985,"ĠCuN":5986,"ĠNbAu":5987,"TiCo":5988,"1042":5989,"1002":5990,"10487":5991,"ĠCoNi":5992,"PtY":5993,"SbP":5994,"12137":5995,"ZnIr":5996,"091":5997,"AgZr":5998,"HfSe":5999,"5461":6000,"071":6001,"072":6002,"CoPt":6003,"CoIr":6004,"1620":6005,"059":6006,"ĠCsTe":6007,"ScFe":6008,"22209":6009,"ĠOsV":6010,"8652":6011,"2361":6012,"748":6013,"655461":6014,"7554":6015,"1922":6016,"19932":6017,"2510":6018,"687":6019,"2450":6020,"5688":6021,"631":6022,"639755":6023,"9970":6024,"30675":6025,"12068":6026,"11004":6027,"12275":6028,"12287":6029,"1095302":6030,"1183144":6031,"1079810":6032,"10240":6033,"10293":6034,"1217081":6035,"1007692":6036,"1186067":6037,"1186050":6038,"1186034":6039,"1077503":6040,"1018028":6041,"20483":6042,"1207024":6043,"979423":6044,"1009730":6045,"31144":6046,"16521":6047,"1078602":6048,"867347":6049,"685146":6050,"ĠSMnCd":6051,"21405":6052,"1179802":6053,"570377":6054,"972981":6055,"1095669":6056,"639874":6057,"1070580":6058,"1067933":6059,"1536":6060,"1543":6061,"267":6062,"284":6063,"2693":6064,"441":6065,"586":6066,"616":6067,"9939":6068,"KP":6069,"KTe":6070,"YIr":6071,"ĠSPd":6072,"ĠZint":6073,"ĠTiW":6074,"AlMo":6075,"2059":6076,"ĠGaRu":6077,"ĠPtY":6078,"InN":6079,"ĠNbRe":6080,"PdTa":6081,"ĠAsY":6082,"TiTc":6083,"1089":6084,"1061":6085,"10136":6086,"10559":6087,"ĠSnCa":6088,"ĠSnMn":6089,"ĠFeNi":6090,"GeN":6091,"097":6092,"548":6093,"338":6094,"RuGe":6095,"6985":6096,"TaPd":6097,"051":6098,"556":6099,"ĠReCl":6100,"1522":6101,"ĠOsY":6102,"SrTe":6103,"SrRu":6104,"2369":6105,"23206":6106,"937":6107,"830":6108,"24082":6109,"9746":6110,"976273":6111,"1747":6112,"12069":6113,"11011":6114,"11035":6115,"110304":6116,"12264":6117,"10941":6118,"1183209":6119,"1186024":6120,"1963":6121,"10792":6122,"569289":6123,"569170":6124,"1187474":6125,"30835":6126,"1018124":6127,"1223866":6128,"1184478":6129,"1184808":6130,"570691":6131,"30682":6132,"18622":6133,"22320":6134,"541837":6135,"975129":6136,"2731":6137,"604321":6138,"1749":6139,"1215997":6140,"1120767":6141,"1025513":6142,"1023924":6143,"570786":6144,"1206659":6145,"1017983":6146,"1096994":6147,"1022725":6148,"23295":6149,"1185041":6150,"569785":6151,"1064227":6152,"ĠZintl":6153,"1055940":6154,"1103044":6155,"406":6156,"562":6157,"696":6158,"623":6159,"708":6160,"875":6161,"988":6162,"KBi":6163,"SZr":6164,"VPd":6165,"WRu":6166,"ĠCCr":6167,"ĠSC":6168,"ĠInK":6169,"ĠPRu":6170,"ĠAlOs":6171,"ĠPdSe":6172,"ĠSiTa":6173,"ĠSiCr":6174,"ĠPtCr":6175,"ĠSePd":6176,"ĠYRh":6177,"ĠYCo":6178,"ĠMoGe":6179,"PdPb":6180,"ĠAsRu":6181,"AsSb":6182,"ĠSrSe":6183,"801":6184,"806":6185,"8041":6186,"10861":6187,"10649":6188,"PtPd":6189,"PtTl":6190,"ĠGeHf":6191,"ĠSnBi":6192,"NiZn":6193,"ĠAgGe":6194,"ĠCrGe":6195,"ĠFePt":6196,"1213":6197,"12561":6198,"ZnSnAs":6199,"MoTeSe":6200,"ZrAu":6201,"ĠClHg":6202,"IrMo":6203,"IrNb":6204,"TaV":6205,"TaNi":6206,"ScTc":6207,"551":6208,"2294":6209,"22555":6210,"15649":6211,"883":6212,"NaH":6213,"8640":6214,"SrN":6215,"SrHg":6216,"235":6217,"578":6218,"6615":6219,"656615":6220,"9771":6221,"TcP":6222,"595":6223,"8462":6224,"29055":6225,"29551":6226,"135":6227,"9954":6228,"2733":6229,"31473":6230,"1109":6231,"11041":6232,"11870":6233,"12285":6234,"Ġbipyramidal":6235,"11481":6236,"1216825":6237,"1183501":6238,"1183517":6239,"1186158":6240,"1186437":6241,"1220635":6242,"11946":6243,"ĠMoTeSe":6244,"ĠSNaCr":6245,"1080834":6246,"30852":6247,"1018121":6248,"1018100":6249,"1217111":6250,"ĠSCoRh":6251,"10685":6252,"1007730":6253,"MoSSe":6254,"2201":6255,"20405":6256,"1184764":6257,"16719":6258,"1067627":6259,"1698":6260,"1188008":6261,"30745":6262,"1072744":6263,"21093":6264,"7558":6265,"865527":6266,"865430":6267,"1187974":6268,"ĠSeAsOs":6269,"1094255":6270,"669917":6271,"604325":6272,"ĠSPRu":6273,"ĠSPOs":6274,"17757":6275,"1063670":6276,"1187816":6277,"ĠSAsOs":6278,"989695":6279,"1219457":6280,"567379":6281,"983365":6282,"571160":6283,"977585":6284,"542915":6285,"1106169":6286,"1064981":6287,"2121":6288,"316":6289,"381":6290,"620":6291,"952":6292,"9828":6293,"Ba":6294,"VPt":6295,"YCl":6296,"ĠNK":6297,"ĠCaAl":6298,"ĠNiN":6299,"20555":6300,"20800":6301,"ĠYH":6302,"FeAl":6303,"FeGe":6304,"ĠAsIr":6305,"ĠAsNa":6306,"ĠAsAgAs":6307,"ĠRhHg":6308,"ĠWV":6309,"1028":6310,"ĠKN":6311,"ĠAgAsSe":6312,"seven":6313,"ĠMnRu":6314,"12108":6315,"RhHg":6316,"CuO":6317,"AgSe":6318,"AgGa":6319,"AgCa":6320,"MoIr":6321,"ĠBiK":6322,"6765":6323,"9616":6324,"085":6325,"076":6326,"1601":6327,"NbSn":6328,"NbTc":6329,"BiP":6330,"ScOs":6331,"22691":6332,"1515":6333,"1523":6334,"2180":6335,"2172":6336,"21104":6337,"8886":6338,"719":6339,"ĠOsSb":6340,"8662":6341,"571199":6342,"734":6343,"736":6344,"7390":6345,"9789":6346,"TcCl":6347,"290":6348,"1363":6349,"8781":6350,"2614":6351,"003":6352,"12090":6353,"1206486":6354,"11052":6355,"12182":6356,"12178":6357,"11896":6358,"12250":6359,"1183222":6360,"1079460":6361,"8677":6362,"8679":6363,"11910":6364,"1080443":6365,"1080797":6366,"30828":6367,"1018103":6368,"1217163":6369,"11231":6370,"10021":6371,"ĠNZrZn":6372,"ĠSeCsBi":6373,"1007976":6374,"ĠSBiPb":6375,"11322":6376,"11329":6377,"570197":6378,"13270":6379,"11507":6380,"ĠSSnPt":6381,"ĠTeTeIr":6382,"30668":6383,"973198":6384,"1184755":6385,"1184703":6386,"1335":6387,"13688":6388,"570896":6389,"989737":6390,"1552":6391,"22318":6392,"999502":6393,"1180961":6394,"972889":6395,"672232":6396,"ĠSeAsIr":6397,"20581":6398,"2732":6399,"1057273":6400,"16488":6401,"1207393":6402,"17173":6403,"ĠSPIr":6404,"1104047":6405,"1186760":6406,"17706":6407,"1187702":6408,"ZrPP":6409,"974920":6410,"1219006":6411,"1012435":6412,"1210215":6413,"1205786":6414,"1014111":6415,"286":6416,"489":6417,"516":6418,"564":6419,"622209":6420,"760":6421,"880":6422,"822":6423,"915":6424,"KIn":6425,"PRh":6426,"odi":6427,"ĠAlRe":6428,"Ġtriodi":6429,"20549":6430,"20672":6431,"20576":6432,"20526":6433,"20291":6434,"ĠBis":6435,"ĠVSb":6436,"PdHg":6437,"ĠSrAg":6438,"8073":6439,"10015":6440,"10157":6441,"10404":6442,"10644":6443,"PtHf":6444,"NiPd":6445,"1266":6446,"RhGa":6447,"RhGe":6448,"AgPt":6449,"AgSn":6450,"MoN":6451,"ZrAg":6452,"432":6453,"671":6454,"3306":6455,"1152":6456,"11328":6457,"11456":6458,"RuZr":6459,"IrZn":6460,"NbZn":6461,"NbCo":6462,"TaMn":6463,"CdN":6464,"ScN":6465,"ĠReAl":6466,"2285":6467,"22466":6468,"8883":6469,"NaTe":6470,"062":6471,"SrCaSi":6472,"2395":6473,"8939":6474,"7498":6475,"7533":6476,"190":6477,"2583":6478,"2560":6479,"794":6480,"1822":6481,"6419":6482,"ReAl":6483,"044":6484,"513":6485,"6363":6486,"2612":6487,"12084":6488,"CsIn":6489,"11049":6490,"1105302":6491,"12181":6492,"1183306":6493,"12233":6494,"10910":6495,"10905":6496,"1183484":6497,"1183998":6498,"1183627":6499,"1186444":6500,"1079938":6501,"10260":6502,"569249":6503,"569095":6504,"567822":6505,"11957":6506,"1187665":6507,"1018156":6508,"1018129":6509,"1221420":6510,"1223977":6511,"1078697":6512,"1007691":6513,"1186033":6514,"1186018":6515,"570459":6516,"22040":6517,"30352":6518,"30373":6519,"2128":6520,"30685":6521,"9744":6522,"1184650":6523,"12723":6524,"573514":6525,"1105078":6526,"1009834":6527,"1009756":6528,"9897":6529,"989782":6530,"27410":6531,"1078665":6532,"12614":6533,"1187913":6534,"16523":6535,"974376":6536,"1094248":6537,"20034":6538,"1228815":6539,"1185202":6540,"604318":6541,"1206743":6542,"21162":6543,"22481":6544,"1095578":6545,"864647":6546,"1224298":6547,"2784":6548,"570362":6549,"7931":6550,"866186":6551,"1187486":6552,"1022721":6553,"1012110":6554,"999143":6555,"11563":6556,"1206268":6557,"690760":6558,"979911":6559,"Ġtriodide":6560,"ĠBismuth":6561,"1040453":6562,"1459":6563,"2534":6564,"317":6565,"462":6566,"5546":6567,"655":6568,"657":6569,"8426":6570,"hil":6571,"ÃĮ":6572,"âĢ¦":6573,"ĠSGe":6574,"ĠHyd":6575,"ĠRÃĮ":6576,"ĠTiOs":6577,"ĠPdFe":6578,"ĠHfTeSe":6579,"20628":6580,"20745":6581,"20433":6582,"ĠTeTl":6583,"ĠZnSnAs":6584,"TiCd":6585,"10201":6586,"10901":6587,"1010136":6588,"ĠCoSn":6589,"PtTi":6590,"ĠSnIr":6591,"1212":6592,"1260":6593,"1235":6594,"12124":6595,"12104":6596,"12524":6597,"ZnH":6598,"ĠAuK":6599,"SnH":6600,"SnRu":6601,"RhPb":6602,"CuPt":6603,"AgS":6604,"HfMn":6605,"11972":6606,"11466":6607,"RuV":6608,"CaFe":6609,"ĠCsPb":6610,"CdY":6611,"ĠTcZr":6612,"15339":6613,"NaSe":6614,"8696":6615,"523":6616,"rophil":6617,"HgZn":6618,"SrNi":6619,"8948":6620,"8372":6621,"1953":6622,"1989":6623,"2597":6624,"2517":6625,"9784":6626,"6498":6627,"ReRu":6628,"7262":6629,"13155":6630,"6372":6631,"636498":6632,"RbS":6633,"ĠTiSeS":6634,"017":6635,"1786":6636,"17695":6637,"30500":6638,"11025":6639,"11454":6640,"11407":6641,"12165":6642,"1216575":6643,"10712":6644,"10782":6645,"1186152":6646,"1186137":6647,"1186074":6648,"1186081":6649,"1220327":6650,"1079127":6651,"569535":6652,"20669":6653,"ĠCdAsCl":6654,"867780":6655,"11908":6656,"1187258":6657,"1080831":6658,"30811":6659,"30846":6660,"1018125":6661,"1018151":6662,"11286":6663,"1188663":6664,"10054":6665,"1078331":6666,"1061133":6667,"1066254":6668,"11345":6669,"11387":6670,"570199":6671,"568115":6672,"1025159":6673,"16609":6674,"1018019":6675,"1058696":6676,"30683":6677,"30681":6678,"865166":6679,"1189573":6680,"573691":6681,"573579":6682,"1207251":6683,"1067758":6684,"1067880":6685,"1105835":6686,"1023934":6687,"10692":6688,"30717":6689,"ĠPmna":6690,"983445":6691,"21068":6692,"1008555":6693,"1008634":6694,"31002":6695,"21342":6696,"20351":6697,"998949":6698,"1208852":6699,"1217255":6700,"1095495":6701,"1070544":6702,"1214889":6703,"27607":6704,"1219509":6705,"13853":6706,"1183455":6707,"1178742":6708,"29767":6709,"1205858":6710,"1080001":6711,"1178952":6712,"1178932":6713,"1217407":6714,"1079681":6715,"1007760":6716,"1100773":6717,"999133":6718,"1071777":6719,"1227290":6720,"568789":6721,"nbm":6722,"568516":6723,"1103842":6724,"504812":6725,"554462":6726,"974620":6727,"ĠHydrophil":6728,"978498":6729,"ĠHydrophilite":6730,"1502":6731,"255":6732,"2503":6733,"2700":6734,"2434":6735,"380":6736,"363":6737,"5803":6738,"6404":6739,"733":6740,"KCaCl":6741,"VP":6742,"WOs":6743,"ea":6744,"three":6745,"ĠAea":6746,"ĠAlRu":6747,"AlSn":6748,"2034":6749,"2095":6750,"20862":6751,"20849":6752,"20695":6753,"ĠGaCo":6754,"ĠVCr":6755,"ĠNbTc":6756,"PdY":6757,"PdSb":6758,"ĠTaRe":6759,"ĠRhHf":6760,"TiGe":6761,"TiCu":6762,"ĠSbV":6763,"1021":6764,"1052":6765,"1049":6766,"10106":6767,"ĠCoGa":6768,"ĠGeTa":6769,"ĠGeGaGe":6770,"GeP":6771,"1264":6772,"12772":6773,"ĠAuZr":6774,"SnBi":6775,"RhN":6776,"RhRu":6777,"CuP":6778,"AgCu":6779,"MoRe":6780,"ĠRbP":6781,"HfFe":6782,"HfBi":6783,"ĠPbHg":6784,"6762":6785,"ĠCdIn":6786,"ĠCdSr":6787,"1115":6788,"1175":6789,"1136":6790,"AuIn":6791,"RuNi":6792,"6938":6793,"1648":6794,"16960":6795,"NbSb":6796,"NbRe":6797,"CaSb":6798,"ĠCsAu":6799,"CdP":6800,"ĠReTa":6801,"15965":6802,"8625":6803,"8629":6804,"2322":6805,"23279":6806,"571079":6807,"7493":6808,"TlSr":6809,"2512":6810,"2593":6811,"2582":6812,"798":6813,"1876":6814,"2449":6815,"2490":6816,"ReTa":6817,"726":6818,"13164":6819,"RbH":6820,"RbAs":6821,"RbPbCl":6822,"9922":6823,"9998":6824,"2775":6825,"2667":6826,"1793":6827,"11875":6828,"12280":6829,"11462":6830,"1183227":6831,"1183224":6832,"1183777":6833,"1220003":6834,"1079131":6835,"569867":6836,"567313":6837,"1187241":6838,"1219503":6839,"1219734":6840,"10802":6841,"1080121":6842,"1080608":6843,"1080448":6844,"30875":6845,"1217422":6846,"1217894":6847,"1223773":6848,"11261":6849,"1188303":6850,"1184905":6851,"1007857":6852,"1186047":6853,"1186030":6854,"570428":6855,"22050":6856,"568792":6857,"568718":6858,"11550":6859,"ĠSeRbBi":6860,"20485":6861,"1224390":6862,"21276":6863,"1184713":6864,"30483":6865,"ĠPca":6866,"1225186":6867,"1072429":6868,"1228901":6869,"570895":6870,"27413":6871,"12593":6872,"672222":6873,"17974":6874,"24721":6875,"571636":6876,"14288":6877,"570651":6878,"17190":6879,"6432":6880,"17449":6881,"2404":6882,"972069":6883,"972088":6884,"13871":6885,"865910":6886,"1187811":6887,"1229012":6888,"567397":6889,"706531":6890,"1179656":6891,"1078989":6892,"1096915":6893,"990532":6894,"990090":6895,"1196961":6896,"574379":6897,"567929":6898,"1198692":6899,"1106381":6900,"1228491":6901,"1091375":6902,"23870":6903,"1066136":6904,"542569":6905,"628773":6906,"984744":6907,"1095024":6908,"984698":6909,"977189":6910,"978974":6911,"1212407":6912,"1197242":6913,"580357":6914,"640416":6915,"189":6916,"1825":6917,"265":6918,"21187":6919,"2758":6920,"2500":6921,"560":6922,"51069":6923,"5104":6924,"712":6925,"9122":6926,"PK":6927,"VH":6928,"YRu":6929,"nner":6930,"renner":6931,"ĠNMo":6932,"ĠAlCrFe":6933,"âĤĥâĤĤ":6934,"AlNiGe":6935,"ĠZrAg":6936,"2002":6937,"ĠSeTl":6938,"ĠSeSbPt":6939,"ĠYCl":6940,"ĠTePIr":6941,"PdAs":6942,"ĠAsCuTe":6943,"AsK":6944,"ĠTaNbW":6945,"8071":6946,"TiRe":6947,"ĠSbPd":6948,"ĠSbSc":6949,"1046":6950,"1073":6951,"10744":6952,"1021328":6953,"ĠCoBi":6954,"PtSc":6955,"GaH":6956,"ĠKrenner":6957,"ĠFeAl":6958,"12700":6959,"12735":6960,"RhPd":6961,"ĠBiRb":6962,"ĠBiSbTe":6963,"HfGe":6964,"ĠPbBi":6965,"6753":6966,"1173":6967,"1118":6968,"11675":6969,"11191":6970,"AuSc":6971,"CoRu":6972,"0528":6973,"CaBi":6974,"CdCa":6975,"5558":6976,"558071":6977,"22568":6978,"22692":6979,"1591":6980,"2179":6981,"ĠOsGe":6982,"CrCl":6983,"234":6984,"2349":6985,"23713":6986,"890":6987,"8937":6988,"4647":6989,"7441":6990,"7045":6991,"7509":6992,"1941":6993,"19713":6994,"458":6995,"18192":6996,"2469":6997,"6049":6998,"604647":6999,"5681":7000,"568607":7001,"1326":7002,"492":7003,"63633":7004,"630528":7005,"9907":7006,"9925":7007,"2767":7008,"2715":7009,"1708":7010,"1755":7011,"17332":7012,"30336":7013,"1201":7014,"12015":7015,"CsSn":7016,"11033":7017,"11885":7018,"12262":7019,"ĠAlNiGe":7020,"1216851":7021,"1216195":7022,"1077045":7023,"1186175":7024,"12200":7025,"1220085":7026,"1079182":7027,"569426":7028,"ĠKKAs":7029,"567207":7030,"567832":7031,"1215274":7032,"1187697":7033,"1187525":7034,"1187077":7035,"1018128":7036,"1217092":7037,"12239":7038,"1223860":7039,"11288":7040,"11256":7041,"11287":7042,"1188283":7043,"1188462":7044,"ĠAsTeOs":7045,"10047":7046,"10004":7047,"1184670":7048,"ĠSCoNi":7049,"ĠNYSc":7050,"1062030":7051,"1087509":7052,"ĠAlPS":7053,"1018054":7054,"2126":7055,"1189230":7056,"29619":7057,"1184791":7058,"1339":7059,"ĠTeAsOs":7060,"13683":7061,"2809":7062,"1103536":7063,"ĠSeSbOs":7064,"1008601":7065,"570870":7066,"570844":7067,"1226716":7068,"15954":7069,"865565":7070,"865598":7071,"27411":7072,"672256":7073,"865362":7074,"1882":7075,"ĠSeAsRh":7076,"607450":7077,"1228803":7078,"ĠSeMnZn":7079,"1094267":7080,"1199503":7081,"998979":7082,"976128":7083,"28353":7084,"1341":7085,"1102384":7086,"ĠNScTi":7087,"28266":7088,"1217363":7089,"17045":7090,"17013":7091,"1187243":7092,"972071":7093,"17564":7094,"542640":7095,"542634":7096,"23253":7097,"1106023":7098,"1220645":7099,"31493":7100,"632219":7101,"1187196":7102,"570483":7103,"570491":7104,"27838":7105,"1190736":7106,"574338":7107,"1079796":7108,"1084800":7109,"30180":7110,"1476":7111,"1056308":7112,"982871":7113,"1064497":7114,"510691":7115,"ĠAsCuTeAs":7116,"ĠKrennerite":7117,"636334":7118,"153":7119,"1501":7120,"285":7121,"277":7122,"2856":7123,"351":7124,"399":7125,"5837":7126,"640":7127,"7092":7128,"7674":7129,"853":7130,"987":7131,"9938":7132,"YPb":7133,"five":7134,"mnc":7135,"ĠSul":7136,"ĠPma":7137,"ĠCaFe":7138,"ĠHfIn":7139,"20191":7140,"20327":7141,"ĠSeV":7142,"ĠVOs":7143,"PdGe":7144,"ĠWHf":7145,"10026":7146,"10159":7147,"10125":7148,"10052":7149,"PtSb":7150,"ĠKNa":7151,"ĠCrSbAs":7152,"ĠFeV":7153,"1278":7154,"12107":7155,"12594":7156,"12778":7157,"12595":7158,"ĠAuPb":7159,"SnSi":7160,"CuRh":7161,"CuIr":7162,"AgHg":7163,"AgInS":7164,"MoCo":7165,"ZrW":7166,"ZrRu":7167,"ZrCr":7168,"ZrMoAl":7169,"ĠRbAs":7170,"ĠRbPbCl":7171,"HfCd":7172,"6750":7173,"6726":7174,"672204":7175,"3342":7176,"1638":7177,"TaGa":7178,"22735":7179,"1550":7180,"1585":7181,"1578":7182,"402":7183,"0220":7184,"HgCd":7185,"MnRh":7186,"MnCo":7187,"SrIrIn":7188,"2354":7189,"23157":7190,"461":7191,"6614":7192,"703":7193,"1984":7194,"7373":7195,"6849":7196,"6037":7197,"976765":7198,"5193":7199,"1444":7200,"638":7201,"636614":7202,"2786":7203,"12054":7204,"12085":7205,"1200220":7206,"CsPbCl":7207,"CsSrCl":7208,"11010":7209,"11046":7210,"12175":7211,"11412":7212,"11416":7213,"11440":7214,"temperature":7215,"1216675":7216,"1216231":7217,"1183989":7218,"1183511":7219,"1186853":7220,"1079296":7221,"569423":7222,"1017565":7223,"867303":7224,"867126":7225,"1080459":7226,"30877":7227,"30856":7228,"1018115":7229,"1018123":7230,"1217961":7231,"1221697":7232,"1188336":7233,"1078500":7234,"ĠCdTeSe":7235,"1007758":7236,"11393":7237,"30354":7238,"568745":7239,"1077116":7240,"1077083":7241,"1224383":7242,"1056037":7243,"1184709":7244,"16718":7245,"16756":7246,"573763":7247,"30571":7248,"1218017":7249,"10695":7250,"977129":7251,"1102895":7252,"9895":7253,"15953":7254,"22154":7255,"865342":7256,"1079945":7257,"1094272":7258,"20033":7259,"1193055":7260,"1184511":7261,"1205301":7262,"1103252":7263,"849059":7264,"685124":7265,"685149":7266,"1104165":7267,"1014229":7268,"1739":7269,"19905":7270,"1217192":7271,"1206704":7272,"21182":7273,"18032":7274,"1070103":7275,"1104341":7276,"28246":7277,"557719":7278,"569639":7279,"568018":7280,"1217048":7281,"1191538":7282,"975519":7283,"1103038":7284,"1095177":7285,"971662":7286,"2637":7287,"1183040":7288,"1017545":7289,"862871":7290,"1101121":7291,"510522":7292,"784630":7293,"1061861":7294,"1206927":7295,"583740":7296,"767469":7297,"ĠSulvanite":7298,"11220":7299,"1547":7300,"261":7301,"2861":7302,"2670":7303,"2648":7304,"342":7305,"6âĤģ":7306,"767":7307,"991":7308,"PCl":7309,"VRe":7310,"YP":7311,"YS":7312,"YFe":7313,"YPtGe":7314,"six":7315,"ĠCS":7316,"ĠPMn":7317,"ĠHRh":7318,"ĠHCr":7319,"vell":7320,"ĠHfRh":7321,"2086":7322,"2081":7323,"ĠSiRu":7324,"ĠSiCl":7325,"ĠGaGe":7326,"ĠGaMo":7327,"ĠGaBi":7328,"SiCl":7329,"TeP":7330,"TeCl":7331,"ĠSrCa":7332,"TiAg":7333,"ĠSbN":7334,"ĠSbZr":7335,"ĠSbCd":7336,"10759":7337,"ĠCoNiTe":7338,"ĠCovell":7339,"ĠSnCo":7340,"ĠCrH":7341,"ĠCrPt":7342,"ĠFePd":7343,"ĠFeRu":7344,"ĠMnCl":7345,"1297":7346,"1251":7347,"12139":7348,"12802":7349,"SnGe":7350,"ĠRuNb":7351,"AgIn":7352,"ĠIrHf":7353,"5412":7354,"5409":7355,"5406":7356,"4306":7357,"1195":7358,"11192":7359,"11690":7360,"9692":7361,"IrY":7362,"1642":7363,"1683":7364,"1628":7365,"16514":7366,"TaSe":7367,"056":7368,"CaSe":7369,"5555":7370,"ĠTcTa":7371,"ĠTcOs":7372,"ĠReAs":7373,"2231":7374,"PbP":7375,"PbSnS":7376,"2187":7377,"8881":7378,"NaS":7379,"NaSbSe":7380,"CrH":7381,"CrNi":7382,"Ġmonox":7383,"HgGa":7384,"2318":7385,"23179":7386,"571247":7387,"664":7388,"668":7389,"7440":7390,"8361":7391,"1925":7392,"1958":7393,"7343":7394,"OsAs":7395,"2420":7396,"2455":7397,"6080":7398,"9785":7399,"9752":7400,"6444":7401,"TcZn":7402,"TcTa":7403,"7289":7404,"294":7405,"1359":7406,"13156":7407,"499":7408,"630":7409,"611219":7410,"RbSrCl":7411,"995":7412,"27166":7413,"2685":7414,"17123":7415,"30673":7416,"30337":7417,"1201836":7418,"CsTe":7419,"11022":7420,"11024":7421,"1214306":7422,"1228607":7423,"11411":7424,"1216242":7425,"1071078":7426,"1072086":7427,"1183214":7428,"1183643":7429,"1183137":7430,"ĠCoPS":7431,"1220678":7432,"1079832":7433,"569979":7434,"569152":7435,"569776":7436,"ĠSCuBi":7437,"867212":7438,"1187884":7439,"1018672":7440,"1224803":7441,"1217166":7442,"12217":7443,"1184121":7444,"1184119":7445,"11397":7446,"22079":7447,"30367":7448,"10259":7449,"ĠSSnSb":7450,"11899":7451,"30412":7452,"30485":7453,"1229092":7454,"12779":7455,"ĠPKTeP":7456,"979261":7457,"1188042":7458,"15681":7459,"30746":7460,"30744":7461,"1009733":7462,"971909":7463,"31150":7464,"999204":7465,"999192":7466,"1078638":7467,"1209024":7468,"865425":7469,"1883":7470,"16528":7471,"850083":7472,"1094254":7473,"1184554":7474,"1205346":7475,"1057015":7476,"571053":7477,"1207380":7478,"1018149":7479,"6430":7480,"17413":7481,"568320":7482,"570560":7483,"1216486":7484,"27606":7485,"1219533":7486,"19724":7487,"978531":7488,"570751":7489,"972351":7490,"866022":7491,"866006":7492,"776470":7493,"1017985":7494,"680576":7495,"972220":7496,"972228":7497,"1080043":7498,"30045":7499,"568936":7500,"1187154":7501,"1077365":7502,"11572":7503,"1190774":7504,"1103643":7505,"17216":7506,"672326":7507,"985451":7508,"949029":7509,"1079467":7510,"1080493":7511,"556516":7512,"1190267":7513,"36216":7514,"20599":7515,"554609":7516,"ĠPMnNbP":7517,"ĠCovellite":7518,"Ġmonoxide":7519,"1894":7520,"1534":7521,"2857":7522,"385":7523,"389":7524,"358":7525,"31214":7526,"518":7527,"510032":7528,"619":7529,"709":7530,"7549":7531,"7162":7532,"7818":7533,"842":7534,"SK":7535,"SY":7536,"WC":7537,"Ġber":7538,"lia":7539,"ĠZrMn":7540,"20131":7541,"yllia":7542,"ĠYPd":7543,"FePt":7544,"ĠMoC":7545,"ĠSrCaSi":7546,"TiHg":7547,"ĠWC":7548,"1022":7549,"1024":7550,"10025":7551,"10886":7552,"GaC":7553,"1232":7554,"ZnTc":7555,"ĠAuSb":7556,"SnHg":7557,"RhH":7558,"CuHf":7559,"AgSbS":7560,"MoC":7561,"ZrOs":7562,"ĠIrCl":7563,"5417":7564,"5428":7565,"439":7566,"333":7567,"11573":7568,"11460":7569,"RuPt":7570,"IrTa":7571,"IrZrSn":7572,"5046":7573,"1627":7574,"NbAu":7575,"TaCl":7576,"TaTc":7577,"057":7578,"CdAl":7579,"5588":7580,"5557":7581,"5583":7582,"2243":7583,"PbMo":7584,"1526":7585,"15964":7586,"2194":7587,"21400":7588,"NaSbS":7589,"ĠOsSe":7590,"8624":7591,"MnRu":7592,"SrCa":7593,"2305":7594,"2379":7595,"2398":7596,"8312":7597,"790":7598,"685022":7599,"OsSe":7600,"OsTe":7601,"1874":7602,"2480":7603,"976419":7604,"TcS":7605,"TcSi":7606,"5134":7607,"5613":7608,"568646":7609,"848":7610,"1412":7611,"7667":7612,"1321":7613,"1357":7614,"1393":7615,"1397":7616,"1304":7617,"32868":7618,"9481":7619,"2753":7620,"2686":7621,"12065":7622,"1105134":7623,"12177":7624,"12278":7625,"1186100":7626,"1186115":7627,"1186968":7628,"1186017":7629,"1969":7630,"1079082":7631,"1079172":7632,"8672":7633,"867202":7634,"567276":7635,"11922":7636,"1219539":7637,"1018105":7638,"1221429":7639,"1123":7640,"11227":7641,"1188926":7642,"10784":7643,"ĠPZnP":7644,"1186031":7645,"11342":7646,"22075":7647,"1018055":7648,"21294":7649,"1331":7650,"974558":7651,"1184657":7652,"30581":7653,"30572":7654,"12322":7655,"979115":7656,"571547":7657,"571499":7658,"1206431":7659,"1105666":7660,"1023926":7661,"15622":7662,"1215518":7663,"2802":7664,"1863":7665,"18614":7666,"ĠNAlGa":7667,"1103139":7668,"983459":7669,"16522":7670,"1226718":7671,"1226726":7672,"865385":7673,"1079910":7674,"1079997":7675,"2168":7676,"607138":7677,"974326":7678,"1199529":7679,"998981":7680,"998972":7681,"14018":7682,"24726":7683,"571640":7684,"571651":7685,"1102364":7686,"18063":7687,"1216480":7688,"CaPdIn":7689,"1215783":7690,"1207781":7691,"1096861":7692,"680731":7693,"977390":7694,"974951":7695,"684799":7696,"862620":7697,"568971":7698,"1102900":7699,"1077372":7700,"697179":7701,"632319":7702,"1185042":7703,"571264":7704,"1095269":7705,"971661":7706,"14587":7707,"1084753":7708,"567596":7709,"569360":7710,"999318":7711,"1226170":7712,"1105633":7713,"1077723":7714,"1002122":7715,"1194653":7716,"1208406":7717,"38511":7718,"38970":7719,"754954":7720,"Ġberyllia":7721,"504659":7722,"555763":7723,"558378":7724,"561320":7725,"246":7726,"2103":7727,"2730":7728,"2451":7729,"350":7730,"321":7731,"376":7732,"488":7733,"593":7734,"583":7735,"646":7736,"762":7737,"7897":7738,"872":7739,"YCoGa":7740,"YIrSi":7741,"ĠNS":7742,"ĠNTc":7743,"ĠPTe":7744,"âĤĤâĤĤ":7745,"âĤģâĤĪ":7746,"AlY":7747,"AlTa":7748,"ĠPdCr":7749,"ĠZrTiSe":7750,"20900":7751,"InAs":7752,"ĠNaSn":7753,"ĠAsRb":7754,"TiSn":7755,"TiIr":7756,"ĠSbOs":7757,"ĠGeFe":7758,"ĠGeZr":7759,"NiRu":7760,"GaAg":7761,"ĠKBi":7762,"1299":7763,"12892":7764,"ZnSr":7765,"AgBi":7766,"AgBiS":7767,"ZrTc":7768,"ĠIron":7769,"ĠRbNa":7770,"6755":7771,"1159":7772,"1135":7773,"11977":7774,"11549":7775,"11714":7776,"11473":7777,"11506":7778,"AuBi":7779,"962":7780,"Ġ81":7781,"IrAu":7782,"IrBi":7783,"1682":7784,"1618":7785,"TaH":7786,"ScCl":7787,"5567":7788,"ĠTcY":7789,"2260":7790,"22192":7791,"22856":7792,"22795":7793,"ĠHgP":7794,"ĠHgTl":7795,"1582":7796,"15624":7797,"8891":7798,"8635":7799,"8639":7800,"HgBi":7801,"HgCl":7802,"HgPb":7803,"MnSn":7804,"2371":7805,"2377":7806,"838":7807,"TlBi":7808,"7553":7809,"1950":7810,"2507":7811,"732":7812,"OsN":7813,"976971":7814,"973342":7815,"TcN":7816,"ReSe":7817,"RePd":7818,"ReNi":7819,"ReMo":7820,"5911":7821,"5682":7822,"568619":7823,"148":7824,"1411":7825,"295":7826,"1371":7827,"32697":7828,"9984":7829,"1775":7830,"30672":7831,"30471":7832,"30674":7833,"30479":7834,"31205":7835,"110188":7836,"1105911":7837,"1181222":7838,"12240":7839,"10953":7840,"1091415":7841,"1183205":7842,"1183647":7843,"1079297":7844,"10254":7845,"10296":7846,"10285":7847,"569544":7848,"569815":7849,"569794":7850,"10155":7851,"10193":7852,"1018948":7853,"567525":7854,"567612":7855,"11940":7856,"1187073":7857,"1080522":7858,"ĠSSbOs":7859,"1217429":7860,"1217168":7861,"1221413":7862,"1223503":7863,"11230":7864,"1188393":7865,"10009":7866,"1186967":7867,"1186926":7868,"1007656":7869,"570130":7870,"22033":7871,"30343":7872,"30368":7873,"16610":7874,"1018056":7875,"1018027":7876,"10388":7877,"30686":7878,"1184704":7879,"13364":7880,"16723":7881,"862798":7882,"1184681":7883,"CuAlS":7884,"12724":7885,"CaZnSi":7886,"1215497":7887,"1215401":7888,"30594":7889,"1218044":7890,"571557":7891,"1023900":7892,"15650":7893,"12465":7894,"2808":7895,"ĠSCrCu":7896,"1072645":7897,"1103570":7898,"1025397":7899,"971673":7900,"971779":7901,"ĠSrSnP":7902,"1008488":7903,"570875":7904,"1226728":7905,"999544":7906,"865357":7907,"1187946":7908,"16529":7909,"8500":7910,"850068":7911,"974370":7912,"975834":7913,"24723":7914,"1185099":7915,"1226086":7916,"1734":7917,"11795":7918,"1179094":7919,"22812":7920,"1207392":7921,"1018148":7922,"985806":7923,"21589":7924,"570578":7925,"2824":7926,"1025551":7927,"17728":7928,"1187257":7929,"1077978":7930,"1178745":7931,"1017987":7932,"569624":7933,"1101754":7934,"1101783":7935,"1219396":7936,"1220657":7937,"567705":7938,"861610":7939,"1207004":7940,"ĠPCuP":7941,"1087219":7942,"32682":7943,"17615":7944,"542454":7945,"983388":7946,"29266":7947,"568746":7948,"1102616":7949,"1226933":7950,"1006132":7951,"867816":7952,"1077482":7953,"1068510":7954,"620471":7955,"1195735":7956,"974455":7957,"1216519":7958,"978553":7959,"1232213":7960,"ĠPTeIr":7961,"1101884":7962,"1700":7963,"2677":7964,"2663":7965,"486":7966,"6200":7967,"924":7968,"9227":7969,"POs":7970,"YWN":7971,"ĠInSnCl":7972,"ĠPCuSi":7973,"ĠPNbP":7974,"AlRe":7975,"AlPS":7976,"ĠCaTi":7977,"ĠCaCo":7978,"ĠHfSc":7979,"2053":7980,"ĠSeCl":7981,"ĠSePOs":7982,"ĠYAs":7983,"InSb":7984,"InSnCl":7985,"FeNiSb":7986,"ĠCuPt":7987,"ĠCuAsS":7988,"1020":7989,"1093":7990,"10569":7991,"10229":7992,"NiCoGe":7993,"GaPt":7994,"1281":7995,"1239":7996,"12699":7997,"ZnCu":7998,"CuAs":7999,"CuPb":8000,"NHS":8001,"AgAu":8002,"ZrCoGa":8003,"HfW":8004,"HfCuGe":8005,"542339":8006,"11514":8007,"0894":8008,"CoCu":8009,"CoBi":8010,"ĠClCu":8011,"5053":8012,"5056":8013,"1630":8014,"CdSe":8015,"ĠTcSb":8016,"2223":8017,"2258":8018,"2261":8019,"2291":8020,"22704":8021,"PbAs":8022,"1589":8023,"217":8024,"NaSi":8025,"CrGe":8026,"HgP":8027,"2319":8028,"5709":8029,"TlSb":8030,"7582":8031,"7583":8032,"7564":8033,"1943":8034,"19795":8035,"7916":8036,"738":8037,"9728":8038,"ReP":8039,"041":8040,"727":8041,"728":8042,"7260":8043,"1340":8044,"1379":8045,"632":8046,"927":8047,"9254":8048,"9262":8049,"32669":8050,"9920":8051,"9947":8052,"9945":8053,"995193":8054,"982261":8055,"30463":8056,"1200894":8057,"CsP":8058,"11050":8059,"11039":8060,"12147":8061,"11457":8062,"1216498":8063,"10711":8064,"10783":8065,"1079776":8066,"1079438":8067,"10276":8068,"5698":8069,"569989":8070,"569322":8071,"569837":8072,"569727":8073,"567484":8074,"567540":8075,"ĠSZnCd":8076,"11943":8077,"11906":8078,"1191079":8079,"1187717":8080,"1080376":8081,"30882":8082,"ĠSnTePd":8083,"ĠGeTeRh":8084,"1223714":8085,"1188155":8086,"1188645":8087,"1188890":8088,"ĠSiPH":8089,"ĠTeGePb":8090,"1184676":8091,"1184804":8092,"1186974":8093,"1186970":8094,"1186976":8095,"ĠNTaMo":8096,"10258":8097,"1039262":8098,"29661":8099,"1184772":8100,"30496":8101,"30481":8102,"1672":8103,"866121":8104,"1215488":8105,"1206573":8106,"1067210":8107,"1105935":8108,"1105852":8109,"1105651":8110,"1069815":8111,"28056":8112,"1868":8113,"TiPdGe":8114,"20905":8115,"1558":8116,"1078696":8117,"12657":8118,"16315":8119,"972828":8120,"27902":8121,"2160":8122,"ĠAlVCo":8123,"1187952":8124,"20320":8125,"ĠSeAsRu":8126,"1400":8127,"1404":8128,"20050":8129,"CaPtIn":8130,"1228882":8131,"864794":8132,"19880":8133,"1217971":8134,"1217210":8135,"862779":8136,"571059":8137,"570684":8138,"17146":8139,"568380":8140,"1104327":8141,"1214894":8142,"559676":8143,"1224223":8144,"1183489":8145,"972326":8146,"866046":8147,"29711":8148,"1106195":8149,"568067":8150,"684650":8151,"30021":8152,"861630":8153,"ĠCmme":8154,"865176":8155,"1206371":8156,"1096992":8157,"555283":8158,"542484":8159,"23299":8160,"1120739":8161,"1936":8162,"672313":8163,"ĠGaCuPt":8164,"SSOs":8165,"21873":8166,"1227285":8167,"7790":8168,"nbc":8169,"20061":8170,"966800":8171,"510209":8172,"1211471":8173,"1181940":8174,"32994":8175,"1103512":8176,"1094136":8177,"1228524":8178,"1191083":8179,"753304":8180,"1190841":8181,"20027":8182,"1201560":8183,"sixth":8184,"608072":8185,"619071":8186,"558811":8187,"620032":8188,"1093999":8189,"1056985":8190,"250":8191,"2828":8192,"2578":8193,"5826":8194,"746":8195,"7670":8196,"7539":8197,"820":8198,"8200":8199,"956":8200,"9888":8201,"NS":8202,"PTe":8203,"WMo":8204,"YCo":8205,"Ġmvc":8206,"âĤĦâĤħ":8207,"romium":8208,"ĠCaRh":8209,"ĠNiRu":8210,"ĠZrFe":8211,"ĠZrRu":8212,"2072":8213,"20074":8214,"20826":8215,"ĠGaTc":8216,"ĠGaBiAs":8217,"FeCu":8218,"ĠNbWS":8219,"ĠNbMoSe":8220,"SiSb":8221,"ĠTeRh":8222,"ĠZnSiNi":8223,"TiTaFe":8224,"ĠSbZn":8225,"106043":8226,"ĠCoCl":8227,"PtC":8228,"PtIn":8229,"ĠAgZr":8230,"12109":8231,"ZnSi":8232,"ZnSb":8233,"ZnHg":8234,"RhY":8235,"RhCu":8236,"RhZrSn":8237,"CuH":8238,"AgSi":8239,"ZrV":8240,"ZrRe":8241,"ĠIrCa":8242,"5410":8243,"ĠPbN":8244,"6736":8245,"3314":8246,"1170":8247,"1197":8248,"11814":8249,"11449":8250,"RuZn":8251,"IrPd":8252,"IrCu":8253,"IrSc":8254,"1602":8255,"NbFe":8256,"NbNi":8257,"CaRh":8258,"ĠCsP":8259,"ScBi":8260,"2242":8261,"2221":8262,"22862":8263,"22889":8264,"1592":8265,"2142":8266,"NaBiS":8267,"ĠOsHf":8268,"8632":8269,"064":8270,"SrRh":8271,"23167":8272,"23291":8273,"8282":8274,"19717":8275,"19814":8276,"OsPd":8277,"OsRh":8278,"2418":8279,"24155":8280,"048":8281,"1392":8282,"13503":8283,"9016":8284,"RbGe":8285,"9986":8286,"3509":8287,"982070":8288,"30338":8289,"31430":8290,"12032":8291,"11027":8292,"12162":8293,"1183206":8294,"1183216":8295,"1186231":8296,"1186964":8297,"10790":8298,"569250":8299,"867841":8300,"1215503":8301,"11912":8302,"1199016":8303,"1187969":8304,"1187541":8305,"1187739":8306,"30884":8307,"1018807":8308,"1224809":8309,"1224475":8310,"1217113":8311,"ĠPCaSi":8312,"1221422":8313,"1129":8314,"1188869":8315,"ĠChromium":8316,"1003509":8317,"1184994":8318,"1184693":8319,"1186955":8320,"1063314":8321,"1186016":8322,"570451":8323,"ĠAsZnSn":8324,"30383":8325,"1077263":8326,"16608":8327,"1224388":8328,"ĠInAsP":8329,"30619":8330,"30684":8331,"865077":8332,"973143":8333,"29642":8334,"30494":8335,"571505":8336,"1690":8337,"1225676":8338,"1225656":8339,"1009460":8340,"971751":8341,"21065":8342,"21030":8343,"ĠKSbCl":8344,"16511":8345,"999549":8346,"1078666":8347,"31010":8348,"31086":8349,"31019":8350,"ĠTiCuNi":8351,"555935":8352,"16319":8353,"2797":8354,"865382":8355,"1791":8356,"1079914":8357,"867317":8358,"980420":8359,"980094":8360,"1205322":8361,"669546":8362,"CaHgSn":8363,"571642":8364,"571664":8365,"1208221":8366,"1014219":8367,"1057286":8368,"13450":8369,"20847":8370,"1190136":8371,"28879":8372,"28878":8373,"1179336":8374,"570687":8375,"570632":8376,"1206780":8377,"1018154":8378,"21170":8379,"985829":8380,"568376":8381,"1120774":8382,"1217322":8383,"1219522":8384,"1216325":8385,"1187812":8386,"23193":8387,"24286":8388,"1178983":8389,"1224840":8390,"861910":8391,"972941":8392,"1219922":8393,"684798":8394,"32654":8395,"22682":8396,"505510":8397,"AlFeY":8398,"569708":8399,"627397":8400,"863648":8401,"1102657":8402,"1087486":8403,"1079496":8404,"569007":8405,"1062758":8406,"505002":8407,"755453":8408,"568865":8409,"1206819":8410,"616559":8411,"1101145":8412,"623511":8413,"510412":8414,"540912":8415,"541788":8416,"542812":8417,"24650":8418,"755328":8419,"1038828":8420,"850014":8421,"582681":8422,"753921":8423,"1060435":8424,"673633":8425,"1460":8426,"1826":8427,"1431":8428,"271":8429,"2156":8430,"2698":8431,"2701":8432,"5541":8433,"618":8434,"873":8435,"SH":8436,"VC":8437,"WMn":8438,"YOs":8439,"nnc":8440,"ĠCRe":8441,"âĤĤâĤĩ":8442,"ĠTiSnRh":8443,"AlNb":8444,"ĠPdS":8445,"ĠZrCd":8446,"2052":8447,"2089":8448,"2049":8449,"20123":8450,"20311":8451,"20465":8452,"ĠYRu":8453,"InPt":8454,"SiRe":8455,"ĠGeCr":8456,"NiN":8457,"NiSn":8458,"NiIr":8459,"ĠKSi":8460,"ĠFeCu":8461,"1282":8462,"12628":8463,"12777":8464,"ZnSiAs":8465,"ĠAuSc":8466,"ĠAuTl":8467,"SnPd":8468,"093":8469,"ĠRuGe":8470,"AgInSe":8471,"AgSbSe":8472,"MoZn":8473,"ĠRbSrCl":8474,"HfH":8475,"334":8476,"33024":8477,"11828":8478,"11474":8479,"AuSi":8480,"AuZr":8481,"AuHf":8482,"6986":8483,"IrCo":8484,"5052":8485,"ĠTlIn":8486,"1606":8487,"NbMoSe":8488,"0588":8489,"CaAl":8490,"BiBi":8491,"ScAs":8492,"ScPb":8493,"5587":8494,"2282":8495,"22693":8496,"22236":8497,"ĠHgCl":8498,"8810":8499,"NaBiSe":8500,"8642":8501,"8648":8502,"HgSn":8503,"SrSe":8504,"23759":8505,"931":8506,"TlCaCl":8507,"194":8508,"1914":8509,"OsCl":8510,"9721":8511,"049":8512,"5610":8513,"560588":8514,"7273":8515,"1469":8516,"761":8517,"637":8518,"639":8519,"63980":8520,"32861":8521,"9921":8522,"27731":8523,"27258":8524,"1743":8525,"31472":8526,"12078":8527,"12087":8528,"CsCaCl":8529,"11062":8530,"12185":8531,"12220":8532,"12245":8533,"1216173":8534,"1216300":8535,"10775":8536,"10781":8537,"1183542":8538,"1186127":8539,"ĠMoSSe":8540,"1220079":8541,"1220631":8542,"1079094":8543,"10212":8544,"10284":8545,"10287":8546,"20685":8547,"1187248":8548,"1080657":8549,"30885":8550,"30840":8551,"ĠWSCl":8552,"12213":8553,"1221793":8554,"1221425":8555,"1223755":8556,"11263":8557,"11228":8558,"11239":8559,"1188913":8560,"10014":8561,"1078755":8562,"1078443":8563,"1078780":8564,"1186916":8565,"1186977":8566,"1186990":8567,"1007755":8568,"570670":8569,"WSCl":8570,"21237":8571,"1178810":8572,"865899":8573,"973092":8574,"973676":8575,"12469":8576,"974437":8577,"974430":8578,"30482":8579,"1229015":8580,"1229101":8581,"1229100":8582,"1215437":8583,"30787":8584,"1215598":8585,"28026":8586,"CoNiTe":8587,"971788":8588,"1228947":8589,"1180309":8590,"1209828":8591,"1220322":8592,"850131":8593,"YPdZn":8594,"974358":8595,"974335":8596,"1205379":8597,"19879":8598,"1104898":8599,"ScRhGe":8600,"13447":8601,"1206741":8602,"1104010":8603,"1104019":8604,"1216621":8605,"21945":8606,"978546":8607,"570744":8608,"557096":8609,"17593":8610,"1227319":8611,"569683":8612,"1219462":8613,"1078867":8614,"1078875":8615,"567750":8616,"570276":8617,"1219940":8618,"632311":8619,"SSSCs":8620,"862259":8621,"1105778":8622,"ReSiReSi":8623,"568595":8624,"1207193":8625,"1200912":8626,"567597":8627,"769096":8628,"1025039":8629,"556597":8630,"1203353":8631,"1203324":8632,"ĠTiInPd":8633,"999376":8634,"1190908":8635,"755435":8636,"1209003":8637,"1189633":8638,"636328":8639,"1218177":8640,"637255":8641,"1025448":8642,"1179520":8643,"569833":8644,"554134":8645,"1182885":8646,"639805":8647,"1434":8648,"275":8649,"272":8650,"2699":8651,"315":8652,"31219":8653,"481":8654,"582":8655,"650":8656,"771":8657,"879":8658,"953":8659,"947":8660,"9889":8661,"KRh":8662,"KCu":8663,"ĠInBiSe":8664,"ĠPCuSn":8665,"Ġred":8666,"Ġselenium":8667,"ĠCaMnSi":8668,"ĠZrOs":8669,"SeCl":8670,"ĠSeCoNi":8671,"ĠNaV":8672,"ĠNaCu":8673,"ĠNaNb":8674,"FeBi":8675,"SiGe":8676,"ĠTeV":8677,"ĠScH":8678,"ĠScFe":8679,"ĠScRu":8680,"ĠScHg":8681,"ĠScMn":8682,"ĠScTc":8683,"PdSc":8684,"AsCl":8685,"ĠTaMn":8686,"ĠTaWS":8687,"ĠTaNbMo":8688,"ĠTaTiFe":8689,"ĠSrGa":8690,"ĠSrCu":8691,"8046":8692,"8091":8693,"TiRuSi":8694,"10281":8695,"GaHg":8696,"ĠAgSbS":8697,"ĠCrPd":8698,"ĠFeCo":8699,"SbRu":8700,"ĠMnY":8701,"GeC":8702,"GePd":8703,"1244":8704,"12120":8705,"ZnTe":8706,"CuN":8707,"AgMo":8708,"AgSc":8709,"AgGaS":8710,"MoNi":8711,"MoOs":8712,"ĠRbMnAs":8713,"ĠBiPt":8714,"HfNiGa":8715,"HfRhSn":8716,"11541":8717,"11546":8718,"963":8719,"088":8720,"CoTc":8721,"CoSbS":8722,"RuPtAl":8723,"5049":8724,"ĠTlTi":8725,"ĠTlNi":8726,"NbOs":8727,"TaNiP":8728,"CaPdH":8729,"CaMnSi":8730,"ĠCsSrCl":8731,"BiRb":8732,"ScP":8733,"ScHg":8734,"ScRuSi":8735,"5585":8736,"5592":8737,"2211":8738,"PbSnTe":8739,"1554":8740,"1573":8741,"15698":8742,"21895":8743,"8882":8744,"NaCu":8745,"NaFeAs":8746,"8663":8747,"CrIr":8748,"CrOs":8749,"MnCd":8750,"629":8751,"8973":8752,"936":8753,"669692":8754,"8262":8755,"8360":8756,"1902":8757,"7945":8758,"8182":8759,"OsW":8760,"OsZr":8761,"1853":8762,"24161":8763,"6442":8764,"TcAg":8765,"TcCo":8766,"ReCl":8767,"7819":8768,"5686":8769,"29973":8770,"1380":8771,"1361":8772,"491":8773,"636":8774,"RbMnAs":8775,"9147":8776,"32791":8777,"32630":8778,"3657":8779,"9902":8780,"2781":8781,"27165":8782,"2634":8783,"9845":8784,"30536":8785,"31105":8786,"12088":8787,"11018":8788,"12196":8789,"ĠTiAlPd":8790,"12265":8791,"10909":8792,"11837":8793,"1183969":8794,"1183641":8795,"1183143":8796,"1186142":8797,"1186230":8798,"1186060":8799,"1186187":8800,"1220423":8801,"1220401":8802,"1220057":8803,"1220879":8804,"10263":8805,"569678":8806,"569594":8807,"ĠCdAsPd":8808,"867281":8809,"867125":8810,"ĠTiTeS":8811,"567082":8812,"1215543":8813,"11921":8814,"1191483":8815,"1198091":8816,"1187790":8817,"ĠSSbPd":8818,"30867":8819,"1018107":8820,"ĠBiTeIr":8821,"12214":8822,"11237":8823,"ĠNaSbSe":8824,"1188413":8825,"ĠNZrSc":8826,"ĠTeGeRh":8827,"ĠSeBiPt":8828,"ĠClKNa":8829,"ĠNYAl":8830,"10654":8831,"1186040":8832,"570673":8833,"ĠTeBiIr":8834,"568232":8835,"1077232":8836,"ĠTeSnPd":8837,"1039147":8838,"973166":8839,"973149":8840,"ĠHNaCa":8841,"13682":8842,"ĠInSrAu":8843,"979751":8844,"1105836":8845,"ĠPSiP":8846,"20250":8847,"30792":8848,"2807":8849,"28029":8850,"ĠSeSbIr":8851,"21012":8852,"1008626":8853,"31138":8854,"570832":8855,"1226736":8856,"ĠSeCaPb":8857,"ĠSbSbPd":8858,"31053":8859,"1209191":8860,"CaAuIn":8861,"672216":8862,"12910":8863,"14017":8864,"1205321":8865,"849060":8866,"28916":8867,"31313":8868,"1025294":8869,"28885":8870,"571030":8871,"1226021":8872,"10703":8873,"SrPtIn":8874,"27840":8875,"1224485":8876,"ĠSAsPd":8877,"1080022":8878,"1225751":8879,"570287":8880,"862621":8881,"32616":8882,"864889":8883,"1187197":8884,"555293":8885,"1208273":8886,"505528":8887,"571143":8888,"1091387":8889,"612701":8890,"541885":8891,"17880":8892,"ĠAlGaCo":8893,"1103177":8894,"18254":8895,"540791":8896,"542587":8897,"1200988":8898,"1056438":8899,"863750":8900,"1025044":8901,"1181926":8902,"seventh":8903,"1105296":8904,"1188512":8905,"675060":8906,"1205422":8907,"767208":8908,"555599":8909,"1102441":8910,"1192251":8911,"646824":8912,"1197755":8913,"1019319":8914,"505363":8915,"1194350":8916,"1190654":8917,"582549":8918,"ĠPCuSnP":8919,"559278":8920,"2430":8921,"302":8922,"374":8923,"3241":8924,"446":8925,"414":8926,"580":8927,"610":8928,"7541":8929,"7506":8930,"7051":8931,"945":8932,"944":8933,"CAs":8934,"KS":8935,"KNi":8936,"SN":8937,"VCr":8938,"WRe":8939,"YIrGe":8940,"YScS":8941,"hite":8942,"phite":8943,"raphite":8944,"Ġgraphite":8945,"ĠInGaAs":8946,"ĠPHg":8947,"âĤĦâĤĢ":8948,"ĠTiSn":8949,"AlW":8950,"2063":8951,"2039":8952,"20717":8953,"ĠYCu":8954,"InGaAs":8955,"FeIr":8956,"PdNiSi":8957,"ĠAsCr":8958,"TiTa":8959,"TiSeS":8960,"ĠSbMn":8961,"PtSnSb":8962,"NiRh":8963,"ĠAgMo":8964,"ĠFeH":8965,"1210":8966,"1258":8967,"12110":8968,"121223":8969,"12826":8970,"12635":8971,"ZnTi":8972,"SnC":8973,"CuInSe":8974,"AgPd":8975,"AgSb":8976,"HfTeSe":8977,"HfNiSb":8978,"541180":8979,"6751":8980,"1181":8981,"1139":8982,"11730":8983,"087":8984,"CoNiSi":8985,"CoSbSe":8986,"RuAsP":8987,"1662":8988,"16044":8989,"CaRb":8990,"CaIrIn":8991,"CdHg":8992,"PbGe":8993,"1521":8994,"1572":8995,"15700":8996,"887":8997,"7140":8998,"8634":8999,"066":9000,"HgTl":9001,"MnAu":9002,"237":9003,"2363":9004,"8991":9005,"660":9006,"TlAg":9007,"TlHg":9008,"1954":9009,"1907":9010,"1918":9011,"2516":9012,"684":9013,"685048":9014,"9769":9015,"9747":9016,"976847":9017,"ReW":9018,"ReAlGe":9019,"5921":9020,"34202":9021,"844":9022,"7631":9023,"29841":9024,"5850":9025,"1373":9026,"1395":9027,"4979":9028,"6308":9029,"9008":9030,"RbP":9031,"RbAuTe":9032,"8786":9033,"9983":9034,"991900":9035,"30464":9036,"30421":9037,"31103":9038,"CsAg":9039,"11037":9040,"1101178":9041,"1105552":9042,"ĠTiAlCo":9043,"2337":9044,"1216505":9045,"1183158":9046,"1183608":9047,"569857":9048,"569516":9049,"867141":9050,"567279":9051,"12156":9052,"1215971":9053,"1215714":9054,"11933":9055,"1080586":9056,"30853":9057,"30886":9058,"30883":9059,"1018809":9060,"1223837":9061,"11238":9062,"1002063":9063,"1184058":9064,"ĠScAlRh":9065,"1186902":9066,"1186932":9067,"10621":9068,"10682":9069,"30371":9070,"11521":9071,"11566":9072,"ĠSSnPb":9073,"1224342":9074,"1224391":9075,"10564":9076,"11765":9077,"1189099":9078,"1184766":9079,"1229090":9080,"1229048":9081,"571555":9082,"1069841":9083,"22904":9084,"21048":9085,"1008632":9086,"15556":9087,"1218335":9088,"1209498":9089,"20382":9090,"YPdSi":9091,"YPdGe":9092,"1199934":9093,"998985":9094,"ĠInAgS":9095,"1228817":9096,"YRhIn":9097,"CaNiGe":9098,"1218928":9099,"1104074":9100,"1014230":9101,"1190672":9102,"1190478":9103,"862711":9104,"862747":9105,"862770":9106,"571060":9107,"570689":9108,"1226035":9109,"ĠCaCdPd":9110,"1104372":9111,"32811":9112,"1215779":9113,"1215724":9114,"542615":9115,"27821":9116,"684609":9117,"1220634":9118,"1078996":9119,"1219943":9120,"1220441":9121,"1095545":9122,"1184018":9123,"865733":9124,"505527":9125,"1198803":9126,"1223845":9127,"33018":9128,"541656":9129,"1072712":9130,"17848":9131,"ĠAlGaIr":9132,"1079597":9133,"863720":9134,"510521":9135,"1062804":9136,"1246392":9137,"1228753":9138,"1228752":9139,"1094140":9140,"1079260":9141,"866279":9142,"867922":9143,"ĠAlReGe":9144,"862589":9145,"555853":9146,"991544":9147,"1189957":9148,"556742":9149,"1105040":9150,"863261":9151,"1192175":9152,"1212231":9153,"1181961":9154,"483":9155,"4889":9156,"51009":9157,"667":9158,"611":9159,"621":9160,"923":9161,"KZnAs":9162,"VZn":9163,"WFe":9164,"YIrSn":9165,"YCoIn":9166,"ĠSAu":9167,"ĠAlZnIr":9168,"âĤĤâĤĥ":9169,"AlZn":9170,"ĠHfZrS":9171,"ĠZrCo":9172,"2076":9173,"2027":9174,"20648":9175,"20901":9176,"20937":9177,"SeN":9178,"InGe":9179,"ĠNaCa":9180,"ĠNaCaTl":9181,"FeTc":9182,"ĠTeCs":9183,"TiCoGa":9184,"TiNbN":9185,"PtCu":9186,"ĠGeK":9187,"NiMn":9188,"GaTa":9189,"ĠKNbCl":9190,"ĠFeNiSb":9191,"ĠMnCdS":9192,"12627":9193,"1212463":9194,"ZnPb":9195,"ĠAuV":9196,"RhCo":9197,"CuBi":9198,"AgBiTe":9199,"MoAlGe":9200,"ZrFe":9201,"ZrPt":9202,"ĠRbZn":9203,"ĠBiMo":9204,"ĠBiZr":9205,"HfCoP":9206,"HfCoAl":9207,"541582":9208,"ĠPbNi":9209,"4359":9210,"ĠCdN":9211,"ĠCdCo":9212,"ĠCdHg":9213,"1111":9214,"1113":9215,"11713":9216,"11537":9217,"AuN":9218,"070":9219,"CoRh":9220,"RuAu":9221,"6931":9222,"IrN":9223,"5047":9224,"5057":9225,"ĠTlCu":9226,"1608":9227,"TaNbW":9228,"8507":9229,"CaMn":9230,"BiN":9231,"BiMo":9232,"BiZr":9233,"BiSbTe":9234,"CdPt":9235,"CdAu":9236,"ScAu":9237,"ScCoSi":9238,"ScNiGa":9239,"ScCuGa":9240,"555410":9241,"2295":9242,"22700":9243,"22817":9244,"PbSn":9245,"1519":9246,"1581":9247,"15670":9248,"2146":9249,"21901":9250,"NaCa":9251,"NaTiS":9252,"NaAlSi":9253,"NaCaTl":9254,"NaCdSb":9255,"8620":9256,"865680":9257,"CrC":9258,"CrSb":9259,"CrAlGe":9260,"HgIn":9261,"HgGe":9262,"MnCoSi":9263,"MnCdS":9264,"621581":9265,"8311":9266,"TlSn":9267,"TlCu":9268,"1967":9269,"1919":9270,"1848":9271,"24809":9272,"9750":9273,"TcFe":9274,"344":9275,"7250":9276,"299":9277,"29179":9278,"29184":9279,"587":9280,"1345":9281,"13459":9282,"13852":9283,"RbZn":9284,"RbPb":9285,"RbNa":9286,"32884":9287,"32679":9288,"9996":9289,"9946":9290,"998860":9291,"3760":9292,"27800":9293,"27335":9294,"3896":9295,"28229":9296,"1203760":9297,"CsFe":9298,"11060":9299,"11044":9300,"110186":9301,"11843":9302,"1182146":9303,"12246":9304,"12277":9305,"11445":9306,"23304":9307,"ĠTiSiOs":9308,"1220675":9309,"1220151":9310,"1220052":9311,"1079029":9312,"569196":9313,"1018891":9314,"ĠAlNbRu":9315,"567871":9316,"1187152":9317,"1219296":9318,"ĠTiGeRu":9319,"ĠSSbRu":9320,"1224502":9321,"1217076":9322,"ĠTaGeRu":9323,"11241":9324,"1078213":9325,"1078699":9326,"1186973":9327,"ĠNYW":9328,"ĠFeSbTe":9329,"1064359":9330,"10877":9331,"1007923":9332,"1186014":9333,"570801":9334,"ĠSTiCr":9335,"ĠTeSnBi":9336,"1025229":9337,"1018050":9338,"ĠGeGeIr":9339,"ĠSKBi":9340,"ĠInAsSe":9341,"1056486":9342,"2123":9343,"11897":9344,"12454":9345,"29639":9346,"30418":9347,"866108":9348,"866161":9349,"1207421":9350,"979259":9351,"1206898":9352,"1206239":9353,"1067236":9354,"16911":9355,"1188051":9356,"1023937":9357,"20268":9358,"1225811":9359,"1246504":9360,"1009641":9361,"CoNiSb":9362,"1103235":9363,"ĠSFeCo":9364,"1228945":9365,"1228900":9366,"ZrRhGe":9367,"1008274":9368,"ĠHfZnIr":9369,"20723":9370,"20916":9371,"755988":9372,"1215307":9373,"1215315":9374,"11800":9375,"31084":9376,"1209044":9377,"16358":9378,"1220323":9379,"21657":9380,"21681":9381,"21613":9382,"867356":9383,"PdAuZn":9384,"SrAuCd":9385,"1199056":9386,"CaPtP":9387,"1205342":9388,"864798":9389,"28910":9390,"976236":9391,"1208239":9392,"14285":9393,"1104502":9394,"1217901":9395,"1349":9396,"862705":9397,"19954":9398,"22872":9399,"1095427":9400,"1095513":9401,"21525":9402,"1070498":9403,"570553":9404,"2402":9405,"1216440":9406,"CaPdZn":9407,"1187233":9408,"1077942":9409,"1023940":9410,"23037":9411,"505626":9412,"865990":9413,"1078010":9414,"1013545":9415,"1013548":9416,"1205337":9417,"30933":9418,"30999":9419,"SrPdAs":9420,"1101774":9421,"ĠSAsRu":9422,"24289":9423,"1187711":9424,"567345":9425,"567747":9426,"567752":9427,"1224810":9428,"TiPN":9429,"1079600":9430,"1095694":9431,"1184011":9432,"1184021":9433,"11578":9434,"1196393":9435,"RbGaH":9436,"865640":9437,"1103034":9438,"HfRuGe":9439,"1079716":9440,"1215257":9441,"1215275":9442,"1458":9443,"31277":9444,"540703":9445,"642644":9446,"642659":9447,"1227486":9448,"1079399":9449,"1079585":9450,"SbNCa":9451,"628766":9452,"554212":9453,"1226371":9454,"1192532":9455,"1226120":9456,"1213747":9457,"1226445":9458,"1079269":9459,"1189696":9460,"1071269":9461,"862983":9462,"560025":9463,"568186":9464,"568172":9465,"684989":9466,"1213948":9467,"1195198":9468,"644494":9469,"1025906":9470,"1227810":9471,"867262":9472,"505634":9473,"558552":9474,"568636":9475,"1183710":9476,"510099":9477,"505780":9478,"1101860":9479,"2932":9480,"3479":9481,"507":9482,"553":9483,"654":9484,"619905":9485,"7126":9486,"819":9487,"8116":9488,"925":9489,"948":9490,"9339":9491,"KN":9492,"KGe":9493,"KSnSb":9494,"KNbCl":9495,"VRh":9496,"YPS":9497,"YNiAl":9498,"YCuSi":9499,"YCoAl":9500,"YCoSn":9501,"ĠNCu":9502,"ĠInSn":9503,"ĠPCs":9504,"ĠAlInSb":9505,"AlC":9506,"AlGa":9507,"ĠCaMn":9508,"ĠZrGeTe":9509,"ĠZrTiN":9510,"2056":9511,"20935":9512,"ĠSiCoP":9513,"ĠSiSnPd":9514,"InAl":9515,"InAlSb":9516,"ĠNaSr":9517,"ĠNaTiS":9518,"PdTiSi":9519,"PdNiGe":9520,"AsC":9521,"ĠTaTc":9522,"ĠZnGe":9523,"ĠZnSnSb":9524,"8062":9525,"ĠRhH":9526,"TiSnSb":9527,"TiCoSi":9528,"105708":9529,"PtSn":9530,"PtMn":9531,"PtAsP":9532,"ĠGeAl":9533,"NiCa":9534,"GaNi":9535,"GaNb":9536,"ĠKV":9537,"ĠKSnSb":9538,"ĠAgSbTe":9539,"ĠAgSbSe":9540,"ĠAgAsS":9541,"ĠMnRh":9542,"GeZn":9543,"1252":9544,"12116":9545,"121069":9546,"ZnNi":9547,"SnZn":9548,"SnPS":9549,"RhSbS":9550,"CuTc":9551,"AgTl":9552,"AgSbTe":9553,"AgBiSe":9554,"ZrZn":9555,"ZrCo":9556,"ZrGeTe":9557,"ZrTiN":9558,"ZrPtAl":9559,"ĠIrS":9560,"ĠBiNi":9561,"ĠBiCl":9562,"HfRuSi":9563,"HfMnGe":9564,"HfVGe":9565,"5411":9566,"5430":9567,"6727":9568,"33112":9569,"1114":9570,"11693":9571,"11829":9572,"11687":9573,"AuS":9574,"9634":9575,"075":9576,"CoPSe":9577,"RuW":9578,"6973":9579,"Ġ82":9580,"IrCl":9581,"ĠTlV":9582,"1667":9583,"1637":9584,"16421":9585,"CaGa":9586,"CaAlH":9587,"ĠCsAs":9588,"ĠCsCaCl":9589,"BiPd":9590,"ScH":9591,"ScAlGe":9592,"ScPtGe":9593,"ScNiAl":9594,"559634":9595,"ĠTcN":9596,"2296":9597,"22600":9598,"PbSi":9599,"1509":9600,"15668":9601,"NaSr":9602,"476":9603,"ĠOsNb":9604,"8621":9605,"CrZrAl":9606,"065":9607,"HgAs":9608,"MnIn":9609,"MnPt":9610,"MnNi":9611,"MnCl":9612,"MnTc":9613,"SrCaZn":9614,"SrZrS":9615,"2348":9616,"5741":9617,"57289":9618,"7446":9619,"7581":9620,"9762":9621,"972204":9622,"TcCu":9623,"TcMn":9624,"590":9625,"591":9626,"3486":9627,"1498":9628,"7686":9629,"29174":9630,"29465":9631,"5820":9632,"490":9633,"903":9634,"617291":9635,"RbCaCl":9636,"3274":9637,"9916":9638,"9981":9639,"2752":9640,"2760":9641,"27164":9642,"1780":9643,"1725":9644,"30671":9645,"28424":9646,"28704":9647,"120179":9648,"12252":9649,"12268":9650,"11482":9651,"1216166":9652,"1216296":9653,"1216128":9654,"10716":9655,"1183591":9656,"1186374":9657,"1220348":9658,"1079112":9659,"ĠNbGeRu":9660,"10264":9661,"569886":9662,"1215336":9663,"1215338":9664,"1215639":9665,"11916":9666,"11905":9667,"11949":9668,"1187433":9669,"12192":9670,"30866":9671,"1217097":9672,"1221442":9673,"ĠTaTeCl":9674,"22270":9675,"1188977":9676,"1188829":9677,"1188292":9678,"1078466":9679,"ĠSbTePd":9680,"ĠClKPb":9681,"1186923":9682,"10667":9683,"ĠTiGaIr":9684,"10074":9685,"570690":9686,"ĠSiTiCo":9687,"568671":9688,"1025176":9689,"20497":9690,"21289":9691,"973983":9692,"11890":9693,"ĠTeCdHg":9694,"974435":9695,"ĠTiZnCu":9696,"1229118":9697,"1670":9698,"862423":9699,"866187":9700,"1215452":9701,"1215400":9702,"30592":9703,"1218055":9704,"1206157":9705,"1206058":9706,"1206893":9707,"15669":9708,"15685":9709,"12259":9710,"1225998":9711,"1246068":9712,"10441":9713,"CoAsSe":9714,"1215533":9715,"1215579":9716,"1072655":9717,"22922":9718,"1102436":9719,"1025355":9720,"1025301":9721,"YAgTe":9722,"YAgSn":9723,"755633":9724,"22375":9725,"1215346":9726,"1078628":9727,"ĠGaPPd":9728,"1218336":9729,"CaAuCd":9730,"10294":9731,"12585":9732,"865496":9733,"1220318":9734,"1187920":9735,"1228792":9736,"CrFeAs":9737,"867352":9738,"998912":9739,"1401":9740,"1193848":9741,"24722":9742,"24728":9743,"28997":9744,"1185935":9745,"ĠSMnZn":9746,"1226456":9747,"1226096":9748,"1226072":9749,"1218977":9750,"1425":9751,"28391":9752,"1217915":9753,"22871":9754,"1018150":9755,"21165":9756,"1095491":9757,"1095592":9758,"568345":9759,"YInCu":9760,"1216446":9761,"PtGaZr":9762,"864669":9763,"504825":9764,"1187252":9765,"1077959":9766,"1077994":9767,"13876":9768,"1183450":9769,"AuCuZn":9770,"1224796":9771,"1178763":9772,"1078086":9773,"14652":9774,"569628":9775,"680570":9776,"754556":9777,"1106162":9778,"KNaSe":9779,"568077":9780,"1219328":9781,"1229032":9782,"7068":9783,"1078813":9784,"1224823":9785,"974990":9786,"866142":9787,"865144":9788,"862655":9789,"1206374":9790,"29342":9791,"HfRhGe":9792,"555280":9793,"17639":9794,"1102167":9795,"567907":9796,"865650":9797,"672372":9798,"632326":9799,"1084805":9800,"865842":9801,"862260":9802,"571266":9803,"1218875":9804,"1095253":9805,"1095294":9806,"1019077":9807,"1106367":9808,"1216977":9809,"541844":9810,"571342":9811,"1006118":9812,"1017531":9813,"1190274":9814,"1238878":9815,"1194073":9816,"784631":9817,"1227571":9818,"1029349":9819,"616204":9820,"1068587":9821,"1191026":9822,"1071288":9823,"1021498":9824,"1201758":9825,"1103317":9826,"1220009":9827,"28595":9828,"684903":9829,"ĠGaGePt":9830,"541289":9831,"540625":9832,"975272":9833,"SKH":9834,"35015":9835,"1224005":9836,"1025874":9837,"1079042":9838,"1077599":9839,"ĠZnGeRh":9840,"1057086":9841,"1210697":9842,"543001":9843,"672706":9844,"572892":9845,"1201790":9846,"1473":9847,"245":9848,"2152":9849,"21199":9850,"2626":9851,"27533":9852,"31080":9853,"415":9854,"4852":9855,"5221":9856,"6428":9857,"7544":9858,"7576":9859,"7234":9860,"8219":9861,"970":9862,"9525":9863,"KSn":9864,"KSnS":9865,"KCdAs":9866,"KCdSb":9867,"PP":9868,"PSi":9869,"PCa":9870,"VFe":9871,"YHg":9872,"YTc":9873,"YCuTe":9874,"ĠNPCa":9875,"ĠInSnTe":9876,"ĠInCuSe":9877,"ĠPu":9878,"ĠAlZnCu":9879,"ĠHSe":9880,"AlS":9881,"AlCd":9882,"ĠCaPbSe":9883,"ĠHfSeS":9884,"ĠHfTiRu":9885,"2055":9886,"2084":9887,"ĠSiSbPt":9888,"ĠGaPS":9889,"ĠPtSeS":9890,"ĠSeIr":9891,"ĠSeSnPt":9892,"ĠYMn":9893,"InSnTe":9894,"InGaS":9895,"FeH":9896,"FeOs":9897,"ĠCuFe":9898,"ĠCuRh":9899,"ĠCuCd":9900,"SiRu":9901,"PdRh":9902,"PdRu":9903,"PdHfSn":9904,"AsZn":9905,"ĠTaMoS":9906,"ĠTaInSe":9907,"ĠSrPdSn":9908,"ĠSrCaS":9909,"ĠZnHgTe":9910,"TiRhSi":9911,"TiMnSi":9912,"TiZnAl":9913,"1082":9914,"1081":9915,"1032":9916,"ĠGeCl":9917,"ĠSnGeTe":9918,"NiOs":9919,"GaRh":9920,"ĠKCu":9921,"ĠCrFe":9922,"SbSn":9923,"SbBiSbTe":9924,"ĠMnCd":9925,"ĠMnCoGe":9926,"GeCl":9927,"1287":9928,"12136":9929,"121218":9930,"12972":9931,"12857":9932,"ZnBi":9933,"ĠAuPS":9934,"RhPS":9935,"CuPd":9936,"CuOs":9937,"CuInS":9938,"AgPb":9939,"ZrSb":9940,"ZrMn":9941,"ZrRuSi":9942,"ZrTiSe":9943,"ZrTiCr":9944,"ĠRbGe":9945,"HfSiS":9946,"HfOsP":9947,"HfTiRu":9948,"5421":9949,"5413":9950,"4316":9951,"6749":9952,"ĠCdTl":9953,"ĠCdHgTe":9954,"1169":9955,"11824":9956,"AuPS":9957,"9680":9958,"CoMo":9959,"CoOs":9960,"RuFe":9961,"IrS":9962,"IrSbS":9963,"IrBiS":9964,"1624":9965,"1649":9966,"16886":9967,"NbMn":9968,"NbNiAs":9969,"TaCu":9970,"TaCo":9971,"TaInSe":9972,"TaInS":9973,"CaMo":9974,"CaPbSe":9975,"CaPtGe":9976,"CaPdSn":9977,"CaGaSn":9978,"ĠCsK":9979,"ĠCsZn":9980,"BiCl":9981,"ScCuSi":9982,"ScPtZn":9983,"ScNiGe":9984,"5571":9985,"5581":9986,"22473":9987,"PbGeTe":9988,"15895":9989,"15656":9990,"21863":9991,"8842":9992,"NaInSe":9993,"NaGaTe":9994,"NaAlSe":9995,"NaSbSn":9996,"ĠOsH":9997,"HgCdTe":9998,"MnZnS":9999,"SrFe":10000,"SrPdSn":10001,"SrVN":10002,"SrCaS":10003,"23229":10004,"23714":10005,"23214":10006,"23474":10007,"621624":10008,"5725":10009,"4667":10010,"7443":10011,"839":10012,"658":10013,"19968":10014,"7366":10015,"7372":10016,"7376":10017,"OsH":10018,"OsFe":10019,"OsPt":10020,"OsCu":10021,"601823":10022,"601326":10023,"TcMnAl":10024,"RePt":10025,"ReZn":10026,"ReMn":10027,"5910":10028,"7770":10029,"341":10030,"7822":10031,"8411":10032,"1413":10033,"7632":10034,"29570":10035,"417":10036,"13456":10037,"13542":10038,"13962":10039,"4955":10040,"9268":10041,"RbFe":10042,"RbBi":10043,"9910":10044,"9912":10045,"2780":10046,"2705":10047,"2782":10048,"27628":10049,"17813":10050,"17094":10051,"30086":10052,"28797":10053,"12064":10054,"12061":10055,"CsZn":10056,"CsCu":10057,"CsSnCl":10058,"CsAuCl":10059,"11045":10060,"11073":10061,"ĠTiAlFe":10062,"1221007":10063,"10940":10064,"ĠTiSiPd":10065,"ĠTiSiRu":10066,"1216501":10067,"1216894":10068,"1216290":10069,"10755":10070,"1071032":10071,"1183503":10072,"1183151":10073,"1183471":10074,"1183187":10075,"ĠVSiOs":10076,"12207":10077,"1220502":10078,"1220426":10079,"10286":10080,"ĠAlScCu":10081,"569522":10082,"569060":10083,"ĠAlCuPd":10084,"ĠAlCuNi":10085,"10175":10086,"1018652":10087,"867169":10088,"867292":10089,"ĠTiTeSe":10090,"567505":10091,"1215331":10092,"1215935":10093,"ĠPdSnHf":10094,"1191413":10095,"1187434":10096,"1187694":10097,"1187461":10098,"1219203":10099,"1219748":10100,"1080463":10101,"30834":10102,"ĠSnTePt":10103,"1018736":10104,"ĠBiTePd":10105,"1224169":10106,"1224173":10107,"1217114":10108,"1217228":10109,"1221495":10110,"1221872":10111,"1223828":10112,"1223695":10113,"1223834":10114,"1223791":10115,"1223664":10116,"22211":10117,"22284":10118,"ĠNaSbSn":10119,"1188102":10120,"1078464":10121,"1078100":10122,"1078708":10123,"ĠSeBiPd":10124,"ĠZrSbRh":10125,"ĠTeInHg":10126,"ĠAlPPt":10127,"570062":10128,"22007":10129,"ĠTeBiPd":10130,"ĠTiPN":10131,"ĠHfSiSe":10132,"1077470":10133,"ĠTeSnPt":10134,"1025905":10135,"1224318":10136,"1224329":10137,"1224331":10138,"21235":10139,"ĠYCdAg":10140,"ĠYCdHg":10141,"30666":10142,"865503":10143,"865506":10144,"865960":10145,"1189474":10146,"1189791":10147,"12455":10148,"30493":10149,"16770":10150,"862791":10151,"12783":10152,"CaZnSn":10153,"1215434":10154,"1215448":10155,"30527":10156,"1207893":10157,"1218041":10158,"1218026":10159,"1206072":10160,"1188040":10161,"20257":10162,"AlSiY":10163,"1225835":10164,"1246517":10165,"1246556":10166,"30708":10167,"ĠCdPPd":10168,"ĠCdPCl":10169,"977162":10170,"1215586":10171,"1102525":10172,"1102836":10173,"18609":10174,"1025366":10175,"1025375":10176,"1025348":10177,"971737":10178,"1228983":10179,"1228938":10180,"ZrRhSb":10181,"21021":10182,"ĠPTiP":10183,"675543":10184,"ĠAsInGa":10185,"20987":10186,"1226741":10187,"15514":10188,"755523":10189,"865525":10190,"31011":10191,"22171":10192,"1218330":10193,"1029799":10194,"972866":10195,"2798":10196,"672289":10197,"865499":10198,"1797":10199,"1079946":10200,"21321":10201,"1247199":10202,"850249":10203,"607139":10204,"CaCuIn":10205,"CaCuSb":10206,"ĠSeMnIn":10207,"PdAuSn":10208,"13911":10209,"ĠInAgSe":10210,"1193541":10211,"2478":10212,"RuRhGa":10213,"CaPtSn":10214,"980109":10215,"849081":10216,"1185976":10217,"CaNiIn":10218,"RuIrAl":10219,"1218970":10220,"ZrSiAl":10221,"19871":10222,"ĠAsSbPd":10223,"ĠSbAsPd":10224,"864916":10225,"14241":10226,"28324":10227,"28304":10228,"1227206":10229,"1227463":10230,"13147":10231,"1025271":10232,"ĠTiFeSb":10233,"16497":10234,"22853":10235,"16266":10236,"571035":10237,"ĠSPRh":10238,"ĠNbZnRu":10239,"1102324":10240,"ĠTeSbRu":10241,"1104054":10242,"HfSiSe":10243,"568328":10244,"ĠCaZnSi":10245,"1104388":10246,"1214857":10247,"1102040":10248,"1102030":10249,"ĠSCsIn":10250,"1025571":10251,"504425":10252,"NbRhP":10253,"CaPdSi":10254,"CaPdSb":10255,"CaPdCd":10256,"1219515":10257,"YZnSn":10258,"ĠNCrNi":10259,"1183462":10260,"PdAgHf":10261,"865989":10262,"1207724":10263,"18388":10264,"1013526":10265,"1013558":10266,"569662":10267,"1224496":10268,"1224488":10269,"30952":10270,"754064":10271,"1222586":10272,"ĠSAsRh":10273,"FeTiSb":10274,"ĠMnGaIr":10275,"989613":10276,"1217020":10277,"1217009":10278,"7066":10279,"NbMoNi":10280,"861983":10281,"570293":10282,"1219924":10283,"865193":10284,"1184005":10285,"1102926":10286,"542449":10287,"570452":10288,"24154":10289,"ĠNNaTa":10290,"567920":10291,"865681":10292,"1101948":10293,"YHSe":10294,"23954":10295,"1223820":10296,"ĠGaCuNi":10297,"1068464":10298,"1105799":10299,"1095643":10300,"863744":10301,"1216906":10302,"1228467":10303,"1227003":10304,"14588":10305,"ĠAlGaNi":10306,"30175":10307,"571383":10308,"1207419":10309,"18167":10310,"1101813":10311,"1077453":10312,"554405":10313,"20838":10314,"ĠZrSnPd":10315,"ĠZnCdPt":10316,"ĠTlPPd":10317,"998560":10318,"1213762":10319,"1100415":10320,"1227562":10321,"1226441":10322,"562100":10323,"1228562":10324,"961659":10325,"1209047":10326,"1105285":10327,"1218110":10328,"HgZnTe":10329,"676284":10330,"1187591":10331,"643260":10332,"1188559":10333,"15308":10334,"672645":10335,"1213959":10336,"995122":10337,"643022":10338,"13572":10339,"568293":10340,"568263":10341,"972876":10342,"1078362":10343,"1203253":10344,"1102743":10345,"864840":10346,"972120":10347,"1219661":10348,"610517":10349,"974790":10350,"1062153":10351,"611341":10352,"1113233":10353,"975065":10354,"1224642":10355,"553973":10356,"24517":10357,"952566":10358,"PPMn":10359,"ĠHSeY":10360,"20552":10361,"1212187":10362,"557179":10363,"558110":10364,"021":10365,"1451":10366,"2977":10367,"387":10368,"31187":10369,"3698":10370,"3668":10371,"4861":10372,"4628":10373,"4824":10374,"5101":10375,"5103":10376,"5168":10377,"5817":10378,"6465":10379,"7421":10380,"7829":10381,"7792":10382,"7529":10383,"7859":10384,"843":10385,"8479":10386,"8799":10387,"910":10388,"CS":10389,"HPd":10390,"KCo":10391,"KCd":10392,"KSbSe":10393,"KMnP":10394,"KAuCl":10395,"VTi":10396,"WNiP":10397,"YCoGe":10398,"YZnAl":10399,"ogen":10400,"Ġboride":10401,"ĠCyan":10402,"ĠInSiPt":10403,"ĠPTa":10404,"âĤĦâĤģ":10405,"ĠCaY":10406,"ĠPdCs":10407,"ĠHfTc":10408,"ĠHfScRh":10409,"ĠHfScGe":10410,"ĠNiMo":10411,"20196":10412,"20422":10413,"20139":10414,"20473":10415,"20536":10416,"20792":10417,"20868":10418,"20817":10419,"ĠPtTl":10420,"InSi":10421,"InPbCl":10422,"InSbSe":10423,"ĠNaFeAs":10424,"FeSn":10425,"FeCr":10426,"FeNiAl":10427,"FeGaGe":10428,"FeCoS":10429,"FeMoSi":10430,"ĠCuAgTe":10431,"ĠNbW":10432,"ĠNbRuSb":10433,"SiN":10434,"SiPd":10435,"SiPb":10436,"ĠTeGa":10437,"PdAsSe":10438,"ĠAsK":10439,"ĠTaFe":10440,"ĠTaTiRu":10441,"ĠSrPbS":10442,"ĠSrCaTl":10443,"ĠSrCaPb":10444,"ĠZnRu":10445,"ĠZnTeSe":10446,"ĠRhSr":10447,"TiMoS":10448,"TiPtGe":10449,"TiFeSi":10450,"TiTaRu":10451,"TiMnN":10452,"TiRuTe":10453,"1005":10454,"1097":10455,"10849":10456,"10939":10457,"PtGeSe":10458,"PtPdBi":10459,"ĠSnPS":10460,"NiIn":10461,"NiCu":10462,"GaGeTe":10463,"ĠKCo":10464,"ĠKCd":10465,"ĠKMnP":10466,"ĠAgCuTe":10467,"ĠFeMo":10468,"SbAu":10469,"ĠMnCo":10470,"GePt":10471,"1231":10472,"12472":10473,"12459":10474,"1212167":10475,"12903":10476,"ZnAg":10477,"ZnCr":10478,"ZnRe":10479,"ZnMnSe":10480,"RhAu":10481,"RhNiZn":10482,"CuW":10483,"CuNi":10484,"AgCuTe":10485,"MoCrAs":10486,"ZrMnSi":10487,"ZrIrAs":10488,"ZrRuP":10489,"HfV":10490,"HfZnAl":10491,"HfFeSb":10492,"HfWSi":10493,"HfMoAl":10494,"HfVP":10495,"5408":10496,"5486":10497,"5414":10498,"4370":10499,"6759":10500,"6744":10501,"675022":10502,"11567":10503,"11113":10504,"11471":10505,"11201":10506,"AuAgZn":10507,"CoCr":10508,"RuCu":10509,"RuSeS":10510,"RuSbSe":10511,"RuOsSi":10512,"RuCoAl":10513,"6980":10514,"IrW":10515,"IrNi":10516,"IrGa":10517,"IrOs":10518,"IrCoGa":10519,"IrCoAl":10520,"5054":10521,"ĠTlPt":10522,"ĠTlHPd":10523,"1664":10524,"1684":10525,"16304":10526,"NbC":10527,"NbWS":10528,"NbInSe":10529,"NbMnSi":10530,"NbRuSb":10531,"TaFeSi":10532,"TaCoSb":10533,"TaPtSi":10534,"TaMoCo":10535,"TaMoNi":10536,"8581":10537,"CaNiGa":10538,"CaRhSn":10539,"CaGaAl":10540,"CaMoN":10541,"ĠCsRb":10542,"ĠCsPbCl":10543,"CdPd":10544,"CdAsP":10545,"CdGeP":10546,"ScSb":10547,"ScCo":10548,"5576":10549,"22204":10550,"22258":10551,"ĠHgPb":10552,"15777":10553,"15679":10554,"21673":10555,"21965":10556,"NaMo":10557,"NaCdAs":10558,"NaZnP":10559,"4773":10560,"86233":10561,"865707":10562,"CrCo":10563,"CrMnAl":10564,"528":10565,"5244":10566,"4022":10567,"028":10568,"HgAl":10569,"MnNiAl":10570,"MnZnN":10571,"SrCo":10572,"SrPbS":10573,"SrAlSi":10574,"SrPdH":10575,"SrCaTl":10576,"SrCaPb":10577,"2346":10578,"2301":10579,"23289":10580,"23164":10581,"23162":10582,"23174":10583,"23706":10584,"5744":10585,"5737":10586,"571216":10587,"572758":10588,"9305":10589,"8211":10590,"8257":10591,"TlH":10592,"TlInCl":10593,"7067":10594,"1912":10595,"19855":10596,"7918":10597,"7927":10598,"7378":10599,"7392":10600,"18127":10601,"18163":10602,"604":10603,"972337":10604,"ReS":10605,"7771":10606,"563":10607,"8490":10608,"1462":10609,"298":10610,"2984":10611,"29866":10612,"29749":10613,"4120":10614,"4131":10615,"RbCaAs":10616,"RbCoN":10617,"RbNaS":10618,"ĠAlTiFe":10619,"3276":10620,"32758":10621,"9942":10622,"9948":10623,"991114":10624,"2757":10625,"27666":10626,"2654":10627,"2642":10628,"9843":10629,"30461":10630,"30028":10631,"31459":10632,"2815":10633,"28107":10634,"28126":10635,"28128":10636,"12098":10637,"3944":10638,"CsAgCl":10639,"11009":10640,"11048":10641,"1101258":10642,"1181094":10643,"ĠTiAlRu":10644,"1226254":10645,"10911":10646,"1095683":10647,"1097916":10648,"11441":10649,"ĠZrSiRu":10650,"1216464":10651,"1216698":10652,"1216081":10653,"1216439":10654,"1216065":10655,"10707":10656,"10785":10657,"1183460":10658,"1220663":10659,"1220748":10660,"1220636":10661,"1079278":10662,"1079193":10663,"569175":10664,"10167":10665,"ĠHfAlPt":10666,"20618":10667,"867335":10668,"867928":10669,"867909":10670,"ĠTiTeRu":10671,"ĠSrPPt":10672,"567860":10673,"1215804":10674,"11959":10675,"11944":10676,"1191223":10677,"1191025":10678,"1191118":10679,"1191589":10680,"1194773":10681,"1192984":10682,"1187124":10683,"1187531":10684,"1187427":10685,"1187431":10686,"1187225":10687,"1219501":10688,"1219423":10689,"1219339":10690,"1219799":10691,"1219535":10692,"1080693":10693,"1080677":10694,"1080073":10695,"1080561":10696,"1080518":10697,"ĠTiGePt":10698,"30893":10699,"30851":10700,"30826":10701,"1224108":10702,"1224841":10703,"1224831":10704,"1224402":10705,"1217251":10706,"1217093":10707,"1217087":10708,"ĠCoSbTa":10709,"ĠInSbSe":10710,"1221714":10711,"ĠZnPPt":10712,"1223851":10713,"11285":10714,"ĠScGaRh":10715,"1188762":10716,"ĠChloride":10717,"ĠScGeRh":10718,"10046":10719,"ĠNbAlOs":10720,"10846":10721,"1186011":10722,"CaSiN":10723,"ĠHfSiRu":10724,"568483":10725,"1077240":10726,"1025218":10727,"1025185":10728,"11515":10729,"11565":10730,"1224386":10731,"1224337":10732,"865649":10733,"NiAsSe":10734,"973066":10735,"1189202":10736,"1189177":10737,"30492":10738,"ĠTiZnNi":10739,"ĠYGePt":10740,"862694":10741,"862604":10742,"1184647":10743,"866062":10744,"1215412":10745,"1215416":10746,"30555":10747,"30523":10748,"30593":10749,"30574":10750,"1207079":10751,"ĠZrAsIr":10752,"12383":10753,"1218019":10754,"1218064":10755,"1218037":10756,"571406":10757,"1067974":10758,"1105163":10759,"1188019":10760,"AlSiP":10761,"ĠAlSiMo":10762,"ĠAlSiSr":10763,"1225119":10764,"1225166":10765,"30797":10766,"1215524":10767,"1215513":10768,"ĠPYPt":10769,"ĠZrZnRh":10770,"ĠAgPPd":10771,"22956":10772,"1102115":10773,"1102524":10774,"1102458":10775,"1102732":10776,"1025370":10777,"971754":10778,"1228953":10779,"1228973":10780,"1228991":10781,"1008680":10782,"31158":10783,"1226754":10784,"1226768":10785,"865586":10786,"22309":10787,"1078643":10788,"ĠMnZnSe":10789,"1218699":10790,"1218856":10791,"ĠScCdRh":10792,"10299":10793,"1029420":10794,"16321":10795,"16317":10796,"972119":10797,"972777":10798,"12565":10799,"865490":10800,"17985":10801,"1220390":10802,"1220391":10803,"1079951":10804,"1187911":10805,"1187921":10806,"ĠSrZnGe":10807,"1247450":10808,"850049":10809,"TiMoSb":10810,"CaCuAs":10811,"1228126":10812,"974341":10813,"867319":10814,"697575":10815,"SrAuIn":10816,"975079":10817,"20001":10818,"1193856":10819,"SrZnGe":10820,"980949":10821,"1228845":10822,"669387":10823,"YRhGa":10824,"1103261":10825,"CaHgPb":10826,"CaNiN":10827,"RuIrGa":10828,"1218924":10829,"ZrSiSe":10830,"1208223":10831,"28383":10832,"ScHfGe":10833,"ScHfRh":10834,"1217967":10835,"1217923":10836,"1217293":10837,"1217272":10838,"31347":10839,"20879":10840,"1227335":10841,"1190092":10842,"1190500":10843,"862720":10844,"862721":10845,"19915":10846,"998787":10847,"PtZnPt":10848,"1025272":10849,"TaFeAl":10850,"16261":10851,"1206790":10852,"21134":10853,"1095442":10854,"1095497":10855,"1102348":10856,"1102395":10857,"1215949":10858,"SrPtP":10859,"SrPtSn":10860,"1216453":10861,"864654":10862,"1217357":10863,"1245699":10864,"1215715":10865,"4431":10866,"1216612":10867,"1216683":10868,"1023942":10869,"1023953":10870,"1063938":10871,"1224765":10872,"505531":10873,"865928":10874,"866041":10875,"1221656":10876,"1017981":10877,"KSbCl":10878,"1227380":10879,"1227322":10880,"1078079":10881,"1078049":10882,"1096802":10883,"754434":10884,"ĠScZnPt":10885,"865041":10886,"1106227":10887,"PtSiSe":10888,"ĠMnGaFe":10889,"ĠMnGaRh":10890,"972241":10891,"KNaS":10892,"YAuAl":10893,"1229019":10894,"1229031":10895,"1218380":10896,"1217040":10897,"1078895":10898,"1179693":10899,"974943":10900,"866155":10901,"IrAsTe":10902,"1078973":10903,"1078938":10904,"861908":10905,"1220442":10906,"1220455":10907,"1184030":10908,"1219034":10909,"1219001":10910,"1191713":10911,"1206362":10912,"1102919":10913,"31481":10914,"ĠTeZnHg":10915,"1096950":10916,"1100766":10917,"1100795":10918,"1184229":10919,"ĠHfZrCo":10920,"ĠHfZrTc":10921,"HfZrCo":10922,"HfZrTc":10923,"YPtP":10924,"MoSiHf":10925,"1196514":10926,"22602":10927,"SrCuP":10928,"16842":10929,"1216784":10930,"542570":10931,"1101943":10932,"1198114":10933,"23933":10934,"1079768":10935,"977582":10936,"1223870":10937,"ĠGaCuPd":10938,"ĠGaCuRh":10939,"1068746":10940,"1068446":10941,"1071862":10942,"541689":10943,"541687":10944,"21885":10945,"1218889":10946,"1019052":10947,"1221509":10948,"541875":10949,"1147714":10950,"1227045":10951,"ĠZnGaCo":10952,"HfCrGe":10953,"1087497":10954,"1066445":10955,"1183042":10956,"571370":10957,"1200972":10958,"1226939":10959,"1224915":10960,"1210246":10961,"1079508":10962,"542909":10963,"ĠVGaRu":10964,"569037":10965,"ĠTiInAu":10966,"1102840":10967,"1226375":10968,"1190950":10969,"1190915":10970,"ĠZnCdAu":10971,"IrRhAl":10972,"998567":10973,"32913":10974,"8468":10975,"1002106":10976,"865278":10977,"568866":10978,"1100412":10979,"1024069":10980,"1061769":10981,"556225":10982,"1103520":10983,"696673":10984,"13512":10985,"620571":10986,"1225004":10987,"867768":10988,"636368":10989,"1104926":10990,"974411":10991,"1212435":10992,"1078242":10993,"1021494":10994,"10527":10995,"676241":10996,"862586":10997,"1187512":10998,"1228032":10999,"643257":11000,"1173060":11001,"604910":11002,"604914":11003,"27769":11004,"1205493":11005,"1208554":11006,"1101099":11007,"644483":11008,"1102268":11009,"35869":11010,"862485":11011,"1217763":11012,"1227871":11013,"867264":11014,"11598":11015,"1194040":11016,"1246509":11017,"570920":11018,"1103956":11019,"956096":11020,"ZrVCo":11021,"998605":11022,"505297":11023,"1106288":11024,"1028441":11025,"1212011":11026,"644280":11027,"990232":11028,"684969":11029,"1068286":11030,"621348":11031,"504772":11032,"1106022":11033,"582067":11034,"1226821":11035,"1213642":11036,"510133":11037,"510321":11038,"646507":11039,"752947":11040,"ĠCyanogen":11041,"1097859":11042,"1093991":11043,"674493":11044,"574485":11045,"150":11046,"1545":11047,"1435":11048,"372":11049,"3999":11050,"3804":11051,"3595":11052,"3432":11053,"4500":11054,"4192":11055,"4076":11056,"509":11057,"588":11058,"581":11059,"5122":11060,"682":11061,"6105":11062,"7434":11063,"7433":11064,"7524":11065,"7400":11066,"896":11067,"8422":11068,"954":11069,"996":11070,"922":11071,"941":11072,"9124":11073,"9961":11074,"9225":11075,"9248":11076,"KC":11077,"KK":11078,"KFe":11079,"KAuS":11080,"NIn":11081,"VSb":11082,"VCo":11083,"VIr":11084,"VCrSi":11085,"VCoP":11086,"VCrP":11087,"WFeSi":11088,"WFeP":11089,"YAlGe":11090,"YCrFe":11091,"YAuSn":11092,"YFeNi":11093,"hl":11094,"mite":11095,"Ġchl":11096,"orate":11097,"ĠCub":11098,"ĠCFe":11099,"ridy":11100,"ĠNSb":11101,"ĠNCl":11102,"ĠInV":11103,"ĠInGeTe":11104,"ĠInSnSe":11105,"ĠInCuS":11106,"ĠInCuPt":11107,"ĠPVS":11108,"ĠPMoP":11109,"ĠTridy":11110,"ĠAlGaN":11111,"ĠTiC":11112,"ĠTiCrS":11113,"ĠTiNiSb":11114,"AlMoSi":11115,"ĠPdK":11116,"ĠPdPb":11117,"ĠPdPtAu":11118,"ĠHfFe":11119,"ĠHfTiSe":11120,"ĠHfScSi":11121,"ĠHfScOs":11122,"ĠNiIn":11123,"ĠZrTi":11124,"ĠZrNbAl":11125,"20108":11126,"20545":11127,"20436":11128,"ĠSiAl":11129,"ĠSiAgPt":11130,"ĠGaH":11131,"ĠGaAgTe":11132,"ĠGaSiRu":11133,"ĠBoron":11134,"ĠYV":11135,"ĠYCr":11136,"ĠYAsSe":11137,"ĠYCrFe":11138,"InRu":11139,"InHg":11140,"InGeTe":11141,"InBiSe":11142,"InGaTe":11143,"ĠNaSrHg":11144,"FeCoAs":11145,"FeMnGe":11146,"ĠVH":11147,"ĠVCl":11148,"ĠNbWSe":11149,"SiSn":11150,"ĠScCr":11151,"ĠScNiSb":11152,"PdIn":11153,"PdZrSn":11154,"ĠAsGeAs":11155,"AsPd":11156,"ĠTaTiMn":11157,"ĠSrCo":11158,"ĠSrRu":11159,"ĠSrCuSi":11160,"ĠSrCuGe":11161,"ĠZnCdS":11162,"ĠZnSnP":11163,"ĠZnFeRh":11164,"8045":11165,"TiGeS":11166,"TiCrS":11167,"TiOsSi":11168,"TiMnP":11169,"TiVAl":11170,"TiTaMn":11171,"10977":11172,"10163":11173,"10763":11174,"10899":11175,"PtSnS":11176,"PtPdAu":11177,"PtPdZn":11178,"ĠSnCr":11179,"ĠSnGeSe":11180,"NiMoP":11181,"NiTiSb":11182,"ĠKC":11183,"ĠKTi":11184,"ĠKRbCl":11185,"ĠKYCl":11186,"ĠAgBiTe":11187,"ĠCrSn":11188,"ĠCrSnRu":11189,"ĠMnFe":11190,"ĠMnCr":11191,"tass":11192,"1237":11193,"1238":11194,"12115":11195,"12674":11196,"ZnSiP":11197,"ZnSnP":11198,"SnGeSe":11199,"SnPSe":11200,"RhNi":11201,"RhSbAs":11202,"RhTiSn":11203,"CuAg":11204,"CuNbTe":11205,"CuPN":11206,"AgGaTe":11207,"AgTlS":11208,"MoPt":11209,"MoGa":11210,"ZrTiPd":11211,"ZrCuGa":11212,"ZrSnTe":11213,"ZrCrFe":11214,"ZrCuSn":11215,"ZrOsSi":11216,"ZrNbP":11217,"ZrMnGa":11218,"ZrTiMn":11219,"ZrNbAl":11220,"ZrPdSi":11221,"ZrPdGe":11222,"ZrNbFe":11223,"ĠRbNH":11224,"ĠRbCaCl":11225,"ĠBiPtCl":11226,"HfCoAs":11227,"HfPtGe":11228,"HfMnAl":11229,"5422":11230,"5423":11231,"541558":11232,"ĠPbSb":11233,"ĠPbSnS":11234,"6754":11235,"6743":11236,"672194":11237,"679983":11238,"ĠCdSn":11239,"ĠCdBi":11240,"ĠCdPbS":11241,"3345":11242,"33333":11243,"11111":11244,"AuGeAs":11245,"9659":11246,"9690":11247,"4259":11248,"4261":11249,"CoFe":11250,"CoNiAs":11251,"CoCuS":11252,"CoVSb":11253,"RuPd":11254,"RuCoGa":11255,"695850":11256,"ĠClZn":11257,"IrPt":11258,"IrPS":11259,"IrAsSe":11260,"IrSbAs":11261,"IrNiZn":11262,"5058":11263,"1634":11264,"16852":11265,"16259":11266,"NbIn":11267,"NbNiSi":11268,"NbPSe":11269,"NbFeSi":11270,"NbIrGe":11271,"NbVSi":11272,"NbVCr":11273,"TaWS":11274,"TaRuSi":11275,"TaRhSi":11276,"TaNbMo":11277,"CaN":11278,"ĠCsV":11279,"ĠCsTi":11280,"ĠCsCr":11281,"BiPb":11282,"BiInS":11283,"CdC":11284,"CdPbS":11285,"CdZnS":11286,"ScV":11287,"ScAl":11288,"ScNiSi":11289,"ScNiSb":11290,"ScPtSi":11291,"ScCrMn":11292,"ĠReY":11293,"ĠReTi":11294,"2210":11295,"2245":11296,"22881":11297,"22529":11298,"22631":11299,"PbSb":11300,"1518":11301,"15868":11302,"15651":11303,"21547":11304,"21883":11305,"8813":11306,"NaAlGe":11307,"NaCrS":11308,"NaCuTe":11309,"NaCuSe":11310,"NaSrAs":11311,"NaMnSb":11312,"NaAlTe":11313,"NaSrHg":11314,"4771":11315,"4763":11316,"7112":11317,"8605":11318,"8645":11319,"8630":11320,"86196":11321,"CrHfSi":11322,"0613":11323,"MnH":11324,"MnRhSi":11325,"MnFeSi":11326,"MnCoAl":11327,"SrY":11328,"SrNiSi":11329,"SrPtGe":11330,"SrCuSi":11331,"SrCuGe":11332,"SrHfN":11333,"SrAgAl":11334,"23209":11335,"571518":11336,"8976":11337,"468":11338,"9391":11339,"8277":11340,"TlN":11341,"TlV":11342,"TlAs":11343,"TlGaSe":11344,"1944":11345,"19971":11346,"19804":11347,"2565":11348,"7929":11349,"7302":11350,"OsAu":11351,"OsIr":11352,"OsNiAl":11353,"OsAsP":11354,"244":11355,"2454":11356,"24208":11357,"603":11358,"ĠLow":11359,"7752":11360,"3469":11361,"3414":11362,"7877":11363,"721582":11364,"14983":11365,"14434":11366,"14500":11367,"7608":11368,"29073":11369,"29736":11370,"1353":11371,"632403":11372,"632693":11373,"639659":11374,"9040":11375,"618991":11376,"9289":11377,"RbNH":11378,"RbAlH":11379,"RbKCl":11380,"8769":11381,"ĠAlTiCu":11382,"ĠAlTiCo":11383,"9906":11384,"37091":11385,"17835":11386,"30676":11387,"30326":11388,"30424":11389,"31502":11390,"28108":11391,"28800":11392,"28731":11393,"28201":11394,"28759":11395,"120279":11396,"1208629":11397,"1208973":11398,"1207608":11399,"CsK":11400,"CsTi":11401,"CsCr":11402,"11008":11403,"1105716":11404,"1101867":11405,"1101109":11406,"1103414":11407,"ĠAlAlAg":11408,"1218620":11409,"1214261":11410,"1181237":11411,"12266":11412,"1221252":11413,"1227112":11414,"10991":11415,"ĠNCaMo":11416,"ĠNCaTc":11417,"28112":11418,"28174":11419,"1216567":11420,"1216850":11421,"1216460":11422,"1216677":11423,"1216029":11424,"1216641":11425,"1216661":11426,"1216091":11427,"1070613":11428,"11835":11429,"1183155":11430,"1183938":11431,"1183173":11432,"1183148":11433,"1183490":11434,"1186117":11435,"12205":11436,"122059":11437,"1220511":11438,"1220436":11439,"1220099":11440,"1220458":11441,"1220944":11442,"1079110":11443,"1079155":11444,"1079726":11445,"1079842":11446,"10288":11447,"569954":11448,"ĠSeNaPt":11449,"867117":11450,"867331":11451,"867917":11452,"567545":11453,"1215216":11454,"1215676":11455,"1215240":11456,"1215627":11457,"1215230":11458,"1215663":11459,"1215634":11460,"1215751":11461,"1198948":11462,"1191353":11463,"ĠSeInCu":11464,"ĠHfGaRu":11465,"ĠCaPPt":11466,"1187209":11467,"1187473":11468,"1187713":11469,"1187429":11470,"1187231":11471,"1187238":11472,"1187470":11473,"1187097":11474,"1187432":11475,"1187703":11476,"1219478":11477,"1219939":11478,"1219928":11479,"1219258":11480,"1219795":11481,"ĠZnAsPt":11482,"1080815":11483,"1080771":11484,"1080509":11485,"ĠTiGeS":11486,"ĠTiGeRh":11487,"1018709":11488,"1224544":11489,"1224559":11490,"1224494":11491,"1224886":11492,"1224495":11493,"1217229":11494,"1217024":11495,"1217094":11496,"1217079":11497,"ĠCoSbRh":11498,"1221503":11499,"1221125":11500,"1221780":11501,"ĠZnPPd":11502,"ĠYGaRh":11503,"1223976":11504,"1223831":11505,"1223647":11506,"1223749":11507,"1223682":11508,"22253":11509,"22240":11510,"22287":11511,"ĠYInRh":11512,"1188158":11513,"ĠZrInPt":11514,"ĠAsTeRh":11515,"ĠSInCu":11516,"10033":11517,"1078107":11518,"1078544":11519,"1078776":11520,"1078231":11521,"1078756":11522,"1078402":11523,"1078767":11524,"1078709":11525,"ĠYAgSe":11526,"ĠYAgSn":11527,"ĠNaBiS":11528,"1184055":11529,"ĠYSnRh":11530,"ĠPAgSnP":11531,"ĠScAlCo":11532,"1068891":11533,"1068813":11534,"ĠTiGaRu":11535,"ĠTiGaTc":11536,"10843":11537,"10876":11538,"1186069":11539,"ĠPSnP":11540,"ĠNTaZn":11541,"ĠScInPt":11542,"ĠAlMnFe":11543,"30312":11544,"568121":11545,"568501":11546,"1077814":11547,"1077883":11548,"1025690":11549,"1025629":11550,"11560":11551,"ĠCaTlCl":11552,"20408":11553,"ĠVCoSb":11554,"1224371":11555,"1224306":11556,"1224346":11557,"1224393":11558,"1224366":11559,"1224377":11560,"1224372":11561,"1224358":11562,"1224395":11563,"ĠInAsPd":11564,"10312":11565,"10307":11566,"10379":11567,"10381":11568,"ĠYCdPd":11569,"865717":11570,"865656":11571,"973769":11572,"1189212":11573,"1189978":11574,"ĠPotass":11575,"29667":11576,"29618":11577,"29656":11578,"ĠSiNCl":11579,"1229165":11580,"1229158":11581,"862630":11582,"CuAlSe":11583,"866156":11584,"866163":11585,"866094":11586,"866805":11587,"866141":11588,"866051":11589,"573891":11590,"1215423":11591,"1215429":11592,"1207627":11593,"12360":11594,"1218022":11595,"1218062":11596,"1218035":11597,"1218003":11598,"9791":11599,"571103":11600,"1206544":11601,"1206829":11602,"1206884":11603,"1206858":11604,"10676":11605,"10677":11606,"1105127":11607,"1023939":11608,"15652":11609,"15657":11610,"1246514":11611,"1246856":11612,"1246073":11613,"1069139":11614,"1009657":11615,"977115":11616,"977541":11617,"977578":11618,"1215575":11619,"1215529":11620,"1072802":11621,"1102658":11622,"18654":11623,"CoNiGa":11624,"1103749":11625,"1025347":11626,"1025371":11627,"1025302":11628,"1025356":11629,"971836":11630,"ĠCaSnHg":11631,"TiPdZn":11632,"22775":11633,"1228988":11634,"1228906":11635,"YAgAl":11636,"YAgGa":11637,"ZrRhGa":11638,"31185":11639,"ĠNFeMo":11640,"ĠHfZnCu":11641,"20952":11642,"20970":11643,"1226783":11644,"1226761":11645,"1551":11646,"ĠSNbCu":11647,"15985":11648,"865520":11649,"865518":11650,"27467":11651,"27488":11652,"22312":11653,"999052":11654,"1215353":11655,"1215357":11656,"1215382":11657,"15272":11658,"KHgSb":11659,"ĠCuSnPd":11660,"31081":11661,"22150":11662,"1218961":11663,"1218414":11664,"1209130":11665,"1209818":11666,"CaAuP":11667,"1029975":11668,"1029330":11669,"1029334":11670,"27997":11671,"865448":11672,"17984":11673,"NiAlHf":11674,"1220367":11675,"1220396":11676,"1220347":11677,"1220366":11678,"1220374":11679,"1220377":11680,"ĠAlVNi":11681,"21340":11682,"20389":11683,"12473":11684,"12474":11685,"TiMoAs":11686,"TiMoRe":11687,"607437":11688,"1228473":11689,"1228713":11690,"1228192":11691,"1228856":11692,"1228701":11693,"1228801":11694,"AsSeAg":11695,"GaAlN":11696,"PdAuPb":11697,"1199938":11698,"975140":11699,"672661":11700,"1193756":11701,"SrCdGa":11702,"SrCdBi":11703,"SrCdPb":11704,"24747":11705,"9801":11706,"980936":11707,"1228810":11708,"1228893":11709,"1228890":11710,"YRhZn":11711,"ĠSCaTi":11712,"ĠTiNiSn":11713,"1103243":11714,"1103293":11715,"849086":11716,"28930":11717,"20521":11718,"685941":11719,"1226104":11720,"1226089":11721,"1226070":11722,"1218951":11723,"1218994":11724,"1218931":11725,"ZrSiAs":11726,"ĠYZnSi":11727,"864980":11728,"864990":11729,"1208205":11730,"1208228":11731,"1208335":11732,"1208235":11733,"1014252":11734,"1014226":11735,"ScHfSi":11736,"ScHfOs":11737,"1217902":11738,"1217989":11739,"1217990":11740,"1217269":11741,"1227422":11742,"1227421":11743,"1227504":11744,"1227698":11745,"1227330":11746,"13146":11747,"998151":11748,"998197":11749,"PtZnAsPt":11750,"1217180":11751,"1217185":11752,"1217191":11753,"1217195":11754,"1025220":11755,"1025293":11756,"1025258":11757,"571021":11758,"1207382":11759,"1207394":11760,"22418":11761,"17174":11762,"1095594":11763,"ĠMnAlV":11764,"ĠMnAlRu":11765,"ĠMnAlIr":11766,"HfPtAl":11767,"1102307":11768,"1102342":11769,"1104042":11770,"1186766":11771,"1186768":11772,"YCuAs":11773,"1215933":11774,"1215988":11775,"1215987":11776,"1070152":11777,"1104366":11778,"1104334":11779,"ĠSAlZn":11780,"1214851":11781,"SrPtTl":11782,"FeAsTe":11783,"CaCdPb":11784,"1025586":11785,"27647":11786,"PbTePbS":11787,"1217371":11788,"1217325":11789,"1245848":11790,"1215712":11791,"1219521":11792,"YZnSi":11793,"RhAsTe":11794,"13020":11795,"1187211":11796,"1224247":11797,"1224271":11798,"1216680":11799,"19747":11800,"972042":11801,"1077944":11802,"1023941":11803,"1023948":11804,"ScCuZn":11805,"1216354":11806,"1216347":11807,"1216378":11808,"TiRhGe":11809,"1224725":11810,"1224768":11811,"1224790":11812,"1224798":11813,"981368":11814,"981377":11815,"865948":11816,"1178678":11817,"1221642":11818,"1221669":11819,"1221624":11820,"TiCrTc":11821,"1207753":11822,"1207782":11823,"1207776":11824,"1227346":11825,"1227313":11826,"1078012":11827,"1013555":11828,"1013554":11829,"1013588":11830,"23269":11831,"1205841":11832,"1224480":11833,"1224408":11834,"680850":11835,"754628":11836,"1222167":11837,"865010":11838,"865051":11839,"865001":11840,"865027":11841,"570355":11842,"1101789":11843,"24287":11844,"ĠGaFeRu":11845,"568020":11846,"977353":11847,"977361":11848,"1219322":11849,"1219323":11850,"1187705":11851,"1229008":11852,"862379":11853,"1218362":11854,"1218359":11855,"1218329":11856,"1218327":11857,"1217015":11858,"1080033":11859,"NbMoSi":11860,"30019":11861,"567769":11862,"1224885":11863,"CuInTe":11864,"861656":11865,"ĠTeMnCd":11866,"1078908":11867,"7806":11868,"570258":11869,"972914":11870,"1187497":11871,"1187491":11872,"1220418":11873,"865145":11874,"1219016":11875,"1191862":11876,"862602":11877,"1206379":11878,"1102945":11879,"TiTeS":11880,"29387":11881,"1096986":11882,"MoRhP":11883,"HfRhAl":11884,"HfRhGa":11885,"865779":11886,"865768":11887,"865728":11888,"1077351":11889,"ĠHfZrN":11890,"HfZrN":11891,"1208220":11892,"1208241":11893,"1190773":11894,"TiNiSn":11895,"TiNiCu":11896,"1196650":11897,"23290":11898,"574339":11899,"865615":11900,"1103031":11901,"1216734":11902,"697144":11903,"697135":11904,"1101982":11905,"1103608":11906,"17291":11907,"22565":11908,"1215268":11909,"1095185":11910,"1223842":11911,"1068239":11912,"865878":11913,"865876":11914,"985442":11915,"ĠTeZrCu":11916,"TiWMn":11917,"TaTeCl":11918,"862288":11919,"1105715":11920,"1071127":11921,"ZrAlCo":11922,"541609":11923,"1218835":11924,"1106356":11925,"1216903":11926,"1025799":11927,"18561":11928,"ĠCuGeRh":11929,"1147746":11930,"1227033":11931,"1227038":11932,"31263":11933,"1103150":11934,"ScPdGe":11935,"1183005":11936,"HfMoSb":11937,"1216033":11938,"1216005":11939,"1216045":11940,"1216001":11941,"571377":11942,"1027687":11943,"1084767":11944,"1084770":11945,"14791":11946,"1094107":11947,"1227418":11948,"1079325":11949,"867821":11950,"SbNSr":11951,"569388":11952,"ĠVGaOs":11953,"690772":11954,"569012":11955,"ĠTiCrTc":11956,"AsNSr":11957,"998512":11958,"998561":11959,"1105654":11960,"1077722":11961,"865232":11962,"1206854":11963,"1227567":11964,"1029387":11965,"696805":11966,"623089":11967,"7084":11968,"1213756":11969,"1104139":11970,"1194660":11971,"961687":11972,"1218273":11973,"1218268":11974,"760381":11975,"641924":11976,"1208409":11977,"1104974":11978,"1104956":11979,"1223382":11980,"676250":11981,"1187511":11982,"1228043":11983,"1228015":11984,"1173830":11985,"555843":11986,"604908":11987,"1220004":11988,"1223996":11989,"1223908":11990,"15322":11991,"640041":11992,"ZrWCr":11993,"ZrCrCo":11994,"1101075":11995,"1101092":11996,"34292":11997,"541236":11998,"555569":11999,"975275":12000,"1102288":12001,"1206591":12002,"1078469":12003,"ĠHgPPd":12004,"1095396":12005,"924130":12006,"1078326":12007,"1197660":12008,"1203283":12009,"1191256":12010,"505278":12011,"1106245":12012,"1078183":12013,"1246957":12014,"31510":12015,"31507":12016,"650513":12017,"866375":12018,"866376":12019,"1208837":12020,"1208839":12021,"1101885":12022,"1226514":12023,"1026356":12024,"1070356":12025,"580930":12026,"675120":12027,"23705":12028,"976930":12029,"630875":12030,"1215689":12031,"667294":12032,"1227788":12033,"1189774":12034,"1245445":12035,"1211643":12036,"541149":12037,"991656":12038,"1194987":12039,"1189054":12040,"1225993":12041,"642845":12042,"1206405":12043,"1220743":12044,"540884":12045,"CoCrTa":12046,"557643":12047,"849067":12048,"1100995":12049,"1194481":12050,"610522":12051,"Ġchlorate":12052,"ĠCubane":12053,"ĠTridymite":12054,"ĠAsGeAsAu":12055,"542239":12056,"505822":12057,"1202791":12058,"ĠPotassium":12059,"0062":12060,"1714":12061,"2674":12062,"343":12063,"340":12064,"318":12065,"3464":12066,"3422":12067,"3862":12068,"3539":12069,"3648":12070,"3927":12071,"38605":12072,"408":12073,"485":12074,"4678":12075,"4978":12076,"4404":12077,"566":12078,"5100":12079,"51008":12080,"5213":12081,"5157":12082,"510285":12083,"6628":12084,"722":12085,"7221":12086,"7437":12087,"904":12088,"9673":12089,"9538":12090,"9463":12091,"9251":12092,"9587":12093,"KV":12094,"KTi":12095,"KCrS":12096,"KZnP":12097,"KAlTe":12098,"KYS":12099,"PSn":12100,"SPS":12101,"SCuS":12102,"VCoSi":12103,"VMnP":12104,"VMnAs":12105,"YGe":12106,"YCuS":12107,"YRhSi":12108,"YNiGa":12109,"YCuGa":12110,"YPdBi":12111,"YPtSi":12112,"YZrSb":12113,"beta":12114,"ca":12115,"ĠCri":12116,"stob":12117,"ĠInMo":12118,"ĠInCuPd":12119,"ĠTiSnPt":12120,"ĠTiCrAs":12121,"ĠTiVTc":12122,"AlTi":12123,"ĠCaGa":12124,"ĠPdY":12125,"ĠHfScRu":12126,"ĠNiH":12127,"ĠZrRuSb":12128,"ĠZrSnRh":12129,"ĠZrScTc":12130,"2079":12131,"20133":12132,"20938":12133,"20479":12134,"20661":12135,"20235":12136,"ĠPtHg":12137,"ĠYFe":12138,"ĠYNi":12139,"ĠYCuSi":12140,"ĠNaCrS":12141,"ĠNaCaAs":12142,"ĠNaFeN":12143,"FeZr":12144,"FeNiAs":12145,"FeNiSe":12146,"FeTiH":12147,"FeNiGe":12148,"ĠVCuRh":12149,"ĠNbCu":12150,"ĠNbCrN":12151,"ĠTeW":12152,"ĠScTaRu":12153,"ĠScTaOs":12154,"ĠScVRu":12155,"ĠMoNbW":12156,"PdGa":12157,"PdZrAl":12158,"ĠAsMn":12159,"ĠAsRe":12160,"ĠTaSn":12161,"ĠTaTiAl":12162,"ĠTaInS":12163,"ĠTaWSe":12164,"ĠTaTiTe":12165,"ĠTaSnRh":12166,"ĠTaFeRu":12167,"ĠTaSnRu":12168,"ĠSrNi":12169,"ĠSrGaSi":12170,"ĠSrCaIn":12171,"ĠZnSnRh":12172,"TiNiAs":12173,"TiNiSi":12174,"TiCoGe":12175,"TiCrSi":12176,"TiFeAs":12177,"TiIrSi":12178,"TiVTc":12179,"TiPtSn":12180,"10166":12181,"10866":12182,"10223":12183,"10895":12184,"10749":12185,"PtN":12186,"PtPt":12187,"PtHg":12188,"PtSbSe":12189,"PtBiSb":12190,"ĠGeBiPd":12191,"ĠSnCd":12192,"ĠSnPb":12193,"NiPt":12194,"NiMo":12195,"GaZr":12196,"GaHf":12197,"GaOs":12198,"ĠKFe":12199,"ĠKZr":12200,"ĠKCaCl":12201,"ĠKYS":12202,"ĠAgSnTe":12203,"ĠCrSnRh":12204,"ĠFeNiAs":12205,"ĠFeCoAs":12206,"SbRuZr":12207,"ĠMnIn":12208,"ĠMnRhSb":12209,"GeBi":12210,"GeOs":12211,"12464":12212,"12675":12213,"12557":12214,"12537":12215,"12962":12216,"ZnTl":12217,"ZnCdSb":12218,"SnMo":12219,"SnNbS":12220,"RhAg":12221,"RhCoAs":12222,"RhAsSe":12223,"RhBiS":12224,"RhCoS":12225,"RhPtZn":12226,"CuCrS":12227,"CuAsS":12228,"CuZrGe":12229,"CuAsTe":12230,"AgGe":12231,"AgRh":12232,"AgSnTe":12233,"AgAsS":12234,"AgGaSe":12235,"MoTc":12236,"MoNbW":12237,"ZrNiAs":12238,"ZrGeS":12239,"ZrCuSi":12240,"ZrPtSi":12241,"ZrMoGe":12242,"ZrTiAu":12243,"ZrMnFe":12244,"ZrVNi":12245,"ZrCoBi":12246,"ĠIrSc":12247,"ĠRbTl":12248,"HfGeS":12249,"HfCoSn":12250,"HfRuSb":12251,"HfCrAl":12252,"HfZrS":12253,"HfReSi":12254,"ĠEss":12255,"6763":12256,"3312":12257,"3390":12258,"1182":12259,"11501":12260,"11504":12261,"11928":12262,"11438":12263,"11144":12264,"11400":12265,"11401":12266,"AuP":12267,"AuSe":12268,"AuGa":12269,"AuGe":12270,"9622":12271,"9682":12272,"9635":12273,"084":12274,"0869":12275,"4247":12276,"4281":12277,"4276":12278,"CoNb":12279,"CoMnSb":12280,"RuCo":12281,"RuNiGa":12282,"RuNiAl":12283,"RuPdAl":12284,"6954":12285,"6916":12286,"6959":12287,"ĠClH":12288,"Ġ88":12289,"IrCuZn":12290,"5066":12291,"5045":12292,"16090":12293,"16226":12294,"16236":12295,"16225":12296,"16439":12297,"5350":12298,"5305":12299,"NbCr":12300,"NbSeS":12301,"NbCuGa":12302,"NbNiGe":12303,"NbCoSb":12304,"NbCrN":12305,"TaTl":12306,"TaCoSi":12307,"TaRhSn":12308,"TaCoP":12309,"TaMnSi":12310,"TaCrNi":12311,"CaGe":12312,"CaRu":12313,"CaMnGe":12314,"CaMnSb":12315,"CaCrN":12316,"ĠCsCd":12317,"ĠCsMnAs":12318,"ĠCsCdCl":12319,"CdH":12320,"CdTl":12321,"CdSnP":12322,"CdGeAs":12323,"ScAgZn":12324,"ScTaRu":12325,"ScCoSn":12326,"ScMnGe":12327,"ScIrSi":12328,"ScTaOs":12329,"ScVRu":12330,"ScOsGe":12331,"ScZrTc":12332,"5573":12333,"5528":12334,"556916":12335,"555066":12336,"2263":12337,"22167":12338,"22152":12339,"22546":12340,"22444":12341,"22332":12342,"ĠHgGaCl":12343,"ĠHgAsPd":12344,"PbC":12345,"15221":12346,"21459":12347,"21851":12348,"21491":12349,"8854":12350,"8843":12351,"NaSn":12352,"NaInS":12353,"NaAlH":12354,"NaCaH":12355,"NaCaAs":12356,"NaFeN":12357,"NaScCl":12358,"NaZnSb":12359,"4721":12360,"4728":12361,"7173":12362,"7187":12363,"CrBi":12364,"061":12365,"4026":12366,"HgGaCl":12367,"MnBi":12368,"MnRe":12369,"MnCoGe":12370,"MnCuSe":12371,"MnIrSi":12372,"MnRhSb":12373,"SrSi":12374,"SrMn":12375,"SrCaIn":12376,"SrRhIn":12377,"SrAgAs":12378,"23026":12379,"23739":12380,"577":12381,"5700":12382,"4653":12383,"8276":12384,"8308":12385,"TlZn":12386,"TlCo":12387,"TlCd":12388,"TlInS":12389,"19728":12390,"2589":12391,"7365":12392,"6876":12393,"OsCo":12394,"OsSbSe":12395,"OsAsS":12396,"OsAsSe":12397,"2447":12398,"972187":12399,"977443":12400,"978854":12401,"976876":12402,"0447":12403,"5149":12404,"3498":12405,"5617":12406,"8446":12407,"14086":12408,"29850":12409,"29139":12410,"29198":12411,"29487":12412,"29811":12413,"29432":12414,"13573":12415,"4953":12416,"4997":12417,"4822":12418,"4840":12419,"4846":12420,"9010":12421,"RbTl":12422,"8712":12423,"8753":12424,"ĠAlTiNi":12425,"9145":12426,"3602":12427,"3618":12428,"9987":12429,"9580":12430,"9571":12431,"9586":12432,"27331":12433,"27814":12434,"eneite":12435,"17801":12436,"3006":12437,"3019":12438,"30460":12439,"30092":12440,"30465":12441,"31460":12442,"31456":12443,"31451":12444,"31438":12445,"28717":12446,"12007":12447,"1200062":12448,"1203422":12449,"1204281":12450,"1208308":12451,"CsN":12452,"CsV":12453,"CsCd":12454,"CsSnS":12455,"CsGaS":12456,"CsMnAs":12457,"CsCdCl":12458,"CsNaSe":12459,"CsNaS":12460,"11055":12461,"110452":12462,"110180":12463,"1105702":12464,"1101887":12465,"1102285":12466,"1105850":12467,"ĠTiAlOs":12468,"1221198":12469,"1226323":12470,"1225022":12471,"23318":12472,"11621":12473,"ĠScSbPt":12474,"1216867":12475,"1216222":12476,"1216678":12477,"1216699":12478,"1216437":12479,"1216430":12480,"1216193":12481,"1216495":12482,"1216072":12483,"1216135":12484,"1216017":12485,"1216056":12486,"1216963":12487,"1216843":12488,"1216563":12489,"1070869":12490,"1072589":12491,"1183191":12492,"1183232":12493,"1183547":12494,"1183135":12495,"1183516":12496,"1186222":12497,"1186162":12498,"1186185":12499,"ĠVSiRu":12500,"1220110":12501,"1220472":12502,"1220670":12503,"1220676":12504,"1220695":12505,"1220335":12506,"1220413":12507,"1220475":12508,"1220089":12509,"1220587":12510,"1079862":12511,"1079999":12512,"1079228":12513,"1079224":12514,"1079546":12515,"1079718":12516,"1079831":12517,"1079729":12518,"1079679":12519,"ĠAlScAg":12520,"569167":12521,"569983":12522,"569881":12523,"569823":12524,"569408":12525,"ĠAlCuRh":12526,"ĠHfAlRu":12527,"8675":12528,"867109":12529,"867308":12530,"867156":12531,"867216":12532,"867137":12533,"867249":12534,"867851":12535,"867897":12536,"867475":12537,"867787":12538,"867761":12539,"567330":12540,"567749":12541,"567181":12542,"567485":12543,"1215979":12544,"1215221":12545,"1215279":12546,"1215188":12547,"1215678":12548,"1215729":12549,"1215600":12550,"1215811":12551,"ĠZrAlRu":12552,"11958":12553,"1192507":12554,"1198712":12555,"ĠNbSeS":12556,"1187098":12557,"1187939":12558,"1187731":12559,"1187079":12560,"1187701":12561,"1187424":12562,"1187095":12563,"1219015":12564,"1219132":12565,"1219466":12566,"1219292":12567,"1219926":12568,"1219237":12569,"ĠCoZrBi":12570,"ĠSiSiNi":12571,"1080233":12572,"1080204":12573,"1080495":12574,"1080760":12575,"30847":12576,"30864":12577,"1018722":12578,"1224121":12579,"1224116":12580,"1224464":12581,"1224972":12582,"1224484":12583,"1224466":12584,"1224540":12585,"1224451":12586,"1224413":12587,"1224448":12588,"1224859":12589,"1224425":12590,"1217202":12591,"1217126":12592,"1217205":12593,"1217214":12594,"1217791":12595,"1217891":12596,"1217089":12597,"ĠHfGeRu":12598,"1221555":12599,"1221421":12600,"1221692":12601,"1221534":12602,"1221431":12603,"1221436":12604,"ĠZrGaPd":12605,"ĠCaSbPd":12606,"1223955":12607,"1223835":12608,"1223859":12609,"22275":12610,"ĠNbGaOs":12611,"ĠScGaRu":12612,"ĠYInCu":12613,"ĠYInAg":12614,"1188208":12615,"1188693":12616,"1188987":12617,"1188318":12618,"ĠSInAg":12619,"1078739":12620,"1078963":12621,"ĠGaTeS":12622,"ĠSeCsSb":12623,"ĠSrSiGe":12624,"1184118":12625,"1184180":12626,"ĠFeSiW":12627,"ĠAlAsPt":12628,"1186958":12629,"ĠTiGaFe":12630,"ĠNiYBi":12631,"10076":12632,"ĠIbca":12633,"ĠCoNbSb":12634,"ĠSBiRh":12635,"11350":12636,"570122":12637,"ĠTaAlFe":12638,"ĠTaAlRu":12639,"PSOs":12640,"ĠSRuRh":12641,"ĠSVCr":12642,"568544":12643,"1077935":12644,"1077939":12645,"1025203":12646,"1025191":12647,"1025161":12648,"1018076":12649,"ĠZrGeRu":12650,"20419":12651,"1224324":12652,"1224303":12653,"10596":12654,"10521":12655,"21273":12656,"21260":12657,"1030447":12658,"11768":12659,"30662":12660,"30659":12661,"30603":12662,"865100":12663,"865124":12664,"865538":12665,"865898":12666,"865651":12667,"865093":12668,"865931":12669,"9730":12670,"973434":12671,"973904":12672,"ĠInPPd":12673,"1189305":12674,"1189516":12675,"1189265":12676,"1189075":12677,"1189340":12678,"ĠNaInHg":12679,"2960":12680,"2961":12681,"1184721":12682,"ĠRuSbHf":12683,"ĠTiZnCo":12684,"16740":12685,"862699":12686,"ĠHgTeS":12687,"1184611":12688,"1184684":12689,"866132":12690,"866219":12691,"866168":12692,"12781":12693,"ĠTlSCl":12694,"ĠHfNiSn":12695,"1215462":12696,"1215476":12697,"1215490":12698,"1215487":12699,"30596":12700,"30557":12701,"1207828":12702,"1207428":12703,"1207855":12704,"ĠNiZnSb":12705,"1218073":12706,"1218049":12707,"1218063":12708,"1218028":12709,"9794":12710,"979414":12711,"1206129":12712,"1206525":12713,"1206699":12714,"1206424":12715,"ĠTiMoP":12716,"1105077":12717,"1105851":12718,"1105859":12719,"16945":12720,"16930":12721,"1188004":12722,"1188077":12723,"1188017":12724,"1188003":12725,"20242":12726,"20255":12727,"20289":12728,"20279":12729,"1225183":12730,"1225654":12731,"12466":12732,"1246460":12733,"1246089":12734,"1069824":12735,"1069811":12736,"10412":12737,"10457":12738,"30722":12739,"30798":12740,"1009152":12741,"977427":12742,"977436":12743,"1215552":12744,"1215564":12745,"28080":12746,"28024":12747,"ĠTaGaRu":12748,"1072944":12749,"22909":12750,"1102101":12751,"1102693":12752,"1102534":12753,"1102841":12754,"1102631":12755,"18648":12756,"CoNiAl":12757,"1103098":12758,"1103123":12759,"1103545":12760,"1103826":12761,"1103787":12762,"1103248":12763,"1103091":12764,"1025306":12765,"1025359":12766,"983850":12767,"971739":12768,"22712":12769,"22769":12770,"22722":12771,"1228909":12772,"1228913":12773,"YAgS":12774,"YAgSb":12775,"675977":12776,"675531":12777,"1008624":12778,"11176":12779,"31169":12780,"31171":12781,"ĠHfZnPd":12782,"570858":12783,"20708":12784,"1226731":12785,"755263":12786,"ĠSiFeRu":12787,"865507":12788,"865585":12789,"865560":12790,"865591":12791,"27462":12792,"22396":12793,"22315":12794,"1215305":12795,"1215371":12796,"1215302":12797,"1215378":12798,"1078635":12799,"31055":12800,"CuGaSe":12801,"1218857":12802,"1218331":12803,"1218960":12804,"1209061":12805,"ĠSnPPt":12806,"CaAuAs":12807,"CaAuBi":12808,"1029506":12809,"972895":12810,"2790":12811,"WSeTe":12812,"865442":12813,"865485":12814,"865441":12815,"17910":12816,"1220358":12817,"1079908":12818,"HfIrGe":12819,"21662":12820,"21659":12821,"ĠAlVMn":12822,"21371":12823,"21352":12824,"21374":12825,"20378":12826,"12470":12827,"1247422":12828,"TiMoP":12829,"12951":12830,"607230":12831,"607475":12832,"607409":12833,"YPdAl":12834,"YPdIn":12835,"YPdGa":12836,"YPdSn":12837,"1228691":12838,"1228807":12839,"974381":12840,"ĠSeMnCu":12841,"867345":12842,"697076":12843,"SrAuAs":12844,"998970":12845,"11938":12846,"SrCdGe":12847,"1184567":12848,"1184560":12849,"1184594":12850,"RuRhS":12851,"CaPtAl":12852,"CaPtCd":12853,"980200":12854,"980665":12855,"980948":12856,"BiSCl":12857,"1205392":12858,"1228829":12859,"669311":12860,"YRhGe":12861,"ĠZnCuPt":12862,"ĠYBiPd":12863,"849073":12864,"849084":12865,"571609":12866,"20554":12867,"1185995":12868,"1226106":12869,"1218954":12870,"1218955":12871,"1218915":12872,"1218976":12873,"19877":12874,"864909":12875,"864947":12876,"976184":12877,"1208730":12878,"1208400":12879,"CuSiTi":12880,"21409":12881,"SrGeSi":12882,"14242":12883,"14266":12884,"28347":12885,"HfPdSi":12886,"ScHfRu":12887,"1217979":12888,"1227717":12889,"1227558":12890,"1227574":12891,"862715":12892,"19953":12893,"19906":12894,"998421":12895,"1217112":12896,"1025279":12897,"1025248":12898,"1025235":12899,"28842":12900,"28860":12901,"28884":12902,"33618":12903,"16493":12904,"1095443":12905,"1095440":12906,"1095465":12907,"1095464":12908,"17148":12909,"6439":12910,"1095553":12911,"1095584":12912,"1095563":12913,"1226011":12914,"1226014":12915,"1226036":12916,"ĠMnAlRh":12917,"HfPtGa":12918,"1102373":12919,"9856":12920,"985831":12921,"15896":12922,"1104024":12923,"1104000":12924,"1186761":12925,"568394":12926,"1215945":12927,"1215914":12928,"18021":12929,"18026":12930,"1070099":12931,"570598":12932,"1104377":12933,"28242":12934,"ĠSAlMo":12935,"ĠCuSbRh":12936,"1102011":12937,"1102086":12938,"1102041":12939,"24034":12940,"1216457":12941,"1025573":12942,"1025587":12943,"27669":12944,"27630":12945,"1217319":12946,"1217360":12947,"TiAsTe":12948,"1245633":12949,"1245808":12950,"1245896":12951,"504838":12952,"1215733":12953,"1219512":12954,"ĠCaInCu":12955,"1224250":12956,"1224244":12957,"11338":12958,"NaAuSe":12959,"NaAuIn":12960,"1077915":12961,"1077979":12962,"1183454":12963,"1183482":12964,"570769":12965,"1224770":12966,"1224703":12967,"981312":12968,"557737":12969,"865914":12970,"1206600":12971,"1221643":12972,"1221629":12973,"1221632":12974,"542614":12975,"542613":12976,"1207707":12977,"1207727":12978,"1227320":12979,"1078054":12980,"1078064":12981,"18361":12982,"1013525":12983,"29740":12984,"1205800":12985,"1205641":12986,"1224414":12987,"30931":12988,"865026":12989,"865030":12990,"SrPdSi":12991,"SrPdTl":12992,"1101771":12993,"972236":12994,"972217":12995,"989651":12996,"24237":12997,"7930":12998,"YAuGa":12999,"1219442":13000,"ĠHKS":13001,"977367":13002,"977347":13003,"977356":13004,"TcPdAl":13005,"1219380":13006,"1219356":13007,"1187716":13008,"1187725":13009,"1229006":13010,"862374":13011,"862368":13012,"862300":13013,"1218328":13014,"1217016":13015,"1078884":13016,"AgAlS":13017,"1225731":13018,"1224875":13019,"861604":13020,"866170":13021,"NbPdSi":13022,"CrAsTiAs":13023,"HfNiSn":13024,"861940":13025,"1207015":13026,"1187418":13027,"1187444":13028,"1079695":13029,"684744":13030,"1087479":13031,"1095628":13032,"1191100":13033,"568940":13034,"RbAuS":13035,"1206365":13036,"31457":13037,"YNiBi":13038,"ĠVGeRu":13039,"NbRuP":13040,"864898":13041,"29371":13042,"AlCuY":13043,"AlCuTi":13044,"AlCuSc":13045,"ĠNbMoW":13046,"MoRhPd":13047,"1100786":13048,"1184299":13049,"1077354":13050,"542486":13051,"1208257":13052,"1208248":13053,"YPtSn":13054,"ĠNNaSi":13055,"MoSiZr":13056,"ZrGeSb":13057,"SrCuAs":13058,"SrCuSb":13059,"865654":13060,"1103046":13061,"1216724":13062,"FeTeFe":13063,"542537":13064,"1101950":13065,"1101995":13066,"1103642":13067,"22580":13068,"1215270":13069,"1095180":13070,"1095148":13071,"1223869":13072,"1068157":13073,"10844":13074,"1084838":13075,"ScPtSb":13076,"ScPtSn":13077,"865810":13078,"TiWTc":13079,"1105749":13080,"1071955":13081,"RhVAs":13082,"541686":13083,"571263":13084,"1218812":13085,"1218893":13086,"1095607":13087,"1216927":13088,"1221515":13089,"1221513":13090,"1228454":13091,"1228443":13092,"1025728":13093,"18567":13094,"18562":13095,"18594":13096,"1147754":13097,"1147709":13098,"1102650":13099,"KAgSe":13100,"ĠZnGaIr":13101,"1103172":13102,"1103176":13103,"1087485":13104,"1087487":13105,"1066232":13106,"1207169":13107,"1103879":13108,"ĠSGaNi":13109,"MnZnTe":13110,"1224908":13111,"1224951":13112,"1224944":13113,"ĠHfSnRu":13114,"1006888":13115,"1205784":13116,"1207408":13117,"1227450":13118,"1227441":13119,"1079361":13120,"1079582":13121,"867878":13122,"1080469":13123,"1080489":13124,"863707":13125,"18132":13126,"605735":13127,"1203338":13128,"ĠTiInRh":13129,"ĠSeGaMo":13130,"1014204":13131,"1238847":13132,"1192151":13133,"505034":13134,"1095057":13135,"28773":13136,"984872":13137,"12798":13138,"1110880":13139,"600125":13140,"1105647":13141,"1077746":13142,"979910":13143,"3299":13144,"1213754":13145,"568832":13146,"1100408":13147,"1228724":13148,"1024067":13149,"1024048":13150,"1101173":13151,"1101118":13152,"562726":13153,"NiZnSb":13154,"1213092":13155,"ZrAuGa":13156,"13583":13157,"1104120":13158,"1104155":13159,"676586":13160,"961653":13161,"961685":13162,"866296":13163,"1218262":13164,"1217815":13165,"1217821":13166,"1225059":13167,"867753":13168,"867775":13169,"867781":13170,"28645":13171,"SrNiIn":13172,"637292":13173,"1102520":13174,"1102564":13175,"1078257":13176,"38011":13177,"ĠCdInPd":13178,"ĠCdInRh":13179,"862911":13180,"510409":13181,"675374":13182,"675325":13183,"1201566":13184,"1103310":13185,"28580":13186,"27776":13187,"ĠHfInCu":13188,"1208590":13189,"1104686":13190,"34232":13191,"16839":13192,"29419":13193,"995201":13194,"1221720":13195,"1221702":13196,"862446":13197,"1206550":13198,"1192266":13199,"675590":13200,"556712":13201,"1194003":13202,"1246521":13203,"924128":13204,"21774":13205,"972879":13206,"1103984":13207,"1214793":13208,"1214784":13209,"1027647":13210,"998601":13211,"1216252":13212,"1216245":13213,"1079080":13214,"1191285":13215,"558760":13216,"972183":13217,"637052":13218,"637251":13219,"1207843":13220,"1207848":13221,"1208721":13222,"1218558":13223,"1224516":13224,"1224598":13225,"1078155":13226,"1028755":13227,"1028762":13228,"27513":13229,"27255":13230,"1212052":13231,"644229":13232,"1026362":13233,"1221485":13234,"945077":13235,"945184":13236,"TiTaAl":13237,"1210567":13238,"1173040":13239,"976920":13240,"1103724":13241,"1215609":13242,"1193337":13243,"BiNSr":13244,"1182950":13245,"976257":13246,"768613":13247,"998155":13248,"1071645":13249,"1191644":13250,"1190583":13251,"1219266":13252,"1066718":13253,"674984":13254,"572596":13255,"991296":13256,"1206177":13257,"1094021":13258,"1028604":13259,"1245524":13260,"581716":13261,"1070755":13262,"1211589":13263,"542387":13264,"674355":13265,"1183512":13266,"1220597":13267,"1028823":13268,"34337":13269,"510086":13270,"SPSSCs":13271,"YGeSn":13272,"ĠCristob":13273,"1086669":13274,"ĠEsseneite":13275,"676329":13276,"1182452":13277,"557308":13278,"570008":13279,"561710":13280,"1104526":13281,"1101809":13282,"ĠCristobalite":13283,")(":13284,"254":13285,"28658":13286,"31072":13287,"3504":13288,"3772":13289,"3529":13290,"3934":13291,"3830":13292,"4573":13293,"5549":13294,"5881":13295,"602":13296,"689":13297,"6127":13298,"6969":13299,"720":13300,"715":13301,"702":13302,"7429":13303,"7077":13304,"7439":13305,"7684":13306,"878":13307,"8126":13308,"8539":13309,"8435":13310,"8456":13311,"8543":13312,"8966":13313,"8190":13314,"921":13315,"902":13316,"914":13317,"9857":13318,"9576":13319,"9437":13320,"9561":13321,"9295":13322,"HN":13323,"KSnSe":13324,"KAuTe":13325,"KYTe":13326,"KAlCl":13327,"KSnAs":13328,"KAgCl":13329,"KCuCl":13330,"KGaH":13331,"VSn":13332,"VNiAs":13333,"VMoAs":13334,"VCrAs":13335,"YV":13336,"YBi":13337,"YSc":13338,"YCr":13339,"YReN":13340,"YScFe":13341,"ncm":13342,"ĠCNi":13343,"ĠCCa":13344,"ĠNW":13345,"ĠInCuTe":13346,"ĠInGaS":13347,"ĠInGaP":13348,"ĠAlGaP":13349,"ĠTiV":13350,"ĠTiCuS":13351,"ĠTiVN":13352,"ĠTiVSe":13353,"ĠTiVH":13354,"ĠTiVRe":13355,"AlIn":13356,"AlAg":13357,"AlHf":13358,"AlRu":13359,"AlPb":13360,"ĠCaMo":13361,"ĠCaZrRh":13362,"ĠCaGaN":13363,"ĠCaYPt":13364,"ĠCaMnS":13365,"ĠHfV":13366,"ĠHfMn":13367,"ĠHfTaRu":13368,"ĠNiSn":13369,"ĠNiCl":13370,"ĠNiSrSn":13371,"ĠNiAgSe":13372,"ĠZrTiS":13373,"ĠZrFeSb":13374,"ĠZrNiSn":13375,"20192":13376,"20331":13377,"20744":13378,"20791":13379,"ĠSiSnPt":13380,"ĠSiCoSi":13381,"ĠGaSr":13382,"ĠSePRh":13383,"ĠYSc":13384,"ĠYCuSe":13385,"ĠYScS":13386,"ĠYScFe":13387,"InV":13388,"InNi":13389,"InSbS":13390,"InGaP":13391,"ĠNaMo":13392,"ĠNaMnSe":13393,"FeMn":13394,"FeSbS":13395,"FeCoSi":13396,"FeAsS":13397,"FeCoGa":13398,"FeNbSb":13399,"ĠVCrFe":13400,"ĠVSnRu":13401,"ĠNbCoTe":13402,"ĠNbCrSe":13403,"SiOs":13404,"ĠTeAl":13405,"ĠTeHf":13406,"ĠTeTaCu":13407,"ĠScV":13408,"ĠScTi":13409,"ĠScTaTc":13410,"ĠMoWSe":13411,"PdTlPb":13412,"PdNiTe":13413,"ĠAsReNi":13414,"AsBi":13415,"AsTl":13416,"ĠTaCr":13417,"ĠTaSeS":13418,"ĠTaPbSe":13419,"TeBi":13420,"ĠSrGaGe":13421,"8016":13422,"8017":13423,"TiRb":13424,"TiTeSe":13425,"TiCuS":13426,"TiZnGa":13427,"TiMnAs":13428,"TiPtGa":13429,"TiVN":13430,"TiNiGe":13431,"TiPtSi":13432,"TiReSi":13433,"TiGeSb":13434,"TiNbRe":13435,"TiVH":13436,"TiVRe":13437,"1016":13438,"1047":13439,"10207":13440,"10165":13441,"10164":13442,"10137":13443,"10435":13444,"10456":13445,"10648":13446,"10748":13447,"ĠCoH":13448,"ĠCoTeSe":13449,"ĠCoNiAs":13450,"PtSeS":13451,"PtCdAs":13452,"PtMnSb":13453,"ĠSnPbS":13454,"NiAuSn":13455,"NiAgSe":13456,"GaRu":13457,"GaPS":13458,"ĠKNb":13459,"ĠKRb":13460,"ĠKSnS":13461,"ĠKYTe":13462,"ĠKSnAs":13463,"ĠAgBiSe":13464,"ĠAgBiS":13465,"ĠAgBiPd":13466,"ĠCrFeAs":13467,"ĠFeTc":13468,"ĠFeAlSi":13469,"ĠMnSbPt":13470,"ĠMnZnS":13471,"ĠMnNiSb":13472,"ĠMnCoSn":13473,"ĠMnCoSb":13474,"ĠMnSnPd":13475,"GeCa":13476,"1253":13477,"1230":13478,"121216":13479,"12221":13480,"12125":13481,"12659":13482,"12759":13483,"ZnPt":13484,"SnIn":13485,"SnCu":13486,"SnGeTe":13487,"RhPt":13488,"RhNiAs":13489,"RhPSe":13490,"RhPdZn":13491,"RhPtCd":13492,"RhAuZn":13493,"CuSbS":13494,"CuSbSe":13495,"CuScS":13496,"CuZrAl":13497,"CuYSe":13498,"ĠRuH":13499,"ĠRuCl":13500,"MoFe":13501,"MoMnAs":13502,"ZrTi":13503,"ZrIr":13504,"ZrFeSi":13505,"ZrMnP":13506,"ZrTaFe":13507,"ZrFeSb":13508,"ZrFeAs":13509,"ZrNiGe":13510,"ZrCuGe":13511,"ZrIrAl":13512,"ZrNiBi":13513,"ZrCrMn":13514,"ZrMoFe":13515,"ĠIrMn":13516,"ĠRbCo":13517,"HfSeS":13518,"HfCuAl":13519,"HfCoSi":13520,"HfTaRu":13521,"HfMnSi":13522,"HfCrGa":13523,"5496":13524,"5405":13525,"541487":13526,"541062":13527,"4366":13528,"4364":13529,"6760":13530,"6756":13531,"6795":13532,"67569":13533,"ĠCdZr":13534,"1137":13535,"11202":13536,"11430":13537,"1113512":13538,"AuAs":13539,"AuCuSn":13540,"AuSiP":13541,"961652":13542,"4253":13543,"CoRe":13544,"CoSeS":13545,"RuNiSb":13546,"6981":13547,"6984":13548,"6987":13549,"IrMnSb":13550,"5044":13551,"ĠTlSiPt":13552,"1639":13553,"16501":13554,"16961":13555,"16234":13556,"5342":13557,"5318":13558,"5376":13559,"5327":13560,"NbIr":13561,"NbInS":13562,"NbCoSi":13563,"NbCoAl":13564,"NbCoTe":13565,"NbCrGa":13566,"NbCrSe":13567,"NbVP":13568,"TaMoS":13569,"TaPS":13570,"TaNiAs":13571,"TaCoGe":13572,"TaWFe":13573,"0565":13574,"CaZrRh":13575,"CaGaGe":13576,"CaGaN":13577,"CaAgAl":13578,"CaYPt":13579,"CaMnS":13580,"CaGeN":13581,"ĠCsN":13582,"ĠCsCo":13583,"ĠCsSnCl":13584,"ĠCsMnSe":13585,"ĠCsMnTe":13586,"BiAu":13587,"CdPSe":13588,"CdSiAs":13589,"ScTi":13590,"ScRe":13591,"ScCuSn":13592,"ScCoP":13593,"ScCuSe":13594,"ScTaTc":13595,"5589":13596,"5560":13597,"5563":13598,"ĠReSc":13599,"22233":13600,"22304":13601,"22717":13602,"22130":13603,"22426":13604,"22662":13605,"22731":13606,"22855":13607,"ĠHgPt":13608,"ĠHgPS":13609,"ĠHgPPt":13610,"PbIn":13611,"PbAu":13612,"PbPSe":13613,"PbHfS":13614,"PbTaSe":13615,"1511":13616,"15121":13617,"15226":13618,"2188":13619,"NaRb":13620,"NaNbS":13621,"NaSbTe":13622,"NaSrP":13623,"NaAuTe":13624,"NaMnSe":13625,"4755":13626,"4762":13627,"7191":13628,"7194":13629,"8611":13630,"86484":13631,"CrW":13632,"CrRe":13633,"CrCuS":13634,"CrCoSi":13635,"CrCoP":13636,"CrMnP":13637,"CrWN":13638,"CrZnN":13639,"5238":13640,"4025":13641,"HgPd":13642,"HgPS":13643,"MnCoSn":13644,"SrSc":13645,"SrMnN":13646,"SrCrN":13647,"SrAgP":13648,"2397":13649,"23186":13650,"23539":13651,"625":13652,"5748":13653,"5701":13654,"571215":13655,"574025":13656,"4638":13657,"741":13658,"8288":13659,"8389":13660,"8300":13661,"TlSi":13662,"TlTc":13663,"TlSbTe":13664,"TlBiSe":13665,"TlCrTe":13666,"7000":13667,"19955":13668,"19850":13669,"19824":13670,"19787":13671,"256":13672,"4516":13673,"4560":13674,"7909":13675,"7908":13676,"7906":13677,"7363":13678,"7361":13679,"8167":13680,"685050":13681,"684560":13682,"OsSbTe":13683,"OsSbS":13684,"OsIrAl":13685,"OsAsTe":13686,"1849":13687,"18104":13688,"18670":13689,"601253":13690,"604516":13691,"TcTl":13692,"ReCo":13693,"7773":13694,"349":13695,"3419":13696,"3481":13697,"568661":13698,"568880":13699,"561258":13700,"561639":13701,"561511":13702,"7263":13703,"14557":13704,"7642":13705,"7657":13706,"29110":13707,"29861":13708,"29828":13709,"29889":13710,"29484":13711,"29678":13712,"4172":13713,"13555":13714,"13203":13715,"13140":13716,"13094":13717,"13160":13718,"632686":13719,"639910":13720,"637194":13721,"9270":13722,"9264":13723,"RbK":13724,"RbN":13725,"RbSr":13726,"RbTiS":13727,"RbCuCl":13728,"RbKS":13729,"8765":13730,"9173":13731,"3210":13732,"3623":13733,"9952":13734,"9569":13735,"3553":13736,"37808":13737,"27532":13738,"27241":13739,"27898":13740,"1774":13741,"17964":13742,"17401":13743,"982188":13744,"30208":13745,"30805":13746,"3167":13747,"31125":13748,"28116":13749,"28339":13750,"28968":13751,"120307":13752,"1202105":13753,"1203241":13754,"1208991":13755,"1201230":13756,"1203419":13757,"1201774":13758,"CsBi":13759,"CsCuS":13760,"CsSbS":13761,"CsMnSe":13762,"CsMnTe":13763,"CsAlTe":13764,"11047":13765,"110484":13766,"1105693":13767,"1105327":13768,"11822":13769,"1221137":13770,"1228611":13771,"1228288":13772,"1096795":13773,"1097000":13774,"11489":13775,"11609":13776,"1216167":13777,"1216503":13778,"1216571":13779,"1216169":13780,"1216310":13781,"1216179":13782,"1216247":13783,"1216648":13784,"1216052":13785,"1216427":13786,"1216079":13787,"1216463":13788,"1216178":13789,"1216687":13790,"1216883":13791,"1216148":13792,"1076973":13793,"1076981":13794,"1183464":13795,"1183166":13796,"1183571":13797,"1183607":13798,"1183837":13799,"1183634":13800,"1183586":13801,"1183708":13802,"1183640":13803,"1183654":13804,"1183468":13805,"1186124":13806,"ĠVSiTc":13807,"1220700":13808,"1220541":13809,"1220795":13810,"1220594":13811,"1220141":13812,"1220742":13813,"1220883":13814,"1220492":13815,"1220148":13816,"1220476":13817,"1079559":13818,"1079772":13819,"1079075":13820,"1029771":13821,"1027273":13822,"ĠAlScAu":13823,"569310":13824,"569247":13825,"569511":13826,"569267":13827,"569523":13828,"569344":13829,"10154":13830,"10188":13831,"1018657":13832,"1017632":13833,"ĠHTiV":13834,"ĠHfAlRh":13835,"ĠHfAlIr":13836,"ĠCdAsPt":13837,"867173":13838,"867792":13839,"867327":13840,"867901":13841,"867799":13842,"867330":13843,"867779":13844,"867751":13845,"5671":13846,"5676":13847,"567114":13848,"567883":13849,"567736":13850,"567927":13851,"1215296":13852,"1215208":13853,"1215180":13854,"1215776":13855,"1215242":13856,"1215662":13857,"1215928":13858,"1215339":13859,"1215659":13860,"1215168":13861,"1215817":13862,"1215937":13863,"1215726":13864,"1215234":13865,"1215194":13866,"1215298":13867,"ĠCdAgAu":13868,"1191078":13869,"1192397":13870,"ĠSeInAg":13871,"1187208":13872,"1187430":13873,"1187738":13874,"1219800":13875,"1219249":13876,"1219430":13877,"1219259":13878,"1219226":13879,"1219513":13880,"1219720":13881,"1080452":13882,"1080624":13883,"1080049":13884,"1080667":13885,"1080715":13886,"ĠTiNCl":13887,"1224867":13888,"1224473":13889,"1224900":13890,"1224498":13891,"1224913":13892,"1224860":13893,"1224897":13894,"1224091":13895,"1224528":13896,"1217935":13897,"1217096":13898,"1217088":13899,"ĠInSbAs":13900,"1221102":13901,"1221101":13902,"1221502":13903,"1221549":13904,"1221672":13905,"1221673":13906,"1221335":13907,"1221487":13908,"1221787":13909,"1221454":13910,"1221742":13911,"1221948":13912,"ĠZrGaRu":13913,"1223813":13914,"1223857":13915,"1223802":13916,"1223754":13917,"1223818":13918,"1223642":13919,"1223807":13920,"1223844":13921,"22216":13922,"22289":13923,"11252":13924,"ĠScGaIr":13925,"ĠNaSbTe":13926,"ĠYInPd":13927,"1188531":13928,"ĠZrInCo":13929,"1001017":13930,"ĠSiPAu":13931,"1078547":13932,"1078965":13933,"1078729":13934,"ĠYAgS":13935,"ĠSbTeRh":13936,"ĠSeBiIr":13937,"ĠNaBiSe":13938,"ĠNaBiTe":13939,"1184573":13940,"1184104":13941,"1184678":13942,"1184548":13943,"ĠScSnRh":13944,"ĠCrTaN":13945,"ĠAlGeRu":13946,"1186933":13947,"1186942":13948,"1186953":13949,"1186951":13950,"1186956":13951,"1186944":13952,"1186938":13953,"1068300":13954,"1068167":13955,"ĠNiZrBi":13956,"10873":13957,"10878":13958,"1007685":13959,"ĠGaAsP":13960,"11366":13961,"ĠNTaCr":13962,"22018":13963,"13275":13964,"ĠScInPd":13965,"ĠTiCoSn":13966,"ĠYAlAg":13967,"ĠAlMnCo":13968,"30361":13969,"568402":13970,"1077803":13971,"1025222":13972,"1025167":13973,"1025678":13974,"1025224":13975,"1025219":13976,"1025187":13977,"1025190":13978,"1025689":13979,"1018020":13980,"ĠSKV":13981,"1224385":13982,"1224376":13983,"1224336":13984,"1224326":13985,"1224317":13986,"10368":13987,"1030565":13988,"1178620":13989,"30658":13990,"865165":13991,"865501":13992,"865895":13993,"865504":13994,"865128":13995,"865079":13996,"865807":13997,"865600":13998,"865664":13999,"865088":14000,"ĠSrInHg":14001,"NiAsS":14002,"9731":14003,"973100":14004,"1189871":14005,"1189342":14006,"1189272":14007,"12418":14008,"29607":14009,"29623":14010,"29662":14011,"1184754":14012,"SrSnN":14013,"SrSnP":14014,"30410":14015,"ĠHNaPd":14016,"ĠTiZnPd":14017,"ĠTiZnGa":14018,"ĠTiZnRh":14019,"ĠTiZnIr":14020,"1229208":14021,"16763":14022,"16790":14023,"862546":14024,"862778":14025,"CuAlTe":14026,"866104":14027,"866213":14028,"866088":14029,"ĠScNCl":14030,"1215455":14031,"1215491":14032,"13654":14033,"13686":14034,"30595":14035,"1207127":14036,"1207717":14037,"1207090":14038,"1207463":14039,"1207805":14040,"1207095":14041,"1207736":14042,"1239173":14043,"1218042":14044,"1218052":14045,"1218034":14046,"1218031":14047,"571310":14048,"571203":14049,"ĠScCuSe":14050,"1206964":14051,"1206529":14052,"1206863":14053,"1206679":14054,"10671":14055,"10675":14056,"1105802":14057,"1188020":14058,"1188066":14059,"1188079":14060,"1188059":14061,"1188000":14062,"10232":14063,"ĠAlSiRu":14064,"1225125":14065,"1225224":14066,"1225892":14067,"1225810":14068,"ĠFeNbSb":14069,"1246430":14070,"1246648":14071,"ĠSeCdHg":14072,"1069706":14073,"1069956":14074,"ĠReNCl":14075,"TiAlAu":14076,"TiAlCr":14077,"1048662":14078,"3078":14079,"1009130":14080,"ĠCdPSe":14081,"ĠCdPPt":14082,"861935":14083,"1215554":14084,"1215561":14085,"28069":14086,"28006":14087,"28019":14088,"ĠZrZnPt":14089,"ĠZrZnNi":14090,"ĠZrZnIr":14091,"22914":14092,"22941":14093,"1102531":14094,"1102834":14095,"1102545":14096,"1102537":14097,"1102687":14098,"1102844":14099,"1102603":14100,"18660":14101,"ĠNAlTi":14102,"1103166":14103,"1103227":14104,"1103213":14105,"1103160":14106,"1025311":14107,"1025386":14108,"1025365":14109,"1025318":14110,"1025324":14111,"1025329":14112,"983602":14113,"971712":14114,"971914":14115,"ĠCaSnRh":14116,"TiPdGa":14117,"22725":14118,"1228908":14119,"ĠSeSbPd":14120,"ZrRhP":14121,"21096":14122,"21027":14123,"ĠPInGa":14124,"675124":14125,"675930":14126,"675801":14127,"ĠTiNbRe":14128,"31153":14129,"989401":14130,"20740":14131,"1226787":14132,"865569":14133,"1215366":14134,"1215318":14135,"1215372":14136,"1215327":14137,"1215398":14138,"1078645":14139,"ĠGaPPt":14140,"22147":14141,"CuGaS":14142,"CuGaCl":14143,"1218103":14144,"1218424":14145,"1218858":14146,"1218548":14147,"1218334":14148,"1218415":14149,"1209241":14150,"1209161":14151,"CaAuGe":14152,"10292":14153,"1029531":14154,"1029337":14155,"1029479":14156,"1029860":14157,"1029719":14158,"1029838":14159,"1029878":14160,"16318":14161,"16356":14162,"972861":14163,"972884":14164,"27916":14165,"27947":14166,"27904":14167,"865486":14168,"865462":14169,"865465":14170,"865472":14171,"865494":14172,"17989":14173,"17926":14174,"1220393":14175,"1220382":14176,"1220356":14177,"21622":14178,"21365":14179,"21301":14180,"1187916":14181,"1187922":14182,"20316":14183,"1247449":14184,"1247294":14185,"TiMoTc":14186,"NaInTe":14187,"CaCuBi":14188,"NaHgNaSn":14189,"1228158":14190,"1228436":14191,"ĠCuSiRh":14192,"SrAuP":14193,"13993":14194,"ĠMnSbIr":14195,"1199930":14196,"975144":14197,"1193832":14198,"1193594":14199,"1193748":14200,"1193265":14201,"1193415":14202,"1193021":14203,"SrZnBi":14204,"SrCdSn":14205,"1184568":14206,"1205390":14207,"1228888":14208,"1228894":14209,"1103280":14210,"ĠYBiPt":14211,"TaRuP":14212,"864715":14213,"864782":14214,"864761":14215,"849082":14216,"849071":14217,"28945":14218,"20533":14219,"20511":14220,"20565":14221,"1185970":14222,"685969":14223,"685928":14224,"685605":14225,"1226121":14226,"1226236":14227,"1218909":14228,"1218952":14229,"ĠTiZrTe":14230,"19885":14231,"864953":14232,"864991":14233,"27369":14234,"27394":14235,"ĠSeCuPd":14236,"1104125":14237,"1104825":14238,"1104965":14239,"1104960":14240,"1104097":14241,"1104194":14242,"2832":14243,"HfPdAl":14244,"ScHfCo":14245,"1217910":14246,"1217242":14247,"1217270":14248,"1217260":14249,"1217291":14250,"13416":14251,"13448":14252,"31381":14253,"1227695":14254,"1227051":14255,"1190041":14256,"998713":14257,"1217140":14258,"1217193":14259,"1217172":14260,"1217132":14261,"1025269":14262,"1025282":14263,"1025270":14264,"1025236":14265,"28843":14266,"28832":14267,"33683":14268,"1179173":14269,"1179970":14270,"TaFeGe":14271,"16260":14272,"571033":14273,"571016":14274,"571038":14275,"1207359":14276,"1207341":14277,"21118":14278,"22483":14279,"17185":14280,"17186":14281,"643273":14282,"643651":14283,"643702":14284,"1095522":14285,"1095575":14286,"1095573":14287,"1226009":14288,"1226054":14289,"1226067":14290,"1226006":14291,"1226017":14292,"1226030":14293,"ĠNbZnRh":14294,"ĠNbZnCo":14295,"ĠCrSiRu":14296,"HfPtSi":14297,"ĠTeSbPd":14298,"ĠTeSbRh":14299,"1104027":14300,"YCuP":14301,"1215942":14302,"1215915":14303,"1215918":14304,"1802":14305,"18093":14306,"18003":14307,"2157":14308,"21508":14309,"21577":14310,"ĠCaCdHg":14311,"1104337":14312,"SrPtSi":14313,"SrPtAs":14314,"SrPtCd":14315,"1102073":14316,"1120780":14317,"1120733":14318,"1216450":14319,"1216481":14320,"1025575":14321,"864650":14322,"864651":14323,"1245698":14324,"1245537":14325,"1245927":14326,"1215721":14327,"1215757":14328,"YZnGe":14329,"ĠCaInPd":14330,"29175":14331,"1224282":14332,"1216640":14333,"1216681":14334,"19740":14335,"19768":14336,"978532":14337,"1023925":14338,"1216397":14339,"1216329":14340,"1183453":14341,"ĠCaBiAu":14342,"ĠVZnRu":14343,"1224789":14344,"1224784":14345,"1224791":14346,"981365":14347,"981379":14348,"505333":14349,"557523":14350,"865916":14351,"865929":14352,"1206635":14353,"1206638":14354,"17597":14355,"1221689":14356,"1221641":14357,"TiCrAs":14358,"1207788":14359,"1187876":14360,"1227354":14361,"1227356":14362,"1078093":14363,"27850":14364,"1013550":14365,"15724":14366,"23275":14367,"1096810":14368,"1224455":14369,"1224446":14370,"1224481":14371,"1224418":14372,"30971":14373,"30979":14374,"30938":14375,"865045":14376,"865048":14377,"865039":14378,"SrPdCd":14379,"23176":14380,"1106219":14381,"1101753":14382,"ĠSAsPt":14383,"FeTiP":14384,"CaSnN":14385,"972224":14386,"989615":14387,"1219480":14388,"1219488":14389,"977382":14390,"977383":14391,"1219312":14392,"1219369":14393,"1187771":14394,"862311":14395,"862366":14396,"862365":14397,"862364":14398,"862372":14399,"1218367":14400,"1218342":14401,"1218379":14402,"1218372":14403,"1218384":14404,"1217039":14405,"TiNCl":14406,"1078825":14407,"1078873":14408,"1224871":14409,"1224819":14410,"861662":14411,"861641":14412,"861626":14413,"866183":14414,"674456":14415,"7801":14416,"IrPTe":14417,"861950":14418,"1207022":14419,"1187420":14420,"1079641":14421,"1079635":14422,"1219954":14423,"1219970":14424,"20147":14425,"684731":14426,"1220453":14427,"1220483":14428,"1087238":14429,"1095502":14430,"1095201":14431,"CoTiSn":14432,"865167":14433,"1184026":14434,"1219009":14435,"1219050":14436,"862623":14437,"RbAuSe":14438,"1102924":14439,"31406":14440,"31452":14441,"864857":14442,"864831":14443,"864671":14444,"864839":14445,"29309":14446,"29362":14447,"29379":14448,"29381":14449,"865791":14450,"1100779":14451,"1100781":14452,"1184276":14453,"17638":14454,"ĠHfZrW":14455,"HfZrW":14456,"756473":14457,"1208265":14458,"1208287":14459,"YPtIn":14460,"22642":14461,"567981":14462,"ĠSTaCu":14463,"1120730":14464,"1120763":14465,"CaAgP":14466,"NaBiTe":14467,"865653":14468,"1103036":14469,"1216767":14470,"1216775":14471,"1101983":14472,"1101976":14473,"1103618":14474,"PtCdPt":14475,"22596":14476,"1215271":14477,"1215286":14478,"561456":14479,"29246":14480,"1095145":14481,"1095176":14482,"1223823":14483,"ScPtIn":14484,"634676":14485,"TiWRe":14486,"862264":14487,"862258":14488,"RhVSb":14489,"541622":14490,"7794":14491,"1019104":14492,"1019087":14493,"1216949":14494,"1221596":14495,"1221529":14496,"541879":14497,"1147666":14498,"1147712":14499,"1227014":14500,"17871":14501,"31297":14502,"31234":14503,"FeCoZr":14504,"1103180":14505,"1103196":14506,"1087488":14507,"1183038":14508,"8719":14509,"ĠZnInPd":14510,"ĠZnInRh":14511,"ZrNiSn":14512,"1216021":14513,"571343":14514,"1027525":14515,"ĠCrGaCo":14516,"540773":14517,"1104215":14518,"1094098":14519,"1094108":14520,"1094105":14521,"1094079":14522,"1206267":14523,"1206242":14524,"1205741":14525,"1207418":14526,"1207414":14527,"1207448":14528,"1207417":14529,"CsGaH":14530,"1079324":14531,"TaRhGe":14532,"863757":14533,"1025045":14534,"569391":14535,"14336":14536,"984761":14537,"1101894":14538,"1070557":14539,"1077440":14540,"569008":14541,"1190262":14542,"554074":14543,"1102833":14544,"1226309":14545,"1183246":14546,"1238825":14547,"1192706":14548,"1194113":14549,"505016":14550,"1106177":14551,"28768":14552,"28760":14553,"1030106":14554,"SnNNi":14555,"18411":14556,"24822":14557,"1206849":14558,"1100417":14559,"1227512":14560,"1024050":14561,"1029396":14562,"28489":14563,"YIrGa":14564,"1013643":14565,"974682":14566,"1103567":14567,"696983":14568,"696216":14569,"1213692":14570,"1213703":14571,"1104133":14572,"982870":14573,"1028459":14574,"1028690":14575,"866284":14576,"1105294":14577,"1218272":14578,"1225013":14579,"867916":14580,"867904":14581,"28610":14582,"ĠVSbRh":14583,"1223378":14584,"1223376":14585,"1195769":14586,"1212900":14587,"1212666":14588,"SrNiSn":14589,"637263":14590,"1216566":14591,"1078247":14592,"1078274":14593,"1190880":14594,"1021465":14595,"643270":14596,"5603":14597,"675310":14598,"675326":14599,"1173513":14600,"1226258":14601,"1226249":14602,"1226248":14603,"1223993":14604,"27755":14605,"640159":14606,"ĠHfInAu":14607,"ĠHfInCo":14608,"675009":14609,"672689":14610,"1208557":14611,"1104663":14612,"ĠGaGeRu":14613,"540660":14614,"CrNiNb":14615,"1102452":14616,"1221789":14617,"1025925":14618,"1189916":14619,"643005":14620,"1024974":14621,"1024052":14622,"SrCaGe":14623,"1217780":14624,"1078411":14625,"1078419":14626,"ĠKBiCl":14627,"1224067":14628,"1029633":14629,"1028576":14630,"1194030":14631,"924129":14632,"ĠHfScCo":14633,"21710":14634,"632502":14635,"1105044":14636,"1027682":14637,"1027645":14638,"1025819":14639,"ZnSiN":14640,"ZrVMo":14641,"541047":14642,"1197212":14643,"RbGeCl":14644,"1102705":14645,"1216254":14646,"27178":14647,"558706":14648,"558762":14649,"561051":14650,"1222092":14651,"1222031":14652,"1077589":14653,"1221396":14654,"504951":14655,"504928":14656,"984550":14657,"1219645":14658,"1226512":14659,"1221407":14660,"1070375":14661,"30253":14662,"4468":14663,"1210826":14664,"675132":14665,"1103757":14666,"1193397":14667,"1068250":14668,"ĠCdHgPd":14669,"1104406":14670,"1184364":14671,"1189764":14672,"1182952":14673,"574138":14674,"768680":14675,"1071623":14676,"1191625":14677,"1190573":14678,"1219262":14679,"542138":14680,"541310":14681,"1104554":14682,"1017567":14683,"1017515":14684,"1247246":14685,"675902":14686,"862334":14687,"573721":14688,"1104896":14689,"912440":14690,"1238855":14691,"861961":14692,"1226687":14693,"1246496":14694,"973053":14695,"25469":14696,"554993":14697,"612740":14698,"9027":14699,"985782":14700,"YBiPt":14701,"1020712":14702,"1013760":14703,"1064854":14704,"PtCdAsPt":14705,"1212161":14706,"1222181":14707,"1212597":14708,"676038":14709,"675637":14710,"675691":14711,"504498":14712,"ScReGe":14713,"556005":14714,"556395":14715,"864844":14716,"570112":14717,"1203073":14718,"1104841":14719,"21067":14720,"21069":14721,"28660":14722,"396":14723,"357":14724,"366":14725,"3015":14726,"31220":14727,"3103":14728,"3159":14729,"3829":14730,"3663":14731,"3791":14732,"3797":14733,"4152":14734,"4813":14735,"4897":14736,"4805":14737,"4160":14738,"4578":14739,"4962":14740,"585":14741,"584":14742,"5102":14743,"5106":14744,"5166":14745,"5862":14746,"5129":14747,"5151":14748,"5339":14749,"5659":14750,"5818":14751,"5090":14752,"5190":14753,"688":14754,"606":14755,"6549":14756,"6961":14757,"796":14758,"707":14759,"785":14760,"774":14761,"781":14762,"7505":14763,"7881":14764,"7436":14765,"870":14766,"877":14767,"8117":14768,"8159":14769,"8857":14770,"8695":14771,"8965":14772,"8704":14773,"982":14774,"91096":14775,"9964":14776,"9868":14777,"9579":14778,"HV":14779,"KSi":14780,"KZn":14781,"KNH":14782,"KCuS":14783,"KCuTe":14784,"KBiS":14785,"KNaCl":14786,"KGaS":14787,"KAlH":14788,"KMnSe":14789,"KPbBi":14790,"KMnTe":14791,"KInTe":14792,"KCoN":14793,"KNbSe":14794,"KYCl":14795,"NV":14796,"PVS":14797,"SC":14798,"VMo":14799,"VCoGe":14800,"VCoAs":14801,"VFeAs":14802,"VRuSb":14803,"VNiGe":14804,"VFeP":14805,"WCo":14806,"YMn":14807,"YRuSi":14808,"YCoSi":14809,"YCuSn":14810,"YMnSi":14811,"YAuCd":14812,"YZrS":14813,"YTlS":14814,"YScN":14815,"YTiGe":14816,"YZrFe":14817,"eight":14818,"ĠCCo":14819,"ĠNCuGe":14820,"ĠInFeRh":14821,"ĠAlGaAs":14822,"ĠAlGaSb":14823,"AlOs":14824,"ĠCaCoSi":14825,"ĠCaYRh":14826,"ĠCaGaSi":14827,"ĠPdPS":14828,"ĠHfTiMo":14829,"ĠHfNbN":14830,"ĠHfSnRh":14831,"ĠZrTiCr":14832,"ĠZrNbFe":14833,"20227":14834,"20152":14835,"20199":14836,"20146":14837,"20832":14838,"20144":14839,"20244":14840,"ĠGaSiNi":14841,"ĠSeTa":14842,"ĠYCuTe":14843,"ĠYZrS":14844,"ĠYTlS":14845,"ĠYScN":14846,"ĠYZrFe":14847,"InC":14848,
[...]
