{"<s>":0,"<pad>":1,"</s>":2,"<unk>":3,"<mask>":4,"!":5,"\"":6,"#":7,"$":8,"%":9,"&":10,"'":11,"(":12,")":13,"*":14,"+":15,",":16,"-":17,".":18,"/":19,"0":20,"1":21,"2":22,"3":23,"4":24,"5":25,"6":26,"7":27,"8":28,"9":29,":":30,";":31,"<":32,"=":33,">":34,"?":35,"@":36,"A":37,"B":38,"C":39,"D":40,"E":41,"F":42,"G":43,"H":44,"I":45,"J":46,"K":47,"L":48,"M":49,"N":50,"O":51,"P":52,"Q":53,"R":54,"S":55,"T":56,"U":57,"V":58,"W":59,"X":60,"Y":61,"Z":62,"[":63,"\\":64,"]":65,"^":66,"_":67,"`":68,"a":69,"b":70,"c":71,"d":72,"e":73,"f":74,"g":75,"h":76,"i":77,"j":78,"k":79,"l":80,"m":81,"n":82,"o":83,"p":84,"q":85,"r":86,"s":87,"t":88,"u":89,"v":90,"w":91,"x":92,"y":93,"z":94,"{":95,"|":96,"}":97,"~":98,"¡":99,"¢":100,"£":101,"¤":102,"¥":103,"¦":104,"§":105,"¨":106,"©":107,"ª":108,"«":109,"¬":110,"®":111,"¯":112,"°":113,"±":114,"²":115,"³":116,"´":117,"µ":118,"¶":119,"·":120,"¸":121,"¹":122,"º":123,"»":124,"¼":125,"½":126,"¾":127,"¿":128,"À":129,"Á":130,"Â":131,"Ã":132,"Ä":133,"Å":134,"Æ":135,"Ç":136,"È":137,"É":138,"Ê":139,"Ë":140,"Ì":141,"Í":142,"Î":143,"Ï":144,"Ð":145,"Ñ":146,"Ò":147,"Ó":148,"Ô":149,"Õ":150,"Ö":151,"×":152,"Ø":153,"Ù":154,"Ú":155,"Û":156,"Ü":157,"Ý":158,"Þ":159,"ß":160,"à":161,"á":162,"â":163,"ã":164,"ä":165,"å":166,"æ":167,"ç":168,"è":169,"é":170,"ê":171,"ë":172,"ì":173,"í":174,"î":175,"ï":176,"ð":177,"ñ":178,"ò":179,"ó":180,"ô":181,"õ":182,"ö":183,"÷":184,"ø":185,"ù":186,"ú":187,"û":188,"ü":189,"ý":190,"þ":191,"ÿ":192,"Ā":193,"ā":194,"Ă":195,"ă":196,"Ą":197,"ą":198,"Ć":199,"ć":200,"Ĉ":201,"ĉ":202,"Ċ":203,"ċ":204,"Č":205,"č":206,"Ď":207,"ď":208,"Đ":209,"đ":210,"Ē":211,"ē":212,"Ĕ":213,"ĕ":214,"Ė":215,"ė":216,"Ę":217,"ę":218,"Ě":219,"ě":220,"Ĝ":221,"ĝ":222,"Ğ":223,"ğ":224,"Ġ":225,"ġ":226,"Ģ":227,"ģ":228,"Ĥ":229,"ĥ":230,"Ħ":231,"ħ":232,"Ĩ":233,"ĩ":234,"Ī":235,"ī":236,"Ĭ":237,"ĭ":238,"Į":239,"į":240,"İ":241,"ı":242,"Ĳ":243,"ĳ":244,"Ĵ":245,"ĵ":246,"Ķ":247,"ķ":248,"ĸ":249,"Ĺ":250,"ĺ":251,"Ļ":252,"ļ":253,"Ľ":254,"ľ":255,"Ŀ":256,"ŀ":257,"Ł":258,"ł":259,"Ń":260,"Ġa":261,"Ġt":262,"he":263,"on":264,"le":265,"Ġi":266,"Ġthe":267,"om":268,"Ġb":269,"Ġs":270,"Ġo":271,"Ġc":272,"it":273,"re":274,"nd":275,"ond":276,"at":277,"ng":278,"or":279,"Ġbond":280,"Ġis":281,"Ġat":282,"en":283,"Ġatom":284,"al":285,"Ġand":286,"ar":287,"Ġe":288,"The":289,"Ġf":290,"Ġof":291,"ed":292,"Ġm":293,"Ġw":294,"âĤ":295,"ro":296,"Ġto":297,"ac":298,"Ġatoms":299,"lec":300,"Ġin":301,"iv":302,"ĠThe":303,"et":304,"ate":305,"ic":306,"ra":307,"len":308,"ing":309,"di":310,"alen":311,"es":312,"er":313,"alent":314,"ĠC":315,"Ġh":316,"Ġp":317,"ith":318,"Ġwith":319,"gen":320,"Ġmo":321,"âģ":322,"qu":323,"lecu":324,"Ġmolecu":325,"st":326,"ur":327,"ivalent":328,"quivalent":329,"th":330,"Ãħ":331,"ĠÃħ":332,"ds":333,"Ġg":334,"Ġon":335,"Ġ1":336,"Ġequivalent":337,"ct":338,"Ġare":339,"ĠI":340,"hed":341,"dsor":342,"Ġmolecule":343,"Ġtw":344,"dsorb":345,"Ġdi":346,"Ġsit":347,"Ġ(":348,"âĢ":349,"âĢĵ":350,"ace":351,"arb":352,"arbon":353,"hedra":354,"Ġbonded":355,"ĠS":356,"Ġcarbon":357,"Ġle":358,"Ġfor":359,"ngth":360,"Ġlength":361,"ry":362,"cta":363,"Ġtwo":364,"Ġth":365,"ly":366,"Ġsite":367,"ri":368,"Ġadsorb":369,"an":370,"xy":371,"Ġ2":372,"rogen":373,"Ġor":374,"ctahedra":375,"Ġhy":376,"tr":377,"ĠA":378,"ub":379,"ĠN":380,"Ġsi":381,"Ġsp":382,"bit":383,"bital":384,"aly":385,"ataly":386,"ent":387,"Ġcataly":388,"Ġha":389,"ol":390,"xygen":391,"Ġform":392,"Ġsur":393,"een":394,"Ġcub":395,"Ġn":396,"Ġsurf":397,"omet":398,"Ġorbital":399,"ĠP":400,"ĠIn":401,"Ġsurface":402,"our":403,"eomet":404,"Ġgeomet":405,"Ġgeometry":406,"Ġoxygen":407,"ĠT":408,"âģº":409,"tic":410,"âģ»":411,"Ġfour":412,"Ġd":413,"Ġhas":414,"Ġbet":415,"har":416,"Ġcatalytic":417,"ween":418,"Ġbetween":419,"Ġadsorbate":420,"ĠThere":421,"Ġcubo":422,"Ġcuboctahedra":423,"Â²":424,"rou":425,"im":426,"tron":427,"ner":428,"orner":429,"Ġelec":430,"Ġcorner":431,"xim":432,"pp":433,"Ġelectron":434,"CH":435,"ately":436,"Ġapp":437,"roxim":438,"Ġapproxim":439,"Ġapproximately":440,"Ġhyd":441,"ion":442,"dg":443,"ĠM":444,"po":445,"Ġdist":446,"Ġang":447,"eg":448,"Ġlengths":449,"li":450,"ĠAl":451,"gh":452,"Ġsh":453,"Ġangle":454,"Ġone":455,"rom":456,"âĤĤ":457,"lar":458,"âĤĦ":459,"OH":460,"Ġgrou":461,"pole":462,"Ġsix":463,"ter":464,"ive":465,"Ġgroup":466,"co":467,"Ġwh":468,"âĤĨ":469,"Ġhydrogen":470,"Ġpl":471,"Ġorbitals":472,"Ġbi":473,"oment":474,"Ġmoment":475,"Ġedg":476,"ir":477,"Ġdipole":478,"Ġthat":479,"Ġra":480,"nate":481,"ordi":482,"coordi":483,"coordinate":484,"il":485,"igh":486,"itrogen":487,"Ġmolecular":488,"Ġfrom":489,"ree":490,"bri":491,"Ġnitrogen":492,"Ġthree":493,"ĠH":494,"nding":495,"ure":496,"ight":497,"aced":498,"Ġplaced":499,"Ġchar":500,"Ġbinding":501,"Â³":502,"Ġre":503,"Ġhybri":504,"Ġit":505,"Ġco":506,"Ġcorners":507,"valent":508,"are":509,"Ġse":510,"Ġcovalent":511,"Ġbonds":512,"ces":513,"in":514,"Ġrang":515,"Ġelectrons":516,"ĠR":517,"ĠO":518,"ow":519,"ĠTi":520,"ĠZ":521,"Ġl":522,"haring":523,"Ġbonding":524,").":525,"mp":526,"etra":527,"Ġeight":528,"gon":529,"gonal":530,"Ġtetra":531,"Ġlon":532,"ve":533,"Ġas":534,"Â¹":535,"ce":536,"ĠG":537,"Ġ*":538,"ical":539,"âĤģ":540,"ĠCH":541,"Ġedges":542,"sharing":543,"ille":544,"Ġdistan":545,"Ġdistances":546,"rea":547,"Ġadsorbed":548,"Ġ0":549,"ich":550,"egat":551,"Ġwhich":552,"Ġsprea":553,"Ġranging":554,"Ġspread":555,"olar":556,"ted":557,"Ġoctahedra":558,"Ġshare":559,"Ġal":560,"ex":561,"ĠInd":562,"ity":563,"ĠMille":564,"ĠMiller":565,"Ġtri":566,"Adsorb":567,"ĠIndex":568,"Adsorbate":569,"zes":570,"Ġcry":571,"alli":572,"stalli":573,"Ġspace":574,"Ġcrystalli":575,"Ġcrystallizes":576,"ze":577,"Ġdeg":578,"Ġpolar":579,"pe":580,"rees":581,"Ġdegrees":582,"âĤĪ":583,"aces":584,"ver":585,"diz":586,"Ġ3":587,"ist":588,"uct":589,"ĠĊ":590,"hy":591,"Ġcon":592,"el":593,"ation":594,"ĠD":595,"ĠAll":596,"truct":597,"tructure":598,"Ġstructure":599,"Ġpar":600,"âĤĥ":601,"âĤģâĤĤ":602,"orted":603,"Ġdistorted":604,"Ġangles":605,"Ġfaces":606,"ti":607,"Ġcharg":608,"la":609,"ĠNi":610,"Ġu":611,"act":612,"ile":613,"Ġan":614,"so":615,"Â°":616,"ram":617,"ere":618,"Al":619,"cond":620,"irst":621,"equivalent":622,"Ġfirst":623,"Ġinequivalent":624,"Ġsites":625,"Ġsecond":626,"Ġwhile":627,"Ġsize":628,"ĠSi":629,"ue":630,"Ġhybridiz":631,"Ġalso":632,"yram":633,"yrami":634,"ĠPd":635,"Ġdue":636,"ach":637,"ĠHf":638,"ger":639,"orter":640,"Ġshorter":641,"Ġlonger":642,"Ġv":643,"all":644,"Ġtetrahedra":645,"ĠZr":646,"Ġits":647,"Ġeach":648,"op":649,"Ġatop":650,"ĠCa":651,"Ġcharge":652,"âģ´":653,"ivity":654,"ma":655,"Ġtwel":656,"yramids":657,"hem":658,"Ġtwelve":659,"Ġ10":660,"ĠPt":661,"Ġty":662,"20":663,"Ġchem":664,"ĠGa":665,"Ġchemical":666,"ĠB":667,"Ġelectronegat":668,"ut":669,"Ġsig":670,"Ġparti":671,"Ġpartial":672,"Fe":673,"hedr":674,"ĠV":675,"Ġtype":676,"ĠNb":677,"de":678,"lin":679,"Ġedge":680,"Ġsing":681,"ĠMo":682,"hedral":683,"Ġcatalyst":684,"Si":685,"ĠSe":686,"Ġhybrid":687,"Se":688,"kn":689,"Ġkn":690,"own":691,"Ġknown":692,"acter":693,"Ġcharacter":694,"Ġsingle":695,"mm":696,"Ġun":697,"by":698,"Ġcan":699,"ĠCu":700,"os":701,"Ġcubic":702,"âĤħ":703,"ĠY":704,"ĠTa":705,"Ġfive":706,"eby":707,"Â°.":708,"Ġtrigonal":709,"low":710,"ĠRh":711,"ĠSc":712,"ĠIt":713,"Ġstructured":714,"Ti":715,"Ġelectronegativity":716,"ĠZn":717,"ics":718,"ebye":719,"Ġcharacterist":720,"Ġeth":721,"Pd":722,"Ġcom":723,"Ġcharacteristics":724,"ĠAs":725,"ear":726,"In":727,"Ġinter":728,"Ġover":729,"Ġpos":730,"nce":731,"air":732,"us":733,"action":734,"As":735,"ple":736,"Ni":737,"ix":738,"ture":739,"Ġmix":740,"Ġmixture":741,"lene":742,"Ġ4":743,"Ġpair":744,"ĠDebye":745,"ĠGe":746,"ĠCo":747,"ĠTe":748,"ff":749,"Ġdiff":750,"yl":751,"agonal":752,"ĠW":753,"Ġlin":754,"her":755,"ylene":756,"Ġdiffere":757,"80":758,"Ġlinear":759,"Ġcons":760,"Ġres":761,"Ġsigma":762,"ĠFe":763,"Ġby":764,"Ġbo":765,"ĠCr":766,"ollow":767,"Pt":768,"ĠSb":769,"Ġbri":770,"dge":771,"Ġbridge":772,"ndic":773,"OHCH":774,"Ġhybridized":775,"Ġma":776,"10":777,"onding":778,"if":779,"Ġlone":780,"Ġtriple":781,"Te":782,"Ġpi":783,"ul":784,"Ġposit":785,"ĠMn":786,"ĠSr":787,"Ġconsist":788,"anar":789,"Ġtil":790,"Ġpyramids":791,"mol":792,"Ġ6":793,"Ġnegat":794,"Ġpositive":795,"Ġnegative":796,"Ġhave":797,"Ġdo":798,"ula":799,"Ġformula":800,"ĠSn":801,"Ga":802,"ses":803,"Ġab":804,"Ġgly":805,"Ġbe":806,"Ġoverla":807,"ctahedral":808,"teen":809,"Ġthir":810,"Ġoctahedral":811,"Ġarou":812,"Ġaround":813,"vol":814,"Ġinvol":815,"cet":816,"Ġdifference":817,"ĠÏ":818,"ther":819,"se":820,"Ġindic":821,"Ġ5":822,"Ġtilt":823,"ĠNa":824,"NH":825,"Ġoverlap":826,"roxy":827,"Ge":828,"Sb":829,"strom":830,"ant":831,"ĠAg":832,"Ġhybridization":833,"dy":834,"12":835,"stroms":836,"mall":837,"Ġsmall":838,"Ġthird":839,"Ġmet":840,"Ìħ":841,"uble":842,"anol":843,"actions":844,"OCH":845,"ered":846,"out":847,"Ġabout":848,"Rh":849,"Ġother":850,"Zn":851,"ĠNO":852,"ke":853,"Ġ180":854,"Ġface":855,"ating":856,"Cu":857,"ta":858,"ĠRu":859,"ven":860,"cent":861,"Ġbody":862,"centered":863,"is":864,"ĠAu":865,"09":866,"Ġformed":867,"ĠIr":868,"col":869,"Ġglycol":870,"Ġwe":871,"Ġ120":872,"Ġdouble":873,"Ġbip":874,"res":875,"Ġinvolv":876,"Ġacet":877,"ĠK":878,"Ġresul":879,"Ġresult":880,"Mo":881,"Zr":882,"Ġhydroxy":883,"Ġcarbonyl":884,"Ġhollow":885,"ine":886,"Over":887,"Overall":888,"NO":889,"Ġ109":890,"oc":891,"oth":892,"ĠBoth":893,"Ġsqu":894,"Ġsquare":895,"ific":896,"Ġplanar":897,"ĠOH":898,"Ġbipyramids":899,"ĠCCH":900,"Ġseven":901,"Ġ9":902,"ively":903,"up":904,"Sn":905,"erm":906,"Ġ11":907,"Ġweight":908,"ngstroms":909,"hyl":910,"bonding":911,"Ġnon":912,"Ġno":913,"Ġwhe":914,"Hf":915,"Ġgroups":916,"Ġrange":917,"Ġindicating":918,"tain":919,"lu":920,"like":921,"Ġpent":922,"Ġpentagonal":923,"Ag":924,"pa":925,"oxygen":926,"lat":927,"Ġrelat":928,"ers":929,"Ġhe":930,"rib":931,"ĠAngstroms":932,"Ġ7":933,"Ġten":934,"cup":935,"67":936,"33":937,"sed":938,"Ġtetrahedral":939,"ire":940,"Ġrelatively":941,"hyd":942,"dical":943,"Ġradical":944,"54":945,"Ġwhere":946,"ional":947,"ĠE":948,"Ġcompo":949,"his":950,"ĠThis":951,"bic":952,"hom":953,"orhom":954,"thorhom":955,"thorhombic":956,"alence":957,"ĠÏĥ":958,"Co":959,"Ġorthorhombic":960,"id":961,"43":962,"ĠBi":963,"Ru":964,"96":965,"als":966,"Ġunpa":967,"ired":968,"Ġunpaired":969,"Ir":970,"ari":971,"CO":972,"Ġreact":973,"Ġpres":974,"Ġpro":975,"Ġvalence":976,"11":977,"Nb":978,"ĠPb":979,"Ġsy":980,"Ġme":981,"Au":982,"Ġoc":983,"Ġcontain":984,"Ġcontains":985,"Ġconsists":986,"nific":987,"Ġsignific":988,"Ġsignificant":989,"),":990,"ĠCd":991,"ig":992,"aals":993,"ĠWaals":994,"07":995,"ence":996,"Ġresulting":997,"Ġpairs":998,"ite":999,"42":1000,"carbon":1001,"zero":1002,"ĠNH":1003,"ha":1004,"Ġhydroxyl":1005,"69":1006,"COH":1007,"Ta":1008,"rises":1009,"hydrogen":1010,"50":1011,"08":1012,"Ġoccup":1013,"xagonal":1014,"Ġhexagonal":1015,"Ġpolarity":1016,"Ġconsisting":1017,"ĠTc":1018,"ment":1019,"Ġmethyl":1020,"Ġvan":1021,"Ġ8":1022,"Ġder":1023,"bridiz":1024,"hybridiz":1025,"hybridized":1026,"Ġelectronic":1027,"ide":1028,"ape":1029,"Ġshape":1030,"pt":1031,"ption":1032,"Ġfourth":1033,"Ġtetragonal":1034,"rough":1035,"Sc":1036,"Ġarises":1037,"55":1038,"16":1039,"ĠRe":1040,"per":1041,"Ġex":1042,"ĠCl":1043,"Ġinteractions":1044,"05":1045,"Ġzero":1046,"ined":1047,"ies":1048,"Ġethanol":1049,"85":1050,"Ġadsor":1051,"Ġadsorption":1052,"ĠRb":1053,"ĠEth":1054,"ribut":1055,"war":1056,"Ġtowar":1057,"Ġtowards":1058,"Ġnine":1059,"Ġpartic":1060,"22":1061,"53":1062,"Ġreactions":1063,"etr":1064,"mmetr":1065,"Ġfourteen":1066,"ding":1067,"Ġthrough":1068,"ip":1069,"ĠOs":1070,"Ġsixteen":1071,"Ġinvolves":1072,"ens":1073,"ĠCOCH":1074,"ble":1075,"rbital":1076,"alde":1077,"hyde":1078,"aldehyde":1079,"Cr":1080,"um":1081,"Ca":1082,"88":1083,"ĠCOHCH":1084,"rect":1085,"Ġdirect":1086,"Ġmak":1087,"Ġforming":1088,"lecular":1089,"linic":1090,"Ġcen":1091,"tral":1092,"Ġcentral":1093,"Ġsli":1094,"ght":1095,"Ġslight":1096,"15":1097,"dius":1098,"Ġradius":1099,"Ġdet":1100,"Mn":1101,"Ġmean":1102,"ĠTl":1103,"der":1104,"Ġforms":1105,"Ġwate":1106,"Ġwater":1107,"ular":1108,"Ġcomb":1109,"Ġpm":1110,"Ġst":1111,"am":1112,"Cd":1113,"71":1114,"Ġanti":1115,"ĠOCH":1116,"ented":1117,"Ġparticip":1118,"Ġparticipate":1119,"Ġunhybridized":1120,"Bi":1121,"ometers":1122,"21":1123,"und":1124,"Ġdirection":1125,"86":1126,"47":1127,"Ġreactivity":1128,"Ġterm":1129,"Ġterms":1130,"Ġsharing":1131,"âģº,":1132,"52":1133,"ĠÏĢ":1134,"40":1135,"Ġdeterm":1136,"aus":1137,"Ġsu":1138,"Ġshe":1139,"Ġethylene":1140,"Ġmay":1141,"Ġinf":1142,"ĠF":1143,"clu":1144,"Ġinclu":1145,"han":1146,"ipole":1147,"Ġnot":1148,"Ġfollow":1149,"Cl":1150,"Ġacetylene":1151,"âĤĩ":1152,"Pb":1153,"ous":1154,"ied":1155,"edi":1156,"Ġvari":1157,"mmm":1158,"06":1159,"Ġthese":1160,"ĠHg":1161,"Ġori":1162,"Ġoriented":1163,"Ġimp":1164,"gn":1165,"Ġmon":1166,"oclinic":1167,"Ġmonoclinic":1168,"ving":1169,"Ġmolecules":1170,"Ġhaving":1171,"ĠCs":1172,"âĤĢ":1173,"Ġinteract":1174,"Ġpresence":1175,"lanar":1176,"planar":1177,"02":1178,"CCH":1179,"âĤģâĤĢ":1180,"Ġdetermined":1181,"Ġmaking":1182,"Ġfif":1183,"orbital":1184,"46":1185,"23":1186,"Ġinteraction":1187,"57":1188,"Ġatomic":1189,"Ġhigh":1190,"Ġsymmetr":1191,"omic":1192,"atomic":1193,"Ġrema":1194,"ining":1195,"Ġremaining":1196,"qual":1197,"62":1198,"Ġvarious":1199,"Ġnet":1200,"iz":1201,"Ġmore":1202,"ge":1203,"74":1204,"89":1205,"Ġcompound":1206,"Ġcomposed":1207,"Ġboth":1208,"tant":1209,"ortant":1210,"Ġimportant":1211,"82":1212,"Â°,":1213,"Ġincluding":1214,"ination":1215,"Ġcombination":1216,"Ġinvolved":1217,"ĠCHOH":1218,"Ġslightly":1219,"Ġhig":1220,"6âĤĥ":1221,"rop":1222,"Ġantibonding":1223,"Ġout":1224,"75":1225,"Ġallow":1226,"as":1227,"93":1228,"icometers":1229,"Ïĥ":1230,"un":1231,"ĠTiTi":1232,"Sr":1233,"Os":1234,"Tc":1235,"Ġoccupy":1236,"yn":1237,"Ġwid":1238,"Ġwidth":1239,"Ġar":1240,"ĠCHCH":1241,"Ġsymmetrical":1242,"73":1243,"66":1244,"70":1245,"ĠOHNH":1246,"Ġelectronegative":1247,"Ġsheet":1248,"45":1249,"ium":1250,"ary":1251,"ates":1252,"Ġindicates":1253,"ental":1254,"imental":1255,"perimental":1256,"Ġexperimental":1257,"65":1258,"83":1259,"Ġ104":1260,"oxy":1261,"ature":1262,"19":1263,"24":1264,"Ġfifth":1265,"79":1266,"par":1267,"Ġsepar":1268,"Ġseparation":1269,"ĠCHOHCH":1270,"Ġper":1271,"Re":1272,"gan":1273,"Ġorgan":1274,"Ġorganic":1275,"ci":1276,"mens":1277,"dimens":1278,"dimensional":1279,"56":1280,"etic":1281,"gnetic":1282,"81":1283,"Orbital":1284,"ated":1285,"nder":1286,"Ġproces":1287,"Ġsince":1288,"25":1289,"orm":1290,"ell":1291,"ĠPm":1292,"44":1293,"Hg":1294,"ec":1295,"Ġspec":1296,"fig":1297,"uration":1298,"Ġconfig":1299,"Ġconfiguration":1300,"60":1301,"Ġused":1302,"Ġsurfaces":1303,"Ġcharged":1304,"Ġne":1305,"Na":1306,"78":1307,"yan":1308,"ives":1309,"Ġgives":1310,"ĠFm":1311,"68":1312,"âĤī":1313,"cel":1314,"Ġcancel":1315,"rim":1316,"Ġ(-":1317,"dd":1318,"Ġpicometers":1319,"Ġstron":1320,"Ġstrong":1321,"MO":1322,"em":1323,"tribut":1324,"Ġcontribut":1325,"Ġcar":1326,"Ġ-":1327,"stem":1328,"Ġsystem":1329,"72":1330,"59":1331,"Ġnature":1332,"Ġde":1333,"nge":1334,"41":1335,"'s":1336,"ynol":1337,"âģµ":1338,"Ġval":1339,"Ġethoxy":1340,"Ġcharges":1341,"yramid":1342,"77":1343,"64":1344,"Ġarra":1345,"ĠL":1346,"Ġtwent":1347,"51":1348,"ethan":1349,"Ġresults":1350,"Ġdifferen":1351,"18":1352,"Ġprim":1353,"arily":1354,"Ġprimarily":1355,"ĠEthylene":1356,"Tl":1357,"edge":1358,"Ġedgeedge":1359,"Ġtwenty":1360,"ĠIts":1361,"Ġwell":1362,"Ġpartially":1363,"04":1364,"58":1365,"mmc":1366,"ÏĢ":1367,"49":1368,"mo":1369,"63":1370,"Ġwithin":1371,"ddit":1372,"ediol":1373,"Prop":1374,"Propanol":1375,"Ġunder":1376,"29":1377,"Ġrep":1378,"76":1379,"mc":1380,"Ġdistribut":1381,"Ġdistribution":1382,"Ġprocesses":1383,"Ġoverall":1384,"ot":1385,"34":1386,"Ġsever":1387,"Ġseveral":1388,"Ġbec":1389,"ĠPn":1390,"tac":1391,"Ġattac":1392,"Ġattached":1393,"Ġpresent":1394,"48":1395,"Ġmeaning":1396,"ĠThese":1397,"Ġhighly":1398,"hol":1399,"cohol":1400,"Ġalcohol":1401,"Ġ62":1402,"ities":1403,"13":1404,"Ġsam":1405,"Ġsame":1406,"ethyl":1407,"Ġmoder":1408,"ĠBond":1409,"Ġeighteen":1410,"97":1411,"ized":1412,"illed":1413,"ĠU":1414,"Ġmeans":1415,"01":1416,"aw":1417,"saw":1418,"Ġsee":1419,"ox":1420,"oxal":1421,"oo":1422,"84":1423,"Ġ12":1424,"92":1425,"Ġangstroms":1426,"tal":1427,"Ġtotal":1428,"14":1429,"COHCOH":1430,"Ġcomm":1431,"Bond":1432,"Bonding":1433,"Dipole":1434,"Molecular":1435,"61":1436,"ties":1437,"Ġproper":1438,"Ġproperties":1439,"lam":1440,"hest":1441,"ngement":1442,"Ġarrangement":1443,"ethanediol":1444,"ped":1445,"sha":1446,"shaped":1447,"CHCH":1448,"acet":1449,"Ġhigher":1450,"ch":1451,"Ġsuch":1452,"cataly":1453,"catalyst":1454,"Ġany":1455,"ĠNNO":1456,"ons":1457,"87":1458,"sing":1459,"pendic":1460,"Ġperpendic":1461,"Ġperpendicular":1462,"Ġfun":1463,"ctional":1464,"Ġfunctional":1465,"90":1466,"nitrogen":1467,"32":1468,"Ġforces":1469,"Ġcaus":1470,"ived":1471,"derived":1472,"ĠCOHCHO":1473,"Ġsta":1474,"Ġoccupied":1475,"Ġinflu":1476,"Ġsixth":1477,"Ġposses":1478,"Ġdiatomic":1479,"mcm":1480,"Ġthere":1481,"Ġbent":1482,"ilic":1483,"COHCH":1484,"Ġtheor":1485,"ions":1486,"ilicide":1487,"ĠAlTi":1488,"Ġend":1489,"dj":1490,"Ġadj":1491,"acent":1492,"Ġadjacent":1493,"Ġsystems":1494,"Ġformation":1495,"coplanar":1496,"ĠPnma":1497,"equal":1498,"Ġunequal":1499,"36":1500,"Ġinform":1501,"Ġinformation":1502,"Ġdia":1503,"ause":1504,"Ġbecause":1505,"NN":1506,"91":1507,"Ġglycolaldehyde":1508,"Ġrepres":1509,"Ġca":1510,"Ġground":1511,"Ġstate":1512,"Ġreactive":1513,"ler":1514,"xime":1515,"Ġacetate":1516,"Ġcyan":1517,"ĠCCO":1518,"to":1519,"Ġthan":1520,"Ġformate":1521,"ues":1522,"Ġvalues":1523,"Ġ107":1524,"Ġ16":1525,"face":1526,"Ġfaceface":1527,"Ġdepe":1528,"Ġmoments":1529,"ations":1530,"erv":1531,"Ġcatalysts":1532,"ĠAddit":1533,"ionally":1534,"ĠAdditionally":1535,"NONH":1536,"Ġglyoxal":1537,"Ġhydroxylam":1538,"ible":1539,"pons":1540,"Ġrespons":1541,"Ġresponsible":1542,"ĠCOHCHOH":1543,"Ġfollowing":1544,"ĠTiSe":1545,"ĠCCHO":1546,"Ġmake":1547,"Ġpyramid":1548,"Ġbeing":1549,"eus":1550,"eusler":1551,"Ġacetyl":1552,"ĠOrbital":1553,"ĠDipole":1554,"ĠBonding":1555,"ance":1556,"int":1557,"Ġdifferent":1558,"Ġnit":1559,"oint":1560,"Ġpoint":1561,"94":1562,"hys":1563,"Ġethynol":1564,"95":1565,"37":1566,"26":1567,"Ġind":1568,"bond":1569,"Ġcre":1570,"99":1571,"ood":1572,"los":1573,"Ġclos":1574,"ngular":1575,"ctangular":1576,"Ġrectangular":1577,"Ġcarri":1578,"Ġsol":1579,"acetylene":1580,"Ġstable":1581,"Ġen":1582,"35":1583,"polar":1584,"Ġnonpolar":1585,"ĠHeusler":1586,"Ġinvolve":1587,"ran":1588,"ust":1589,"fers":1590,"Ġrefers":1591,"Ġmeas":1592,"ĠEthanol":1593,"Ġsci":1594,"Ġfollows":1595,"Ġspecies":1596,"27":1597,"Ġdoes":1598,"ne":1599,"Ġdiam":1600,"Ġ111":1601,"Ġshared":1602,"ĠUran":1603,"ĠUranium":1604,"Ġj":1605,"Ġ60":1606,"enot":1607,"Ġdenot":1608,"Ġdenotes":1609,"eter":1610,"Ġdiameter":1611,"ĠCN":1612,"ĠSilicide":1613,"Ġcontributes":1614,"Ġinfluence":1615,"Ġhydroxylamine":1616,"ever":1617,"ĠHow":1618,"ĠHowever":1619,"Ġshares":1620,"Ġmoderate":1621,"Ġ110":1622,"Ġequal":1623,"Ġcyano":1624,"2âĤģ":1625,"methyl":1626,"17":1627,"Ġ14":1628,"Ġtriatomic":1629,"CHOHCH":1630,"ew":1631,"dent":1632,"Ġident":1633,"Ġunderst":1634,"Ġidentical":1635,"Ġnear":1636,"corner":1637,"Ġcornercorner":1638,"Ġ44":1639,"Ġmagnetic":1640,"Ġsheets":1641,"av":1642,"38":1643,"ene":1644,"Ġtyp":1645,"zene":1646,"Ġdiazene":1647,"Ġ32":1648,"zine":1649,"razine":1650,"Ġhydrazine":1651,"ama":1652,"Ġparama":1653,"Ġparamagnetic":1654,"30":1655,"Ġide":1656,"Ġideal":1657,"Ġonto":1658,"Ġdepending":1659,"Ġbeta":1660,"Ġcommon":1661,"015":1662,"98":1663,"Ġvary":1664,"bor":1665,"ric":1666,"Ġdens":1667,"Ġdensity":1668,"Ġstre":1669,"Ġtheory":1670,"ll":1671,"alized":1672,"ocalized":1673,"39":1674,"Ġrepresent":1675,"four":1676,"Ġpositively":1677,"Ġnegatively":1678,"ĠCuCu":1679,"ibit":1680,"Ġmethan":1681,"Ġmethane":1682,"Ġfilled":1683,"hibit":1684,"Ġexhibit":1685,"Ġtilted":1686,"most":1687,"Ġattr":1688,"acted":1689,"Ġattracted":1690,"28":1691,"Ġlow":1692,"Ġman":1693,"Ġmany":1694,"Ġunoc":1695,"cupied":1696,"Ġunoccupied":1697,"Ġcomple":1698,"ĠMolecular":1699,"Ġthis":1700,"Ġelectr":1701,"est":1702,"ymmetr":1703,"Ġasymmetr":1704,"Ġasymmetric":1705,"Ġthey":1706,"Ġoverlaps":1707,"vi":1708,"Ġcarries":1709,"Ġpointing":1710,"âģ¶":1711,"31":1712,"Ġqu":1713,"ru":1714,"Ġcru":1715,"cial":1716,"Ġcrucial":1717,"Ġnitro":1718,"Ġmeasure":1719,"Ġphys":1720,"ctively":1721,"pectively":1722,"Ġrespectively":1723,"ighbor":1724,"Ġneighbor":1725,"Ġneighboring":1726,"uted":1727,"Ġdistrib":1728,"Ġdistributed":1729,"ak":1730,"Ġweak":1731,"Ġhydroxyacetylene":1732,"leven":1733,"Ġeleven":1734,"Ġ116":1735,"pha":1736,"00":1737,"Ġmetal":1738,"ility":1739,"Ġability":1740,"Rb":1741,"ĠCHCOH":1742,"ĠCOCHO":1743,"120":1744,"Ġseventh":1745,"Ġcausing":1746,"elf":1747,"Ġitself":1748,"ĠEach":1749,"Ġpul":1750,"Ġ74":1751,"entific":1752,"Ġscientific":1753,"iel":1754,"Ġfiel":1755,"Ġfields":1756,"Ġpossesses":1757,"ride":1758,"These":1759,"ore":1760,"Ġtriplet":1761,"HO":1762,"Ġhighest":1763,"HOMO":1764,"COCH":1765,"ock":1766,"ĠCaN":1767,"Ġuse":1768,"Ġsurrou":1769,"Ġsurrounding":1770,"dipole":1771,"Ġlea":1772,"ĠTiS":1773,"Ġtheir":1774,"Ġver":1775,"Ġthem":1776,"Ġsimp":1777,"Ġsimple":1778,"ĠZnZn":1779,"âī":1780,"âī¡":1781,"03":1782,"NNCH":1783,"cted":1784,"Ġconne":1785,"Ġconnected":1786,"ĠVS":1787,"CHOH":1788,"hydroxy":1789,"Ġcal":1790,"Ġspecific":1791,"Ġdipoles":1792,"Ġalpha":1793,"vir":1794,"onment":1795,"Ġstu":1796,"Ġenvir":1797,"Ġenvironment":1798,"Ġpolarities":1799,"ically":1800,"Ġ58":1801,"oxime":1802,"dioxime":1803,"Ġdimethyl":1804,"Ġdimethyldioxime":1805,"ane":1806,"110":1807,"Ġbeen":1808,"Ġexperimentally":1809,"Ġplane":1810,"aur":1811,"icup":1812,"ĠTetra":1813,"auricup":1814,"ĠTetraauricup":1815,"ĠTetraauricupride":1816,"Ġintermo":1817,"Ġintermolecular":1818,"Ġacetaldehyde":1819,"Ġallows":1820,"Ġonly":1821,"its":1822,"Ġunits":1823,"ĠAcet":1824,"Ġcond":1825,"itions":1826,"Ġconditions":1827,"stly":1828,"ĠAlAl":1829,"arby":1830,"Ġnearby":1831,"Ġjust":1832,"Ġgive":1833,"bs":1834,"Ġobs":1835,"Ġobserv":1836,"anometers":1837,"Ġnanometers":1838,"*(":1839,"âģ°":1840,"Ġ106":1841,"Ġ121":1842,"Ġusing":1843,"CHOCH":1844,"Ġinvolving":1845,"ay":1846,"Ġro":1847,"Ġplay":1848,"Ġrole":1849,"ĠCHOCH":1850,"medi":1851,"Ġsub":1852,"Ġcovalently":1853,"Ġintermedi":1854,"Ġintermediate":1855,"Ġdebye":1856,"one":1857,"Ġconsid":1858,"Ġox":1859,"ĠHfHf":1860,"Ġmakes":1861,"Ġstrength":1862,"vent":1863,"ĠCmcm":1864,"rying":1865,"Ġcarrying":1866,"erg":1867,"Ġ119":1868,"nit":1869,"Ġdel":1870,"go":1871,"Ġundergo":1872,"uter":1873,"Ġouter":1874,"Ġshell":1875,"Ġoutermost":1876,"Ġcha":1877,"nal":1878,"Ġeigh":1879,"Ġeighth":1880,"ĠCHCHO":1881,"Ġmeasured":1882,"ndid":1883,"Ġgood":1884,"Ġcandid":1885,"Ġcandidate":1886,"Ġcent":1887,"Ġcenter":1888,"sion":1889,"ulsion":1890,"thest":1891,"arthest":1892,"Ġfarthest":1893,"uent":1894,"ituent":1895,"stituent":1896,"Ġconstituent":1897,"Ġba":1898,"ten":1899,"Ġoften":1900,"Ġtetrahedr":1901,"Ġtetrahedron":1902,"Ġexhibits":1903,"tro":1904,"atic":1905,"static":1906,"Ġelectro":1907,"Ġelectrostatic":1908,"hanol":1909,"Ġmethanol":1910,"Ġdelocalized":1911,"ĠDeby":1912,"ĠDebyes":1913,"Ġ49":1914,"ĠNiNi":1915,"form":1916,"Ġperform":1917,"Ġperformance":1918,"mmary":1919,"Ġsummary":1920,"onance":1921,"Ġresonance":1922,"Ġclose":1923,"Ġclu":1924,"Ġclust":1925,"lock":1926,"ĠOHNNCH":1927,"istry":1928,"Ġinteracts":1929,"ergy":1930,"Ġcreating":1931,"Ġbut":1932,"Ġx":1933,"ĠNiTa":1934,"Ġq":1935,"LU":1936,"Ġlowest":1937,"LUMO":1938,"Ġlar":1939,"Ġlarge":1940,"ls":1941,"olum":1942,"Ġvolum":1943,"Ġpulls":1944,"Ġvolume":1945,"Ġtric":1946,"Ġtriclinic":1947,"dize":1948,"Ġhybridize":1949,"filled":1950,"sat":1951,"urated":1952,"Ġunsat":1953,"Ġunsaturated":1954,"other":1955,"Ġanother":1956,"121":1957,"Ġsoluble":1958,"Ġsolvent":1959,"Ġsolvents":1960,"Ġcapa":1961,"Ġcompounds":1962,"Ġphysical":1963,"Ġcreate":1964,"Ġelectric":1965,"hase":1966,"ĠAgAg":1967,"Ġmain":1968,"Ġ115":1969,"ĠCuS":1970,"ĠOHCH":1971,"Ġfree":1972,"inyl":1973,"Ġvinyl":1974,"Ġsingly":1975,"Ġleads":1976,"ĠMoSe":1977,"Ġcloser":1978,"prop":1979,"the":1980,"then":1981,"Cs":1982,"ĠSbS":1983,"ĠZrZr":1984,"Ġest":1985,"imated":1986,"Ġestimated":1987,"Ġcauses":1988,"ĠReRe":1989,"ponding":1990,"Ġcor":1991,"responding":1992,"Ġcorresponding":1993,"Ġbeha":1994,"vior":1995,"Ġbehavior":1996,"led":1997,"CN":1998,"Ġbipyramid":1999,"Eth":2000,"Ethylene":2001,"Ġshow":2002,"Ġdifferences":2003,"rite":2004,"Ġdef":2005,"Ġheav":2006,"Ġheavy":2007,"Â°).":2008,"Ġact":2009,"nds":2010,"Ġgen":2011,"erating":2012,"Ġgenerating":2013,"Ġgas":2014,"luor":2015,"Ġcombined":2016,"ĠOxime":2017,"Â°),":2018,"ĠAcetaldehyde":2019,"ament":2020,"cu":2021,"uil":2022,"Ġblock":2023,"Ġbuil":2024,"Ġserv":2025,"Ġfund":2026,"ivities":2027,"Ġelectronegativities":2028,"Ġdocu":2029,"mented":2030,"Ġunderstood":2031,"01588":2032,"amental":2033,"Ġbuilding":2034,"Ġserves":2035,"Ġfundamental":2036,"Ġdocumented":2037,"cce":2038,"Ġcer":2039,"Ġcertain":2040,"ĠScSc":2041,"Ġtypes":2042,"Ġquite":2043,"tical":2044,"oretical":2045,"hydroxyethyl":2046,"taining":2047,"118":2048,"Ġopp":2049,"osite":2050,"Ġopposite":2051,"ĠCrS":2052,"pted":2053,"Ġacce":2054,"Ġwide":2055,"unity":2056,"Ġcommunity":2057,"Ġaccepted":2058,"Ġwidely":2059,"ĠSY":2060,"NNH":2061,"Ġthirteen":2062,"bd":2063,"lybd":2064,"ĠMolybd":2065,"ĠMolybden":2066,"Ġmoderately":2067,"anding":2068,"cul":2069,"luct":2070,"uate":2071,"Ġtheoretical":2072,"Ġfluct":2073,"Ġmostly":2074,"Ġdioxygen":2075,"Ġchemically":2076,"Ġhence":2077,"idated":2078,"Ġnote":2079,"Ġvalidated":2080,"Ġunderstanding":2081,"Ġcalcul":2082,"Ġstudy":2083,"Ġobservations":2084,"Ġfluctuate":2085,"Ġcalculations":2086,"109":2087,"Ġ117":2088,"get":2089,"Ġtoget":2090,"Ġtogether":2091,"CHO":2092,"ĠCHOCHO":2093,"ĠTiAl":2094,"122":2095,"Ġpolariz":2096,"Ġpolarization":2097,"ĠAlHf":2098,"Ġethan":2099,"ĠAlZr":2100,"uce":2101,"Ġparticular":2102,"Ġcontributing":2103,"Ġthereby":2104,"Ġinduce":2105,"Ġtypically":2106,"Ġvery":2107,"Ġ46":2108,"ĠPtPt":2109,"ĠLav":2110,"ĠNbSi":2111,"ĠLaves":2112,"ĠPdPd":2113,"ĠNiS":2114,"ĠNiSe":2115,"Ġnin":2116,"ĠNbS":2117,"ĠMoMo":2118,"ty":2119,"Ġrough":2120,"Ġemp":2121,"Ġroughly":2122,"Ġempty":2123,"ĠNiP":2124,"Ġ42":2125,"VB":2126,"able":2127,"crib":2128,"des":2129,"Ġaddit":2130,"itable":2131,"ĠMO":2132,"Ġsuitable":2133,"ĠUsing":2134,"Ġtheories":2135,"cribed":2136,"described":2137,"Ġaddition":2138,"ĠPP":2139,"Ġinclude":2140,"ĠNCa":2141,"Ġ55":2142,"alf":2143,"Ġhalf":2144,"ino":2145,"ĠFeS":2146,"Ġfifteen":2147,"ĠTiSi":2148,"955":2149,"Ġoccupies":2150,"Ġoxide":2151,"Acet":2152,"iqu":2153,"lel":2154,"allel":2155,"ĠCC":2156,"Ġcarbons":2157,"rial":2158,"Ġparallel":2159,"Ġuniqu":2160,"Ġindust":2161,"Acetylene":2162,"Ġunique":2163,"Ġindustrial":2164,"Ġninth":2165,"ĠYS":2166,"ĠNiAl":2167,"ĠPdCu":2168,"mu":2169,"ĠPdTl":2170,"nite":2171,"ĠPtIn":2172,"ĠTaNi":2173,"1085":2174,"ĠMnAs":2175,"Ġve":2176,"ctor":2177,"Ġ57":2178,"antity":2179,"Ġquantity":2180,"Ġvector":2181,"ork":2182,"Ġfram":2183,"ework":2184,"Ġframework":2185,"traction":2186,"reas":2187,"Ġwhereas":2188,"Ġrepresented":2189,"Ġenergy":2190,"Ġsubtraction":2191,"Ġconsidered":2192,"nitric":2193,"ĠAlNi":2194,"Ġhybrids":2195,"Ġloc":2196,"Ġ30":2197,"Ġpositions":2198,"Ġlocated":2199,"Ġ48":2200,"nm":2201,"hion":2202,"Ġfas":2203,"Ġalter":2204,"Ġethyn":2205,"114":2206,"Ġprocess":2207,"Ġchange":2208,"Ġfashion":2209,"Ġethyne":2210,"con":2211,"ĠIm":2212,"arbide":2213,"ĠNiAs":2214,"adi":2215,"026":2216,"Ġclusters":2217,"ĠHa":2218,"Ġ75":2219,"Ġpyramidal":2220,"Ġmin":2221,"ticip":2222,"imiz":2223,"Ġanticip":2224,"Ġrepulsion":2225,"Ġelectrical":2226,"Ġminimiz":2227,"Ġanticipation":2228,"Ġminimizing":2229,"ĠCrTe":2230,"duct":2231,"rocarbon":2232,"quent":2233,"Ġhydrocarbon":2234,"hylene":2235,"sequent":2236,"Ġmethylene":2237,"Ġproduct":2238,"Ġcomplex":2239,"Ġsubsequent":2240,"Ġhydrocarbons":2241,"Ġproducts":2242,"gram":2243,"Ġent":2244,"ĠNN":2245,"ĠNNH":2246,"Ġlocalized":2247,"Ġdiagram":2248,"Ġentire":2249,"ONH":2250,"picometers":2251,"also":2252,"Ġ142":2253,"pping":2254,"ĠONH":2255,"Ġoverlapping":2256,"RC":2257,"boo":2258,"eer":2259,"les":2260,"Ġsour":2261,"revi":2262,"ndboo":2263,"ĠChem":2264,"ĠCRC":2265,"Ġpeer":2266,"ĠPhys":2267,"ournal":2268,"ticles":2269,"ified":2270,"NHNH":2271,"ĠNHNH":2272,"Ġarticles":2273,"Ġjournal":2274,"ewed":2275,"Ġverified":2276,"ĠHandboo":2277,"Ġsources":2278,"reviewed":2279,"ĠChemistry":2280,"ĠPhysics":2281,"ĠHandbook":2282,"fluor":2283,"ĠCarbon":2284,"Ġformaldehyde":2285,"fluoride":2286,"muth":2287,"ĠInS":2288,"Ġparticipates":2289,"ĠTcTc":2290,"ences":2291,"Ġhow":2292,"Ġdetermine":2293,"Ġinfluences":2294,"Ġconsider":2295,"ĠAuAg":2296,"Ġlower":2297,"ĠTaS":2298,"Ġ123":2299,"Ġcharacterized":2300,"CHCHO":2301,"Ġ76":2302,"onating":2303,"Ġdonating":2304,"ĠLew":2305,"Ġbase":2306,"Ġcapable":2307,"ĠLewis":2308,"ĠCaAs":2309,"Ġ47":2310,"nged":2311,"Ġethyl":2312,"Ġ114":2313,"Ġwhen":2314,"Ġinteracting":2315,"Ġcancels":2316,"Ġarranged":2317,"Ġundergoes":2318,"Ġ150":2319,"ĠNaSe":2320,"smuth":2321,"Ġbismuth":2322,"Ġtrifluoride":2323,"âĤģâĤģ":2324,"ake":2325,"ander":2326,"gor":2327,"pm":2328,"Ġtake":2329,"Ġcate":2330,"Ġfall":2331,"Ġinto":2332,"lecule":2333,"Ġ112":2334,"Ġpart":2335,"ĠVander":2336,"ĠMolecule":2337,"Ġ95":2338,"025":2339,"Ġnitroso":2340,"gory":2341,"Ġcategory":2342,"Ġfalls":2343,"ĠMoS":2344,"196":2345,"fore":2346,"gg":2347,"mon":2348,"Ġamon":2349,"ĠMethan":2350,"ternal":2351,"Ġexternal":2352,"Ġsugg":2353,"Ġtherefore":2354,"ests":2355,"Ġamong":2356,"ĠMethane":2357,"Ġsuggests":2358,"te":2359,"452":2360,"agn":2361,"esium":2362,"ĠMagn":2363,"ĠMagnesium":2364,"aile":2365,"ĠÃħngstroms":2366,"ĠSin":2367,"ĠHere":2368,"Ġdetaile":2369,"ĠSince":2370,"Ġdetailed":2371,"CCHO":2372,"Ġstrongly":2373,"Ġcomplete":2374,"Ġcompletely":2375,"ĠAlTa":2376,"ĠMolybdenite":2377,"206":2378,"There":2379,"OHNH":2380,"Ġ96":2381,"Ġbased":2382,"Ġ71":2383,"ĠPdBi":2384,"ĠTlPd":2385,"kite":2386,"Ġ73":2387,"ĠRhSi":2388,"Ġmetals":2389,"ĠCCHOH":2390,"ides":2391,"ĠEthynol":2392,"CCHOH":2393,"Ġoxides":2394,"ĠDis":2395,"Debye":2396,"EP":2397,"Valence":2398,"ced":2399,"ind":2400,"pers":2401,"pically":2402,"pulsion":2403,"spers":2404,"uced":2405,"ypically":2406,"hell":2407,"ondon":2408,"orption":2409,"lectron":2410,"Ġdispers":2411,"ĠShell":2412,"ĠPair":2413,"ĠTypically":2414,"ĠOne":2415,"Ġdegree":2416,"isorption":2417,"ĠElectron":2418,"ĠRepulsion":2419,"ĠEthoxy":2420,"Ġdirected":2421,"ĠLondon":2422,"Ġdepends":2423,"Ġphysisorption":2424,"ĠVSEP":2425,"Ġcalled":2426,"induced":2427,"Ġdispersion":2428,"ĠVSEPR":2429,"233":2430,"yd":2431,"Ġisoc":2432,"yanate":2433,"Ġisocyanate":2434,"ĠDisilicide":2435,"4âĤĤ":2436,"ĠInTi":2437,"ĠZrSi":2438,"ĠScSb":2439,"Ġtenth":2440,"ĠHex":2441,"ĠHexagonal":2442,"1216":2443,"ĠZnS":2444,"ĠGaTi":2445,"Hyd":2446,"pynol":2447,"ĠĠĊ":2448,"roxyacetylene":2449,"Ġpropynol":2450,"Hydroxyacetylene":2451,"ĠCm":2452,"ĠCHCHOH":2453,"CHCHOH":2454,"sure":2455,"ĠHY":2456,"be":2457,"ual":2458,"Ġset":2459,"Ġsens":2460,"itivity":2461,"nges":2462,"ivid":2463,"dies":2464,"Ġprobe":2465,"Ġindivid":2466,"Ġscience":2467,"Ġnearly":2468,"Ġstudies":2469,"Ġchanges":2470,"Ġsets":2471,"Ġsensitivity":2472,"Ġindividual":2473,"cur":2474,"Ġoccur":2475,"red":2476,"covalent":2477,"Ġcontribute":2478,"Ġpossess":2479,"Ġweaker":2480,"COCHO":2481,"ĠIrIr":2482,"116":2483,"Ġion":2484,"omal":2485,"Ġanion":2486,"Ġanomal":2487,"Ġanomalous":2488,"ased":2489,"based":2490,"rit":2491,"syl":2492,"omer":2493,"Ġisomer":2494,"ĠHence":2495,"Ġnitrite":2496,"Ġnitrosyl":2497,"nitrit":2498,"nitrito":2499,"Ġethen":2500,"Ġalmost":2501,"Ġsymmetric":2502,"Ġethenyl":2503,"464":2504,"ain":2505,"ĠMoNi":2506,"ĠCoGe":2507,"Ġom":2508,"ega":2509,"Ġomega":2510,"cy":2511,"ien":2512,"lic":2513,"ome":2514,"omain":2515,"Ġcm":2516,"icien":2517,"Ġmove":2518,"Ġ143":2519,"Ġ152":2520,"ĠIso":2521,"analdehyde":2522,"Ġdomain":2523,"Ġreadi":2524,"Ġvaries":2525,"Ġimplic":2526,"Ġbecome":2527,"COHCHO":2528,"Ġrepresents":2529,"hydroxyprop":2530,"propyl":2531,"Ġdeficien":2532,"Ġmovement":2533,"ĠIsopropyl":2534,"Ġdomains":2535,"Ġreadily":2536,"Ġimplications":2537,"hydroxypropanaldehyde":2538,"Ġdeficiency":2539,"Ġ59":2540,"281":2541,"420":2542,"*)":2543,"ctive":2544,"Ġdistin":2545,"ĠFeAs":2546,"Ġacetone":2547,"Ġplanarity":2548,"acetone":2549,"Ġdistinctive":2550,"ĠCoP":2551,"ĠNaNa":2552,"Ġ50":2553,"Ġphase":2554,"ĠCrP":2555,"-),":2556,"ean":2557,"hile":2558,"while":2559,"ngthen":2560,"Ġprom":2561,"Ġdiol":2562,"ĠMean":2563,"Orbitally":2564,"oting":2565,"Ġstrengthen":2566,"Ġactivity":2567,"Ġpromoting":2568,"ĠMeanwhile":2569,"Reg":2570,"arding":2571,"Ġchemistry":2572,"Regarding":2573,"472":2574,"ĠScAs":2575,"ial":2576,"Ġpot":2577,"ential":2578,"ĠDue":2579,"Ġwherein":2580,"mentary":2581,"Ġpossessing":2582,"Ġcommonly":2583,"Ġcomplementary":2584,"Ġpotential":2585,"Ġpressure":2586,"cyan":2587,"Ġdiffer":2588,"Ġcarriers":2589,"cyanide":2590,"ĠSbTi":2591,"107":2592,"098":2593,"ĠCarbide":2594,"ĠVSi":2595,"ĠNbSe":2596,"La":2597,"Ġcluster":2598,"erature":2599,"mperature":2600,"ĠSbPt":2601,"ĠPtSb":2602,"prises":2603,"uring":2604,"Ġcomprises":2605,"Ġmeasuring":2606,"emperature":2607,"Ġari":2608,"Ġtemperature":2609,"react":2610,"Ġunreact":2611,"containing":2612,"Ġpressures":2613,"Ġarise":2614,"Ġtemperatures":2615,"Ġunreactive":2616,"ĠPhase":2617,"pla":2618,"Ġali":2619,"Ġwil":2620,"OCHCH":2621,"COOCH":2622,"Ġexpla":2623,"ĠOCHCH":2624,"gning":2625,"Ġaligning":2626,"Ġwill":2627,"Ġexplained":2628,"CCO":2629,"HNO":2630,"dra":2631,"wing":2632,"with":2633,"Ġcyanide":2634,"Lastly":2635,"drawing":2636,"withdrawing":2637,"ONN":2638,"omin":2639,"Ġpred":2640,"ĠONN":2641,"Ġdistance":2642,"antly":2643,"Ġdefined":2644,"ominantly":2645,"Ġpredominantly":2646,"-).":2647,"bil":2648,"ithin":2649,"ĠWithin":2650,"Ġ90":2651,"COO":2652,"Ġcapabil":2653,"Ġcapabilities":2654,"Ġ13":2655,"itan":2656,"ĠTitan":2657,"ĠTitanium":2658,"Ġmul":2659,"tiple":2660,"Ġmultiple":2661,"ĠAlSc":2662,"Ġ45":2663,"1220":2664,"ĠVZr":2665,"ONNH":2666,"sary":2667,"Ġretaining":2668,"cessary":2669,"ĠONNH":2670,"Ġ105":2671,"Ġnecessary":2672,"Ġobserved":2673,"ĠCrSe":2674,"Ġcentralized":2675,"COHCHOH":2676,"ĠNHf":2677,"pper":2678,"angstroms":2679,"ked":2680,"Ġlinked":2681,"Ġrepresenting":2682,"Ġpulled":2683,"Ġcorrespondingly":2684,"ĠGaS":2685,"tun":2686,"ĠCotun":2687,"ĠCotunnite":2688,"gions":2689,"Ġregions":2690,"Ġcharacteristic":2691,"Ġcombine":2692,"ĠCopper":2693,"ĠFeP":2694,"yrite":2695,"âģ»,":2696,"ĠAgCd":2697,"ĠTaSi":2698,"gation":2699,"ju":2700,"lyoxal":2701,"ĠGlyoxal":2702,"Ġconju":2703,"Ġup":2704,"edial":2705,"Ġethanedial":2706,"Ġconjugation":2707,"ung":2708,"sten":2709,"ĠTung":2710,"ĠTungsten":2711,"ĠNiSi":2712,"nmm":2713,"ĠNiNb":2714,"Ġall":2715,"Ġethanediol":2716,"ĠRhRu":2717,"ĠNaS":2718,"ĠGaZr":2719,"ĠMoAl":2720,"zed":2721,"energy":2722,"alyzed":2723,"CHCO":2724,"ĠCHCO":2725,"Ġanalyzed":2726,"ĠFeZr":2727,"Ġstands":2728,"Ġmeasures":2729,"Ġleading":2730,"ĠAcetyl":2731,"ĠCuAl":2732,"ĠSnZr":2733,"ĠCoCo":2734,"verite":2735,"ĠCrZr":2736,"ubic":2737,"ĠYY":2738,"102":2739,"ĠNbGe":2740,"Ġ51":2741,"ĠZnTi":2742,"1183":2743,"ĠNiTe":2744,"ĠGaNb":2745,"Ġeleventh":2746,"ĠPdMo":2747,"ĠHTi":2748,"alite":2749,"ia":2750,"Ġvia":2751,"ĠCHOHCHOH":2752,"CHOHCHOH":2753,"Each":2754,"Ġ134":2755,"Ġangstrom":2756,"alt":2757,"ĠSalt":2758,"ĠHalite":2759,"ĠRock":2760,"CHOCHOH":2761,"ĠCHOCHOH":2762,"ĠRuRu":2763,"ĠRhV":2764,"ĠSrN":2765,"ĠPnnm":2766,"ĠImmm":2767,"ĠPtNb":2768,"ĠInSe":2769,"Ġ52":2770,"ĠAsAs":2771,"ĠNiGa":2772,"ĠAlCu":2773,"ĠInSc":2774,"1079":2775,"ĠRuIr":2776,"ĠMnMn":2777,"569":2778,"ĠFeSe":2779,"ĠHfAl":2780,"ĠAgZn":2781,"ĠCmmm":2782,"ĠInPt":2783,"met":2784,"Ġdimet":2785,"OHNNCH":2786,"hylam":2787,"Ġrelative":2788,"Ġhydroxylamino":2789,"Ġdimethylam":2790,"Ġdimethylamino":2791,"ĠMoTe":2792,"ĠAmm":2793,"Ġ54":2794,"ĠSrP":2795,"ĠSeK":2796,"Ġrib":2797,"Ġribb":2798,"AX":2799,"ĠMAX":2800,"1186":2801,"ĠFluor":2802,"ĠFluorite":2803,"119":2804,"101":2805,"ĠFd":2806,"ĠPdHg":2807,"ĠPmm":2808,"ĠPdZn":2809,"ĠCuSe":2810,"ĠCoSi":2811,"ĠVRh":2812,"867":2813,"ĠVV":2814,"ĠAlS":2815,"ĠTiTe":2816,"ĠMolybdenum":2817,"ĠPdNb":2818,"ĠBiPd":2819,"fth":2820,"Ġtwelfth":2821,"ĠTaTe":2822,"ĠCrAs":2823,"ĠRhPt":2824,"ĠIrSi":2825,"ĠInZr":2826,"ĠScSi":2827,"ĠCaP":2828,"ĠCoZr":2829,"ĠPtTi":2830,"ĠNbPt":2831,"ĠMoSi":2832,"ĠNbTe":2833,"ĠAlY":2834,"ĠAlNb":2835,"ĠMnZr":2836,"ĠSCu":2837,"hat":2838,"rkite":2839,"yrkite":2840,"ĠKhat":2841,"ĠKhatyrkite":2842,"ĠGaNi":2843,"ĠMnP":2844,"ĠMnS":2845,"ĠTaGe":2846,"ĠSZn":2847,"Ġapproximate":2848,"ĠNiHf":2849,"1187":2850,"ĠGaPt":2851,"ĠHgPd":2852,"ĠPbc":2853,"ĠMnSi":2854,"567":2855,"ĠPtGa":2856,"ĠFeSb":2857,"mb":2858,"ĠPtAl":2859,"ĠBiSe":2860,"ĠVSe":2861,"Ġ40":2862,"ĠWN":2863,"1215":2864,"ĠSrAs":2865,"ĠTaN":2866,"1219":2867,"ĠWS":2868,"ĠCoSe":2869,"ĠSeTi":2870,"ĠHCa":2871,"ĠRhMo":2872,"ĠSSb":2873,"sw":2874,"sil":2875,"ĠCasw":2876,"ellsil":2877,"ĠCaswellsil":2878,"ĠCaswellsilverite":2879,"ĠGaHf":2880,"1224":2881,"ĠNTi":2882,"ĠHfGe":2883,"mbm":2884,"ĠTiPt":2885,"ĠAlPt":2886,"ĠLa":2887,"ĠTiN":2888,"ĠCdAg":2889,"ĠCubic":2890,"ĠOsTa":2891,"1217":2892,"ĠPCa":2893,"ĠPyrite":2894,"Ġ18":2895,"dder":2896,"ĠModder":2897,"ĠModderite":2898,"ĠNbN":2899,"ĠIrNb":2900,"ĠTlTl":2901,"ĠNSr":2902,"ĠSeNa":2903,"ĠFeFe":2904,"Ġribbons":2905,"ĠPSr":2906,"ĠNaTe":2907,"ĠZrSb":2908,"ĠZrAl":2909,"ĠNiTi":2910,"mnm":2911,"ĠCSi":2912,"ĠCuSc":2913,"ĠCdS":2914,"ĠCaSi":2915,"ĠPmma":2916,"ĠSiSi":2917,"ĠFeTa":2918,"ĠPbS":2919,"ĠVTe":2920,"ĠMoAs":2921,"ĠSNi":2922,"ĠTaTa":2923,"ĠNiGe":2924,"ĠWSi":2925,"Ġ63":2926,"ĠPtMo":2927,"1221":2928,"ĠCaSb":2929,"ĠHSr":2930,"ĠNNb":2931,"ĠPdV":2932,"ĠPbPd":2933,"4âĤģ":2934,"ĠMnGe":2935,"ĠIrRe":2936,"ĠBiS":2937,"ĠMnN":2938,"ĠNiZr":2939,"ĠSiC":2940,"ĠZrGa":2941,"ĠGeS":2942,"ĠCdCd":2943,"308":2944,"ĠPdAg":2945,"ĠNiSb":2946,"ĠSnHf":2947,"ĠZnPd":2948,"222":2949,"ĠHfN":2950,"ĠRhTe":2951,"ĠRhSn":2952,"ĠSnTi":2953,"ĠPdTa":2954,"ĠSnS":2955,"ĠWPd":2956,"ĠAgAl":2957,"ĠOsP":2958,"ĠWTe":2959,"ĠRhS":2960,"ĠCsCl":2961,"man":2962,"1018":2963,"ĠAsCa":2964,"1080":2965,"ĠNaAs":2966,"ĠAgAu":2967,"ĠPdSn":2968,"ero":2969,"skite":2970,"vskite":2971,"ĠPero":2972,"ĠNiCa":2973,"ĠPerovskite":2974,"ĠZnP":2975,"ĠCdTi":2976,"ĠScP":2977,"ĠPdTi":2978,"ĠAgS":2979,"ĠZrP":2980,"ĠCoV":2981,"ĠPdMn":2982,"ĠSNa":2983,"ĠPmmn":2984,"Ġ53":2985,"ĠPa":2986,"Ġ15":2987,"ĠNbP":2988,"Ġ43":2989,"ĠAgY":2990,"cas":2991,"arcas":2992,"ĠMarcas":2993,"ĠPdAs":2994,"ĠMarcasite":2995,"ĠTiGe":2996,"ĠGeCu":2997,"ĠRhNb":2998,"rd":2999,"ĠCoSb":3000,"Ġthirteenth":3001,"ĠTcP":3002,"ĠZnAs":3003,"ĠIndium":3004,"ĠCoS":3005,"Ġ56":3006,"1188":3007,"ĠNbIr":3008,"ĠPtRh":3009,"ĠRhZn":3010,"ĠPAg":3011,"ĠNiY":3012,"ĠNZr":3013,"ĠInY":3014,"ĠIrTe":3015,"ĠInAu":3016,"ĠSiN":3017,"ĠSiP":3018,"ĠNbNi":3019,"ĠCuTe":3020,"ĠImma":3021,"ĠNbPd":3022,"Ġfourteenth":3023,"ĠSnSe":3024,"ĠCdAs":3025,"112":3026,"ĠCmce":3027,"ĠKCl":3028,"ĠSnRh":3029,"ĠTiP":3030,"ĠScHf":3031,"anite":3032,"ĠGaV":3033,"ĠTaPd":3034,"ĠBiTe":3035,"ĠFeY":3036,"ĠIrTa":3037,"ĠCuZn":3038,"ĠZnZr":3039,"ĠCuHf":3040,"ĠMoZr":3041,"ĠYAg":3042,"ĠPtCd":3043,"ĠWAl":3044,"ĠPdZr":3045,"ĠMoZn":3046,"Ġ64":3047,"ĠPZn":3048,"ĠPTc":3049,"ĠSeIn":3050,"ĠRhSe":3051,"ĠCrTa":3052,"ĠCrAl":3053,"ĠRhAs":3054,"ĠZnSe":3055,"ĠNbGa":3056,"ĠMnTe":3057,"1078":3058,"ĠCmc":3059,"ĠTiPd":3060,"ĠPtAg":3061,"ĠRhP":3062,"ĠZnY":3063,"ĠAlMn":3064,"ĠCrNb":3065,"ĠHZr":3066,"ĠHfGa":3067,"Ġfifteenth":3068,"pin":3069,"ĠSpin":3070,"ĠYSi":3071,"ĠSpinel":3072,"ĠRuTa":3073,"ĠIrMo":3074,"ĠRhRh":3075,"Ġ20":3076,"ĠTiAs":3077,"ĠCuZr":3078,"Ġsevent":3079,"ĠPbam":3080,"Ġseventeen":3081,"ĠPFe":3082,"prim":3083,"prime":3084,"Ġ41":3085,"ĠNaSb":3086,"ĠZnN":3087,"ĠGeSe":3088,"ĠCoY":3089,"ĠFeSi":3090,"ĠFdd":3091,"ĠKSe":3092,"MoS":3093,"ĠRhGa":3094,"ĠCoAs":3095,"ĠInTe":3096,"100":3097,"ĠTaIr":3098,"ĠZrSe":3099,"ĠNTa":3100,"ĠCoHf":3101,"ĠAuIn":3102,"ĠAlAg":3103,"ĠCrTi":3104,"ĠCc":3105,"ĠGaSe":3106,"ĠAgSe":3107,"ĠTiCo":3108,"ĠPbTe":3109,"ĠYGa":3110,"1223":3111,"ĠNbRh":3112,"ĠNV":3113,"ircon":3114,"ĠZircon":3115,"ĠPtV":3116,"dm":3117,"Ġgol":3118,"Ġcadm":3119,"Ġgold":3120,"Ġcadmium":3121,"ĠZnTa":3122,"ĠRuRe":3123,"ĠRhSb":3124,"106":3125,"amd":3126,"ĠZnAg":3127,"ĠMnPd":3128,"ĠOsRe":3129,"ĠWSe":3130,"ĠSIn":3131,"ĠNbNb":3132,"ĠSnTe":3133,"ĠHgTi":3134,"ĠGeTe":3135,"ĠCoTi":3136,"ĠRuRh":3137,"ĠAsNi":3138,"ĠCh":3139,"ĠYIn":3140,"Ġtetrabor":3141,"Ġtetraboride":3142,"Heusler":3143,"âĤģâĤĥ":3144,"11869":3145,"ĠCdAu":3146,"ĠCoNb":3147,"ĠAgTi":3148,"ĠSCo":3149,"ĠScAl":3150,"ĠScGe":3151,"ĠSnSc":3152,"ĠZrIn":3153,"ĠVPd":3154,"ĠPtSn":3155,"Ġ68":3156,"ĠKK":3157,"ĠPNa":3158,"ĠScGa":3159,"ĠIb":3160,"PbS":3161,"ĠVN":3162,"ĠSeBi":3163,"ĠAuCu":3164,"ĠZirconium":3165,"SeS":3166,"ĠMnSe":3167,"ĠNaCl":3168,"Ġcarbide":3169,"TiS":3170,"âģ¸":3171,"ĠWP":3172,"ĠIbam":3173,"atlock":3174,"ĠMatlock":3175,"ĠMatlockite":3176,"ĠCaS":3177,"ĠWIr":3178,"ĠPCo":3179,"ĠHfSi":3180,"ĠIrP":3181,"ĠVCo":3182,"alco":3183,"ĠChalco":3184,"ĠAsTe":3185,"ĠKS":3186,"eta":3187,"570":3188,"ĠSV":3189,"ĠGaSc":3190,"ĠRhRe":3191,"ĠNiSc":3192,"ĠSrPb":3193,"PS":3194,"ĠVPt":3195,"ĠPdSi":3196,"113":3197,"ĠCV":3198,"ron":3199,"zeta":3200,"Ġzeta":3201,"Ġiron":3202,"ĠCdHf":3203,"ĠGaRh":3204,"ĠMoHf":3205,"ĠAsSr":3206,"cble":3207,"nde":3208,"ĠSpha":3209,"incble":3210,"ĠZincble":3211,"ĠNaP":3212,"lerite":3213,"ĠSphalerite":3214,"ĠZincblende":3215,"Ġcuboctahedral":3216,"ĠRuAs":3217,"ĠPbcn":3218,"ĠSTi":3219,"ĠGaY":3220,"108":3221,"ĠNY":3222,"ĠPS":3223,"âĤģâĤĨ":3224,"Ġsixteenth":3225,"12âĤģ":3226,"ĠRhGe":3227,"ĠGaTe":3228,"ĠSbSe":3229,"ĠTaAs":3230,"ĠCdPt":3231,"ĠZrS":3232,"ĠGaAs":3233,"ĠCoTe":3234,"ĠRbS":3235,"ĠMoP":3236,"ĠCNb":3237,"ĠZrN":3238,"422":3239,"ĠSbCu":3240,"ĠSnNb":3241,"ĠInP":3242,"ĠAlN":3243,"ĠHfSb":3244,"ĠSnPd":3245,"WS":3246,"ĠSSr":3247,"ĠVC":3248,"ĠMoPt":3249,"ĠSeCr":3250,"ĠTaAl":3251,"ĠAuAu":3252,"pyrite":3253,"ĠFeNb":3254,"ĠChalcopyrite":3255,"ĠCuPd":3256,"ĠFeTi":3257,"ĠSAg":3258,"ĠCoTa":3259,"ĠSrSb":3260,"Cubic":3261,"ĠSnY":3262,"ĠMnSc":3263,"ĠNMn":3264,"ĠPSn":3265,"ĠSeCs":3266,"ĠSPb":3267,"ĠSiTi":3268,"ĠCaCa":3269,"ĠZrTe":3270,"ĠTaRu":3271,"ĠScBi":3272,"1184":3273,"averite":3274,"alaverite":3275,"ĠCalaverite":3276,"ĠInSb":3277,"ĠHfPd":3278,"ĠHfPt":3279,"ĠCdY":3280,"ĠTiZn":3281,"ĠSnCu":3282,"dite":3283,"kut":3284,"udite":3285,"ĠSRu":3286,"ĠSkut":3287,"terudite":3288,"ĠRuSb":3289,"ĠSkutterudite":3290,"ĠZnHf":3291,"ĠFmmm":3292,"ĠAlSe":3293,"ĠSeY":3294,"MoSe":3295,"adium":3296,"ĠYAl":3297,"ĠSbTe":3298,"ĠRuCu":3299,"103":3300,"ĠPbca":3301,"1189":3302,"ĠAuCd":3303,"ĠPbSe":3304,"ĠSBi":3305,"ĠNiCr":3306,"ĠCuTi":3307,"ĠRbTe":3308,"127":3309,"132":3310,"Ġ17":3311,"ĠYSn":3312,"ĠSnV":3313,"ĠTeGe":3314,"ĠFeHf":3315,"ellur":3316,"ĠTiGa":3317,"ĠScAg":3318,"ĠWCo":3319,"ĠCdTe":3320,"ĠTeBi":3321,"124":3322,"ĠAuSn":3323,"ĠPtGe":3324,"ĠBerg":3325,"NiS":3326,"ĠFeSc":3327,"ĠBergman":3328,"ĠSFe":3329,"ĠPtNi":3330,"ĠYGe":3331,"115":3332,"SbPt":3333,"220":3334,"dium":3335,"ĠSiCu":3336,"ĠHfNi":3337,"1007":3338,"CaSi":3339,"Ġgam":3340,"ĠGaGa":3341,"Ġgamma":3342,"ĠTaOs":3343,"862":3344,"ĠHgSc":3345,"ĠBiHf":3346,"ĠSRh":3347,"ĠSiS":3348,"ĠZnSc":3349,"+,":3350,"âģ·":3351,"ĠNbAl":3352,"10180":3353,"ĠAgP":3354,"ĠPNaP":3355,"974":3356,"ĠAlAs":3357,"ĠGeN":3358,"ĠRuPt":3359,"ĠIrAs":3360,"ĠPPIr":3361,"ĠIrGe":3362,"vc":3363,"orund":3364,"ĠCorund":3365,"ĠYCd":3366,"ĠFddd":3367,"ĠCorundum":3368,"tz":3369,"urtz":3370,"ĠWurtz":3371,"ĠWurtzite":3372,"NiAs":3373,"ĠImm":3374,"NbS":3375,"ĠMoN":3376,"ĠMnTi":3377,"SnS":3378,"ĠCdSc":3379,"ĠZrAs":3380,"166":3381,"ĠAlGe":3382,"ĠSrSi":3383,"Ġ65":3384,"ĠNFe":3385,"ĠIrV":3386,"865":3387,"167":3388,"sanite":3389,"ĠHaus":3390,"ĠMois":3391,"ZnS":3392,"mannite":3393,"ĠHausmannite":3394,"ĠMoissanite":3395,"ĠCuTa":3396,"ĠAgSc":3397,"ĠClK":3398,"ĠPtZn":3399,"ĠMoCo":3400,"ĠTcAl":3401,"568":3402,"306":3403,"oride":3404,"ĠAsAsIr":3405,"ĠPN":3406,"ĠGeGe":3407,"ĠRuNi":3408,"ĠZnSr":3409,"ĠNaBi":3410,"ĠGeNi":3411,"305":3412,"ĠCW":3413,"ĠRhIn":3414,"mvc":3415,"ĠCuY":3416,"ĠPPRh":3417,"ĠAlP":3418,"1077":3419,"303":3420,"ĠYTe":3421,"ĠHfP":3422,"NiSi":3423,"1025":3424,"ĠIrRu":3425,"ĠSnNi":3426,"12243":3427,"ĠHfSe":3428,"ement":3429,"ĠCement":3430,"ĠCuAu":3431,"ĠTeSn":3432,"ĠCementite":3433,"571":3434,"ĠTiNi":3435,"CuS":3436,"gite":3437,"nar":3438,"ĠZnRh":3439,"ĠWAs":3440,"ĠFeTe":3441,"ĠEnar":3442,"ĠEnargite":3443,"$\\":3444,"Kas":3445,"Ġ$\\":3446,"ĠHfCu":3447,"ĠHfAu":3448,"ĠGaN":3449,"ĠOsOs":3450,"ĠFran":3451,"Kasper":3452,"ĠFrank":3453,"bnite":3454,"ĠSti":3455,"ĠPdHf":3456,"ĠScN":3457,"ĠScTe":3458,"ĠRuTc":3459,"ĠStibnite":3460,"296":3461,"ĠRuSi":3462,"ĠZrCl":3463,"ĠNbC":3464,"ĠCuP":3465,"TeSe":3466,"ĠPmc":3467,"ĠHfAs":3468,"ĠCrN":3469,"ĠCrHf":3470,"105":3471,"ĠMnHf":3472,"ĠAgCu":3473,"11860":3474,"ĠCaGe":3475,"side":3476,"Ġinside":3477,"ĠVP":3478,"ĠTeNa":3479,"1207":3480,"ĠTiMo":3481,"ĠZrGe":3482,"ĠPtRu":3483,"ĠRhZr":3484,"ĠPbTl":3485,"973":3486,"ĠMoCl":3487,"1105":3488,"123":3489,"CaZn":3490,"12180":3491,"ĠSiZr":3492,"ĠVAs":3493,"ĠIrTc":3494,"CoNi":3495,"RuSi":3496,"503":3497,"133":3498,"ĠStructure":3499,"136":3500,"ĠScSn":3501,"ĠSrGe":3502,"ĠRuSe":3503,"ĠPbSc":3504,"ĠAsAsRh":3505,"972":3506,"ĠVTa":3507,"11880":3508,"Ġ39":3509,"ĠPtTe":3510,"rthorhombic":3511,"ĠPmmm":3512,"ĠOrthorhombic":3513,"ĠTiAu":3514,"156":3515,"ĠScIn":3516,"ĠScCu":3517,"ĠAsZn":3518,"12154":3519,"ĠWNi":3520,"ĠSbRh":3521,"1229":3522,"ĠTcGa":3523,"979":3524,"ĠTiNb":3525,"ĠSiAs":3526,"ĠZnNb":3527,"ĠSbNi":3528,"SnSe":3529,"Ġribbon":3530,"ĠIrTi":3531,"lm":3532,"enite":3533,"ĠIlm":3534,"ĠTiCl":3535,"ĠIlmenite":3536,"117":3537,"ĠSNb":3538,"ĠAlCa":3539,"ĠPdGe":3540,"TiAl":3541,"ĠWPt":3542,"1069":3543,"Ġ77":3544,"Ġ19":3545,"ĠPHf":3546,"1072":3547,"ĠSrZn":3548,"8655":3549,"ĠSiCo":3550,"ĠAsTi":3551,"GeTe":3552,"ĠReN":3553,"CrS":3554,"12203":3555,"280":3556,"ĠSK":3557,"212":3558,"ĠTiIr":3559,"1009":3560,"1246":3561,"ĠRbRb":3562,"866":3563,"204":3564,"11846":3565,"1103":3566,"12153":3567,"ĠPc":3568,"Ġ35":3569,"ĠHgTe":3570,"WTe":3571,"anadium":3572,"ĠVanadium":3573,"ĠAuTi":3574,"ĠIrZn":3575,"Ġnitride":3576,"304":3577,"ĠSeRb":3578,"ĠTaGa":3579,"1029":3580,"ĠSTl":3581,"ĠPTi":3582,"ĠAlSb":3583,"ĠVIr":3584,"ĠRhTc":3585,"ĠSSn":3586,"12155":3587,"ĠAuTe":3588,"ZrRh":3589,"573":3590,"GeS":3591,"ĠTiRh":3592,"209":3593,"CoGe":3594,"Ġtellur":3595,"Ġtelluride":3596,"ĠPdIn":3597,"ĠZrZn":3598,"ĠTaP":3599,"ĠPSi":3600,"ĠTiH":3601,"âĤģâĤħ":3602,"ĠSrS":3603,"ĠCdSb":3604,"ĠPRe":3605,"ĠGaP":3606,"ĠSePb":3607,"ĠYSe":3608,"ĠCrNi":3609,"ĠRuP":3610,"999":3611,"1102":3612,"ĠNAl":3613,"ĠSiV":3614,"104":3615,"ĠPFeP":3616,"ĠAgTe":3617,"ĠIrSb":3618,"TaS":3619,"12289":3620,"ĠTeTe":3621,"ĠAlPd":3622,"ĠZrPd":3623,"CuAl":3624,"165":3625,"eteen":3626,"CoSi":3627,"Ġnineteen":3628,"210":3629,"ĠSiY":3630,"ĠTaCu":3631,"TiPd":3632,"ĠTlSe":3633,"186":3634,"ĠAlV":3635,"Ġ69":3636,"AlGe":3637,"ĠSiFe":3638,"ĠPtNa":3639,"SiC":3640,"Ġ66":3641,"ĠScCl":3642,"ĠGeV":3643,"ĠReZr":3644,"ĠPmn":3645,"ĠInRh":3646,"ĠSbFe":3647,"213":3648,"ĠRbCl":3649,"ĠCAl":3650,"ĠSeRh":3651,"ĠMnSb":3652,"ĠMnZn":3653,"ĠSnAu":3654,"ĠReSe":3655,"CrSi":3656,"274":3657,"ĠPtCo":3658,"WSe":3659,"ĠPtSi":3660,"NiP":3661,"ĠSrIn":3662,"307":3663,"ĠSeSb":3664,"ĠCuCl":3665,"1023":3666,"229":3667,"ĠZrHf":3668,"ĠHgHf":3669,"ĠNbSb":3670,"1225":3671,"MnAl":3672,"1206":3673,"ĠNRe":3674,"ĠInPd":3675,"208":3676,"ĠAgCa":3677,"ĠAuRb":3678,"Ġ78":3679,"10253":3680,"Ġseventeenth":3681,"ĠSMn":3682,"CoAs":3683,"179":3684,"ĠSCr":3685,"Ġ22":3686,"AlSi":3687,"ĠSnSr":3688,"1208":3689,"ĠNbAs":3690,"ĠGeNb":3691,"1008":3692,"ĠOsMn":3693,"5708":3694,"ĠPtTc":3695,"ĠRuZn":3696,"1652":3697,"ĠTlCa":3698,"ĠPY":3699,"ĠInSr":3700,"755":3701,"ĠPo":3702,"ĠZrH":3703,"ĠRhAl":3704,"ĠAsZr":3705,"1247":3706,"ĠBiBi":3707,"ĠPbHf":3708,"555":3709,"ĠSiMn":3710,"ĠZrCu":3711,"ĠScNi":3712,"ĠRuTe":3713,"155":3714,"980":3715,"ĠAlRh":3716,"ĠNiMn":3717,"ĠCdCa":3718,"9743":3719,"544":3720,"ĠOsAs":3721,"lac":3722,"Ġblac":3723,"ĠSam":3724,"PtGe":3725,"arium":3726,"Ġblack":3727,"ĠSamarium":3728,"ĠCuSi":3729,"TiMo":3730,"ĠSiSc":3731,"1228":3732,"ĠRuS":3733,"ĠPtFe":3734,"ĠScS":3735,"HfIr":3736,"CoSe":3737,"159":3738,"800":3739,"AuAg":3740,"8653":3741,"-,":3742,"inum":3743,"Ġ31":3744,"ĠGaTa":3745,"FeS":3746,"126":3747,"ĠKSb":3748,"969":3749,"1199":3750,"uminum":3751,"ĠTlS":3752,"8654":3753,"FeSb":3754,"ĠCdSe":3755,"227":3756,"ĠTlZr":3757,"12172":3758,"YRh":3759,"FeSi":3760,"ĠTeAs":3761,"RuRh":3762,"ĠTcAs":3763,"223":3764,"717":3765,"311":3766,"462":3767,"1193":3768,"164":3769,"Phase":3770,"ĠTiZr":3771,"202":3772,"675":3773,"861":3774,"ĠHgNa":3775,"vanite":3776,"Ġ37":3777,"ĠSiNb":3778,"ĠSiCa":3779,"ĠRhTi":3780,"ĠAsHf":3781,"ĠCrSc":3782,"Ġ67":3783,"ĠAgHf":3784,"ĠKAs":3785,"ĠOsRu":3786,"322":3787,"Ġ36":3788,"NiSe":3789,"ĠSnP":3790,"1226":3791,"SnP":3792,"CaCu":3793,"1104":3794,"YPd":3795,"tact":3796,"rotact":3797,"ĠProtact":3798,"inium":3799,"ĠCaAg":3800,"OsSi":3801,"ĠProtactinium":3802,"ĠCTi":3803,"TiSi":3804,"AsS":3805,"NiAl":3806,"670":3807,"ĠCdNa":3808,"CrFe":3809,"âĤĤâĤĢ":3810,"ĠPtMn":3811,"ĠNbTi":3812,"ĠZnMn":3813,"ĠSRb":3814,"Ġ33":3815,"ĠRuMo":3816,"541":3817,"8673":3818,"977":3819,"odium":3820,"sen":3821,"ĠSodium":3822,"SiP":3823,"ĠRhTa":3824,"SrIn":3825,"Ġarsen":3826,"Ġarsenide":3827,"279":3828,"ĠInIn":3829,"200":3830,"ĠAuNb":3831,"ScCu":3832,"ĠAlTe":3833,"InS":3834,"Pa":3835,"ĠPK":3836,"ĠSiNi":3837,"ĠBoride":3838,"ĠScCd":3839,"Ġeighteenth":3840,"Ġdelta":3841,"ĠSSc":3842,"CoP":3843,"1120":3844,"691":3845,"YAg":3846,"111":3847,"MnP":3848,"8649":3849,"ĠHgZr":3850,"10942":3851,"310":3852,"714":3853,"TcRu":3854,"12179":3855,"ĠVNb":3856,"NiSb":3857,"163":3858,"ĠRbAu":3859,"828":3860,"730":3861,"9989":3862,"607":3863,"ĠSCd":3864,"ĠInNa":3865,"Ġ38":3866,"ĠSiHf":3867,"ĠTcRu":3868,"CaNi":3869,"850":3870,"983":3871,"ĠSeSn":3872,"RhSi":3873,"6722":3874,"ĠPbY":3875,"459":3876,"092":3877,"CoS":3878,"MnSi":3879,"ĠCaHg":3880,"PdAu":3881,"ĠAuZn":3882,"12171":3883,"VS":3884,"SiS":3885,"ĠRuOs":3886,"169":3887,"YCu":3888,"ĠSAs":3889,"ĠYN":3890,"ĠAgNa":3891,"10786":3892,"onium":3893,"ĠSyl":3894,"129":3895,"ĠIrSe":3896,"ĠClRb":3897,"ĠSylvanite":3898,"ĠMg":3899,"Ġ34":3900,"ĠZrHg":3901,"ĠWZr":3902,"RuIr":3903,"ĠCdP":3904,"ĠFmm":3905,"ĠZnTe":3906,"AsSe":3907,"ĠTeIn":3908,"ĠWOs":3909,"Ġ72":3910,"Ġ79":3911,"894":3912,"ĠPna":3913,"188":3914,"ĠSAl":3915,"PdBi":3916,"NiGa":3917,"ĠTeAg":3918,"ĠTeCd":3919,"ĠSbTl":3920,"ĠNaIn":3921,"1218":3922,"SnSb":3923,"AgZn":3924,"549":3925,"NbRh":3926,"192":3927,"139":3928,"Ġnineteenth":3929,"ĠAlMo":3930,"ĠHfS":3931,"ĠTaZn":3932,"803":3933,"ĠSbAg":3934,"ĠSnAg":3935,"501":3936,"557":3937,"981":3938,"WN":3939,"ĠAlSi":3940,"ĠPtRe":3941,"FeP":3942,"ĠCuRu":3943,"ĠYZn":3944,"ĠTaRh":3945,"SbS":3946,"RhSn":3947,"ZrSi":3948,"502":3949,"ĠTcZn":3950,"ĠOsSi":3951,"713":3952,"ĠNZn":3953,"ĠPZr":3954,"ĠSiSe":3955,"SbTe":3956,"697":3957,"895":3958,"11032":3959,"ĠAsAsRu":3960,"oron":3961,"AlN":3962,"ĠYP":3963,"ĠAsCd":3964,"GeSe":3965,"672":3966,"5710":3967,"131":3968,"ĠHTa":3969,"ĠHSc":3970,"ĠMoRu":3971,"CoAl":3972,"ĠAlSr":3973,"ĠAluminum":3974,"ĠCaTl":3975,"FeCo":3976,"ĠSeCu":3977,"ĠRhY":3978,"ĠTeMn":3979,"ĠTePb":3980,"ĠCrSi":3981,"SbSe":3982,"678":3983,"12067":3984,"ĠPAgP":3985,"ĠSZr":3986,"ĠHigh":3987,"ĠCaAu":3988,"ĠZnCa":3989,"ĠSnAs":3990,"HfPd":3991,"539":3992,"PbSe":3993,"10142":3994,"ĠCaCl":3995,"ĠRuY":3996,"ĠTcCo":3997,"ĠHgSe":3998,"ĠCaSe":3999,"Ġ21":4000,"ĠInAs":4001,"ĠVRu":4002,"ZrGa":4003,"CoTe":4004,"NbP":4005,"559":4006,"576":4007,"11847":4008,"Ġboron":4009,"FeSe":4010,"ĠMoIr":4011,"ĠZnV":4012,"ĠZnPt":4013,"ĠGeMo":4014,"ĠRuFe":4015,"IrV":4016,"ĠTlSc":4017,"1209":4018,"216":4019,"693":4020,"CaPt":4021,"ĠTiSb":4022,"ĠCuSn":4023,"ĠYSb":4024,"ĠRhFe":4025,"ĠCrCr":4026,"TcAl":4027,"198":4028,"11879":4029,"ĠHfZn":4030,"460":4031,"10799":4032,"ĠGeGePt":4033,"288":4034,"Ġ29":4035,"ĠHNa":4036,"ĠPtPd":4037,"ĠSrH":4038,"ZnAl":4039,"ĠAuPd":4040,"TaRu":4041,"BiS":4042,"8627":4043,"SrZn":4044,"456":4045,"173":4046,"978":4047,"ĠCaSn":4048,"203":4049,"ĠVGe":4050,"ĠSeAs":4051,"ĠYIr":4052,"ĠZnSb":4053,"Ġ70":4054,"673":4055,"RuAl":4056,"ĠCMo":4057,"ĠPAl":4058,"ĠAlCo":4059,"ĠMoRh":4060,"12164":4061,"10255":4062,"ĠSCa":4063,"ĠNiV":4064,"ĠCaTe":4065,"PdH":4066,"ĠAsGa":4067,"GeAs":4068,"430":4069,"TaFe":4070,"500":4071,"SrSn":4072,"11023":4073,"ĠYAu":4074,"ScHf":4075,"ĠReS":4076,"12288":4077,"GPa":4078,"VN":4079,"ĠHfCo":4080,"205":4081,"ĠSeZn":4082,"ĠSrSr":4083,"125":4084,"695":4085,"ĠTcS":4086,"ĠHgK":4087,"TlP":4088,"12260":4089,"ĠAsFe":4090,"ĠGeSr":4091,"232":4092,"SrCd":4093,"Er":4094,"cor":4095,"eving":4096,"ror":4097,"tri":4098,"Ġrecor":4099,"Ġretri":4100,"ĠWCl":4101,"ĠFeCl":4102,"CuGa":4103,"219":4104,"Ġoccurred":4105,"Error":4106,"Ġrecord":4107,"Ġretrieving":4108,"247":4109,"ĠNCr":4110,"ĠPdTc":4111,"ĠCaPb":4112,"ĠSeCo":4113,"GaN":4114,"GaAl":4115,"HfPt":4116,"889":4117,"152":4118,"634":4119,"12053":4120,"10954":4121,"tor":4122,"ittor":4123,"ĠHittor":4124,"ĠPdAl":4125,"ĠZrRh":4126,"ĠGaCa":4127,"TiH":4128,"ĠGeMn":4129,"809":4130,"9720":4131,"ĠSFeCu":4132,"ĠHittorf":4133,"ĠTiFe":4134,"804":4135,"ĠSbSb":4136,"ĠSbRu":4137,"MoAs":4138,"12073":4139,"10252":4140,"ĠZrHN":4141,"Ġ23":4142,"ĠNSc":4143,"ĠPtCa":4144,"TiCr":4145,"ĠHgS":4146,"ZnP":4147,"ĠRuSc":4148,"434":4149,"OsP":4150,"700":4151,"498":4152,"175":4153,"522":4154,"iet":4155,"ĠPtBi":4156,"InSe":4157,"ĠSbCo":4158,"ĠSnPt":4159,"ĠAuSr":4160,"CrP":4161,"825":4162,"Ġtwentiet":4163,"12166":4164,"Ġtwentieth":4165,"ĠSP":4166,"ĠSeGe":4167,"ĠSeRu":4168,"ĠSeMn":4169,"PdSn":4170,"ĠCoTc":4171,"1067":4172,"ĠAuCa":4173,"ZrIn":4174,"ĠBiTl":4175,"ĠOsZr":4176,"273":4177,"849":4178,"976":4179,"ĠInNi":4180,"ĠNiFe":4181,"ĠCrRh":4182,"GaAs":4183,"CuSn":4184,"961":4185,"CaHg":4186,"fide":4187,"Ġsul":4188,"ĠGaSb":4189,"ĠCuNi":4190,"ĠScAu":4191,"TiGa":4192,"ĠMnV":4193,"ĠSrBi":4194,"1214":4195,"ĠTcIr":4196,"024":4197,"5686":4198,"Ġindium":4199,"10181":4200,"5677":4201,"Ġsulfide":4202,"TiRh":4203,"ĠSbCl":4204,"ĠMnAl":4205,"MoTe":4206,"505":4207,"938":4208,"SrP":4209,"TcRh":4210,"5683":4211,"12163":4212,"nc":4213,"ĠNiPt":4214,"ĠNbZn":4215,"ĠYPt":4216,"335":4217,"336":4218,"1185":4219,"ĠPbPb":4220,"052":4221,"SiAs":4222,"PdAg":4223,"PtSi":4224,"1070":4225,"GaGe":4226,"GaSb":4227,"1227":4228,"ĠKHg":4229,"SnPt":4230,"IrTe":4231,"MnN":4232,"BiSe":4233,"5706":4234,"282":4235,"WP":4236,"Ġ80":4237,"ĠNNa":4238,"ĠSiTa":4239,"ĠPdP":4240,"ĠCaH":4241,"NiTe":4242,"ĠWRu":4243,"ĠCrSb":4244,"ĠSbRb":4245,"ĠAgPd":4246,"ĠClCs":4247,"857":4248,"ĠOsTc":4249,"CaAu":4250,"289":4251,"YZn":4252,"ĠPtSr":4253,"ĠRuN":4254,"HfSi":4255,"1133":4256,"228":4257,"8650":4258,"191":4259,"151":4260,"10788":4261,"283":4262,"ĠPdNa":4263,"ĠTeTi":4264,"ĠSnSb":4265,"ZrTe":4266,"546":4267,"IrP":4268,"ĠTcRh":4269,"CrAl":4270,"5716":4271,"514":4272,"171":4273,"WSi":4274,"ĠSbBi":4275,"ĠMnTa":4276,"ĠSrSn":4277,"437":4278,"ĠClNa":4279,"853":4280,"214":4281,"939":4282,"199":4283,"11840":4284,"680":4285,"YAu":4286,"ĠPRb":4287,"ĠMoPd":4288,"HfSb":4289,"AuCu":4290,"082":4291,"ĠTcHf":4292,"ĠReOs":4293,"SrAu":4294,"10955":4295,"989":4296,"KHg":4297,"Ġmp":4298,"ĠMnOs":4299,"ĠAgPt":4300,"ĠRuZr":4301,"337":4302,"IrSb":4303,"1147":4304,"SrGe":4305,"9722":4306,"12159":4307,"ĠAlC":4308,"ĠPtSe":4309,"FeV":4310,"FeTe":4311,"RhAs":4312,"ScRh":4313,"852":4314,"628":4315,"11030":4316,"12267":4317,"11836":4318,"242":4319,"616":4320,"Ġ24":4321,"ĠTiCu":4322,"ĠSiPt":4323,"ĠPdNi":4324,"ĠVHf":4325,"ĠSeCd":4326,"TiAs":4327,"GaSi":4328,"HfNi":4329,"558":4330,"ĠReTe":4331,"221":4332,"8656":4333,"SrPt":4334,"487":4335,"328":4336,"11020":4337,"174":4338,"128":4339,"CuSi":4340,"418":4341,"12242":4342,"211":4343,"ĠPIn":4344,"ĠVW":4345,"PtMo":4346,"ĠReP":4347,"856":4348,"8660":4349,"935":4350,"197":4351,"ReN":4352,"137":4353,"12189":4354,"ĠSHf":4355,"ĠGaFe":4356,"ĠZnCu":4357,"InP":4358,"ĠFeGe":4359,"096":4360,"ĠKP":4361,"ZrH":4362,"504":4363,"ScGa":4364,"MnAs":4365,"484":4366,"ĠSeZr":4367,"ĠYBi":4368,"TiSe":4369,"PtGa":4370,"676":4371,"677":4372,"758":4373,"ĠSeKBi":4374,"ĠPdAsPd":4375,"780":4376,"871":4377,"975":4378,"loride":4379,"ĠPNi":4380,"ĠInAg":4381,"ĠPdSr":4382,"ĠHfZr":4383,"FeTi":4384,"FeAs":4385,"ĠTaCl":4386,"ĠScPd":4387,"ĠScPt":4388,"RhSe":4389,"ZrSn":4390,"CaIn":4391,"MnSb":4392,"CdS":4393,"mcc":4394,"998":4395,"ĠInCo":4396,"âĤĤâĤģ":4397,"âĤģâĤī":4398,"PtZn":4399,"674":4400,"699":4401,"ScZn":4402,"Ġlead":4403,"12195":4404,"ss":4405,"ĠCuSb":4406,"ĠCuNb":4407,"ĠMnCa":4408,"ĠRuV":4409,"ĠRuMn":4410,"ĠTlCl":4411,"441":4412,"11872":4413,"10780":4414,"ĠSePt":4415,"ĠRhCr":4416,"ĠSbSbPt":4417,"ĠIrY":4418,"MoP":4419,"ZrCl":4420,"IrSn":4421,"429":4422,"MnSe":4423,"451":4424,"249":4425,"11040":4426,"12216":4427,"5679":4428,"rich":4429,"Ġtrich":4430,"acd":4431,"ĠSeSr":4432,"PdP":4433,"GaSe":4434,"ĠAgIn":4435,"CoGa":4436,"ĠPbCa":4437,"CaCd":4438,"Ġtrichloride":4439,"YIn":4440,"YTe":4441,"ĠVZn":4442,"ĠSeCa":4443,"TiNi":4444,"ĠCoSc":4445,"ĠSbSnPt":4446,"ĠSnSbPt":4447,"GaSn":4448,"HfCo":4449,"IrSi":4450,"421":4451,"MnGa":4452,"11878":4453,"ĠPbcm":4454,"ĠPKP":4455,"142":4456,"985":4457,"ĠCaBi":4458,"SiNi":4459,"AsP":4460,"ĠTeNb":4461,"RhP":4462,"RhTe":4463,"ĠIrSn":4464,"HfZr":4465,"826":4466,"TcIr":4467,"'{":4468,"754":4469,"769":4470,"\\'{":4471,"Ġiri":4472,"arevi":4473,"ĠPtS":4474,"ĠAsRh":4475,"ĠMnGa":4476,"ĠNaN":4477,"MoSi":4478,"1191":4479,"698":4480,"506":4481,"Ġvanadium":4482,"ĠClSr":4483,"230":4484,"776":4485,"11043":4486,"ĠLavarevi":4487,"Ġiridium":4488,"154":4489,"793":4490,"RhZn":4491,"SnTe":4492,"1178":4493,"226":4494,"466":4495,"SrAl":4496,"11845":4497,"140":4498,"443":4499,"ĠPdCa":4500,"ĠTeY":4501,"ĠRuSeS":4502,"542":4503,"RuGa":4504,"5055":4505,"CrN":4506,"CrAs":4507,"9896":4508,"12173":4509,"VSi":4510,"ĠPGa":4511,"ĠPres":4512,"ĠTellur":4513,"tile":4514,"ĠScZn":4515,"PdZn":4516,"ĠAsIn":4517,"ĠRutile":4518,"ĠKTe":4519,"RuSb":4520,"IrGe":4521,"426":4522,"744":4523,"834":4524,"297":4525,"900":4526,"ĠPressure":4527,"ĠTellurium":4528,"278":4529,"Ġsup":4530,"ercond":4531,"ĠPTlP":4532,"uctor":4533,"PdS":4534,"ĠAsCo":4535,"1056":4536,"ZnN":4537,"MoCl":4538,"331":4539,"1179":4540,"ĠCdPd":4541,"ĠCdCl":4542,"42âĤģ":4543,"851":4544,"5702":4545,"Ġdiamond":4546,"12152":4547,"ĠAsSrAs":4548,"Ġsupercond":4549,"Ġsuperconductor":4550,"180":4551,"YNi":4552,"ĠTheoretical":4553,"ĠSPt":4554,"ĠAlCl":4555,"ĠNiZn":4556,"ĠCaCd":4557,"ĠGeCa":4558,"HfAl":4559,"964":4560,"ScNi":4561,"8616":4562,"8623":4563,"OsRu":4564,"777":4565,"177":4566,"Ġ25":4567,"ĠTaSe":4568,"RhS":4569,"CuP":4570,"224":4571,"627":4572,"648":4573,"9773":4574,"12193":4575,"12247":4576,"5673":4577,"153":4578,"183":4579,"VSe":4580,"âĤģâĤĩ":4581,"ĠCaZn":4582,"PdSi":4583,"ĠCoPt":4584,"ĠFeN":4585,"ZnGa":4586,"094":4587,"MoGe":4588,"435":4589,"692":4590,"864":4591,"737":4592,"792":4593,"VGa":4594,"ĠInNb":4595,"âĤĤâĤĦ":4596,"AlP":4597,"PtCd":4598,"10969":4599,"HfN":4600,"HfCu":4601,"5424":4602,"965":4603,"IrAl":4604,"CaCl":4605,"12174":4606,"8678":4607,"170":4608,"YSn":4609,"cm":4610,"first":4611,"Ġpyrite":4612,"ĠHNb":4613,"ĠNiBi":4614,"AlNi":4615,"ĠTeSb":4616,"GaP":4617,"second":4618,"CuTe":4619,"ZrAs":4620,"AuSn":4621,"ĠReIr":4622,"6847":4623,"ĠAlH":4624,"AlCr":4625,"ĠCuCa":4626,"ĠScPb":4627,"TiCl":4628,"ĠGeRh":4629,"ĠWRh":4630,"ĠMnRu":4631,"GaS":4632,"AuTe":4633,"428":4634,"ĠReAs":4635,"158":4636,"8657":4637,"HgTi":4638,"11007":4639,"ĠPTcP":4640,"AlCl":4641,"ĠCaIn":4642,"ĠVFe":4643,"ĠVNi":4644,"TiW":4645,"ĠIrBi":4646,"ZrGe":4647,"CoSb":4648,"438":4649,"ĠBiGa":4650,"ĠPbCl":4651,"TaN":4652,"MnGe":4653,"529":4654,"928":4655,"10179":4656,"276":4657,"olonium":4658,"ĠPolonium":4659,"ĠSeAg":4660,"TiAu":4661,"ĠAsY":4662,"ĠAsSc":4663,"ĠGeAs":4664,"ĠCoAl":4665,"ĠSnN":4666,"IrAs":4667,"231":4668,"SrAs":4669,"665":4670,"11017":4671,"12157":4672,"971":4673,"YPt":4674,"ĠHfIr":4675,"ĠNbCl":4676,"TiN":4677,"ĠAsSe":4678,"ĠFeGa":4679,"ĠSbNb":4680,"5426":4681,"RuAs":4682,"NbTc":4683,"ĠTcSc":4684,"832":4685,"258":4686,"RbSb":4687,"12273":4688,"215":4689,"PSe":4690,"ĠPMo":4691,"ĠPSc":4692,"ĠPtAs":4693,"ĠGeCo":4694,"ĠTeFe":4695,"CuZn":4696,"ĠBiSbPt":4697,"531":4698,"8646":4699,"TcOs":4700,"12183":4701,"ĠCmm":4702,"âĤģâĤĦ":4703,"TiP":4704,"802":4705,"RuTe":4706,"427":4707,"690":4708,"081":4709,"162":4710,"8661":4711,"NaHg":4712,"TlTe":4713,"014":4714,"300":4715,"12290":4716,"10239":4717,"YGa":4718,"ĠSOs":4719,"ĠSilic":4720,"ĠHRb":4721,"ĠVMn":4722,"ĠNbCo":4723,"SiTe":4724,"ĠZnAu":4725,"ĠZnCl":4726,"ZnSe":4727,"ZrAl":4728,"339":4729,"436":4730,"ĠOsS":4731,"NaIn":4732,"517":4733,"494":4734,"12170":4735,"ĠPtSnSb":4736,"ĠSbBiPt":4737,"ĠSilicon":4738,"VOs":4739,"ĠPdH":4740,"1245":4741,"HfP":4742,"545":4743,"077":4744,"731":4745,"12070":4746,"11031":4747,"11834":4748,"11907":4749,"VNi":4750,"YAl":4751,"ĠNp":4752,"ĠGaMn":4753,"ĠNbTc":4754,"ĠAsSb":4755,"ĠTeSc":4756,"ĠSbAs":4757,"ĠSrCd":4758,"ZrP":4759,"ScSn":4760,"CdTe":4761,"718":4762,"406":4763,"837":4764,"327":4765,"11871":4766,"VW":4767,"VGe":4768,"bra":4769,"nt":4770,"ĠPare":4771,"ĠAsS":4772,"1057":4773,"ĠNaHg":4774,"1259":4775,"MoAl":4776,"HfCr":4777,"6723":4778,"074":4779,"538":4780,"CrSe":4781,"473":4782,"525":4783,"756":4784,"739":4785,"835":4786,"12244":4787,"Ġsuperconductors":4788,"brass":4789,"ĠParent":4790,"ĠSeFe":4791,"ĠMnPt":4792,"MoRh":4793,"HfRh":4794,"IrTi":4795,"NbW":4796,"ScRu":4797,"8659":4798,"8651":4799,"8658":4800,"899":4801,"10796":4802,"ĠSAgBi":4803,"149":4804,"706":4805,"ĠCcce":4806,"ĠHPd":4807,"ĠGaCl":4808,"12206":4809,"ĠAuCl":4810,"ĠIrZr":4811,"HfSn":4812,"AgAl":4813,"1190":4814,"MnTe":4815,"444":4816,"413":4817,"TlPb":4818,"11874":4819,"11877":4820,"178":4821,"134":4822,"ĠSHg":4823,"ĠHCo":4824,"ĠTiW":4825,"201":4826,"FeN":4827,"ĠZnCs":4828,"PtS":4829,"1095":4830,"ĠSrAl":4831,"ZnIn":4832,"AgHf":4833,"CoSn":4834,"NbAl":4835,"218":4836,"PbTe":4837,"023":4838,"SrPd":4839,"1867":4840,"193":4841,"309":4842,"YCd":4843,"AlCu":4844,"ZrNi":4845,"083":4846,"CaH":4847,"526":4848,"5712":4849,"291":4850,"1106":4851,"10779":4852,"10800":4853,"669":4854,"hide":4855,"ĠSCs":4856,"ĠPdSb":4857,"ĠGaCr":4858,"Ġ61":4859,"CuSe":4860,"MoW":4861,"HfTc":4862,"540":4863,"TaTe":4864,"MnRh":4865,"8626":4866,"829":4867,"818":4868,"NaP":4869,"6846":4870,"10797":4871,"10032":4872,"VMn":4873,"2030":4874,"ĠTaSb":4875,"ĠScRh":4876,"ĠAsRu":4877,"ĠAsNb":4878,"ĠAsOs":4879,"1019":4880,"1013":4881,"ĠAuHf":4882,"ĠAuTa":4883,"AgCd":4884,"IrSe":4885,"AuTa":4886,"ScPd":4887,"CrTe":4888,"635":4889,"9723":4890,"11867":4891,"ĠSeSbRu":4892,"ĠSTa":4893,"ĠPRh":4894,"ĠPIr":4895,"AlFe":4896,"ĠPdTe":4897,"NiY":4898,"MoPd":4899,"ZrSe":4900,"TaZn":4901,"5552":4902,"CrGa":4903,"CdAs":4904,"8647":4905,"474":4906,"893":4907,"130":4908,"1364":4909,"926":4910,"1205":4911,"11789":4912,"lenium":4913,"thir":4914,"ĠPNb":4915,"ĠSeHf":4916,"PdAl":4917,"PdCu":4918,"1017":4919,"ĠRuHf":4920,"ZrHg":4921,"423":4922,"PbCl":4923,"ĠCsCs":4924,"NaAu":4925,"292":4926,"fourth":4927,"10956":4928,"2339":4929,"12249":4930,"third":4931,"313":4932,"tan":4933,"itride":4934,"ĠStan":4935,"Ġcarbonitride":4936,"ĠNiCu":4937,"ĠSiMo":4938,"ĠPdCd":4939,"ĠCaPt":4940,"FeGa":4941,"PtCl":4942,"ĠSbIr":4943,"ĠSbSr":4944,"ĠSrPd":4945,"960":4946,"1157":4947,"NbPd":4948,"NbAs":4949,"ScGe":4950,"160":4951,"ĠReRu":4952,"463":4953,"932":4954,"ReIr":4955,"259":4956,"12082":4957,"12066":4958,"ĠTeTeIr":4959,"ĠStannite":4960,"lut":4961,"ĠPlut":4962,"AlPt":4963,"FeNi":4964,"ĠFeMn":4965,"RhIn":4966,"MoRu":4967,"ZrS":4968,"338":4969,"1196":4970,"TaSi":4971,"157":4972,"MnOs":4973,"ĠTlTe":4974,"BiAs":4975,"ĠPlutonium":4976,"240":4977,"md":4978,"ĠPOs":4979,"ĠYRh":4980,"ĠSbIn":4981,"1087":4982,"ĠBiSr":4983,"ĠCdGe":4984,"079":4985,"ĠReCo":4986,"860":4987,"475":4988,"5704":4989,"824":4990,"704":4991,"448":4992,"636":4993,"9785":4994,"12215":4995,"ĠPPRu":4996,"10793":4997,"10773":4998,"5698":4999,"12199":5000,"ĠPCaSi":5001,"9813":5002,"ĠTiTc":5003,"ĠZrAu":5004,"TiTe":5005,"ĠAgCl":5006,"1222":5007,"CuSb":5008,"HfS":5009,"NbSe":5010,"898":5011,"656":5012,"659":5013,"831":5014,"12063":5015,"ĠAsCaAs":5016,"10727":5017,"ĠPRbP":5018,"554":5019,"723":5020,"ĠPCd":5021,"ĠCaNi":5022,"ĠAsPt":5023,"ZnAs":5024,"HfZn":5025,"HfMo":5026,"431":5027,"ĠBiCa":5028,"RuGe":5029,"424":5030,"5707":5031,"666":5032,"195":5033,"9775":5034,"12071":5035,"11028":5036,"12167":5037,"12248":5038,"645":5039,"NCl":5040,"ĠNiPd":5041,"ĠSeNb":5042,"ĠScIr":5043,"TiFe":5044,"ĠCrC":5045,"1028":5046,"GaTe":5047,"HfAu":5048,"NbTe":5049,"TaOs":5050,"PbBi":5051,"236":5052,"745":5053,"813":5054,"11026":5055,"146":5056,"342":5057,"760":5058,"869":5059,"949":5060,"SS":5061,"ĠNiRe":5062,"ĠSiRh":5063,"ĠSiIr":5064,"ĠPdGa":5065,"ĠPtP":5066,"ĠGaGe":5067,"ĠTeZr":5068,"PtAl":5069,"PtAg":5070,"PtAu":5071,"ĠSbCa":5072,"1002":5073,"ĠSrCl":5074,"ZnZr":5075,"ĠAuNa":5076,"090":5077,"1156":5078,"NbN":5079,"NbRu":5080,"ĠTcRe":5081,"ScS":5082,"8637":5083,"SrS":5084,"OsGe":5085,"790":5086,"ReSi":5087,"12077":5088,"10794":5089,"785":5090,"AlSc":5091,"ĠCuGe":5092,"TiMn":5093,"ĠZnNi":5094,"ĠTeCr":5095,"ĠSbY":5096,"ĠSnCl":5097,"HfAs":5098,"AuCl":5099,"073":5100,"CaP":5101,"934":5102,"5687":5103,"326":5104,"9991":5105,"11842":5106,"12263":5107,"442":5108,"ob":5109,"Ġtetrafluoride":5110,"AlAs":5111,"ĠNbRe":5112,"ĠSeS":5113,"PdNi":5114,"ĠGeY":5115,"ĠFePt":5116,"ĠAgK":5117,"5429":5118,"NbGe":5119,"ĠPbRh":5120,"AuCd":5121,"086":5122,"168":5123,"537":5124,"MnZn":5125,"663":5126,"701":5127,"799":5128,"ReTc":5129,"561":5130,"NaPd":5131,"631":5132,"12257":5133,"301":5134,"782":5135,"988":5136,"WPd":5137,"TiSb":5138,"ĠFeRh":5139,"ĠNaPb":5140,"SbCl":5141,"CoTi":5142,"IrNb":5143,"NbSi":5144,"6971":5145,"ScIn":5146,"CaPd":5147,"CdGa":5148,"401":5149,"6322":5150,"10952":5151,"510":5152,"WIr":5153,"tw":5154,"ĠIma":5155,"ĠInCa":5156,"ĠCaCu":5157,"FeCl":5158,"ĠNbMo":5159,"TiZn":5160,"ĠIrAl":5161,"1118":5162,"NbH":5163,"ĠRbSe":5164,"CaSn":5165,"CdPb":5166,"8622":5167,"SrCl":5168,"TcPd":5169,"735":5170,"814":5171,"348":5172,"12033":5173,"ĠPCaP":5174,"two":5175,"786":5176,"ĠSCl":5177,"ĠSeNi":5178,"AsPt":5179,"1068":5180,"ĠNaCd":5181,"GeN":5182,"SbAs":5183,"RhV":5184,"5425":5185,"RuS":5186,"ScSi":5187,"225":5188,"649":5189,"290":5190,"189":5191,"181":5192,"9717":5193,"VTc":5194,"ĠAem":5195,"ĠTiMn":5196,"ĠNiCo":5197,"ĠGaPd":5198,"ĠGaCo":5199,"ĠTaAu":5200,"ĠCoRe":5201,"805":5202,"ĠSbAl":5203,"ĠSnSn":5204,"SnRh":5205,"ScAg":5206,"058":5207,"863":5208,"TcP":5209,"TcGa":5210,"791":5211,"5680":5212,"NaCl":5213,"728":5214,"10913":5215,"ĠSTlIn":5216,"182":5217,"876":5218,"fif":5219,"Ġ28":5220,"AlH":5221,"ĠZrBi":5222,"TiOs":5223,"ĠMnAu":5224,"ĠNaH":5225,"CuGe":5226,"099":5227,"5418":5228,"694":5229,"CrMn":5230,"476":5231,"524":5232,"11038":5233,"10789":5234,"11831":5235,"11902":5236,"10806":5237,"10874":5238,"ncc":5239,"fifth":5240,"145":5241,"ĠSGe":5242,"ĠPtCr":5243,"ĠAsAl":5244,"ĠCrCl":5245,"ZnIr":5246,"MoV":5247,"679":5248,"CoPt":5249,"NbMo":5250,"CrRu":5251,"CdIn":5252,"478":5253,"5703":5254,"7291":5255,"491":5256,"637":5257,"11029":5258,"864984":5259,"canite":5260,"na":5261,"ĠNNi":5262,"ĠVul":5263,"ĠNbH":5264,"PtY":5265,"PtNi":5266,"GeSi":5267,"CuIn":5268,"AgP":5269,"334":5270,"ĠBiSc":5271,"RuSe":5272,"968":5273,"ScTc":5274,"MnFe":5275,"8619":5276,"661":5277,"9762":5278,"ĠPSrP":5279,"ĠVulcanite":5280,"662":5281,"KSb":5282,"VTe":5283,"WCl":5284,"hos":5285,"phide":5286,"Ġphos":5287,"Ġ27":5288,"ĠAma":5289,"ĠInCl":5290,"ĠNiob":5291,"ĠYAs":5292,"ĠZnIr":5293,"1084":5294,"330":5295,"ĠTcPt":5296,"ScIr":5297,"161":5298,"222âĤģ":5299,"886":5300,"2147":5301,"029":5302,"235":5303,"891":5304,"897":5305,"1953":5306,"5696":5307,"11036":5308,"12188":5309,"11849":5310,"ĠSZnIn":5311,"ĠSSbIr":5312,"11796":5313,"Ġphosphide":5314,"ĠNiobium":5315,"293":5316,"PIr":5317,"ale":5318,"dale":5319,"ĠTiCr":5320,"ĠMillerite":5321,"TiGe":5322,"AsTe":5323,"ĠGeP":5324,"ĠCoGa":5325,"1066":5326,"GaY":5327,"ĠNaPd":5328,"RuTa":5329,"ĠPbNa":5330,"5050":5331,"5048":5332,"089":5333,"553":5334,"CrRh":5335,"884":5336,"060":5337,"ĠCsS":5338,"465":5339,"OsAl":5340,"OsGa":5341,"560":5342,"449":5343,"729":5344,"ĠLons":5345,"1823":5346,"632":5347,"6363":5348,"12062":5349,"11057":5350,"10774":5351,"11830":5352,"ĠAsAsOs":5353,"ĠSSbRu":5354,"ĠSFeCo":5355,"9749":5356,"12388":5357,"daleite":5358,"ĠLonsdaleite":5359,"329":5360,"643":5361,"685":5362,"ĠHHf":5363,"ĠNiIn":5364,"ĠPdFe":5365,"ĠHfSn":5366,"ĠPtY":5367,"2006":5368,"ĠSelenium":5369,"TiCo":5370,"807":5371,"ĠFePd":5372,"ĠFeIr":5373,"1027":5374,"ĠSrTl":5375,"CuZr":5376,"CuCl":5377,"ĠIrFe":5378,"SnCl":5379,"ĠPbN":5380,"ScCd":5381,"827":5382,"751":5383,"241":5384,"2583":5385,"495":5386,"12069":5387,"12169":5388,"11896":5389,"11875":5390,"10804":5391,"YH":5392,"odi":5393,"Ġtriodi":5394,"ĠBis":5395,"PdTe":5396,"ZnGe":5397,"AgS":5398,"5416":5399,"TaMn":5400,"ĠClPb":5401,"CdSb":5402,"8696":5403,"ĠHgHg":5404,"ĠCsSe":5405,"5705":5406,"10951":5407,"1058696":5408,"Ġtriodide":5409,"ĠBismuth":5410,"774":5411,"ĠAlGa":5412,"ĠSiOs":5413,"207":5414,"ĠAsTa":5415,"ĠTeZn":5416,"1062":5417,"ĠSrPt":5418,"GaCl":5419,"ĠNaPt":5420,"AgSe":5421,"ĠBiIr":5422,"IrIn":5423,"1198":5424,"425":5425,"ĠOsSc":5426,"CaAg":5427,"ĠTlTi":5428,"8652":5429,"470":5430,"400":5431,"TcPt":5432,"651":5433,"798":5434,"5689":5435,"TlCl":5436,"9993":5437,"12262":5438,"10257":5439,"5690":5440,"21359":5441,"ĠPYP":5442,"267":5443,"284":5444,"612":5445,"FeRh":5446,"TiTc":5447,"PdSe":5448,"ĠTeHg":5449,"ĠSbK":5450,"1006":5451,"10227":5452,"ĠSrCa":5453,"ĠKIn":5454,"ZrRu":5455,"RuIn":5456,"1194":5457,"6907":5458,"TaAs":5459,"ScPt":5460,"CaRh":5461,"719":5462,"626":5463,"759":5464,"601":5465,"11063":5466,"867351":5467,"314":5468,"hr":5469,"ĠClat":5470,"ĠCCr":5471,"ĠCMn":5472,"ĠPCu":5473,"SiN":5474,"TiIn":5475,"PdCl":5476,"ĠFeV":5477,"ĠAuV":5478,"ĠAuSi":5479,"SnN":5480,"AgCu":5481,"548":5482,"AuPb":5483,"5302":5484,"ĠOsTe":5485,"479":5486,"7565":5487,"OsRh":5488,"TcNi":5489,"ReOs":5490,"HgS":5491,"295":5492,"13164":5493,"ĠSPOs":5494,"hrate":5495,"ĠClathrate":5496,"185":5497,"393":5498,"VPd":5499,"WAl":5500,"ĠVGa":5501,"TiRu":5502,"ĠAsPd":5503,"ĠTeSe":5504,"806":5505,"PtV":5506,"ĠSrSe":5507,"ĠNaAu":5508,"1232":5509,"RuV":5510,"IrRu":5511,"1192":5512,"NbPt":5513,"078":5514,"530":5515,"838":5516,"187":5517,"TlS":5518,"1483":5519,"12057":5520,"12090":5521,"11021":5522,"867780":5523,"1187474":5524,"1188061":5525,"12463":5526,"17190":5527,"1017983":5528,"1487":5529,"312":5530,"9939":5531,"KAg":5532,"VCo":5533,"VRu":5534,"Ġ26":5535,"ĠAlFe":5536,"AlSb":5537,"2070":5538,"ĠGaCu":5539,"ĠVAl":5540,"SiH":5541,"ĠTaMo":5542,"ĠTaCo":5543,"ĠSbOs":5544,"1061":5545,"1235":5546,"HfRu":5547,"NbCl":5548,"AuZn":5549,"ĠNHS":5550,"534":5551,"535":5552,"CaAs":5553,"CaCo":5554,"CaTl":5555,"15965":5556,"2354":5557,"5688":5558,"NaAg":5559,"1786":5560,"9854":5561,"12074":5562,"12250":5563,"11454":5564,"ĠAsAsPd":5565,"1187541":5566,"12190":5567,"ĠHCaNi":5568,"ĠSSbRh":5569,"ĠSSbOs":5570,"ĠCccm":5571,"ĠSBiIr":5572,"1217255":5573,"672232":5574,"1078867":5575,"11787":5576,"1217407":5577,"684602":5578,"316":5579,"5105":5580,"YSe":5581,"ĠNCo":5582,"ĠSiCr":5583,"ĠZrSn":5584,"20418":5585,"ĠVMo":5586,"ĠCuAs":5587,"InN":5588,"NiBi":5589,"PtP":5590,"1042":5591,"1014":5592,"TeS":5593,"MoN":5594,"SnAs":5595,"5407":5596,"IrZn":5597,"6985":5598,"MnIr":5599,"7192":5600,"2302":5601,"795":5602,"6849":5603,"184":5604,"9953":5605,"RbAu":5606,"12009":5607,"12274":5608,"12261":5609,"12160":5610,"11946":5611,"1187665":5612,"1061133":5613,"1189573":5614,"9744":5615,"1077503":5616,"8462":5617,"SV":5618,"prite":5619,"ĠPdCr":5620,"ĠPtH":5621,"ĠVCl":5622,"ĠCuprite":5623,"ĠAsP":5624,"InPt":5625,"ĠTeCl":5626,"PtRh":5627,"ĠMnNi":5628,"ĠSnTa":5629,"ĠAgSr":5630,"ZrCu":5631,"AgZr":5632,"CoIn":5633,"NbRe":5634,"8886":5635,"2319":5636,"736":5637,"ReRh":5638,"6043":5639,"9789":5640,"917":5641,"003":5642,"1101":5643,"11019":5644,"10798":5645,"1186427":5646,"30871":5647,"30876":5648,"10642":5649,"568792":5650,"9799":5651,"1208852":5652,"708":5653,"KPb":5654,"SZr":5655,"WOs":5656,"YFe":5657,"ĠHNi":5658,"ĠRhN":5659,"TiCd":5660,"ĠAsRe":5661,"ĠTePIr":5662,"ĠCrSn":5663,"PtH":5664,"ĠAgGe":5665,"RhSb":5666,"1180":5667,"536":5668,"ĠOsN":5669,"ĠOsV":5670,"1563":5671,"CdZn":5672,"8939":5673,"930":5674,"2510":5675,"NaPt":5676,"9716":5677,"30500":5678,"000":5679,"11041":5680,"11049":5681,"12286":5682,"11420":5683,"ĠCoPS":5684,"10250":5685,"569249":5686,"8679":5687,"1217422":5688,"MoSSe":5689,"570691":5690,"1007786":5691,"30366":5692,"1207024":5693,"1079796":5694,"1072724":5695,"WRu":5696,"nmc":5697,"ĠHK":5698,"ĠNbAu":5699,"ĠMoV":5700,"ĠMoW":5701,"SiPt":5702,"ĠYPb":5703,"PdHg":5704,"ĠCoCr":5705,"10015":5706,"ĠNaK":5707,"12110":5708,"12137":5709,"ZrW":5710,"CoN":5711,"NbGa":5712,"TaRh":5713,"ĠTcCl":5714,"ScTe":5715,"1620":5716,"CaFe":5717,"MnS":5718,"578":5719,"SrRu":5720,"5685":5721,"5681":5722,"7846":5723,"592":5724,"TlSe":5725,"630":5726,"1186437":5727,"1018124":5728,"15681":5729,"16521":5730,"974376":5731,"2732":5732,"1216323":5733,"616559":5734,"1187816":5735,"1095669":5736,"11563":5737,"176":5738,"766":5739,"846":5740,"875":5741,"991":5742,"YRu":5743,"ĠAlCr":5744,"ĠAlOs":5745,"AlMo":5746,"ĠPdCl":5747,"20928":5748,"ĠGaMo":5749,"FeAl":5750,"ĠMoTa":5751,"ĠSeAl":5752,"ĠCrGa":5753,"PtRu":5754,"1239":5755,"MoTa":5756,"HfGa":5757,"671":5758,"332":5759,"072":5760,"1642":5761,"22337":5762,"881":5763,"ĠTlPb":5764,"8624":5765,"8638":5766,"068":5767,"624":5768,"748":5769,"892":5770,"SrCu":5771,"NaPb":5772,"2733":5773,"9833":5774,"11052":5775,"CsHg":5776,"11411":5777,"1216530":5778,"12204":5779,"10293":5780,"569785":5781,"10155":5782,"1217895":5783,"570428":5784,"1184650":5785,"1120769":5786,"1094255":5787,"1103211":5788,"1229012":5789,"1080001":5790,"542915":5791,"172":5792,"2560":5793,"562":5794,"773":5795,"nb":5796,"ĠTiRe":5797,"ĠPdRe":5798,"2034":5799,"ĠVCr":5800,"PdTl":5801,"ĠCrPd":5802,"ĠSbV":5803,"ĠSbSc":5804,"10559":5805,"ĠSnCr":5806,"GeSb":5807,"MoIr":5808,"6755":5809,"966":5810,"IrRh":5811,"ScOs":5812,"858":5813,"ĠHgP":5814,"600":5815,"NaCd":5816,"1359":5817,"2705":5818,"11010":5819,"10910":5820,"10941":5821,"12272":5822,"1963":5823,"1220023":5824,"5693":5825,"10698":5826,"ĠPcc":5827,"16526":5828,"11930":5829,"1014231":5830,"ĠAsFeNi":5831,"972071":5832,"976128":5833,"1224298":5834,"978531":5835,"1184265":5836,"6âĤģ":5837,"733":5838,"SCs":5839,"VPt":5840,"mnc":5841,"ĠSPd":5842,"ĠHV":5843,"2059":5844,"ĠSePd":5845,"ĠSeHg":5846,"ĠZnIn":5847,"ĠFeCu":5848,"ĠSbMn":5849,"1071":5850,"1030":5851,"10025":5852,"12108":5853,"ZrCr":5854,"HfFe":5855,"HfSe":5856,"11192":5857,"NbCo":5858,"AuTl":5859,"ĠCdN":5860,"ScN":5861,"059":5862,"2271":5863,"15649":5864,"CdSn":5865,"CdCl":5866,"402":5867,"062":5868,"579":5869,"SrHg":5870,"NaAs":5871,"6372":5872,"10782":5873,"30811":5874,"1018113":5875,"12238":5876,"974335":5877,"1337":5878,"979115":5879,"1072645":5880,"12614":5881,"1104047":5882,"17706":5883,"1064227":5884,"141":5885,"287":5886,"2108":5887,"2670":5888,"KNa":5889,"SCl":5890,"VRe":5891,"xSn":5892,"ĠHfTe":5893,"ĠPtCl":5894,"ĠMoGe":5895,"SiSe":5896,"ĠCuFe":5897,"ĠYCo":5898,"ĠRhCo":5899,"PdTa":5900,"ĠAsRb":5901,"ĠGeFe":5902,"ĠGeHf":5903,"ĠTeCa":5904,"ĠWW":5905,"ĠCrGe":5906,"PtSe":5907,"ĠSbHf":5908,"ĠNaAg":5909,"097":5910,"ĠKPb":5911,"MoTeSe":5912,"CoRu":5913,"ĠBiK":5914,"11809":5915,"TaNi":5916,"TaGe":5917,"ĠTcY":5918,"552":5919,"ĠOsY":5920,"1515":5921,"2187":5922,"574":5923,"8937":5924,"937":5925,"SrCa":5926,"OsAs":5927,"1922":5928,"248":5929,"2455":5930,"727":5931,"513":5932,"499":5933,"ĠPnna":5934,"13156":5935,"2767":5936,"12078":5937,"1216195":5938,"569776":5939,"10692":5940,"1184633":5941,"ĠSSnPt":5942,"16529":5943,"974358":5944,"15953":5945,"1094267":5946,"ĠSAsOs":5947,"ĠSeAsRu":5948,"11334":5949,"19724":5950,"864647":5951,"ĠAsSbIr":5952,"ĠSbAsIr":5953,"12595":5954,"976273":5955,"1014111":5956,"979911":5957,"246":5958,"265":5959,"2105":5960,"586":5961,"7092":5962,"9938":5963,"lw":5964,"ĠAlRu":5965,"ĠTiRu":5966,"zelw":5967,"20576":5968,"ĠSeCl":5969,"ĠYCl":5970,"ĠTeCu":5971,"ĠCrCo":5972,"10000":5973,"ĠAuZr":5974,"ZrAu":5975,"SnSi":5976,"CoIr":5977,"432":5978,"RuTi":5979,"11506":5980,"076":5981,"ĠRbH":5982,"22568":5983,"532":5984,"ĠOsSb":5985,"ĠTlP":5986,"5711":5987,"7598":5988,"SrH":5989,"734":5990,"6049":5991,"6398":5992,"oodite":5993,"17123":5994,"RbGa":5995,"11011":5996,"ĠHazelw":5997,"8677":5998,"mbc":5999,"1221420":6000,"1188800":6001,"12467":6002,"1339":6003,"865527":6004,"20847":6005,"1025397":6006,"ĠSMnCd":6007,"17974":6008,"1025513":6009,"972069":6010,"1216621":6011,"2824":6012,"680576":6013,"866186":6014,"1207013":6015,"542569":6016,"1193055":6017,"ĠHazelwoodite":6018,"381":6019,"7790":6020,"925":6021,"PCl":6022,"VAl":6023,"ĠSC":6024,"20695":6025,"ĠVOs":6026,"ĠAsNa":6027,"NiPd":6028,"ĠCoN":6029,"1096":6030,"ĠSrTe":6031,"GeC":6032,"1260":6033,"095":6034,"3342":6035,"5412":6036,"IrMo":6037,"11573":6038,"11328":6039,"TaV":6040,"556":6041,"16074":6042,"883":6043,"1523":6044,"MnPd":6045,"238":6046,"2377":6047,"575":6048,"571247":6049,"571199":6050,"7045":6051,"836":6052,"ReRu":6053,"687":6054,"639":6055,"298":6056,"1357":6057,"13155":6058,"12068":6059,"11042":6060,"12181":6061,"11481":6062,"1216825":6063,"1216231":6064,"ĠMoTeSe":6065,"30836":6066,"1078697":6067,"12778":6068,"22033":6069,"30483":6070,"999502":6071,"1199529":6072,"1887":6073,"1216655":6074,"ĠCrSbAs":6075,"567929":6076,"29767":6077,"ZrPP":6078,"1206659":6079,"450":6080,"51069":6081,"9969":6082,"KBi":6083,"WMo":6084,"alla":6085,"Ġpalla":6086,"ĠNGa":6087,"ĠPSe":6088,"Ġaluminum":6089,"ĠCaAl":6090,"20800":6091,"FeIr":6092,"ĠCoNi":6093,"ĠTeV":6094,"808":6095,"PtTe":6096,"10052":6097,"10201":6098,"ĠNaTl":6099,"SbRu":6100,"1278":6101,"12107":6102,"RhPb":6103,"ZnCl":6104,"CuIr":6105,"ĠIrCl":6106,"MoCo":6107,"RuN":6108,"11549":6109,"11456":6110,"11690":6111,"NbZn":6112,"AuSb":6113,"0580":6114,"2180":6115,"21328":6116,"8640":6117,"239":6118,"1989":6119,"1900":6120,"NaBi":6121,"30673":6122,"30674":6123,"11033":6124,"11035":6125,"1070580":6126,"1079127":6127,"1079438":6128,"1217092":6129,"1217804":6130,"30852":6131,"1188926":6132,"1186916":6133,"11322":6134,"10847":6135,"10388":6136,"1018056":6137,"974421":6138,"1077723":6139,"10695":6140,"1220323":6141,"1215518":6142,"ĠPmna":6143,"27413":6144,"20263":6145,"20033":6146,"607111":6147,"9835":6148,"1882":6149,"1103212":6150,"1214889":6151,"972228":6152,"1103038":6153,"1219509":6154,"542640":6155,"977585":6156,"30180":6157,"978974":6158,"639874":6159,"510691":6160,"Ġpalladium":6161,"363":6162,"486":6163,"5803":6164,"622":6165,"819":6166,"PN":6167,"VP":6168,"YSb":6169,"five":6170,"ithium":6171,"stibit":6172,"ĠPTe":6173,"ĠPMn":6174,"ĠPAsPt":6175,"ĠHRh":6176,"ĠTiOs":6177,"Ġlithium":6178,"ĠGPa":6179,"2086":6180,"20672":6181,"ĠSeGa":6182,"ĠSeSiPt":6183,"ĠTaNbW":6184,"ĠScSe":6185,"PdPt":6186,"InSn":6187,"ĠTeK":6188,"ĠCrPt":6189,"1024":6190,"10744":6191,"1212":6192,"12524":6193,"RhRu":6194,"ZnTe":6195,"ĠIrHf":6196,"AgTe":6197,"AgCl":6198,"6726":6199,"547":6200,"RuNi":6201,"IrPd":6202,"11191":6203,"ĠPbK":6204,"6938":6205,"ĠTcZr":6206,"1638":6207,"ĠClCa":6208,"ĠClCd":6209,"2243":6210,"BiP":6211,"2322":6212,"890":6213,"8282":6214,"TcS":6215,"24082":6216,"590":6217,"138":6218,"1412":6219,"9481":6220,"30675":6221,"30501":6222,"12015":6223,"1105302":6224,"11870":6225,"10285":6226,"1183222":6227,"1219503":6228,"1217081":6229,"30846":6230,"1018121":6231,"1018105":6232,"ĠNZrZn":6233,"1186901":6234,"ĠChalcostibit":6235,"11329":6236,"1184558":6237,"ĠSBiPb":6238,"12772":6239,"22040":6240,"16609":6241,"1077116":6242,"13688":6243,"1009834":6244,"20405":6245,"ĠSeRbSb":6246,"570895":6247,"15954":6248,"867347":6249,"998981":6250,"1739":6251,"1216480":6252,"972088":6253,"1207380":6254,"568607":6255,"1018153":6256,"ĠNNaTa":6257,"11477":6258,"1102018":6259,"542634":6260,"669917":6261,"1178983":6262,"568789":6263,"1084800":6264,"504812":6265,"32994":6266,"1205786":6267,"974455":6268,"ĠAsPPt":6269,"580357":6270,"ĠPTeIr":6271,"ĠPMnNbP":6272,"ĠChalcostibite":6273,"2677":6274,"605":6275,"915":6276,"WC":6277,"ĠPRu":6278,"ĠPHg":6279,"20191":6280,"FeRu":6281,"ĠTaRe":6282,"PdY":6283,"ĠFeAl":6284,"1094":6285,"10229":6286,"10125":6287,"ĠMnCl":6288,"ĠNaGe":6289,"1251":6290,"12802":6291,"543":6292,"5409":6293,"RuPt":6294,"ĠReTa":6295,"ĠRbP":6296,"ĠOsSe":6297,"ĠOsCl":6298,"MnNi":6299,"MnCo":6300,"CdN":6301,"21104":6302,"23279":6303,"OsSe":6304,"2480":6305,"ReTa":6306,"5682":6307,"787":6308,"597":6309,"TlIn":6310,"1326":6311,"2614":6312,"2783":6313,"30337":6314,"30338":6315,"11056":6316,"11061":6317,"11471":6318,"1220003":6319,"569426":6320,"11910":6321,"ĠFeSbTe":6322,"1217894":6323,"1221484":6324,"1018103":6325,"11290":6326,"11227":6327,"12239":6328,"ĠSnTePd":6329,"1186967":6330,"ĠSCoCu":6331,"22050":6332,"1018055":6333,"1335":6334,"1072429":6335,"1072744":6336,"18622":6337,"30744":6338,"16528":6339,"7558":6340,"31172":6341,"1699":6342,"ĠSAsRu":6343,"571030":6344,"ĠSeAsOs":6345,"ĠSPRu":6346,"866046":6347,"1217048":6348,"1190774":6349,"32654":6350,"1103842":6351,"1066136":6352,"1080493":6353,"1459":6354,"1476":6355,"2540":6356,"351":6357,"550":6358,"952":6359,"ĠSGa":6360,"AlSe":6361,"ĠCaTi":6362,"ĠVTc":6363,"ĠRhHf":6364,"ĠZnGa":6365,"ĠTeSr":6366,"ĠWV":6367,"ĠSbGa":6368,"1089":6369,"10136":6370,"1213":6371,"AgHg":6372,"9616":6373,"11803":6374,"NbNi":6375,"NbSb":6376,"5046":6377,"ScFe":6378,"1601":6379,"1627":6380,"ĠReAl":6381,"056":6382,"22192":6383,"CrCl":6384,"1582":6385,"MnRu":6386,"404":6387,"2395":6388,"6254":6389,"1941":6390,"2420":6391,"ReAl":6392,"ReSe":6393,"251":6394,"414":6395,"294":6396,"299":6397,"1345":6398,"27166":6399,"1725":6400,"11453":6401,"1077045":6402,"10260":6403,"1183214":6404,"10795":6405,"8672":6406,"12194":6407,"1018156":6408,"ĠSiNCl":6409,"11229":6410,"1078123":6411,"1223977":6412,"1066254":6413,"11550":6414,"1018029":6415,"16719":6416,"568718":6417,"30594":6418,"1184632":6419,"ĠPca":6420,"16523":6421,"865342":6422,"865357":6423,"865362":6424,"983459":6425,"978498":6426,"1228815":6427,"1018148":6428,"1070103":6429,"1183647":6430,"985825":6431,"1836":6432,"1096994":6433,"1217409":6434,"27606":6435,"1187196":6436,"1220645":6437,"1187702":6438,"1017545":6439,"554462":6440,"690760":6441,"1180309":6442,"504659":6443,"1826":6444,"510032":6445,"644":6446,"987":6447,"990":6448,"9895":6449,"âĤĥâĤĤ":6450,"AlY":6451,"ĠSiRu":6452,"ĠCaFe":6453,"FeCu":6454,"ĠVSb":6455,"ĠRhMn":6456,"PdSb":6457,"NiSn":6458,"ĠGeZr":6459,"ĠWHf":6460,"PtSb":6461,"1052":6462,"12102":6463,"CuHf":6464,"HfGe":6465,"AgIn":6466,"AgCa":6467,"5461":6468,"439":6469,"11441":6470,"1578":6471,"8639":6472,"2361":6473,"23206":6474,"936":6475,"SrN":6476,"SrPb":6477,"732":6478,"655461":6479,"1973":6480,"794":6481,"797":6482,"2582":6483,"587":6484,"13503":6485,"9765":6486,"973342":6487,"9970":6488,"30671":6489,"1109":6490,"11025":6491,"12178":6492,"10901":6493,"12280":6494,"1216851":6495,"10254":6496,"10792":6497,"1079296":6498,"1079460":6499,"1079182":6500,"1186024":6501,"11909":6502,"867281":6503,"1187241":6504,"ĠSeNaV":6505,"1080448":6506,"1188336":6507,"11230":6508,"11397":6509,"22095":6510,"1007692":6511,"16723":6512,"30685":6513,"30581":6514,"1077466":6515,"1224383":6516,"5713":6517,"571557":6518,"1186055":6519,"1207100":6520,"13364":6521,"13683":6522,"9792":6523,"866121":6524,"1184658":6525,"27410":6526,"20849":6527,"1008634":6528,"570870":6529,"31144":6530,"16488":6531,"1187913":6532,"1095495":6533,"2731":6534,"989782":6535,"17413":6536,"1104341":6537,"1217363":6538,"1100773":6539,"1103177":6540,"706531":6541,"569833":6542,"863750":6543,"999133":6544,"632286":6545,"510209":6546,"1184905":6547,"1179605":6548,"1189696":6549,"1061861":6550,"622209":6551,"11220":6552,"1825":6553,"2121":6554,"2758":6555,"5104":6556,"696":6557,"710":6558,"767":6559,"822":6560,"984":6561,"9827":6562,"YCl":6563,"ĠNS":6564,"ĠAlTc":6565,"AlTe":6566,"AlSn":6567,"ĠSiCl":6568,"SiCl":6569,"ĠRhHg":6570,"NiCoGe":6571,"ĠGePt":6572,"ĠCoSn":6573,"ĠCrFe":6574,"PtTi":6575,"PtHf":6576,"ĠSnBi":6577,"seven":6578,"RhGa":6579,"RhHg":6580,"CuBi":6581,"ZrAg":6582,"AgPd":6583,"333":6584,"CoBi":6585,"ĠBiSb":6586,"IrTa":6587,"11714":6588,"ĠPbPt":6589,"ĠCdSr":6590,"CaTe":6591,"CaPb":6592,"1522":6593,"BiTe":6594,"8635":6595,"027":6596,"4647":6597,"7509":6598,"7554":6599,"RePt":6600,"2593":6601,"HgSe":6602,"604647":6603,"NaTl":6604,"7263":6605,"048":6606,"13853":6607,"017":6608,"17695":6609,"31348":6610,"12270":6611,"11412":6612,"20669":6613,"1220635":6614,"1183209":6615,"1186964":6616,"11957":6617,"1187884":6618,"567822":6619,"1217113":6620,"1018166":6621,"1188462":6622,"1188292":6623,"1188869":6624,"11231":6625,"1223755":6626,"1223860":6627,"1186970":6628,"ĠKKAs":6629,"1087509":6630,"12455":6631,"11565":6632,"1007691":6633,"1007730":6634,"16608":6635,"568232":6636,"30682":6637,"571499":6638,"1218017":6639,"1220322":6640,"1103536":6641,"ĠTiHN":6642,"999549":6643,"21012":6644,"21342":6645,"27411":6646,"12657":6647,"1217210":6648,"1094272":6649,"1217971":6650,"998949":6651,"607138":6652,"672222":6653,"ĠSAsRh":6654,"1078666":6655,"1103252":6656,"1209024":6657,"978553":6658,"ĠSPIr":6659,"ĠSeGePt":6660,"19905":6661,"1184011":6662,"1219533":6663,"1191538":6664,"989695":6665,"1215257":6666,"542454":6667,"1190736":6668,"12594":6669,"2403":6670,"570491":6671,"999143":6672,"1226170":6673,"1228607":6674,"979261":6675,"1894":6676,"275":6677,"2693":6678,"2430":6679,"321":6680,"5546":6681,"642":6682,"7818":6683,"909":6684,"9122":6685,"YIr":6686,"ĠPCl":6687,"âĤģâĤĪ":6688,"ĠSiH":6689,"ĠZrAg":6690,"2027":6691,"20539":6692,"ĠCoMn":6693,"ĠWC":6694,"ĠSbNa":6695,"1021":6696,"12561":6697,"12735":6698,"CuH":6699,"67220":6700,"TaGa":6701,"085":6702,"1682":6703,"2294":6704,"888":6705,"0220":6706,"TcSi":6707,"830":6708,"817":6709,"6419":6710,"492":6711,"638":6712,"135":6713,"9755":6714,"9746":6715,"9954":6716,"27165":6717,"RbCl":6718,"1200220":6719,"12177":6720,"CsGa":6721,"12269":6722,"12285":6723,"11416":6724,"1216675":6725,"1216242":6726,"12200":6727,"1220327":6728,"10296":6729,"10240":6730,"1183227":6731,"1079297":6732,"569535":6733,"569727":6734,"10188":6735,"1215274":6736,"1217163":6737,"1018151":6738,"570197":6739,"1184119":6740,"1184693":6741,"16718":6742,"568115":6743,"30683":6744,"1025223":6745,"1009460":6746,"1215509":6747,"999204":6748,"1008601":6749,"1552":6750,"1199503":6751,"998972":6752,"1078602":6753,"1014229":6754,"1079910":6755,"1205346":6756,"568646":6757,"24286":6758,"1207004":6759,"1187486":6760,"1102657":6761,"1002122":6762,"1190267":6763,"1103643":6764,"1206927":6765,"784630":6766,"554609":6767,"672204":6768,"2503":6769,"823":6770,"YCo":6771,"YPtGe":6772,"six":6773,"ĠPma":6774,"ĠPNbP":6775,"ĠPCuP":6776,"ĠInV":6777,"ĠZrOs":6778,"ĠGaTc":6779,"ĠSeV":6780,"PdMo":6781,"AsN":6782,"NiRu":6783,"ĠGeCr":6784,"PtPd":6785,"ĠSbPd":6786,"1022":6787,"1064":6788,"10487":6789,"1279":6790,"1281":6791,"12700":6792,"ĠRuNb":6793,"SnRu":6794,"AgGa":6795,"5417":6796,"5428":6797,"ĠBiPtCl":6798,"RuZn":6799,"1152":6800,"1159":6801,"1135":6802,"11541":6803,"TaCo":6804,"ScAu":6805,"16514":6806,"8860":6807,"PbP":6808,"064":6809,"2369":6810,"2379":6811,"5709":6812,"5737":6813,"OsZr":6814,"2449":6815,"5613":6816,"2517":6817,"518":6818,"1341":6819,"12147":6820,"Ġbipyramidal":6821,"10950":6822,"ĠNCaMo":6823,"20685":6824,"1183216":6825,"1187258":6826,"1224475":6827,"1217961":6828,"1018672":6829,"10054":6830,"ĠAsTeOs":6831,"11393":6832,"862798":6833,"30686":6834,"571342":6835,"972889":6836,"28056":6837,"28029":6838,"28026":6839,"10096":6840,"20483":6841,"16522":6842,"1208406":6843,"1008555":6844,"755328":6845,"ĠTeAsOs":6846,"1078638":6847,"557096":6848,"571059":6849,"1206704":6850,"1187974":6851,"849059":6852,"567705":6853,"571664":6854,"680570":6855,"1215997":6856,"1749":6857,"985806":6858,"7931":6859,"570287":6860,"567345":6861,"1536":6862,"867841":6863,"17045":6864,"ĠAsSbRh":6865,"ĠSbAsRh":6866,"1205858":6867,"569815":6868,"1079467":6869,"632219":6870,"569624":6871,"1206268":6872,"1022721":6873,"510522":6874,"1079810":6875,"17615":6876,"1038828":6877,"1106169":6878,"1064981":6879,"561320":6880,"037":6881,"21187":6882,"2698":6883,"374":6884,"31214":6885,"655":6886,"7526":6887,"NS":6888,"VFe":6889,"ĠAlRe":6890,"ĠHCs":6891,"AlCo":6892,"ĠSiTe":6893,"20327":6894,"ĠGaBi":6895,"ĠMoC":6896,"ĠSeP":6897,"TiIr":6898,"AsK":6899,"ĠFeNi":6900,"PtN":6901,"1020":6902,"10886":6903,"NHS":6904,"1264":6905,"1299":6906,"RhH":6907,"RhN":6908,"RhY":6909,"RhPd":6910,"CuRh":6911,"CuPb":6912,"ĠAuK":6913,"MoC":6914,"ZrOs":6915,"SnGe":6916,"AgAs":6917,"AgPt":6918,"5422":6919,"4306":6920,"RuP":6921,"RuZr":6922,"071":6923,"TaCl":6924,"ScH":6925,"1628":6926,"16960":6927,"ĠClAg":6928,"ĠRbAs":6929,"2258":6930,"1585":6931,"15624":6932,"BiZr":6933,"2305":6934,"2349":6935,"2348":6936,"7444":6937,"OsN":6938,"703":6939,"8372":6940,"HgCd":6941,"7667":6942,"13871":6943,"1415":6944,"32697":6945,"2612":6946,"11004":6947,"1214306":6948,"1220401":6949,"10212":6950,"1079082":6951,"1018123":6952,"1018128":6953,"1080586":6954,"11256":6955,"570451":6956,"11507":6957,"22075":6958,"1018027":6959,"30572":6960,"1025159":6961,"1105935":6962,"1105835":6963,"1105666":6964,"13365":6965,"1188008":6966,"999192":6967,"1102895":6968,"1008632":6969,"570832":6970,"865430":6971,"22318":6972,"1104165":6973,"1094254":6974,"31010":6975,"557719":6976,"1102364":6977,"1207393":6978,"570651":6979,"972220":6980,"1183643":6981,"866022":6982,"1056037":6983,"542484":6984,"1220657":6985,"30933":6986,"1087219":6987,"697179":6988,"1183144":6989,"1080608":6990,"991544":6991,"1201560":6992,"1502":6993,"362":6994,"317":6995,"520":6996,"KP":6997,"ĠNMo":6998,"ĠTiIn":6999,"ĠHfIn":7000,"2082":7001,"20862":7002,"20900":7003,"ĠCuH":7004,"ĠScMn":7005,"TiSn":7006,"TiHg":7007,"PdAs":7008,"InTe":7009,"ĠCoNiTe":7010,"ĠTeRh":7011,"ĠFeCo":7012,"1073":7013,"1010136":7014,"ĠSnMn":7015,"GaC":7016,"GeP":7017,"1211":7018,"12104":7019,"12777":7020,"ĠRuGe":7021,"091":7022,"HfMn":7023,"3306":7024,"IrZrSn":7025,"1115":7026,"11108":7027,"NbAu":7028,"AuSc":7029,"TaSe":7030,"Ġ81":7031,"859":7032,"22555":7033,"22704":7034,"1526":7035,"MnSn":7036,"CdCa":7037,"ĠCsH":7038,"2363":7039,"931":7040,"SrCaSi":7041,"OsTe":7042,"7343":7043,"2450":7044,"HgTe":7045,"6080":7046,"6498":7047,"63980":7048,"636498":7049,"2685":7050,"9998":7051,"1755":7052,"17728":7053,"30336":7054,"1201836":7055,"11022":7056,"11024":7057,"110186":7058,"1183306":7059,"10711":7060,"1220678":7061,"1183137":7062,"1183777":7063,"1183627":7064,"1183517":7065,"569289":7066,"1186853":7067,"11908":7068,"11972":7069,"1187525":7070,"1219539":7071,"ĠCSiH":7072,"12213":7073,"30882":7074,"1018717":7075,"1018129":7076,"ĠCdAsCl":7077,"11288":7078,"11228":7079,"1078213":7080,"10004":7081,"ĠAsTeIr":7082,"1184713":7083,"1018054":7084,"1018028":7085,"865166":7086,"16756":7087,"30527":7088,"30367":7089,"ĠTeSnPd":7090,"29646":7091,"29619":7092,"1186016":7093,"2126":7094,"30471":7095,"20905":7096,"ĠSeSbOs":7097,"ĠSCrCu":7098,"570896":7099,"ĠTeAsIr":7100,"977129":7101,"850131":7102,"1078665":7103,"1079914":7104,"1025551":7105,"17173":7106,"1103044":7107,"21162":7108,"567920":7109,"1056438":7110,"18032":7111,"1023924":7112,"972326":7113,"2404":7114,"570483":7115,"1079399":7116,"SSOs":7117,"1079496":7118,"1203324":7119,"1198692":7120,"999318":7121,"1102131":7122,"1219006":7123,"1101121":7124,"1101145":7125,"1206819":7126,"1103512":7127,"990090":7128,"639805":7129,"1101860":7130,"2500":7131,"2637":7132,"446":7133,"445":7134,"762":7135,"Ba":7136,"SY":7137,"YWN":7138,"three":7139,"ĠAlCrFe":7140,"vell":7141,"ĠSiAl":7142,"ĠHfRh":7143,"2053":7144,"20555":7145,"ĠGaRu":7146,"ĠCuN":7147,"ĠZnCd":7148,"ĠCovell":7149,"10106":7150,"ĠSnCa":7151,"ZnH":7152,"ZnTi":7153,"ZnSr":7154,"CuO":7155,"ZrMoAl":7156,"541582":7157,"11460":7158,"AuZr":7159,"TaTc":7160,"ĠTcN":7161,"5555":7162,"5565":7163,"1683":7164,"051":7165,"057":7166,"0532":7167,"2245":7168,"8880":7169,"CdY":7170,"BiSb":7171,"PbSnS":7172,"6287":7173,"TcZn":7174,"1984":7175,"19814":7176,"2490":7177,"2512":7178,"726":7179,"1822":7180,"18192":7181,"976971":7182,"990532":7183,"2715":7184,"1743":7185,"1793":7186,"RbHg":7187,"12175":7188,"CsSb":7189,"1969":7190,"1183205":7191,"1183998":7192,"569867":7193,"1186444":7194,"1187697":7195,"567832":7196,"1219734":7197,"1080443":7198,"1188283":7199,"1188413":7200,"11263":7201,"1078699":7202,"ĠPFeSi":7203,"ĠNTaMo":7204,"1223714":7205,"ĠSeCsBi":7206,"1189099":7207,"12724":7208,"12469":7209,"974430":7210,"30619":7211,"30684":7212,"1077083":7213,"10259":7214,"973100":7215,"973149":7216,"1105852":7217,"972876":7218,"1215497":7219,"573691":7220,"1228947":7221,"21048":7222,"22320":7223,"1206780":7224,"1206743":7225,"1014230":7226,"17593":7227,"1018154":7228,"28266":7229,"571640":7230,"1095592":7231,"17449":7232,"7806":7233,"1543":7234,"17757":7235,"1534":7236,"HfCuGe":7237,"867816":7238,"17013":7239,"1196961":7240,"636334":7241,"1002106":7242,"1203353":7243,"1095177":7244,"637255":7245,"1104275":7246,"510412":7247,"ĠCovellite":7248,"271":7249,"2678":7250,"2451":7251,"376":7252,"409":7253,"481":7254,"5837":7255,"7539":7256,"848":7257,"9828":7258,"VIr":7259,"YP":7260,"YS":7261,"romium":7262,"ĠScH":7263,"801":7264,"ĠFeH":7265,"GaPt":7266,"SbN":7267,"SbP":7268,"1297":7269,"ĠKFe":7270,"ZrTc":7271,"11546":7272,"TaPd":7273,"ĠTcTa":7274,"1648":7275,"1630":7276,"2223":7277,"2282":7278,"CaBi":7279,"PbAs":7280,"ĠCsTe":7281,"2318":7282,"23159":7283,"SrBi":7284,"TcTa":7285,"738":7286,"7302":7287,"7390":7288,"458":7289,"1925":7290,"7260":7291,"049":7292,"32616":7293,"9920":7294,"9925":7295,"3509":7296,"2786":7297,"982070":7298,"12059":7299,"11050":7300,"10905":7301,"12275":7302,"12245":7303,"12287":7304,"1220085":7305,"569979":7306,"1186014":7307,"1186374":7308,"11943":7309,"11922":7310,"8675":7311,"1187717":7312,"1187077":7313,"567082":7314,"567612":7315,"1217166":7316,"1217429":7317,"30835":7318,"30828":7319,"1018100":7320,"1018125":7321,"1188890":7322,"10047":7323,"1003509":7324,"1062030":7325,"ĠChromium":7326,"ĠSCoNi":7327,"11387":7328,"11571":7329,"865899":7330,"1672":7331,"30352":7332,"1105651":7333,"1105078":7334,"1218044":7335,"11765":7336,"1009756":7337,"1103139":7338,"30481":7339,"ĠNAlGa":7340,"21093":7341,"1023934":7342,"1225998":7343,"570844":7344,"980420":7345,"865385":7346,"865382":7347,"20050":7348,"1216446":7349,"17564":7350,"567747":7351,"22872":7352,"989737":7353,"1187243":7354,"505527":7355,"977390":7356,"21589":7357,"30045":7358,"1187197":7359,"672326":7360,"1224485":7361,"11572":7362,"1207781":7363,"568746":7364,"971779":7365,"1091387":7366,"1077482":7367,"1183040":7368,"1006132":7369,"1194653":7370,"568172":7371,"17216":7372,"1105633":7373,"1191083":7374,"1025448":7375,"984698":7376,"583740":7377,"753921":7378,"1501":7379,"1431":7380,"266":7381,"2857":7382,"511":7383,"581":7384,"956":7385,"WRe":7386,"ĠTiC":7387,"ĠZint":7388,"2039":7389,"FeGe":7390,"SiSb":7391,"ĠSeTl":7392,"ĠYPd":7393,"ĠTaMn":7394,"ĠScTc":7395,"TiRe":7396,"InCl":7397,"InPb":7398,"NiZn":7399,"ĠTeTl":7400,"1063":7401,"10569":7402,"10636":7403,"ĠNaSi":7404,"ZnHg":7405,"093":7406,"MoRe":7407,"SnH":7408,"HfCd":7409,"CoCu":7410,"ĠBiNa":7411,"IrCu":7412,"IrBi":7413,"11514":7414,"ĠCdNi":7415,"0894":7416,"ScBi":7417,"ĠClHg":7418,"22236":7419,"1589":7420,"1581":7421,"15670":7422,"CdP":7423,"2179":7424,"8642":7425,"8662":7426,"PbMo":7427,"23164":7428,"621581":7429,"7564":7430,"SrNi":7431,"SrSb":7432,"SrTl":7433,"19713":7434,"ReW":7435,"HgZn":7436,"7262":7437,"1373":7438,"1363":7439,"9769":7440,"32679":7441,"3760":7442,"2686":7443,"27258":7444,"17332":7445,"30464":7446,"31205":7447,"RbAs":7448,"1200894":7449,"1203760":7450,"110188":7451,"CsSn":7452,"CsAu":7453,"12264":7454,"1216498":7455,"1071078":7456,"1220634":7457,"1183224":7458,"569678":7459,"569522":7460,"569989":7461,"1186231":7462,"11906":7463,"567871":7464,"1217111":7465,"12214":7466,"1221429":7467,"10802":7468,"ĠSNaCr":7469,"11261":7470,"1223503":7471,"1186926":7472,"ĠSCoRh":7473,"11345":7474,"ĠNYSc":7475,"1184676":7476,"1184058":7477,"12723":7478,"1007758":7479,"1077232":7480,"30354":7481,"30383":7482,"1224390":7483,"9729":7484,"865565":7485,"2808":7486,"1184681":7487,"30496":7488,"573514":7489,"18609":7490,"30745":7491,"1791":7492,"1228491":7493,"865425":7494,"998979":7495,"607450":7496,"672241":7497,"571053":7498,"1184772":7499,"19880":7500,"19879":7501,"862770":7502,"1228882":7503,"20581":7504,"1207392":7505,"ĠNScTi":7506,"1214894":7507,"1070544":7508,"570632":7509,"1147714":7510,"975834":7511,"14285":7512,"505510":7513,"570276":7514,"1101783":7515,"ĠCmme":7516,"672313":7517,"972351":7518,"1077372":7519,"1206371":7520,"1458":7521,"685124":7522,"568865":7523,"1178742":7524,"541289":7525,"1218177":7526,"974620":7527,"ĠZintl":7528,"1056985":7529,"1101884":7530,"250":7531,"771":7532,"7541":7533,"910":7534,"921":7535,"945":7536,"KFe":7537,"KSe":7538,"KCu":7539,"YCoGa":7540,"ea":7541,"ĠCCa":7542,"ĠAea":7543,"ĠNiN":7544,"ĠZrMn":7545,"ĠCaMn":7546,"2052":7547,"2049":7548,"20745":7549,"FePt":7550,"ĠYH":7551,"ĠYAsSe":7552,"ĠTaMoS":7553,"TiAg":7554,"PdPb":7555,"NiCu":7556,"ĠFeRu":7557,"10157":7558,"ĠSrAg":7559,"ĠSnCo":7560,"GePt":7561,"1244":7562,"1258":7563,"ZnSn":7564,"ZnTc":7565,"CuN":7566,"CuPt":7567,"SnBi":7568,"AgSb":7569,"6753":7570,"ĠBiSbTe":7571,"RuCu":7572,"1175":7573,"11462":7574,"11675":7575,"ScAs":7576,"ĠClTl":7577,"ĠOsH":7578,"ĠOsGe":7579,"CrNi":7580,"CaS":7581,"8881":7582,"8625":7583,"8628":7584,"523":7585,"461":7586,"749":7587,"7498":7588,"TcCl":7589,"564":7590,"2516":7591,"HgGa":7592,"NaTiS":7593,"TlAg":7594,"5820":7595,"976847":7596,"9016":7597,"2752":7598,"9847":7599,"11051":7600,"12182":7601,"11850":7602,"11407":7603,"11482":7604,"1072086":7605,"10263":7606,"1079131":7607,"1079938":7608,"569322":7609,"569250":7610,"1186175":7611,"1186230":7612,"1199016":7613,"1224803":7614,"30885":7615,"30856":7616,"1080522":7617,"1078443":7618,"1186974":7619,"ĠPSnP":7620,"1189230":7621,"ĠTeGePb":7622,"22079":7623,"16610":7624,"1224391":7625,"1186050":7626,"972828":7627,"1229092":7628,"1009730":7629,"12465":7630,"30485":7631,"573579":7632,"999544":7633,"21065":7634,"22924":7635,"ĠInSrAu":7636,"865355":7637,"1199934":7638,"YAgSe":7639,"1094248":7640,"672256":7641,"ĠSAsPd":7642,"ĠSAlZn":7643,"ĠSAlMo":7644,"1079945":7645,"978546":7646,"ĠSeAsRh":7647,"24726":7648,"1205301":7649,"ĠSeMnZn":7650,"1067210":7651,"568328":7652,"1184021":7653,"1187257":7654,"1184511":7655,"27821":7656,"567397":7657,"ĠTeSbRu":7658,"1017985":7659,"1101754":7660,"17880":7661,"17848":7662,"571264":7663,"1186760":7664,"555283":7665,"1077365":7666,"981383":7667,"1072712":7668,"863720":7669,"CaPdIn":7670,"1078989":7671,"570362":7672,"636368":7673,"974920":7674,"1187591":7675,"1062804":7676,"999376":7677,"684903":7678,"1180659":7679,"nbc":7680,"1055994":7681,"1101099":7682,"540912":7683,"1210215":7684,"976589":7685,"1195735":7686,"1700":7687,"2700":7688,"2648":7689,"2663":7690,"350":7691,"596":7692,"647":7693,"6200":7694,"6851":7695,"7674":7696,"873":7697,"8200":7698,"924":7699,"995":7700,"KCl":7701,"SN":7702,"ĠCS":7703,"AlRe":7704,"ĠPdSe":7705,"ĠZrRu":7706,"ĠCaCo":7707,"20549":7708,"20131":7709,"20526":7710,"20027":7711,"SiSn":7712,"ĠYRu":7713,"ĠScHg":7714,"TiCu":7715,"PdNiSi":7716,"AsZn":7717,"AsCl":7718,"1049":7719,"ĠAgZr":7720,"12628":7721,"MoZn":7722,"ZrCo":7723,"AgAu":7724,"RuCoAl":7725,"ScP":7726,"ScHg":7727,"1637":7728,"ĠClCu":7729,"053":7730,"2221":7731,"22693":7732,"868":7733,"SrTe":7734,"7372":7735,"660":7736,"8312":7737,"190":7738,"1914":7739,"1848":7740,"761":7741,"1371":7742,"976419":7743,"611219":7744,"RbP":7745,"RbTe":7746,"12032":7747,"CsP":7748,"1220052":7749,"10276":7750,"1186017":7751,"11901":7752,"10172":7753,"1187881":7754,"567540":7755,"1217168":7756,"12217":7757,"30875":7758,"1018115":7759,"1188393":7760,"11239":7761,"ĠPZnP":7762,"1184670":7763,"1184502":7764,"ĠInSbTe":7765,"1007656":7766,"30571":7767,"29661":7768,"9731":7769,"2802":7770,"2807":7771,"2809":7772,"21294":7773,"30412":7774,"30787":7775,"1023926":7776,"570875":7777,"555935":7778,"980094":7779,"974326":7780,"1104898":7781,"1698":7782,"1184704":7783,"1209498":7784,"12593":7785,"568619":7786,"22812":7787,"1095578":7788,"558552":7789,"21182":7790,"1547":7791,"1179520":7792,"862620":7793,"1017531":7794,"1095269":7795,"14587":7796,"1184994":7797,"636328":7798,"971661":7799,"1025044":7800,"983388":7801,"20599":7802,"sixth":7803,"608072":7804,"620032":7805,"767469":7806,"1434":7807,"255":7808,"277":7809,"2828":7810,"2856":7811,"2701":7812,"2578":7813,"31219":7814,"516":7815,"583":7816,"788":7817,"9227":7818,"PTe":7819,"nner":7820,"renner":7821,"AlNb":7822,"AlTa":7823,"2076":7824,"20648":7825,"20291":7826,"ĠSeSc":7827,"PdSc":7828,"8046":7829,"8073":7830,"8091":7831,"ĠSbZr":7832,"1005":7833,"10026":7834,"10861":7835,"10014":7836,"ĠSrCaSi":7837,"GaNb":7838,"ĠNaTiS":7839,"1210":7840,"12459":7841,"CuInS":7842,"ĠIrCa":7843,"ĠKrenner":7844,"MoOs":7845,"HfH":7846,"AgSn":7847,"5411":7848,"962":7849,"IrCo":7850,"IrCl":7851,"1195":7852,"NbSn":7853,"NbOs":7854,"NbMoSe":7855,"AuGa":7856,"ĠTcOs":7857,"5588":7858,"1606":7859,"ĠReCl":7860,"22856":7861,"CrIr":7862,"CrTc":7863,"CaSb":7864,"1550":7865,"7140":7866,"BiRb":7867,"2172":7868,"7493":7869,"1919":7870,"ReP":7871,"HgBi":7872,"NaSe":7873,"7273":7874,"594":7875,"1876":7876,"1380":7877,"32861":7878,"2775":7879,"2781":7880,"27731":7881,"30463":7882,"28116":7883,"31105":7884,"12065":7885,"12064":7886,"11062":7887,"11018":7888,"11843":7889,"11885":7890,"ĠMoSSe":7891,"1216505":7892,"10783":7893,"1077263":7894,"1220631":7895,"1183501":7896,"1183484":7897,"1183710":7898,"1079832":7899,"569095":7900,"11921":7901,"11940":7902,"1191079":7903,"1198091":7904,"867212":7905,"1187073":7906,"567860":7907,"567597":7908,"1080831":7909,"1188155":7910,"1188645":7911,"11286":7912,"10784":7913,"1224388":7914,"1186047":7915,"1207251":7916,"1229048":7917,"979423":7918,"21289":7919,"1009733":7920,"1228901":7921,"16511":7922,"1225186":7923,"980949":7924,"974370":7925,"31138":7926,"1193756":7927,"20250":7928,"867356":7929,"20034":7930,"31086":7931,"571060":7932,"28879":7933,"1205321":7934,"1078875":7935,"571651":7936,"866006":7937,"776470":7938,"861610":7939,"1224796":7940,"864889":7941,"1096915":7942,"1100795":7943,"672372":7944,"865176":7945,"1079681":7946,"13450":7947,"684650":7948,"1208273":7949,"1196393":7950,"949029":7951,"863648":7952,"568067":7953,"861910":7954,"505002":7955,"1205955":7956,"1192251":7957,"ĠKrennerite":7958,"1451":7959,"1444":7960,"2103":7961,"489":7962,"51009":7963,"618":7964,"746":7965,"811":7966,"947":7967,"KTe":7968,"PK":7969,"SH":7970,"SK":7971,"VRh":7972,"ĠSul":7973,"âĤĦâĤĢ":7974,"ĠNiRu":7975,"ĠHfSc":7976,"20628":7977,"ĠSeCoNi":7978,"ĠCuAsS":7979,"PdGe":7980,"PdRu":7981,"NiGe":7982,"ĠGeAl":7983,"8041":7984,"PtSc":7985,"ĠSbN":7986,"1082":7987,"10759":7988,"ĠNaCu":7989,"ĠNaNb":7990,"12109":7991,"12124":7992,"12857":7993,"RhCu":7994,"ZnSiAs":7995,"ZrRe":7996,"HfBi":7997,"6759":7998,"6736":7999,"5410":8000,"IrSc":8001,"ĠPbHg":8002,"5053":8003,"5047":8004,"5057":8005,"5049":8006,"1664":8007,"22700":8008,"22735":8009,"ĠOsNb":8010,"887":8011,"CdAl":8012,"21673":8013,"8648":8014,"PbGe":8015,"066":8016,"7440":8017,"7446":8018,"7441":8019,"8973":8020,"8948":8021,"TcN":8022,"664":8023,"24154":8024,"NaCu":8025,"684":8026,"5193":8027,"497":8028,"1340":8029,"1393":8030,"1304":8031,"1392":8032,"927":8033,"9262":8034,"27164":8035,"17094":8036,"30672":8037,"30478":8038,"11060":8039,"1105552":8040,"CsIn":8041,"11819":8042,"10909":8043,"1095683":8044,"1216575":8045,"10790":8046,"1079776":8047,"569544":8048,"567276":8049,"1215543":8050,"1219522":8051,"121708":8052,"30840":8053,"30884":8054,"22211":8055,"ĠSNaIn":8056,"1129":8057,"1223773":8058,"570553":8059,"1039262":8060,"1007760":8061,"1018059":8062,"1105127":8063,"15650":8064,"1215488":8065,"1215401":8066,"865598":8067,"ĠSeRbBi":8068,"ĠSSnSb":8069,"30797":8070,"30717":8071,"16481":8072,"1226086":8073,"1217915":8074,"998985":8075,"850083":8076,"1217192":8077,"1690":8078,"1206741":8079,"1184791":8080,"1187946":8081,"20382":8082,"1067627":8083,"568376":8084,"1216325":8085,"570684":8086,"28391":8087,"1184018":8088,"1187811":8089,"14288":8090,"1178745":8091,"865733":8092,"30021":8093,"1183455":8094,"865910":8095,"21873":8096,"1106023":8097,"862621":8098,"1019052":8099,"1186781":8100,"1178952":8101,"1219922":8102,"570751":8103,"1068446":8104,"568077":8105,"1078996":8106,"1183143":8107,"569037":8108,"1022725":8109,"1209003":8110,"1200988":8111,"1105296":8112,"1094140":8113,"29841":8114,"568293":8115,"867262":8116,"1079269":8117,"628766":8118,"1063670":8119,"1192175":8120,"510099":8121,"ĠSulvanite":8122,"1212407":8123,"673633":8124,"147":8125,"144":8126,"2576":8127,"2534":8128,"5826":8129,"610":8130,"608":8131,"7631":8132,"994":8133,"HCs":8134,"KGe":8135,"KCr":8136,"PP":8137,"WMn":8138,"YOs":8139,"YTc":8140,"YTiGe":8141,"hil":8142,"nnc":8143,"ĠHCr":8144,"ĠHyd":8145,"ĠNiCl":8146,"AlZn":8147,"ĠCaMnSi":8148,"ĠPtSeS":8149,"20311":8150,"FeBi":8151,"ĠNbWS":8152,"ĠNbMoSe":8153,"SiRe":8154,"ĠCuPt":8155,"ĠScRu":8156,"ĠAsIr":8157,"ĠTePt":8158,"CuTc":8159,"ĠIron":8160,"ZrPtAl":8161,"uphide":8162,"HfV":8163,"HfW":8164,"HfRhSn":8165,"AgTl":8166,"33112":8167,"5406":8168,"IrAu":8169,"1111":8170,"1173":8171,"11693":8172,"NbC":8173,"AuHf":8174,"ĠCdIn":8175,"5022":8176,"ScPb":8177,"ĠClIn":8178,"2211":8179,"2291":8180,"CaGa":8181,"CaMn":8182,"CaMnSi":8183,"1591":8184,"ĠTlHg":8185,"7189":8186,"2398":8187,"8936":8188,"rophil":8189,"OsPt":8190,"TcCu":8191,"658":8192,"194":8193,"1967":8194,"19932":8195,"24161":8196,"RePd":8197,"5610":8198,"HgCl":8199,"1395":8200,"13876":8201,"977189":8202,"32630":8203,"9907":8204,"9945":8205,"2780":8206,"2815":8207,"11046":8208,"11039":8209,"12252":8210,"12284":8211,"11440":8212,"ĠDisuphide":8213,"569794":8214,"1186100":8215,"1186158":8216,"11977":8217,"1191483":8218,"10193":8219,"867303":8220,"12156":8221,"30867":8222,"1080797":8223,"1188662":8224,"1078755":8225,"1078500":8226,"ĠPbTePt":8227,"1186955":8228,"1186990":8229,"570670":8230,"11342":8231,"ĠNYW":8232,"1184478":8233,"1184808":8234,"11521":8235,"11566":8236,"1007755":8237,"30668":8238,"10258":8239,"571547":8240,"29642":8241,"CoNiTe":8242,"TiAlAu":8243,"866161":8244,"20433":8245,"1103570":8246,"ĠPTiP":8247,"1215598":8248,"20916":8249,"21068":8250,"1023937":8251,"1225656":8252,"CoAsSe":8253,"12474":8254,"974341":8255,"1199938":8256,"31150":8257,"1226096":8258,"1120774":8259,"850014":8260,"ĠSAsPt":8261,"13147":8262,"1014219":8263,"1184703":8264,"1079997":8265,"862779":8266,"ĠSeAsPd":8267,"ĠSeAsIr":8268,"1216486":8269,"1018149":8270,"1185202":8271,"1102030":8272,"567907":8273,"754064":8274,"1184591":8275,"1400":8276,"542570":8277,"1179336":8278,"567379":8279,"1215783":8280,"1936":8281,"1106195":8282,"862655":8283,"570786":8284,"570744":8285,"1102616":8286,"ReSiReSi":8287,"542587":8288,"18167":8289,"541844":8290,"1190274":8291,"570377":8292,"1106381":8293,"540791":8294,"684989":8295,"604321":8296,"ĠAsReNi":8297,"568595":8298,"1071777":8299,"604908":8300,"755453":8301,"1021498":8302,"542812":8303,"ĠSePOs":8304,"1190841":8305,"1105134":8306,"582681":8307,"PPMn":8308,"ĠHydrophil":8309,"ĠHydrophilite":8310,"1853":8311,"286":8312,"488":8313,"8426":8314,"953":8315,"913":8316,"WNiP":8317,"WFeSi":8318,"YIrGe":8319,"Ġmvc":8320,"ĠInCuS":8321,"Ġred":8322,"Ġselenium":8323,"ĠPdS":8324,"ĠZrCd":8325,"20123":8326,"SeN":8327,"TiTaFe":8328,"ĠAsCr":8329,"InAl":8330,"InAs":8331,"ĠFeMo":8332,"ĠSbCd":8333,"1060":8334,"GaNi":8335,"GePd":8336,"RhGe":8337,"RhZrSn":8338,"ZnSi":8339,"ĠAuSb":8340,"ĠAuPb":8341,"MoNi":8342,"AgBi":8343,"5430":8344,"CoOs":8345,"CoSbS":8346,"ĠBiRb":8347,"IrN":8348,"IrY":8349,"TaH":8350,"508":8351,"5576":8352,"2296":8353,"2260":8354,"CrGe":8355,"CrSb":8356,"CaSe":8357,"8632":8358,"2346":8359,"23179":8360,"OsW":8361,"8311":8362,"1958":8363,"ReZn":8364,"ReMo":8365,"8182":8366,"HgIn":8367,"NaSi":8368,"NaBiS":8369,"7822":8370,"7819":8371,"685022":8372,"5911":8373,"TlN":8374,"5850":8375,"1469":8376,"1780":8377,"1708":8378,"30421":8379,"9843":8380,"28704":8381,"RbFe":8382,"RbIn":8383,"1105911":8384,"12185":8385,"12240":8386,"12265":8387,"ĠAlNiGe":8388,"1216300":8389,"10785":8390,"1220079":8391,"11832":8392,"ĠAlCuPd":8393,"1186081":8394,"1186060":8395,"1187790":8396,"567207":8397,"567596":8398,"1221442":8399,"1221425":8400,"30883":8401,"1188663":8402,"1188913":8403,"10621":8404,"570199":8405,"1189177":8406,"12454":8407,"1007857":8408,"865077":8409,"ĠGeGeIr":8410,"1186018":8411,"1186034":8412,"1186031":8413,"973198":8414,"972981":8415,"1188040":8416,"15622":8417,"866108":8418,"30494":8419,"1215579":8420,"21030":8421,"1863":8422,"ĠAlVCo":8423,"30746":8424,"1206573":8425,"17910":8426,"1208221":8427,"1008488":8428,"974395":8429,"1228803":8430,"22375":8431,"867317":8432,"2797":8433,"16317":8434,"850068":8435,"672289":8436,"28885":8437,"1102384":8438,"23253":8439,"24723":8440,"849086":8441,"567750":8442,"505626":8443,"10703":8444,"1226736":8445,"975204":8446,"1056308":8447,"861630":8448,"AlNiGe":8449,"1183489":8450,"1219940":8451,"SSSCs":8452,"7859":8453,"1225701":8454,"1091375":8455,"1187512":8456,"1209044":8457,"ĠGaCuPt":8458,"971662":8459,"1079582":8460,"975519":8461,"573763":8462,"1009641":8463,"555599":8464,"1194350":8465,"1190654":8466,"973143":8467,"505780":8468,"1060435":8469,"543001":8470,"1462":8471,"272":8472,"6204":8473,"6430":8474,"923":8475,"9339":8476,"YIrSi":8477,"hite":8478,"phite":8479,"raphite":8480,"ĠCRe":8481,"Ġgraphite":8482,"ĠNCl":8483,"âĤĤâĤĤ":8484,"âĤĤâĤĩ":8485,"2081":8486,"20717":8487,"20826":8488,"SeCl":8489,"ĠCuRh":8490,"ĠRhH":8491,"PdTiSi":8492,"8062":8493,"PtTl":8494,"10281":8495,"1012110":8496,"ĠMnY":8497,"ĠAgAsS":8498,"CuNi":8499,"ĠIrS":8500,"HfVGe":8501,"AgSc":8502,"6762":8503,"4379":8504,"ĠBiZr":8505,"IrGa":8506,"11730":8507,"075":8508,"TaNbW":8509,"ScSb":8510,"551":8511,"5539":8512,"ĠClZn":8513,"8882":8514,"15964":8515,"2142":8516,"2194":8517,"8663":8518,"86233":8519,"ĠHgTl":8520,"ĠCsP":8521,"23713":8522,"23152":8523,"5741":8524,"574379":8525,"7373":8526,"1902":8527,"2507":8528,"2597":8529,"NaS":8530,"NaGa":8531,"685050":8532,"6323":8533,"29973":8534,"29551":8535,"1349":8536,"9752":8537,"1411":8538,"9147":8539,"ĠTiSeS":8540,"9996":8541,"9947":8542,"9902":8543,"9948":8544,"998860":8545,"2753":8546,"2760":8547,"1775":8548,"12085":8549,"12087":8550,"120175":8551,"11037":8552,"1101258":8553,"10953":8554,"ĠNCaTc":8555,"11457":8556,"1216464":8557,"1220141":8558,"1183206":8559,"1183969":8560,"569196":8561,"11916":8562,"867126":8563,"ĠSCuBi":8564,"1187152":8565,"567409":8566,"ĠWSCl":8567,"1217097":8568,"1221422":8569,"30886":8570,"30851":8571,"22270":8572,"1080834":8573,"1080376":8574,"11287":8575,"11237":8576,"10685":8577,"1186923":8578,"1186976":8579,"WSCl":8580,"1039147":8581,"12471":8582,"2201":8583,"22009":8584,"1007923":8585,"1018019":8586,"974437":8587,"ĠNFeMo":8588,"30666":8589,"30681":8590,"30368":8591,"ĠScNCl":8592,"973111":8593,"973092":8594,"1331":8595,"1188051":8596,"1229015":8597,"1072655":8598,"21276":8599,"1208223":8600,"974381":8601,"1226456":8602,"1104334":8603,"YPdZn":8604,"1217901":8605,"16315":8606,"16319":8607,"2160":8608,"1734":8609,"20351":8610,"21945":8611,"2478":8612,"24722":8613,"1067236":8614,"568320":8615,"11473":8616,"21170":8617,"769096":8618,"1104327":8619,"1219396":8620,"971751":8621,"971909":8622,"1057015":8623,"1095545":8624,"1080022":8625,"31312":8626,"1206636":8627,"32682":8628,"9888":8629,"20061":8630,"1062758":8631,"985451":8632,"1200912":8633,"604318":8634,"1213762":8635,"568186":8636,"nbm":8637,"1055940":8638,"1227285":8639,"569388":8640,"1207855":8641,"24650":8642,"571160":8643,"642659":8644,"541788":8645,"570920":8646,"1102441":8647,"976930":8648,"582067":8649,"984744":8650,"558811":8651,"620471":8652,"1201758":8653,"150":8654,"148":8655,"1460":8656,"254":8657,"285":8658,"2626":8659,"302":8660,"366":8661,"5100":8662,"621":8663,"619":8664,"6699":8665,"7670":8666,"7576":8667,"7897":8668,"842":8669,"944":8670,"9587":8671,"KC":8672,"KS":8673,"KRh":8674,"VC":8675,"YMn":8676,"bar":8677,"mite":8678,"ĠCin":8679,"ridy":8680,"ĠPCs":8681,"ĠInK":8682,"ĠTridy":8683,"ĠAlZnIr":8684,"AlGa":8685,"ĠZrFe":8686,"ĠCaRh":8687,"2084":8688,"ĠGaPS":8689,"ĠGaBiAs":8690,"FeCr":8691,"SiPd":8692,"ĠScFe":8693,"TiCoSi":8694,"TiMnSi":8695,"ĠZnSiNi":8696,"ĠCrH":8697,"PtSn":8698,"1093":8699,"1081":8700,"GaHg":8701,"1282":8702,"12892":8703,"1211471":8704,"RhCo":8705,"ZnSb":8706,"ĠKC":8707,"AgSi":8708,"AgBiS":8709,"6754":8710,"3314":8711,"CoMo":8712,"CoNiSi":8713,"ĠBiNi":8714,"ĠBiCl":8715,"9634":8716,"IrS":8717,"1197":8718,"1136":8719,"NbMn":8720,"ĠPbSr":8721,"AuN":8722,"070":8723,"6986":8724,"TaNiP":8725,"5583":8726,"559634":8727,"1608":8728,"1618":8729,"22466":8730,"22600":8731,"CrH":8732,"CaIrIn":8733,"8810":8734,"8883":8735,"1507":8736,"1519":8737,"CdPt":8738,"ĠHgCl":8739,"629":8740,"8991":8741,"SrSe":8742,"SrCo":8743,"OsH":8744,"839":8745,"24809":8746,"7927":8747,"56867":8748,"601823":8749,"ĠLow":8750,"29014":8751,"29184":8752,"9984":8753,"995193":8754,"1747":8755,"RbGe":8756,"120179":8757,"1205422":8758,"1101178":8759,"1182070":8760,"12207":8761,"1220502":8762,"1220348":8763,"1183694":8764,"1183511":8765,"1079029":8766,"569167":8767,"1186109":8768,"1186968":8769,"11933":8770,"1017565":8771,"867202":8772,"1187739":8773,"1187248":8774,"567181":8775,"1219535":8776,"30853":8777,"1018809":8778,"10644":8779,"1063314":8780,"570122":8781,"570673":8782,"ĠTaAlRu":8783,"1184121":8784,"ĠTiZnNi":8785,"30343":8786,"12322":8787,"13682":8788,"1178810":8789,"21237":8790,"20901":8791,"1023939":8792,"1226072":8793,"ScCuZn":8794,"13146":8795,"1184764":8796,"862705":8797,"1025571":8798,"1226021":8799,"567772":8800,"28930":8801,"1226726":8802,"1224223":8803,"21165":8804,"975129":8805,"1104054":8806,"985831":8807,"754628":8808,"1096950":8809,"1187154":8810,"864794":8811,"13010":8812,"1178932":8813,"14652":8814,"862259":8815,"nabar":8816,"1006118":8817,"1192532":8818,"510521":8819,"862446":8820,"1105285":8821,"1147712":8822,"1190908":8823,"556597":8824,"982871":8825,"862589":8826,"1062153":8827,"632311":8828,"669913":8829,"ĠCinnabar":8830,"ĠTridymite":8831,"1093999":8832,"558378":8833,"568671":8834,"1201790":8835,"245":8836,"454":8837,"471":8838,"593":8839,"640":8840,"6127":8841,"6235":8842,"7544":8843,"7506":8844,"VCr":8845,"YPb":8846,"YNiAl":8847,"ĠNTc":8848,"ĠPu":8849,"ĠPVS":8850,"ĠAlGaN":8851,"âĤĤâĤĥ":8852,"âĤĦâĤħ":8853,"ĠHfTeSe":8854,"ĠZrTi":8855,"ĠZrTiSe":8856,"ĠPtHg":8857,"2083":8858,"20465":8859,"20552":8860,"ĠGaSr":8861,"ĠGaNa":8862,"ĠGaGeTe":8863,"FeH":8864,"ĠVH":8865,"SiRu":8866,"ĠSeIr":8867,"ĠYCu":8868,"ĠTaWS":8869,"ĠAsAgAs":8870,"NiRh":8871,"ĠGeK":8872,"ĠGeCl":8873,"PtIn":8874,"PtMn":8875,"PtHg":8876,"1046":8877,"10675":8878,"ĠSnIr":8879,"GaFe":8880,"GaAg":8881,"GaAlN":8882,"ĠNaGa":8883,"ĠNaSn":8884,"ĠAgAsSe":8885,"1287":8886,"12635":8887,"12798":8888,"ĠIrCr":8889,"ĠKH":8890,"ZrRuSi":8891,"ZrTiCr":8892,"ZrCoGa":8893,"ZrVCo":8894,"HfZnAl":8895,"AgInS":8896,"5413":8897,"CoTc":8898,"RuPdAl":8899,"9692":8900,"11828":8901,"11537":8902,"11449":8903,"AuSi":8904,"AuIn":8905,"AuBi":8906,"ĠCdHg":8907,"5052":8908,"5056":8909,"Ġ82":8910,"ScMn":8911,"CaMoN":8912,"1509":8913,"MnAu":8914,"MnCd":8915,"CdHg":8916,"BiBi":8917,"ĠHgAs":8918,"237":8919,"8262":8920,"OsPd":8921,"OsCl":8922,"TcCo":8923,"6614":8924,"19795":8925,"2469":8926,"7916":8927,"ReNi":8928,"563":8929,"HgGe":8930,"NaTe":8931,"490":8932,"6308":8933,"636614":8934,"1397":8935,"1361":8936,"8781":8937,"9946":8938,"27800":8939,"28731":8940,"RbH":8941,"1203":8942,"110616":8943,"ĠAlAlAg":8944,"CsV":8945,"CsFe":8946,"CsPb":8947,"ĠTiAlCo":8948,"12233":8949,"1216439":8950,"10707":8951,"10775":8952,"1220423":8953,"10287":8954,"569837":8955,"569516":8956,"1186058":8957,"11905":8958,"1191118":8959,"ĠAlNbRu":8960,"1187424":8961,"567505":8962,"1219339":8963,"ĠSSbPd":8964,"1224494":8965,"1217114":8966,"ĠMoAsP":8967,"12218":8968,"1221697":8969,"1221495":8970,"1188977":8971,"ĠPAgSnP":8972,"10667":8973,"ĠNYAl":8974,"11899":8975,"13270":8976,"ĠTiGaFe":8977,"11515":8978,"ĠYCdPd":8979,"1670":8980,"571406":8981,"1186033":8982,"1186030":8983,"1105836":8984,"1188042":8985,"1215437":8986,"865520":8987,"1102436":8988,"ĠNAlTi":8989,"1228988":8990,"21321":8991,"ĠSeSbIr":8992,"31019":8993,"607139":8994,"2168":8995,"21613":8996,"862715":8997,"24721":8998,"1216329":8999,"1185931":9000,"28916":9001,"1184026":9002,"AuCuZn":9003,"865649":9004,"1104019":9005,"754434":9006,"1104388":9007,"1545":9008,"22682":9009,"27840":9010,"861626":9011,"1219328":9012,"542449":9013,"684710":9014,"1017987":9015,"971673":9016,"1227319":9017,"HfRhAl":9018,"13447":9019,"1077959":9020,"669311":9021,"AlFeY":9022,"555280":9023,"864758":9024,"29266":9025,"1226371":9026,"542909":9027,"1225751":9028,"CaPdCd":9029,"862260":9030,"863744":9031,"570562":9032,"569007":9033,"1178763":9034,"568516":9035,"562100":9036,"1094136":9037,"1227290":9038,"1069841":9039,"1096861":9040,"1084753":9041,"767208":9042,"seventh":9043,"1095024":9044,"1203253":9045,"1064497":9046,"1232213":9047,"612740":9048,"623511":9049,"1182885":9050,"1106162":9051,"0062":9052,"2123":9053,"2156":9054,"2674":9055,"340":9056,"399":9057,"646":9058,"7529":9059,"912":9060,"VH":9061,"VZn":9062,"YScS":9063,"ĠCub":9064,"ĠCFe":9065,"ĠInRb":9066,"âĤĦâĤģ":9067,"ĠTiSnRh":9068,"ĠNiMo":9069,"AlW":9070,"ĠPdY":9071,"20074":9072,"FeTc":9073,"FeCoSi":9074,"ĠYFe":9075,"ĠTaTiFe":9076,"ĠRhCa":9077,"TiTa":9078,"TiPtSi":9079,"ĠAsMn":9080,"NiIr":9081,"NiOs":9082,"1012":9083,"TeCl":9084,"ĠMnCr":9085,"ĠNaSr":9086,"121218":9087,"1212463":9088,"ZnCu":9089,"MoAlGe":9090,"ZrZn":9091,"ZrCrFe":9092,"HfRuSi":9093,"AgSbSe":9094,"6750":9095,"CoRh":9096,"RuSbSe":9097,"1182":9098,"1181":9099,"TaCoSb":9100,"ĠTcSb":9101,"5567":9102,"1667":9103,"1634":9104,"16852":9105,"ĠRbIn":9106,"ĠRbCo":9107,"2285":9108,"ĠOsHf":9109,"CrC":9110,"CrHfSi":9111,"15221":9112,"15698":9113,"MnIn":9114,"MnCl":9115,"MnZnN":9116,"21965":9117,"21400":9118,"4773":9119,"23167":9120,"572758":9121,"6273":9122,"TcFe":9123,"24155":9124,"ReS":9125,"5605":9126,"5684":9127,"NaSr":9128,"29465":9129,"4822":9130,"13456":9131,"9910":9132,"9921":9133,"2782":9134,"27666":9135,"31103":9136,"31459":9137,"31430":9138,"1200062":9139,"11055":9140,"11048":9141,"11027":9142,"12196":9143,"1181094":9144,"12246":9145,"12278":9146,"temperature":9147,"10269":9148,"569170":9149,"1186115":9150,"1194773":9151,"ĠTaTeCl":9152,"1187969":9153,"1219237":9154,"1217078":9155,"30866":9156,"10808":9157,"ĠTiGeRu":9158,"ĠCoSbTa":9159,"1188303":9160,"11238":9161,"1078331":9162,"10682":9163,"ĠSInCu":9164,"570459":9165,"1189340":9166,"12779":9167,"1018050":9168,"1077803":9169,"30373":9170,"ĠTeSnPb":9171,"29667":9172,"1186067":9173,"972204":9174,"979751":9175,"866213":9176,"1215307":9177,"1228900":9178,"TiPdGe":9179,"1868":9180,"18614":9181,"1023900":9182,"1008274":9183,"1008626":9184,"555853":9185,"15556":9186,"TiMoTc":9187,"YRhIn":9188,"22309":9189,"867345":9190,"16911":9191,"YCuSi":9192,"ĠTeInHg":9193,"559676":9194,"1209828":9195,"CaPtP":9196,"ĠCuSnPd":9197,"28860":9198,"1102342":9199,"1102395":9200,"1226015":9201,"1205390":9202,"1095440":9203,"1067974":9204,"568636":9205,"28246":9206,"865045":9207,"19954":9208,"9897":9209,"24237":9210,"865640":9211,"PtGaZr":9212,"1187812":9213,"14018":9214,"1219356":9215,"1096986":9216,"1100766":9217,"1215724":9218,"542615":9219,"TiPN":9220,"865144":9221,"AlCuSc":9222,"571262":9223,"7234":9224,"1095294":9225,"971788":9226,"18254":9227,"21477":9228,"974990":9229,"1189633":9230,"570578":9231,"ĠAlGaNi":9232,"ĠAlGaCo":9233,"1198803":9234,"690772":9235,"31493":9236,"1061769":9237,"1069815":9238,"983509":9239,"1223996":9240,"1079585":9241,"1185041":9242,"1190110":9243,"1206486":9244,"505363":9245,"540625":9246,"1197755":9247,"752947":9248,"ĠCubane":9249,"1212187":9250,"1182452":9251,"1181961":9252,"627397":9253,"2861":9254,"2434":9255,"389":9256,"3432":9257,"5103":9258,"712":9259,"933":9260,"904":9261,"CAs":9262,"PSi":9263,"PRh":9264,"WFe":9265,"YNiGa":9266,"ĠTiSn":9267,"AlC":9268,"ĠPdPtAu":9269,"ĠHfV":9270,"ĠZrTiN":9271,"2072":9272,"2095":9273,"20196":9274,"20792":9275,"20436":9276,"ĠBain":9277,"FeMn":9278,"FeNiSb":9279,"SiGe":9280,"ĠTaTiMn":9281,"TiTaMn":9282,"PdRh":9283,"PtPdAu":9284,"1032":9285,"TeP":9286,"ĠMnCdS":9287,"GaTa":9288,"ĠNaV":9289,"ĠNaCa":9290,"1231":9291,"12139":9292,"ZnRe":9293,"CuAs":9294,"CuOs":9295,"ĠRuH":9296,"ĠRuCl":9297,"ĠKCu":9298,"ZrSb":9299,"ZrTiN":9300,"SnC":9301,"SnPS":9302,"HfRuGe":9303,"AgMo":9304,"AgSbS":9305,"AgInSe":9306,"542339":9307,"ĠEss":9308,"4359":9309,"RuW":9310,"RuAsP":9311,"963":9312,"IrSbS":9313,"11800":9314,"ĠPbNi":9315,"ĠPbBi":9316,"AuS":9317,"TaCr":9318,"TaRhSi":9319,"ScNiSi":9320,"ScRuSi":9321,"ScNiSb":9322,"ScPdSi":9323,"16226":9324,"ĠReTi":9325,"0528":9326,"ĠRbZn":9327,"ĠRbMnAs":9328,"22692":9329,"22795":9330,"CaMo":9331,"CaRb":9332,"MnBi":9333,"MnCoSi":9334,"MnCdS":9335,"ĠTlV":9336,"8613":9337,"4628":9338,"23229":9339,"23162":9340,"23759":9341,"23295":9342,"577":9343,"57289":9344,"7443":9345,"7581":9346,"SrY":9347,"OsCu":9348,"OsAu":9349,"1943":9350,"1907":9351,"19717":9352,"HgP":9353,"HgTl":9354,"NaH":9355,"NaCa":9356,"685048":9357,"TlSr":9358,"TlHg":9359,"630528":9360,"2984":9361,"ĠUpper":9362,"1407":9363,"2654":9364,"9916":9365,"991900":9366,"27628":9367,"eneite":9368,"9823":9369,"RbZn":9370,"RbMnAs":9371,"RbSrCl":9372,"12007":9373,"CsCu":9374,"10911":9375,"1095302":9376,"ĠTiAlPd":9377,"12220":9378,"1221007":9379,"ĠTiSiPd":9380,"ĠTiSiOs":9381,"1216501":9382,"1216430":9383,"10769":9384,"1071032":9385,"ĠVSiRu":9386,"122059":9387,"1220151":9388,"569857":9389,"1186152":9390,"1192984":9391,"1018948":9392,"ĠTaGeRu":9393,"567525":9394,"1219466":9395,"1219928":9396,"1219266":9397,"1224867":9398,"1224809":9399,"1221672":9400,"30893":9401,"10021":9402,"1064359":9403,"1186973":9404,"570690":9405,"ĠTiZnCu":9406,"1189791":9407,"1189774":9408,"974558":9409,"30371":9410,"1025167":9411,"1224342":9412,"973904":9413,"1218055":9414,"CoNiGa":9415,"9791":9416,"865507":9417,"2128":9418,"1246068":9419,"866187":9420,"1215315":9421,"1215357":9422,"30482":9423,"10292":9424,"ĠScNiSb":9425,"1551":9426,"1199056":9427,"CrFeAs":9428,"2798":9429,"27902":9430,"ScCuSi":9431,"ĠPKTeP":9432,"CaNiIn":9433,"ZrSiSe":9434,"FeCoGa":9435,"ĠTeMnCd":9436,"CaPtIn":9437,"1102324":9438,"1025248":9439,"1067758":9440,"1067933":9441,"8490":9442,"570641":9443,"865680":9444,"1102080":9445,"1224247":9446,"ĠHfZrN":9447,"1219515":9448,"1187233":9449,"HfZrN":9450,"1191413":9451,"2784":9452,"1224798":9453,"867821":9454,"684799":9455,"684731":9456,"27607":9457,"1215779":9458,"ZrAlCo":9459,"7068":9460,"1190136":9461,"1013526":9462,"MnZnTe":9463,"29055":9464,"1087497":9465,"1102900":9466,"ĠNbHS":9467,"1084805":9468,"1077440":9469,"6432":9470,"541656":9471,"570560":9472,"1025039":9473,"568263":9474,"961659":9475,"696673":9476,"1105044":9477,"1228753":9478,"541155":9479,"1106288":9480,"1106022":9481,"610517":9482,"1025874":9483,"1012435":9484,"38970":9485,"ĠBainite":9486,"ĠEsseneite":9487,"572892":9488,"2634":9489,"385":9490,"4076":9491,"580":9492,"667":9493,"633":9494,"6428":9495,"9964":9496,"9561":9497,"KIn":9498,"SC":9499,"VSb":9500,"WFeP":9501,"YCoGe":9502,"YPtSi":9503,"ĠNiH":9504,"ĠZrCo":9505,"ĠZrFeSb":9506,"2079":9507,"20139":9508,"20723":9509,"20661":9510,"20937":9511,"ĠNbMoW":9512,"ĠMoWSe":9513,"ĠMoNbW":9514,"ĠScTaFe":9515,"TiNbN":9516,"ĠAsCl":9517,"InC":9518,"InGaS":9519,"AsC":9520,"8071":9521,"ĠCrSnRh":9522,"PtC":9523,"ĠSbZn":9524,"ĠMnFe":9525,"ĠMnCo":9526,"GeCl":9527,"12120":9528,"12972":9529,"121069":9530,"ZnAg":9531,"ZnSnAs":9532,"CuCrS":9533,"ĠKSi":9534,"ĠKNa":9535,"MoNbW":9536,"ZrPt":9537,"ZrMn":9538,"ZrFeSb":9539,"HfFeSb":9540,"HfCoAl":9541,"CoMoSi":9542,"CoVSb":9543,"RuPd":9544,"961652":9545,"1169":9546,"1170":9547,"1114":9548,"11687":9549,"NbNiAs":9550,"NbFeSi":9551,"AuGe":9552,"ScCl":9553,"ScNiAl":9554,"ScTaFe":9555,"5557":9556,"5587":9557,"5538":9558,"555410":9559,"558071":9560,"22862":9561,"CaN":9562,"CaPtGe":9563,"1573":9564,"1572":9565,"15339":9566,"MnZnS":9567,"MnWN":9568,"ĠTlIn":9569,"CdSe":9570,"CdAu":9571,"CdSiN":9572,"217":9573,"2146":9574,"8629":9575,"4022":9576,"PbC":9577,"PbSi":9578,"065":9579,"ĠCsZn":9580,"23209":9581,"23299":9582,"5725":9583,"5701":9584,"1954":9585,"1918":9586,"244":9587,"2565":9588,"HgAl":9589,"6442":9590,"18504":9591,"TlAs":9592,"4978":9593,"29026":9594,"7608":9595,"13852":9596,"9767":9597,"9721":9598,"9986":9599,"991114":9600,"27838":9601,"30555":9602,"28229":9603,"31472":9604,"RbS":9605,"1207608":9606,"CsZn":9607,"1182146":9608,"12165":9609,"1216290":9610,"10712":9611,"10781":9612,"ĠVSiOs":9613,"1220335":9614,"1220475":9615,"1220099":9616,"10264":9617,"1079172":9618,"1079574":9619,"569436":9620,"569594":9621,"1186127":9622,"11912":9623,"11944":9624,"867141":9625,"1187694":9626,"567278":9627,"12158":9628,"1219292":9629,"1224502":9630,"1224484":9631,"1224886":9632,"1221793":9633,"22240":9634,"1018107":9635,"1018807":9636,"1080121":9637,"1080459":9638,"1188102":9639,"ĠFeSiW":9640,"ĠScAlRh":9641,"ĠVCoSb":9642,"862791":9643,"862694":9644,"865501":9645,"865506":9646,"568745":9647,"30596":9648,"30574":9649,"30536":9650,"29639":9651,"973089":9652,"1215400":9653,"865554":9654,"21273":9655,"21235":9656,"1215524":9657,"1215561":9658,"10455":9659,"10445":9660,"1228983":9661,"21021":9662,"18654":9663,"27467":9664,"30792":9665,"12259":9666,"1206157":9667,"1025375":9668,"ĠSMnZn":9669,"1208557":9670,"1208239":9671,"755633":9672,"1558":9673,"1217250":9674,"YRhZn":9675,"1226108":9676,"1104074":9677,"YPdGe":9678,"2790":9679,"11201":9680,"16358":9681,"CaNiGe":9682,"850049":9683,"1883":9684,"19855":9685,"1187952":9686,"862711":9687,"1025573":9688,"CaHgSn":9689,"567752":9690,"1070151":9691,"28353":9692,"1215971":9693,"1226718":9694,"1183654":9695,"865650":9696,"ĠHfZrW":9697,"1078012":9698,"ĠCaBiAu":9699,"HfZrW":9700,"ĠMnGaFe":9701,"1104372":9702,"22642":9703,"1404":9704,"505528":9705,"18063":9706,"22481":9707,"684798":9708,"1218327":9709,"1103176":9710,"1057273":9711,"HfRhGe":9712,"865840":9713,"865878":9714,"1079600":9715,"30952":9716,"ZrNiH":9717,"1106227":9718,"1077978":9719,"972373":9720,"864754":9721,"11578":9722,"1196514":9723,"1206374":9724,"1224823":9725,"ĠGaGePt":9726,"NbRuP":9727,"971754":9728,"1077453":9729,"32913":9730,"1194073":9731,"1102167":9732,"1225059":9733,"867922":9734,"784631":9735,"966800":9736,"IrRhAl":9737,"574338":9738,"23870":9739,"1103310":9740,"1212435":9741,"1147746":9742,"961653":9743,"867264":9744,"27513":9745,"1220009":9746,"ĠZnCdAu":9747,"956096":9748,"1226445":9749,"1210567":9750,"1078326":9751,"1079042":9752,"557643":9753,"1224067":9754,"1070391":9755,"990232":9756,"1190583":9757,"646824":9758,"38511":9759,"667294":9760,"1210697":9761,"555763":9762,"1473":9763,"2699":9764,"380":9765,"507":9766,"582":9767,"650":9768,"7524":9769,"879":9770,"8219":9771,"948":9772,"KNi":9773,"KZnAs":9774,"SCuS":9775,"VMnAs":9776,"ĠSAu":9777,"ĠNW":9778,"ĠPMoP":9779,"ĠInHg":9780,"ĠInBiSe":9781,"ĠHfScSi":9782,"ĠZrTiS":9783,"2089":9784,"2056":9785,"20132":9786,"20935":9787,"20536":9788,"FeOs":9789,"ĠSeSbPt":9790,"ĠYV":9791,"ĠTaCr":9792,"ĠTaNbMo":9793,"TiRuSi":9794,"TiIrSi":9795,"ĠZnSnP":9796,"InSb":9797,"AsSb":9798,"NiN":9799,"ĠGeGaGe":9800,"ĠCoBi":9801,"ĠFeCoSb":9802,"PtCu":9803,"10939":9804,"109785":9805,"ĠSrSnP":9806,"ĠAgMo":9807,"1266":9808,"1237":9809,"121223":9810,"12699":9811,"RhNi":9812,"RhSbS":9813,"ZnSnP":9814,"CuW":9815,"CuPd":9816,"ZrV":9817,"ZrFe":9818,"ZrIrAs":9819,"SnCu":9820,"SnHf":9821,"HfMnAl":9822,"HfOsSi":9823,"HfNiSb":9824,"HfWSi":9825,"HfMoGe":9826,"HfTiFe":9827,"5408":9828,"5421":9829,"ĠBiPt":9830,"IrBiS":9831,"IrCuZn":9832,"11466":9833,"11814":9834,"11513":9835,"NbFe":9836,"NbIn":9837,"NbNiSi":9838,"NbGeAs":9839,"6903":9840,"TaMoS":9841,"TaMnSi":9842,"TaPtSi":9843,"5054":9844,"ScCo":9845,"ScAlGe":9846,"ScPtGe":9847,"ScNiGa":9848,"ScCrMn":9849,"5563":9850,"1602":9851,"2210":9852,"22204":9853,"22444":9854,"22817":9855,"CrOs":9856,"CrRe":9857,"CrZrAl":9858,"CaAl":9859,"1521":9860,"15700":9861,"15656":9862,"15651":9863,"ĠTlNi":9864,"BiSbTe":9865,"8621":9866,"8630":9867,"4771":9868,"Ġmonox":9869,"ĠCsV":9870,"ĠCsAs":9871,"ĠCsAu":9872,"4667":9873,"234":9874,"23714":9875,"23214":9876,"SrHfN":9877,"SrAgAl":9878,"OsFe":9879,"OsSbS":9880,"6615":9881,"4560":9882,"656615":9883,"1950":9884,"HgPb":9885,"684560":9886,"7250":9887,"4131":9888,"1874":9889,"TlCu":9890,"TlBi":9891,"632319":9892,"639755":9893,"1321":9894,"617291":9895,"8712":9896,"906903":9897,"3245":9898,"ĠAlTiCu":9899,"2667":9900,"2642":9901,"9922":9902,"17813":9903,"30092":9904,"30479":9905,"28800":9906,"RbPbCl":9907,"120279":9908,"1105850":9909,"CsAg":9910,"1181237":9911,"10940":9912,"10977":9913,"ĠTiAlIr":9914,"11445":9915,"1216867":9916,"1216296":9917,"1216463":9918,"11609":9919,"1220089":9920,"10286":9921,"1183232":9922,"1183158":9923,"1186137":9924,"1186142":9925,"11958":9926,"1198712":9927,"867156":9928,"867928":9929,"1187464":9930,"1187208":9931,"1187432":9932,"1187095":9933,"1215336":9934,"1215627":9935,"1219462":9936,"1224871":9937,"1224331":9938,"1224401":9939,"1224495":9940,"1217229":9941,"1217228":9942,"1217093":9943,"1221413":9944,"22275":9945,"1188159":9946,"ĠNZrSc":9947,"ĠSiPH":9948,"ĠCdAsPt":9949,"ĠBiTeIr":9950,"ĠCrTaN":9951,"1078544":9952,"10009":9953,"ĠNTaCr":9954,"1186933":9955,"1186902":9956,"ĠScGaRh":9957,"ĠScGaRu":9958,"ĠSeBiPt":9959,"1184804":9960,"1184548":9961,"10307":9962,"1189474":9963,"1189342":9964,"ĠTeBiIr":9965,"1007976":9966,"862691":9967,"862679":9968,"862630":9969,"974435":9970,"ĠZrAsIr":9971,"ĠClKNa":9972,"568476":9973,"30595":9974,"1224306":9975,"1224346":9976,"ĠTeSnBi":9977,"571555":9978,"571424":9979,"571537":9980,"1186040":9981,"1207421":9982,"1207893":9983,"1105851":9984,"972895":9985,"1215429":9986,"865586":9987,"1220396":9988,"1220392":9989,"1220390":9990,"1009130":9991,"866218":9992,"1103248":9993,"1215346":9994,"10294":9995,"10297":9996,"1029921":9997,"ĠSSnPb":9998,"1215586":9999,"ĠPSiP":10000,"1102836":10001,"1102732":10002,"1102658":10003,"1228908":10004,"CuAlS":10005,"1225811":10006,"1025311":10007,"1247450":10008,"15514":10009,"980109":10010,"980665":10011,"1228126":10012,"1228713":10013,"1228701":10014,"HfIrGe":10015,"865496":10016,"1217293":10017,"1217270":10018,"1104825":10019,"1104406":10020,"YPdGa":10021,"541837":10022,"867352":10023,"SiPN":10024,"YAgS":10025,"YAgSn":10026,"31002":10027,"983850":10028,"ĠSeSnPt":10029,"ĠCdPCl":10030,"ĠAlSiMo":10031,"FeCoSb":10032,"NbPSe":10033,"1184721":10034,"1079951":10035,"28878":10036,"ĠSCaTi":10037,"TaFeGe":10038,"1102307":10039,"1102348":10040,"ScHfSi":10041,"23269":10042,"HfPtAl":10043,"1205322":10044,"1095449":10045,"ĠSbSbPd":10046,"849060":10047,"567769":10048,"568380":10049,"PdAgHf":10050,"1227330":10051,"28256":10052,"28304":10053,"17146":10054,"1103031":10055,"24289":10056,"865654":10057,"504425":10058,"ĠHfZrS":10059,"ĠHfZrTc":10060,"HfZrTc":10061,"ĠMnGaIr":10062,"1401":10063,"1179802":10064,"1215268":10065,"18026":10066,"627601":10067,"977383":10068,"1219323":10069,"PtCdAsPt":10070,"27647":10071,"1101789":10072,"YPtSn":10073,"542613":10074,"1218362":10075,"1218359":10076,"1023940":10077,"1103196":10078,"1183471":10079,"1224488":10080,"865948":10081,"1079695":10082,"PbTePbS":10083,"669546":10084,"1019576":10085,"1013558":10086,"1095643":10087,"1224950":10088,"31383":10089,"1102833":10090,"1102841":10091,"16842":10092,"1225731":10093,"9882":10094,"1095253":10095,"568018":10096,"1087488":10097,"1087486":10098,"33018":10099,"1218893":10100,"1179656":10101,"1105778":10102,"974943":10103,"541609":10104,"ĠAlGaIr":10105,"568971":10106,"ĠPCuSnP":10107,"ĠVGaRu":10108,"1246392":10109,"ĠGaCuRh":10110,"1227418":10111,"1194643":10112,"ZrWCr":10113,"862485":10114,"1071127":10115,"1207843":10116,"1103317":10117,"20868":10118,"ĠSeGaMo":10119,"1219457":10120,"1228032":10121,"571383":10122,"1228562":10123,"1018812":10124,"542239":10125,"ĠTiInPd":10126,"1197242":10127,"1105040":10128,"972941":10129,"945077":10130,"685149":10131,"995122":10132,"1188512":10133,"684969":10134,"1217087":10135,"1208554":10136,"1247199":10137,"25469":10138,"619071":10139,"1070755":10140,"1077599":10141,"1066718":10142,"560588":10143,"1224642":10144,"510321":10145,"1076981":10146,"1093991":10147,"1097859":10148,"1212231":10149,"556395":10150,"Ġmonoxide":10151,"1202791":10152,"3539":10153,"3804":10154,"5862":10155,"5544":10156,"5541":10157,"5818":10158,"6856":10159,"6465":10160,"7549":10161,"7162":10162,"877":10163,"907":10164,"9889":10165,"9961":10166,"9857":10167,"KSbSe":10168,"KCaCl":10169,"STl":10170,"VMnP":10171,"YCoSi":10172,"YReN":10173,"ĠNSb":10174,"ĠPTa":10175,"ĠAlCN":10176,"ĠHfTc":10177,"20192":10178,"20473":10179,"ĠGaSiRu":10180,"FeNiAl":10181,"FeMoSi":10182,"ĠNbCoTe":10183,"ĠYMn":10184,"TiRhSi":10185,"TiMnN":10186,"PdZrAl":10187,"InGe":10188,"ĠGeTa":10189,"8053":10190,"8045":10191,"1047":10192,"105708":10193,"10159":10194,"10968":10195,"ĠMnNiSb":10196,"ĠSrPdSn":10197,"GaH":10198,"12464":10199,"12456":10200,"CuFe":10201,"SnPd":10202,"SnHg":10203,"HfRhSi":10204,"HfMnSi":10205,"HfMnGe":10206,"6743":10207,"6760":10208,"6763":10209,"3304":10210,"5486":10211,"5423":10212,"CoRe":10213,"4316":10214,"4364":10215,"RuSbS":10216,"11713":10217,"NbSeS":10218,"NbCoTe":10219,"NbMoSi":10220,"NbCoSb":10221,"4276":10222,"5045":10223,"5581":10224,"2242":10225,"2231":10226,"22853":10227,"CrCu":10228,"CaPdSn":10229,"15895":10230,"MnPt":10231,"MnFeSi":10232,"ĠTlCu":10233,"CdC":10234,"BiPd":10235,"21895":10236,"8666":10237,"8634":10238,"ĠCsTi":10239,"028":10240,"571079":10241,"753304":10242,"SrFe":10243,"SrNiSi":10244,"SrPdSn":10245,"SrZrS":10246,"OsNiAl":10247,"OsSbTe":10248,"OsAsP":10249,"669692":10250,"1912":10251,"2447":10252,"ReCo":10253,"4485":10254,"HgAs":10255,"HgSn":10256,"604":10257,"NaCrS":10258,"NaSbS":10259,"NaSbSe":10260,"NaFeAs":10261,"417":10262,"6490":10263,"TlV":10264,"4990":10265,"29174":10266,"29072":10267,"34202":10268,"4840":10269,"13472":10270,"9268":10271,"9942":10272,"9985":10273,"3896":10274,"30557":10275,"30028":10276,"28424":10277,"31460":10278,"11045":10279,"1105716":10280,"CsCaCl":10281,"CsSrCl":10282,"10970":10283,"12277":10284,"1216173":10285,"1216148":10286,"ĠNbSeS":10287,"1220436":10288,"1220413":10289,"1220748":10290,"10288":10291,"10284":10292,"10261":10293,"1183503":10294,"1183155":10295,"1183187":10296,"569280":10297,"569247":10298,"569708":10299,"ĠHfAlRu":10300,"1187430":10301,"1187434":10302,"1187531":10303,"1187427":10304,"ĠFeSbRh":10305,"1219296":10306,"1219800":10307,"1219258":10308,"1224850":10309,"1224978":10310,"1217024":10311,"1221555":10312,"1221431":10313,"30834":10314,"30826":10315,"1080518":10316,"ĠZnPPd":10317,"11887":10318,"1188762":10319,"ĠTiPN":10320,"1078100":10321,"1078782":10322,"10033":10323,"1223802":10324,"10654":10325,"1068053":10326,"ĠCoNbSb":10327,"10877":10328,"10312":10329,"12780":10330,"ĠTiGaRu":10331,"ĠCdTeSe":10332,"ĠYGePt":10333,"862695":10334,"862604":10335,"865093":10336,"30592":10337,"1224386":10338,"29618":10339,"973676":10340,"1105077":10341,"12383":10342,"1218052":10343,"1188079":10344,"15669":10345,"1215491":10346,"1229118":10347,"1229101":10348,"979259":10349,"1069139":10350,"1220377":10351,"1009152":10352,"866094":10353,"1103213":10354,"1103434":10355,"1215302":10356,"1215366":10357,"1029330":10358,"1215529":10359,"999052":10360,"21096":10361,"30708":10362,"1225835":10363,"1206152":10364,"1206853":10365,"1206898":10366,"1208235":10367,"1208400":10368,"755169":10369,"TiMoRe":10370,"1228801":10371,"865448":10372,"865490":10373,"865494":10374,"865495":10375,"865499":10376,"FeSbSe":10377,"FeSbTe":10378,"1193848":10379,"20001":10380,"ScCuGa":10381,"CoPSe":10382,"11207":10383,"864980":10384,"864909":10385,"864916":10386,"864953":10387,"31040":10388,"983445":10389,"PdAuZn":10390,"1217180":10391,"1217191":10392,"1078696":10393,"RuIrAl":10394,"ĠCdPPd":10395,"1218558":10396,"1103256":10397,"571038":10398,"1184755":10399,"21681":10400,"ĠHfZnCu":10401,"1079946":10402,"1102373":10403,"CuGaSe":10404,"1025258":10405,"5221":10406,"ĠMnAlRu":10407,"ĠNbZnRh":10408,"1185935":10409,"570689":10410,"28910":10411,"865026":10412,"1078813":10413,"11474":10414,"972236":10415,"1215949":10416,"1103012":10417,"1226716":10418,"1226728":10419,"1183641":10420,"616026":10421,"ĠTiCuNi":10422,"865615":10423,"SrPtSn":10424,"19740":10425,"504825":10426,"975079":10427,"FeAsTe":10428,"ĠCuSbRh":10429,"1104010":10430,"567996":10431,"985829":10432,"1191713":10433,"14017":10434,"989613":10435,"1217357":10436,"1179094":10437,"861656":10438,"861641":10439,"1224765":10440,"567313":10441,"864831":10442,"YPtIn":10443,"1245699":10444,"1245848":10445,"MoRhPd":10446,"HfRhGa":10447,"865989":10448,"865842":10449,"1190478":10450,"1187444":10451,"17875":10452,"571266":10453,"1077942":10454,"555293":10455,"16044":10456,"1207193":10457,"1224840":10458,"1028441":10459,"1226323":10460,"1102926":10461,"861983":10462,"569683":10463,"1103618":10464,"1179693":10465,"1066445":10466,"1187511":10467,"865232":10468,"568936":10469,"1226290":10470,"612701":10471,"ZrRuP":10472,"18561":10473,"31277":10474,"ĠZrSnPd":10475,"974411":10476,"1079842":10477,"1104956":10478,"1213747":10479,"1069811":10480,"1078242":10481,"1223820":10482,"867753":10483,"867779":10484,"672645":10485,"1226933":10486,"1228524":10487,"1009657":10488,"1102288":10489,"1197287":10490,"27195":10491,"862871":10492,"685146":10493,"1181926":10494,"1245445":10495,"866375":10496,"1189957":10497,"991656":10498,"570112":10499,"554405":10500,"554134":10501,"685605":10502,"646507":10503,"754954":10504,"985782":10505,"1057086":10506,"676038":10507,"558110":10508,"866659":10509,"649033":10510,"1714":10511,"2164":10512,"3498":10513,"4500":10514,"5090":10515,"5168":10516,"620":10517,"623":10518,"6444":10519,"616481":10520,"720":10521,"722":10522,"7422":10523,"810":10524,"996":10525,"922":10526,"970":10527,"918":10528,"HN":10529,"KN":10530,"KV":10531,"KTiS":10532,"PCa":10533,"YAlGe":10534,"YCoAl":10535,"hl":10536,"ÃĮ":10537,"Ġchl":10538,"orate":10539,"âĢ¦":10540,"ĠNPCa":10541,"ĠInGaAs":10542,"ĠAlPS":10543,"ĠRÃĮ":10544,"ĠTiFeSb":10545,"ĠTiVSe":10546,"AlTi":10547,"AlAg":10548,"AlCd":10549,"ĠHfSeS":10550,"ĠHfScGe":10551,"ĠHfTiRu":10552,"ĠCaGaN":10553,"ĠPtTl":10554,"ĠGaH":10555,"FeSn":10556,"ĠVCrFe":10557,"ĠNbW":10558,"ĠNbFeTe":10559,"SeTa":10560,"ĠCuMn":10561,"ĠTaWSe":10562,"ĠTaTiTe":10563,"ĠTaTiRu":10564,"TiMoS":10565,"TiFeSi":10566,"TiTaRu":10567,"ĠZnGe":10568,"ĠZnRu":10569,"ĠZnHgTe":10570,"ĠAsHg":10571,"InGaAs":10572,"NiCr":10573,"NiMn":10574,"ĠTeHf":10575,"PtSeS":10576,"PtSnS":10577,"PtYAl":10578,"ĠSbSrSn":10579,"1016":10580,"10678":10581,"10887":10582,"ĠMnRh":10583,"ĠMnCd":10584,"ĠSrCuSi":10585,"GaHf":10586,"ĠNaCaTl":10587,"ĠNaSrHg":10588,"GeZn":10589,"SbBiSbTe":10590,"ĠAgSbSe":10591,"12106":10592,"12697":10593,"12678":10594,"12826":10595,"12627":10596,"RhPdZn":10597,"CuInSe":10598,"CuZrGe":10599,"tass":10600,"ĠKN":10601,"ĠKV":10602,"ĠKTi":10603,"ĠKTiS":10604,"ZrTi":10605,"ZrMnSi":10606,"ZrNbP":10607,"ZrFeAs":10608,"ZrMnFe":10609,"HfSiS":10610,"HfMoAl":10611,"HfTiRu":10612,"AgPb":10613,"6727":10614,"541062":10615,"CoCr":10616,"RuAu":10617,"RuNiGa":10618,"9617":10619,"1139":10620,"11567":10621,"11824":10622,"NbWS":10623,"NbInS":10624,"NbFeTe":10625,"TaNiAs":10626,"TaInS":10627,"TaMoNi":10628,"ScPtZn":10629,"5592":10630,"16501":10631,"16491":10632,"ĠRbGe":10633,"ĠRbNa":10634,"2295":10635,"22691":10636,"22258":10637,"22631":10638,"CrCo":10639,"CrMnSi":10640,"CaGaN":10641,"MnNiP":10642,"ĠTlPt":10643,"7187":10644,"BiN":10645,"BiCl":10646,"21710":10647,"861672":10648,"527":10649,"2371":10650,"23157":10651,"572":10652,"7582":10653,"SrZr":10654,"SrVN":10655,"SrCuSi":10656,"OsCo":10657,"8308":10658,"8300":10659,"1982":10660,"19728":10661,"2418":10662,"24208":10663,"7908":10664,"7945":10665,"7918":10666,"ReCl":10667,"5603":10668,"8170":10669,"HgZnTe":10670,"603":10671,"NaCaTl":10672,"NaSrHg":10673,"7770":10674,"18670":10675,"TlSb":10676,"5841":10677,"29828":10678,"29487":10679,"29736":10680,"1379":10681,"14500":10682,"9040":10683,"3274":10684,"3276":10685,"32669":10686,"32868":10687,"ĠAlTiNi":10688,"3740":10689,"2650":10690,"17964":10691,"17639":10692,"30418":10693,"30086":10694,"28128":10695,"RbPb":10696,"1201":10697,"12088":10698,"12061":10699,"1209791":10700,"1208308":10701,"1205841":10702,"1102705":10703,"1101109":10704,"CsAuCl":10705,"1091415":10706,"ĠTiAlFe":10707,"ĠTiAlRu":10708,"12266":10709,"ĠTiSiPt":10710,"1216222":10711,"1216166":10712,"1216327":10713,"1216513":10714,"1216563":10715,"10755":10716,"ĠVSiTc":10717,"1220418":10718,"1220441":10719,"1220081":10720,"1220525":10721,"1220663":10722,"1183542":10723,"1079110":10724,"1079112":10725,"1079155":10726,"1079278":10727,"569175":10728,"ĠHfAlCu":10729,"ĠSrPPt":10730,"1187461":10731,"567484":10732,"567927":10733,"1215208":10734,"1215634":10735,"1215338":10736,"1215295":10737,"1215639":10738,"1219003":10739,"1219748":10740,"1219720":10741,"1224464":10742,"1224169":10743,"1224337":10744,"1224451":10745,"1224435":10746,"1224805":10747,"1224425":10748,"1224402":10749,"1217205":10750,"1217791":10751,"1217968":10752,"1221675":10753,"1221402":10754,"ĠZrGaCo":10755,"1080760":10756,"1080073":10757,"1188693":10758,"ĠCdAsPd":10759,"ĠRhAsP":10760,"1078464":10761,"1078107":10762,"1078729":10763,"1078402":10764,"1078767":10765,"1223834":10766,"1068300":10767,"ĠYInPd":10768,"ĠZrInPt":10769,"570801":10770,"PSOs":10771,"ĠSTiCr":10772,"ĠCoTeSe":10773,"ĠInPPd":10774,"11890":10775,"ĠYSnRh":10776,"1245417":10777,"862548":10778,"ĠNbAlOs":10779,"865960":10780,"865807":10781,"568402":10782,"1077939":10783,"1077470":10784,"1025161":10785,"1224377":10786,"29602":10787,"1207828":10788,"1207805":10789,"973983":10790,"1218034":10791,"1218026":10792,"CoNiAl":10793,"1188052":10794,"1188000":10795,"15657":10796,"1215412":10797,"1215462":10798,"1229100":10799,"1229090":10800,"979288":10801,"1069956":10802,"865569":10803,"865518":10804,"1220344":10805,"ĠSKBi":10806,"1246856":10807,"1246556":10808,"866219":10809,"1103123":10810,"1103826":10811,"1103235":10812,"1215371":10813,"1215382":10814,"ĠTaGaFe":10815,"1029531":10816,"1102534":10817,"1102603":10818,"1228909":10819,"1228913":10820,"27488":10821,"22904":10822,"1225676":10823,"MnAlTi":10824,"1206674":10825,"1206964":10826,"1206239":10827,"AlSiP":10828,"755988":10829,"ĠPotass":10830,"TiMoSb":10831,"1228758":10832,"865486":10833,"865472":10834,"1217254":10835,"YRhSi":10836,"11938":10837,"1193918":10838,"861935":10839,"1226441":10840,"SnPSe":10841,"CaCuGa":10842,"YPdIn":10843,"NiAlHf":10844,"977115":10845,"864988":10846,"31011":10847,"31055":10848,"1217967":10849,"1217923":10850,"16356":10851,"CaNiN":10852,"1217145":10853,"YCuTe":10854,"ĠTeCdHg":10855,"13911":10856,"ĠTaZnRu":10857,"1014252":10858,"ĠInAsP":10859,"1187920":10860,"1187921":10861,"ĠHfZnPd":10862,"28832":10863,"ĠCaSnRh":10864,"1216457":10865,"1025550":10866,"ScHfGe":10867,"12585":10868,"1226011":10869,"1095478":10870,"972042":10871,"1025294":10872,"1216612":10873,"1216683":10874,"849082":10875,"976236":10876,"1216347":10877,"1185099":10878,"1227335":10879,"1227096":10880,"1227463":10881,"CaAuIn":10882,"CaAuGe":10883,"865027":10884,"680339":10885,"YAuCd":10886,"972241":10887,"22154":10888,"SrPtP":10889,"1218931":10890,"ĠInAgSe":10891,"FeTiSb":10892,"674456":10893,"ĠVZnRu":10894,"TiNiGe":10895,"ĠMnGaRh":10896,"MoSiHf":10897,"7930":10898,"1184560":10899,"542730":10900,"505531":10901,"10564":10902,"1056486":10903,"1215275":10904,"862364":10905,"977347":10906,"18388":10907,"864839":10908,"1217418":10909,"684744":10910,"1100786":10911,"TiWTc":10912,"23193":10913,"542614":10914,"21525":10915,"866155":10916,"1023942":10917,"1217020":10918,"865810":10919,"865877":10920,"20145":10921,"21875":10922,"ScPdGe":10923,"31381":10924,"2402":10925,"570452":10926,"1221529":10927,"1077354":10928,"1102844":10929,"1216784":10930,"1184299":10931,"PdNiGe":10932,"1095240":10933,"29035":10934,"541885":10935,"1087485":10936,"1087487":10937,"637052":10938,"861908":10939,"1218865":10940,"29381":10941,"1206296":10942,"1238845":10943,"1238878":10944,"685155":10945,"ĠHfSnRu":10946,"1216913":10947,"865278":10948,"865234":10949,"ScPtSn":10950,"1192706":10951,"1246302":10952,"31294":10953,"568880":10954,"1207419":10955,"1207418":10956,"1227450":10957,"ĠAsPRh":10958,"1180961":10959,"1104167":10960,"1104974":10961,"8468":10962,"1220455":10963,"675590":10964,"1101092":10965,"571143":10966,"604914":10967,"1096832":10968,"1069533":10969,"540922":10970,"644500":10971,"1217815":10972,"1217821":10973,"1228043":10974,"1018891":10975,"542816":10976,"11598":10977,"1221395":10978,"556516":10979,"867507":10980,"866296":10981,"1218268":10982,"1246521":10983,"1245988":10984,"1195198":10985,"1188531":10986,"1194040":10987,"1103984":10988,"1225290":10989,"1247457":10990,"863261":10991,"1218586":10992,"676241":10993,"1208721":10994,"1068587":10995,"24517":10996,"568483":10997,"1219661":10998,"582549":10999,"540884":11000,"1097716":11001,"Ġchlorate":11002,"ĠZnGeRh":11003,"1067880":11004,"1210618":11005,"672706":11006,"961706":11007,"559278":11008,"ĠPotassium":11009,")(":11010,"262":11011,"263":11012,"2730":11013,"2152":11014,"369":11015,"358":11016,"3999":11017,"4889":11018,"4852":11019,"4824":11020,"509":11021,"5157":11022,"510285":11023,"6113":11024,"6969":11025,"6426":11026,"6400":11027,"6404":11028,"709":11029,"820":11030,"9124":11031,"9198":11032,"9538":11033,"9463":11034,"9225":11035,"KAuS":11036,"YPS":11037,"YAsSe":11038,"YCoIn":11039,"ca":11040,"Ġber":11041,"Ġboride":11042,"ĠNCu":11043,"ĠNCd":11044,"ĠPCuSi":11045,"lia":11046,"ĠAlGaP":11047,"ĠSiAgPt":11048,"ĠHfNbTc":11049,"ĠHfInPt":11050,"ĠZrNbAl":11051,"ĠZrNiSn":11052,"20083":11053,"20479":11054,"20838":11055,"FeNiS":11056,"FeNiAs":11057,"FeCoAs":11058,"ĠNbRuSb":11059,"ĠNbSnRu":11060,"SiMo":11061,"ĠTaFe":11062,"ĠTaTc":11063,"ĠTaTiNi":11064,"ĠScVRu":11065,"ĠScTaTc":11066,"TiZr":11067,"TiSeS":11068,"TiTaNi":11069,"ĠZnSnRh":11070,"ĠZnSnAs":11071,"AsTiZr":11072,"NiMo":11073,"NiMoP":11074,"ĠCoNiSe":11075,"yllia":11076,"PtAsP":11077,"10098":11078,"10866":11079,"10456":11080,"10441":11081,"ĠMnHg":11082,"ĠSrGa":11083,"ĠSrCu":11084,"ĠSrCaHg":11085,"SbAu":11086,"ĠAgSbS":11087,"1238":11088,"12221":11089,"1212189":11090,"121259":11091,"12537":11092,"12759":11093,"12962":11094,"RhPS":11095,"ZnNi":11096,"CuAg":11097,"CuZrAl":11098,"ĠKZr":11099,"ĠKCr":11100,"ĠKNbCl":11101,"MoFe":11102,"MoCoP":11103,"ZrGeS":11104,"ZrCuGa":11105,"ZrMnGa":11106,"ZrZnN":11107,"ZrPdSi":11108,"ZrIrAl":11109,"ZrTiAu":11110,"ZrVNi":11111,"ZrVW":11112,"ZrNbAl":11113,"ZrOsGe":11114,"HfCuAl":11115,"HfMnP":11116,"HfRuSb":11117,"HfNbTc":11118,"AgGaS":11119,"67233":11120,"CoFe":11121,"RuPtGa":11122,"RuCoGa":11123,"IrPt":11124,"IrCoAl":11125,"11928":11126,"11639":11127,"NbRuSb":11128,"NbIrGe":11129,"NbVP":11130,"4253":11131,"6987":11132,"TaCuS":11133,"TaCoGe":11134,"5065":11135,"0869":11136,"ScCoSi":11137,"ScPtSi":11138,"ScTlTe":11139,"ScVRu":11140,"ScTaTc":11141,"16495":11142,"16497":11143,"ĠReY":11144,"2261":11145,"22717":11146,"22295":11147,"CrBi":11148,"CrMnAl":11149,"CrMnP":11150,"CaRu":11151,"CaPS":11152,"CaRhSn":11153,"CaIrSi":11154,"CaCrN":11155,"CaHfN":11156,"CaGeN":11157,"15120":11158,"MnHg":11159,"MnCoAl":11160,"MnGaGe":11161,"CdGeP":11162,"8645":11163,"861507":11164,"4061":11165,"061":11166,"ĠCsK":11167,"ĠCsCo":11168,"ĠCsSrCl":11169,"7499":11170,"8276":11171,"9305":11172,"9391":11173,"SrMn":11174,"SrPdH":11175,"SrCaHg":11176,"OsCoAl":11177,"TcMnAl":11178,"1944":11179,"ReMn":11180,"8147":11181,"601326":11182,"NaTa":11183,"NaNbS":11184,"NaZnP":11185,"NaBiSe":11186,"18127":11187,"18104":11188,"4997":11189,"639910":11190,"2949":11191,"29156":11192,"29866":11193,"29804":11194,"29153":11195,"29073":11196,"3419":11197,"1374":11198,"13962":11199,"975065":11200,"8446":11201,"9254":11202,"32884":11203,"ĠAlTiCo":11204,"3602":11205,"9906":11206,"27630":11207,"982261":11208,"28339":11209,"31456":11210,"1204061":11211,"1203419":11212,"11008":11213,"11047":11214,"1101887":11215,"CsMo":11216,"10991":11217,"ĠTiAlOs":11218,"2337":11219,"23304":11220,"1216112":11221,"1216179":11222,"1216678":11223,"1216247":11224,"1216128":11225,"1216081":11226,"1216193":11227,"1216017":11228,"1216057":11229,"10716":11230,"1070869":11231,"ĠAlScCu":11232,"1220426":11233,"1220795":11234,"1220597":11235,"1220944":11236,"10274":11237,"1183456":11238,"1183837":11239,"1183246":11240,"1079863":11241,"1079508":11242,"569310":11243,"569267":11244,"ĠHfAlFe":11245,"ĠHfAlIr":11246,"1186233":11247,"1186117":11248,"1186162":11249,"11959":11250,"1191953":11251,"1192507":11252,"867137":11253,"867331":11254,"1187939":11255,"1187096":11256,"1187429":11257,"1187225":11258,"1187238":11259,"1215279":11260,"1215169":11261,"1215216":11262,"1215203":11263,"1215221":11264,"1215751":11265,"1215194":11266,"1219799":11267,"1219262":11268,"1224116":11269,"1224456":11270,"1224893":11271,"1217096":11272,"1217832":11273,"1217076":11274,"1217251":11275,"ĠZrAlRu":11276,"1221714":11277,"1221673":11278,"1221487":11279,"1221731":11280,"22267":11281,"22216":11282,"22287":11283,"1018802":11284,"1080495":11285,"1080509":11286,"ĠZnPPt":11287,"1188208":11288,"ĠSeInAg":11289,"1078231":11290,"1078756":11291,"1078708":11292,"ĠNTaZn":11293,"1223807":11294,"10688":11295,"1068653":11296,"1186988":11297,"ĠScAlIr":11298,"ĠScGeRh":11299,"ĠIbca":11300,"ĠHfSiSe":11301,"ĠHfSiRu":11302,"ĠAsTeRh":11303,"11350":11304,"10843":11305,"ĠTiZnCo":11306,"ĠTiZnIr":11307,"ĠRuSbHf":11308,"12783":11309,"13240":11310,"CaSiN":11311,"ĠAgPPd":11312,"ĠAlAsPt":11313,"865094":11314,"865898":11315,"568121":11316,"30570":11317,"30312":11318,"1025224":11319,"1025187":11320,"ĠTiNiSn":11321,"2960":11322,"29623":11323,"10596":11324,"1207463":11325,"1207079":11326,"ĠTiMoP":11327,"973053":11328,"973066":11329,"1105830":11330,"1218008":11331,"1218049":11332,"1218061":11333,"1218037":11334,"1218028":11335,"CoNiSe":11336,"CoNiSb":11337,"13314":11338,"15652":11339,"ĠScInPd":11340,"1215478":11341,"1215448":11342,"1215490":11343,"1229023":11344,"1229062":11345,"TiAlCr":11346,"865585":11347,"865591":11348,"ĠSiCoSi":11349,"1220347":11350,"1220382":11351,"1220364":11352,"1220318":11353,"28024":11354,"1009222":11355,"12466":11356,"1246504":11357,"866062":11358,"1103166":11359,"1103414":11360,"1215318":11361,"1215327":11362,"30493":11363,"1029799":11364,"1029246":11365,"1215533":11366,"1215575":11367,"ZrRhGa":11368,"ĠZrZnN":11369,"1102531":11370,"1102525":11371,"1102537":11372,"1102524":11373,"1228912":11374,"ĠMnZnTe":11375,"1225183":11376,"1206424":11377,"1025306":11378,"755263":11379,"12470":11380,"12473":11381,"1247294":11382,"980947":11383,"TiMoP":11384,"1228856":11385,"1228792":11386,"1199930":11387,"865442":11388,"YRhGe":11389,"20268":11390,"1104960":11391,"867319":11392,"977436":11393,"977578":11394,"YAgAl":11395,"11176":11396,"864990":11397,"31053":11398,"31081":11399,"1217959":11400,"1217987":11401,"850249":11402,"1217112":11403,"1217185":11404,"1217178":11405,"YCuAs":11406,"ĠCdPPt":11407,"1218335":11408,"1218331":11409,"1218330":11410,"1218414":11411,"NbRhP":11412,"13993":11413,"ĠAlSiRu":11414,"ĠYZnPd":11415,"697076":11416,"1103261":11417,"571035":11418,"ĠSeCuPd":11419,"ĠTeMnHg":11420,"1014244":11421,"1209130":11422,"1187911":11423,"ĠHNaPd":11424,"862721":11425,"862778":11426,"SrZnBi":11427,"20389":11428,"ĠVGeRu":11429,"1216450":11430,"1216453":11431,"1216440":11432,"1025557":11433,"1228888":11434,"1228894":11435,"1226006":11436,"1226013":11437,"SrCdGa":11438,"HfPtSi":11439,"1095443":11440,"1095465":11441,"1207394":11442,"1025220":11443,"1025269":11444,"1025279":11445,"1025272":11446,"TiCrAs":11447,"ĠSPRh":11448,"849083":11449,"976184":11450,"1214851":11451,"1214838":11452,"ĠNbZnRu":11453,"1185976":11454,"PtSiSe":11455,"1070152":11456,"570687":11457,"ĠNNaSi":11458,"HfSiSe":11459,"11338":11460,"22871":11461,"865048":11462,"1078884":11463,"IrPTe":11464,"19941":11465,"680731":11466,"YAuGe":11467,"SrAuIn":11468,"1215933":11469,"FeTeFe":11470,"RhAsTe":11471,"1103034":11472,"1183608":11473,"22150":11474,"SrPtIn":11475,"1102011":11476,"7801":11477,"FeTiP":11478,"PtZnPt":11479,"1219516":11480,"1187252":11481,"1078010":11482,"1078086":11483,"1078093":11484,"1078079":11485,"1078058":11486,"1078026":11487,"1221642":11488,"1221629":11489,"YInCu":11490,"TiNiSn":11491,"1187874":11492,"1187876":11493,"1425":11494,"RhPSe":11495,"23012":11496,"1178678":11497,"1217322":11498,"1217325":11499,"29752":11500,"1179173":11501,"570293":11502,"1215270":11503,"18021":11504,"ScNiGe":11505,"PtCdPt":11506,"867878":11507,"15819":11508,"865712":11509,"865707":11510,"865779":11511,"865768":11512,"ZrGeSb":11513,"1215715":11514,"1227346":11515,"1218380":11516,"1218329":11517,"1217040":11518,"1183450":11519,"1224496":11520,"1224408":11521,"1224481":11522,"865193":11523,"865876":11524,"1079623":11525,"1079641":11526,"7066":11527,"1190672":11528,"1095502":11529,"1095505":11530,"30931":11531,"ZrNiSn":11532,"1080033":11533,"TaTeCl":11534,"1019077":11535,"1013554":11536,"13020":11537,"1205965":11538,"1095603":11539,"1208257":11540,"1221515":11541,"1221513":11542,"1221591":11543,"1077351":11544,"1219943":11545,"1219924":11546,"1216724":11547,"1224841":11548,"34232":11549,"11560":11550,"1226375":11551,"NbGeSb":11552,"30147":11553,"30183":11554,"1068157":11555,"649479":11556,"1091395":11557,"541875":11558,"1183148":11559,"NbMoNi":11560,"CuInTe":11561,"861940":11562,"1218889":11563,"1105752":11564,"1105799":11565,"643273":11566,"1206920":11567,"541622":11568,"1226258":11569,"1025728":11570,"ĠSrCaS":11571,"1106367":11572,"1106301":11573,"18567":11574,"1225013":11575,"1226120":11576,"1216045":11577,"1194660":11578,"1101948":11579,"1104155":11580,"1104926":11581,"867901":11582,"983358":11583,"1029359":11584,"1029387":11585,"675510":11586,"SrCaS":11587,"604910":11588,"GeCCr":11589,"556225":11590,"1212900":11591,"1191026":11592,"1223908":11593,"ĠZnGaCo":11594,"1213756":11595,"976584":11596,"1079260":11597,"1245524":11598,"1245537":11599,"1018811":11600,"ĠSePRh":11601,"ĠZnCdPt":11602,"1246957":11603,"1246975":11604,"982870":11605,"1227562":11606,"1224560":11607,"581733":11608,"SrNiIn":11609,"1185042":11610,"924129":11611,"924130":11612,"995201":11613,"1184318":11614,"1194003":11615,"1078483":11616,"504772":11617,"864840":11618,"1217088":11619,"1019319":11620,"1215689":11621,"863250":11622,"984352":11623,"553973":11624,"862336":11625,"574138":11626,"1103757":11627,"1103724":11628,"1191625":11629,"1191644":11630,"3668":11631,"621960":11632,"1220742":11633,"1193397":11634,"505297":11635,"556742":11636,"1102743":11637,"982370":11638,"642845":11639,"1216519":11640,"1225993":11641,"ZrVCu":11642,"1246496":11643,"36988":11644,"611341":11645,"642644":11646,"640416":11647,"912440":11648,"Ġberyllia":11649,"1086669":11650,"1212597":11651,"672335":11652,".(":11653,"1498":11654,"21069":11655,"2932":11656,"386":11657,"3791":11658,"3241":11659,"3479":11660,"3732":11661,"3587":11662,"31507":11663,"4828":11664,"4404":11665,"5122":11666,"5659":11667,"614":11668,"6693":11669,"7505":11670,"7792":11671,"843":11672,"8126":11673,"9894":11674,"9248":11675,"CS":11676,"HV":11677,"HPd":11678,"KCdSb":11679,"KAlTe":11680,"PVS":11681,"VMoAs":11682,"VFeAs":11683,"VMoSi":11684,"YRuSi":11685,"YCoSn":11686,"YFeNi":11687,"YScN":11688,"YZrSb":11689,"ad":11690,"beta":11691,"yite":11692,"leyite":11693,"ĠCri":11694,"ĠCNi":11695,"stob":11696,"ĠInSnSe":11697,"ĠInCuSe":11698,"ĠAlZnCu":11699,"ĠTiSnPt":11700,"ĠTiReTc":11701,"ĠTiVTc":11702,"ĠTiVRe":11703,"ĠNiSrSn":11704,"AlS":11705,"AlHf":11706,"AlRu":11707,"AlPb":11708,"AlPS":11709,"ĠSiSnPt":11710,"ĠSiSnPd":11711,"ĠHfFe":11712,"ĠHfScRu":11713,"ĠHfScOs":11714,"ĠZrSnRh":11715,"ĠZrScTc":11716,"ĠZrScOs":11717,"ĠCaMo":11718,"ĠCaGaSi":11719,"20506":11720,"20817":11721,"ĠGaFeCo":11722,"ĠBad":11723,"FeZr":11724,"FeTiH":11725,"FeGaGe":11726,"FeTaTe":11727,"ĠNbCrSe":11728,"deleyite":11729,"SiPb":11730,"SiOs":11731,"ĠYNi":11732,"ĠYScN":11733,"ĠTaInS":11734,"ĠTaPbSe":11735,"ĠScCo":11736,"ĠScTaOs":11737,"TiPtGe":11738,"TiMnP":11739,"TiCoGa":11740,"TiRuTe":11741,"TiReSi":11742,"TiReTc":11743,"TiVTc":11744,"TiVRe":11745,"TiVP":11746,"TiPtSn":11747,"ĠZnSiAs":11748,"ĠZnCdS":11749,"ĠZnFeRh":11750,"ĠAsK":11751,"ĠAsGeAs":11752,"ĠAsCuTe":11753,"InAu":11754,"InHg":11755,"NiCa":11756,"NiWP":11757,"NiMnSb":11758,"ĠGeH":11759,"PtPdBi":11760,"1034":11761,"10648":11762,"10899":11763,"10207":11764,"ĠSrCo":11765,"ĠSnPS":11766,"ĠSnGeTe":11767,"GaIr":11768,"GaSr":11769,"ĠNaCrS":11770,"GeH":11771,"GeCa":11772,"ĠAgHg":11773,"ĠAgSnS":11774,"1212193":11775,"12659":11776,"RhAu":11777,"RhAsS":11778,"ZnRu":11779,"ZnCr":11780,"ZnSiP":11781,"ZnSiN":11782,"CuRu":11783,"ĠAuSc":11784,"ĠKCo":11785,"ĠKBi":11786,"MoTc":11787,"MoMnAs":11788,"MoRhP":11789,"ZrCoSi":11790,"ZrPtSi":11791,"ZrCuSi":11792,"ZrTiSe":11793,"ZrMoGe":11794,"ZrPdSb":11795,"SnZn":11796,"HfTeSe":11797,"HfGeS":11798,"HfCoAs":11799,"AgIr":11800,"AgSnS":11801,"AgAsS":11802,"AgBiSe":11803,"6799":11804,"5419":11805,"CoSbSe":11806,"CoMnSb":11807,"RuFe":11808,"RuOsSi":11809,"RuAsSe":11810,"RuPtAl":11811,"9690":11812,"IrNi":11813,"IrAg":11814,"IrPS":11815,"IrCoGa":11816,"1113":11817,"11202":11818,"11504":11819,"NbIr":11820,"NbCr":11821,"NbNiTe":11822,"ĠPbSb":11823,"AuP":11824,"AuAs":11825,"AuGeAs":11826,"ĠCdGa":11827,"6959":11828,"6931":11829,"TaWS":11830,"TaCoSi":11831,"TaRhTe":11832,"TaMoCo":11833,"TaCrNi":11834,"ScCoSn":11835,"ScTaOs":11836,"ScZrOs":11837,"ScZrTc":11838,"1649":11839,"16421":11840,"16259":11841,"16448":11842,"16439":11843,"8580":11844,"8507":11845,"ĠRbPbCl":11846,"ĠRbSrCl":11847,"22179":11848,"22889":11849,"22332":11850,"5327":11851,"CrAlGe":11852,"CaPdH":11853,"CaGaSi":11854,"CaPdZn":11855,"CaAlH":11856,"8848":11857,"1566":11858,"1518":11859,"1592":11860,"15695":11861,"MnPS":11862,"MnNiSi":11863,"MnNiAl":11864,"ĠTlHPd":11865,"CdZnS":11866,"CdSiAs":11867,"21491":11868,"4763":11869,"5244":11870,"PbN":11871,"PbIn":11872,"PbSb":11873,"PbAu":11874,"PbTaSe":11875,"ĠHgPS":11876,"ĠCsCr":11877,"ĠCsCd":11878,"ĠCsCaCl":11879,"468":11880,"4656":11881,"23186":11882,"23706":11883,"23290":11884,"5748":11885,"574485":11886,"571518":11887,"9306":11888,"SrMnSb":11889,"SrRhIn":11890,"SrNiSn":11891,"OsAsS":11892,"TcAg":11893,"7365":11894,"19983":11895,"19804":11896,"19835":11897,"19824":11898,"7906":11899,"ReAlGe":11900,"5600":11901,"568673":11902,"HgPS":11903,"NaGe":11904,"NaSn":11905,"NaSrAs":11906,"NaYCl":11907,"7877":11908,"TlH":11909,"4955":11910,"29570":11911,"29179":11912,"29849":11913,"29154":11914,"29476":11915,"3469":11916,"13464":11917,"13555":11918,"972187":11919,"14086":11920,"618991":11921,"8786":11922,"903":11923,"9008":11924,"3657":11925,"9912":11926,"17856":11927,"38494":11928,"30460":11929,"30676":11930,"30805":11931,"3909":11932,"28107":11933,"31125":11934,"31438":11935,"31473":11936,"RbAg":11937,"RbBi":11938,"RbAuTe":11939,"12098":11940,"1208991":11941,"1208170":11942,"1201034":11943,"1105702":11944,"1105327":11945,"CsTi":11946,"CsCr":11947,"CsCd":11948,"CsPbCl":11949,"CsAgCl":11950,"12268":11951,"ĠNbSiTc":11952,"ĠTiSiRu":11953,"11489":11954,"1216310":11955,"1216169":11956,"1216677":11957,"1216451":11958,"1216278":11959,"1216427":11960,"1216601":11961,"1216056":11962,"1216135":11963,"1216843":11964,"11621":11965,"1220675":11966,"1220670":11967,"1220587":11968,"1220761":11969,"1183607":11970,"1183173":11971,"1183151":11972,"1183490":11973,"1079224":11974,"569886":11975,"1186209":11976,"1186232":11977,"1186187":11978,"1191078":11979,"10175":11980,"1018652":11981,"8670":11982,"867233":11983,"867163":11984,"867125":11985,"ĠTiTeS":11986,"ĠTiTeRu":11987,"ĠSCuNi":11988,"ĠMnPS":11989,"1187209":11990,"1187431":11991,"1187068":11992,"1187097":11993,"567114":11994,"567279":11995,"567736":11996,"1215188":11997,"1215242":11998,"1215676":11999,"1215898":12000,"1219226":12001,"1219431":12002,"1219145":12003,"ĠSSbPt":12004,"1224983":12005,"1224559":12006,"1224413":12007,"1224448":12008,"ĠHfGeRu":12009,"ĠTiNCl":12010,"1217079":12011,"1217089":12012,"ĠSeNaPt":12013,"ĠZrSbRh":12014,"ĠFeTaTe":12015,"1221559":12016,"1221342":12017,"ĠZrGaRh":12018,"ĠZrGaRu":12019,"30847":12020,"ĠHfNCl":12021,"1080466":12022,"1080561":12023,"1080049":12024,"ĠTiGePt":12025,"ĠTiGeRh":12026,"1188987":12027,"ĠNiYBi":12028,"ĠNbNiTe":12029,"11252":12030,"ĠBiTePd":12031,"1078200":12032,"1078466":12033,"ĠHfGaRu":12034,"1001022":12035,"ĠCcc":12036,"ĠYGaRh":12037,"1223664":12038,"ĠNbRhSb":12039,"ĠYInRh":12040,"1186952":12041,"1186977":12042,"1186932":12043,"570062":12044,"ĠSVCr":12045,"10846":12046,"10844":12047,"ĠGaTeS":12048,"ĠTaAlOs":12049,"ĠSiTiCo":12050,"1184057":12051,"ĠSbTeRh":12052,"10379":12053,"10368":12054,"ĠTiGaIr":12055,"ĠTeBiPd":12056,"22056":12057,"22036":12058,"862546":12059,"862699":12060,"NiAsSe":12061,"ĠAlGeRu":12062,"865124":12063,"865717":12064,"865895":12065,"865665":12066,"865656":12067,"865930":12068,"30662":12069,"30644":12070,"30658":12071,"30580":12072,"1077814":12073,"1077746":12074,"30347":12075,"1025229":12076,"1025191":12077,"1025218":12078,"1025988":12079,"1025819":12080,"1025629":12081,"1224371":12082,"1224321":12083,"1224393":12084,"1224324":12085,"1224358":12086,"1224329":12087,"1224303":12088,"571103":12089,"571505":12090,"1207627":12091,"1207736":12092,"973166":12093,"973769":12094,"CaZnSi":12095,"1218002":12096,"1218062":12097,"1218041":12098,"1218063":12099,"972866":12100,"972777":12101,"972899":12102,"1188021":12103,"1188059":12104,"1188095":12105,"1188017":12106,"1188003":12107,"ĠAsZnSi":12108,"1215455":12109,"1215453":12110,"1215477":12111,"11754":12112,"ĠSNbCu":12113,"1069824":12114,"1072944":12115,"865588":12116,"865592":12117,"1220366":12118,"1220358":12119,"1220391":12120,"1009581":12121,"1246229":12122,"1246514":12123,"1246517":12124,"1246089":12125,"866156":12126,"866163":12127,"866160":12128,"866051":12129,"20419":12130,"1184684":12131,"1103545":12132,"1215353":12133,"1029337":12134,"1029915":12135,"1215536":12136,"ZrRhGe":12137,"ZrRhSb":12138,"ĠZrZnCo":12139,"ĠGaPPd":12140,"1102101":12141,"1102115":12142,"1102693":12143,"1228945":12144,"1228987":12145,"ĠAlVNi":12146,"3078":12147,"ĠSeSbPd":12148,"22977":12149,"1225119":12150,"1225200":12151,"1206699":12152,"1206893":12153,"1206135":12154,"20846":12155,"1025371":12156,"1025324":12157,"1025301":12158,"1008680":12159,"1247376":12160,"9801":12161,"980200":12162,"PtGeSe":12163,"ĠCuSiRh":12164,"1228745":12165,"12662":12166,"ĠKSbCl":12167,"865487":12168,"1217242":12169,"1217253":12170,"1217260":12171,"22315":12172,"20257":12173,"861501":12174,"1104194":12175,"YPdSn":12176,"TiSiY":12177,"977541":12178,"977426":12179,"977162":12180,"864947":12181,"31084":12182,"998970":12183,"607409":12184,"CaNiGa":12185,"672216":12186,"1217171":12187,"1217175":12188,"1217130":12189,"12910":12190,"12951":12191,"RuIrGa":12192,"1218856":12193,"NbRhSb":12194,"ĠYZnSi":12195,"ĠTaRhTe":12196,"697575":12197,"1103243":12198,"FeCoZr":12199,"FeCoSn":12200,"1206790":12201,"HfPdSb":12202,"1184766":12203,"1209960":12204,"1209061":12205,"CaPtCd":12206,"19871":12207,"1079908":12208,"28877":12209,"1025586":12210,"1025587":12211,"ScHfRu":12212,"ScHfOs":12213,"1228829":12214,"1228817":12215,"1226067":12216,"1226008":12217,"1226035":12218,"23289":12219,"23275":12220,"SrCdGe":12221,"ĠNCrNi":12222,"15272":12223,"1095497":12224,"1095491":12225,"CuSnTi":12226,"568656":12227,"568345":12228,"568394":12229,"1070557":12230,"ĠNNaGe":12231,"YZnSi":12232,"865010":12233,"865051":12234,"865001":12235,"865030":12236,"1078895":12237,"2832":12238,"28324":12239,"571642":12240,"571636":12241,"21405":12242,"19953":12243,"19906":12244,"1184055":12245,"1184005":12246,"680850":12247,"YAuAl":12248,"YAuSn":12249,"1095536":12250,"IrSbAs":12251,"972238":12252,"1215948":12253,"1103046":12254,"1103036":12255,"865681":12256,"1224244":12257,"866012":12258,"866041":12259,"1218976":12260,"ĠGaFeRu":12261,"975140":12262,"1219521":12263,"1187211":12264,"1221643":12265,"1221662":12266,"1221656":12267,"GaSeGaS":12268,"ĠVZnRh":12269,"ĠSeCaPb":12270,"HfCoSn":12271,"14244":12272,"769218":12273,"1191862":12274,"1104366":12275,"22619":12276,"542537":12277,"505511":12278,"1217371":12279,"29711":12280,"27850":12281,"1215271":12282,"18093":12283,"YNiIn":12284,"YNiBi":12285,"ĠNiZnSb":12286,"ĠCaCdPd":12287,"862366":12288,"977367":12289,"977353":12290,"977361":12291,"18361":12292,"864672":12293,"HfNCl":12294,"ĠTeSbRh":12295,"865728":12296,"TiWMn":12297,"971737":12298,"YPtAs":12299,"TiNCl":12300,"1227322":12301,"1227313":12302,"866142":12303,"866141":12304,"30039":12305,"1229005":12306,"1229032":12307,"1023925":12308,"1207015":12309,"1103150":12310,"1183454":12311,"1190788":12312,"VNiGe":12313,"1057286":12314,"672389":12315,"1224455":12316,"865916":12317,"865914":12318,"865928":12319,"AgAlS":12320,"1187497":12321,"1095628":12322,"1106121":12323,"1106219":12324,"1077915":12325,"1077994":12326,"1079721":12327,"1079768":12328,"1013525":12329,"1013548":12330,"864715":12331,"864782":12332,"1205800":12333,"1205335":12334,"1205337":12335,"1095607":12336,"1224908":12337,"1224913":12338,"31347":12339,"1208243":12340,"FeNiGe":12341,"978532":12342,"1221596":12343,"1079393":12344,"1079313":12345,"1206369":12346,"1206365":12347,"HfMoSb":12348,"977550":12349,"1102840":12350,"1216700":12351,"1224822":12352,"TiFeAl":12353,"1102650":12354,"ĠGaGeRu":12355,"1002114":12356,"1207776":12357,"1079407":12358,"1184229":12359,"1225771":12360,"862288":12361,"1068746":12362,"RhVAs":12363,"22596":12364,"1080667":12365,"1080611":12366,"1080657":12367,"569662":12368,"1218875":12369,"560025":12370,"636320":12371,"1206267":12372,"1105749":12373,"1183005":12374,"1183041":12375,"643651":12376,"643907":12377,"1027335":12378,"1206926":12379,"1216977":12380,"1080469":12381,"541686":12382,"1095145":12383,"568940":12384,"28419":12385,"31453":12386,"31481":12387,"18562":12388,"ĠGaCuNi":12389,"1207448":12390,"540773":12391,"1216047":12392,"604325":12393,"1101809":12394,"1101995":12395,"CdZnTe":12396,"1104183":12397,"1228605":12398,"867904":12399,"1213754":12400,"568565":12401,"991428":12402,"862445":12403,"983365":12404,"1029349":12405,"600124":12406,"637292":12407,"1078280":12408,"1078247":12409,"574339":12410,"ZrAuGa":12411,"1101173":12412,"1206854":12413,"1024974":12414,"672696":12415,"1028576":12416,"1223986":12417,"ĠSGaNi":12418,"1213092":12419,"NbNiGe":12420,"1102565":12421,"1190915":12422,"1227042":12423,"641924":12424,"1217775":12425,"1217768":12426,"1226957":12427,"1228522":12428,"1220004":12429,"1029659":12430,"570971":12431,"1214793":12432,"1214794":12433,"ĠAlReGe":12434,"ĠFeNiPt":12435,"1100412":12436,"1100415":12437,"36216":12438,"ĠTiInAu":12439,"ĠHfInCo":12440,"1102268":12441,"555569":12442,"1246970":12443,"1025905":12444,"27178":12445,"SbNCa":12446,"1224516":12447,"1224598":12448,"2668":12449,"NiZnSb":12450,"866279":12451,"1226453":12452,"1221407":12453,"1221485":12454,"945184":12455,"1027647":12456,"1190141":12457,"1206550":12458,"1106245":12459,"1078362":12460,"541047":12461,"504741":12462,"1181940":12463,"1079080":12464,"14433":12465,"ĠCdInRh":12466,"1228467":12467,"28645":12468,"1218560":12469,"27255":12470,"1173043":12471,"553994":12472,"1068510":12473,"30293":12474,"36641":12475,"621348":12476,"1220743":12477,"640159":12478,"ĠHgAsPd":12479,"630883":12480,"CsVCl":12481,"912418":12482,"675060":12483,"1227810":12484,"1026980":12485,"1068250":12486,"1213948":12487,"1220598":12488,"849067":12489,"580930":12490,"572596":12491,"1215885":12492,"1094021":12493,"1028604":12494,"1245633":12495,"620571":12496,"35869":12497,"1222181":12498,"38605":12499,"614572":12500,"989407":12501,"ĠCristob":12502,"ĠBaddeleyite":12503,"ĠAsGeAsAu":12504,"ĠAsCuTeAs":12505,"1064854":12506,"1020712":12507,"ĠAgHgPd":12508,"541911":12509,"15668":12510,"560046":12511,"ĠCristobalite":12512,"243":12513,"31080":12514,"31072":12515,"3129":12516,"3648":12517,"3797":12518,"3830":12519,"408":12520,"4573":12521,"4813":12522,"4578":12523,"5101":12524,"5213":12525,"602":12526,"6105":12527,"6695":12528,"622375":12529,"764":12530,"7126":12531,"7437":12532,"7939":12533,"7221":12534,"7421":12535,"7400":12536,"7883":12537,"7684":12538,"8714":12539,"8418":12540,"8435":12541,"8799":12542,"9576":12543,"9437":12544,"9027":12545,"KCuS":12546,"KZnP":12547,"KBiSe":12548,"KMnSe":12549,"KCdAs":12550,"KAuCl":12551,"KAlH":12552,"KNbCl":12553,"PSn":12554,"VTi":12555,"VCoSi":12556,"VCoAs":12557,"VCrP":12558,"YHg":12559,"YCuS":12560,"YZnAl":12561,"Ã¢":12562,"ÆĴ":12563,"âĢļ":12564,"ĠInGaP":12565,"ĠAlInSb":12566,"ĠTiMnRh":12567,"ĠNiAgSe":12568,"AlIr":12569,"ĠHfCd":12570,"ĠHfScIr":12571,"ĠZrTiMo":12572,"ĠZrTiCr":12573,"ĠCaGa":12574,"20108":12575,"20697":12576,"ĠBoron":12577,"FeNbSb":12578,"ĠNbCu":12579,"ĠNbCrS":12580,"ĠCuAgTe":12581,"ĠYCr":12582,"ĠYCuSi":12583,"ĠYScS":12584,"ĠTaSn":12585,"ĠTaTiAl":12586,"ĠTaNbTe":12587,"ĠTaSnRh":12588,"ĠTaFeRu":12589,"ĠRhSr":12590,"ĠScV":12591,"ĠScMnRh":12592,"TiNiAs":12593,"TiCoGe":12594,"TiOsSi":12595,"TiSnSb":12596,"TiZnAl":12597,"TiOsP":12598,"TiMnAs":12599,"TiPtGa":12600,"TiFeAs":12601,"TiMnRh":12602,"PdHfSn":12603,"InSbS":12604,"InGaP":12605,"InAlSb":12606,"NiH":12607,"NiIn":12608,"NiPt":12609,"NiTiSb":12610,"NiAgSe":12611,"ĠCoCl":12612,"ĠTeCs":12613,"ĠFeNiAs":12614,"ĠFeCoAs":12615,"PtPt":12616,"10670":12617,"10891":12618,"ĠMnFeSi":12619,"ĠMnRbTe":12620,"ĠSrPbS":12621,"ĠSnPb":12622,"ĠSnPbS":12623,"ĠSnGeS":12624,"GaRh":12625,"GaCu":12626,"ĠNaFeAs":12627,"ĠNaMnSe":12628,"GeW":12629,"GeOs":12630,"ĠAgSnTe":12631,"ĠAgBiPd":12632,"12116":12633,"12472":12634,"12136":12635,"12126":12636,"12675":12637,"12674":12638,"RhPt":12639,"RhSr":12640,"RhPtZn":12641,"RhNiZn":12642,"CuAsS":12643,"ĠAuTl":12644,"ĠAuPS":12645,"ĠIrSc":12646,"ĠKMnSe":12647,"MoGa":12648,"ZrPd":12649,"ZrNiAs":12650,"ZrTiPd":12651,"ZrMnAl":12652,"ZrTiMo":12653,"ZrOsSi":12654,"ZrNiSb":12655,"ZrCuSn":12656,"ZrRuGe":12657,"ZrTiMn":12658,"ZrVP":12659,"SnMo":12660,"SnGeS":12661,"SnHfS":12662,"HfCuGa":12663,"HfOsP":12664,"HfVP":12665,"AgSnTe":12666,"AgCuTe":12667,"6744":12668,"6751":12669,"6795":12670,"3340":12671,"5493":12672,"541180":12673,"CoZn":12674,"CoCuS":12675,"CoCrSi":12676,"4370":12677,"RuH":12678,"RuCl":12679,"RuSeS":12680,"RuAsS":12681,"9622":12682,"IrOs":12683,"IrNiZn":12684,"11113":12685,"11829":12686,"11400":12687,"11660":12688,"NbPbS":12689,"NbCrS":12690,"NbSnSb":12691,"NbCoAl":12692,"NbCuGa":12693,"NbInSe":12694,"NbPtSi":12695,"NbVSi":12696,"NbCrSe":12697,"AuPS":12698,"ĠCdBi":12699,"4281":12700,"4259":12701,"6973":12702,"6926":12703,"695850":12704,"TaRhSn":12705,"TaCrP":12706,"TaIrSi":12707,"TaVNi":12708,"TaNbTe":12709,"TaReSi":12710,"TaGeSi":12711,"5042":12712,"5044":12713,"5028":12714,"ScHfIr":12715,"ScIrSi":12716,"ScMnRh":12717,"5573":12718,"5528":12719,"1662":12720,"16225":12721,"16029":12722,"ĠRbMnP":12723,"2263":12724,"22167":12725,"22426":12726,"22731":12727,"22881":12728,"5367":12729,"5305":12730,"CrPd":12731,"CrCuS":12732,"CrZnN":12733,"CaGaAl":12734,"CaGaGe":12735,"CaAgAl":12736,"CaZrS":12737,"882":12738,"8843":12739,"1554":12740,"MnRe":12741,"ĠTlAsPt":12742,"CdPd":12743,"CdSnP":12744,"CdGeAs":12745,"BiAu":12746,"BiInS":12747,"21306":12748,"21756":12749,"21413":12750,"21893":12751,"8620":12752,"8607":12753,"4755":12754,"528":12755,"4025":12756,"4030":12757,"PbGeTe":12758,"0613":12759,"ĠHgPb":12760,"ĠCsMnSe":12761,"4612":12762,"571147":12763,"574025":12764,"SrSi":12765,"SrPbS":12766,"SrCaZn":12767,"SrIrP":12768,"SrPdSi":12769,"SrIrIn":12770,"OsAsSe":12771,"OsSbSe":12772,"7366":12773,"7392":12774,"8388":12775,"19968":12776,"2454":12777,"24719":12778,"5654":12779,"5614":12780,"8167":12781,"60186":12782,"605028":12783,"NaAlGe":12784,"NaVN":12785,"NaMnSe":12786,"NaCrN":12787,"NaNbSe":12788,"NaCdSb":12789,"784":12790,"7240":12791,"591":12792,"5918":12793,"4120":12794,"7771":12795,"7781":12796,"5149":12797,"TlFeS":12798,"TlInS":12799,"TlSbTe":12800,"TlCaCl":12801,"TlAlCl":12802,"0447":12803,"4953":12804,"4979":12805,"632686":12806,"2977":12807,"29568":12808,"29163":12809,"29175":12810,"7642":12811,"4842":12812,"13573":12813,"13202":12814,"13459":12815,"13203":12816,"13094":12817,"9710":12818,"14434":12819,"8769":12820,"8765":12821,"8725":12822,"32780":12823,"36539":12824,"36053":12825,"9571":12826,"9952":12827,"9981":12828,"9987":12829,"35152":12830,"17558":12831,"17835":12832,"3849":12833,"30459":12834,"30424":12835,"9845":12836,"28126":12837,"28968":12838,"28759":12839,"31502":12840,"RbInS":12841,"RbMnP":12842,"RbMnTe":12843,"RbNaS":12844,"12056":12845,"1209946":12846,"1205493":12847,"1204281":12848,"1100":12849,"1101867":12850,"1101118":12851,"CsK":12852,"CsBiS":12853,"CsMnSe":12854,"CsSnCl":12855,"CsAlTe":12856,"CsTaSe":12857,"CsNaS":12858,"1096795":12859,"1225654":12860,"ĠZrSiRu":12861,"1216108":12862,"1216136":12863,"1216052":12864,"1216437":12865,"1216698":12866,"1070613":12867,"1077240":12868,"ĠAlScAu":12869,"1220110":12870,"1220472":12871,"1220559":12872,"1220470":12873,"1220492":12874,"1220057":12875,"1220458":12876,"1220879":12877,"10275":12878,"1027273":12879,"1183166":12880,"1183462":12881,"1183938":12882,"1183591":12883,"ĠNiTeSe":12884,"ĠAlCuNi":12885,"1079158":12886,"569298":12887,"569408":12888,"1186074":12889,"1191223":12890,"1198948":12891,"1198388":12892,"867120":12893,"867179":12894,"867850":12895,"867216":12896,"867792":12897,"867327":12898,"867292":12899,"867799":12900,"867917":12901,"ĠSZnCd":12902,"1187124":12903,"1187200":12904,"1187718":12905,"1187473":12906,"1187704":12907,"1187701":12908,"1187470":12909,"1187703":12910,"ĠMnSiTc":12911,"567981":12912,"567228":12913,"1215179":12914,"1215714":12915,"1215804":12916,"1215230":12917,"1215177":12918,"1215170":12919,"1215806":12920,"1215600":12921,"1219501":12922,"1219203":12923,"1219437":12924,"1219193":12925,"1219423":12926,"1219732":12927,"1224108":12928,"1224972":12929,"1224544":12930,"1224691":12931,"1224092":12932,"1224418":12933,"1224473":12934,"1224831":12935,"1224859":12936,"1217126":12937,"1217864":12938,"1217891":12939,"1217065":12940,"1221935":12941,"1221780":12942,"1221824":12943,"1221876":12944,"1221734":12945,"ĠNNbZn":12946,"30877":12947,"30864":12948,"ĠSnHfS":12949,"1018714":12950,"1018806":12951,"1018736":12952,"1018726":12953,"1080835":12954,"1080463":12955,"1080056":12956,"ĠPdSnHf":12957,"1188158":12958,"1188829":12959,"1123":12960,"ĠYAgS":12961,"ĠYAgSn":12962,"1078677":12963,"1078776":12964,"1078162":12965,"1078739":12966,"1078547":12967,"1078963":12968,"ĠAlMnFe":12969,"ĠAlMnPd":12970,"ĠNaSbSe":12971,"10046":12972,"1223529":12973,"1223824":12974,"1223642":12975,"1223859":12976,"1068167":12977,"ĠYInAg":12978,"1186942":12979,"1186985":12980,"1186956":12981,"10873":12982,"ĠGaAsPd":12983,"ĠFeNbSb":12984,"1030447":12985,"1189265":12986,"1189066":12987,"1189272":12988,"1189075":12989,"1189764":12990,"ĠTiGaTc":12991,"22007":12992,"22084":12993,"10076":12994,"862423":12995,"ĠNbAlFe":12996,"1018020":12997,"1018046":12998,"1018066":12999,"1018076":13000,"ĠYCdAg":13001,"ĠYCdHg":13002,"NiAsS":13003,"865503":13004,"865165":13005,"865128":13006,"865931":13007,"16790":13008,"568208":13009,"568501":13010,"30523":13011,"ĠAlPPt":13012,"1077883":13013,"1077722":13014,"30311":13015,"1025173":13016,"1025925":13017,"1224372":13018,"1224318":13019,"1224395":13020,"571310":13021,"571534":13022,"571471":13023,"ĠTiNiSb":13024,"29658":13025,"ĠAgCuTe":13026,"1186006":13027,"1207101":13028,"1207127":13029,"1207428":13030,"1207090":13031,"1207799":13032,"1207727":13033,"1218022":13034,"1218053":13035,"1218019":13036,"1218064":13037,"1218039":13038,"1218003":13039,"13686":13040,"972877":13041,"1188019":13042,"ĠScInPt":13043,"ĠSrZnIn":13044,"865523":13045,"865525":13046,"1220362":13047,"1220345":13048,"21260":13049,"1246058":13050,"1246243":13051,"1184615":13052,"1184601":13053,"1215340":13054,"1215324":13055,"1215379":13056,"1215368":13057,"1215326":13058,"30492":13059,"1029422":13060,"1029334":13061,"1215510":13062,"1215583":13063,"ZrRhAl":13064,"20952":13065,"ĠZrZnNi":13066,"ĠZrZnRh":13067,"1102541":13068,"1102631":13069,"1102532":13070,"1102660":13071,"10454":13072,"10469":13073,"1228910":13074,"1228905":13075,"1228973":13076,"1228918":13077,"1228938":13078,"TiPdGa":13079,"18645":13080,"18648":13081,"21316":13082,"21371":13083,"21365":13084,"ĠMnSbRh":13085,"27455":13086,"10232":13087,"22909":13088,"22922":13089,"1225810":13090,"1206529":13091,"1206058":13092,"1025353":13093,"1025302":13094,"1025346":13095,"1025365":13096,"1025318":13097,"1025348":13098,"1797":13099,"17985":13100,"AlSiY":13101,"1208205":13102,"1208335":13103,"1208228":13104,"1008556":13105,"755523":13106,"1247422":13107,"1247449":13108,"1247333":13109,"ĠScNiBi":13110,"TiMoAs":13111,"1228117":13112,"1228473":13113,"1228807":13114,"22769":13115,"1217283":13116,"1217272":13117,"RuRhGa":13118,"22396":13119,"22302":13120,"31185":13121,"31153":13122,"1193208":13123,"1193227":13124,"1193832":13125,"1193899":13126,"1193708":13127,"20255":13128,"861889":13129,"NiSeTe":13130,"ĠSnPPt":13131,"1226104":13132,"1226089":13133,"1226070":13134,"CaCuIn":13135,"CaCuAs":13136,"1104965":13137,"CrFeP":13138,"977427":13139,"27907":13140,"ScCuSn":13141,"1120733":13142,"YAgGe":13143,"YAgSb":13144,"864970":13145,"1217942":13146,"1217990":13147,"1217917":13148,"1217900":13149,"998912":13150,"983602":13151,"16930":13152,"YCuSn":13153,"1078645":13154,"12923":13155,"1218103":13156,"1218336":13157,"NbRhGe":13158,"9814":13159,"ĠAlSiPd":13160,"ZrSiAs":13161,"1103293":13162,"672661":13163,"ĠInAsPd":13164,"1209887":13165,"21662":13166,"CaPtAl":13167,"19877":13168,"1079952":13169,"28884":13170,"862747":13171,"SrZnIn":13172,"20320":13173,"1216496":13174,"1216481":13175,"TaFeAl":13176,"ScHfCo":13177,"1228832":13178,"20521":13179,"1226054":13180,"SrCdBi":13181,"1095442":13182,"1095419":13183,"1207382":13184,"1207359":13185,"1025271":13186,"1025293":13187,"TiCrTc":13188,"1216602":13189,"PdSnTe":13190,"27361":13191,"849073":13192,"849071":13193,"1214809":13194,"1018150":13195,"567716":13196,"TiRhGe":13197,"505804":13198,"505333":13199,"568398":13200,"1216354":13201,"1070099":13202,"1227422":13203,"1227717":13204,"1227421":13205,"28270":13206,"CaAuBi":13207,"865066":13208,"865000":13209,"28355":13210,"21409":13211,"21467":13212,"1095522":13213,"1095563":13214,"1095584":13215,"972275":13216,"972224":13217,"1215915":13218,"1215914":13219,"ScRhGe":13220,"1226787":13221,"1183640":13222,"TiAsTe":13223,"32811":13224,"1102086":13225,"CuSiTi":13226,"ĠPInGa":13227,"19746":13228,"1218954":13229,"1218952":13230,"1218977":13231,"1218951":13232,"ĠInAgS":13233,"ĠHfZrRu":13234,"1078008":13235,"1078064":13236,"1221606":13237,"567945":13238,"HfZrRu":13239,"754850":13240,"MoSiZr":13241,"1191202":13242,"23037":13243,"22640":13244,"22662":13245,"1184567":13246,"505554":13247,"1217381":13248,"1215240":13249,"1215277":13250,"ScNiBi":13251,"862369":13252,"862340":13253,"862368":13254,"862376":13255,"1219369":13256,"1224768":13257,"1224732":13258,"1224703":13259,"15320":13260,"18344":13261,"864939":13262,"865780":13263,"865786":13264,"1100781":13265,"ĠCaInCu":13266,"27669":13267,"IrAsTe":13268,"1101771":13269,"971836":13270,"1227320":13271,"1227354":13272,"21577":13273,"864654":13274,"864607":13275,"1218328":13276,"16260":13277,"1229006":13278,"1023943":13279,"1217009":13280,"1217039":13281,"12458":13282,"1245698":13283,"1103172":13284,"ĠSrCdHg":13285,"865167":13286,"865174":13287,"1079635":13288,"14983":13289,"1220667":13290,"1190092":13291,"1190451":13292,"1187708":13293,"1187706":13294,"13416":13295,"1095673":13296,"1095128":13297,"SrPdAs":13298,"AlCuY":13299,"571281":13300,"1077979":13301,"1080043":13302,"ĠSCsIn":13303,"1079716":13304,"1019104":13305,"1013555":13306,"1186759":13307,"1186761":13308,"AlFeZr":13309,"864761":13310,"1205828":13311,"1017632":13312,"1224916":13313,"1224951":13314,"1208220":13315,"1208248":13316,"1206600":13317,"1196650":13318,"1221517":13319,"1079323":13320,"1079324":13321,"1079361":13322,"569823":13323,"1219970":13324,"981377":13325,"1222126":13326,"554212":13327,"570769":13328,"977582":13329,"1216734":13330,"1216713":13331,"1224885":13332,"1028459":13333,"ĠCuGeRh":13334,"1226309":13335,"30175":13336,"NbHS":13337,"862264":13338,"1203338":13339,"1068464":13340,"ĠNaCdHg":13341,"18279":13342,"541879":13343,"1078938":13344,"637736":13345,"1102945":13346,"976220":13347,"ĠTiCrTc":13348,"1066232":13349,"632693":13350,"1206242":13351,"1183042":13352,"643912":13353,"1027687":13354,"1216906":13355,"1080489":13356,"570598":13357,"1095148":13358,"ĠTeZnHg":13359,"865280":13360,"1226245":13361,"28489":13362,"1106352":13363,"SnNNi":13364,"29596":13365,"18594":13366,"1205741":13367,"1246370":13368,"1207408":13369,"1178762":13370,"540703":13371,"1227419":13372,"1216033":13373,"1216005":13374,"1104120":13375,"1025045":13376,"TaRhGe":13377,"ĠCrGaCo":13378,"1220409":13379,"1220488":13380,"1029396":13381,"675576":13382,"ĠHgPPd":13383,"1071862":13384,"1030106":13385,"ZrCrV":13386,"1078257":13387,"1223845":13388,"28769":13389,"ĠTlPPd":13390,"571163":13391,"541291":13392,"1218140":13393,"23954":13394,"1103567":13395,"1069520":13396,"672689":13397,"1201566":13398,"605735":13399,"1105654":13400,"1213703":13401,"1102520":13402,"1025457":13403,"755435":13404,"27512":13405,"27533":13406,"1021494":13407,"1217777":13408,"1220035":13409,"AsNSr":13410,"1214786":13411,"1214784":13412,"1100408":13413,"ĠHfInRh":13414,"ĠHfInAu":13415,"1221396":13416,"1227567":13417,"1194390":13418,"976920":13419,"675326":13420,"862586":13421,"1246509":13422,"35015":13423,"1203283":13424,"27769":13425,"1184364":13426,"ĠHfScCo":13427,"504951":13428,"1106020":13429,"1173475":13430,"561033":13431,"1225210":13432,"1228454":13433,"ĠZrCdPd":13434,"1226512":13435,"1226586":13436,"866376":13437,"975275":13438,"510041":13439,"675462":13440,"541310":13441,"541378":13442,"ĠCdHgPd":13443,"505278":13444,"505634":13445,"1203422":13446,"1203241":13447,"1221872":13448,"TiTaAl":13449,"1105559":13450,"1227871":13451,"1026916":13452,"1080815":13453,"1068286":13454,"1212052":13455,"558760":13456,"862911":13457,"644229":13458,"976765":13459,"972120":13460,"1078155":13461,"1194467":13462,"1030721":13463,"1029407":13464,"1029711":13465,"676329":13466,"1028823":13467,"623814":13468,"1016106":13469,"CoCrTa":13470,"1226652":13471,"1100873":13472,"1068891":13473,"669387":13474,"1226821":13475,"510133":13476,"610522":13477,"669566":13478,"ĠHfCdRh":13479,"1213642":13480,"1212682":13481,"674493":13482,"504498":13483,"557308":13484,"561419":13485,"601861":13486,"17291":13487,"28660":13488,"28658":13489,"315":13490,"3464":13491,"3102":13492,"3504":13493,"3927":13494,"4124":13495,"4861":13496,"4805":13497,"588":13498,"566":13499,"5102":13500,"5106":13501,"6961":13502,"6437":13503,"7077":13504,"7439":13505,"8159":13506,"8456":13507,"8203":13508,"8487":13509,"954":13510,"9856":13511,"9900":13512,"KSi":13513,"KTi":13514,"KCo":13515,"KSnS":13516,"KMnP":13517,"KMnAs":13518,"KYTe":13519,"KCuCl":13520,"KMnCl":13521,"NIn":13522,"SPS":13523,"VSn":13524,"VCl":13525,"VNiAs":13526,"VCrSi":13527,"VCrAs":13528,"VRuSb":13529,"WZn":13530,"YV":13531,"YGe":13532,"YBi":13533,"YCrFe":13534,"YIrSn":13535,"bm":13536,"ĠInGaS":13537,"ĠInCuPd":13538,"ĠAlGaAs":13539,"ĠTiSnRu":13540,"AlOs":13541,"ĠSiSbPt":13542,"ĠPdPb":13543,"ĠPdPS":13544,"ĠHfMn":13545,"ĠHfCl":13546,"ĠHfTaRu":13547,"ĠHfTiSe":13548,"ĠHfTaV":13549,"ĠZrTc":13550,"ĠZrTiW":13551,"ĠZrScRu":13552,"ĠZrTiCu":13553,"ĠCaY":13554,"ĠCaCoSi":13555,"ĠCaCuSi":13556,"2002":13557,"20422":13558,"20731":13559,"20235":13560,"FeNiSe":13561,"FeMnGe":13562,"ĠVFeSb":13563,"ĠVSnRu":13564,"ĠVCuRh":13565,"ĠNbWSe":13566,"ĠNbVRe":13567,"SiAl":13568,"SiRh":13569,"ĠCuCd":13570,"ĠYCrFe":13571,"ĠTaSeS":13572,"ĠTaNbTc":13573,"ĠTaMoW":13574,"ĠTaWMo":13575,"ĠTaSnRu":13576,"ĠScTaRu":13577,"TiCoNi":13578,"TiGeS":13579,"TiCrSi":13580,"TiReN":13581,"TiZnGa":13582,"TiNbRe":13583,"TiVAl":13584,"ĠZnSiRh":13585,"PdIn":13586,"PdPS":13587,"PdCuAl":13588,"PdAsS":13589,"PdZrSn":13590,"InRu":13591,"InBiSe":13592,"AsBi":13593,"NiPS":13594,"ĠFeCa":13595,"ĠFeAlSi":13596,"ĠFeNiSb":13597,"ĠCrCoPt":13598,"PtAs":13599,"PtBiSb":13600,"ĠSbCr":13601,"10435":13602,"10898":13603,"10404":13604,"ĠMnBi":13605,"ĠMnCoGe":13606,"ĠMnRhSb":13607,"ĠSrFe":13608,"ĠSrGaSi":13609,"ĠSrCaIn":13610,"GaW":13611,"GaOs":13612,"GaPS":13613,"ĠNaVSe":13614,"GeMo":13615,"ĠAgBiS":13616,"1253":13617,"1230":13618,"121216":13619,"RhAsSe":13620,"RhBiS":13621,"RhSbAs":13622,"RhAuZn":13623,"RhTiSn":13624,"ZnPb":13625,"CuTaS":13626,"CuNbTe":13627,"CuScS":13628,"ĠAuCs":13629,"0995":13630,"ĠKNb":13631,"ĠKMnP":13632,"ĠKYTe":13633,"MoPt":13634,"MoSb":13635,"MoCr":13636,"MoCrAs":13637,"ZrIr":13638,"ZrGeTe":13639,"ZrNiP":13640,"ZrTiW":13641,"ZrCuGe":13642,"ZrOsAl":13643,"ZrPdGe":13644,"HfCoGe":13645,"HfCoP":13646,"HfNiGa":13647,"HfTaRu":13648,"HfTaFe":13649,"HfReSi":13650,"HfTaV":13651,"AgGe":13652,"AgOs":13653,"AgBiTe":13654,"6717":13655,"67569":13656,"672194":13657,"3312":13658,"5498":13659,"541558":13660,"CoMoP":13661,"4343":13662,"4384":13663,"ĠBiMo":13664,"RuNiAl":13665,"RuSbTe":13666,"9680":13667,"96169":13668,"11438":13669,"11926":13670,"11658":13671,"NbCoSi":13672,"NbPtGe":13673,"NbIrSi":13674,"NbVNi":13675,"NbMoAl":13676,"NbVRe":13677,"NbCrGe":13678,"NbVCr":13679,"ĠPbCN":13680,"AuH":13681,"AuSe":13682,"AuCuSn":13683,"ĠCdSn":13684,"ĠCdTl":13685,"ĠCdSnTe":13686,"ĠCdAlCl":13687,"6980":13688,"TaCu":13689,"TaRuSi":13690,"TaCoP":13691,"TaZnAl":13692,"TaMnGe":13693,"TaNbTc":13694,"TaNbMo":13695,"TaWMo":13696,"TaWFe":13697,"5066":13698,"505820":13699,"088":13700,"ScAl":13701,"ScNiP":13702,"ScCoP":13703,"ScTaRu":13704,"ScPdSn":13705,"ScZrRu":13706,"5560":13707,"558973":13708,"555066":13709,"1624":13710,"16258":13711,"16886":13712,"ĠReSi":13713,"ĠRbYS":13714,"22227":13715,"22529":13716,"22130":13717,"5359":13718,"CrW":13719,"CrCoSi":13720,"CrWN":13721,"CrTaN":13722,"CrCoPt":13723,"CaCN":13724,"CaCoSi":13725,"CaMnSb":13726,"CaPdSi":13727,"CaMnGe":13728,"CaTcN":13729,"8842":13730,"8818":13731,"15226":13732,"15679":13733,"MnTc":13734,"MnGeTe":13735,"MnCoGe":13736,"CdH":13737,"CdTl":13738,"CdSnTe":13739,"CdAlCl":13740,"BiMo":13741,"2188":13742,"21508":13743,"4756":13744,"4790":13745,"5257":13746,"PbSn":13747,"PbCN":13748,"PbSnTe":13749,"PbPSe":13750,"ĠCsPb":13751,"ĠCsMnAs":13752,"4653":13753,"2382":13754,"23174":13755,"23291":13756,"5749":13757,"571085":13758,"571216":13759,"621624":13760,"741":13761,"8932":13762,"8249":13763,"SrRh":13764,"SrCuSn":13765,"SrCaIn":13766,"SrCrN":13767,"OsAg":13768,"OsAsTe":13769,"TcMn":13770,"TcPdAl":13771,"7363":13772,"7376":13773,"7361":13774,"7049":13775,"4516":13776,"19955":13777,"19787":13778,"19936":13779,"7997":13780,"5606":13781,"561258":13782,"2589":13783,"HgCr":13784,"601253":13785,"604516":13786,"NaInS":13787,"NaVSe":13788,"NaAlSe":13789,"686717":13790,"7280":13791,"7285":13792,"7289":13793,"18474":13794,"18556":13795,"18217":13796,"TlCo":13797,"TlCd":13798,"TlPS":13799,"TlBiSe":13800,"TlGaSe":13801,"6376":13802,"29110":13803,"29136":13804,"29678":13805,"29428":13806,"29932":13807,"29091":13808,"768613":13809,"4846":13810,"1368":13811,"13160":13812,"9782":13813,"977443":13814,"974790":13815,"977049":13816,"9270":13817,"9265":13818,"14557":13819,"3210":13820,"3618":13821,"9177":13822,"3772":13823,"9957":13824,"999265":13825,"3567":13826,"2750":13827,"17092":13828,"17638":13829,"17577":13830,"30151":13831,"30326":13832,"982188":13833,"RbYS":13834,"120307":13835,"120981":13836,"1208973":13837,"1205610":13838,"1208629":13839,"1204805":13840,"1201230":13841,"11073":13842,"110296":13843,"1101606":13844,"1100995":13845,"CsSbS":13846,"CsMnAs":13847,"CsGaSe":13848,"11822":13849,"1097916":13850,"1227997":13851,"ĠPPPd":13852,"20621":13853,"1216167":13854,"1216156":13855,"1216210":13856,"1216850":13857,"1216672":13858,"1216170":13859,"1216079":13860,"1216661":13861,"1216029":13862,"1216078":13863,"1216072":13864,"1216091":13865,"1216468":13866,"28143":13867,"1072382":13868,"1072589":13869,"ĠNbSeCl":13870,"ĠAlScNi":13871,"1220569":13872,"1220541":13873,"1220758":13874,"1220429":13875,"1220443":13876,"1220427":13877,"1220636":13878,"1220442":13879,"1220786":13880,"1220579":13881,"1220586":13882,"1220732":13883,"1183165":13884,"1183191":13885,"1183728":13886,"1183708":13887,"1183135":13888,"ĠAlCuRh":13889,"1079167":13890,"1079831":13891,"1079513":13892,"1079726":13893,"1079075":13894,"569152":13895,"569423":13896,"569954":13897,"1186222":13898,"1186124":13899,"1191589":13900,"1195257":13901,"1018658":13902,"867308":13903,"867127":13904,"867117":13905,"867335":13906,"867851":13907,"867475":13908,"867897":13909,"867794":13910,"ĠTiTeSe":13911,"ĠCaPPt":13912,"1187713":13913,"1187809":13914,"1187698":13915,"1187738":13916,"567545":13917,"567636":13918,"1215503":13919,"1215175":13920,"1215180":13921,"1215663":13922,"1215181":13923,"1215817":13924,"1215726":13925,"1215234":13926,"1219132":13927,"1219430":13928,"1219939":13929,"1219259":13930,"1219478":13931,"1224121":13932,"1224173":13933,"1224498":13934,"1224137":13935,"1224426":13936,"1224900":13937,"1224427":13938,"1224540":13939,"1224863":13940,"1217118":13941,"1217124":13942,"1217202":13943,"1217935":13944,"1217897":13945,"1217064":13946,"1217070":13947,"ĠZrSbRu":13948,"1221434":13949,"1221505":13950,"1221335":13951,"1221404":13952,"1221948":13953,"ĠMnGeTe":13954,"ĠZrGaPd":13955,"3084":13956,"22262":13957,"22268":13958,"ĠRhTeCl":13959,"1018709":13960,"1080204":13961,"1080677":13962,"1080624":13963,"1080771":13964,"ĠTiGeS":13965,"ĠZnAsPt":13966,"1188542":13967,"11241":13968,"ĠNbGaOs":13969,"1078751":13970,"ĠGeSeN":13971,"1001017":13972,"ĠTiCoSn":13973,"1223828":13974,"1223754":13975,"1223832":13976,"1223837":13977,"1223791":13978,"ĠZnAgPd":13979,"1186953":13980,"1186958":13981,"ĠScAlCo":13982,"ĠScGeAu":13983,"ĠAuCuSe":13984,"ĠWPCl":13985,"570130":13986,"ĠSTiCu":13987,"10848":13988,"ĠSeCsSb":13989,"1184118":13990,"1184573":13991,"1184104":13992,"ĠTiZnPd":13993,"ĠTiZnGa":13994,"ĠSRuRh":13995,"ĠYAlAu":13996,"10381":13997,"1189212":13998,"1189978":13999,"1189171":14000,"1189871":14001,"1189235":14002,"ĠSBiRh":14003,"12781":14004,"ĠTiGaPd":14005,"22018":14006,"1007974":14007,"862431":14008,"862703":14009,"1018060":14010,"974973":14011,"865809":14012,"865079":14013,"865651":14014,"865548":14015,"865888":14016,"865664":14017,"16740":14018,"16763":14019,"ĠClKPb":14020,"30652":14021,"30598":14022,"1077935":14023,"1025678":14024,"1025180":14025,"1025690":14026,"1224366":14027,"571333":14028,"ĠScTeRh":14029,"29662":14030,"10554":14031,"1186004":14032,"1207717":14033,"ĠZrGeTe":14034,"ĠZrGeRu":14035,"1105163":14036,"1105802":14037,"1218060":14038,"972961":14039,"972884":14040,"1188015":14041,"1188004":14042,"1188001":14043,"1188014":14044,"1188036":14045,"15685":14046,"ĠAsZnSn":14047,"1215416":14048,"1229235":14049,"1229060":14050,"1229000":14051,"979980":14052,"ĠTiNbRe":14053,"ĠSrZnGe":14054,"865538":14055,"865531":14056,"ĠSiCoP":14057,"1220367":14058,"1220342":14059,"1220369":14060,"1220374":14061,"1220329":14062,"28080":14063,"28019":14064,"21248":14065,"1246110":14066,"1246123":14067,"1246648":14068,"866088":14069,"1184647":14070,"1184602":14071,"1184604":14072,"1103098":14073,"1103160":14074,"1103728":14075,"1215305":14076,"1215365":14077,"1215378":14078,"1215392":14079,"1215317":14080,"1029418":14081,"1029975":14082,"1029506":14083,"1029719":14084,"1029838":14085,"1029811":14086,"ZrRhP":14087,"20987":14088,"ĠZrZnIr":14089,"ĠGaPPt":14090,"999540":14091,"1102857":14092,"1102687":14093,"1102458":14094,"10457":14095,"1228943":14096,"1228991":14097,"21040":14098,"ĠSiFeRu":14099,"21352":14100,"22945":14101,"22956":14102,"22914":14103,"1225871":14104,"1225141":14105,"1225839":14106,"1206544":14107,"1206129":14108,"1206525":14109,"1206829":14110,"1206431":14111,"1206679":14112,"1025347":14113,"1025366":14114,"1025356":14115,"1025304":14116,"17984":14117,"1008624":14118,"570863":14119,"7557":14120,"1247566":14121,"980193":14122,"980936":14123,"980948":14124,"1228691":14125,"1228192":14126,"1228158":14127,"1228436":14128,"HfIrAl":14129,"15985":14130,"ĠTlSCl":14131,"865484":14132,"22712":14133,"22706":14134,"YRhGa":14135,"RuRhS":14136,"22312":14137,"1193541":14138,"1193423":14139,"1193748":14140,"ĠTiZrTe":14141,"20289":14142,"20279":14143,"1226111":14144,"1226421":14145,"1226090":14146,"CaCuSi":14147,"1104462":14148,"1104502":14149,"1104337":14150,"YPdSi":14151,"YPdBi":14152,"ĠCaAgHg":14153,"CrFeGe":14154,"541487":14155,"977545":14156,"977537":14157,"977425":14158,"27910":14159,"27997":14160,"ĠScCdRh":14161,"ĠScCdAg":14162,"1120730":14163,"1120767":14164,"YAgGa":14165,"11144":14166,"1217902":14167,"1217989":14168,"1217995":14169,"16324":14170,"607230":14171,"607475":14172,"PdAuSn":14173,"PdAuPb":14174,"1217143":14175,"1217193":14176,"1217144":14177,"1217172":14178,"1217132":14179,"1218111":14180,"1218804":14181,"1218699":14182,"13923":14183,"13918":14184,"ĠAlSiPt":14185,"ĠTeMnZn":14186,"ĠCrSiRu":14187,"HfPdSi":14188,"1014226":14189,"ĠVRuSb":14190,"CaPtSb":14191,"1187922":14192,"1187926":14193,"28875":14194,"ĠHNaCa":14195,"TaRuP":14196,"862702":14197,"SrZnGe":14198,"20316":14199,"1025575":14200,"1102310":14201,"1228893":14202,"1228891":14203,"24728":14204,"GaAlAs":14205,"1095427":14206,"1207365":14207,"1025270":14208,"1025291":14209,"1216640":14210,"1216641":14211,"10671":14212,"1067925":14213,"27319":14214,"849081":14215,"976082":14216,"1214857":14217,"ĠMnAlIr":14218,"1216378":14219,"1216397":14220,"1227503":14221,"1227698":14222,"1227574":14223,"28242":14224,"CaAuAs":14225,"YZnGe":14226,"YZnSn":14227,"865088":14228,"1078825":14229,"1078860":14230,"28303":14231,"21440":14232,"19971":14233,"1184030":14234,"AuCuSe":14235,"SrAuSi":14236,"SrAuAs":14237,"1095553":14238,"1095575":14239,"1095573":14240,"989576":14241,"1215988":14242,"FeVSb":14243,"ScRhTe":14244,"1226740":14245,"1226783":14246,"616204":14247,"HfNiGe":14248,"865653":14249,"SrPtAs":14250,"SrPtCd":14251,"SrPtTl":14252,"1102073":14253,"1102041":14254,"1224275":14255,"19747":14256,"1218955":14257,"1218970":14258,"504838":14259,"ĠYBiPd":14260,"ĠYBiPt":14261,"676828":14262,"677105":14263,"975144":14264,"ĠHfZrZn":14265,"ĠHfZrCo":14266,"PtZnAsPt":14267,"1219512":14268,"1187245":14269,"1104000":14270,"1221610":14271,"1221696":14272,"1221669":14273,"1221632":14274,"CaCdGe":14275,"ĠVZnCo":14276,"TiNiCu":14277,"RhTeCl":14278,"HfZrS":14279,"HfZrZn":14280,"HfZrCo":14281,"754556":14282,"ĠMnGaPd":14283,"1191100":14284,"1191422":14285,"1191401":14286,"7937":14287,"22602":14288,"1184589":14289,"1184587":14290,"989611":14291,"989649":14292,"ĠScZnPt":14293,"ĠAsInGa":14294,"1179970":14295,"570270":14296,"1215286":14297,"1802":14298,"861604":14299,"861639":14300,"862371":14301,"862300":14302,"977371":14303,"977384":14304,"1219380":14305,"1224784":14306,"15308":14307,"15358":14308,"864835":14309,"542486":14310,"865791":14311,"TiWMo":14312,"TiWRe":14313,"1101785":14314,"1101753":14315,"1101774":14316,"1227380":14317,"1227364":14318,"1227351":14319,"CuZnAs":14320,"864650":14321,"864651":14322,"1218349":14323,"866140":14324,"866173":14325,"866183":14326,"1023948":14327,"1217015":14328,"1245636":14329,"1103180":14330,"1183453":14331,"HfCrGa":14332,"865145":14333,"865131":14334,"1079643":14335,"1187420":14336,"1187433":14337,"1187418":14338,"1187711":14339,"1187771":14340,"17867":14341,"17871":14342,"1095504":14343,"1095201":14344,"21885":14345,"21847":14346,"SrPdCd":14347,"30979":14348,"ZrNiGe":14349,"1077944":14350,"MnRhSb":14351,"862602":14352,"684638":14353,"1019578":14354,"1013588":14355,"972323":14356,"1186766":14357,"1186763":14358,"NaAuIn":14359,"1224954":14360,"16037":14361,"1208265":14362,"1208287":14363,"15724":14364,"981379":14365,"1222206":14366,"1222167":14367,"NbSeCl":14368,"HfMoTc":14369,"1224810":14370,"1224875":14371,"TiFeH":14372,"1102640":14373,"1207707":14374,"1207723":14375,"1226385":14376,"1226340":14377,"CoTiSn":14378,"29069":14379,"971712":14380,"1091390":14381,"1103879":14382,"1190262":14383,"1080646":14384,"ĠAsAlGa":14385,"570355":14386,"1102925":14387,"MnFePd":14388,"976257":14389,"662563":14390,"1084838":14391,"1103608":14392,"1218812":14393,"1218850":14394,"29371":14395,"505034":14396,"1105715":14397,"1105701":14398,"1183038":14399,"1238823":14400,"1206941":14401,"1216949":14402,"1216927":14403,"1189689":14404,"541689":14405,"1095185":14406,"20708":14407,"1198114":14408,"CaAgHg":14409,"865235":14410,"568903":14411,"1226254":14412,"1226249":14413,"1025799":14414,"569044":14415,"ĠSrCaPb":14416,"1106356":14417,"31455":14418,"29585":14419,"ĠVGaOs":14420,"1205784":14421,"31234":14422,"KAgCl":14423,"ĠGaCuPd":14424,"1225023":14425,"1219034":14426,"18440":14427,"1227441":14428,"1226179":14429,"ZrCuTi":14430,"1101976":14431,"979910":14432,"7084":14433,"1104139":14434,"1104951":14435,"867909":14436,"ZrWTc":14437,"862486":14438,"1220453":14439,"1220482":14440,"675531":14441,"600125":14442,"1101075":14443,"1227246":14444,"569391":14445,"ĠZnInRh":14446,"ZrCrCo":14447,"637263":14448,"1223842":14449,"1223823":14450,"28742":14451,"SrCaPb":14452,"867775":14453,"867768":14454,"541236":14455,"13572":14456,"1104290":14457,"1218110":14458,"996940":14459,"1103346":14460,"1103359":14461,"1084767":14462,"1084770":14463,"1024052":14464,"1024051":14465,"1028586":14466,"1147709":14467,"1013643":14468,"1213974":14469,"961687":14470,"1026034":14471,"1219496":14472,"10527":14473,"1228017":14474,"571343":14475,"571370":14476,"571377":14477,"696216":14478,"984714":14479,"982725":14480,"1227014":14481,"1227038":14482,"1245538":14483,"1217763":14484,"1029686":14485,"1029681":14486,"1024048":14487,"ScAuGe":14488,"573721":14489,"1095057":14490,"1100405":14491,"ĠTiInCo":14492,"ĠHfInCu":14493,"1190880":14494,"1221319":14495,"16839":14496,"628773":14497,"1227571":14498,"1228752":14499,"1228724":14500,"1190661":14501,"1221454":14502,"972914":14503,"984704":14504,"1218262":14505,"1026356":14506,"1027608":14507,"1221789":14508,"27776":14509,"AlNbCr":14510,"1210826":14511,"1245967":14512,"541149":14513,"1195837":14514,"1101885":14515,"1101870":14516,"1101849":14517,"1184368":14518,"675920":14519,"675977":14520,"864844":14521,"14791":14522,"1103956":14523,"1019322":14524,"1215609":14525,"1025815":14526,"1247419":14527,"ĠZrCdRh":14528,"557640":14529,"TlNCa":14530,"1078574":14531,"1078514":14532,"1173050":14533,"975272":14534,"1095396":14535,"1095372":14536,"510040":14537,"1197539":14538,"1197660":14539,"1223376":14540,"1028755":14541,"556712":14542,"1102702":14543,"1200750":14544,"1220599":14545,"849054":14546,"ĠMnFePd":14547,"553875":14548,"644280":14549,"976724":14550,"972183":14551,"1078183":14552,"1191280":14553,"1194481":14554,"542138":14555,"1195855":14556,"1096810":14557,"674355":14558,"542387":14559,"1104554":14560,"1227788":14561,"1188725":14562,"1120716":14563,"644483":14564,"ĠGaHCl":14565,"560370":14566,"1208837":14567,"1206177":14568,"1189054":14569,"1193821":14570,"640041":14571,"1071623":14572,"1247004":14573,"679983":14574,"31510":14575,"510283":14576,"510696":14577,"SPSSCs":14578,"YGeSn":14579,"YBiPt":14580,"1040453":14581,"1212161":14582,"675691":14583,"961697":14584,"1192618":14585,"556005":14586,"637614":14587,"1203073":14588,"1209818":14589,"1102961":14590,"1435":14591,"31187":14592,"3862":14593,"3159":14594,"3529":14595,"3829":14596,"3704":14597,"3532":14598,"4549":14599,"4897":14600,"5129":14601,"5829":14602,"606":14603,"619905":14604,"715":14605,"7632":14606,"7881":14607,"7639":14608,"8422":14609,"8966":14610,"8543":14611,"9025":14612,"9223":14613,"9023":14614,"9868":14615,"KK":14616,"KPt":14617,"KCd":14618,"KAsSe":14619,"KBiS":14620,"KFeN":14621,"KPbBi":14622,"KSbCl":14623,"KCoN":14624,"NV":14625,"VMo":14626,"VNiSi":14627,"VCoGe":14628,"VCrFe":14629,"VCoP":14630,"YSc":14631,"YCr":14632,"ĠInMo":14633,"ĠInGeTe":14634,"ĠInSiPt":14635,"ĠAlCrRu":14636,"ĠTiV":14637,"ĠTiCrAs":14638,"ĠTiInPt":14639,"ĠNiSn":14640,"AlPd":14641,"AlIn":14642,"AlMoSi":14643,"ĠPdCs":14644,"ĠHfTiZn":14645,"ĠZrNb":14646,"ĠZrTaCo":14647,"ĠCaYRh":14648,"ĠCaYPt":14649,"ĠCaMnS":14650,"20152":14651,"20199":14652,"20793":14653,"20331":14654,"20244":14655,"FeNb":14656,"FeAsS":14657,"FeCoS":14658,"FeMoP":14659,"ĠMoWS":14660,"ĠYSc":14661,"ĠTaInSe":14662,"ĠTaVH":14663,"ĠScOs":14664,"TiPt":14665,"TiRb":14666,"TiNiSi":14667,"TiVSe":14668,"TiRuAs":14669,"ĠZnHgS":14670,"ĠZnHgSe":14671,"PdAsSe":14672,"InV":14673,"InSi":14674,"InNi":14675,"InAg":14676,"InGeTe":14677,"NiV":14678,"NiTi":14679,"NiAuSn":14680,"ĠGeZn":14681,"ĠCoMo":14682,"ĠTeW":14683,"ĠTeMo":14684,"ĠFeTc":14685,"ĠCrFeAs":14686,"ĠCrMoV":14687,"PtBi":14688,"PtAsS":14689,"PtPdZn":14690,"PtPbTe":14691,"10223":14692,"10895":14693,"10137":14694,"1021328":14695,"ĠMnCrN":14696,"ĠMnCoSn":14697,"ĠSrNi":14698,"ĠSrNb":14699,"ĠSnCd":14700,"ĠSnPbSe":14701,"GaZr":14702,"ĠNaSnP":14703,"ĠNaFeN":14704,"ĠAgSnSe":14705,"ĠAgPdAu":14706,"ĠAgSbTe":14707,"ĠAgBiSe":14708,"1252":14709,"12119":14710,"12115":14711,"12731":14712,"RhCoS":14713,"RhPtCd":14714,"ZnC":14715,"ZnRh":14716,"ZnAu":14717,"ZnTl":14718,"ZnPS":14719,"ZnCdSb":14720,"ZnSnN":14721,"CuSbS":14722,"CuZrSi":14723,"CuSbSe":14724,"ĠKPt":14725,"ĠKCd":14726,"ĠKBiS":14727,"ĠKZnAs":14728,"ZrNb":14729,"ZrPbS":14730,"ZrFeSi":14731,"ZrTiRh":14732,"ZrTiFe":14733,"ZrCrMn":14734,"ZrTaCo":14735,"ZrMoFe":14736,"HfSeS":14737,"HfPtGe":14738,"HfCrAl":14739,"HfMnGa":14740,"HfTiZn":14741,"AgN":14742,"AgSnSe":14743,"AgSbTe":14744,"AgCrSe":14745,"6757":14746,"6756":14747,"6749":14748,"3345":14749,"5405":14750,"5485":14751,"5414":14752,"54282":14753,"CoNb":14754,"CoSeS":14755,"CoPS":14756,"CoTeSe":14757,"4366":14758,"4392":14759,"RuNiSb":14760,"9693":14761,"9687":14762,"IrAsSe":14763,"11167":14764,"11123":14765,"11739":14766,"11719":14767,"NbPdSi":14768,"NbCrGa":14769,"NbReSi":14770,"ĠPbSnS":14771,"AuHg":14772,"ĠCdZr":14773,"4267":14774,"4247":14775,"4252":14776,"6933":14777,"6916":14778,"6979":14779,"TaPbS":14780,"TaInSe":14781,"ScV":14782,"ScTi":14783,"ScRe":14784,"ScAgZn":14785,"ScCoAl":14786,"ScIrGe":14787,"ScTaN":14788,"ScMnGe":14789,"ScTlS":14790,"556916":14791,"1684":14792,"1639":14793,"16304":14794,"16961":14795,"16335":14796,"16090":14797,"16687":14798,"ĠReSc":14799,"0565":14800,"ĠRbNH":14801,"ĠRbCaCl":14802,"2286":14803,"22522":14804,"22857":14805,"22418":14806,"22506":14807,"22936":14808,"5350":14809,"CrCoP":14810,"CrNiSb":14811,"CrMnN":14812,"CrMoV":14813,"CaGe":14814,"CaYRh":14815,"CaGaSn":14816,"CaYPt":14817,"CaAgP":14818,"CaMnS":14819,"CaSrPb":14820,"1511":14821,"1527":14822,"15687":14823,"15868":14824,"MnTi":14825,"MnCr":14826,"MnAlGe":14827,"MnIrSi":14828,"MnCoSn":14829,"CdGe":14830,"CdAsP":14831,"CdSnAs":14832,"7173":14833,"7191":14834,"7198":14835,"2199":14836,"21459":14837,"21851":14838,"21774":14839,"21883":14840,"21547":14841,"4013":14842,"PbPS":14843,"PbSnSe":14844,"PbHfS":14845,"ĠHgPt":14846,"ĠHgGaCl":14847,
[...]
